#version: 0.2
न ा
ा य
न ि</w>
ल ा
ब ा
र ा
ज ा
न ो</w>
थ ा
ब ि
ख ा
म ा
ो न
ख ौ</w>
ह ा
स ा
ग ा
न ै</w>
ग ो
ो ं
् र
ना य
ना नै</w>
स ि
ो र
न ्
द ा
म ोन
ा व</w>
ना य</w>
ज ो
ब ो</w>
ब े
ब ु
ि य
फ ा
ब ्
ो ।</w>
स ो
ब ाय
म ो
न ि
आ र
् रा
. .
द ों
स े</w>
फ ोर
द ि
ह ो
आर ो</w>
थ ि
ल ा</w>
जो ं</w>
ब ो
स े
ब ा</w>
ज े
ज ि
म ा</w>
ं ग
ल ाय
न ो
द ो
र ि
स ु
न ा</w>
ल ि
ग ु
ब े</w>
ज ाय
फ ि
द ि</w>
ै य
ग ि
म ि
बु ं
बा य</w>
आ ं
म ु
ख ो
खा ला
ल े
फ ो
ब् ला</w>
था ं
र ि</w>
ख ौ
सा न
ह ाय
थ ाय
द े
ख ु
ा ।</w>
न ों
्र ा</w>
द ु
बाय ।</w>
िय ा</w>
स ो</w>
खाला म
फ ै
ब् ला
फ ्रा
दों ।</w>
य ो</w>
गा व
ह र
र ाय
स ोर
र ्
ल ो
आ ं</w>
ज ों
व ा
रा व</w>
। "</w>
मा न
म े
स ै
य ा</w>
दो ं</w>
ला ं
फ्रा य</w>
ाय ा</w>
ह ा</w>
नाय नि</w>
न ु
ल ु
नि फ्राय</w>
िय ा
था य</w>
ग े
स ्
.. ..
न ै
ना व</w>
ङ ा
मोन ।</w>
व ा</w>
बि यो</w>
ब र
ख ाय
द ा</w>
ना ंग
व नो</w>
ह ोन
र ा</w>
ख ि
स ्र
थ ु
ज ु
ल ʼ
खा ं
ङ ा</w>
थ ि</w>
खा र
ना ं
ग ोन
र ु
ला इ
फ ु
य ा
ह ि
म ्
र ो
र े
नो ं</w>
ना थाय</w>
बा थ
गो न</w>
बा दि</w>
द ै
स ा</w>
ख ै
िय ाव</w>
म ाय
रा व
मो न</w>
स मा
नाय ाव</w>
द ं
ग ्
ह ै
फोर ा</w>
- -
ला य</w>
ग ैय
ख ्र
ओ ं
मा व
ह े
ख े
था इ
गो सो
ज ा</w>
था र
खा य</w>
फोर खौ</w>
स ै</w>
मो जा
बा र
ए बा</w>
फ ा</w>
स ाय
बा व
न् द
स ि</w>
बि नि</w>
ट ा
ल ि</w>
फि सा
र ै
गाव नि</w>
? "</w>
गा र
मान सि
फो र</w>
हा ग
नाय ा</w>
आ व</w>
सो र</w>
ल ्
ब ्र
ल ʼ</w>
गु बु
ह म
ह ु
जो ब
सै ।</w>
थ े
ब्ला बो</w>
य ाव</w>
मोन से</w>
-- "</w>
गे जे
आं नि</w>
फा व
क ा
दा व
ग ाय
फोर नि</w>
बा ं</w>
रा इ
ङ ाव</w>
था खाय</w>
र ी
न नि</w>
थ ा</w>
र नि</w>
ब ै</w>
ख ा</w>
मोन ्
ङ ो।</w>
ख ्
बर ʼ</w>
द ै</w>
उ नाव</w>
गोन ।</w>
स लʼ
दों मोन।</w>
थ ʼ</w>
मोजा ं</w>
ना नै
ला नानै</w>
अ न
मा नि</w>
गुबु न</w>
खौ नो</w>
ब ोर
म नि</w>
जाय ो।</w>
प ा
नाय खौ</w>
हा ब
द ोन
ौ ।</w>
ग ो</w>
क ्
स ं
ग ्रा</w>
फा र
ङ ै</w>
व ाव</w>
्र ि</w>
क े
न े
ना ं</w>
जा नो</w>
फ े
्र ि
थ ो
सा व
मि थि
ङ ो</w>
ं नि</w>
ब ि</w>
ब ै
रा ं</w>
ज ोन
जा नाय</w>
ख ो</w>
लो गो</w>
फ ्र
न् थ
फि न
जा नानै</w>
लि र
न् थि
न ङा
गि र
रि नि</w>
ल ों
हा ं
मा नो</w>
ज ौ
त ा
आ फा
बे नि</w>
सि गा
ख ʼ
ज ्
फ राय
गो नां</w>
न् जा
था नाय</w>
थ ʼ
ट ि
बि सोर
बा ं
थ ै
गा सि
गा ब
बाय दि</w>
ङ ा।</w>
ग ्रा
फ ्
मु ं
ओं खार
गो दा
न ो।</w>
य ो।</w>
फ ैय
ग ा</w>
ल ै
जे बो</w>
ङ ो
गो सो</w>
बाथ ्रा
नांग ौ</w>
र ै</w>
था इ</w>
ग ्र
लो गो
सा र
सि न</w>
गा व</w>
सा से</w>
जा ब
ट े
प ्र
नाय ा
दे र
दों मोन</w>
न ʼ
हा म
बि फा
- -</w>
ला व</w>
बे खौ</w>
स ों
दि नै</w>
समा व</w>
सो दो
नों नि</w>
बा व</w>
हा बा
था व
ग ं
आ ले
खौ बो</w>
रा म
नाय ,</w>
होन ्
रा म</w>
ज ौ</w>
ज ो</w>
म ले
द ो</w>
दं ।</w>
सो म
ख ि</w>
खो ना
बा द
हो नो</w>
ख र
फ ्रा</w>
रा ं
ख न
हाय ा
हा बा</w>
राइ जो
मे ग
खाय नो</w>
फोर माय
ज ʼ
खै ।</w>
थु न
ल ै</w>
न् दु
हा र
ष ्
ज ि</w>
बर ʼ
मो ना
बा दि
आ इ
साय ाव</w>
हि न्जा
थ ो</w>
खा व
हा य</w>
जे रै
गि दि
खालाम नो</w>
स म
गो बां</w>
गा ज
म ै
ग ै
आं खौ</w>
प ु
न खौ</w>
हो नानै</w>
स ्रा
सा न्
मा इ
व बो</w>
आ खा
र ं
रा य</w>
जों नि</w>
स्र ि
म ह
न ङा</w>
प ्
दि न्थि
दा न
गो जा
गेजे राव</w>
ख ु</w>
ैय ा</w>
ल नि</w>
खालाम नानै</w>
ला बो
बि खौ</w>
भ ा
थ िया</w>
गोदा न</w>
आ य
मि नि
बे से
ए से
ओं खा
बाथ ्रा</w>
जा बाय</w>
ए से</w>
ना गिर
गि रि
प ि
हा द
बा हाय
जा दों।</w>
.... ....
फु ं
न ङा।</w>
मो खा
मा बा</w>
द ं</w>
ड ा
मा हा
जो बो
त ि
ंग ्रा
होन नानै</w>
द ाय
खा लि</w>
ब य
फाव थाइ
जाय ा
िय ा।</w>
मा व</w>
बि ब्
दा व</w>
ो ,</w>
आ खु
र् जा
दा ं
जि उ
बि बा
सि म</w>
था व</w>
सि ं</w>
नांग ौ
आ ना
गि रि</w>
थि ं</w>
खो म
म हर
जा य</w>
व ।</w>
आ लाइ
आ सा
गो र
न् दा
था ं</w>
स्र ि</w>
फ्र ाय
ो म</w>
बु ं</w>
नाय ।</w>
खे व
.. .
स ौ
लाय ा</w>
द र
जा दों</w>
गासि नो</w>
य ै</w>
श ा
सान ै
आ ब
ला इ</w>
ग ौ
ग थʼ
ग ʼ
सु बुं
फि सा</w>
स ʼ
थाय ाव</w>
ख ्रा
जा बाय।</w>
ोन ा</w>
ज ोर
ख ै</w>
खा थ
बुं नो</w>
ड ि
गैय ा
नांग ौ।</w>
ोन ।</w>
बि सोर</w>
सि ख्
ण ्
बे फोर</w>
बि जि
नि फ्राय
था र</w>
गाज ्रि</w>
गा ं
राव बो</w>
बाथ्रा खौ</w>
होन् नानै</w>
फ ाय
बि ना
बि दि
था म
ो ब्ला</w>
हो नाय</w>
मि नि</w>
हा रि
ला नो</w>
जाय ा</w>
सा इ
क ु
गैय ा।</w>
ल ियाव</w>
म ाया</w>
ब् रा
मा नि
ग ौ</w>
्र े
न ं
आफा द
हा ं</w>
बाय दि
था नो</w>
ो म
ह ौ
लु ं
उ न्दु
आ थि
ला नि</w>
खाय ाव</w>
ै नो</w>
सोदो ब
नाय सै।</w>
मो दो
फ ं
मु लु
शा न्
र ी</w>
बे खेव
दों मोन
गैय ा</w>
अ र
ब्ला नो</w>
सि ं
सा र</w>
ल े</w>
दों ,</w>
द ङ
ना जा
खौ ।</w>
क ल्
म् ब
खां नानै</w>
ज् लाय
लोगो से</w>
दि नै
थां नानै</w>
रा जा
आ व
हा नाय</w>
न जा
गो ग्
अ ज
जाय ो</w>
आ दा
म न्
ब्ला ,</w>
मा र
कल् प
न् था
फार से</w>
मा खा
ब सु
खाथ ियाव</w>
हाय ा</w>
बाय ,</w>
र ,</w>
जा ब</w>
ी या</w>
सि ङाव</w>
रा जा</w>
दु खु
स न
ह ो</w>
बि सि
ला व
बोर ै</w>
द ्र
िय ै</w>
सु ं
नों थां
दि ,</w>
गो नां
थि नि</w>
ोन ्
बि मा
थाय ो।</w>
बि थां
न् दा</w>
ल ु</w>
र जों</w>
आले या</w>
सि न
ह ्
ल िया</w>
गा हा
गा न
क ि
स म</w>
बि लि
जों नो</w>
रा ज
गा म
हाय ा।</w>
र खौ</w>
म हा
ब नानै</w>
था म</w>
दि हु
ैय ा
बिजि र
रं जा
दु र्जा
ला ङो।</w>
नों खौ</w>
ाय ाव</w>
हाग ौ।</w>
ल ो</w>
म ै</w>
नु नानै</w>
जेरै -</w>
जि उ</w>
नो जोर
ना मा</w>
गा सै</w>
गा मिनि</w>
मान ोना</w>
ब्र ह्
स र
ब ो।</w>
बे यो</w>
य ो
थि ं
रा मा</w>
ब ड
सा लि
फो रा
ए न</w>
जे रै</w>
मा न</w>
न वाव</w>
मोन ा</w>
बा रा</w>
न् दि
ना व
त े
खि सै।</w>
मान सि</w>
नो ,</w>
थाय ा</w>
जे ं
आखा इ
गा सै
सोर बा</w>
लाय ाव</w>
माय ाव</w>
मह र</w>
खो मा
था ङा</w>
गो ख्र
ओंखा म</w>
मानसि या</w>
माखा से</w>
प े
गो हो
खे ब
जा गोन</w>
स नि</w>
ल खौ</w>
बे र
फो राव</w>
नाय जों</w>
सि नाय
साय ा
आं ।</w>
हिन्जा व
स ो।</w>
बिसोर नि</w>
नांग ोन।</w>
गाय ाव</w>
थि खौ</w>
सोर नि</w>
बा न
सिगा ं</w>
मोन ो।</w>
ब बे
गो रो
गि बि</w>
द ʼ</w>
सो मोन्
नु नो</w>
नानै ।</w>
ला खि
बय बो</w>
लाय ो।</w>
जि राय
ग ै</w>
लि ं
थां नाय</w>
जोन ोम</w>
आ ख
बि मा</w>
आ ला
ला मा</w>
ब ु</w>
ाय ा
बु ङो।</w>
बिब् दि</w>
द ्
जोबो द</w>
आ दा</w>
अ ल
र िया</w>
बु ङो</w>
बसु म
न् थि</w>
इ रा
जा गोन।</w>
उ न</w>
0 0
से प्
शान् त
लाय नाय</w>
दा ं</w>
मन् जु
म न
जे न
गो म
अ ना
मा ब्ला
बा र</w>
मि हि
मा थो</w>
द से</w>
थ ों
पु लि
दु खु</w>
निफ्राय नो</w>
क म्
बे नि
बा इ
गासि बो</w>
खा फा
खा नि</w>
सेप् ते
लाय ा
ग लʼ
इ ं
हाग ौ</w>
सा ब
मो सा
गं से</w>
स ाया</w>
म खौ</w>
बा हा
बसुम ता
ना नि</w>
त ु
ण् ड
्र ाया</w>
म्ब र</w>
माहा जोन
न्थ ्रि</w>
द दे
गोग् लै
गु बै</w>
आं हा</w>
ंग ि
हे ं
बो है
जा रि
ल िया
1 9
स्र ी</w>
न ,</w>
अ जि
रि खौ</w>
नाय हर
थाय ा
गु वा
अन गाय
हो यो।</w>
सि या
सा से
फा ं
न ंग
थ िय
सि रि</w>
लाय नानै</w>
बा ज
फैय ो।</w>
ददे रे
द ौ
थ ै</w>
री या</w>
मेग न</w>
बु ङो
आ द
ब्र ै</w>
बा वनो</w>
ख्र ु
अ न्
र िया
फोर जों</w>
न् ट
! "</w>
हिन्जा व</w>
सि म
रा हा</w>
मा खौ</w>
ब ्रा</w>
अ लʼ
ंग ा</w>
ला नाय</w>
ल ी
बा नो</w>
ना ,</w>
जा व
जा नाय
दा य</w>
इरा ग्
भा र
टा र</w>
गो रा</w>
ख्र ि
स लʼ</w>
दु ं
सो लों
फै नानै</w>
नो बो</w>
थ िया
ैय ाव</w>
दा जाब
हा रिनि</w>
सु बुं</w>
लाइ जा
बुं नाय</w>
थाय नि</w>
जारि मि
मोखा ं</w>
ग िया
मोन नाय</w>
बो नाय</w>
ख्र ि</w>
ंग ्रा</w>
हो म
म द
फिसा जो
ट ि</w>
गा नि</w>
हाय ाव</w>
ल ,</w>
ब् लि
दिहु न
झ ा
से ंग्रा
सा व</w>
बे नो</w>
बे खौनो</w>
फा न
दा बो</w>
लाय नो</w>
बो र</w>
गो जौ</w>
लु बै
फ ाया</w>
नि बो</w>
खर ʼ
ख र</w>
हा रि</w>
सु लुं
बे ल
गासै बो</w>
खा ं</w>
ग र
र ों
मानसि नि</w>
स ौ</w>
जा थाइ
ग सं
अजि त
ह ैय
लां नाय</w>
तु ला
गो जोन
आखा इ</w>
बाय -</w>
नाय नो</w>
जो हो
गोसो आव</w>
ला सै</w>
दा नो</w>
समा वनो</w>
फा ग्
गे ले
सुलुं आव</w>
लां नो</w>
ला ।</w>
ला ,</w>
द म
थि न
गेजे रजों</w>
हां खो
मा नो
नʼ वाव</w>
i n
महर ै</w>
नि ।</w>
दा उ
थुन लाइ
स्रा ं
साव राय
त ि</w>
सा न</w>
स माय
बाय --</w>
द िया
हाय ो।</w>
राइ जो</w>
बुं बाय</w>
द े</w>
जिउ नि</w>
हाग ौ
जे ब्ला</w>
अ ब्ला</w>
बे ं
कम् पि
सि खार
रि ं
नो सै</w>
नाय नानै</w>
खा मानि</w>
- फा
र ʼ
नु जा
कम्पि उ
आ फा</w>
अलʼ क
मा वनो</w>
बुं नानै</w>
जा से</w>
रा ।</w>
ट ्रे
गोसो खौ</w>
खा मानि
क ले
सोर जि
थां नो</w>
गोसो नि</w>
बां सिन</w>
न् नानै</w>
आं बो</w>
मोन नि</w>
भ ु
बाहा गो
ना र
सोदो ब</w>
सा लियाव</w>
बिलि फा
दों -</w>
थे वबो</w>
टा र
हाद ोर
बेसे बा</w>
गाव नो</w>
हौ वा</w>
ला खौ</w>
बाय ा
गो मा
गार नानै</w>
सै ,</w>
ध ोर
ख न्
ह र</w>
म ी
बुं नाय
बरʼ नि</w>
गा रां</w>
बा हाग
त ्
जो र</w>
गा र</w>
आ खायाव</w>
.. .</w>
स्र िया</w>
या वनो</w>
बि दि</w>
थो न</w>
ट ्रा
गाहा इ</w>
ल िया।</w>
ना रि</w>
द ो।</w>
थ ौ
गो हो</w>
गा हाय</w>
हा र</w>
री नि</w>
भ ि
बिब् दि
ब ʼ
गो बाव</w>
गा रि</w>
खा न्थि
बादि ब्ला,</w>
ड े
जे ब्लाबो</w>
ो ।
सुं दʼ</w>
लां बाय।</w>
खौ रां</w>
t i
स न</w>
मोन नो</w>
बि र
खि न्था
सु र
रि ,</w>
नों सोर</w>
ग्र ो
हे फा
सा नै</w>
लु ब
मो खां
फै नाय</w>
दै दे
खु ं
2 00
सेप्ते म्बर</w>
राम -</w>
मो नो</w>
जा खो</w>
व ा।</w>
ला जि
मा लाय
ना इ
थाव ना
बे से</w>
फो थाय
ट ा</w>
गिर िया</w>
e r
नङा ,</w>
ङ ै
उ न
से नि</w>
सा हा</w>
मा बोरै</w>
मले ना</w>
बाहाग ो</w>
क् ट
मा ।</w>
फै नो</w>
प्र े
नि ,</w>
दा ब
खै फो
सिगा ङाव</w>
बे बादि</w>
गोर ोन्
मोजा ङै</w>
मो दै</w>
फ्र ोम
फैय ो</w>
फि न</w>
खा थि</w>
.... .
- बि
सिगा ं
द ोर
था खो
जाय गा</w>
लाय ।</w>
रो खो
मा लाय</w>
बि लाइ
फोर ों
थु म
ल ी</w>
जा नायनि</w>
गु र
हाब नानै</w>
सि मा
राम ना
बेनि खायनो</w>
नङा ब्ला</w>
थावना दि,</w>
थ े</w>
गो बा
गो दो
गेजे र</w>
खा म
आ इ</w>
लो म
मुलु ग
फावथाइ नि</w>
ना थाय
गोन ,</w>
खो था
आ ग
अ रु
हा नि</w>
जि ल्
खर ʼ</w>
से बो</w>
ला उ
बे याव</w>
गा खो
आं नो</w>
ी ,</w>
हो दों।</w>
सु जु
सा न्द
मन जु
फार िया</w>
न् था</w>
दा नि</w>
था ब
गो रा
ख ाया</w>
हम नानै</w>
मिथि नो</w>
फिसा ज्
द न्दा</w>
द ʼ
इ न
न िया
थाय ो</w>
गोन ।"</w>
खौ रां
ए म
हाबा फा
न ख
दैदे न
एसे बां</w>
अ ब
री ,</w>
मा ,</w>
फाव थि
नोजोर थावनादि,</w>
था खाय
गोख्र ो
उ द
आफाद नि</w>
ै बो</w>
सान से</w>
बे द
फोरमाय नाय</w>
ज नि</w>
गो लाव</w>
खा मान
आ खु</w>
- बा
होन ना</w>
बड ़
जा हो
उ न्द
- दा
हा बो</w>
बा रा
फो जोब
ना खौ</w>
खालाम नाय</w>
सो माव
लि नि</w>
बेखेव गा
जौ गा
खि सै</w>
अ म
श ्
मु स्री</w>
बो सोर</w>
नों सोर
थे फे
थ ौ</w>
ज ै
ं ,</w>
सि नि</w>
सानै बो</w>
सान नानै</w>
थ ोर
गाव खौ</w>
खा नाय</w>
ला ब
मोन बाय।</w>
नों थाङा</w>
द ाया</w>
ग ौ।</w>
हाय ै</w>
म् बा
बि बार
ना वनो</w>
थ ्र
जा दोंमोन।</w>
हा खौ</w>
हम नो</w>
लो ब
रु वा
मोन नै</w>
नि ख्रु
ट नि</w>
जʼ वा
गु न्दा
ग थʼ</w>
इ न्
ं खौ</w>
सो नानै</w>
व ,</w>
बे निफ्राय</w>
बि खायाव</w>
बा जि
नानै बो</w>
... .</w>
हे र
लां बाय</w>
जो म
गो मो
िय ो।</w>
बि हा</w>
फाव थाइ</w>
दा म
गो जौ
गा न</w>
: -</w>
य ा।</w>
बै सो
बादि नो</w>
जोबो र</w>
गे दे
अ ख्रा
हा जʼवा
सो न</w>
ला ंग
मु वा
नां गोन</w>
ना ।</w>
दा इ
च ि
गैय ै</w>
खे ं
आ र</w>
। '</w>
ल ं
बो सोर
बि खा</w>
फ्रोम बो</w>
न जों</w>
जाय ो
खाला व</w>
हा ट
सि या</w>
ला मा
राय ज्लाय
हा :</w>
राइजो नि</w>
माय ा
बाद ल</w>
था नानै</w>
गां से</w>
हा र्
मोन हा</w>
ब हा</w>
नाय सै</w>
था बाय
् र</w>
हा व
समा य</w>
रा न
मोन से
बे व
थो ं</w>
ट ʼ
जों थिया</w>
गिदि र</w>
आर ो
हौ वा
सा ंग्रा
य ु
न ʼ</w>
दुर्जा ङा</w>
थि ङै</w>
जाय गायाव</w>
जा व</w>
गा इ
क क
अनगाय ैबो</w>
r a
हा ला
ले खा</w>
ला ङो</w>
बु ङा
ज ्रि
खु लु
खा र</w>
स खौ</w>
मोन बाय</w>
बु जि
फोरमाय दों।</w>
फो साव
नो जोर</w>
गोख्रो ं</w>
खौ सो</w>
खा बु</w>
t h
हि सा
सा म
महा राजा</w>
बाथ ्राया</w>
बड़ ʼ</w>
दों ।"</w>
खो मा</w>
िया रि</w>
हाय ो</w>
सलʼ नि</w>
बि माया</w>
फा हाम
थिय े
गो र्
खा न्थि</w>
अ खा
सोमाव सार
सो लाय
से र
राय ा</w>
रा वनो</w>
माब्ला बा</w>
म न्थ्रि</w>
फै दों</w>
फिसा इ
फा र्
द ्रा
था ब</w>
जो न</w>
गिदि ं
ग ि</w>
खां नाय</w>
हो नायनि</w>
लिर नाय</w>
राव नि</w>
बु र
लां नानै</w>
बि मानि</w>
बायदि ।</w>
बाद ला</w>
ना ङा</w>
जि ब
क ा</w>
हां खो</w>
श ्र
ला ं</w>
मोखा ङाव</w>
बिदि ब्ला</w>
न्द ाया</w>
जा र</w>
e n
साइ के
राव खौ</w>
फै दों।</w>
न् दे
द नि</w>
जों बो</w>
जा र
ी नि</w>
सिख् ला
रु माव</w>
बे ला
बे फोरखौ</w>
बि यो।</w>
फि न्
दङ ʼ
गिरि फोरा</w>
खै मोन।</w>
ए रै
ला ङो
राजा नि</w>
बि गु
न् ज
नाय जाब
नाय -
ना र्जा
दु ं</w>
था खायनो</w>
गोसो आ</w>
गुवा हाट
हि नजा
सोम बोर</w>
स मनि</w>
म् बर
बा बो</w>
फा ं</w>
तुला राम</w>
आना री
सा नो</w>
लुब ैय
मोन ब्ला</w>
मद द</w>
बिफा नि</w>
फा इ
था ङो
ट खौ</w>
क ʼ
ओंखा र</w>
आब ौ</w>
आथि खालाव</w>
ंग ्र
) ।</w>
ह गार
से नो</w>
सलʼ मा</w>
ले ं
रा गा</w>
मो सौ</w>
मे हेर
मिहि रा</w>
बुं हर
दे ं
था ङा
गिदि ं</w>
ए र
हो बाय।</w>
सि ना</w>
स ु</w>
म ʼ
बोर ाय
बिबा र</w>
फोर नो</w>
फै बाय।</w>
पा र्
न निफ्राय</w>
ज ्रा
आले खौ</w>
आ नजा
हा ।</w>
स् क
सा य</w>
रा इ</w>
म ,</w>
भार त
बु थार
बिसोर खौ</w>
फैय ा
फै बाय</w>
फ ै</w>
न्द ्र</w>
गो ब्रा
ग य
खौ लʼ</w>
उ दां</w>
इराग् दाव</w>
ह ै</w>
मोन् नाय</w>
मोन ,</w>
ब्र ै
बि जाब
बाहाय नाय</w>
नाथाय ,</w>
दा र</w>
हैय ो।</w>
हर नानै</w>
स् टे
सो द्र
सु थु
सि खा
मी ना
नि नो</w>
गाम ि</w>
खोना नानै</w>
ख ʼ</w>
" मा</w>
बिथां नि</w>
फ्र ु
नाया नो</w>
न िया</w>
द या
जा थाय
गोरो ब
आलाइ स्रि
हाग ्रा
सलʼ मानि</w>
रि ।</w>
रा झा
य ै
बा नि</w>
है नो</w>
हें था</w>
से या
म् भ
मोजा ं
फिन ो।</w>
नानै नो</w>
गैया ,</w>
o n
a n
" आं</w>
ैय ै</w>
हा बाय
ष् ट
ला -
नों नो</w>
नो थʼ</w>
जा बो
जा बाय
. ए
हो बाय</w>
हाय नो</w>
हा न्
ह ʼ
स ,</w>
बिसोर ो</w>
दि ल्
दम न</w>
थां खि
खां नायनि</w>
हादोर नि</w>
म ैया</w>
ब्र ु
बोर ै
बेसे बां</w>
बि नो</w>
बान जाय
ना ङा
न ।</w>
दु म
जु नै</w>
गाइ खे
गा ग्
कम्पिउ टा
सोम जि
सान्द ो</w>
लां दों।</w>
रै खा</w>
मु ं</w>
भ े
थ ु</w>
जु ना
गा से</w>
क र्
इ उ
। )</w>
हेफा जाब</w>
हर नो</w>
या बो</w>
मि जि
जाय ा।</w>
क् स
अज या</w>
o u
सोमोन् दो</w>
लि ,</w>
रोखो मनि</w>
ब बाव</w>
दे हा</w>
गि रिनि</w>
खोना सं
ओ न
अ राय
िय ो</w>
हम बाय।</w>
ह राव</w>
से ंग्रा</w>
सिख् ला</w>
र ।</w>
बिब्दि नो</w>
नै सो</w>
थि उ
थाय ै</w>
जा ब्ला</w>
ज नानै</w>
गाज ्रि
खु गा
उ जि
आसा मनि</w>
देर हा
ज िया</w>
गाव बु
खु र
रो खा</w>
ब्ला सो</w>
बा गै</w>
फिसा जो</w>
नाय गिर
दु ला
खाय ा
आले नि</w>
हाबा नि</w>
सिम बो</w>
सि नो</w>
स ʼ</w>
ला मायाव</w>
बिना नाव</w>
बि सि</w>
जि रा
जाय खौ</w>
गा बो
इ से</w>
आ ंग
हर खा
सुबुं नि</w>
स ्रा</w>
व सो</w>
य े
दा न</w>
थो र</w>
थ र
खुलु म
अना थ
e s
हे :</w>
हा -
सि ला
सा न्थ्रि</w>
स हे
म्भ ी
म ंग
बो नानै</w>
नाया वनो</w>
दो र</w>
था नायनि</w>
ग म्भी
ओ रै
ए ं
आ बुं</w>
- सान
हि :</w>
बुङो -</w>
बुं दों</w>
फ ाव</w>
नानै ,</w>
ना बो</w>
ना -
दुला राय</w>
दान िया</w>
दा न्दि
जिउ खौ</w>
गि बि
गा हाम
खा ङो।</w>
ख म</w>
अ मा</w>
ो -</w>
ै नि</w>
हार िया</w>
हर नि</w>
सान् नानै</w>
सा जा</w>
राय लाय
र मे
न् द</w>
न् ट</w>
जों ।</w>
गा ब</w>
खालाम ो।</w>
आ गान</w>
स्रा ं</w>
ल -
रा गा
मु वा</w>
मानसि खौ</w>
बि लाइ</w>
बा नाय
न् दै
दा ,</w>
थे ले
जा फुं
जा ग्रा</w>
! !</w>
। ।</w>
मोना ।</w>
मा बा
म ध
बि फा</w>
पुलि स</w>
ना र्
जि त</w>
जि ंगा</w>
गाहा म</w>
आरो बाव</w>
अ राय</w>
है बाय।</w>
सोद्र ो
सि खौ</w>
सान से
लाय ो</w>
मो दै
मा बार</w>
मा -
बि हाम
फराय सा</w>
न्थ ्रि
नाया बो</w>
दं ,</w>
थ ोन
थ िया।</w>
जा खां
खोथा खौ</w>
खै मोन</w>
ख ोन्
ओन सो
हा ब</w>
स् कु
फो ले
फु ं</w>
नंग ौ</w>
दो न</w>
जा ं
आइ जो
1 .</w>
हो यो</w>
हर ो।</w>
ल ं</w>
मुं खʼ
मा र</w>
ब्र े
नाय निफ्राय</w>
दाव हा</w>
थुन लाइ</w>
था खो</w>
ति ता
ङा वनो</w>
गोरोन् थि</w>
खामानि खौ</w>
अज य
' '
हिसा बै</w>
सान बाय</w>
बिदि नो</w>
बा राय
बड ʼ
फ्रा म
फै गौ</w>
नो सै।</w>
थाखो नि</w>
जोब नो</w>
खोम सि</w>
खा ङो</w>
ख ल
आ ल
अ नि
सि बि
सं सा
व े
र न्ज
मे ले
मुलुग नि</w>
फोरा बो</w>
फै फिन
दि न्थ
ण् ड</w>
ग ं</w>
क म
क नि</w>
उन्द ै</w>
उ नावनो</w>
इ यु
o r
) ,</w>
हि न
ह रा
सि याव</w>
शान्त िया</w>
व नि</w>
र ु</w>
बि थिं
फं बाय</w>
न -
ध ु
दङ ।</w>
था बाय</w>
जे से
जा खौ</w>
गोसो म</w>
गे व
ग ला
दं मोन।</w>
से याव</w>
समा जनि</w>
ष् ट</w>
वा बो</w>
बबे खानि</w>
प ि</w>
दा खौ</w>
जे राव</w>
जा लाय
गोसो खां
गोजा नाव</w>
गो जोन</w>
खु गा</w>
क मा
. .</w>
हा इ
ला फा
राव ाव</w>
मुं .</w>
मानसि फोरा</w>
मले न</w>
ब्ला -</w>
न् नाय</w>
नों थां</w>
नानै सो</w>
ना ङा।</w>
दि न
जाय नि</w>
खालाम दों।</w>
कक राझा
ं क
2 .</w>
हे ला
स्र ो
सि ङै</w>
रा ंनि</w>
मालाय नि</w>
बो सोरनि</w>
बा रु
नो सै
थाम हिन
गु दि</w>
खा नानै</w>
ख े</w>
हाग ्रा</w>
से राव</w>
मोन गोन।</w>
मान े</w>
बि न
ब बे</w>
फार से
दे नानै</w>
थुन फावथाइ
जे न</w>
खन् थाइ
आसा म</w>
आ थोन</w>
ं -
a r
' '</w>
सोर खा
सि थ
सा रि</w>
ला बाय</w>
रो ङा
मोन खौ</w>
मे थाइ</w>
बै सा
बि दा</w>
बायदि सिना</w>
नाय बादि</w>
द िया</w>
थार ।</w>
था ङो।</w>
जाय ै</w>
गो थार</w>
गलʼ वा</w>
गम्भी र</w>
खौ ,</w>
आलाइ स्रिया</w>
ंग ु
हा गोन</w>
सो लि
सिखार नानै</w>
सा ना</w>
शान् ति
ल ैय
रै खाथि</w>
रा वा</w>
बो ला</w>
बा बु
बा द</w>
पा रे
नों हा</w>
नो ।"</w>
नो गो
नां नाय</w>
ददेरे या</w>
द खौ</w>
था रा
तिता गु
इ न्दि
आंग ो</w>
अल का
अनगाय ै</w>
अ फिसा
हाबा खौ</w>
सि रि
लि खौ</w>
ला बाय।</w>
मो सा</w>
मा य</w>
बेव हाय</w>
बे रे
दोन ्
टि ं</w>
गाय ा
ख्र े
एसे बो</w>
अ सम
अ पारे
हाया खै।</w>
स्र े
स् ला
सोमोन् दै</w>
सु खु
मोदो माव</w>
मुलु गाव</w>
मु ङा</w>
मु ंनि</w>
मा ब्ला</w>
मा दाव</w>
फ ʼ
प्रे मध
निख्रु इ</w>
ट ाव</w>
गोजा म</w>
ख हा</w>
ए म</w>
आ न्दा
o f</w>
होम ब्ला</w>
मोदो म</w>
मु गै
मिथि गौ</w>
बि थाङा</w>
फाय ा
नाय मोन।</w>
नांग ोन
द् ‌
थामहिन बा</w>
था ङो</w>
जोहो लाव
ज े</w>
गो दो</w>
गाव जों</w>
गाबो न</w>
गा हायाव</w>
गा ं</w>
खाय से</w>
खा न्थ
अ खा</w>
ंग ्रि</w>
0 0</w>
होन ा</w>
सानै जों</w>
सा नि</w>
मोन नानै</w>
मिनि स्
बिमा -
बि जा
बाथ ्र
दा सो</w>
थ्र ो
जा है
जा हा
ङ ैनो</w>
गाम ियाव</w>
ग नाय
आर ि
अ फि
रा नि</w>
रन्ज न</w>
मेहेर सिं</w>
माहाजोन ा</w>
बो नो</w>
बो दों।</w>
बेर खां
बिफा ननि</w>
बि ला
बि थि
फो नां
नख रनि</w>
दिन्थि नो</w>
था बाय।</w>
जाया खै।</w>
जा सि
जा गोन
गोसो जों</w>
गो थौ</w>
खो था</w>
खाला म</w>
ए फा
आ थिं</w>
लाइ न</w>
रु म
रु प
ब्रह् मनि</w>
ब्रह् म</w>
बाद ियै</w>
बडʼ ले
न रे
दोंमोन ,</w>
दिल् ली
दा सिमबो</w>
जों थिनि</w>
ज ्र
खोना नो</w>
ए खन
आथि खा
आ गो
ै ,</w>
सासे या</w>
सा लि</w>
सा ,</w>
रा मनि</w>
र -
बुं बाव
बिलिफा ङा</w>
फ् लां
फा रि</w>
नु वा
दो ।"</w>
दे बानि</w>
दिन्थि ग्रा</w>
दा ननि</w>
जु दि</w>
जा न
जा थाय</w>
गोरो ं</w>
गो लै
ग न्थ
खोम दोन</w>
खु रै</w>
ए रै</w>
अन सु
1 0</w>
हर नाय</w>
सो ना
श् व
रे ब
बुं बाय--</w>
बि ब
बाव दिया
जों खौ</w>
जे के
जा थार
खि न्
अ देबानि</w>
सि ंनि</w>
साव गारि</w>
सम बारु
लाखि नो</w>
मानसि फ्रा</w>
मले ननि</w>
बो लो</w>
बो ,</w>
बेल स्रि</w>
बि खाया</w>
बा ग्
नै नि</w>
नाय ा।</w>
ना गा
नʼ ख
न ियाव</w>
थाइ ला
थां खि</w>
ट्रा इ
च ा
गु सु
गा बा</w>
उ नाव
उ दै</w>
आफाद गिरि</w>
आ बो</w>
अ र</w>
o n</w>
। ]</w>
िय ाया</w>
हो दों</w>
हा न्जा
रामना था</w>
मोन फा</w>
मेग नाव</w>
बोर ाया</w>
बे फोर
बि गिया
फोर मान</w>
नोंथां नि</w>
ना नो</w>
जोहो लाव</w>
जे रावबो</w>
जा गाय
ज ै</w>
खालाम नायनि</w>
ख ं</w>
ए फा</w>
इ न</w>
इ ं</w>
ो मोन।</w>
स् ता
माहा रिनि</w>
म ि</w>
बो थʼ</w>
बि जाब</w>
बा रि</w>
फि साया</w>
फ सं
न् दि</w>
ना गार
दोर ्
दि न</w>
दा वा</w>
द ैया</w>
द ,</w>
त ्र
जोब नानै</w>
जा नि</w>
जा नांगौ।</w>
ज ी
गेदे र</w>
खाय ै</w>
खा थिनि</w>
ए स</w>
आदा ।</w>
हु गार
स् नि</w>
से र</w>
सु फुं
रां खौ</w>
बे सा
बे ल</w>
फ् ला
ना जों</w>
दा ब</w>
थाइ नि</w>
जाय ो,</w>
गि लु
गा हाय
क मि
आं जों</w>
हा जे
स ं</w>
श ि
लै ।</w>
लाबो नानै</w>
लाइजा मखौ</w>
रो जा</w>
मोन थि
माहाजोन नि</w>
माइ थायाव</w>
बाय ।"</w>
फिसाज् ला</w>
फा नि</w>
दान्दि से</w>
थ ब
थ गाय
जाय ोब्ला</w>
जाय गा
जां ख्रि
जा लां
जा नायाव</w>
ख ं
आला सि</w>
हें थायै</w>
हा जार</w>
सो म</w>
सि ब
सालि नि</w>
सा ख्रि</w>
ष् टे
म -
बुंनाय सै,</w>
बिफा ं</w>
बि थां</w>
दुखु नि</w>
जो बा
जा म्
जा नांगौ</w>
गु दुं</w>
गाग् लोब
खालाम ना</w>
ओंखार बो
s t
o m
थुनलाइ नि</w>
हां मा</w>
सलʼ मा
ले ं</w>
ल ोर
रु जु
रा जाया</w>
मोन लाय
बे ग
बु हु
बि खा
बाय नानै</w>
बा थु
फा नाय</w>
न ी
दै नि</w>
त ा</w>
जि ं
गोजा ं
गा रि
गा मि
ग ्रि
ख िया</w>
क् ष
इं राज
आं खा
ड .</w>
है नानै</w>
हाद र</w>
हा दों।</w>
सोर खार
ला ब</w>
मा इ</w>
ब -
प ी
न् दो
दं बाव
थु लु
ड ि</w>
ट ,</w>
जेरै बो</w>
ग्र ाया</w>
गाब ज्रि
खेब से</w>
ंग ्रि
3 .</w>
.... ..
- मा
* *
" नों</w>
हारि खौ</w>
हा बो
सोर नि
सान नो</w>
स ोन
रो खोम
य ो,</w>
मले नखौ</w>
बो थोर
बिबा न</w>
फु ंनि</w>
नों लाय</w>
नो गोर
नंग ौ
द्रा य</w>
दाव गा
दा नाय</w>
था ।</w>
च े
ग्रा ब</w>
गोम जोर
ग ु</w>
ख्र ाया</w>
खा थि
आख ल</w>
in d
ै ।</w>
ि फ्राय</w>
सोर बा
समाय ना</w>
मोन ब्लाबो</w>
नु यो।</w>
ना ङै</w>
धोर ो
दै मा
दङʼ ।</w>
द ख
थि क</w>
थ ्रि
जों हा</w>
ज खम</w>
ख म
अलʼक ा।</w>
हाबा ब</w>
हा जो
हर बाय</w>
सि ,</w>
सांग्रा ं</w>
लाबो नो</w>
राव ।</w>
मह न
मन्जु नि</w>
ब्रह् म
ने हा
थिये टा
जो ब्
जे ं</w>
जा नां
जा थाव</w>
खाय फा</w>
अरु ना</w>
l i
19 8
हाया खिसै।</w>
हाद रनि</w>
सोर खौ</w>
से ,</w>
लि ं</w>
ला ख</w>
म् फा</w>
मि न
ब्ला ।</w>
बिना नाव
ब द
नायजाब नि</w>
नाय ै</w>
नांगौ ,</w>
देर सिन</w>
दें खो
थु लुं
थिउ रिया
थां ना</w>
टे बि
जि ना
जाथाइ नि</w>
च ी
गु स्
क ्र
ओ जों</w>
आखाइ याव</w>
िया नो</w>
हो आ
ह ोर
सु शान्त
सिनाय थि</w>
सा ना
श ंक
वा र्
र ʼ</w>
मिनिस् लु</w>
मि रु</w>
बि खानि</w>
बार ी</w>
ब र्
दै खां
दे वा
जा र्
ज ु</w>
गि नानै</w>
ग ाया</w>
ग ʼ</w>
कल्प नाया</w>
आर ्
अ ब्लाबो</w>
ंग ोन।</w>
म ु</w>
हे मले
सोदोब नि</w>
सों बाय</w>
सो ब
सै मा</w>
से लʼ</w>
सा फा</w>
लो ब्
लाय ै</w>
मीना राम</w>
मा हा</w>
बि बो</w>
फोर ,</w>
नु बाय</w>
ना व।</w>
ध ा
दिनै नि</w>
दाय ाव</w>
दया राम-</w>
जा दोंमोन</w>
गा बै</w>
ग स्
ग ले</w>
उ न्दै
आब ौ
आफा द</w>
आदा ,</w>
आ ङो</w>
ंग ्राया</w>
r e
स् लि
सो रां</w>
सा न्थ्रि
या नो</w>
मानो बा</w>
मानो थो</w>
बिमा खौ</w>
फु नाय</w>
फिसाजो खौ</w>
फिन नो</w>
फि नो</w>
नों बो</w>
द्र ाय
दोंमोन ब्लाबो</w>
दाव बाय
ट ्रि
जेसे बां</w>
जारिमि नारि</w>
जा दों-</w>
जा त
गिदि द</w>
गसं नानै</w>
खु गायाव</w>
िया वनो</w>
हा ,</w>
स् टा
स म्
वा नो</w>
लाय -
ल ।</w>
ल जों</w>
र् च</w>
रा ग</w>
मोन् नानै</w>
मोन नायनि</w>
माइ थायनि</w>
ब् ले
बाय मोन।</w>
बाज ै</w>
फोरा नो</w>
फोर निफ्राय</w>
फे रा
फा लांग
फा ंनि</w>
फराय सा
ना ङो।</w>
दोर् सोन</w>
दोन नाय</w>
दै ,</w>
डा क्
टि नि</w>
जोब ो।</w>
जोब था</w>
गुवा र</w>
गु फु
गि लि
गा रा
खु दिया
खालाम बाय।</w>
ख ब
कल्प ना</w>
कमा ण्ड
हारि मु
हा स्
सोर गिदिं</w>
सानसे खालि</w>
सʼ ना</w>
लाय ,</w>
रि फोरनि</w>
राव आव</w>
मो ग
मुं खौ</w>
म ट
बेखेव फा</w>
बि जौ
बार गʼ
ब थ
नानै )</w>
दिन्थि नाय</w>
दा हो
दा र
दा -
था नायाव</w>
जों रु
जो ला</w>
जें ना</w>
ग्र ाया
गोब्रा ब</w>
गेजे रावनो</w>
खै ,</w>
ख ्रा</w>
l o
4 .</w>
1 2</w>
स् ट</w>
सो लो
सो लाय</w>
सु बु
सिमा ं</w>
सिन ।</w>
सि स्टे
साब सिन</w>
सा रनि</w>
ला दों।</w>
लʼ ।</w>
ल द</w>
राय ाव</w>
मो ब्लि
मेग ननि</w>
बो राइ
बे खायनो</w>
बि फाया</w>
फिन बाय।</w>
फि सौ</w>
फा लि
प् ल
नाय मोन</w>
नाय बिजिर
नाय जा
ना इ</w>
दों ब्लाबो</w>
दि ।</w>
थेफे ना</w>
थ ियाव</w>
डा इ
जों सो</w>
जा नायखौ</w>
ज ʼ</w>
च ि</w>
गौ मोन</w>
खालाम ो</w>
खामान ियाव</w>
खाफा ल</w>
क् ला
ए म्
आलाइ या</w>
आय ै</w>
अब ं
अजित ा</w>
अ ब्
l e
W ind
हाबाफा रि</w>
हा बि
ह जों</w>
सान ो।</w>
सा र्
समा न</w>
ला सै
रा मोन्
मोन गोन</w>
मो सौ
मे ं
म खʼ
बेसे न</w>
बरʼ फोरा</w>
बबे बा</w>
ब ,</w>
नाय बाय</w>
द ङ</w>
तितागु रि</w>
ड ़
जोन ोम
गोग् लैय
गो बां
गार िया</w>
गा म्बा
Wind o
. सि
हाया खिसै</w>
स् व
सोद्रो मा
सि गोन</w>
साय खʼ
रो ङै</w>
मा ब्रै</w>
महन ला
मन्जु वा</w>
बु ङै</w>
बि बुं
ब नि</w>
फ्रा व</w>
फोर ।</w>
फिसा नि</w>
फं बाय
नं खाय</w>
दे हाखौ</w>
द -
थे र</w>
थाव नि</w>
जु जि
जाय खि</w>
ग्र े
गो जा</w>
गु रै</w>
आखु नि</w>
- लों
ो। )</w>
हागौ ,</w>
सर का
लाइजा म</w>
ल िय
रिं सार
राव जों</w>
राम ,</w>
रा बो</w>
या व
बोहै थि</w>
बो लो
बैसो नि</w>
बिसि खौ</w>
बि हो
बि नि
बादि ।</w>
बा ,</w>
ब ी
फ्रा बो</w>
फिसा र्च</w>
फार् से</w>
पु र</w>
नि माहा</w>
नां नानै</w>
धोर ोम</w>
जा ,</w>
ज ं
गोर् बो
खाय ो।</w>
खा ।</w>
एं गार
इन्दि स्री</w>
आफा दा</w>
आनजा द</w>
आ सि</w>
आ नो</w>
आ न
200 8</w>
( 1
' ,</w>
ी खौ</w>
हु रा</w>
हा व</w>
सि फाय
लिर नानै</w>
ला ना</w>
रा फो
मोन दों।</w>
मु ला
मिथि ं
मा से</w>
म ।</w>
भ ा</w>
बै नो</w>
बे दर
बि ।</w>
बा लानो</w>
फ् ले
नो -</w>
नै ,</w>
नाय जाब</w>
नांगौ ब्ला</w>
दै खौ</w>
दा बि</w>
थ र</w>
जों ,</w>
गोजौ वाव</w>
गाव खौनो</w>
गथʼ खौ</w>
ग थाय
ए न
आनारी -</w>
आ फाया</w>
a l</w>
.... .</w>
्रा झा
है नाय</w>
हाबो )</w>
सोलों थाइ</w>
से ंग्राया</w>
समा ज
स न्
लोब् बा</w>
लाय ा।</w>
रागा जों</w>
मोन् नो</w>
मोना बि
मोन दों</w>
मिथि बाय</w>
मि थिया</w>
बोरै बा</w>
बि दाय</w>
ब ह
फिसा खौ</w>
फाव थायाव</w>
फा ला
प् ले
न्द ु</w>
नो बा</w>
नै थि</w>
नि उ</w>
नाय खौनो</w>
दोंमोन -</w>
दे ग्
थाइ खौ</w>
थां बाय।</w>
था ,</w>
जा इ
च न्द्र</w>
गो थौ
गथʼ वा</w>
ग य</w>
खाला मा
खामान िया</w>
खां नो</w>
आ ङो।</w>
ंग ्
ं ।</w>
t h</w>
होन् ना</w>
हा गोन।</w>
सोरनि बा</w>
से वा
सि गोन।</w>
सान नाय</w>
समा ज</w>
व ाया</w>
महा राजा
बेद र</w>
बु ब्
बाहागो आव</w>
बां सि
बा जा
फ्राम बो</w>
फ ब
फ जʼ
न् स</w>
नो म
नʼ नि</w>
दां खा</w>
जिल् लानि</w>
जिना हारि</w>
ज थु
ङा नो</w>
गो थां</w>
गेजे र
गु मै</w>
खौ थʼ</w>
खोमा नानै</w>
खैफो द</w>
खाव लाय
खा ना</w>
के ल</w>
कले जाव</w>
ए व
आलाइस्रि नि</w>
अन नाय</w>
अजित नि</w>
-- "
सि खाव
सा ला</w>
श्व र</w>
वा ,</w>
ला बाय
रामना थ
र ौ
मु स्रि</w>
माबा फोर</w>
बि लाय</w>
बाइ दि</w>
प्र ग्रा
नो सो</w>
नि थिं</w>
न नानै</w>
दिनै निफ्राय</w>
दाय ा
दाजाब दा</w>
दर बा
थि नो</w>
गोदो नि</w>
गु न्दाया</w>
गा रिखौ</w>
खौ रा
खि नि</w>
ख ोर
कु मार</w>
कले ज</w>
एरै नो</w>
उ इ
आर ति
आ गै</w>
अनाथ ी</w>
अन लाइन</w>
्रा इ
हा उ
हरखा ब</w>
ह य
स्रि नि</w>
सु खे
सिगा रे
सहे न</w>
श्र ी</w>
लां दों</w>
रि फोरखौ</w>
रा ज</w>
मोन ै</w>
मा रु
म नʼ
बे फ्रु
बान ु</w>
फे लें</w>
फावथि ना</w>
नै जों</w>
दि -</w>
द ब</w>
थेले फा</w>
डा .</w>
जो म</w>
जा थाया</w>
गौ मोन।</w>
गोनां ।</w>
गिरि ,</w>
खल था</w>
ख ो।</w>
ख न</w>
क ,</w>
आ वा
t e
- सा
िया बो</w>
हो गोन</w>
हाया ,</w>
हाबाय ा</w>
हा ल
ह ो।</w>
सिथ ्
सा इ</w>
लों नो</w>
ला नायनि</w>
ला ङा
रो दा,</w>
राव -
रा ,</w>
मोन थाम</w>
माव नानै</w>
मा हार
भारत नि</w>
बे बादिनो</w>
बे फोरनि</w>
बुं थि
बि ज
बाथ्रा ।</w>
बा बु</w>
बा न्था</w>
फि ना
फार ियै</w>
पुलि स
पि .
प ्रि
न्द ाय
नाय खाय</w>
ना गा</w>
न वा
दा ।</w>
दङ ʼ</w>
दं मोन</w>
थाम सो</w>
था राव</w>
जिल् ला</w>
गै लिया।</w>
गा य</w>
खʼ नानै</w>
उ दु
आव गाय
आद ाया</w>
ti on</w>
हो दोंमोन।</w>
हाला गै</w>
हाजे वनि</w>
सोरखा रा</w>
सान बो
लिं हर
लामा जों</w>
माव नाय</w>
मा ल</w>
मा र्
बे यावनो</w>
बे फारिया</w>
बिहाम जो</w>
बि यो
बि या
बाय जो
ब राय
फोर खौबो</w>
फो साब
फिसा इ</w>
पा ब्लि
नायहर नानै</w>
थिन हर
थाय खौ</w>
थाङो ब्ला</w>
थ बे
जा नाया</w>
जा थाइ</w>
गोनां थि</w>
गोग्लै नानै</w>
गो बाव
गो थै
गाव बा</w>
खौरां खौ</w>
खो ख्
खु न
खालाम बाय</w>
खाफा लाव</w>
आना री</w>
आं ।"</w>
अन जि
th e</w>
हार सिं</w>
हा री
सि -
सा जाय
सलʼ मायाव</w>
सर लाया</w>
स ना</w>
ला म</w>
राव खौबो</w>
राइजो खौ</w>
रं जा</w>
मुं दांखा</w>
मि न्थि
मा रि</w>
बे राय
बे बो</w>
बिफा खौ</w>
बरʼ फोरनि</w>
फिसाजो नि</w>
फिन नाय</w>
फाग् ला</w>
फा नो</w>
निफ्राय ।</w>
दु गै
दि न्थि</w>
थाव ना</w>
जिराय नानै</w>
जाथाय खौ</w>
गो मा</w>
गु ब
गि ला
ए बसु
..... .</w>
हाजʼवा री
हा जो</w>
ह े</w>
ह ु</w>
से ।</w>
से ब
सि ।</w>
ला बो</w>
मि थिया
बि जों</w>
फिन् नो</w>
फाला ंगि
ध ोन
दोन नानै</w>
दि नि</w>
दाय नि
थां बाय</w>
टि क</w>
जो है</w>
गाव थार
खै सै।</w>
खा लि
खन साया</w>
आं थʼ</w>
आ लो</w>
अजय नि</w>
ंग ायाव</w>
3 0</w>
.... ...
ाय ै</w>
हा नो</w>
ह ले</w>
सै -</w>
से क्स
सु मि
सु नानै</w>
सि थार
सान राइ</w>
सा खाथियाव</w>
सलʼ वाव</w>
स न्दे
लां गो
ला जि</w>
रे ल</w>
रि फोरा</w>
रा हा
र ियाव</w>
र निफ्राय</w>
मोन ो
मोदो म
मिजि ं</w>
माब्ला बानो</w>
मा बार
मट र</w>
बो राय</w>
बि थोन</w>
बा ।</w>
फि थाइ</w>
फाय ो।</w>
नांगौ नि</w>
ना वबो</w>
ना थ</w>
न ौ
दों से</w>
दो ,</w>
दे र</w>
दा उ</w>
द ियाव</w>
थै नायनि</w>
थि ,</w>
था नि</w>
जि नि
जाया खै</w>
खौ लाय</w>
खालाम गोन</w>
खरʼ वाव</w>
खन से</w>
r i
हो खार
हिन्जाव नि</w>
हास् थाय
ह नै</w>
स् ट
सो ङो</w>
सुबुं फोरा</w>
सिं निफ्राय</w>
सं सार</w>
ल रे
रोखो म</w>
रां जों</w>
रा नो</w>
मा ल
बे बायदि</w>
बु रै
बिथि ङाव</w>
बाहाय नो</w>
फार ियाव</w>
नो ब्ला</w>
नि खौ</w>
दे ।</w>
दिनै सिम</w>
दा सिम</w>
द र्
थुलु ंगा</w>
थाय ो
था ल</w>
ड ्र
जोब बाय।</w>
जि वाव</w>
जाव लिया</w>
ग्रा नि</w>
गोदा नै</w>
गो थै</w>
गिरि ।</w>
गा बो</w>
गा न्
उ ल्
उ ननि</w>
इराग् दावा</w>
आब ʼ</w>
आखु वा</w>
आइ जो</w>
5 .</w>
होम बा</w>
ह ि</w>
स्रि खौ</w>
सु ला</w>
सि बाय</w>
सलʼ वा</w>
समा जाव</w>
लो ब</w>
ला ख
रि ं</w>
राइजो आव</w>
य ोब्ला</w>
मुलु ग</w>
मंग ल
बे खौबो</w>
बि ष</w>
फ् ला</w>
फा फ्
फ ु</w>
नोंथां ।</w>
नै खौ</w>
नुजा थि
नि ं</w>
नां दों।</w>
ना गि
दाव राव</w>
द ैयाव</w>
जेरै --
जा थायनि</w>
ङो ,</w>
गो म</w>
गैय ि</w>
गिरि फोरनि</w>
खान्थि नि</w>
ए क
आय दा</w>
अम ला</w>
अ क्ट
r o
" मानो</w>
। ''</w>
ी म
िय े
होन नाय</w>
हो ब
हैय ो</w>
हिनजा व
हाब फैयो।</w>
हा लो
हर ो</w>
हम ो।</w>
स्र ी
सो राव</w>
से या</w>
सा रा</w>
स र्
श ा</w>
लासै नो</w>
रा सिन</w>
र जि
मोन जा
मोखा ङा</w>
मे लाव</w>
मा रि
बोर ो</w>
बुङो ,</w>
बु जाय
बार ियाव</w>
बाय नो</w>
बादि ब्ला</w>
बा जु
बा उ
फे र
फ ि</w>
पा कि
न्द ै</w>
ने र
नाय लाय</w>
नाय बो</w>
नङा ।"</w>
न खर</w>
थे नानै</w>
था नायखौ</w>
था गोन</w>
टार ने
गिया न</w>
गा -
खोख् लै
खु सि</w>
ओं थिया</w>
ओं खायनो</w>
ए ल
आना रीया</w>
आ बै</w>
असम ीया</w>
अराय बो</w>
अपारे टिं</w>
a l
2 )</w>
........ ........
" अ
हो सो
हाबाय ाव</w>
हा न
सो नि</w>
से खौ</w>
सिया ला</w>
संसा राव</w>
स रा
स य
या रि</w>
मोब्लि ब</w>
मोखां खौ</w>
मे ब्ला-</w>
मार जित</w>
मानसि ।</w>
मा ष्
मा ना</w>
बो यो।</w>
बि माय
बि निफ्राय</w>
बा थाय</w>
फार िया
पि .</w>
पाकि स्ता
नों सोरनि</w>
नों जों</w>
दोन थʼ
दा हा</w>
द हाय</w>
थि जों</w>
थार ैनो</w>
था बैनो</w>
था दोंमोन।</w>
ण्ड नि</w>
टा इ
जा दों
गोहो म</w>
गोसो याव</w>
गुवाहाट ी,</w>
गुबु न
गाव सोरनि</w>
खो ,</w>
खाम फ्
खन ले</w>
का प
ओरै नो</w>
एम .</w>
उ र
आर ि</w>
आब ʼ
आखाइ नि</w>
अ क्
s i
an d</w>
ै खौ</w>
ी याव</w>
होन नानै।</w>
हो यो
हार् सिङै</w>
हांखो नि</w>
हर बिला
सोम बोर
सोना ब</w>
सा ग्
समबारु -</w>
लाय बाय।</w>
लाय बाय</w>
ला माखौ</w>
रि जों</w>
मार नो</w>
ब्र ाय
बि थ
बा ला</w>
बसुमता रीनि</w>
बरʼ वा</w>
ब मा</w>
पा स</w>
दा बि
थां ब्ला</w>
था है
त ी</w>
जोब् बाय।</w>
जोब नाय</w>
जें नाखौ</w>
जि बा</w>
जाय गानि</w>
जा ना</w>
ज िया
गु रु
गाहाम ।</w>
खि र
खा नाइ
खा इ
कम्पिउ टार</w>
क ाव</w>
क लिं</w>
क न
ओंखार लां
आला दा</w>
8 .</w>
1 1</w>
1 0
ो। ]</w>
है बाय</w>
हान्जा नि</w>
सै थो
सि नाय</w>
सान फ्रोमबो</w>
सा बाय
वा नि</w>
ल् ला</w>
र् ट</w>
रा ण
मोन बा</w>
मो ब्ला
मै हु
मा उ
बुं गोन</w>
बिनि खायनो</w>
बि था</w>
बि .</w>
बार खालि</w>
बां गा
फ टʼ
न्दु ं</w>
न्द ्र
ना रे
धोर ोम
दै जों</w>
दि ं
थां नोसै</w>
था ब्ला</w>
त ,</w>
जों थिखौ</w>
जाहा थे</w>
जा बाय,</w>
जा दों,</w>
जा थों
घ ा
गो दै</w>
गि नाय</w>
गाइखे र</w>
गा रिनि</w>
ग या
खुगा निफ्राय</w>
खालाम दों</w>
ओं थि</w>
ए .</w>
उनाव सो</w>
आना राम-</w>
आ लु
ंग ोन
a c
2 0</w>
1 5</w>
' ।</w>
हो नांगौ।</w>
हार सिङै</w>
हान् जा</w>
हा खु
स्रे ं</w>
सोमोन् दो
सो लो</w>
सेप्ते म्बर
सु इ
सिख् लाया</w>
सान दों</w>
साइके ल</w>
स हायनो</w>
लों नानै</w>
लि ।</w>
ला दे
रु ं
रि ंगायाव</w>
राइजो फोर</w>
रं फा
मो गि</w>
मुं मा</w>
मानसि फोरनि</w>
ब्रा ।</w>
ब्र ि
बो दों</w>
बु थुम
बि दै</w>
फै ब्ला</w>
पुलि सनि</w>
नागिर नानै</w>
दा नानै</w>
दं फां</w>
थार ै</w>
थां गोन</w>
था खौ</w>
ट्राइ बेल</w>
जा ।</w>
गोजा न</w>
गोख्र ै</w>
गि ख्र
गिख्र ं
गन्थ ं</w>
खा बु
खा ,</w>
ओंखार लाङो।</w>
उ थ्रि
इ न्दु
आखाइ जों</w>
आं ,</w>
ʼ नि</w>
? '</w>
- जुना
ाया बो</w>
हो नायाव</w>
हो ख्रा
हिनजा व</w>
हाय ो
हाजʼवा री</w>
ह ैया
सिख् लानि</w>
श न</w>
ल ख्राया</w>
ल ख्रा
रु म</w>
राफो द</w>
राज खान्थि</w>
मोन फ्रोमबो</w>
मु ङै</w>
मु गानि</w>
माहा रि</w>
मानसि फोरखौ</w>
म नि
बो यो</w>
बे न्
बिहो मा</w>
बय निबो</w>
बडʼले ण्ड</w>
फोथाय नाय</w>
न्द ायाव</w>
न्थ ्र
न् टा
नि उ
नाय ो।</w>
दें खो</w>
दु ब
दम ना</w>
द ब
था दों।</w>
जु रि
जा बाव
जा खा
ज य
गोर लै</w>
गो ला
गैया ब्ला</w>
गावबु राया</w>
गार नो</w>
गथʼ नि</w>
खौ बा</w>
खु दुम
खार लां
खा न
क न्ट
ए ल</w>
उन्दु नो</w>
इ नाय</w>
आथि ङाव</w>
आ म
अख्रा ं</w>
e l
2 5</w>
-सान जा</w>
' आ
होन् नानै।</w>
होन ो
हो नाय
हार ी</w>
हाया खै</w>
हाग्रा नि</w>
सो रा
सो नार
सि जों</w>
सा हा
व ै</w>
ल निफ्राय</w>
रुवा थि</w>
रं जानाय</w>
र ं</w>
मोना म
ब्ला लाय</w>
बुं बाय-</w>
बिहाम जो
बिलिफा ंनि</w>
बिलि फां
बिजाब खौ</w>
ब ृ
फिसा ,</w>
फं से</w>
फ रे
फ रमे
न् स
न् नो</w>
नो नो</w>
नु यो</w>
ना लि
न खर
दे हानि</w>
दि नि।</w>
दर् बा
दं ।"</w>
थिये टार</w>
था रा।</w>
था ग्रा</w>
त ी
जु लि</w>
ङा इ
ग्रा ,</w>
गो लाव
गुब ैयै</w>
गथʼ फोर</w>
ख्र ाय
खरʼ खौ</w>
कʼ क
औ वा</w>
ओ इ</w>
एखन बा</w>
आर त
आफा नि</w>
आ ग्रा
ंग ्रे
i c
e r</w>
e c
00 0</w>
- सि
" बे</w>
हु ं
हा नायनि</w>
सो ङो।</w>
से न्दे
सुबु ङा</w>
सिनाय नो</w>
सा द</w>
लुबैय ो</w>
लाइ फांनि</w>
ला दों</w>
राव निबो</w>
रा जि</w>
मे ने
मि लि
मि थिय
मा सियाव</w>
म दा
म थे</w>
बो ख्
बेसे बां
बि सार</w>
बि खु
बा सो</w>
बा ख्
फै गोन</w>
प्र :</w>
ने र्
ना जानाय</w>
नङा मोन।</w>
नख राव</w>
न ी</w>
न -</w>
दु र्
दां नो</w>
दर जाखौ</w>
थाव ।</w>
थाय ा।</w>
थाब नो</w>
त खौ</w>
ज् लि
जै बोर</w>
ङ ि</w>
गोम ोर
खोम ोर
खन् थाइ</w>
ख नै</w>
का र्
कल्प नानि</w>
ओंखार नाय</w>
उ खै
इंराज ी</w>
आंखा ल</w>
आ बाद</w>
अलʼक ा</w>
अ न्द
6 .</w>
ो )</w>
हो वा
हाब फैयो</w>
हाखु -दा
हम बाय</w>
ह टे
सु वा
सिगारे ट</w>
सि ङा
सि :</w>
सा -सानजा</w>
स ी
रे न्जा
रां -
र जिया</w>
मोन ।"</w>
मे मʼ
माव रि
माव फुं
मा बादि</w>
महर ा</w>
भु ट
बे नो
बिबा नखौ</w>
बि हाव
बाव ो</w>
ब ।</w>
ब ं
फा रि
फा नानै</w>
फराय नाय</w>
प ा</w>
दु प
दाय खौ</w>
दा हा
थि सन
थाय नो</w>
थाखाय ।</w>
था सारि</w>
जिब ौ
जा उनाव</w>
जा -
गोदो नायाव</w>
गो रि
गुवाहाट ी</w>
गाब ोन
ग साइ
ग स
ग र</w>
ग ग
खै ।"</w>
ख ोन
क ै
इन्दु प्र
इ उ</w>
अबं लाउ
अन जा
i s</w>
........ .
- आ
हो ब्ला</w>
हो ग्रा</w>
हा थाइ</w>
सोदोब खौ</w>
सेक्स पी
से थि</w>
सि लानि</w>
सि न्दु
लों नाय</w>
राव ै</w>
रा खौ</w>
मो दाइ
मेग ना</w>
मे रि
मु लि</w>
मह राव</w>
भ क
बाइ दि।</w>
बा दा
फै दो</w>
फिन नानै</w>
फा दोर</w>
फराय सालि
फराय नो</w>
न्ट ा</w>
धोरो मनि</w>
ध ो
थु र</w>
थां ।</w>
जोबो त</w>
जाय गाया
जा फु
जा ं</w>
गोजोन नाय</w>
गुफु र</w>
गु मु
गाहाय नि</w>
गाम्बा रि</w>
ग मा
खु रै
खि न्था</w>
खʼ थायाव</w>
कै ला
कम्पिउटा रनि</w>
क खौ</w>
ए फ</w>
इ ण्ड
आला सि
आथिखा लनि</w>
आग ु</w>
आं लाय</w>
अ फ</w>
i l
g u
a t
Windo w</w>
T h
2 0
हारि मु</w>
ाय ा।</w>
होन ब्ला</w>
हेला राम</w>
हाब फै
हाब नाय</w>
हर ा</w>
स् लाय
सै थो</w>
से रनि</w>
सु ला
सिखा व</w>
सार खौ</w>
सान् दों</w>
सान फ्रामबो</w>
सा ला
सरा सन
स मा</w>
लै ,</w>
ला मानि</w>
ला खा
रो ङै
र बि
मु जु
मि थिया।</w>
महर खौ</w>
भार त</w>
बोहै थिया</w>
बो थोर</w>
बै सो</w>
बेरे खा</w>
बे दि</w>
बिमा -बि
बिफा ंनि</w>
बाथ्र ायाव</w>
बाग् दाव
फु न
फारसे थिं</w>
प्र से
नागिर दों</w>
नां बाय।</w>
ना लाय</w>
दोन ा</w>
दोन थुम
दा हार</w>
थाय ो,</w>
था रा</w>
था गोन।</w>
जेरै -
छ ा
च ्
ङा बो</w>
ग्रा ।</w>
ग्रा फोरनि</w>
गोन ो
गोजा ं</w>
गो लोम
गु न</w>
गाब नानै</w>
ग ्रि</w>
ख् लं</w>
खो नानै</w>
खान्थ ियारि</w>
खा नाइ</w>
के ट</w>
इराग् दाव
आसा माव</w>
आदा ।"</w>
आखाइ खौ</w>
आ लाइ</w>
अन सुं
अजित खौ</w>
अज य</w>
19 6
... ।</w>
् ‌
िया व।</w>
हर दों</w>
साबाय खर</w>
सान नि</w>
सान जौ
सा ल
सलʼ खौ</w>
समा नै</w>
लाय नायाव</w>
लाइ फां</w>
रु फा
रि क्
र माय
मोन् नायनि</w>
मोदो मनि</w>
मिनि नानै</w>
ब्ला उ
बुजि नो</w>
बिसोर नो</w>
बि स
बाव ो।</w>
बानजाय नाय</w>
बाथ्रा नि</w>
बां लादे
बा ट
बा जि</w>
बा -
ब र</w>
ब न्द</w>
फिसाइ नि</w>
फि न्नानै</w>
फावथाइ खौ</w>
फाग् लि</w>
फा लो
फ ्रि
नों ।</w>
नै बो</w>
नु नाय</w>
नि स्
नि सो</w>
न ं</w>
दुर्जा ं</w>
दिहुन नो</w>
दा द
दा इ</w>
दं -</w>
थाया रि</w>
थांखि नानै</w>
थां दो</w>
था बनानै</w>
त् त
ड ज</w>
ड ʼ</w>
ज्रा म</w>
जोहो ला
जि वा</w>
जि ं</w>
जा लांबाय।</w>
जथु म्
गु दुं
गा ँ
खाव नानै</w>
खालाम नायाव</w>
खा उ
ख थायाव</w>
ककराझा र</w>
क ि</w>
आ ले</w>
अन साय
अ से</w>
अ नु
ou r</w>
3 )</w>
.... ...</w>
- खु
(1 )</w>
ाया नो</w>
हिन्जा वा</w>
हाला मनि</w>
हान् जाया</w>
स् ला</w>
सों नो</w>
सिं आव</w>
साया वनो</w>
सानै नि</w>
सा ख्रि
सलʼ माया</w>
वा र</w>
लिर गिरिया</w>
ला बानो</w>
रो दा</w>
रु मनि</w>
र मा</w>
र जʼ
मोना ब्ला</w>
मोन थार
मु स्रि
मु सु
मिनि ट
मान नि</w>
मा वा
मा थो
मा जों</w>
मा ख्
बु दा
बिसि या</w>
बिना रामा</w>
बिन हारी
बि हा
बाय ा</w>
बा हे
बा न्था
बा नानै</w>
बसुमता री,</w>
ब ङाइ
फै माल</w>
फै गोन।</w>
फु दुं
फाय ाव</w>
फा -
नोसै ।"</w>
नों थाङा
नि खुरै</w>
नि -
नां बाय</w>
ध ्
दौ नांगौ।</w>
दे ,</w>
दाय नि</w>
ददेरे नि</w>
द ।</w>
द ियाया</w>
थियेटा रनि</w>
थाय ोब्ला</w>
थाइ ,</w>
थां दों</w>
था लायाव</w>
डा ः</w>
जेरै --</w>
जाथाइ जों</w>
ङा इ</w>
गोमजोर ै</w>
गोबा नानै</w>
गोनां दि,</w>
गु मै
गा ,</w>
गʼ ला
खोना सं</w>
खाव से</w>
खाला मो
खाथ ियावनो</w>
खां बाय</w>
खा व</w>
खा लाय
खन साय
क्ट र</w>
ओंखार नानै</w>
एफा ग्राब</w>
एखन ब्ला</w>
आखु खौ</w>
आ ।</w>
अल क
ंगि रि</w>
d i
1 5
........ .</w>
- सु
- बे
( 2)</w>
ृ ष्
हाय ोब्ला</w>
हां ख्राय
हा दों</w>
हर दों।</w>
सेंग्रा -
से यावनो</w>
सु स्रां
सि ने
सान् नो</w>
सान् नाय</w>
सा जों</w>
सा खौ</w>
शान्ति नि</w>
लु ब</w>
लु नानै</w>
लाबो नाय</w>
ल ौ
रुप ा</w>
रु गु
य ैनो</w>
मोन् दां
मोन दोंमोन।</w>
मोन दां
मोखा ङै</w>
मुला म्फा</w>
मा दि</w>
भु गि
ब्रै सो</w>
बेदर ,</w>
बे ंग
बिसि नि</w>
बि ष
बि ग्राया
बार हुं
बाया नो।</w>
बांसि नानो</w>
फिसा ।</w>
फ े</w>
नौ ना
नोजोर नानै</w>
नै बे</w>
नाय फोरखौ</w>
नंग ु
न नो</w>
दै खांनानै</w>
देर हाग
दु म</w>
दु इ</w>
दा फो
ददेरे खौ</w>
थे व
थु म</w>
थु ंग्रि</w>
थिया रि</w>
था सा
था मनि</w>
था गिबि</w>
डे भि
ट ्र
जों थि
जा नो
जा नाय।</w>
ज खौ</w>
ग् लि
गोहो खौ</w>
गैया मोन।</w>
गुबु ननि</w>
गाब नो</w>
गलʼ नि</w>
ग लʼ</w>
खाला मा</w>
खान्थि ,</w>
खां बाय।</w>
खा रि
कल्प नाखौ</w>
कम ल</w>
कक ्राझा
क टि
ए स
इन फरमे
इ स</w>
इ ,</w>
आद ब</w>
आथिखा ल</w>
अ ʼ</w>
7 .</w>
-- -</w>
ै लाय</w>
होन् नाय</w>
हेफा जा
हाबाफा रिखौ</w>
हाखु-दा खु</w>
हा बाय</w>
सौ फै
सौ ग्रा
सो रां
से क
सिगा ंनि</w>
सि गौ।</w>
साव नानै</w>
सांग्रा ं
सन्दे ह</w>
स प्
ले खा
लाङो )</w>
लां नायनि</w>
रो ङा।</w>
म् बार
मोनसे लʼ</w>
मोदो मखौ</w>
मेग नजों</w>
मे न्ट
मीना रामा</w>
मिथिं गानि</w>
माहा जोन</w>
माइ रं</w>
म ैया
बो खार
बे बा</w>
बुं दों-</w>
बु न्द
बिसि -
बिमा- बिफा
बिजौ ,</w>
बि स</w>
बि जौ</w>
बि खायनो</w>
बाव नानै</w>
बार ै</w>
बार ु</w>
बा ला
बा मु
बसुमता री
ब न्द
फो थाराव</w>
फु जि
फि सौ
फाफ् लियाव</w>
फराय सालियाव</w>
फं सेबो</w>
फ ौ
प रि
नेहा था
नि सिम</w>
नाय ब्ला</w>
नाय खौ।</w>
नङा बा</w>
नङा ना</w>
नʼख रनि</w>
दे व
दे गार
दुखु जों</w>
दुखु -दा
दि खांनानै</w>
दाव हायाव</w>
दा खालि</w>
थै नो</w>
थु नानै</w>
थि ।</w>
थि र</w>
थ ैय
ण् डा
टे न
जोब थार
जि निया
जा होन
जा नांगौ
गोर ों
गुन्दा खौ</w>
गु लि</w>
गु न्दा</w>
खाला र</w>
खा रि</w>
एसे याव</w>
आय ʼ</w>
आ मेरि
आ बार
अफि सनि</w>
a s
2 4</w>
1 6</w>
हो फै
है दों।</w>
हार सिं
हाबा फारियाव</w>
हा सु
सो लʼ</w>
सो ,</w>
स फ्
लिर गिरि</w>
लाय खो</w>
री याव</w>
राय ा
राम खौ</w>
राज थावनि</w>
राइजो फ्रा</w>
राइजो फोरा</w>
र हे
र नो</w>
मोन् नै</w>
मोना खै।</w>
माइ गाब</w>
महनला ला</w>
ब्रह् म,</w>
बोराय नि</w>
बुं दों।</w>
बिमा- बिफानि</w>
बि ल्
बि बʼ
बार नानै</w>
बायदि नो</w>
बाथ ौ</w>
फोरमाय ो।</w>
फिन बाय</w>
फावथि नानि</w>
फार् से
फा न्दाय
फ ौ</w>
पा र</w>
पा र
नु हर
ना निफ्राय</w>
दो लो
देर नानै</w>
दुर्जा ं
दा ल
दख ना</w>
द नानै</w>
टे बु
जेन नाय</w>
जे न्
जाहो नाव</w>
जानाय -लों
जा नांगोन।</w>
जा थाव
जा गोन।"</w>
ज ल
गोहो नि</w>
गाव स्रा
गाब नि</w>
गाखो नानै</w>
गर म</w>
गं नै</w>
उजि गिबि</w>
इन् टारने
इउ नि
इ बो</w>
आलाइ स्रि</w>
आय ं</w>
आ या</w>
आ न्दाया</w>
आ गै
अफिसा व</w>
h a
e m
- गो
, 000</w>
" नै</w>
हो या
हो गोन।</w>
हिन्जाव खौ</w>
हाब फैय
हागौ ।"</w>
हांखो खौ</w>
हा लाय</w>
हा ब्
हा नजा
हय थʼ</w>
हम दों।</w>
सों नाय</w>
सो लायनाय</w>
सुशान्त वा</w>
सुथु र</w>
सुजु ग्राया</w>
सिला गां</w>
सावराय ज्लाय
साग् लोब
सम ाया</w>
सʼ नो</w>
वा रि</w>
ला न
रो खायै</w>
रु वा</w>
रा ङा
रा ग
मोन ो,</w>
मेग ननिफ्राय</w>
मे न्ट</w>
मुंखʼ नो</w>
मु गायाव</w>
माव थि</w>
मानसि जों</w>
मा सु
भा रा</w>
बुंहर बाय</w>
बुं ना</w>
बुं दोंमोन</w>
बिबा रि</w>
बाय नाय</w>
बाय द
बाद लनि</w>
बाथ्रा खौनो</w>
बसुमता री</w>
फोर बो</w>
फाहाम सालियाव</w>
ने व
नि ।"</w>
नागिर ो।</w>
नां नो</w>
ना ङो</w>
नंगु बै</w>
नं खाय
नʼख राव</w>
दै थाय
दा का
द ी
था दʼ
थ ी</w>
जौ नि</w>
जो ख्
जेन ʼ</w>
जाया ,</w>
जाथाइ खौ</w>
जा खांनानै</w>
गो र</w>
गु दु
गिरि फोरखौ</w>
गाव बो</w>
खो माय
खु नु
का र</w>
कम्पिउ टार
कम् पा
एसे लʼ</w>
ए क्स
उद ैयाव</w>
उ सु
उ दां
उ ,</w>
इन् जिनिया
इं ख्रि</w>
आगो र</w>
आ स
आ बुङै</w>
अलʼक खौ</w>
अराय नि</w>
अ ब्लासो</w>
अ ं
ti on
c om
........ ..</w>
.... ....</w>
- बु
" ।</w>
" औ
" ,</w>
्र ायाव</w>
ै सो</w>
हाइ जें</w>
ह ज्रि
स्रि नानै</w>
सोरखार नि</w>
सोदो म
सै ।"</w>
सै बारी</w>
सिस्टे म</w>
साव ख्
सान सु
सा ।</w>
सलʼ मा।</w>
समा जा
स ।</w>
लोर बां</w>
लै थो
लिर नो</w>
लां दां</w>
ला न्
रिं सार</w>
माहार ियारि</w>
ब्र ʼ
बोर सि</w>
बो रा
बो यो
बेखेव नानै</w>
बे फा
बे थʼ</w>
बु र्
बिगिया न
बार नि</w>
बा र्
ब ौ
ब नो</w>
फ्र े
फोसाव नाय</w>
प्रेमध रा</w>
न् त्र
नि नि</w>
नायहर ो</w>
नाय ो</w>
नाय सै,</w>
देरहा सार</w>
देर गा
दे म</w>
दिल्ली याव</w>
दिन्थि नानै</w>
दिन्थ ियो।</w>
दिनै बो</w>
दाव बाया
दा होना</w>
दा रा</w>
द ल
थों जों</w>
थि ग</w>
थां ,</w>
था लि
था ंगोन।</w>
थब सि</w>
थ फ
त् य</w>
जों नानै</w>
जो लै
जात ्रा</w>
ज ्रि</w>
गोम जोर</w>
गोजां स्रि
गो राया</w>
गेदे मा</w>
गुन्दा नि</w>
गु सु</w>
गु दियाव</w>
गासै खौबो</w>
गान नाय</w>
गा नै</w>
खो र</w>
खैफो दाव</w>
खै ना
के :</w>
कले ज
क )</w>
एम् बु
उ रि
उ :</w>
इ स
आव गाय</w>
आय दा
आफा ।</w>
आख लखौ</w>
आं नाव</w>
आ जाव
अल के
अख्रा ङाव</w>
t o</w>
m a
i n</w>
e s</w>
1 8</w>
1 8
** **
( ख
" औ</w>
ो मोन</w>
ैया बो</w>
हाय ो,</w>
हाम बु
हादोर गिरि</w>
हा थार
ह गारनानै</w>
ह ं
स् त
सोर ्
सु थार
सान् दि</w>
सान स्रि</w>
लुबै नाय</w>
ला रि</w>
ला दोंमोन।</w>
रामोन् दा</w>
राइजो -
रंफा ली</w>
रंजा लि</w>
य ि
मोना खिसै।</w>
मो गा-
मै गं</w>
मिलि टा
माव फारिया
माव जि</w>
माव खʼ
माब्ला बाबो</w>
माइ थाय
मा सि</w>
मह न</w>
म ी</w>
म न्थ्रि
भार ता
ब् लद</w>
बे जों</w>
बुहु मनि</w>
बिलाइ खौ</w>
बि खाया
बाहाय नानै</w>
बा रिनि</w>
बा राव</w>
बडʼले ण्डनि</w>
ब हा
ब ʼ</w>
फोले र</w>
फोरा ।</w>
फोर खौनो</w>
फैया खै।</w>
फ ʼ</w>
परि ष
नाय ोब्ला</w>
न फोरा</w>
दे हाया</w>
दर जा</w>
दं खाय
द न्द
था न्दै</w>
था थʼ
थ ो।</w>
थ ब</w>
थ ं</w>
जेन बा</w>
जा म
जा खो
ज ्रे
ङो -</w>
गोदा ननि</w>
गोग्लै नाय</w>
गो सा</w>
गो थाव</w>
गो गोम</w>
गेव लां</w>
गे ब्ला-</w>
गाव सोर
गाय नानै</w>
खो थाया</w>
खां ना</w>
का नि</w>
कल्प ना
कम्पिउटा रखौ</w>
क े</w>
आव राय
आलाइस्रि खौ</w>
आफा ,</w>
आ बै
आ गान
अन् नाय</w>
अख्रा ं
अखा फोर</w>
c t
2 3</w>
.ए .
( 3)</w>
्र ल</w>
ो ।"</w>
ै -
िया ,</w>
हो नाया</w>
हाय ि</w>
हा नाय
हा थाइ
हा ख
स्र ीया</w>
स्र ायै</w>
सोदो बा</w>
सानै खौ</w>
सम खौ</w>
स है
ला हा
लख्रा नि</w>
राव ,</w>
रा दाब</w>
मोखां जों</w>
मै देर</w>
मे ट्रि
मुंखʼ नां
मुं राय
मिहि रनि</w>
मिहि र</w>
माव ग्रा</w>
मानसि ,</w>
मले न
बो बाय</w>
बेला से</w>
बु ब्लि
बिसोर बो</w>
बिसि नायाव</w>
बिबार नि</w>
बिजिर नानै</w>
बि दा
बाय -
बानजाय नो</w>
बा ल
बय खौबो</w>
ब नाय</w>
ब ना</w>
ब खौ</w>
फान लु</w>
पाकिस्ता ननि</w>
प नि</w>
प ʼ
प ,</w>
नो ङो</w>
ने ल</w>
नु यो
नाय बाय।</w>
नां दों</w>
ना गारनानै</w>
नङा ब्लाबो</w>
नʼ वा
न ैया</w>
न म्बर
दुर्जा ंनि</w>
दाव हानि</w>
दा नाव</w>
दम ननि</w>
द सेनि</w>
द र</w>
थुलुं गा
थुन फावथाइनि</w>
थार बाय।</w>
थार बाय</w>
थाइला लि</w>
था ल
त नि</w>
ड नि</w>
टि .सि
ट ु
जों थिया।</w>
जें ना
जे र
जु र</w>
जु दा</w>
जा म्बा
जा नाय,</w>
जʼ रा
ज ्रा</w>
ज ियो।</w>
ज न
घ न्टा</w>
गोर् लै</w>
गो थे</w>
गै जा
ख्रा व
खे ब</w>
खालाम ब्ला</w>
के म्
कि ट
का सारनि</w>
क ौ
एसे यावनो</w>
उ खु
आना रामा</w>
आ वनो</w>
आ न्जा
आ खाय</w>
अज या।</w>
अ वा
ंग ाया</w>
v e</w>
t a
5 0</w>
19 9
- ब
ी या
ि नि</w>
हि ं
हाय े
हाबाफा रिनि</w>
हा ल</w>
हा बाय।</w>
हा खि
हम थानो</w>
स्रो द</w>
स् लाब
सेक्सपी ये
सि ङा</w>
सान बाय-</w>
सहे ना</w>
श नि</w>
लु ं</w>
लिया ,</w>
लां दोंमोन।</w>
ला नानै।</w>
रो न</w>
रे क्ट
र म</w>
या र</w>
मोनाबि लि</w>
मोनसे या</w>
मै गं
मे थाइ
मे डा
मुं राइ
मु हि
मु खु
मिथि गौ
माव ो।</w>
माव नायनि</w>
मा बो</w>
महाराजा ।</w>
महर नि</w>
ब् ल
बोर मा</w>
बो थो
बुं लां
बिलाइ ,</w>
बि दा-
बावदिया नि</w>
बाय ो।</w>
बाद ाय
बा रि
बा ना</w>
बा ग
बा ख
फोरमाय नो</w>
फोर मान
फैय ा</w>
फै दोंमोन।</w>
फु ङावनो</w>
फिसाइ खौ</w>
फा य</w>
नोगो रनि</w>
नेहाथा रि</w>
नि लʼ</w>
नाया व।</w>
नाय नाय</w>
ना प
दै मानि</w>
दाब से</w>
थों ।</w>
थै बाय</w>
थै खौ</w>
थि ङै
थां फिन
थां खिया</w>
था फा
था न
थ फ्
ड ,</w>
ट्रा क</w>
जोब बाय</w>
जो मै</w>
जारिमि न</w>
जाय फोर</w>
जा गोन,</w>
ज वा
ज बनानै</w>
ग्र ु
गु न्द
गु दि
गिलि र</w>
गि नो</w>
गाव सोर</w>
ग ंग्
खु न्दुं</w>
खा दों</w>
ख बर
क् स</w>
कमि टिनि</w>
एल .</w>
ए माव</w>
ए ,</w>
उद ु</w>
आइ नि</w>
आ च्
अलक ाया</w>
अब् राम-</w>
अन् थाइ</w>
अ प
{ -
( क)</w>
नो जो
हो नांगौ</w>
हि त्य</w>
हार -फा
हाजʼवा रीया</w>
स्रा य</w>
स्कु लाव</w>
स् टि
से नाप
सुबुं फोरनि</w>
सुफुं नो</w>
सिगां आव</w>
सि लिं
सि र
सार नानै</w>
साया रामा</w>
सानबो लाउ
सान ैया</w>
सान जा
सा हित्य</w>
सा फाय
सा -
समा जा</w>
सʼ नानै</w>
स ना
स नखौ</w>
शान्त िया।</w>
ले ङाइ</w>
लुबैय ो।</w>
लाइ खौ</w>
ला हार-फा
ला सेनो</w>
ला गोन</w>
रो ङा</w>
रै खाथिनि</w>
म्ब राव</w>
मोन है
मो ख
मे ल</w>
मुवा फोरखौ</w>
बोथोर नि</w>
बो सोराव</w>
बुर ैया</w>
बुर खाय
बुं जायो।</w>
बु द्र
बिफा ना</w>
बिगु र</w>
बि .
बारा द्राय</w>
बाज ियाव</w>
बा न्दो
बसुमता रीया</w>
बर गया
बड ʼ</w>
फिसाजो आ</w>
फाग् ला
न् त
नों थʼ</w>
नो -
नाया व
नाजा व
नं लिया।</w>
न ैयाव</w>
दो होर
दिहुन नाय</w>
दया राम</w>
द जों</w>
थै नाय</w>
थि नाय</w>
थार ला</w>
थाय ,</w>
थाम ,</w>
तुला रामा</w>
टा उनाव</w>
जोब स्रां
जोंरु वा</w>
ज यै</w>
छ ा</w>
गो बारै</w>
गा र्
गा ड़
गस् ला</w>
ग लायनानै</w>
खोना बाय</w>
खो मायाव</w>
खेव नानै</w>
खे ं</w>
खु मा
खु ंगु
खाय से
खा नो</w>
खा दों।</w>
ख नायाव</w>
का र
क ंग्रे
ओनसो लनि</w>
ए सि
इयु न</w>
इ सिं</w>
आसा रि</w>
आसा म
आव थायाव</w>
आफा दाव</w>
अलʼक नि</w>
अनाथ ीया</w>
i s
9 .</w>
19 7
. 00</w>
+ आ
(ख )</w>
( एसेयाव</w>
ैया नो</w>
हो ,</w>
हाव रिया
हाय ैनि</w>
हान जा</w>
हाद राव</w>
हा लु
हा थायाव</w>
हा जार
हर बाय।</w>
हम ना</w>
स् पि
सोरखा रि</w>
सोम दोन
सो ले
सुमि लाया</w>
सु खे</w>
सु ख</w>
सिमा ं
साव गारि
सा फ्रा
संसा रनि</w>
स न्थ
स जों</w>
लोगो नि</w>
लोगो आव</w>
लाया बो</w>
ला वनो</w>
ला माया</w>
ल फोरखौ</w>
रो मै</w>
रो ब्ला</w>
म् बा</w>
मोन -</w>
मोगा- मोगि</w>
मो साय
मे ला</w>
मुंखʼनां दि,</w>
मानो ना,</w>
मा रा</w>
मा दै</w>
भक त</w>
ब्रह्म वा</w>
बो बाय।</w>
बे लायाव</w>
बे दि
बुन्द िया</w>
बुजि बाय</w>
बुं दों
बु र</w>
बिबा न
बिगु र,</w>
बि जि</w>
बि गोमा</w>
बाव नाय</w>
बारा न्दायाव</w>
बाय ।
बा रे
बा न्दि</w>
बा न्द
बʼ रे
ब हाबा</w>
ब स्
ब ट
फ् ले</w>
फोरमाय नानै</w>
फोजोब नो</w>
फावथाइ गिरिया</w>
फराय सालिनि</w>
फ र्
पाब्लि के
निउ क्
नाया वसो</w>
नाया वबो</w>
नायजा बाव</w>
नागिर नाय</w>
ना जादों।</w>
न खʼ
दुब फुं</w>
दु ब्
दाहो ना
दां नाय</w>
थुन लायाव</w>
थु न</w>
थि नानै</w>
थार ,</w>
डाइ रेक्ट
ट ्‌
जों थि</w>
जो बो</w>
जे ने
जे खौ</w>
जि र
जाहो न</w>
जारिमि नखौ</w>
जाय खि
जा होनो</w>
जा सिम</w>
ज र</w>
गुबु नारि</w>
गुबु ना
गु जु
गाब नाय</w>
गर न्
गय -फा
गं फा</w>
ग न
खौ से
खोन् दो</w>
खो मानो</w>
खुगा जों</w>
खालाम नाया</w>
खा माय
किट से
कले जनि</w>
उन्द ु</w>
उ वा
उ नावबो</w>
आय दायाव</w>
आख लनि</w>
आ सार
आ सा</w>
आ माइ
आ दै</w>
आ थोन
अलका खौ</w>
अना रि</w>
o r</w>
o l
m e
4 )</w>
-सान राय</w>
- हु
- "
ै ब्ला</w>
हेफा जाब
हाब लाङो।</w>
हर े
हर नायनि</w>
हम नायसै।</w>
स् टʼ
सोरबा फोर</w>
सोद्रो मा</w>
सोदोब थि</w>
सुर नानै</w>
सुबुं फोरखौ</w>
सिगा ङावनो</w>
सिं ,</w>
सि गौ</w>
सा बु
सा नाय</w>
सा थाम
समाजा रि</w>
सं गा
स फै
शान्त ि</w>
शंक रा</w>
ल् दा
ले बʼरे
लुब ैया
लिर गिरिनि</w>
लाइ मोन
लांग ोन।</w>
ला है
ला सिनो</w>
ला म
ल फोरा</w>
रोखोम ै</w>
रा रि</w>
र न
मुस्रि मा</w>
मुं राय</w>
मु लिखौ</w>
मु लि
मिथि नानै</w>
मिथि गौ।</w>
माष् टार</w>
मनजु वा</w>
भु टा
भा नि</w>
भ ्
ब्ला थʼ</w>
बो सोन
बो ब्ला</w>
बेर खां</w>
बे लखौ</w>
बे राम</w>
बिल् डि
बिफा ं
बिजिर नाय</w>
बि लो
बि बाया
बाय लै</w>
बाद ल,</w>
बाजु राम</w>
बाजि नि</w>
बा हाय</w>
बा वा
बा नाजों</w>
फै लाव</w>
फै नायनि</w>
फु ङाव</w>
फालांग ि</w>
फां थे
फा खौ</w>
फा ,</w>
फराय नानै</w>
फʼ न</w>
प ्राइ
नों ,</w>
निख्रु इबो</w>
नि जोम</w>
नार् जा</w>
नां नायनि</w>
दों ब्ला</w>
दाल गु
दा ङा
दर खं</w>
द ्रि
द ु</w>
द मासु
थ्रो ब</w>
थि म</w>
थि खा
थाव ,</w>
थां नायनि</w>
था .</w>
थʼ ।</w>
त रु
डेभि द</w>
डि स्क
ड िया
ट्राइ बेल
ज् ला</w>
जोन िफ्राय</w>
जों लाय</w>
जो मै
जा लाङो।</w>
जा नो।</w>
जा गासिनो</w>
जं खाय
ग् ला
गोला उ</w>
गोरो ब</w>
गोजोन ै</w>
गो ना
गैया ।"</w>
गै ला
गे रे
गे न</w>
गे देर
गिलु ं</w>
गि ज्रा</w>
गाइखे रखौ</w>
गथʼ -
गग ल्
ख्र े</w>
ख् ला</w>
खोनासं नो</w>
खेब नै</w>
खें फोर
खु सि
खिन् थानो</w>
खामानि नि</w>
खन साय</w>
के स</w>
का माख्
क ्रि
क ल
ओंखार लाङो</w>
एबसु नि</w>
ए नै</w>
उ -
आलाइ नि</w>
आर सा</w>
आनारी खौ</w>
आद ्रा</w>
आथि ं
आखु थाय</w>
आ हार</w>
अनसुं थाइ</w>
अ ब्लानो</w>
ंग्र ो
ंग े
q u
e d</w>
a p
2 1</w>
1 3</w>
- जा
" आं
हो लां
हु गारनानै</w>
हु ,</w>
हि न्दु</w>
हाया ब्ला</w>
हम नाय</w>
हम थानानै</w>
स्रि ,</w>
स्र ोम</w>
सौग्रा व
सोर खौबा</w>
सों लु
सों बाय--</w>
सों खारि
सो लायनानै</w>
से के
सुखे ,</w>
सिगा ङा
सि नानै</w>
सासे बो</w>
सार ।</w>
साइके लखौ</w>
सप् ता
स से</w>
स नाव</w>
ली ,</w>
लाय नायनि</w>
लाबो यो</w>
लाखि नानै</w>
ला ।"</w>
ल क्ष
रो जाब
रु नि</w>
राइजो फोरनि</w>
रां ।</w>
र ौ</w>
मोन् दों।</w>
मोदै खौ</w>
मो दाइ</w>
मो ख्राया</w>
मै नो</w>
मे र
मिथि खा
माया बो</w>
माबार ।</w>
भुट िया
भ ि</w>
बेसेबां बा</w>
बेरखां दों।</w>
बुं ब्ला</w>
बु नानै</w>
बिज ने
बि ख्
बाव दिया</w>
बार ी
बायद ियै</w>
बाय ाव</w>
फै लाय</w>
फु ल</w>
फिसा -
फाहाम थायनि</w>
फाव दु
फा लो</w>
पुलि सा</w>
पु रनि</w>
नै -
ने म</w>
निउक् लिया
नानै ]</w>
नागिर नो</w>
ना मा
नवा वनो</w>
न र
दोन् नाय</w>
देरहाग ्राया</w>
दे रा</w>
दे ब
दुप साव
दाद ्रि</w>
दा ला
दा रि</w>
थे ं
थि लियाव</w>
थां ख
था लानि</w>
था नाया</w>
था ङा।</w>
थ ियै</w>
ण ा
ड्र इं</w>
डि स्
डाक् ता
ज् लाय</w>
जोब दों।</w>
जिब ौ</w>
जिं गा
जाया खिसै।</w>
जायगाया वनो</w>
जा ब्लानो</w>
ज गाय
ग्र ो</w>
ग्र ीम
ग्र ायाव</w>
ग् लुं
गोख्र ों
गो बा</w>
गो जों</w>
गै ला।</w>
गुसु ं</w>
गाय सन
गा थाम</w>
ग नि</w>
खौरां गासे</w>
खैफो दनि</w>
खे वनो</w>
खाय ा।</w>
खान्थि जों</w>
खा बाय।</w>
खा ब</w>
कल्प नाया।</w>
ओंखार बाय।</w>
एसे ग्राब</w>
उन्दु लां
आबौ ,</w>
आना राम</w>
आखु ,</w>
आइजो आ</w>
आइ कʼ
आ ब्
आ फो
अफि स</w>
अखा नायै</w>
ʼ ,</w>
2 6</w>
2 2</w>
1 1
.... ।</w>
- ह
नोजो राव</w>
हेला रामा</w>
हु स</w>
हा गोन
सेप्तेम्बर खालि</w>
से नानै</w>
सु देम</w>
सिम ।</w>
सि लाया</w>
सि मान</w>
सासे लʼ</w>
सान नाया</w>
सान थौ
सा रिनि</w>
सा नो
सरासन स्रायै</w>
सं नानै</w>
सं ख्रि</w>
सʼ ना
स मि
श्र ी
शान्ति खौ</w>
व र्
लो ङै</w>
लु ,</w>
लि -
लाय नि</w>
लाइ मोन</w>
ल स</w>
राहा जों</w>
रंजा लिया</w>
मोन् नाया</w>
मोन् दों</w>
मोनाबि लियाव</w>
मोन हाबो</w>
मोन ब्रै</w>
मोन दोंमोन</w>
मो दाय
मे से
मे उ</w>
मुं मा
मुं ख्लं</w>
मिनि नाय</w>
माय ैनो</w>
मा स्
मनजु लाया</w>
म न्थ्र
म त
भारत ाव</w>
बो नि</w>
बेसा द</w>
बेव हायनो</w>
बे ।</w>
बे रा
बि सायखʼ
बि लिर
बार गʼ</w>
बाय जो</w>
बां द्राय</w>
ब न</w>
फोले रनि</w>
फिसाज् लाखौ</w>
फाव थाया</w>
फाइ ल</w>
प र्
नोंसोर खौ</w>
नों सिनि</w>
नों सा
नेर् सोन</w>
नि दान</w>
नाया व,</w>
नायहर ो।</w>
ना जायो।</w>
द् ला</w>
दोन नो</w>
दो म</w>
दैदेन गिरि</w>
दे हायाव</w>
दुं हाव</w>
दिन्थि दों।</w>
दिनै सो</w>
दाव बाय</w>
दाव खो
दा बुं
दा नायाव</w>
दंबाव ो</w>
थो जासे</w>
थेफे नखौ</w>
थिं जाय</w>
थाम थि</w>
था सार
थ ं
त ्रा
टेबि लाव</w>
ट निफ्राय</w>
जोम ैया</w>
जों ब्ला
जे से</w>
जिल् ला
जिब -जुना
जि राय</w>
जि म</w>
जाबाय ।"</w>
जाफुं सार</w>
जा हार</w>
जा बाय-</w>
जा जों</w>
ङा ,</w>
ग्रीम उइ
गोहो आ</w>
गोसो ज्लि
गोग्लैय ो।</w>
गो सार
गो गो</w>
गाज ्र
गा मिनि
गा ब्रै</w>
ग गैया</w>
खोन् दो
खो ला</w>
खो न</w>
खि खौ</w>
खालाम नांगौ</w>
खाला य</w>
के सखौ</w>
कि उर
किउर िय
का सार</w>
का म
क र
ओनसो लाव</w>
इन्दुप्र भा</w>
आब ौ।</w>
आब हा
आग्रा ं</w>
आखाइ निफ्राय</w>
आख ल-
अब थि
अफिसा र</w>
अनसु ला</w>
अज द</w>
अ सि
अ दालगु
अ ,</w>
ंगि ना</w>
ंग ि</w>
t er
Th e</w>
- गु
" नाथाय</w>
ो मनि</w>
हो फैयो।</w>
हो नायखौ</w>
हाब है
हाब नो</w>
हां गार</w>
हा- हु</w>
हा जासे</w>
हरखा बै</w>
ह गार</w>
स्रि -बि
सोम नानै</w>
सिथ् लायाव</w>
सिगां नो</w>
सि न्
साव गारिखौ</w>
सान बाय।</w>
सा लिया</w>
सा बि
सम् प
वा र
ल् ड</w>
लाजि नाय</w>
लाइजा म
लाइ नि</w>
ला से</w>
ला माया
ला नानैनो</w>
ला क
र् स</w>
रो हो</w>
रे न्द्र</w>
राय जो
रा -
र े</w>
यि ं</w>
या व।</w>
मोन खो</w>
मोजां ।</w>
मोजा ंनि</w>
मेट्रि क</w>
मे म्बर
मु स्री
मु नि</w>
म र
ब्रा ,</w>
बे ं</w>
बिसोर जों</w>
बियो -</w>
बिथिं निफ्राय</w>
बिथां मोननि</w>
बिथां खि</w>
बि हा।</w>
बि नानै</w>
बाहागो नि</w>
बाव बाय</w>
बाय ;</w>
बाबु वा</w>
बाथ्रा फोरखौ</w>
बा म
फो थाय</w>
फै गासिनो</w>
फाया बो</w>
फा र</w>
फ नि</w>
प् लि
पार् ट
प लि
निउक्लिया र</w>
नाय साय</w>
नागिर दों।</w>
नरे श
द् ला
दोर ो
दों ।
दै ।</w>
देग् लाय</w>
दिहुन नानै</w>
दाव ला</w>
दाइ निं</w>
दां नानै</w>
थु ंग्रि
थिउरिया फोरा</w>
थार दों।</w>
थाय जों</w>
थ ैया</w>
ज्लाय नानै</w>
ज्रा ब</w>
जौ खौ</w>
जों नाव</w>
जिराय नो</w>
जा मार
ज यो</w>
ज नो</w>
ग्र ाय
गोरि ब</w>
गोमो थाव</w>
गोमा नाय</w>
गोनो खो
गेजे रनि</w>
गा न्दु
ग हे
ग थाय</w>
ख्रि ,</w>
ख् लाब
खोर ोम
खुं थाइ</w>
खालाम है
खा न्था
खा नाया</w>
ख था</w>
कल्प ना,</w>
क ृष्
ए का
उल् था</w>
उन -
आलाइ खौ</w>
आय दानि</w>
आदा र</w>
आच् छा</w>
आग दा</w>
आ न्दो
आ न्द
आ ग्
आ ,</w>
अर खिया</w>
अब् राम</w>
ʼ खौ</w>
v er
u r
ou n
l a
in g</w>
d a
> मुं.</w>
.ए .</w>
- दौ
) नि</w>
जारिमि ननि</w>
ैय ा।</w>
िया व
होन ो।</w>
हो यै</w>
हो खार</w>
हाव रिया</w>
हाया खै
हाम फे
हा थ
हम था
ह ं</w>
सोरखार खौ</w>
सोमावसार नाय</w>
सोद्रोमा फोरा</w>
सो मो
सेया वबो</w>
से व
से मानि</w>
सु ग्
सि लि
सासे नि</w>
साव राय</w>
साव गारिया</w>
सान दोंमोन</w>
सान -
सा हाखौ</w>
सा बाइ
स नो</w>
श नि
वा इ
लोगो नो</w>
ले क
लि क</w>
लाहार-फा हार</w>
लाइ फां
ला हार</w>
ला दोंमोन</w>
ल खʼ
रुम निफ्राय</w>
रु पा
राय नो</w>
रां ,</w>
रा दाब
र ू
या रनि</w>
य ,</w>
मोन ोब्ला</w>
मोन नाया</w>
मोन नायखौ</w>
मोदो मा</w>
मोदै जों</w>
मोखां नि</w>
मुस्री मा</w>
मिथि मोननाय</w>
मिजि ं
माव ग्रा
मा थो।</w>
मले नजों</w>
मन्जु खौ</w>
मखʼ जाथाव</w>
मंगल सिं</w>
बो दोर</w>
बेल स्रिया</w>
बेर खाङो।</w>
बेद द</w>
बुंनाय सै-</w>
बुंनाय साय</w>
बु नो</w>
बिसि ना</w>
बिबुं थि</w>
बिना राम-</w>
बिखु ङाव</w>
बि याव</w>
बि खौनो</w>
बाहाय ो।</w>
बाव दियाया</w>
बानाय नाय</w>
बांलादे श
बा सिनो</w>
बा न</w>
बा थि</w>
बबे याव</w>
ब बेनि</w>
ब न्
फ्र ोम</w>
फोजोब स्रां
फो सा
फैय ा।</w>
फे रा</w>
फिसा फोरखौ</w>
फिन् नाय</w>
फावथि ना
फा न्
ने पा
ने ट
नु ब्ला</w>
नु ना</w>
नि ं
नार सिन
नाया खै</w>
नागिर ो</w>
नां थार
नङा मोन</w>
नंग ौ।</w>
नं मार
न ोर
न वा</w>
न न्द
दोन् नो</w>
दोन ो।</w>
दोन ि
दों ना</w>
दै मा</w>
देर हाग्रानि</w>
देर नाय</w>
दु लु
दु र
दु ब</w>
दिल् ली</w>
दिन्थ ियो</w>
थे ं</w>
थुनलाइ याव</w>
थिउरिया फोरनि</w>
थिउ रिया</w>
थाखाय बो</w>
थां हां</w>
था सान्द
था रु
था बै</w>
था ना
था ङै</w>
थबे न-</w>
ता ,</w>
त िया</w>
त -
ड ्राइ
टेबि ल</w>
ट ʼ</w>
ट -
जे ला</w>
जे राव
जिराय नाय</w>
जार ौ
जायगा खौ</w>
जाय ाव</w>
जा सेनो</w>
जा जोब
ज मा</w>
ग्रा फ</w>
गोसो वाव</w>
गोजा ननि</w>
गैया ब्लाबो</w>
गाव सिनि</w>
गमा मायैनो</w>
ग दʼ
ख्र ं</w>
खौ से</w>
खो ला
खेंफोर थि</w>
खे बाव</w>
खाफा लनि</w>
खानाइ खौ</w>
खां दों।</w>
खा स्रि-बि
क्ला स</w>
के रा
कर् ण
कम्पिउटा रा</w>
कʼक ्राझा
उरि ष्
उ थु
आना न</w>
आं हा।</w>
आ य</w>
अल का</w>
अ मा
अ बिना
u gu
ugu st
ugust ,</w>
o t</w>
Windo w
I n
A ugust,</w>
1 4</w>
........ ...</w>
.. ।</w>
" मा
" आ</w>
हो म्बा
हो बो
हे ला</w>
हिसा ब</w>
हारसिं नो</w>
हाग ्रायाव</w>
हां गार
हा ले
हा रा</w>
हा मा
हा थाय</w>
सोमावसार नायनि</w>
सों नानै</w>
सेया रि</w>
सुबुं खौ</w>
सिख् ला,</w>
सि लाइ</w>
सि रि।</w>
सि मा</w>
सि खा</w>
सि .</w>
सान ।</w>
सान दों।</w>
सलʼ ।</w>
सलʼ माखौ</w>
सलʼ फोरा</w>
सरका रनि</w>
सम निफ्रायनो</w>
सं नो</w>
स ैया</w>
स लि
ष् टा
लो ङो</w>
लुबै नायखौ</w>
लु नि</w>
लु नाय</w>
लिया वनो</w>
लाय ो
लाङो ,</w>
लां खार
ला स
ल म
ल फोराव</w>
रों गौ
रो जा
रै सु
रे जें</w>
रुं सारि</w>
राय ै</w>
राय लायनो</w>
राइजो आ</w>
यै ।</w>
म् पि
मोन ैनि</w>
मोन सिं
मोजा ङैनो</w>
मो दैया</w>
मेग नखौ</w>
माव रिया</w>
मा न्
महा राजानि</w>
म ण
ब्ला बो,</w>
ब्रे क
ब्र ि</w>
बो सोन</w>
बो राइ</w>
बो थि
बैसो आ</w>
बे लाय</w>
बे थेर</w>
बिलिफा ङा।</w>
बिलिफा ं</w>
बिमा-बि फा</w>
बिदि बादि</w>
बार नाय</w>
बायजो याव</w>
बाय ो</w>
बामु न</w>
बाथु वाया</w>
बां ला</w>
फ्रा नो</w>
फ्र ु</w>
फोथाय खेब
फो लाव
फै ।</w>
फै सा
फे स्ला</w>
फु थु
फि साय
फि ल्
फा हार</w>
फा म
प्र फे
पा टि
न्दा नि</w>
नोजोर जों</w>
नोगो र</w>
नोंथां खौ</w>
नै ।</w>
ने गासिनो</w>
नार्जा री
नाय ।"</w>
नाजा दोंमोन।</w>
नाङा ,</w>
नांगोन ।"</w>
ना म</w>
नङा लै</w>
ध ि
दोन बाय।</w>
दोंमोन ;</w>
दैदेन नायाव</w>
दैदेन गिरि
दुखु थिया</w>
दु इ
दि प
दि उ</w>
दाव हा
दाफो दार</w>
दाजाब दाखौ</w>
दां ।</w>
दा मै</w>
दा बाव</w>
दं खायो।</w>
द ्रे
थे ख्रे
थुन फावथाइ</w>
थिय ो।</w>
थाइ या</w>
थां नायाव</w>
था ला</w>
था न्दै
था नांगौ</w>
था खोमा
ति नि</w>
त ीया</w>
त न्त्र
टे क्
टा रा</w>
जौ वा</w>
जों लʼ</w>
जेके टखौ</w>
जे ना,</w>
जी उ
जिरा द
जायखि जाया</w>
जाम् बि
जा नायसै।</w>
ज र
ज ,</w>
च ु
ङो ब्ला</w>
ग्रा फोरा</w>
गोबा ख्र
गोजौ नि</w>
गो थों</w>
गुदुं जों</w>
गिख्रं थावना</w>
गावबु रा</w>
गा रांजों</w>
गलʼ वा।</w>
गं स्रिनानै</w>
ख्र ियाव</w>
खो म</w>
खो ब</w>
खु ंग्रि</w>
खि सै
खालाम ।</w>
खालाम बावनो</w>
खा वनो</w>
खा बाय</w>
खʼ नो</w>
ख ना</w>
का न्
का इ
क लं
ओंखार लाङो)</w>
इराग्दाव नि</w>
इं राजि</w>
इ नायनो</w>
आफाद गिरि।</w>
आइ ,</w>
आं हाबो</w>
आं सो</w>
आ खाया
अलका नि</w>
अल ख
अ र्
अ टʼ
अ ʼ
l e</w>
i t
4 0</w>
1 3
... ।"</w>
- जु
- आ</w>
हो यो,</w>
हो नाय,</w>
हारिमु नि</w>
हाय ।</w>
हाम ो।</w>
हाम ला</w>
हाब फैनाय</w>
हा लि
हम दांनो</w>
ह मा
ह ʼ</w>
स्रे म</w>
स्रा व
स् पी
सै बार
सेंग्रा फ्रा</w>
से ल</w>
सुजु ग्रा</w>
सिने मा</w>
सि ये
सि खां
सावराय नो</w>
सावराय नाय</w>
साया राम,</w>
साय खʼ</w>
सान् नाया</w>
सान स्रि
सान जा</w>
सा थाम</w>
सा ं</w>
सर खार
संगा लि</w>
स ैया
वे र</w>
व लʼ</w>
लु फुं
लाया ब्ला</w>
लाबो दों</w>
लाफा नानै</w>
ला नायाव</w>
ला नायखौ</w>
ला दि
लादि मि
ल ैयै</w>
ल हे
रे ल
रि नो</w>
रामनाथ ,</w>
राजा खौ</w>
रा हाखौ</w>
रा ना</w>
रंजा नायनि</w>
मोन थाय</w>
मेले म
में नाय</w>
मु सा
मि स</w>
मि न्थ
मानि बा</w>
मानि नां</w>
मानि खौ</w>
मा ला</w>
मा खन</w>
मह ना</w>
म ोर
म हि
भ् लादिमि
भारता रि</w>
ब्रा ब</w>
ब्र े</w>
बो स्रां
बेसा द
बेरे खायै</w>
बेर फ्रु
बेनि नो</w>
बेग र</w>
बे मारि</w>
बे न</w>
बुं बाय।</w>
बुं नांगौ</w>
बिब्दि ब्ला</w>
बिफा ं,</w>
बि स्कु
बाव गोन</w>
बारगʼ नो</w>
बार सोम
बा सि
बा सा</w>
बा न्दि
बा ज्
बर ु
ब ोन
फ्रा म</w>
फोरों गिरि</w>
फोर जा</w>
फोजोब नानै</w>
फै सालि</w>
फै नायाव</w>
फै नाया</w>
फै दों
फे रै</w>
फे ं
फुं खा</w>
फु जा</w>
फि नो
फालांग ियारि</w>
फार ियाया</w>
फा ल्
फा थो</w>
प्राइ भे
पु ट</w>
पि. टि.सि
पाब्लि क</w>
ने बाय</w>
नु हु
नु जागोन।</w>
नि क</w>
नार्जा रीया</w>
नाया थʼ</w>
नायहर बाय</w>
नां थाव</w>
ना ले
नरे ना</w>
नंगौ ,</w>
न े</w>
ध र</w>
दोंमोन ।"</w>
दै ख्रं</w>
दि ं</w>
दाव -
दाजाब दा
दा लाय</w>
दा लाइ</w>
दा बा
दं फांनि</w>
द म</w>
थ्र ʼ
थो नो</w>
थै नानै</w>
थाखाय ,</w>
थां दों।</w>
थां खो</w>
था नाय
था नांगोन।</w>
था जिम</w>
था ंगोन
थ ्रा
थ ब्
ड ु
टे बो
टि स</w>
टि .</w>
ट जों</w>
जौ ,</w>
जोब नायाव</w>
जों बा</w>
जि से</w>
जाया खै
जाम् बा</w>
जात ्रा
जा वनो</w>
जा पा
चा र्
ग्र ी
ग् लाब
गोसो या</w>
गोरा ,</w>
गोदा ना</w>
गो रा।</w>
गै लिया</w>
गुर ैयै</w>
गिलु -बा
गिलु -फा
गि लिर
गार नाय</w>
गाब ो।</w>
गां नै</w>
गा रा</w>
गा ब्
गला फ
गनाय थि</w>
गʼ साइ
ग िया</w>
ख्रे ब</w>
ख्रा य</w>
ख् ला
खौरा ंगि
खें नानै</w>
खु लि
खु गाया</w>
खि न्थि</w>
खि ,</w>
खाय सो</w>
खाम सालियाव</w>
खा लिनि</w>
खा जा</w>
खरʼ नि</w>
ख फʼ</w>
कौ टि</w>
का स्त
कमाण्ड खौ</w>
क मे
क जों</w>
एन .</w>
ए इ</w>
उ ट
आलु मि
आय दाखौ</w>
आइ -
आं निफ्राय</w>
अबं लाव
अक्ट बर</w>
w w
s p
ra g
or d
en t
d e
: ।</w>
( ग
' नि</w>
" सोर</w>
! !!</w>
। ।
ैया वनो</w>
िया न</w>
हौवा नि</w>
हो म्बा</w>
हिन्जाव सा</w>
हिन्जाव फोरा</w>
हाम थार
हाब हैबाय।</w>
हाजो नि</w>
हाख राव</w>
हा सि
हर ।</w>
ह रि
ह ,</w>
स्व र</w>
स्रा व</w>
स् ल
सोमबोर ा</w>
सेप्ते म्बराव</w>
सेंग्रा फोरा</w>
सुबुं साइ
सुखु -
सु नि</w>
सु न
सु खु</w>
सि ङैनो</w>
साव थाल</w>
सालि साव</w>
सालि सनि</w>
सार ।"</w>
सार ,</w>
सान् दोंमोन</w>
सांग्रां थि</w>
सा लाय
सलʼ ,</w>
स निफ्राय</w>
स ती
स ंग्रा
श र्
लोगो ।</w>
ले ट</w>
लि म्पि
लाय ो,</w>
लांगो नायाव</w>
लां फा
ला र</w>
ला नाया</w>
ला गोन।</w>
रिं गा
राव जोंबो</w>
र िया।</w>
या वबो</w>
या नि</w>
मोना बिलि
मोन नैजों</w>
मो थो</w>
मु श्री</w>
मिनि खै
माव ो</w>
माव बो</w>
माव थि
माबा -मा
मानसि फोर</w>
महर -
मनजु नि</w>
म थ
भा र</w>
ब् लाया</w>
बोथो राव</w>
बो नायनि</w>
बै रा
बेरखां दों</w>
बेखेवगा स्नि</w>
बे मा
बुंनाय सै</w>
बु लि</w>
बिलाइ नि</w>
बिना रा
बिथिं आव</w>
बिगु मै
बिगियान गिरिफोरा</w>
बि गो
बाय मोन</w>
बान्था खौ</w>
बाज ै
बांसि नै</w>
बां नो</w>
बा ब</w>
बा नानि</w>
बर पे
फोरमाय ग्रा</w>
फोर ्
फोर खौ।</w>
फै सा</w>
फै दोंमोन</w>
फेरा खै।</w>
फु रा</w>
फावथाइ ।</w>
फान नो</w>
फा राग</w>
फसं था
फरायसा फोरा</w>
फ ्रि</w>
फ ो</w>
प्र दे
प्र दी
पु राना</w>
प रे
न्दा ,</w>
न् च
नों खि</w>
नो लै</w>
नेहा द</w>
नु जानाय</w>
नि )</w>
नार्जा री</w>
नाय सै-</w>
नागिर ब्ला</w>
न ु</w>
धोन -दौ
दैदेन गिरिफोरा</w>
दे -
दिन्थि फुं
दा रनि</w>
दा ना</w>
दा ग
द निफ्राय</w>
थों सै</w>
थेफे न
थुनलाइ खौ</w>
थाव ा।</w>
थार ैब्ला</w>
थाय ।</w>
थाइ याव</w>
थां गासिनो</w>
था नायसै।</w>
था नानि</w>
था दों</w>
त् र</w>
डि मा
ड ʼ
टि .
ट क
जोहोलाव नि</w>
जोलै नि</w>
जों रू
जों नाय</w>
जो नि</w>
जिनि स</w>
जि नै</w>
जार ौ</w>
जा थों</w>
ज रा
ज यो।</w>
गौ थुम
गोरा नि</w>
गोम ो</w>
गोबाव नि</w>
गोख्र ै
गैया जासे</w>
गे ट</w>
गु ड</w>
गिदिं नानै</w>
गि ,</w>
गाव ,</w>
गार ियाव</w>
गाम ियारि</w>
गाब ज्र
गाब खʼ
गां ,</w>
गा न्नाय</w>
गय थिखौ</w>
ग सा
ग म
ख्र िया</w>
खौरा ङा</w>
खोम दोन
खो थायाव</w>
खि न्थि
खालाम नो।</w>
खाला र
खार खोमा
खाबु खौ</w>
खाफा लखौ</w>
खान्थि खौ</w>
खां नायाव</w>
खां दों</w>
खर थे
खन नानै</w>
ख ंनि</w>
ककराझा र,</w>
कʼक राझा
क ट
ओ रै</w>
एस .</w>
एरै बादि</w>
एफा ग्राफ</w>
उन्दु नाय</w>
उ साव
इयु नाव</w>
इ ज्
आरत िया।</w>
आइ या</w>
आं गो
आं -</w>
आ माइ</w>
अर हे</w>
अम ब्रा
अनजि मा</w>
अन साय</w>
अ लिम्पि
अ रा</w>
v e
s e
o li
3 0
1 9</w>
-- -
" नोंथाङा</w>
" आ
ि ,</w>
हो र</w>
हु खु
हाल मा
हारिमु ,</w>
हारि ,</w>
हाय ना</w>
हांखो जों</w>
हा मा</w>
हा थिया
हा इ</w>
स्क ृ
सौ है
सोनार नानै</w>
सो ।"</w>
सो लायो।</w>
सो ला
सो मोन।</w>
सो नो</w>
सेया राव</w>
सेन्दे ल</w>
सेक स्पी
से रे
सुथु र
सुइ साइ
सिला राम</w>
सिनाय थिखौ</w>
सिन सो</w>
सिन ,</w>
सिख् लाखौ</w>
सिं ।</w>
सि नाव</w>
सालि स</w>
साया नो</w>
सान् ति</w>
सान नैसो</w>
सा ल</w>
सा राव</w>
सा बो</w>
सा न्दु
सा नाव</w>
लुबैय ा।</w>
लु यै</w>
लि स</w>
लाबो दों।</w>
लांग ोन
ला म्फा</w>
लʼ सो</w>
रो म</w>
रो नाव</w>
रैसु मै</w>
रेन्जा रा</w>
रुवा थी</w>
रि निफ्राय</w>
रा खै।</w>
र ो</w>
र थʼ</w>
यो )</w>
या सो</w>
मोना खै</w>
मोन जों</w>
मोन जाया।</w>
मो नायाव</w>
मो ख्रा
मु साहा
मु गा
मिनि ट</w>
माव रिया
माव फुं</w>
माबा-मा बि</w>
मानसि यानो</w>
मा सि
मन् स</w>
म े</w>
म ृ
म नानै</w>
भ रम</w>
बो ।"</w>
बो गासिनो</w>
बै था
बेला सि</w>
बेखेवगा नै</w>
बुंहर बाय--</w>
बु रै</w>
बिसोर ।</w>
बिलिफां खौ</w>
बिनानाव नि</w>
बिना राम
बिना नाव।</w>
बि बो
बि गोमा
बाव बाय।</w>
बारहुं खा</w>
बाबु ।</w>
बानजाय फुं
बाजा राव</w>
बा लाय</w>
बा नाय</w>
बा ङा
बह ननानै</w>
बरʼ खौ</w>
बरʼ ,</w>
ब म
फ्राय नो</w>
फै दों,</w>
फै ,</w>
फि नो-</w>
फार नैजों</w>
फाय ो</w>
फां थेनानै</w>
फा थै</w>
फटʼ खौ</w>
फ बनानै</w>
प्लि के
पु र,</w>
पि.टि.सि .ए.
पा ट
नोजोर ा</w>
नों सो</w>
नेर सोन</w>
ने म
नु दों</w>
निख्रु य</w>
नि रा
नाय- जोम
नाय लʼ</w>
नाय नि,</w>
नाय थिं</w>
नाय गोन</w>
नाय खौबो</w>
नाय -</w>
नाजा नायाव</w>
नागि र</w>
नांगौ ।"</w>
नांगोन ,</w>
नां लाय
नां जाब
नʼ खर
न म्ब
न बे
धो न</w>
दोन् नानै</w>
दो मै
देर े</w>
देगार खौ</w>
दुखु खौ</w>
दिल्ली ,</w>
दिनै सिमबो</w>
दि नाव</w>
दा सान्दि</w>
दा वनो</w>
दा गाब
दं फां
दं ना</w>
थ्रो दनानै</w>
थैय ो</w>
थे र
थुनफावथाइ या</w>
थिय ो</w>
थाम थिम</w>
थाङो )</w>
थाइला लि
थां फा
थां दिनि</w>
था रो
था फै
थबे न</w>
ति ,</w>
डा र
ट्रे जे
ट्राइबेल फोरनि</w>
जोब थे
जों -
जो थोन</w>
जो ङै</w>
जु वा
जी उ</w>
जायो -</w>
जाय फ्रा</w>
जाबाय मोन।</w>
जाफुं सार
जा बावनो</w>
जा न्
जा नोबो</w>
जा नो,</w>
जा खां</w>
ज थाय</w>
चि त्त
ङा खै।</w>
गोसो खां</w>
गोर लै
गोम सार
गोन -</w>
गोदा नखौ</w>
गोजोन ्
गोजा ननिफ्राय</w>
गोग्लैय ो</w>
गोख्रो ङै</w>
गो खा</w>
गुमु र</w>
गिलि द</w>
गि थाव</w>
गाव रावा</w>
गाव बा-
गार हर
गान नानै</w>
गां फा</w>
गा रो
गा नो</w>
गलʼ खौ</w>
ग ब्
ख् लाब</w>
खे मा</w>
खु लि</w>
खु न</w>
खि -
खाव लायाव</w>
खालाम दोंमोन।</w>
खालाम गोन।</w>
खामानि फोरखौ</w>
खां ब्ला</w>
खा ङो,</w>
खा -
ख ल</w>
कक्राझा र</w>
क न्
औ ,</w>
ओंखार ो।</w>
ओंखार नो</w>
ए प्लिके
उन्दु ग्रा</w>
उद या
उ दि
आसा गि</w>
आर ति</w>
आखु फोरा</w>
आं हा
आं दि</w>
आं खौ।</w>
आ माय</w>
आ ब्रु
अबथि रा</w>
अनसु लि</w>
अ जाया</w>
r u
p e
o w
at e</w>
a d
D O
C om
1 7
1 2
.सि .</w>
.ए ल
.... ।"</w>
, -</w>
" नंगौ</w>
। "
ोन ो।</w>
ै खाय</w>
िय ैनो</w>
होन बा</w>
हो योब्ला</w>
हो बाय,</w>
हो नायसै।</w>
हो नांगोन</w>
हेफाजा बै</w>
हुगार ो</w>
हाबि ल
हांखो आ</w>
हां गारिया</w>
हा दोंमोन।</w>
हा थाय
हा खर</w>
हरबिला सा</w>
हर ्
हटे लाव</w>
ह ब
स्र ाय
सोरबा बा</w>
सोरजि नो</w>
सोरजि नाय</w>
सोदोब जों</w>
से खौनो</w>
सुला द</w>
सु ं</w>
सिया ल</w>
सि रां</w>
सानै सो</w>
सानजौ फु</w>
समाय स्रीया</w>
सम ।</w>
स ह
स ब</w>
स न्था
श ु
वा खौ</w>
लो बनानै</w>
लेबʼरे ट
लें हर
लिर नायाव</w>
लिर गिरिफोरनि</w>
लिया बो</w>
लाय ोब्ला</w>
लाबो यो।</w>
लाइ सि</w>
लाइ ,</w>
लां नायसै।</w>
ल ीया</w>
ल ग्
रोङा ,</w>
रे जि
रि न
रि -
राव आ</w>
राण ी</w>
राज खान्थिनि</w>
राइजो फोरखौ</w>
या ,</w>
मोन ग्रा</w>
मोग थां
मैहु रा
मुलुग खौ</w>
मुं मानि</w>
मिहि र
मि ल
मि न</w>
माहा जो
मानि नानै</w>
मा स</w>
मा गोन</w>
महनला लनि</w>
मले न,</w>
मंग ल</w>
म ो</w>
म हे
म बेबा</w>
म थर</w>
म डे
ब्ला थाय</w>
ब्ला उ</w>
ब्रु ं</w>
ब् राम
बोलो जों</w>
बोरै थो</w>
बोराय खौ</w>
बो खांनानै</w>
बो आ
बैसा गु
बेखेवगा थाम</w>
बे खौ
बुं जासे</w>
बिमा ,</w>
बिथिं खौ</w>
बिजिर गिरिया</w>
बि हारि</w>
बि सुखे
बि दाया</w>
बि -
बाहागो खौ</w>
बाव दों।</w>
बार नो</w>
बायदि सि
बाय ना</w>
बाख नाय
बांगा ल</w>
बा बा</w>
बा इ</w>
बरʼ फोरखौ</w>
बबे निफ्राय</w>
बद माइ
ब क
फ्रा इ</w>
फ् लानानै</w>
फोर ो
फै फिना
फै नायसै।</w>
फे र</w>
फुदुं नानै</w>
फिन गोन</w>
फिन खौ</w>
फावथाइ या</w>
फाग् लि
फा ।</w>
फा ख्रि</w>
फं बाय।</w>
फं नैसो</w>
प्रे स</w>
प् ला
पा उ
नोगो राव</w>
नुवा खै</w>
निफ्राय सो</w>
नि र्
नाय ग्रा
नागिर ना</w>
नʼ खौ</w>
न ङै
द्र इं</w>
दोनथʼ नानै</w>
दोन है
दोन दों।</w>
दों लै</w>
देरहा साद</w>
देर नो</w>
दे म
दुपसाव फा</w>
दिनै नो</w>
दि ननि</w>
दाब सेयाव</w>
दाजाब दाया</w>
दाइ न</w>
दा र,</w>
दा ङा</w>
दा ग</w>
दा खालि
दा क्
दरबा सिया</w>
दंबाव ो।</w>
दं मोन,</w>
दं ब्लाबो</w>
द देरे</w>
थे र-
थु र
थु ंग्र
थि रां
थार नि</w>
थां दो।</w>
था दोंमोन</w>
था खानाय</w>
थ ैया
तरु ण</w>
ड्र यिं</w>
ट्रा क
टेन सन</w>
टे कटि
जोब ।</w>
जै ,</w>
जे ल</w>
जे ब्ला
जे निबो</w>
जिरा दखौ</w>
जिउ वाव</w>
जि बारे
जाब नानै</w>
जा ल्
जा लांदों।</w>
जा ब्र
जा बा</w>
जा दब</w>
जा गौमोन</w>
ज ियो</w>
ज न</w>
च ल</w>
च र
ङा वबो</w>
ग्रा खौ</w>
ग् लि</w>
गौ ,</w>
गोहो जों</w>
गोसो वा</w>
गोर्बो नि</w>
गोर्बो आव</w>
गोदा न
गोजा व
गो ब्राम
गेजे रावबो</w>
गे टाव</w>
गिलु-बा लु</w>
गिरि खौ</w>
गाहा इ
गाब ज्रि</w>
गान् ध
गा सेयाव</w>
गा राव</w>
गथʼ फोरखौ</w>
ग े</w>
ग ,</w>
ख्रि खौ</w>
खोमोर नो</w>
खोम दोना</w>
खुन ु</w>
खु बै
खिन्था है
खि नो</w>
खावलाय दों।</w>
खाव लाय</w>
खाव नाय</w>
खालाम नायखौ</w>
खाइ ला</w>
खा ब
खा नायाव</w>
खा खौ</w>
खब र</w>
खन्थाइ गिरि</w>
ख ृ
ख त</w>
औ वानि</w>
ओंखा म
ओ हो</w>
ए रे
ए ड
ए खे</w>
इयु ननि</w>
आसा न</w>
आव गायाव</w>
आरि फोरा</w>
आरि खां</w>
आरत िया</w>
आर ʼ
आना रामनि</w>
आनजा दाव</w>
आथि ंखौ</w>
आख ल
आ दै,</w>
आ जावनो</w>
आ खाय
अनु ले
अन नायनि</w>
अख्रा ंनि</w>
अ न</w>
अ ंगु
ʼ ।</w>
o u</w>
g h
el l
e t
a tion</w>
N o
8 ,</w>
1 6
1 4
........ ....</w>
" दे</w>
" आंनि</w>
िय ो
होआ ।</w>
हो दो।</w>
हो दोंमोन</w>
हो दो</w>
हेमले टा</w>
हे द</w>
हाया खैमोन</w>
हाजे व</w>
हा न्थ
हा दो
हर मʼ
हम बाय--</w>
हम था</w>
ह ों
स्रां -
स्टा र्ट</w>
सोर जोंबा</w>
सोमजि नाय</w>
सोदोब ।</w>
सों लु</w>
सो होर
सो ङो-</w>
सैबार ीया</w>
सेर जा</w>
सेक्सपीये रनि</w>
से रजों</w>
सुबुं आ</w>
सुथु रा</w>
सु थि</w>
सिर ियै</w>
सिया राव</w>
सिथ् ला</w>
सिं ह
सि ल
सि कि
साव गा
साया राम</w>
सानबो लाव
सान थौ</w>
सा लाया</w>
समा व
सं स्कृ
सं बिजि
सʼ नानि</w>
स ी</w>
स हाय
स भानि</w>
स ननि</w>
ष :</w>
व )</w>
लोगो फोरजों</w>
ले र</w>
ले ंग्रा</w>
लुं बु
लाय ।"</w>
लाय दों।</w>
लाय दों</w>
लामा -सा
लां बाय,</w>
लां गोन</w>
ला ग्रो
रिंसार खौ</w>
राव सो</w>
राज खान्थियारि</w>
रा वा
रमाय ना</w>
मोना बो</w>
मोन लो
मोन खाङो।</w>
मै खोम</w>
मेमʼ रि</w>
मुवा खौ</w>
मु ङाव</w>
मु कु
मिनि नो</w>
मिन ियो।</w>
मिथिय ो</w>
मिथि नाय</w>
मि थि</w>
मि ,</w>
माया नो</w>
मान े
माइ रं
माइ थाया
मले ना
मनʼ रन्जन</w>
मनʼ महन</w>
ब्रेक फा
ब् रां</w>
बो नायाव</w>
बो दोंमोन</w>
बेखेवगा से</w>
बें पार्
बे हा</w>
बे याव
बे खौलʼ</w>
बे खेवनो</w>
बे ंगा</w>
बुब् लियावनो</w>
बुब् लियाव</w>
बुं बाय
बुं खो</w>
बु ध
बिब ʼ</w>
बिनानाव ,</w>
बिजाब नि</w>
बि स्
बि न्द</w>
बि दानि</w>
बि दाखौ</w>
बि थिं</w>
बाहाय नायखौ</w>
बाव दा</w>
बार जों</w>
बाथ्र ाया
बाथ ा</w>
बा स</w>
बा न्
बा जार</w>
ब बाव
फावथि नायाव</w>
फान नानै</w>
फा फ</w>
फा दों।</w>
फा खʼ
फंबाय खौ</w>
प्राइभे ट</w>
प्रग्रा म</w>
प्रग्रा म
पा इ
प जʼ
न्था नि</w>
न् नायाव</w>
नों खौनो</w>
नै सोनि</w>
ने नानै</w>
नु वा</w>
नु थाय</w>
नाव ,</w>
नाय फोरा</w>
नाय निफ्रायनो</w>
नाय नायनि</w>
नाय गिदिं
नागिर ै</w>
नांगौ मोन।</w>
ना राय
नं ला।</w>
दै सा</w>
दे ।"</w>
दे हाया
दे उ
दुब् लियाव</w>
दु या
दु ब्लि
दिन खालि</w>
दाव ,</w>
दाम नाय</w>
दाजाब नाय</w>
दा रʼ
दा न्
दा जों</w>
दा ंग्र
दरबा सिखौ</w>
दं ब्ला</w>
द हाय
द स्रा</w>
द ला</w>
थ्र ियै</w>
थै नि</w>
थै ,</w>
थुनफावथाइ याव</w>
थु बुर</w>
थिया बो</w>
थिं निफ्राय</w>
थिं -
थाया बो</w>
थाइ जा</w>
था फ्
था नां
था ङाव</w>
था खा</w>
त् य
तितागु रिनि</w>
ति खौ</w>
डि जि
टि वा</w>
जौ मोननि</w>
जोब् बाय</w>
जोबथार नायाव</w>
जोब नायनि</w>
जु लिनि</w>
जिरा द</w>
जिबारे लि
जिउ वा</w>
जि ङाव</w>
जि खौ</w>
जि क</w>
जि -
जासि गोन।</w>
जाव लिया
जारिमि नाव</w>
जायो ।"</w>
जायो मोन।</w>
जाय नो</w>
जाम् बि</w>
जानाय मोन।</w>
जा ब्लाबो</w>
जा नुवा
जा नांगोन</w>
जʼ यो।</w>
जʼ नानै</w>
च ौ
ङो )</w>
ङा रि</w>
ग् लाय</w>
ग् लाब</w>
गोरोन् थि
गोब्रा ब।</w>
गोनां ,</w>
गोथौ यै</w>
गोग्लै सोनानै</w>
गोग्लै बाय।</w>
गो ल्
गो यै</w>
गे टनि</w>
गुन्दा ,</w>
गिबि यावनो</w>
गाहाम ै</w>
गावबा- गावनि</w>
गाव नाय</w>
गार ो।</w>
गाब दों</w>
गा मा
गा जा-
गथाय नानै</w>
ग ी
ग बʼ
खालाम ग्रा</w>
खाफा ल
खा रा</w>
खबर दार</w>
ख बʼ
क्र ʼ
कलेज निफ्राय</w>
कन्ट ्रा
ओ न्
ए ष्
ए प्रि
उ लाफा
इ से
इ सारा</w>
इ सा
इ या
इ टा
आवा ज</w>
आलाइ या।</w>
आल ौ
आन्दा ज</w>
आना रीनि</w>
आद ब
आथि ंनि</w>
आगो लनि</w>
आग सि</w>
आं नि
आ ह
अर दाबाव</w>
अर खौ</w>
अर खि</w>
अमब्रा गं</w>
अ मि
ंग ाया
ं नानै</w>
u n
u l
ti c
o b
f i
es s
en c
a t</w>
E x
6 )</w>
2 5
... "</w>
. पि.
- फु
- खा
( P
( A
( 4)</w>
" फा</w>
िया खौ</w>
हो लाङो।</w>
हो म</w>
हेमले टनि</w>
हे र</w>
हार ियारि</w>
हामबु रा</w>
हाबा ।</w>
हाद रखौ</w>
हाद र
हां सो</w>
हा- हु,</w>
हा बाया
हा दाब
हर से</w>
हर ,</w>
ह मो
स्लाब नो</w>
स्र ीनि</w>
स् ‌</w>
सोर मा
सेवा रिया</w>
सेंग्रा ।</w>
से न्
से -
सिखार ो</w>
सि नखौ</w>
सि ङावनो</w>
सालि निफ्राय</w>
सालि खौ</w>
साय नो</w>
साय ख
सानजौ फु
सानजा हा</w>
सान नै</w>
साइ खे
सा लाइ</w>
सा फ्रोमबो</w>
सा फोरनि</w>
सा न्दुं</w>
सा निफ्राय</w>
सा गु
सप्ता ह
सं सारखौ</w>
स र</w>
स नानै</w>
स ंगिना</w>
ष् टि
वे ब</w>
वा ल
लोगो खौ</w>
लोगो -
लो म</w>
लिर दों</w>
लिं नानै</w>
लाया वबो</w>
लाय नाया</w>
लाय ग्रा</w>
लान थ्रियै</w>
लाजि नानै</w>
लाङो ।
लांग ोना</w>
लां ब्ला</w>
ला नानैसो</w>
लरे ना</w>
लक्ष ीम
रुवा थि
रु ,</w>
रामनाथ खौ</w>
राजा जों</w>
राजा -
राजा ,</w>
राइजो- राजा
र जि</w>
र ज
मोनाबिलि नि</w>
मोन ब्लानो</w>
मोन थाम
मोन ज्लाय
मो साया</w>
मे इन</w>
मुलु गा</w>
मुगै थाव</w>
मुखु ब</w>
मु जि
मिथि सʼ
मि टार</w>
मालाय जों</w>
माइ नाव</w>
मा हारिया</w>
मा बि</w>
मा नो,</w>
मन्थ्रि नि</w>
मण ि
बोखार नानै</w>
बो दोंमोन।</w>
बै जों</w>
बेखेवगा ब्रै</w>
बेखेवगा बा</w>
बे नोथʼ</w>
बे न
बे ंगिरि</w>
बुङा खिसै।</w>
बुं फब
बु जिया
बिहाव खौ</w>
बिसोर हा</w>
बिर हा
बिबा नाव</w>
बिन हारी</w>
बिथि ंनि</w>
बिथां खौ</w>
बिगिया न</w>
बि र</w>
बि माइ
बाव ैसो</w>
बार ʼ
बाय ग्रा</w>
बाद ल
बाथ े
बाज ैया</w>
बा दा</w>
बसुमता रि</w>
बङाइ गाँ
ब ल</w>
ब जबनानै</w>
फै ।"</w>
फु र</w>
फिसाज् लानि</w>
फिसा- फिसौ</w>
फि दिं
फि उ
फारसे ।</w>
फा लाय</w>
फंबाय नि</w>
फ राय</w>
प्र शान्त
पा रा</w>
परिष दनि</w>
नोगोर मानि</w>
नों नाव</w>
नों दि</w>
नो लाय</w>
नो लʼ</w>
नेट वार्
ने श्वर</w>
निस् थार</w>
नाया लाय</w>
नांगौ मोन</w>
न ीया</w>
ध र
द्रा इ
दोन ै</w>
दों ;</w>
दो हो
दै माया</w>
दै -
दे हा
दे नां</w>
दि ना</w>
दा हार
दा सान</w>
दा जानाय</w>
दर्बा सिया</w>
द हायनो</w>
थै जों</w>
थुलुं सि</w>
थुलुं गानि</w>
थु ,</w>
थि क
थि ंगि
थाव ै</w>
थार खौ</w>
थाया नो</w>
थाखो आव</w>
थाखाय सो</w>
थांखि खौ</w>
था वा</w>
था मा</w>
था ब्लाबो</w>
था बाव
थʼ वा
थ ्
थ ी
त ाव</w>
ण् डि
डि .</w>
ड ी
ड िया</w>
ड ा</w>
ट्रे इन
ट्रे इ
टे लि
ट ।</w>
जौ साय</w>
जोहोला व।</w>
जेने रेल</w>
जेन नानै</w>
जेंना फोरखौ</w>
जें नानि</w>
जें नाजों</w>
जि नि</w>
जायगा फोराव</w>
जानाय-लों नाय</w>
जाथाइ या</w>
जा फै
जा नायजों</w>
जा ति</w>
जʼ यै</w>
ज ियाव</w>
ज म</w>
ची ननि</w>
चित्त रन्जन</w>
च िये
घ न्टा
ग्रि द</w>
ग्र ोन
गोर लैयै</w>
गोनोखो आरिफोरा</w>
गोनां थार</w>
गो थां,</w>
गुसु ङै</w>
गुर लुब</w>
गु मैया</w>
गि र</w>
गाहाय ।</w>
गाव -
गामि निफ्राय</w>
गाजा- गोम
गा राय</w>
गा न्नानै</w>
गसं नो</w>
गरन् थʼ</w>
गय-फा थै</w>
गं ब्रै</w>
गं नानै</w>
ग नो</w>
ख्रा व</w>
ख् लाय
खो ब
खै ला</w>
खेब नि</w>
खुलुम नानै</w>
खुंगु र</w>
खु र</w>
खु गानि</w>
खास्रि-बि स्रि</w>
खाय ो</w>
खाय नोथʼ</w>
खाउ रि</w>
खा सि
खा ना
खा दोंमोन।</w>
खनसाय ा।</w>
खन थाम</w>
क् ल
किटसे नाव</w>
कमा ण्ड</w>
क ी</w>
औ वा
ओंखार ो</w>
एष् ट्रा
एम्बु वा</w>
एम् फौ
उसु -खु
उसाव -बा
उन्दै निफ्राय</w>
उन थिं</w>
उ कि
इरा मु
इन्जिनिया रिं</w>
इन् जु
इज् ज
आमेरि कानि</w>
आन्दा साव</w>
आखु थायनि</w>
आइ यै</w>
आइ न</w>
आ सि
आ मु
आ प
अरु न,</w>
अन् नायखौ</w>
अन् जि
अनि माया</w>
अ भि
y .</w>
ti ve</w>
th e
ra c
qu y</w>
p lo
o p
o d
ar e</w>
a tion
a m
Window s</w>
4 5</w>
1 7</w>
........ ..
..... ।"</w>
( 198
'आ शा
" आरो</w>
ी -</w>
हौवा सा</w>
होम ब्लानो</w>
होन जायो।</w>
हो ब्लाबो</w>
है नो।</w>
हु सिया
हु जुर</w>
हु गार</w>
हु क</w>
हिन्जाव फ्रा</w>
हि उ</w>
हारि मुवा
हार िया
हाय ना
हाब ,</w>
हाद ्रि</w>
हाथ र्
हाग्रा -ब
हां ख्राय</w>
हा राम
हा फाय</w>
हा न्था</w>
स्लि म</w>
स्ला बा</w>
स्ला बा
स्रि ।</w>
स्ट ु
स्क ्रि
स्क ्रल</w>
स् नि
सोमावसार नो</w>
सोद्र ोम</w>
सोदोम स्रि</w>
सोदोब आ</w>
सो लायनो</w>
सेंग्रा- सिख्ला
से रावनो</w>
से न्ट
से खʼनानै</w>
सुर थ</w>
सुबुं साइ</w>
सुजु नाय</w>
सु बि
सु नो</w>
सु ख
सिलिं खार</w>
सिये ल</w>
सिम ना</w>
सिबि नाय</w>
सिफाय नानै</w>
सिख् ला।</w>
सिं जों</w>
सि ङै
सि गोन।"</w>
सान- हर</w>
सान स्र
सान दोंमोन।</w>
सान थ्रि
साजाय नानै</w>
साइके लजों</w>
सा नो,</w>
समा वबो</w>
समबारु वा</w>
सम बारु</w>
संस्कृ त</w>
स ल</w>
स मे
स मान
स नानि</w>
स ंग्रा</w>
ष् टनि</w>
श्र ीया</w>
शि ब
श ननि</w>
व े</w>
व -
लोर बां
लोम साव
ले ण्ड</w>
लु न</w>
लिर गिरिफोरा</w>
लिर गिरि
लि भ
लाइ न
लां ।</w>
ला निफ्राय</w>
ला नां
ला गो
ला गासिनो</w>
ल ो।</w>
ल ोन्
रोखोम से</w>
रो ङि</w>
रो ङ
रेब ग्रा</w>
रे कर्
रुवा थिखौ</w>
रुगु ं</w>
रु मा</w>
रायज्लाय नो</w>
राय लायनाय</w>
राय नानै</w>
राय जि
रामना थ</w>
राङा रि</w>
रा न्दि
रमे ना</w>
रंजा लिनि</w>
र ह
र सा</w>
मोसा हारिनि</w>
मोसा नाय</w>
मोब्ला वा</w>
मोनसिं सिं</w>
मोन बाय-</w>
मोन दों,</w>
मै रा
मै ,</w>
मेले म</w>
मुसु खा</w>
मु लियाव</w>
मु लिनि</w>
मु क्
मिथि होदों।</w>
मि लौ
मावफुं नो</w>
माव नांगौ</w>
माव ,</w>
माय ा।</w>
मा रा
मन्थ्र िया</w>
मन् जु</w>
मद द
म बाइ
भि .</w>
भा व
भ ाया</w>
भ ʼ
बोराइ दब</w>
बोथोर ा</w>
बो नाया</w>
बेर े</w>
बेन् दों</w>
बेनि ख्रु
बें गा
बे लʼ</w>
बे राम
बे रा</w>
बे ण्ड
बे खौसो</w>
बुर् लुंबु
बुं फोर
बुं नायखौ</w>
बिस नायाव</w>
बिष नि</w>
बिबार खौ</w>
बिदि न्थि</w>
बिजा बाव</w>
बिग्राया रि</w>
बिखा निफ्राय</w>
बिखा खौ</w>
बि ला</w>
बि प्ल
बि ट</w>
बि खुं
बाहाय नायाव</w>
बाय दों</w>
बाथ ौ
बां -सानराय</w>
बा न्दा</w>
बा जार
बसुमता रिनि</w>
बथ लखौ</w>
ब क्
फ्रोम खौबो</w>
फोसाव दों।</w>
फोथायखेब सʼ</w>
फो साव</w>
फैय ो-</w>
फैफिन बाय।</w>
फै दों।"</w>
फु न्नानै</w>
फु क
फिसाइ या</w>
फि सि
फि थाइ
फावथाइ गिरि</w>
फाय ा।</w>
फां से</w>
फा फ
फा देर
फ ोन
फ र</w>
फ र
प्रेमध रनि</w>
पे न</w>
पु राव</w>
पि ,</w>
पा ल</w>
प ी</w>
प िय
न्द ्रा
न् सनि</w>
नोंथां मोना</w>
नोंथां मोननि</w>
नो गोरा
ने म-
नि- फ्राय</w>
नि खाव
नालि स</w>
नारे ंगु
नाय मानि</w>
नाय दों</w>
नानै लʼ</w>
नाङा -फा
नां बाव
ना गार</w>
नं लिया</w>
नं थार
नʼ -
द्‌ दा</w>
दोलो आ</w>
दों सै।</w>
दो लै</w>
दो ना
दै मु
दै ख
दुप साव</w>
दुखु वा</w>
दु रु
दिल्ली नि</w>
दान स्
दाजाब नानै</w>
दांग्र ोम
दा हानि</w>
ददेरे या।</w>
दङ ,</w>
द खर
थों जोङै</w>
थो नाव</w>
थि फु
थालि र</w>
थार दों</w>
थार गोन।</w>
थार गोन</w>
थाया खै।</w>
थाय नानै</w>
थांखि जों</w>
थां लाय</w>
थां नोसै।</w>
थां नाया</w>
थां दोंमोन।</w>
था बावनो</w>
था नायावनो</w>
था ना</w>
थ ्रि</w>
थ ्रा</w>
डि टेकटि
ट्रे न्स
टेबु ल</w>
टेबि लनि</w>
टे क
टि भ</w>
ज्लाय नो</w>
जौगा खांनायनि</w>
जौगा खां</w>
जो ब</w>
जो ङो</w>
जै बोर
जेराव खि</w>
जें नाया</w>
जे थो</w>
जु ग</w>
जि ,</w>
जासि गोन</w>
जारिमि ना</w>
जाया ब्ला</w>
जाय ो।
जाय हा</w>
जाबो नो</w>
जानाय खाय</w>
जांख्रि थाइ</w>
जा होना</w>
जʼरा से</w>
ज नाय</w>
ग्रे ं</w>
गोसो आ
गोलै नानै</w>
गोरोन् थिखौ</w>
गोब्रा बै</w>
गोदा व</w>
गैला मोन।</w>
गै बो</w>
गे टखौ</w>
गिलु-फा लु</w>
गाव जें
गार बाय।</w>
गाब नायनि</w>
गाब दों।</w>
गाज्रि ।</w>
गाज्रि नि</w>
गाग्लोब नायनि</w>
गाग्लोब नाय</w>
गाइखे राव</w>
गा हाया</w>
गा रामा</w>
गा म्बार
गा ननि</w>
गमा मा</w>
गथʼ फ्रा</w>
गं सेयाव</w>
गं गार</w>
ग थ
ख्रु ब</w>
ख्रि नि</w>
खोम सि
खो ल</w>
खुसि यै</w>
खुर मा</w>
खुर नानै</w>
खु दिया</w>
खिर खि
खालाम बाय,</w>
खार नाय</w>
खार खोमा</w>
खा सि</w>
खा लायनानै</w>
खा ङो
खर सा</w>
खन ला</w>
खन नै</w>
ख ोना</w>
कमाण्ड ।</w>
कंग्रे स</w>
क ल</w>
ओनसो लफोराव</w>
ओंखार लांनाय</w>
ओंखा मखौ</w>
एरे ष्ट</w>
एबसु वा</w>
ए रा</w>
ए न्
उन्दै ,</w>
उद खारि</w>
उ दाय
इनफरमे सन
इ सोरनि</w>
आला रि</w>
आय ै।</w>
आय दाया</w>
आन्दा ,</w>
आथि ङा</w>
आख ला</w>
आं नि।</w>
आ दाया
आ जाय
आ खʼ
अलʼ क</w>
अराय था</w>
अर नानै</w>
अनजि माया</w>
अन थाइ</w>
अजि ता
अंगु बै</w>
अ ब्ला
अ जाखौ</w>
अ गेन</w>
अ :</w>
ंग्रा ,</w>
ʼ वा</w>
y our</w>
p o
p i
es ,</w>
e d
b e</w>
a n</w>
8 0</w>
7 )</w>
- रे
- बुंनानै</w>
- 0
" नोंनि</w>
" ए
ाय नानै</w>
होयो ।)</w>
होन ोब्ला</w>
होन ै</w>
होन ब्लानो</w>
होन थे
हो लाङो</w>
हो बाय
हो नानै,</w>
हो आ</w>
है ।</w>
है गोन।</w>
हे :
हु दा</w>
हार ु</w>
हार ियाव</w>
हाया र</w>
हाया खैमोन।</w>
हाय नारि</w>
हाय ,</w>
हाब हैनानै</w>
हान्थ ु</w>
हानजा नि</w>
हाथिया र</w>
हाजो आव</w>
हांखो फोरनि</w>
हां -
हा ला</w>
हा रीया</w>
ह स्पि
स्रां नानै</w>
स्र ी,</w>
स्टा इ
स् वा
स् लाय</w>
सोलों थाय</w>
सोर बाया</w>
सोर जों</w>
सोर खार</w>
सोमावसार नायाव</w>
सोम खोर</w>
सोदोब फोरखौ</w>
सै नाय</w>
सेवा रिनि</w>
सेंग्रा नि</w>
से ब</w>
से ं
सुर ो।</w>
सुर नाय</w>
सुथु रखौ</w>
सु न्द
सि- जोम</w>
सि स</w>
सि बिनो</w>
सि फि
सावगा रि।</w>
साया व
साया बो</w>
साम ब्
सान् थि</w>
सान नायखौ</w>
सान थाम</w>
सान खौ</w>
सान खो</w>
सा हा-
सा स्
सा रि
सा फा-
सरखार नि</w>
समा व।</w>
सम निफ्राय</w>
सं नाय</w>
स ोना</w>
स ल
स पे
ष् ण
ष् ट्रे
श् य
श ्रि
वार् ड</w>
वा व।</w>
व ो।</w>
लोम जानाय</w>
लोगो ,</w>
लों बाय</w>
लों ग्रा</w>
लै थो</w>
लेबʼरेट रीयाव</w>
ले ब</w>
लुबै दों</w>
लुब ैया</w>
लिर ो।</w>
लिर दोंमोन।</w>
लाय नो।</w>
लाखि नाय</w>
लाउ थि</w>
लां बाय
ला बासिनो</w>
ला फिन
ल ैया</w>
रोङा खिसै।</w>
रै ,</w>
रेल वे</w>
रुवा थिया</w>
रुजु न
री या।</w>
रि लि
रादाब खौ</w>
रा न्नानै</w>
रा खे
रा खा
रंजा ,</w>
यु मु
म् बार</w>
म् फानि</w>
मोना नि</w>
मोना खिसै</w>
मोना ,</w>
मोनथि नो</w>
मोन सेनि</w>
मोन नैसो</w>
मोन नांगौ</w>
मोन -
मोजा ं,</w>
मोग थाङाव</w>
मै देर
मेन्ट नि</w>
मे लानि</w>
मुवा नि</w>
मु गा</w>
मिथिं गा
मिथि होनाय</w>
मिथि ंगा</w>
मिजि ंखौ</w>
मि ब
माहाजोन ।</w>
माहाजोन खौ</w>
मावफारिया फोरा</w>
माव ।</w>
माव मोन
माय ,</w>
माबार ।"</w>
मानसि फोर
मान -
मा स्टा
मा वा</w>
मा ना
मन्जु वा।</w>
मनजु खौ</w>
मन जु</w>
म र्
म निफ्राय</w>
म ती</w>
भु ष
बोहै थिनि</w>
बोराइ खौ</w>
बोरा ब
बो ल्
बो जोंनि</w>
बेसे दि</w>
बेग खौ</w>
बेखेवगा डʼ</w>
बें क</w>
बे जोंनो</w>
बे ,</w>
बुदा रुवा</w>
बुथार नो</w>
बुं लाङो।</w>
बुं लांनाय</w>
बुं फिनो-</w>
बुं फिन
बुं दोंमोन-</w>
बु न्दि
बु ध्
बु द
बिहाव नि</w>
बिमाय ं</w>
बिबार ,</w>
बिबा राव</w>
बिबा रा</w>
बिबा जै</w>
बिफा ङाव</w>
बिना रामनि</w>
बिजि र</w>
बिजि -
बिजा मा
बिख् लो
बि बु
बि बां
बि ना</w>
बि दुं</w>
बि जोंनि</w>
बि ,</w>
बाय दों।</w>
बानाय सो</w>
बाथ्र ायानो</w>
बाजि निफ्राय</w>
बाख् नाय
बा नाया</w>
बा नायनानै</w>
बा क
बरपे टा</w>
बथ ल
बङाइ गाव</w>
ब ल
फ् ल
फैय ो
फै फानाय</w>
फुं खाया</w>
फु नायाव</w>
फालांग ियाव</w>
फा न्नानै</w>
फराय सु
फ न</w>
प्रे कटि
पे के
प र्ट</w>
न्दा ं</w>
नोंथां ,</w>
नों बादि</w>
नों गौ</w>
नै नो</w>
नै जि</w>
ने नो</w>
नु दों।</w>
नी ला
निया बो</w>
निफ्राय बो</w>
नार्जा रीनि</w>
नायजाब गिरिया</w>
नायजा बा</w>
नाय सो</w>
नानै ब्लाबो</w>
नाथाय ।</w>
नांगौ ।
नां ला</w>
ना ल</w>
ना र</w>
नं ला</w>
न र्
न म्बर</w>
धोरो मा</w>
ध ा</w>
दौ दि
दोंमोन ।
दो होन
दो गोन</w>
दै थु
दै थाय</w>
दुर् गा</w>
दु गा</w>
दिहु न्नाय</w>
दिन्थि नायाव</w>
दिनै ।</w>
दि खार</w>
दाय ो</w>
दान से</w>
दान नो</w>
दां ,</w>
दा रेन्द्र</w>
दा रि
दा बा</w>
दा द</w>
दा खोर</w>
दं थार
द ख्
थों सै।</w>
थुम नानै</w>
थुन लाया</w>
थु रा</w>
थु दो</w>
थिया नो</w>
थिं ख्
थि ख</w>
थाव थाव</w>
था बो
था -
थर थिं
थफ ी-</w>
तुला रामनि</w>
त ।</w>
त ्रि
ण ,</w>
डे न
डा र</w>
ड कु
ठ ा
ज्रे म</w>
जौगा नाय</w>
जोहोला वा</w>
जोबा ।</w>
जै -
जे नो</w>
जुना द</w>
जु ला
जिराय बाय।</w>
जि न
जाया बो</w>
जाया खिसै</w>
जाबो दों।</w>
जान् जि</w>
जानाय लाय</w>
जाथाइ याव</w>
जा हैनो</w>
जा ल
जा फ्ला
जा नानैबो</w>
जʼ रा</w>
ज र्
चौ धु
ङा ब्ला</w>
ग्र ोम</w>
गौ मोन
गोहो ,</w>
गोमा नानै</w>
गोब्रा ब
गोनां नि</w>
गोन ्
गोजौ याव</w>
गो दोनि
गो दोना</w>
गो -
गेले नाय</w>
गुस् लायनाय</w>
गुबु नजों</w>
गु र</w>
गु न
गिबि सिन</w>
गाहाम ैनो</w>
गाव हा</w>
गार नायसै।</w>
गाब नायखौ</w>
गां सो</w>
गा लांनाय</w>
गा राय
गा न्दा</w>
गा जा</w>
गलʼ आ</w>
गर न्थ
गब् लं
ग साइ</w>
ग बिन्द</w>
ग गै
ख्रे ब
ख् लं
खोमा ।</w>
खोम सिया</w>
खे राइ
खे र
खु न्थ
खि बु</w>
खि थेर</w>
खालाम नाय,</w>
खालाम गासिनो</w>
खार बोनाय</w>
खार बो
खामफ् लायाव</w>
खामफ् लाय</w>
खाफा ला</w>
खान्थ िया</w>
खां दोंमोन।</w>
खा स्रि</w>
खा लायनाय</w>
खा नायखौ</w>
खरʼ वा</w>
खन सेबो</w>
ख ङाव</w>
क् ष्
के न
कि लʼ
कन्ट ्रल</w>
ओरै बादि</w>
ओंखार लांबाय।</w>
ओंखार दों</w>
ओंखा म-
ऐ खालि</w>
एफा -
एका डे
ए इ
उसु-खु थु</w>
उन- उन</w>
उदु राम</w>
इ स्ला
इ न्दु</w>
इ ज
इ -
आसा र</w>
आव थायनो</w>
आरति नि</w>
आय ै,</w>
आइजो फोरा</w>
आं नियाव</w>
आं निनो</w>
आं ना</w>
असम िया
अर गे
अम ृ
अन् नायनि</w>
अना गारि</w>
अनजा लि</w>
अन फाव
अजय खौ</w>
अ राव</w>
अ जा</w>
अ ंग
अ .</w>
y ,</w>
w ord
s t</w>
o c
m i
g e</w>
es s</w>
a b
S oli
5 0
2 8</w>
2 7</w>
.... "</w>
- DO
(ग )</w>
( स
' सान्दो</w>
' खौ</w>
" बा
" जों</w>
" आदा</w>
नाय सै
अनि ल</w>
ो न</w>
होन् नानै
होन नानैबो</w>
होख्रा व</w>
हो बोदों।</w>
हो नाय।</w>
हो ग्रा
है नायनि</w>
है दों</w>
हेमले ट</w>
हे न्दे
हि स्रि</w>
हार् ट</w>
हारिमुवा रि</w>
हाराम जा
हाये नारि</w>
हाय ो-</w>
हाबाफा रिजों</w>
हागौ मोन।</w>
हांखो आव</w>
हांखो ,</w>
हा नानै</w>
हा थर
हर ै</w>
हम ो</w>
हम ख्र
ह ौ</w>
सौ रा</w>
सोलो जों</w>
सों नायाव</w>
सों नाया</w>
सों नायनि</w>
सो लाव</w>
सै नो</w>
सेंग्रा जों</w>
से व</w>
सुस्रां नो</w>
सुशान्त वा।</w>
सुशान्त नि</w>
सुखु नि</w>
सु ला,</w>
सु म
सु बुङा
सु नै</w>
सु दʼ</w>
सिथार नो</w>
सिथ र</w>
सिगां निफ्रायनो</w>
सिं खौ</w>
सिं खाव
सि मानि</w>
सि थाबनानै</w>
सि थाब
सावख् लिया</w>
साय ना
साम लाय
साबाइ स</w>
सानबोलाउ रि</w>
सान हाब
सान राय</w>
सान नैनि</w>
सान गोन।</w>
सान खालि</w>
सा ला,</w>
सा ब</w>
सा फोरखौ</w>
सा फि
सा न्थ्र
सा दोर</w>
सा त</w>
सा ं
सलʼ मा,</w>
सरासन स्रा</w>
समाज खौ</w>
सन ,</w>
स फायाव</w>
श् व</w>
वा सो</w>
वा ला</w>
ल् दा</w>
लोम जानानै</w>
लोगो फ्रा</w>
लोगो आ</w>
ले न्थ
लु स्
लिर नाया</w>
लिया ।"</w>
लिं हरनानै</w>
लि जों</w>
लाहा रीनि</w>
लान् थाया</w>
लाङा सै।</w>
लाख ियो।</w>
लाइजा मनि</w>
लाइ ट</w>
लां नायाव</w>
लां दोंमोन</w>
ला ला</w>
ला ल</w>
ला नांगौ</w>
ला गै</w>
ला गायनानै</w>
लʼ नो</w>
ल ैया
ल टा
ल क्ष्
र् ड
रौ निया
रों नाय</w>
रों गौ</w>
रों ग
रेब तीया</w>
रुफा थिया</w>
रु मा
रु फा</w>
री ।</w>
री खौ</w>
रिया बो</w>
रिक् सा</w>
रि फोर</w>
राव नोबो</w>
राव खान्थि</w>
रायज्लाय नाय</w>
राय ना</w>
रान नो</w>
राइजो -</w>
रा- ना
रा हाया</w>
रा ङा</w>
रबि ,</w>
र या
र बिबार</w>
र फि
यै ,</w>
मोसौ ,</w>
मोसाय ै</w>
मोसा नि</w>
मोन लायनाय</w>
मोन बाय
मोन फिन
मोन गोन
मो नि</w>
मो दाय</w>
मैगं ,</w>
मेहेर नां</w>
मेग न,</w>
मेग न
मे म्बर</w>
मे ब्ला</w>
मे डि
मुला म
मुंखʼ नाय</w>
मु क</w>
मिहि र,</w>
मिन ियो</w>
मि थियै</w>
माष् टार
माव ब्ला</w>
मारु टि</w>
मा लाया</w>
मा नै</w>
महि ला
मबाइ ल</w>
मन् त्र
मदा राम</w>
म स्
भु मनि</w>
बोर ्
बो द
बो खांनो</w>
बैसा गु</w>
बेला सियाव</w>
बेनि बो</w>
बे लनि</w>
बे ब्
बे द</w>
बुहु माव</w>
बुङो ब्ला</w>
बुं ।</w>
बुं दोंमोन।</w>
बुं ,</w>
बु ंगोन
बिमा-बि फाया</w>
बिमा जों</w>
बिनहारी खौ</w>
बिथां खिनि</w>
बिजिर सालियाव</w>
बिगिया ननि</w>
बि स्रि</w>
बि लाय
बि ल
बि दिन्थि
बि थाङा
बि थाखौ</w>
बि थʼ</w>
बि थʼ
बाहाय नायनि</w>
बाहाय दों।</w>
बाव ैनो</w>
बाव यै
बाव नांगौ</w>
बाव खुंग्रि</w>
बारा ब्ला</w>
बार से</w>
बाया नो</w>
बादि सो</w>
बाग दाव
बा ल्
बा लां
बा गाव</w>
बहा थो</w>
बरʼ वाव</w>
बय निख्रुइबो</w>
बय जोंबो</w>
बबाव बा</w>
बथ ल</w>
ब रा
ब न
फ्रा ,</w>
फोरों गिरिया</w>
फोरमाय ो</w>
फोर बो
फोर बादि</w>
फोर जा
फोर खौलʼ</w>
फोनां जाब
फो न</w>
फै सालियाव</w>
फै खो</w>
फु ल
फु र
फिसाज् लाया</w>
फिसा फोरा</w>
फि रफि
फि थाइ,</w>
फाहाम थाय</w>
फाव नि</w>
फाव जों</w>
फालो से</w>
फाइ लनि</w>
फा नजा
फा उ
फराय बाय</w>
फ ब</w>
फ टʼ</w>
प्रेमध रा।</w>
प्रसे न
पु र
पार् टिनि</w>
न्दा खौ</w>
न्द ्रा</w>
न्था -
न्थ ियाव</w>
नोगोर मायाव</w>
नोंसोर ो</w>
नोंसोर बो</w>
नो मा</w>
नै लʼ</w>
नु हरनानै</w>
नी ल
निफ्राय बा</w>
नि दाननि</w>
नार् स</w>
नायबिजिर नो</w>
नायगिर नाय</w>
नाय ो
नाय ब्लानो</w>
नाय निबो</w>
नाय गार</w>
नाजा गासिनो</w>
नागिर दोंमोन।</w>
नागार नो</w>
नांगौ वा</w>
नां सिगौ।</w>
ना वा</w>
ना रा-ना
नम्ब रि</w>
न ल
ध े
दों सो</w>
दै मा-
दै थुन
दुखु-दा हा</w>
दुखु -
दिन्थि नायनि</w>
दिन्थ िय
दिन निफ्रायनो</w>
दि नि।"</w>
दावबाय नायनि</w>
दायनि गिरि</w>
दान सʼ
दा लि,</w>
दा नायनि</w>
दर लायनि</w>
दङʼ ,</w>
दं सै।</w>
द लद</w>
द खʼ
थ्रो द</w>
थोर -
थै नोसै</w>
थेव ब्लाबो</w>
थुंग्रि खौ</w>
थु ंगे
थिरां था</w>
थिये टार
थासान्द ियाव</w>
थाम जि</w>
थाखाय लʼ</w>
थाइलालि आ</w>
थां नोसै
था ।"</w>
था थों</w>
था गोन,</w>
था ंग्रो
थʼ ,</w>
ति ।</w>
ढ ़
डिस् क</w>
डिटेकटि भ</w>
डि .
ड ाय
ट्रे याव</w>
ट्रे क्टर</w>
टि स
जोब गोन।</w>
जोब गोन</w>
जोनोम गिरि</w>
जो लै</w>
जे बो
जे न्नाय</w>
जे नो।</w>
जाव ले</w>
जाय फोरा</w>
जान गाराव</w>
जा फिन
जा नोसै</w>
जा दोंमोनब्लाबो</w>
जा ग्रो
जा गौमोन।</w>
जा खो,</w>
जा खांनायनि</w>
ज ग
ज ं</w>
ङा व।</w>
घ ि
ग्रो ब</w>
ग्रो न</w>
ग् र</w>
ग् दाव
गौ मानि</w>
गोसो यै</w>
गोसो आबो</w>
गोला व।</w>
गोरोब नाय</w>
गोर बो
गोबां ।</w>
गोबा ङानो</w>
गोदोनि फ्रायनो</w>
गोजोन ।</w>
गोजा व</w>
गो सोन
गो माय
गो नो</w>
गो द
गो गो
गैया लै</w>
गैया मोन</w>
गै ला</w>
गे साव</w>
गु गुरु
गिबि याव</w>
गिदिं बो
गि सि</w>
गि नांगौ</w>
गावबु रानि</w>
गाव ा
गामा खालि</w>
गाम सा</w>
गाब ख्राव
गाड़ ी
गाज्र ियै</w>
गा रि,</w>
गा गि</w>
गसाइ या</w>
गन तन्त्र
गथʼ ।</w>
ग ियो</w>
ग दाय</w>
खौरां गा
खौ ।"</w>
खौ -</w>
खोना स
खो बनानै</w>
खेब से
खें ख्रा</w>
खुलुम बाय।</w>
खुदिया फोरा</w>
खुं नो</w>
खुं नाय</w>
खु द्रि
खु दै</w>
खिन् थायो।</w>
खि ला</w>
खालार खालि</w>
खालाम नो,</w>
खालाम दोंमोन</w>
खालाम खो</w>
खार दै</w>
खार गʼ
खाय दा</w>
खान्थ ियाव</w>
खां -
खा राव</w>
खा ख्
खं ख्ला</w>
ख था
का छा
कʼक्राझा र</w>
क ।</w>
क लि
औ ।</w>
ओरै हाय</w>
ओंखार दों।</w>
एरै नोथʼ</w>
एफा- एनै</w>
उ फ्ले</w>
उ दै
इयु नखौ</w>
इ सोर
आव ग्रि
आरति खौ</w>
आर .</w>
आबहा वा</w>
आफा खौ</w>
आन ज्र
आग र</w>
आखु थाय
आखु थाइ
आखु जों</w>
आं बोथʼ</w>
आं खालाव</w>
आ रा
आ बाद
आ न्दाय
आ न्दा</w>
आ थ
आ ग्रा</w>
अलख द</w>
अलʼ का
अरु नखौ</w>
अब ंनि</w>
अनि माया।</w>
v i
u s
p h
ob er
lo quy</w>
j ec
in g
h ar
er i
en t</w>
e p
e l</w>
ct ober
a li
S t
M S
I B
5 00</w>
5 )</w>
200 8.</w>
2 2
1 00</w>
.ए स
... !</w>
- दु
) :</w>
" माथो</w>
" ओ
" आरसा</w>
! !"</w>
ैय ो</w>
ृष् टा
िया वबो</w>
िया री</w>
ि खौ</w>
होवा खिसै।</w>
होया सै।</w>
होन् नानैबो</w>
होन ो,</w>
होन नाया</w>
हों गो-
होंगो- दों
हो नांगोन।</w>
हें था।</w>
हिन्जाव फोरनि</w>
हालु वा</w>
हारि फोरा</w>
हार सिङैनो</w>
हाया वनो</w>
हाय ैयाव</w>
हाम बाय
हाबा फारिया</w>
हाब हैयो।</w>
हाखि मा</w>
हां ,</w>
हा लिया।</w>
हा लिया</w>
हा मि
हा नाया</w>
हा दोर</w>
हा जि
हा जा
हरे न</w>
हमा सै।</w>
ह सि
ह यै</w>
ह ब्रा
स्ला ब</w>
स्कु ल</w>
स् ‌
स् पे
सोलि नो</w>
सोरजि लु</w>
सोमदोन नि</w>
सोम खे</w>
सो ल</w>
सो रांनि</w>
सो ङा
सेब खां
सेकस्पी यारनि</w>
सेंग्रा फोर</w>
से मि
से -सानराय</w>
सुमि लानि</w>
सु लि</w>
सु र</w>
सु पार</w>
सु नाय</w>
सिया लफोरा</w>
सिफि निफ्राय</w>
सिफाय नो</w>
सिखाव ै</w>
सि बाय।</w>
सि ब</w>
सि नै</w>
सि उ</w>
सासे ।</w>
सालि सा</w>
साया व।</w>
साया वसो</w>
साफ्रा सी
साना खैमोन।</w>
सान स्रिया</w>
सान फ्लां
सान नांगौ</w>
सान थामनि</w>
साइके लनि</w>
सा रे
सा न्थ
सा दोर
सा ख्र
सलʼ जों</w>
सरका रा</w>
सम् फ
सती श</w>
संसा रा</w>
स ोन।</w>
स नि
स '</w>
शान् त</w>
श ्रा
वर् ल्ड</w>
व ।"</w>
लों नायनि</w>
ले ब
ले फे</w>
ले ण्डनि</w>
ले ण्ड
लुबै नाया</w>
ली नि</w>
लास ैयै</w>
लाया नो</w>
लाइफां ,</w>
लाइन मे
लाइजा मा</w>
लां नायखौ</w>
ला ब्ला</w>
ला बो।</w>
ला थि
ला खि</w>
लं पे
ल '</w>
रो ,</w>
रे न्
रे दि</w>
रे डि
रु बि
रु ब</w>
रु प</w>
रि फ्रा</w>
राम ।</w>
राम च
राज खान्थि,</w>
राखे बा</w>
रा माबो</w>
रा भा
रा ज्
रजि ।</w>
रंजा ली</w>
रʼ ,</w>
र य
र फोरा</w>
र फोरखौ</w>
र ंगि
यो -</w>
युमु ना</w>
या व,</w>
य ि</w>
मोन् नाव</w>
मोन बो
मोन बाय,</w>
मोन फ्लां
मोन नैबो</w>
मोन नैनि</w>
मोन नाव</w>
मोन जानो</w>
मोन गोन।"</w>
मोग थां</w>
मोख थां</w>
मो ल</w>
मैहु राव</w>
मै सो</w>
मै ला</w>
मेने जार</w>
मेडि केल</w>
मे लनि</w>
मुहि नि</w>
मु स्रिया</w>
मु र
मिलिटा रि</w>
मि ञ
मि .</w>
माहार ियाव</w>
माव बाय</w>
माव फारिया</w>
माव दों</w>
मान ,</w>
माखा सेया</w>
माउ जि</w>
मा सिखौ</w>
मह ननि</w>
मर निं</w>
म द</w>
भि र</w>
भा र्
भ ग
ब्रै ,</w>
ब्रु ं-
ब्र ब
बोसोर से</w>
बोसोर ,</w>
बैसा गि
बेसे ननि</w>
बेखेव फा
बे सो</w>
बे बायदिनो</w>
बे फोरनो</w>
बुर जा</w>
बुथार नायनि</w>
बुथार नानै</w>
बुङा सै</w>
बुङा खै।</w>
बी न</w>
बिहामजो खौ</w>
बिस् ति
बिसि जों</w>
बिर लां
बिमा ।</w>
बिबʼ नि</w>
बिनारा मा।</w>
बिजाब ।</w>
बिजाब फोरखौ</w>
बिजा मादै</w>
बिजा थि
बि लि</w>
बि लाय।</w>
बि नाव</w>
बि थायाव</w>
बि खं</w>
बाहा गि
बाव ।</w>
बाव लां
बायजो आव</w>
बाय हे
बादि ,</w>
बाथ्रा जों</w>
बाथ्रा ,</w>
बाथ ʼ</w>
बाजै ।"</w>
बाज ्रे
बां ,</w>
बराय नानै</w>
बर मा</w>
बय नोबो</w>
बय निख्रुइ</w>
ब खʼ
ब ख
फैया मोन</w>
फेरा खै</w>
फे ब्रु
फे देर
फुन नांगौ।</w>
फु ट</w>
फि थाइखौ</w>
फालि नायनि</w>
फार्से थिङै</w>
फा रा
फा बा</w>
फा फि</w>
फरायसा फोरनि</w>
फराय नायाव</w>
फराय ग्राफोरनि</w>
फजʼ नानै</w>
प्ले ट</w>
प्ल ट</w>
प्रसेन जित</w>
प्र साद</w>
पाब्लिके सन
पा न्जा
पा न
पलि अʼ</w>
प खौ</w>
न्ट ,</w>
नौना रिफोरखौ</w>
नोम फाया</w>
नोंसोर नो</w>
नों हालाय</w>
नों खौ।</w>
नों -
नै निफ्राय</w>
नै खौबो</w>
नु यै
नु मारनो</w>
नु जानो</w>
नील कमल</w>
नि फ्राइ</w>
नाव सो</w>
नारे ं</w>
नारे ं
नाया सो</w>
नाया ,</w>
नायजाब खौ</w>
नाय हाब
नाय हर</w>
नाय )</w>
नाजा दोंमोन</w>
ना सो</w>
ना म्बार
ना थिं</w>
नʼ- बां</w>
न फोरनि</w>
धोरोम खौ</w>
धो नि</w>
द्र ु
दौ ब्लाबो</w>
दौ नानै</w>
दोन बाय</w>
दोन खोमा
दों -
दै बो</w>
दै फां</w>
देवा नि</w>
देग् लाय
दुर्जा ंखौ</w>
दुर्जा ं,</w>
दुर जां</w>
दिहु न्नो</w>
दि खां
दाव सि</w>
दा सि
दा मोन
दा म</w>
दा बाद
दमासु वा</w>
दन्द ी</w>
द िया।</w>
द स्रा
द सेनो</w>
द द्र
द खा
थ्रो द
थो नाय</w>
थेफे न</w>
थुनलाइ यारि</w>
थुनलाइ ,</w>
थु ।</w>
थियेटा रा</w>
थिन बाय।</w>
थिखा दार</w>
थार जा</w>
थाय ोमोन।</w>
थां फानो</w>
था लो
था खा
था उ
थʼ नो</w>
थ ी,</w>
थ ,</w>
त् ति</w>
ता नि</w>
त ्</w>
त ाया</w>
डाक् टार</w>
ड ्रे
ड ब्लि
टारने ल</w>
टा उन</w>
ट मे
ज् व
जौ गा</w>
जोम नाय</w>
जोब ब्ला</w>
जोनोम फु
जोन ोमनि</w>
जों ना</w>
जो आ</w>
जो -
जै मती</w>
जेसे खि</w>
जेके ट</w>
जे र</w>
जे न्नानै</w>
जुजि गोन</w>
जु लु
जु लि
जु नैनो</w>
जु जाइ
जिल् लायाव</w>
जिंगा ।</w>
जालाय खो</w>
जार् डा
जारिमि न
जायो ब्लाबो</w>
जाया मानो</w>
जाय ि</w>
जागाय नाय</w>
जा सुला</w>
जा लायो।</w>
जा दों।"</w>
जा दोंब्लाबो</w>
जा दो
जा गि
जा खांनाय</w>
जा ंगि
जवा नफोरा</w>
जथुम् मायाव</w>
ज ौ।</w>
ज रʼ
ज म
ज थʼ</w>
ची न</w>
च ,</w>
ङै -
ग्रो यो।</w>
ग्रा ं</w>
गोसो खांनानै</w>
गोरा न</w>
गोमो यो</w>
गोमो नानै</w>
गोमजोर ा</w>
गोजांस्रि व
गो थार
गो जो
गे बें</w>
गुस् लाय
गुवाहाट ीयाव</w>
गुवा रै</w>
गुवा र
गुर लाब</w>
गुदु ङाव</w>
गुगुरु ब</w>
गु रि</w>
गिख्रं थाव</w>
गार ो</w>
गार बोनाय</w>
गाबोन नो</w>
गाब बाय</w>
गान स्
गाज्रि ,</w>
गा मोन</w>
गा न्दु</w>
गा थोनाव</w>
गदʼ खौ</w>
गʼ साइ</w>
ग नायनानै</w>
खोमाय ो।</w>
खोमाय ो</w>
खोम सिनि</w>
खोख्लै नो</w>
खो नो</w>
खो नायो।</w>
खुलुम ो</w>
खु सिजों</w>
खिन्था नानै</w>
खि बु
खालाम नाय।</w>
खाला मा।</w>
खार ु
खायसे बा</w>
खाथ ियाव।</w>
खन्थाइ नि</w>
खन से
खʼ नायाव</w>
ख ृष्टा
ख ियानो</w>
केन सेल</w>
कि रि
कास्त मार
का उ
कर्ण ियाखौ</w>
कमि सना
क ्रे
क ी
क -
ओंखारबो यो।</w>
ओ ,</w>
एसे नो</w>
एष्ट्रा गʼ
एम् फौ</w>
एप्लिके सन</w>
ए ला
ए ब
ए टा
ऊ ,</w>
उन्दु बाय</w>
उन्दु ना</w>
उन्दु ग्रायाव</w>
उथ्रि नो</w>
उ दा
उ त्त
ई ,</w>
इसे बां</w>
इसा दि</w>
इज राइ
इ सेबो</w>
आलाइस्रि ।"</w>
आर ज
आय ै
आब ्रा</w>
आब ैया</w>
आब ु</w>
आफाद खौ</w>
आन्जा द</w>
आगै ।</w>
आग ष्ट
आखा -फा
आं नो।</w>
आं खौबो</w>
आ वबो</w>
आ लि</w>
आ फ
आ दै।</w>
आ दुं
आ जि
आ गर
अलिम्पि क</w>
अलके शा</w>
अल ं
अपारे सन</w>
अन्द र</w>
अन् नाया</w>
अन् नानै</w>
अनसु मै</w>
अन लायनायाव</w>
अन गा</w>
अजित ा।</w>
अजि त</w>
अक् सिना</w>
अक् त
अ भि</w>
y ou</w>
w il
wil l</w>
s )</w>
plo t</w>
o o
n ot</w>
g ra
da y.</w>
a r</w>
\ ></w>
Soli loquy</w>
P ro
P a
O ctober
L i
C ap
A c
? ?</w>
? ''</w>
: \></w>
7 0</w>
6 0</w>
200 8,</w>
200 7</w>
200 0</w>
2 3
19 5
0 .</w>
....... ।</w>
-गो थो</w>
-- '</w>
- 30</w>
( 196
" नङा</w>
" जेबो</w>
" खौ</w>
" ओइ</w>
। ﻿
्रे ल</w>
ी ।</w>
ि ।</w>
हौवा ,</w>
हौ वाया</w>
होम्बा ना</w>
होन लाय</w>
होन ब्लाबो</w>
होख्रा ं
हो गासिनो</w>
है गोन</w>
हेफाजा बाव</w>
हे ब
हे ड</w>
हु म
हु कु
हिनजाव खौ</w>
हिनजा वनि</w>
हि रʼ
हालो दै</w>
हार् ड</w>
हारि फोरनि</w>
हारि जों</w>
हार ,</w>
हाय ैलाय</w>
हाम गोन</w>
हाब लाङो</w>
हाब बोयो
हाद रा</w>
हाउ साव</w>
हां ।</w>
हां खुरै</w>
हा रावा</w>
हा बिला
हा न्था-
हर ब्ला</w>
हर दम</w>
ह स्रि
ह स
हस पि
स्र िया।</w>
स्टʼ र</w>
स् लʼ
स् ट्राक
सोहोर नि</w>
सोलों सालिनि</w>
सोलाय नायनि</w>
सोर् जि
सोरा रि</w>
सोरा ङा</w>
सों दों</w>
सो माव</w>
सो बा
सो नाय</w>
सेर े</w>
सेनाप ति</w>
सेंग्रा फोरनि</w>
सेंग्रा ,</w>
से बनानै</w>
से खʼ
सुबुं ,</w>
सुथार नो</w>
सु फु
सु ग्रि
सु खʼ
सिमा ङाव</w>
सिमा ंनि</w>
सिन्दु र</w>
सिन दों।</w>
सिख्ला फोर</w>
सिखार ो।</w>
सिं आ</w>
सि गौ
सावराय नायनि</w>
सावराय नानै</w>
साव सु
साव थाल
सार् भि
साय खं</w>
साम लायनो</w>
सान् नायखौ</w>
सानै खौबो</w>
सान राइ
सान फा</w>
सान थ्रʼ
सा वनो</w>
सा रा
सा खʼ
सह खौ</w>
सलʼमा गिरिनि</w>
सलʼमा गिरि</w>
सर लानि</w>
सर ब
समाय खौ</w>
सं क
सʼ न
स नै</w>
स ंग्र
ष्ट ्र
ष् टार</w>
श े
श नेल</w>
वा वनो</w>
लोम साव</w>
लोगो जों</w>
लों खां</w>
लो ङा
ले दि
लिर दों।</w>
लिय न</w>
लाया वनो</w>
लाया जासे</w>
लाया खै।</w>
लाया खै</w>
लाय गोन</w>
लाबो फा
लाजि नो</w>
लाखि नायनि</w>
लाखि गोन</w>
लाइ या</w>
लाइ -
ला मा।</w>
ला नाय।</w>
ला द</w>
ला जों</w>
ला जिया</w>
ला ग्रा</w>
ला गाय
लʼ ,</w>
ल वार</w>
ल र
ल मे
ल न</w>
रौ -
रुं सार</w>
रिया नि</w>
रिंसार आ</w>
रिं सारनि</w>
रि ट
रि '</w>
राय लायनानै</w>
राय जो</w>
रान ी</w>
राइ फ
रां गा
रा सिया
रा साय
रा न्दि</w>
रा खेब</w>
र ल</w>
य नि</w>
मोसा हारि
मोना बा</w>
मोन ब्ला,</w>
मोन निफ्राय</w>
मो बाय
मैया नि</w>
मैगं -
मैगं- थाइ
मै -
मेने जार
मुलुग नां</w>
मुलाम फा</w>
मु र्
मु गैय
मिन्थि ना</w>
मिनिट सो</w>
मिथि ंगाया
मि से
माव नायाव</w>
माव ना</w>
मारि नानै</w>
मार बाय</w>
मानसि नो</w>
मान ो।</w>
मा ल्
मनजु लानि</w>
मत े</w>
म स
म त</w>
भारत ा</w>
भा रखौ</w>
भा इ
ब्ला ।"</w>
ब् ले</w>
बोलो खौ</w>
बोथि से</w>
बो सोरारि</w>
बो नायखौ</w>
बो दि</w>
बो थों</w>
बो ग
बै फोर</w>
बै खौ</w>
बेसे ना</w>
बेव हाय
बेफोर बादि</w>
बेनिख्रु इ</w>
बेदि नो</w>
बेदर खौ</w>
बेखेव फाया</w>
बे हाय</w>
बुर खायनो</w>
बुथुम नो</w>
बुंथि गिरि</w>
बुं सʼ
बुं नायाव</w>
बुं खा
बु रु
बु यै</w>
बु दों</w>
बु दुं</w>
बु थार</w>
बु ख्रु
बिसि- फिसाइ</w>
बिर हां</w>
बियो ।"</w>
बिबा ना</w>
बिब ौ
बिनानाव खौ</w>
बिनहारी -</w>
बिदा- फंबाय</w>
बिजा बा</w>
बि सो</w>
बि न्दो
बि थोन
बि ग्राय
बि खौ।</w>
बि खौबो</w>
बाहाग ि</w>
बाव नो।</w>
बाव गोन।</w>
बाराय नाय</w>
बारʼ लाम्फा</w>
बार हा
बार फुनाय</w>
बार न
बार ,</w>
बाय ह
बाय सो</w>
बादि खौ</w>
बाद िया</w>
बाट नाव</w>
बाजि बाय।</w>
बाज ु</w>
बाग् लाय
बा ना
बा ग्राय
बा ंग्रि
बरʼ फ्रा</w>
ब माखौ</w>
ब खʼनानै</w>
फोसाब नो</w>
फोरों नो</w>
फोरों गिरिनि</w>
फोर नाव</w>
फो रावबो</w>
फो थै
फो थांना</w>
फो था
फैसा ली
फै गोन
फुं निफ्रायनो</w>
फुं जानि</w>
फिसाइ जों</w>
फि थ
फाव खौ</w>
फार्से थिं</w>
फा लु</w>
फा रागा</w>
फा राग
फा ङा</w>
फसं नो</w>
फरे ष्ट</w>
फराय ो।</w>
फराय ो</w>
फं बाय,</w>
फ ल्
फ रा</w>
प्र दिप
पुलिस फोरा</w>
पि.टि.सि.ए. नि</w>
पार् टि</w>
पार् टि
न्दा ।</w>
न्द न</w>
नों निफ्राय</w>
ने ट</w>
नु हरबाय</w>
नु सन
नु ब्लानो</w>
नु नायाव</w>
नु दोंमोन</w>
नि फोरा</w>
नि न</w>
नार्जा री,</w>
नार नानै</w>
नायहर ब्ला</w>
नाय- ह
नाय ैनो</w>
नाय ब्लाबो</w>
नाय नि।</w>
नाजा ब्लाबो</w>
नाजा नाया</w>
नाङा-फा ङा</w>
नागिर दोंमोन</w>
नां दोंमोन।</w>
नां थाबनानै</w>
नां ज्लाय
ना लाय।</w>
ना म
ना जाबाय</w>
नरे शा</w>
नबे म्बर</w>
नङा दा</w>
नं खायनो</w>
नʼवा वनो</w>
नʼ वा</w>
नʼ आव</w>
न ीनि</w>
न ङै</w>
धोन-दौ ल
धु ना</w>
ध र्
ध न
दोन दों</w>
दोन खानाय</w>
दों फा</w>
दो हो</w>
दो नो</w>
दैखां दों।</w>
दै नानै</w>
दै थुन</w>
दै ज्
दै खाङो</w>
दै खांनाय</w>
देर हाग्रा</w>
देर बाय।</w>
देंखो आ</w>
दे रा
दुया री</w>
दुं ब्रु
दु ल</w>
दु इन
दिहु न</w>
दिन्थि नाया</w>
दिन्थ िया
दि था</w>
दावबाय नो</w>
दाव हाया</w>
दाव राव-
दाव बʼ</w>
दाय ।</w>
दाबि याव</w>
दान्दि सेनि</w>
दानस् लायनाय</w>
दाउ बʼ
दाउ -
दां खौ</w>
दां -
दा न्नानै</w>
दा थʼ</w>
दा गि</w>
दा खालाम
दा इन
दल र</w>
दर सि</w>
दर खौ</w>
दब थायनो</w>
दं सै</w>
द ल</w>
द बनानै</w>
थौ दो</w>
थो ,</w>
थै ब्लाबो</w>
थेर- बेथेर</w>
थे रनो</w>
थे नो</w>
थुलु ंगाया</w>
थुम नाय</w>
थुनलाइ गिरि</w>
थु खै
थिं बो</w>
थि खानाय</w>
थार नो</w>
थाया ब्ला</w>
थाबाय नाय</w>
थांख ियै</w>
थां ।"</w>
थां लाय-
थां ब्लानो</w>
थां फिननो</w>
थां खु</w>
था वा
था लां
था जों</w>
था गि
था खोमानानै</w>
थर -
थ ौ।</w>
थ रायना</w>
थ न
थ क</w>
ता खौ</w>
ण ी</w>
ण ा</w>
डिजि टा
डा इन</w>
ड ाव</w>
टेबो ल</w>
टा रनि</w>
ज्लाय नाय</w>
जौगा खांनाय</w>
जौगा खां
जौ मोन</w>
जोबा खै।</w>
जोबथे सालियाव</w>
जोब नाय।</w>
जोंरू वा</w>
जों बाय</w>
जों -</w>
जो थोन
जेके ट,</w>
जेके ट
जुजाइ नि</w>
जिं गासि
जि ब</w>
जाया खैसै।</w>
जाय ो।)</w>
जाय ै-
जानो हागौ</w>
जानाय बादि</w>
जानाय फोरनि</w>
जानाय फोरखौ</w>
जानां बाय।</w>
जाखां -लों
जाखां-लों खां</w>
जा होनाय</w>
जा होनानै</w>
जा हां</w>
जा लांनो</w>
जा ल</w>
जा बोनाय</w>
जा फ्
जा न्ज
जा नाङो।</w>
जा खो।</w>
जन ता</w>
ज म्
ज ब्
ज थाइ</w>
छ ि
चा इ
चर ण</w>
च नि</w>
ङै ,</w>
घ ट
ग्राया बो</w>
ग्रा म</w>
ग्र ोम
ग्र ाया।</w>
ग् ल
गौ हाट
गोर् लै
गोरोन् थिनि</w>
गोरो बनानै</w>
गोनो -गोथो</w>
गोन लै</w>
गोथौ वै</w>
गोजोन् नाय</w>
गोजा न
गोख्र ैयै</w>
गो लोन्
गो लैय
गो दै,</w>
गो दै
गो थार,</w>
गैय ै,</w>
गेदे द</w>
गेजे राव
गुर ु</w>
गुमु रखौ</w>
गुन्द ्रा
गु सुं
गु बै
गु बुं
गिला स</w>
गिरि फोर</w>
गिदि र
गि लु</w>
गासि नो।</w>
गाव ।</w>
गाव ो।</w>
गाव सो</w>
गाव बागाव</w>
गार दों</w>
गाम्बार िया</w>
गान् नाय-जोम
गान नो</w>
गां नाय</w>
गा नाय</w>
गस् लाखौ</w>
गस ङो।</w>
गला मनि</w>
गरन् थ</w>
गथʼ फोरा</w>
गं सेबो</w>
गं से,</w>
गʼ सा
गʼ ला</w>
ग ला</w>
ग राय</w>
ग म्
ग खौ</w>
ख्र ब</w>
खौरांगि रिफोरनि</w>
खौरा ंगिरि</w>
खौ दि</w>
खोला हा</w>
खोम सियाव</w>
खोना ना</w>
खै सै</w>
खै ब्लाबो</w>
खुरै बो</w>
खुं थाइ
खु नो</w>
खि सै,</w>
खि था</w>
खालामा खै।</w>
खालाम दों,</w>
खार नो</w>
खाय फाया</w>
खन थायारि</w>
ख फा
ख ,</w>
कैला श</w>
कि ं</w>
कान् त</w>
ककराझा राव</w>
कʼ र्
क पि</w>
ओंखार बाय</w>
ओंखार दो</w>
ओंखा रा
एसे म
एसे बांनो</w>
एम फौ</w>
एं गो
ए सʼ
ए फ
उसाव-बा दाव</w>
उदु वा</w>
उदया चल</w>
उजि गासेयाव</w>
उखु न्दै</w>
उ र्
उ प
उ दैनि</w>
इन् टार
इन स्ट्राक
इण्ड ियान</w>
इं लिस</w>
इं खंनि</w>
इ मार
इ निं
आले जों</w>
आरʼ ज</w>
आय ं
आमाइ ,</w>
आबार ीया</w>
आबार ीनि</w>
आफाद गिरि,</w>
आगो मा</w>
आगै ,</w>
आखु वाव</w>
आखाइ या</w>
आख ाया</w>
आइ ननि</w>
आं खौनो</w>
आ ल</w>
आ मो
अल सिया</w>
अरु न</w>
अरु न
अब ं</w>
अन् नायाव</w>
अना रिया</w>
अखा फोराव</w>
अ ल</w>
अ न्जा
ंग्रा ं</w>
u b
s h
p ro
p er
ell enc
c ellenc
Ex cellenc
200 9</w>
2 1
.सि .
........ ......</w>
- हे:</w>
- दे
- थ
- 9
**** ****
( गा
' अ
" सुखे,</w>
" आलाइस्रि।"</w>
" आयै</w>
" आइ</w>
" आंबो</w>
	 	
िया सो</w>
िय ै
होन् नानैनो</w>
हो ।"</w>
हो सो</w>
हो फैनो</w>
हो नांगौनि</w>
हो खो</w>
है ब्ला</w>
है नायाव</w>
है दोंमोन</w>
है दिनि।</w>
हिन्जाव फोर</w>
हि न्दु
हि :
हाले व
हालि व
हार् सिङै
हारिमु खौ</w>
हाया ।"</w>
हाय ैखौ</w>
हाय िनि</w>
हाम नाय</w>
हाबि लाया</w>
हाब फैनानै</w>
हान्जा खौ</w>
हानाय मानि</w>
हादाब -</w>
हाद ्रि
हाग्रा मा</w>
हागौ मोन</w>
हाखि मनि</w>
हाइ ब्रि
हांखो फोरखौ</w>
हां मा
हा लाय-
हालाय- हाफाय</w>
हा रावनि</w>
हा था
हा खर
हर् खाब</w>
हरि भुष
हरा सै।</w>
हरा खै।</w>
हर बाय--</w>
हर दों
हर गोन</w>
हज्रि खाव
ह वा</w>
ह लाव</w>
ह य</w>
ह म</w>
ह का
स् प
सोरमा ङा</w>
सोर जि</w>
सोर ,</w>
सोमावसार नायखौ</w>
सोम जियो।</w>
सोदोब फोरनि</w>
सोदो बाव</w>
सों हरबाय</w>
सों बाव
सों बाय-</w>
सै मोन।</w>
सेर जानि</w>
सेया र</w>
सेंग्रा फोरखौ</w>
से हे
से सो</w>
से न</w>
से जों</w>
सुबु रु
सुजु ग्राया।</w>
सुं दʼ
सु लु</w>
सिया लनि</w>
सिमा ङावबो</w>
सिमा ंखौ</w>
सिनाय थिया</w>
सिन -
सिथ लायाव</w>
सिख्ला सा</w>
सिख्ला फोरा</w>
सि रिया
सि ननि</w>
सि दो
सि त्रा
सित्रा ं
सि खोमानानै</w>
सासे खौ</w>
साया वबो</w>
सामब् राम</w>
सानै निबो</w>
साना खैमोन</w>
सान स्रिनि</w>
सान सेयारि</w>
सान ब्लाबो</w>
सान नानै।</w>
सान ना</w>
सान थ्रि</w>
सान गासिनो</w>
सान ,</w>
साजाय नाय</w>
सा लाय</w>
सा मा
सा नो-</w>
सा दु
सा थामसो</w>
सा ंग्रे
सलʼ बा
सय थि</w>
सम फोर</w>
सफ् ट्‌
सफ् ट
सʼ ना,</w>
स ौ।</w>
स द
स -
शिब राज</w>
शनि बारखालि</w>
वा खै।</w>
व ि
व -</w>
ल् ल
लोगो- लोगो</w>
लों नायाव</w>
लो ङा</w>
लै ।"</w>
लेखा -
लें हरनानै</w>
ले बे
लु वा</w>
लु बनानै</w>
लु -
लिर नायनि</w>
लिर नायखौ</w>
लि- जाइ
लाय नाय
लाबो ।"</w>
लाफा नो</w>
लाइ ब्रे
लांगो नानिफ्राय</w>
ला ल
ला र
ला न्था</w>
ला नानै,</w>
ला नानै
ला नांगोन।</w>
लहे ना</w>
लʼ ग</w>
ल ौ</w>
रो नाव
रो ङो।</w>
रे स</w>
रे प</w>
रु खु
रिं सारा</w>
राव फोरनि</w>
राव निफ्राय</w>
रायलाय नाया</w>
रायज्लाय बाय</w>
राय दाव
राय खांनानै</w>
रामोन् दाया</w>
रान िया</w>
रां खान्थियारि</w>
रा न्नाय</w>
रंगि ना-
रंगिना- संगिना</w>
र स
य ायाव</w>
य बो</w>
मोसा खौ</w>
मोन् नायखौ</w>
मोन् दोंमोन।</w>
मोनसे ।</w>
मोनसे खौ</w>
मोनलाय नायनि</w>
मोन लों
मोन नाय।</w>
मोन जाया,</w>
मोन गासिनो</w>
मो गा
मेले मनि</w>
मेर गानि</w>
मे रे
मे न</w>
मुसाहा रीनि</w>
मुजु ब्ला</w>
मुं माया</w>
मुं ,</w>
मु स्रिखौ</w>
मिहि रखौ</w>
मिन्थ िया</w>
मिनिखै रो</w>
मिन िय
मिथिय ो।</w>
मिथिंगाया रि</w>
मि -जुना
माहा रिखौ</w>
मावरि जा</w>
माव ै</w>
माव गोन</w>
मालाय खौ</w>
मानि मुनि</w>
मान िया।</w>
मान खौ</w>
मा सु</w>
मा लि
मा लायनो</w>
मा माय</w>
मा न्दा
मा था</w>
मा खौबा</w>
महाराजा खौ</w>
महा ब</w>
मन् दि
म न</w>
भि .
भ ी
भ ट</w>
ब्ल क</w>
ब्रा नि</w>
ब्रा -
ब्र ाया</w>
बोहै थिया।</w>
बोराइ नि</w>
बोथोर ।</w>
बो सोरबा</w>
बो ब
बो दों,</w>
बैसागु नि</w>
बेसेबां दि</w>
बेरा माव</w>
बेफा रिनि</w>
बेन् दों
बेण्ड े
बे हायनो</w>
बे ले
बे मार</w>
बे मा</w>
बे नो।</w>
बुरै खौ</w>
बुद्र ैया</w>
बुंबाव ो</w>
बुंबाव ो-</w>
बुंथि नाय</w>
बुं ब्लाबो</w>
बुं नाया</w>
बुं नायनि</w>
बु रि</w>
बु ङा</w>
बिलिफां जों</w>
बिया दै</w>
बिमा इ</w>
बिब नां
बिफा ंखौ</w>
बिन हारीया</w>
बिदिन्थि ।</w>
बिदि न्था</w>
बिथां मोना</w>
बिथ राइ</w>
बिज नी</w>
बि साइ
बि सम्
बि ष्ण
बि ल</w>
बि रों
बि रि</w>
बि बु</w>
बि न्द
बि का
बाहे राव</w>
बाहे रायाव</w>
बाहाय जानाय</w>
बाहाय खान्थि</w>
बाहागो याव</w>
बार् थ</w>
बारा सो</w>
बारा निफ्राय</w>
बार ।</w>
बार बाय।</w>
बार आ</w>
बाय बो।</w>
बान्द ो</w>
बानाय सो,</w>
बान बुं
बान जाय</w>
बाजु रामा</w>
बाजि नानै</w>
बाइ जो
बा सायनो</w>
बा लु</w>
बा ल</w>
बा बांसिन</w>
बा पा</w>
बा नखौ</w>
बा थाव</w>
बा गा
बर् डनि</w>
बराय नो</w>
बबे -
ब ोना</w>
ब ैयाव</w>
ब न्दाया</w>
ब खि
फ् लांबाय</w>
फोरों नाय</w>
फोरमाय थिनो</w>
फोर हा</w>
फोनां नानै</w>
फोथाय नो</w>
फोजोब नाय</w>
फो ला
फै मा
फै नायखौ</w>
फै दो।</w>
फे रा।</w>
फे जेन
फुक न</w>
फु वा</w>
फु लिनि</w>
फिसा फोर</w>
फि र</w>
फि फा</w>
फि दि
फि थि
फि ट</w>
फावथि नाया</w>
फावथाइ यारि</w>
फार नैखौ</w>
फार नै</w>
फान लु,</w>
फाइ लखौ</w>
फा न्जा
फराय सालि</w>
फराय फुनाय</w>
फराय ग्रानि</w>
फराय खांनानै</w>
फब नाय</w>
प्ले ट
प्रेकटि स</w>
प्रि न्
प्र फु
पुलिस नो</w>
पा वार</w>
प ्रा
प ाव</w>
प के
न्थि नि</w>
न्ट ाव</w>
न् याव</w>
नौना रिफोरनि</w>
नोजोर खौ</w>
नोगो द</w>
नो ।
नो सै,</w>
नु बो
नु बाय।</w>
नु थाय
नी ल</w>
नि सो।</w>
नि लि
नि जोम
नि खुरैबो</w>
नाव बा</w>
नार जा
नायजा बारि</w>
नायगिर ो।</w>
नाय सो।</w>
नाय बा</w>
नाय फिन
नाय ग्रा</w>
नाय गि
नांगौ खौ</w>
नांग ्रा</w>
नां लिया।</w>
नां गो
ना- खनला</w>
ना मा।</w>
ना जायो</w>
ना जाबाय।</w>
ना ʼ</w>
नखʼ र</w>
नंगौ ना</w>
नʼ निफ्राय</w>
न िय
न बीन</w>
धोरोम ,</w>
धु बु
ध म
द् लाम</w>
दोरो द
दोर फो</w>
दोन ।</w>
दोन नायसै।</w>
दों --</w>
दो -
देरहाग ्र
देरहा सार
दुखु वाव</w>
दिहुन नायनि</w>
दिहु न्नानै</w>
दावबाय नायाव</w>
दाव हारु</w>
दाव गा</w>
दाया नो</w>
दाय ै</w>
दान सोरां</w>
दान थार
दा हायाव</w>
दा सि</w>
दा र्
दर खं
दया रामा</w>
द ्रि</w>
द हम
द फा</w>
द न्दि</w>
थो आ</w>
थै नायखौ</w>
थै जासिम</w>
थे ला</w>
थे ब
थुलुंगा खौ</w>
थु ख्रा
थु ं
थिसन नानै</w>
थिङै ।</w>
थिं ।</w>
थि दों।</w>
थि खिनि</w>
थि का
थासार िया</w>
थासा रिखौ</w>
थारा खै।</w>
थार नांगोन।</w>
थाया वनो</w>
थाय नाय</w>
थाम -
थाइ ।</w>
थांलाय- फैलाय</w>
थां नायखौ</w>
थां दिनि।</w>
था नांगौ।</w>
था न</w>
थर से</w>
त् ‌
ण े
ड्राइ भार
डिजिटा ल</w>
डि से
डाइरेक्ट रि</w>
डब्लि उ</w>
ड खौ</w>
टेबु लाव</w>
टि फि
टा रजों</w>
टा ,</w>
ट िया</w>
ट स</w>
ट र्स</w>
ट '</w>
झा र
जौगा नायाव</w>
जौ से</w>
जौ -
जोन ो
जोख् लोब
जो ङो।</w>
जै ।</w>
जे सेनो</w>
जुला फि</w>
जुना द
जु लाइ</w>
जीउ नि</w>
जिउ -
जिं गानि</w>
जि खि</w>
जि ंनि</w>
जाया ।"</w>
जायगा निफ्राय</w>
जाम्बा -
जाब जों</w>
जानुवा रि</w>
जानाय-लों नाय,</w>
जानाय निफ्राय</w>
जान गारनानै</w>
जाथों सै</w>
जाथाव ै</w>
जागोन नि</w>
जागोन खौ</w>
जागाय जेन
जाइ ली</w>
जांगि ला</w>
जा हि
जा सु
जा लाय</w>
जा रां</w>
जा फैबाय।</w>
जा ग्रा
जर खा</w>
जथुम् मानि</w>
ज रा</w>
ज ब्रा</w>
ज बाब</w>
छ े
च ा</w>
च न</w>
घा ट</w>
घ ु
घ )</w>
ग्लुं नाय</w>
ग्रो मोना</w>
ग्रीमउइ गा</w>
ग्र ी</w>
गौ बा</w>
गोहो मा</w>
गोहो गोरा</w>
गोसोज्लि द</w>
गोलै नाय</w>
गोर्बो याव</w>
गोरोन् थिया</w>
गोरों ,</w>
गोनां थिखौ</w>
गोनां थार।</w>
गोन खि</w>
गोजा म
गोख्र ैनो</w>
गो हो।</w>
गो लां
गो रायै</w>
गो खै</w>
गैय ै।</w>
गैय ै
गै नो</w>
गेले नो</w>
गेले ग्रा</w>
गेजेर जोंनो</w>
गेजे राव।</w>
गुमै ।"</w>
गुबुना रिफोरखौ</w>
गु ल</w>
गु म
गु द</w>
गि नाया</w>
गारा ङै</w>
गाम्बा रिनि</w>
गाब ।</w>
गाब नाया</w>
गाखो नो</w>
गस ङो</w>
गर सेबो</w>
गम् भिर</w>
ग वा</w>
ग यो</w>
ग ब
ग नाय</w>
ख् ल
खौसे यै</w>
खौ थो</w>
खोमा नांनाय</w>
खोम सि।</w>
खोन् दा</w>
खोना बाय।</w>
खो नाया
खैफो दखौ</w>
खैफो द
खैना शान्तिया</w>
खै सार</w>
खै मोन,</w>
खृ ष्ट
खुदिया फोरनि</w>
खु गाया
खिन् थाया
खि ।</w>
खि फि</w>
खालाम जानाय</w>
खार बोनानै</w>
खाय सेया</w>
खाम ग्लि
खाथि निफ्राय</w>
खाथि -खा
खा रि,</w>
खा राव
खा रा
खा म्फा</w>
खा महाब</w>
खा न्दि
खा न्दा</w>
खा इ</w>
खरʼ ,</w>
खर ,</w>
खम ज्लाय
खन् थायारि</w>
क्ला र्
क् ‌</w>
क् लʼ
कैला शा</w>
के डार
कृष् ण
किउरिय ʼ</w>
का लि
कʼकराझा र</w>
ओंखारबो यो</w>
ओंखार लांबाय</w>
ओंखार बोनाय</w>
ओंखार बोनानै</w>
ओं थियाव</w>
एम फौ
एम निफ्राय</w>
एम .
एकाडे मी</w>
एंगार नो</w>
ए रि
ए म्ब
ए दाव
ए क्
उन्दु नानै</w>
उ सि
उ ट</w>
इन्टारने ट</w>
इन् सपे
इज्ज त</w>
इजराइ लनि</w>
इं ख्रि,</w>
इ .</w>
आरति ,</w>
आफाद फोरा</w>
आना री,</w>
आना राम
आनजा दनि</w>
आदा नि</w>
आदा खौ</w>
आद बखौ</w>
आखु ।</w>
आखु थाया</w>
आखʼ -फा
आइ लि-जाइ
आइ यै।</w>
आं लाय।</w>
आ व।</w>
आ लाय</w>
आ दि
आ थुर</w>
आ गोलाव</w>
आ -
अलं बार</w>
अब स्
अपारे शन</w>
अप मान</w>
अनि राम</w>
अज न</w>
अ ह
अ मा,</w>
अ ग्र
ंग िया</w>
ʼ वाव</w>
x t</w>
ww w
v en
u t</w>
t t
r y</w>
r on
m b
lo g
i st
i c</w>
g e
en d
c h
a )</w>
Y es,</w>
MS -DO
IB M</w>
D ate</w>
? "
200 6</w>
2 00</w>
1 .
..... !</w>
- रु
- दै
- [</w>
+आ =
( 6)</w>
( 5)</w>
'आ '</w>
' ब
' s</w>
"औ ।</w>
" सान्दो</w>
" मोजां</w>
" थौ</w>
" जोंनि</w>
! '</w>
ो ]</w>
ो ;</w>
िया लाय</w>
हौवा फोरनि</w>
हौवा खौ</w>
होम ब्लालाय</w>
होब थानो</w>
होब थानानै</w>
होन नो</w>
होन नानैनो</w>
होख्रा व
होखार नो</w>
हो ब्लानो</w>
हो फैदों।</w>
हो नायसै</w>
हो नायजों</w>
हो दों,</w>
हे न्दि
हुकु म</w>
हु र
हु जु
हि :।</w>
हावरिया ,</w>
हार सा</w>
हाम सिन</w>
हाबि ला</w>
हाबा फोरखौ</w>
हाबा -हु
हाबबोयो )</w>
हाबफैय ो।]</w>
हाब हां</w>
हान्था- मेला</w>
हान् थु
हादोर नाङै</w>
हागौ ।'</w>
हागोन खौ</w>
हांख्राय नाय</w>
हां खो।</w>
हां खुर</w>
हा स
हा बाव
हा नायाव</w>
हा गोन,</w>
हा खु</w>
हसपि टा
हरा मोन</w>
हर दोंमोन</w>
हम है
हम दोंमोन।</w>
हगार नो</w>
हगार नाय</w>
हʼ र
ह सिया</w>
ह ब्रा</w>
ह नै,</w>
ह जम</w>
स्रि -
स्र ो</w>
स्र ʼ</w>
स्पि द</w>
स् टि</w>
सौ वै</w>
सोलि बोनाय</w>
सोलि नाय</w>
सोलि गासिनो</w>
सोलाय -
सोरा ङाव</w>
सोमोन्दो आ</w>
सोद्रोमा फोर</w>
सोदोब थिया</w>
सो ल
सो ङो
सो खौ</w>
सैथो नि</w>
सै लै</w>
सेया नो</w>
सेंग्रा खौ</w>
से म
सुस्रां नायनि</w>
सुजु गिरि</w>
सु वा</w>
सु निया</w>
सु कु
सिला राम,</w>
सिया न</w>
सिमा ङा</w>
सिनाय थि
सिन बाय।</w>
सिन नानै</w>
सिङा व।</w>
सिगाङा व।</w>
सिखाव फोरा</w>
सिखार बाय।</w>
सि ला</w>
सि म्
सि न्नानै</w>
सि न्था</w>
सि नायाखै</w>
सि खि
सि का
साव था
सालि सखौ</w>
साया रि</w>
साया राम
साय ो।</w>
साब गौ</w>
सान्थ्रि फोरा</w>
सान्थ्रि फोरखौ</w>
सान्थ्रि फोर</w>
सानजौफु नि</w>
सान हाबनानै</w>
सान स्रिखौ</w>
सान सेनि</w>
सान बाय
सान निफ्रायनो</w>
सा हाया</w>
सा ह
सा लिया
सा ब्रै</w>
सा बिखौ</w>
सा बा
सा ना।</w>
सा नानै</w>
सा त
सलʼ फोराव</w>
सलʼ फोरनि</w>
सलʼ गिरिया</w>
सर खारा</w>
सम् बारु</w>
सम र</w>
संग्र ायाव</w>
सʼ ना।</w>
स हराव</w>
स ब
स फा</w>
स ना।</w>
स त
श् वा
शा ला</w>
शंक रनि</w>
श ी
श ,</w>
वा वबो</w>
ल् ल</w>
लोम जानायनि</w>
लोगो फोरखौ</w>
लों खांनानै</w>
लै होर</w>
ले म
ले प</w>
ले ट
लुबै नायनि</w>
लु ।</w>
ली या
लिर ।</w>
लि र</w>
लाय- सि
लाय बाय,</w>
लाबो बाय</w>
लाङो ।)</w>
लाउ दुम</w>
लाइ याव</w>
ला फोरा</w>
ला जिया
लखʼ बनि</w>
ल ियाया</w>
ल र्ड
ल गायनानै</w>
ल गाय
ल के
रो गा
रै खानि</w>
रे न</w>
रे क</w>
रुगु ङाव</w>
रु मखौ</w>
री निफ्राय</w>
रिलि फ</w>
रिंगा निफ्राय</w>
रिं खां
रि फि
रासाय नारि</w>
राव ा।</w>
रायलाय बाय</w>
राय खां
रामच िया
राज थान्दै
राज खान्थि
राग जों</w>
राखा उ</w>
राइजो याव</w>
राइ नि</w>
रां- रुफा</w>
रां -फा
रा माय
रा खां
रा क्ष
रमे ननि</w>
रजि खौ</w>
रंजा -बा
र हेला
र मि
र माया</w>
र मान्
र प
र जे
यै -
या र
य र्
मोसौ खौ</w>
मोसौ -
मोसा नाय,</w>
मोसा ,</w>
मोब्लि बारि</w>
मोना खैमोन।</w>
मोनलाय नायखौ</w>
मोन सेबो</w>
मोन बोनाय</w>
मोन बादि</w>
मोन दों
मोन जायो</w>
मोन ;</w>
मोदोम फ्रु</w>
मोदोम जों</w>
मोजां -
मोखा ङावनो</w>
मो दान
मो ख्रा</w>
मै बो</w>
मै देरा</w>
मै दे
मेडा मनि</w>
मे व</w>
मे ब्ला
मे न
मे डिया</w>
मे घा
मेघा ल
मे गावा
मुवा फोरा</w>
मुलुग निफ्राय</w>
मुगै नाय</w>
मुं ।</w>
मुं जों</w>
मु वाया</w>
मु लिया</w>
मु थु
मिनि नाय,</w>
मिथि बाय।</w>
मिथि खा</w>
मिथि ंगाया</w>
मि रुनि</w>
मि टार
मि ज्लि
माहाजोन ,</w>
मारु ति</w>
मार ।</w>
माया रि</w>
माना स</w>
मानसि याबो</w>
मानसि या
मान िया
माइथाया व।</w>
माइथाय निफ्राय</w>
माइ क्र
मा रा।</w>
मा रनि</w>
मा मोन</w>
मा बोरै
मा दावनो</w>
मा ग्रा</w>
महा राजाया</w>
महर जों</w>
मह ी
मह कु
मनि पुरनि</w>
मनि पुर</w>
मदा रामा</w>
मद न</w>
मंगल बारखालि</w>
म ना</w>
म जु
म कर
भ्लादिमि र</w>
भुटिया फोरजों</w>
भुटा न</w>
भ ल
भ बेन</w>
ब्ला ं</w>
ब्रै थि</w>
ब्रे क</w>
ब्रि टिस</w>
ब्र ु</w>
ब्र ी
ब्र बनानै</w>
ब् याव
बोहै लांनाय</w>
बोहै नाय</w>
बो खे</w>
बो खा
बैसो आव</w>
बेला सेनि</w>
बेल स्री
बेल श्री</w>
बेनो दि</w>
बेद रनि</w>
बेखेव फाखौ</w>
बेखेव नाय</w>
बेंपार् ति</w>
बे वनो</w>
बे यो।</w>
बे ब
बे नो-</w>
बे निफ्रायनो</w>
बे जाय</w>
बे ज</w>
बे ग</w>
बे खौथʼ</w>
बे खि</w>
बे इ
बे ंग्रा</w>
बुरै नि</w>
बुब् लिया</w>
बुदा रु
बुङो ।]</w>
बुङो ।)</w>
बुंहर ो</w>
बुंबाव ो,</w>
बुं फैयो-</w>
बुं जायो</w>
बु न्दाया</w>
बु द्
बु ङा।</w>
बिहामजो नि</w>
बिसायखʼ थि</w>
बिलिफा ङाबो</w>
बिलि र</w>
बिलि द
बिब् द
बिबार ।</w>
बिबा ननिफ्राय</w>
बिबा जै
बिफा नाव</w>
बिफा जों</w>
बिफा ,</w>
बिदि ब्ला।</w>
बिदि न्थानि</w>
बिजने स</w>
बिगुमै खौ</w>
बिख् लो</w>
बिखु ं</w>
बि. टि.सि
बि लिरनानै</w>
बि यावनो</w>
बि या</w>
बि बादि</w>
बि बा</w>
बि फायाबो</w>
बि नाय</w>
बि न</w>
बि दैखौ</w>
बि आं
बाहाय नाया</w>
बाहागो आ</w>
बावदिया खौ</w>
बावदिया '</w>
बाव ा।</w>
बाव स्रोम</w>
बाव दों</w>
बाराय नानै</w>
बार जां</w>
बार खौ</w>
बायजो नि</w>
बाय ोब्ला</w>
बाय बाय</w>
बाय बाय
बाय जोनिफ्राय</w>
बादि नि</w>
बादा रि</w>
बाद लखौ</w>
बाथ्रा -
बाथ्र ायाबो</w>
बाजा रनि</w>
बाज ै,</w>
बाउ नाय</w>
बांलादेश ी
बां सिन।</w>
बां सिन
बा हा</w>
बा मोन
बा ब्राब</w>
बा ब्रा
बा ब
बा दोर</w>
बा गान</w>
बा गान
बह ्रा</w>
बह न
बर बाद</w>
बर फ
बय बो
बय निखुरैबो</w>
बन् ध
बदमाइ स,</w>
बट ल</w>
ब हाय</w>
ब हरा</w>
ब बा</w>
ब जʼ
ब ज
फ्ले नानै</w>
फ् लाङो।</w>
फोसाव नायनि</w>
फोरों नानै</w>
फोरों गिरि
फोरा वनो</w>
फोर जोंबो</w>
फोर जोंनो</w>
फोथाय ो</w>
फैया खै</w>
फैय ो,</w>
फै ला
फै फिन्नो</w>
फै नाय।</w>
फेरा खैमोन।</w>
फे ल</w>
फुं खा
फु र,</w>
फु नाय,</w>
फिसाजो ।</w>
फिसाजो या</w>
फिल् टार</w>
फि सिनो</w>
फि फानि</w>
फि नि</w>
फि ना</w>
फालो ,</w>
फाया र</w>
फाग् लिया</w>
फाग् लानि</w>
फाग् ला,</w>
फा लि</w>
फा ला</w>
फा थिनानै</w>
फसंथा न</w>
फसं नाय</w>
फरायसालि फोराव</w>
फंबाय ा</w>
फʼ नि</w>
फ ं</w>
प्रसे सिं</w>
प्रफे सार</w>
प्र दि
पे केट</w>
पुलि स,</w>
पा क्
प सम
न् त</w>
नौ नारि</w>
नोंसोर बादि</w>
नोंथां मोनहा</w>
नोंथां जों</w>
नों हा
नेव सि
नुयो -</w>
नु दोंमोन।</w>
नु गोन</w>
निया वनो</w>
निख्रु यबो</w>
नि ल</w>
नायबिजिर नायनि</w>
नाय सिम</w>
नाय सि</w>
नाय फिन</w>
नाय खौसो</w>
नाजा गोन।</w>
नागिर बाय</w>
नागि रो
नागार ै</w>
नागा रा
नां लिया</w>
नां ब्ला</w>
ना ।"</w>
ना मा,</w>
ना जानानै</w>
ना जादों</w>
ना ङैनो</w>
ना गौ</w>
ना -</w>
नरेश ा।</w>
नर का
नङा सै</w>
नङा ब्ला,</w>
नङा ब्ला
नंमार गौ</w>
नʼ सिम</w>
न- बां</w>
न हा</w>
न मस्
न फोरखौ</w>
न ट</w>
न :</w>
ध ्र</w>
द्‌ लाम</w>
द्‌ ला</w>
दो -</w>
दैदेन गिरिफोरनि</w>
दै नो</w>
देरहा नो</w>
दे न
दुर्जा ङाबो</w>
दुखु ,</w>
दुइ सिन</w>
दु सि
दु गा
दि नो</w>
दि ग
दावगा नो</w>
दायनि गिरिफोरखौ</w>
दान थे
दा हाखौ</w>
दा रिया</w>
दा रखौ</w>
दा मो
दा बोनो</w>
दा थ</w>
दा जा
दा गाब</w>
दा खोर
दा खा
दर लाया</w>
दर जानि</w>
दर खङाव</w>
दङ मोन</w>
दखर से</w>
दंखाय ो</w>
द ्रा</w>
द स्टु
थो ब
थै बाय।</w>
थै गोन</w>
थु रि</w>
थु ंगि
थिसन नाय</w>
थिउरिया फोरखौ</w>
थि फुं</w>
थि नो।</w>
थि खांनानै</w>
थासार ियाव</w>
थाव रिनो</w>
थार मोन।</w>
थार बाय
थार नाय</w>
थाय नैनि</w>
थाम फै</w>
थाम खौ</w>
थाबाय नो</w>
थाखो खौ</w>
थाइला लिखौ</w>
थांख ियाव</w>
था सʼ</w>
था र्
था मि
था फ
था थोंसै</w>
था गोन
थब नो</w>
थʼ ।"</w>
थ से</w>
थ फ्ला</w>
थ गाय</w>
त ीखौ</w>
डि स</w>
ट्रे इन</w>
टा रि</w>
ज् लाया</w>
जोन ा</w>
जोंब्ला वा</w>
जोंथि हा</w>
जों ।"</w>
जों ब्लाउ
जों बाय।</w>
जों जों</w>
जो गोना
जेरै ,</w>
जेब्ला सिम</w>
जे रा</w>
जे खि</w>
जे ंनि</w>
जुना र</w>
जु वा</w>
जु थुम</w>
जु था</w>
जु क्
जिराय नायनिफ्राय</w>
जिबौ जों</w>
जिनि स
जिउ नां</w>
जि रि</w>
जि नो</w>
जाहोन खौ</w>
जावलिया नि</w>
जाव नानै</w>
जालाय बाय</w>
जार्डा रीया</w>
जार् ला</w>
जारिमि न।</w>
जाया खैमोन</w>
जाफुं होनो</w>
जाफु ङा
जाथों ।</w>
जा हैयो।</w>
जा ल्ला</w>
जा लायनाय</w>
जा लायनानै</w>
जा लांबाय</w>
जा लʼ</w>
जा नानै।</w>
जा नांगौब्ला</w>
जा नांगौ,</w>
जा थि</w>
जा थि
जा जोबबाय।</w>
जरʼ खा</w>
जब् द</w>
ज ।</w>
ज बाय</w>
ज न्त्र
च न्दन</w>
गोहो -
गोसो खाङो</w>
गोसो ,</w>
गोलोम स्राव
गोर बोनि</w>
गोबां थार</w>
गोन ा</w>
गोदा न,</w>
गोथौ ,</w>
गोथै नि</w>
गोजोन ग्लाय</w>
गोजांस्रि उ</w>
गो राय
गो मोन</w>
गो थो</w>
गो थाङै</w>
गो थां
गो ज्व
गो खा,</w>
गैय ैनि</w>
गैजा रोङै
गै लिया
गेदेर -
गे दाइ
गुस् थि</w>
गुरु ं</w>
गिला ससे</w>
गिया ननि</w>
गिदिं नाय</w>
गिदि त</w>
गि ग्लुंनाय</w>
गावसोर नो</w>
गाव ो</w>
गार दों।</w>
गार जानाय</w>
गाय ो।</w>
गाय ै</w>
गामि खौ</w>
गाम िया</w>
गाबोन निफ्राय</w>
गान नाया</w>
गाखो नाय</w>
गा लांदों।</w>
गा रां
गा न्थि</w>
गा खौ</w>
गा खो</w>
गस् वा
गथाय नो</w>
गथाय नाय</w>
गगल् स</w>
गंग् लाय
ग ।</w>
ग ियो।</w>
ग िय
ग लि</w>
ग लि
खौ नो।</w>
खोमा ना</w>
खोना नाय</w>
खोथा खौनो</w>
खैफो दनिफ्राय</w>
खेव नाय</w>
खे राइ</w>
खुलुम नो</w>
खुरै खौ</w>
खुनु रुखु
खु वा</w>
खु न्दु
खु दियाया</w>
खु थार</w>
खि लि
खि रा</w>
खि नाय</w>
खाव या
खाराव -मा
खाराव-मा राव</w>
खार ो</w>
खार लाङो।</w>
खार दो</w>
खाय फाबा</w>
खामफ् लाइ</w>
खाफा लानो</w>
खा म्
खा फ्रा
खरʼ याव</w>
खन्थाइ ,</w>
ख ियो</w>
ख हाब
क् ले
के सा</w>
किलʼ मिटार</w>
कार् बिआं
कामाख् यानि</w>
का बिला</w>
का ,</w>
कम्पिउटार -</w>
कम न</w>
कन्ट ्र
क सा
क रि
ओ हो,</w>
एष्ट्रागʼ ना</w>
एप्रि ल</w>
एंगार नाय</w>
ए ले
ए मे
उन्दु है
उनाव हालागै</w>
उन थाराव</w>
उद ैया</w>
उखै नाय</w>
उ स</w>
उ रां</w>
उ रां-फा
इन्दुप्र भाया</w>
इनफरमेसन फोरखौ</w>
इनफरमे सनखौ</w>
इन पुट</w>
इउ .</w>
इंराज नि</w>
इं राज</w>
इं खं</w>
इ सोर</w>
इ सेलʼ</w>
आह मे
आवा राम</w>
आवगाय नि</w>
आव ,</w>
आले नो</w>
आला ं</w>
आरि मु
आम था</w>
आबʼ ,</w>
आन्दो आव</w>
आन्द ो</w>
आदि बा
आद र्
आथ ोन।</w>
आग सि
आखु फोरखौ</w>
आखʼ-फा खʼ</w>
आख लाव</w>
आइ .</w>
आं हालाय</w>
आं खौसो</w>
आ सोल</w>
आ सु
आ सʼ
आ फायाबो</w>
आ दै
आ खा</w>
आ उट
असम ीया
असम िया</w>
अर खाव</w>
अमि ता
अफि सनिफ्राय</w>
अन् ध्र</w>
अनुले खाया</w>
अनफाव रि</w>
अन ी</w>
अन नाया</w>
अन ज्लाय
अ स
अ भार
ंग्रा य</w>
ं जों</w>
w h
u s</w>
th at</w>
te d</w>
t rag
t e</w>
s en
r es
in e</w>
f or</w>
f or
f ic
d ra
b e
] ।</w>
Cap ta
8 )</w>
7 5</w>
4 0
2 4
........ ।"</w>
. "</w>
-बा ग्रि</w>
--- "</w>
- दुम
- गा
( मेथाइ</w>
( घ)</w>
( D
( 19
'आशा '
' स
' आनारी
" बहा</w>
" नोंथांनि</w>
" नि</w>
" दे
" दिनै</w>
" थेवबो</w>
" जागोन</w>
" ए</w>
" आलाइस्रि</w>
।। आयदा</w>
ोन िफ्राय</w>
ो बा</w>
ो ं</w>
ो -
ैया व।</w>
िये ल</w>
हौवा -
होम ब्ला
होनो बो</w>
होन नानै
हो लांनाय</w>
हो बाय--</w>
हो नायानो</w>
हो खां
है दो।</w>
हेमले टखौ</w>
हें था
हुखु मोर
हिन्जाव सा
हिन्जाव फोरखौ</w>
हिन्जा व।</w>
हिनजा वा</w>
हिं सायारि</w>
हि न्द
हासु नो</w>
हाव ाया</w>
हाल दै</w>
हार् ड
हारि मुवा</w>
हार खौ</w>
हायो दि</w>
हाया बो</w>
हामफे ,</w>
हाबाफा रिफोरखौ</w>
हाबा -
हाब सोनानै</w>
हाथाइ याव</w>
हाजʼवारी ।"</w>
हाजʼवारी या।</w>
हागौ मानि</w>
हां सानि</w>
हां मा-
हा ब्लानो</w>
हा न्थि
हा दोंमोन</w>
हा थे
हा थाइनि</w>
हा खन</w>
हा कि
हरा सै</w>
हरबिला सनि</w>
हरखा बनो</w>
हर ो,</w>
हर बाव
हर फिन
हर नायखौ</w>
हर दोंमोन।</w>
हम दों</w>
हʼ गार
ह ल
ह रा।</w>
ह क</w>
ह क,</w>
स्लि उ</w>
स्रे म
स्रां ।</w>
स्र ियै</w>
स् था
स् टार</w>
स् के
स् कि
सोलाय- सोलʼ</w>
सोरजि नायनि</w>
सोर हाबा</w>
सोर नावबा</w>
सोर खि
सोमोन्दो खौ</w>
सोमबोर नि</w>
सोम स्रिया</w>
सोम जि</w>
सोम खोर
सोब खʼ
सोदोब फ्रा</w>
सोदोब ,</w>
सों ब्ला</w>
सों थि</w>
सो रांखौ</w>
सैथो आ</w>
सै माया</w>
सै माखौ</w>
सै थि</w>
सेर फा
सेन्ट ्रेल</w>
से ले
से ंग्रि
से ं</w>
सुर खो</w>
सुबुङा रि</w>
सुथु रनिफ्राय</w>
सुथु रनि</w>
सुजु ग्रा
सुग्रि -बाग्रि</w>
सुग् लाय
सु रनि</w>
सिला रामा</w>
सिला गां,</w>
सिल ङाव</w>
सिरि से</w>
सिब नो</w>
सिन्दु र,</w>
सिनाय थिनि</w>
सिन जों</w>
सिख्ला फ्रा</w>
सिख्ला फोरनि</w>
सिंह :</w>
सि स
सि रिनि</w>
सि फ
सि नो।</w>
सि द
सि खांनानै</w>
सावराय नायखौ</w>
सालि ,</w>
सारे ण्डा
सारेण्डा र</w>
सार ी</w>
सार िया
साय ।</w>
साय ायाव</w>
साय खं
साम फ्रोमबो</w>
साफ्रासी फोरा</w>
साफा- सानै</w>
सान्थ ौ
सान् नानै।</w>
सान् दों।</w>
सानस्र ियाव</w>
सानसु नि</w>
सान सेबो</w>
सान निफ्राय</w>
सान नायजों</w>
साइ ट</w>
सांग्रा ङा</w>
सा मोल</w>
सा फा
सा नायनि</w>
सा जाया</w>
सा गु</w>
सा खा
सा ख
समा व,</w>
समबारु नि</w>
सम सिम</w>
सम फ्
सम जों</w>
सन्थ लाया</w>
सʼ नि</w>
स हाय</w>
स हरनि</w>
स म्बा
स भा</w>
स बाइ
ष्ट ु
ष्ट ाव</w>
श् मी
शि क
श ना</w>
श न
वा लाखौ</w>
वा री</w>
ल् दि</w>
लों होनानै</w>
लों बाय।</w>
लेदि ज</w>
लें नानै</w>
लुबै नानै</w>
लु फाव
लिर नाय।</w>
लिय े
लिंहर दों</w>
लि फोरा</w>
लाव थि</w>
लाय नाय,</w>
लाय गासिनो</w>
लामा थिं</w>
लाबो दोंमोन।</w>
लाफा ंगे
लाङो ।]</w>
लाक ीया</w>
लां फिनो।</w>
लां नि</w>
ला हारिनि</w>
ला सो</w>
ला सिं
ला वबो</w>
ला जियो।</w>
ला गोन
लक्षीम पुर</w>
ल थर</w>
ल ड</w>
ल ख
ल क
रोङा ब्ला</w>
रोखोम नि
रोंगौ थि</w>
रों गौ।</w>
रे बसु
रुम ।</w>
रुजु नानै</w>
री या
रिन सि</w>
रिट ाया
रि जार्
राव हाबो</w>
रायजो -
राय ज्लाय</w>
राय खांनो</w>
राम सिया
राभा ,</w>
राण ी
राजा ।</w>
राजा फोरनि</w>
राइ ट</w>
रां खान्थि</w>
रा हायै</w>
रा हाबो</w>
रा न्
रा जानो</w>
रा खाव</w>
रबि ल
रन साय
रंजा-बा जा</w>
रंजा लिखौ</w>
र ोन
र न्
र ंगिना</w>
यो ।]</w>
यो ।)</w>
या रा</w>
या :</w>
म्भ :</w>
म् प
मोसाहारि नो</w>
मोब्ला व
मोबाय जोंबो</w>
मोन् नाय,</w>
मोन् नाय
मोन् थि
मोना सै।</w>
मोनथि गौ</w>
मोन बो।</w>
मोन बो</w>
मोन फ्रामबो</w>
मोन नो।</w>
मोन नाय,</w>
मोन थायखौ</w>
मोदै ।</w>
मोदै नि</w>
मोदाइ जो
मोजां सो</w>
मोजां ब्ला</w>
मोगा मोगि</w>
मोखां ,</w>
मो गा</w>
मै खुन</w>
मे ष:</w>
मे ल-
मे ब्लाया</w>
मे जर</w>
मे ंग्
मृ गेन</w>
मुवा फोर</w>
मुं हा</w>
मु सलि
मु रा
मु था
मु ङानो</w>
मु गाया
मु ख</w>
मी ना</w>
मी न:</w>
मिनि थाव</w>
मिनि टनि</w>
मि सि
मि थुन
मिथुन :</w>
मि टिं</w>
मि खौ</w>
मावखʼ नि</w>
माव नायखौ</w>
मालाय नाव</w>
मारु ती</w>
मानसि हा</w>
माइ ल
माइ ना
मा- दाव
मा सिनि</w>
मा स
मा राव</w>
मा थाउ
मा गो</w>
मा ं
मा -</w>
महर ।</w>
मकर :</w>
मʼ काबिला</w>
म ीया</w>
म सा</w>
म ल</w>
म म</w>
म नो</w>
म थै</w>
म ण्ड
म ʼ</w>
भुगि नां
भाव थि
भ ो
भ ायाव</w>
भ बे
ब्रेकफा स्ट</w>
ब्राय नो</w>
ब्रा ह्
ब् लि</w>
बोहै थि
बोराय ,</w>
बोर सिनि</w>
बोख् लाय
बो सो
बो खावनानै</w>
बैसा गि</w>
बै ,</w>
बेल स्रि।</w>
बेर खांनाय</w>
बेफ्रु थायजों</w>
बेफोर खौनो</w>
बेइ जिं</w>
बें नानै</w>
बें क
बे सिम</w>
बे यावबो</w>
बृ ष:</w>
बुहु म</w>
बुर्लुंबु थुर</w>
बुब्लि नि</w>
बुब् लि</w>
बुध बारखालि</w>
बुथार नाय</w>
बुजाय नो</w>
बुङो --</w>
बुङा बानो</w>
बुंसʼ हाया।</w>
बुं ।"</w>
बुं हां</w>
बुं सʼ</w>
बुं बावनो</w>
बुं ङो।</w>
बु ब्राब</w>
बु न्दि</w>
बु दुं
बु ंग्रा</w>
बु ंगोन।</w>
बिसोर ो।</w>
बिलाइ स्रिया</w>
बिरों दा
बिब्दि ब्लाथʼ</w>
बिबो नां</w>
बिबाया रि</w>
बिबा ङा</w>
बिब नां</w>
बिनानाव ।"</w>
बिना राम</w>
बिथां आ</w>
बिजिर नाया</w>
बिजिर नायखौ</w>
बिजिर खʼ
बिगो मानि</w>
बिखाया व।</w>
बि हाव</w>
बि सायखʼ</w>
बि श्व</w>
बि यो,</w>
बि मानो</w>
बि फोरखौ</w>
बि निनो</w>
बि थिखौ</w>
बि गुर
बि ग</w>
बि खुन
बाहागो ।</w>
बावा खै</w>
बावयै सो</w>
बाव हाय</w>
बाराय नायाव</w>
बारा खौ</w>
बाय बाय।</w>
बाय थʼ</w>
बाबु नि</w>
बाद ी</w>
बाथ्रा फोरा</w>
बाथे द</w>
बाथु लनि</w>
बाजि बायमोन।</w>
बाख् नाय</w>
बाइजो आव</w>
बांलादे सि
बा साव</w>
बा फोर</w>
बा न्दा
बा जौ</w>
बा जा</w>
बा ङाइ</w>
बा क्
बसुमता रि,</w>
बबे निफ्रायबा</w>
बद लै</w>
बड़ ʼनि</w>
बं फां</w>
बʼ हा</w>
ब बाय</w>
ब क्स
फ्रे स</w>
फ् लि
फ् लां</w>
फ् ला-
फोसाव जायो</w>
फोसाब नाय</w>
फोसा वनो</w>
फोसा बनानै</w>
फोरा लाय</w>
फोर माय</w>
फोथाय थाव</w>
फो लानो</w>
फो दो</w>
फो थैनो</w>
फो थांनानै</w>
फैय ै</w>
फैफिन नानै</w>
फै हां</w>
फै लाय
फै ब्लानो</w>
फै फिनो।</w>
फै ना</w>
फै गौ।</w>
फेर लेब
फे स्
फे नानै</w>
फे न
फुं आव</w>
फु लि,</w>
फु थि
फु ट
फिसाज् ला
फिसा य</w>
फिसा फ्रा</w>
फिनो ।]</w>
फि नो,</w>
फि त</w>
फाहाम सालिनि</w>
फाव ,</w>
फालांगि रि</w>
फालांगि नि</w>
फान्जा मु
फा सि</w>
फा स</w>
फा रा</w>
फा मानि</w>
फराय ग्रा</w>
फराय गासिनो</w>
फं सेलʼ</w>
फ रा
फ ,</w>
प्ल टा</w>
प्रेमध र
प्र ु
पे पा
पुलिस जों</w>
पार् ट</w>
पार मि
पजʼ वा</w>
न्दा रि</w>
न् ड</w>
न् टे
नोंसोर हा</w>
नों लʼ</w>
नो )</w>
नै सो
नै थियाव</w>
नै जिबा</w>
नै जि
नेम- खान्थि</w>
ने सा</w>
नु है
नु वा।</w>
नु योब्ला</w>
नु बाय-</w>
नु :</w>
निलि खत</w>
निर् मा
निरा मि
निया व।</w>
नि स्ता
नि बादि</w>
नि नो।</w>
नाव खौ</w>
नाया नोथʼ</w>
नायहर बाय।</w>
नाय फोराव</w>
नाय ना</w>
नाय दो</w>
नाय दि
नाय था</w>
नानै -</w>
नाजा नाय।</w>
नाजा नायनि</w>
नागिर है
नागिर नाया</w>
नांबाव गौ</w>
नांगौ -</w>
नां सिगौ</w>
नां सिगोन।</w>
नां लायनाय</w>
नां नोसै</w>
नां जाब</w>
ना ला</w>
ना रा
ना मखौ</w>
ना गानि</w>
नवा व।</w>
नम्बर नि</w>
नंमार गौ
नं दों</w>
न ी,</w>
न िया।</w>
न ब
न न्दे
न कल</w>
धर् मे
ध नु:</w>
ध ,</w>
द्ला मैनो</w>
द् र</w>
दौ ल
दोहोर ोम</w>
दोहो न</w>
दोनथुम ग्रा</w>
दोन िफ्राय</w>
दों ।'</w>
दों दि</w>
दो खौ</w>
दैमा- दै
दैखां नो</w>
देहाया रि</w>
देंखो जों</w>
दे न</w>
दे द
दुम फे
दुं बुरु
दु थां</w>
दिहुन बाय।</w>
दिहुन गा
दिहु न्
दि स
दि रिया</w>
दि ङा</w>
दाव खा</w>
दाया बो</w>
दायनि गिरिखौ</w>
दाय ो।</w>
दाय ,</w>
दाम नो</w>
दाब से
दान सʼनानै</w>
दाका त
दाइ रियाव</w>
दा हाया</w>
दा लि</w>
दा लायाव</w>
दा लां</w>
दा नाय,</w>
दा ग्रा</w>
दा गा</w>
दा खु</w>
दा ख
दर से</w>
दर लाय
दङ ।"</w>
दंबाव ो
दʼ से</w>
द- आफो
द से
द न
थौ ले</w>
थों ,</w>
थै नायजों</w>
थेव बो
थेले ब</w>
थें क</w>
थुनलाइ गिरिफोरा</w>
थुनफावथाइ खौ</w>
थुन लाया
थु र-
थु -
थियेटा रखौ</w>
थिक खौनो</w>
थि फोरखौ</w>
थि न्नानै</w>
थि ख
थि उ</w>
थार नांगौ</w>
थाया ,</w>
थाय गिरि</w>
थाब था
थान सालियाव</w>
थाङो ,</w>
थागि दायाव</w>
थाइ जौ</w>
थांगोन ,</w>
थां फिनबाय।</w>
थां नोसै।"</w>
थां नांगौ</w>
थां दोंमोन</w>
था हैनो</w>
था लाखौ</w>
था माव</w>
था बोला</w>
था बोदों।</w>
था नो।</w>
था नानैबो</w>
था दो</w>
था गिबि
था खोन
थगाय नो</w>
थ न</w>
थ जेन</w>
तुला :</w>
त े</w>
त द
त ʼ</w>
णा क्
डिस्क नि</w>
डि भा
डा :</w>
डकु मेन्ट</w>
ट्रे जिक</w>
टि लि
टि न</w>
टि केल</w>
टाइ म</w>
टा रखौ</w>
टा र,</w>
ज्रा ं</w>
ज्र ोम</w>
ज्र ु
ज् ञ
जौगा नो</w>
जोम नानै</w>
जोब था
जों बादि</w>
जों खां
जो बा</w>
जेन् सि</w>
जेके टा</w>
जेके टनि</w>
जें ना,</w>
जे याव</w>
जे ट</w>
जुरि जेन
जिल्ला फोराव</w>
जिरा दा</w>
जिबौ वा</w>
जिब-जुना द</w>
जिब नि</w>
जिउ जों</w>
जि ख्लाब
जाहोन नि</w>
जाहै दों।</w>
जाव लियाया</w>
जाव रि
जायो मोन</w>
जाया मोन</w>
जाया खैमोन।</w>
जाया खै,</w>
जाय फोरखौ</w>
जानाय सै</w>
जानां नायनि</w>
जानां दों।</w>
जान जियाव</w>
जाथाय फोरा</w>
जागाय नानै</w>
जाखो ब्रा</w>
जा हैबाय।</w>
जा लांनाय</w>
जा ला
जा रा
जा द</w>
जा गा</w>
जर् ज</w>
जʼ नो</w>
ज ियै</w>
ज िय
ज फायो।</w>
ज नायनिफ्राय</w>
ज ग्रा</w>
चौधु रीया</w>
चे न्टा
चा हा</w>
चा णाक्
च न्द्र
घ ा</w>
ग्री क</w>
ग्रा फोरखौ</w>
ग्र ह
ग् लां
ग् ला</w>
गौ मोन।"</w>
गौ थुम</w>
गौ थु
गोसोखां बाय</w>
गोनां सिन</w>
गोथै सालियाव</w>
गोग्लैय ो।
गोख्रों सिन</w>
गो सा
गो नि</w>
गो जोर
गो आव</w>
गैया ।
गैय ैयाव</w>
गै थारा
गेव सार
गेव लां
गेले नायाव</w>
गेरे मसा</w>
गे स्रेम</w>
गे सेव</w>
गे म</w>
गे टजों</w>
गे ं
गुवाहाट ी
गुमै ,</w>
गु र्
गु रै
गु ना</w>
गु था
गु जरा
गिला सखौ</w>
गिबि या</w>
गिदि र-
गि दों</w>
गि थाव
गावथार नानै</w>
गाव- गावनि</w>
गाव रावनि</w>
गाव नानै</w>
गाव दां</w>
गारि जों</w>
गाय सं
गाम िया
गाबज्र िय
गाब जों</w>
गाब गासिनो</w>
गान्ध ीया</w>
गान्दु खौ</w>
गान ग्रा</w>
गाज्रि सिन</w>
गाग्लोब नो</w>
गाखो बाय।</w>
गा हेला
गहे ना</w>
गसा थिया</w>
गस ङो
गला म</w>
गन्थ ङाव</w>
गनाय ना</w>
गथʼ वाबो</w>
गथʼ ,</w>
गग न्द</w>
गंग् लायनानै</w>
गʼ स्ला</w>
ग साया</w>
ग सं</w>
ग म</w>
ग ब</w>
ख्रा ं
ख् लʼ</w>
खौरां गाबा</w>
खौ सेथि</w>
खौ बो।</w>
खोमा बाय</w>
खोथा ।</w>
खोख्लै नानै</w>
खो लो</w>
खो माया
खो नायाखै</w>
खो -
खैफो द-आफो
खै ।
खै फोर</w>
खे रासिन</w>
खे -
खुलु मो
खुमा नानै</w>
खुदिया फोरखौ</w>
खुंथाइ यारि</w>
खु मानो</w>
खु न्
खु जे
खु ंग्र
खि थे
खि थिर</w>
खाव लाइ</w>
खालामो ब्ला</w>
खालामो ,</w>
खालाम नांगोन।</w>
खाला राव</w>
खार ो।</w>
खार ै</w>
खार लांनानै</w>
खाय नानै</w>
खाय दाजों</w>
खामाय नो</w>
खान्था ल</w>
खाथि-खा ला</w>
खा दोंमोन</w>
खा जि</w>
खा गोन।</w>
खरʼ निफ्राय</w>
ख रा
ख मैबो</w>
ख दा
क्ट रनि</w>
क् लि
क् ट</w>
के सनि</w>
के ल
कु ल</w>
कु म्भ:</w>
कामाख् या</w>
काम रुप</w>
काम रुप
का ल</w>
का प</w>
का जल
कल्पना ।"</w>
कल्प नायाबो</w>
कल् पा
कर् टाव</w>
कर् ट</w>
कर् कट
कर्कट :</w>
कम्पिउटार ।</w>
कन् या:</w>
कन ष्टे
कट न</w>
ओंखा म,</w>
ओं थिखौ</w>
ऐ ,</w>
एसे ब्लाबो</w>
एरै बादि।</w>
एमे ले</w>
एक्स टेनसन</w>
एका उ
एं गार</w>
ए राय
ए फनि</w>
ए खम
ए क</w>
ए .
ए -
उवा ल</w>
उलाफा दाव</w>
उरिष् यानि</w>
उरिष् या</w>
उन्दै निफ्रायनो</w>
उन्द ैयाव</w>
उन निफ्रायनो</w>
उदु रामा</w>
उ ल
उ राय
उ पे
उ द्राय
उ जेर</w>
इसोर ा</w>
इमार जेन्सि</w>
इन्जु राव</w>
इउनि ट</w>
इउ टिलि
इउ ,</w>
इं ख्रिया</w>
इ सिङाव</w>
इ सि</w>
इ सि
इ ले
इ न्द्र
इ ननि</w>
इ खा
इ क्ले
इ ंगि
आले हा</w>
आलुमि ंगि</w>
आरि स्रां</w>
आर ज</w>
आय ु</w>
आय नायाव</w>
आम थे
आबौ वा</w>
आबौ नि</w>
आबै ,</w>
आबʼ ।</w>
आफाद ,</w>
आन्दा खौ</w>
आना रामखौ</w>
आनज्र ाय
आनजा दखौ</w>
आद बनि</w>
आथोन नि</w>
आखु फोरनि</w>
आखु थायखौ</w>
आखल- आखु</w>
आउट पुट</w>
आइजो फोरनि</w>
आइजो नि</w>
आइ- आफा
आइ फोर</w>
आइ टे
आं बा</w>
आं निया</w>
आं खि</w>
आ स्र
आ ली</w>
आ माय
आ दि</w>
आ थो
अलके शनि</w>
अर खि
अर ,</w>
अम ब्रा</w>
अबिना सा</w>
अबंलाव रिनि</w>
अबंलाउ रिनि</w>
अनुले खानि</w>
अनु लेखा
अन नायाव</w>
अन नायखौ</w>
अन नानै</w>
अदालगु री</w>
अजित नो</w>
अखा फोरनि</w>
अ भार</w>
अ ब्रा
अ डि
अ जा
अ गे
ंग्र ो</w>
u ra
u m
th er
te mb
temb er</w>
t )</w>
s s
s c
oun d</w>
oun )</w>
ou r
o log
k n
i d
gh t
f ac
ep tember</w>
e ,</w>
com ,</w>
as si
a f
S y
S eptember</w>
S c
R e
October ,</w>
MS-DO S</w>
M a
C O
200 5</w>
200 4</w>
2 9</w>
2 ,</w>
10 .</w>
1 )</w>
................ ................
........ ।</w>
...... ।</w>
...... ।"</w>
..... ।</w>
. t
. com,</w>
. A
-खु गु</w>
-- '
- बे</w>
- द
- एन
- 3
- !</w>
, 00
+आ >
'ब बि
' बार्थ</w>
"औ ।"</w>
" नों
" दा</w>
" गुड</w>
्रि क</w>
िया व,</w>
ाया लाय</w>
हौवा फोरजों</w>
हौ व
होनाय सै,</w>
हो सेयावबो</w>
हो लांनो</w>
हो राव</w>
हो फैयो</w>
हो फिनो।</w>
हो नायमोन</w>
हो खांनायनि</w>
है द,</w>
हे -
हुम खि</w>
हु दा।</w>
हिन्जाव फोरजों</w>
हिनजा व,</w>
हि साब
हावरिया -</w>
हालो दा</w>
हाला माव</w>
हारि ।</w>
हारि -
हाय ।"</w>
हाय ै
हाम गौ</w>
हाब नानै)</w>
हाब दों।</w>
हादो राव</w>
हाथर् खि</w>
हाजʼवारी ।</w>
हागौ -</w>
हां नाय</w>
हां खोन
हा सʼ
हा ल-
हा रीनि</w>
हा नायानो</w>
हा थेर</w>
हा थुरा</w>
हा जोनिफ्राय</w>
हा गोन।"</w>
हा :-</w>
हस्पि टा
हरमʼ न</w>
हर ो
हर सेमानि</w>
हर नायसै।</w>
हर खि</w>
हमो ,</w>
हम सʼनो</w>
हटे ल</w>
ह स्प
हस्प ति
ह रावनो</w>
ह नै
स्लि ब</w>
स्लʼ गान</w>
स्टा र्
स्कु लनि</w>
स् टिक</w>
सोलों नो</w>
सोलि बाय</w>
सोरजि नि</w>
सोरजि नायाव</w>
सोर थो</w>
सोमदोन '</w>
सोमजि होदों।</w>
सोम ो</w>
सोम हाबनानै</w>
सोनार ो।</w>
सोदोम स्रिनि</w>
सोदोब माया</w>
सोदोब मा</w>
सोदोब खौनो</w>
सो सन
सो लिय
सै मानि</w>
सै बा</w>
सेक्स प
सेके ण्डा
से ल
से रै</w>
से मोन</w>
सुर नो</w>
सुबुं फ्रा</w>
सुजु ग्रानि</w>
सुकु र
सुइसाइ द</w>
सु हाब
सु लु
सु बिदा</w>
सु बाय</w>
सु ना</w>
सु ट
सु खौ</w>
सी ज</w>
सिस्टे मा</w>
सिरि जाहा
सिखाव ,</w>
सिखार नो</w>
सिखा ङो</w>
सि लाइखौ</w>
सि न्नाय</w>
सि जौ</w>
सि ग्लाब
सि गोन
सि ख्रि</w>
सि खार</w>
सि .
सावराय नाया</w>
साव नाय</w>
साव नाय,</w>
सालि ।</w>
सार ियाव</w>
सार न्
साया रामनि</w>
सायना सालियाव</w>
सायखʼ नाय</w>
साम लायनानै</w>
साबु कनि</w>
साबु कखौ</w>
सान्द ै</w>
सान् ति
सानै बो।</w>
सानसु मै</w>
सान ैयाबो</w>
सान नैसोनि</w>
सान नायनि</w>
सान दोंमोन;</w>
सान थ्र
साख्रि नि</w>
साख्र ियाव
साइ टʼ
साइटʼ काइ
सा हाबा</w>
सा ब्रै
सा नोब्ला</w>
सा दु</w>
सा थ</w>
सा जि
सा जाखौ</w>
सा खि</w>
सा खाफा
सा खाथि
सहै ब्ला</w>
सलʼ फोरखौ</w>
सलʼ गिरि</w>
सर् बे
समाय स्री</w>
समाय ना-
समायना- रमायना</w>
समान ।</w>
सम -
सन् मिल
सन् मान</w>
सं नाय-
सं दान
स ोन्
स य</w>
स फोरा</w>
स फोरखौ</w>
स फैबाय</w>
स न्नानै</w>
श्र िया</w>
शु क्र
शिक :</w>
श ची
वाल पा
वा लाय</w>
वा दि</w>
वा जों</w>
वा खै</w>
वा -</w>
ल् ला,</w>
ल् ला
लोम जा
लोब् बाया
लोब्बाया रि</w>
लोब बा</w>
लोगो याव</w>
लो बो।</w>
लो ं</w>
लें हरदों</w>
ले बेल</w>
ले बार</w>
लुफुं नाय</w>
लु न
लु टि
लीया न</w>
लिर ना</w>
लिर ग्रा</w>
लि बारे
लि ब</w>
लाव खार</w>
लाय ोमोन।</w>
लाय नाय।</w>
लाय नायखौ</w>
लाय जासे</w>
लाय -</w>
लामा जोंनो</w>
लाबो बाय।</w>
लाबो आ
लाब -
लाजि फोनां
लाजि नाया</w>
लाङो ब्ला</w>
लाङो -</w>
लाङा खै।</w>
लाखि दों।</w>
लाइजा माव</w>
लाइ नाय</w>
लाइ जौवा</w>
लांग ौ
ला हारि</w>
ला मा,</w>
ला भ</w>
ला बाय,</w>
ला फोरखौ</w>
ला नायसै।</w>
ला नायमोन।</w>
ला नाय,</w>
ला नानैबो</w>
ला नांगौ।</w>
ला नजा
ला दाय</w>
ला गो</w>
ला खांनायनि</w>
लर्ड ।</w>
लरे ननि</w>
लं फे
लʼ सै।</w>
ल बो</w>
र् ना</w>
रौ निया</w>
रोङा खै।</w>
रोंग थि</w>
रो म-
रो दा
रै खा
रेब ती
रेन् ज</w>
रेजि ष्ट्रे
रे न्ट</w>
रे डि</w>
रे जें
रुवा थी
रुम ु</w>
रुफा थि</w>
रुपा ,</w>
रुजु नाय</w>
रु मावनो</w>
रु नानै</w>
रिंगा सो
रि सिम</w>
रि सार्
रि भल
रि जाल्
रि -</w>
राव खान्थि
रायज्लाय नायखौ</w>
रायजि तखौ</w>
राय फोर
राय नाय</w>
राय दाव</w>
रागा खौ</w>
रागा )</w>
राइजो फोरनो</w>
रा हा।</w>
रा मोन
रा दि</w>
रा दायखौ</w>
रा जों</w>
रा जे
रा उ
रह मान</w>
रजि जों</w>
रंजा लि
रंजा -
रं जानो</w>
र िय
र मान</w>
र फोरनि</w>
या सै।</w>
या र्
म् बाइ
मोन् नैबो</w>
मोन् दोंमोन</w>
मोना खैसै।</w>
मोना खैमोन</w>
मोनलो ङा।</w>
मोन ैलाय</w>
मोन ैयाव</w>
मोन होनो</w>
मोन सिन
मोन लाय</w>
मोन ब्ला
मोन बानो</w>
मोन फ्रोमखौबो</w>
मोन ना</w>
मोदै ,</w>
मोजा ङा</w>
मोगथां नि</w>
मोग थाङा
मोखां आव</w>
मो फ्ला
मो जोम
मेर गाया</w>
मेमʼ रियाव</w>
मेग नाबो</w>
मे हेर</w>
मे वा
मे लायाव</w>
मे नु
मे थाय</w>
मे थाइनि</w>
मे गा
मुगैय ो</w>
मुकु ट</w>
मुंराय नि</w>
मुंमा :</w>
मुंमा +
मुं मा।</w>
मु रि,</w>
मु ब्रुं-
मु गै</w>
मिनिस् लुयै</w>
मिनि दों।</w>
मिथिया ।"</w>
मिथि ना</w>
मिथि गोन।</w>
मिथि ं</w>
मि लियन</w>
मि ला</w>
मि रु
मि क</w>
माहा रि
मावरिया -</w>
मावरि जा।</w>
मावरि जा
माव है
माव सोम
माव फु
माव नाय-
माव जिया</w>
माव जाग्रा</w>
माव खुं
मार् के
मार ो।</w>
माय ो</w>
माबार ,</w>
माने ,</w>
मानि ।</w>
मानसि खौनो</w>
मानसि -दुम
मान ैया</w>
मान ैखौ</w>
मान गोनां</w>
माखा सेखौ</w>
माइ ज</w>
मा हि</w>
मा लिस</w>
मा रोब्ला</w>
मा म
मा बेबा</w>
मा फोराव</w>
महाराजा ,</w>
महर ,</w>
मन्जु वाबो</w>
मन्जु बाला</w>
मनजु वा।</w>
मन बारु</w>
मंग ʼ
म स्ट</w>
म मखौ</w>
म नालि
म नायाव</w>
म दʼ</w>
भ्लादिमि रा</w>
भुटिया पा
भुगि नांनाय</w>
भु म
भा ष
भ ाव</w>
भ ,</w>
ब्ला बो।</w>
ब्रे ं</w>
ब्रह् मखौ</w>
बोहै बोनाय</w>
बोहै थिखौ</w>
बोसोर ि</w>
बोसोर फ्रोमबो</w>
बोसोर नै</w>
बोसोन खौ</w>
बोलो आव</w>
बोलो ,</w>
बो लै</w>
बो थ्रोदनानै</w>
बो खौ</w>
बो खो
बो खाव
बैरा थी</w>
बेसे नखौ</w>
बेसे ग्राब</w>
बेसाद फोरखौ</w>
बेर खाङो</w>
बेद द,</w>
बें नो</w>
बें खन</w>
बे सर</w>
बे मार
बे फारि
बे निफ्राय
बे ङै</w>
बे खे
बृ हस्पति
बृ शिक:</w>
बुध् दि</w>
बुथुम नानै</w>
बुंहर दों</w>
बुंबाव ो।</w>
बुं सो</w>
बुं बा</w>
बुं दोंमोन
बुं दो</w>
बु न्दानि</w>
बु नाय</w>
बु द</w>
बु जिया</w>
बिस्कु ट</w>
बिलि दनानै</w>
बिलाइ जों</w>
बिमा-बिफा निफ्राय</w>
बिमा-बिफा ,</w>
बिबार जों</w>
बिबा ंनि</w>
बिफा नजों</w>
बिना नावा</w>
बिदि सो</w>
बिथि ङा</w>
बिथां खि
बिथ राइ
बिथ ं</w>
बिजिर नो</w>
बिग्राया रिफोरा</w>
बिगु मा</w>
बिखा जों</w>
बि हारिफोरा</w>
बि हाबो</w>
बि सारखौ</w>
बि साइ</w>
बि लोगो</w>
बि लाया</w>
बि मायाबो</w>
बि भी
बि फोर</w>
बि निया</w>
बि दै
बि जोंनो</w>
बि घा
बि .ए
बाव ो
बाव दोंमोन</w>
बाव दा
बाव ,</w>
बार ी,</w>
बार सनानै</w>
बार सʼ
बार लाम्फा</w>
बायहे रायाव</w>
बायदि फोराव</w>
बाय ै</w>
बाय ब्ला</w>
बाय नो।</w>
बाय )</w>
बान् थाया</w>
बान बुंथि
बान नानै</w>
बाद ियैनो</w>
बाथ्रा फ्रा</w>
बाथ रुमाव</w>
बाजि सिम</w>
बाज ्र
बाज ै।</w>
बाज ियावनो</w>
बांलादेश ी</w>
बां होनो</w>
बा स्रि
बा सिया
बा रि।</w>
बा रिखौ</w>
बा रांगा
बा नायाव</w>
बा ख्रि</w>
बा )</w>
बसुमतारी खौ</w>
बरगया रीया</w>
बरʼ वानो</w>
बय हाबो</w>
बज बना</w>
बङाइगाँ व</w>
बक सिस</w>
ब ं</w>
फ्ला ङा
फ्रा सो</w>
फ् लं
फोले राव</w>
फोले रखौ</w>
फोलाव नानै</w>
फोरो ं</w>
फोरमाय नायजों</w>
फोरमाय थिनाय</w>
फोरमान खौ</w>
फोर जा,</w>
फोजोबस्रां नो</w>
फो थायो।</w>
फो थांनो</w>
फो जाव
फैय ो।)</w>
फैफिन ब्ला</w>
फै फा
फे स</w>
फे ले
फु वार
फु लि</w>
फु रियाव</w>
फु नो</w>
फु नानै</w>
फु थुनानै</w>
फिसाज् ला।</w>
फिसाजो नो</w>
फिन ब्ला</w>
फिन नायनि</w>
फि सिनाय</w>
फि सायानो</w>
फि फ
फि थाइनि</w>
फि था</w>
फावथाइ गिरि।</w>
फावथाइ गिरिनि</w>
फावथाइ ,</w>
फाव ाव</w>
फालि नाय</w>
फार नि
फाया नो</w>
फाग् लि,</w>
फाग् लाया</w>
फाखʼ नाव</w>
फाइ लफोरखौ</w>
फाइ ल
फा हाय
फा स्
फा लाया</w>
फा रे
फा न</w>
फा दोर
फराय नायनि</w>
फ थʼ
प्ल टखौ</w>
प्रदी पा</w>
प्रदी प</w>
प्र म
प्र .</w>
पे ट्रि
पि ं
पा पी</w>
प र
प न्
न्च लिक</w>
न् ड
नोंसा जो
नों सि
नों लाय।</w>
नों नो।</w>
नों नि,</w>
नों दाया</w>
नों दा</w>
नो म्
नो दि</w>
नो गोनां</w>
नेव सिनो</w>
नेर् सोन
ने मखौ</w>
नुहु र
नुजा हैनो</w>
नुजा थियो</w>
नु हैबाय</w>
नु हरो।</w>
नु यै</w>
नु फैबाय</w>
नु गा
नीला म्बर
निया लाय</w>
निया ,</w>
निखाव रि</w>
नि रन्जन</w>
नि दा
नि जों</w>
नि ंनि</w>
नाव /
नाले या</w>
नार्जारी ।</w>
नार्जा रिया</w>
नायजाब फोरा</w>
नायगिर नानै</w>
नाय ो।)</w>
नाय निख्रुइ</w>
नाय दाव
नाय थिं-
नाय गिदि
नाजा ।</w>
नाजा वनो</w>
नाजा नायखौ</w>
नागि रा
नाइ नो</w>
नाइ नि</w>
नां ला।</w>
ना लै</w>
ना लें
ना थʼ</w>
ना छा
ना गाया</w>
ना ग
नङै नि</w>
नख ल</w>
नंथार गौ।</w>
नंखाय खौनो</w>
नं लिया
नʼ ।</w>
न- गुबुन</w>
न भे
धोरो माव</w>
धोन-दौ लद</w>
धोन ि
धु प</w>
धा न</w>
द्र ु</w>
दौ नाय</w>
दोहोर ोमनि</w>
दोना सै।</w>
दोनथुम नो</w>
दोन हैयो।</w>
दोन ग्रा</w>
दोन खारलां
दोंमोन नो।</w>
दों सैमोन।</w>
दों नै</w>
दों दि,</w>
दों --
दैथाय हरनो</w>
दैखां ना</w>
दै खर</w>
दै खʼ
देवा ननि</w>
देवा न</w>
देरहाग्र ाया।</w>
देर हाग्रा
देर ब्ला</w>
देग् लायनि</w>
देउ ल</w>
दे लै</w>
दे नाय,</w>
दे गार</w>
दे ं</w>
दे '</w>
दुर्जा ङानो</w>
दुब् लि</w>
दुखु-दा हा,</w>
दुखु नां
दु फुं</w>
दु द्रु
दिहुन गिरि</w>
दिन्थि नाय,</w>
दिन्थि थि</w>
दिनै लाय</w>
दि से</w>
दि खौ</w>
दि खार
दि '</w>
दाहा जों</w>
दावबाया रिफोरनि</w>
दावबाय नाया</w>
दाव सा</w>
दाव रा</w>
दाव मा-दाव
दाबुं ।</w>
दाबि नायनि</w>
दान सेयारि</w>
दान सेनि</w>
दाजाब दानि</w>
दाउ स्रि</w>
दाउ ला</w>
दाउ दै</w>
दा हालागै</w>
दा सान्दै</w>
दा र।</w>
दा रै</w>
दा बिखौ</w>
दा नाय
दा थां</w>
दा जाब</w>
दर्बा सिखौ</w>
दर्बा सि</w>
दर बा</w>
दब थाय
दङ मोन।</w>
दख् ना</w>
दंफां -
दं मोनब्लाबो</w>
दं नायमानि</w>
दं जोबो।</w>
द ैया
द ैय
द र्जा
द फोरा</w>
द त
द ंग
थोर ्
थोर फो
थों गोर</w>
थै ब्ला</w>
थेले फा,</w>
थे न
थुन -
थु वा</w>
थु यै</w>
थिन हरनानै</w>
थिन बाय</w>
थिन नाय</w>
थिङै नि</w>
थि लि
थि खि
थि खं</w>
थासान्द ियाव।</w>
थासा रिनि</w>
थाव -
थारा खै</w>
थार सै।</w>
थार नांगौ।</w>
थायो ।"</w>
थाय ो।
थाय से</w>
थाय नैखौ</w>
थाबाय नानै</w>
थादʼ नाय</w>
थाङो बा</w>
थाइला लिनि</w>
थां नायसै।</w>
थां नाय
थां ना
थां दो
थां दिनि।"</w>
थां -
था हैनाय</w>
था स्लि
था लांनाय</w>
था बो</w>
था नाय,</w>
था गोन।"</w>
थं ब्ले
थ ोन्
थ नि</w>
ता लाव</w>
त ्रा</w>
ण्ड ा</w>
डेन मार्
डे टा</w>
डिमा पुर</w>
डा र्
ड ्रा
ट्रेन्स पर्ट</w>
ट्रा ष्ट</w>
टेक नि
टि खौ</w>
टि .एस
टा वार
टा नि</w>
ट- का
ट ्
ट र्
ज् यो
जौगा खांनायाव</w>
जौ सां</w>
जोहोलाव ,</w>
जोबा खै</w>
जोब दोंमोन।</w>
जोब दों</w>
जोनोम ,</w>
जोथोन ै</w>
जोगोना र</w>
जोंरु वा।</w>
जोंरु नि</w>
जोंथि हा।</w>
जों नि
जो- जोला</w>
जो नो</w>
जेरै बादि</w>
जे रावनो</w>
जे ङा</w>
जे खौबो</w>
जुवा रि,</w>
जुलु म</w>
जु न</w>
जु थायखौ</w>
जु गाव</w>
जी ब</w>
जिराय थʼ
जिराद फोरखौ</w>
जिरा त</w>
जिब ख्रि</w>
जिं गा,</w>
जि गाब</w>
जि .</w>
जाहै नाय</w>
जासि नानै</w>
जाव जा
जाय ैनो</w>
जाय ै
जाय निफ्राय</w>
जाय गाया</w>
जाबो बाय।</w>
जाबाय ।
जापा ननि</w>
जान्ज ियाव</w>
जाथों सै।</w>
जाथाय जों</w>
जाथाय ,</w>
जाखा दों</w>
जांख्रि थाइयाव</w>
जांख्रि थाइनि</w>
जांख्रि थाइ
जा लि
जा लाङो</w>
जा ला</w>
जा रे
जा नोसो</w>
जा नोबा</w>
जा थाव।</w>
जा थायाव</w>
जा उ
जा इन</w>
जʼ यो</w>
जʼ खायसे</w>
ज रि
ज ब
ज थायै</w>
ज थाइ
ज खाय
ज खानि</w>
चे यार</w>
चे या
ङै नि</w>
ङा वसो</w>
ङ ाय
ग्रो नो</w>
ग्र ं</w>
ग् लुबनानै</w>
गौहाट ीयाव</w>
गौथु मनि</w>
गौ ।"</w>
गोहो मखौ</w>
गोसोन िफ्राय</w>
गोसोखां थिखौ</w>
गोसो आवनो</w>
गोसो -
गोलाव ,</w>
गोरोब होनानै</w>
गोरोब था</w>
गोरों -
गोरा सिन</w>
गोमो बाय</w>
गोनां ब्ला</w>
गोनां खौ</w>
गोजौ निफ्राय</w>
गोजोन नो</w>
गोग् लैया
गो रां</w>
गो बोर
गो फोन</w>
गो नाङा</w>
गो दाव-
गो जोर</w>
गैय ैखाय</w>
गैय ि
गैजा रोङै</w>
गेदाइ या</w>
गे ब्ले
गे ब्ला,</w>
गे बेङै</w>
गे न्द्र
गे ट
गुर ियाव</w>
गुबुं ले</w>
गुबु ना</w>
गुबु न-गुबुन</w>
गुन्दा मि</w>
गुदि निफ्राय</w>
गु सेब</w>
गु दिया
गु ग्रु
गिरि नो</w>
गि ।</w>
गि सिब
गि लुं
गि बिनि</w>
गि नायजों</w>
गावबु ढ़
गाव निनो</w>
गाव नि
गार ना</w>
गाय नो</w>
गाय दे
गाब् बाय</w>
गाब हां</w>
गाब गु
गान नाय-जोम
गाग् लाब
गां नाय-
गा हायै</w>
गा डʼ</w>
गहे ना
गसं नाय</w>
गर से</w>
गय-फा थै,</w>
गय थिया</w>
गम्भी रा</w>
गब्लं जों</w>
गथʼ- गथाय</w>
गथʼ फोरनि</w>
गथʼ फोर
गʼ यो</w>
ग िया।</w>
ग लायाव</w>
ग ल
ग दाय
ख्र ों</w>
ख् लाय</w>
ख् लʼ
खौ रांनि</w>
खोरोम दाउ
खोमा नाय</w>
खोमा दों</w>
खोमा ,</w>
खोथा ,</w>
खो ब्रा</w>
खै मोनब्लाबो</w>
खै दां-
खे ला</w>
खे नानै</w>
खुलु म</w>
खुं ख्रा
खु सिनि</w>
खु रिया</w>
खिरखि जों</w>
खिर खि</w>
खिन् थानाय</w>
खि सै।"</w>
खि निखौ</w>
खालि नो</w>
खालि निफ्राय</w>
खालाम ै</w>
खालाम ब्लाबो</w>
खालाम ब्लानो</w>
खालाम नांगौ।</w>
खालाम दो।"</w>
खाला नि</w>
खार सां</w>
खार सन
खार फा
खायसे ~
खां नानैनो</w>
खां दोंमोन</w>
खा नाय।</w>
खा ना,</w>
खा थे
खा जाखौ</w>
खा जा
खा ङा
खल थाया</w>
खल था,</w>
खरथे ङा</w>
खनसाय नि</w>
खन बा</w>
खन खांनानै</w>
खथा निफ्राय</w>
खʼ बाव</w>
खʼ नाजों</w>
खʼ ना</w>
ख ियो।</w>
ख स्
ख बा
ख नाथिं</w>
ख ना-खनला</w>
क्रʼ रप
के रे
के मि
के न्
कृष् ण</w>
कु र</w>
किउरिय ʼनि</w>
का श्मी
का नाइ
का ना
का टा</w>
कलेज ,</w>
कम्पिउटा राव</w>
कम्पा नी
कम् फिउ
कम बक्
कम प्ले
ककराझा रनि</w>
कʼ ट</w>
क ृ
क ायाव</w>
क हि
क वार्
ओंखारलां नायसै।</w>
ओंखारबो दों</w>
ओंखार हां</w>
ओंखार लांनो</w>
ओ इ
एर सो
एम .एल
एम .ए.</w>
एब सु</w>
एन जर</w>
एखम बा</w>
एंगार नाया</w>
एंगार नायनि</w>
ए नि</w>
ए थे
ए खु
ऊ ँ</w>
उरां-फा रां</w>
उप ्रा</w>
उन्दु लांनो</w>
उन्दु यो</w>
उन दाहा</w>
उदां स्रि</w>
उदा ङै</w>
उ साव</w>
उ फ्ले
उ दैखौ</w>
उ त
इनफरमे सन</w>
इक्ले टिक</w>
इउ रʼ
इउ .
इंराज ीयाव</w>
इ सोरखौ</w>
इ ल</w>
इ न्ट
आसा रि,</w>
आवग्रि नानै</w>
आव सो</w>
आव गाया
आले या।</w>
आलासि फोरखौ</w>
आलासि फोर</w>
आलाइ याबो</w>
आलाइ -सि
आल फा</w>
आर् य</w>
आरज लाइ</w>
आर ो।</w>
आर सा,</w>
आर ,</w>
आय े
आय था</w>
आमाइ ।"</w>
आबै नि</w>
आब सा</w>
आन्दो याव</w>
आन्जा दाव</w>
आनारी ।</w>
आन दा
आदब जों</w>
आद सा</w>
आद बा</w>
आथिं जों</w>
आजाव नानै</w>
आग ष्ट</w>
आखाइ ,</w>
आखा न्थियाव</w>
आइजो ।</w>
आइजो फोरखौ</w>
आइ दिया</w>
आइ जें</w>
आइ .
आंग ु
आंखा लनि</w>
आंखा ल
आ स्
आ सिजों</w>
आ सʼ</w>
आ लो
आ लाय-सि
आ बा</w>
आ न्चलिक</w>
आ नै</w>
आ ति
आ कु
आ :</w>
असि ला</w>
अलके श
अलʼका -</w>
अर नो</w>
अम ल</w>
अम र
अबंलाउ रिया</w>
अनाथ ीनि</w>
अना ली</w>
अनसाय नाय</w>
अख्रां मा</w>
अं क</w>
अ स्ता
ंग ौ
ं निफ्राय</w>
ं आव</w>
w a
ver y</w>
tic al</w>
ti s
te d
t y</w>
si on
s e</w>
or i
oc i
o tion</w>
ic al</w>
i )</w>
gra m</w>
gh t</w>
er it
c on
an c
ali s
al l</w>
In ter
G o
Com p
? )</w>
9 4
9 0</w>
7 8
7 0
6 0
2 -
1 000</w>
.t xt</w>
......... ।"</w>
.... ?"</w>
.... !</w>
-फा रि</w>
-दा ङा</w>
- हा:</w>
- हा
- बिनानाव</w>
- ना
- दान
- ए
- '
- "</w>
(A d
( सानैबो</w>
( आ
( S
( 7)</w>
'आनारी '</w>
'' मा</w>
' सोमदोन'</w>
' या</w>
' ए
" बियो</w>
" नं
" दा
" ज
" आंहा</w>
" आंखौ</w>
।। 2</w>
्रि फाइ
ोर ो
ो लै</w>
ो मारि</w>
ो ब्लाबो</w>
िया वसो</w>
िया र</w>
िया दि</w>
िय ायाव</w>
ा -
होसो बो
होवा खै।</w>
होम ब्लासो</w>
होनथे यो</w>
होआ खै।</w>
होंगो-दों गो</w>
हो स्रां
हो यि</w>
हो नानैसो</w>
हो थेनानै</w>
हो गोन।"</w>
हो गोन
हैया सै।</w>
हैय ा।</w>
है बावनो</w>
हे व</w>
हे ल्
हे ले
हे लमे
हुसिया रै</w>
हुगार ै</w>
हु रा
हु दाया</w>
हिन्जाव ,</w>
हिं सा</w>
हि माल
हास्थाय नायखौ</w>
हासु दै</w>
हाव लाद</w>
हाव -
हाव- हाव</w>
हालि से</w>
हाला गैबो</w>
हार्सिङै )</w>
हार् सिङैनो</w>
हार् सा</w>
हारि हा</w>
हार साया</w>
हायाखै सै</w>
हाया खैसै।</w>
हाया खै,</w>
हामि द</w>
हाम बाय।</w>
हाम बाय</w>
हाबा बो</w>
हाबा ब,</w>
हाबा थि
हाब ो।</w>
हाब फैबाय।</w>
हान्जा जों</w>
हानाय सिम</w>
हाथार नाय</w>
हाजि र</w>
हाग्रा-ब ंग्रा</w>
हाउ स
हाइब्रि ड</w>
हांगार ।</w>
हांखो फ्रा</w>
हां मानि</w>
हा दोंमोनब्लाबो</w>
हा थर</w>
हा खʼ
हा +
हसि ख्राव
हरा ब्ला</w>
हरा खै</w>
हरबिला स</w>
हर बा</w>
हर नायाव</w>
हर नाया</w>
हर जानाय</w>
हर गोन।</w>
हर खौ</w>
हम बाय-</w>
हम बाय,</w>
हम ,</w>
हज्रि -ह
हʼर ो।</w>
हʼ ष्टे
हʼ वा</w>
ह ैया</w>
ह िया</w>
ह ष्टे
ह प्
ह जुर</w>
स्रो ब</w>
स्रो दै</w>
स्रा -
स्र ोम
स्ट ʼ</w>
स्क टʼ
स् लु
स् लं
स् मा
सौ वो।</w>
सौ व
सोलों नानै</w>
सोलों थाइनि</w>
सोले रनि</w>
सोरां नाय</w>
सोरजि नानै</w>
सोरखार जों</w>
सोर मोन</w>
सोर नाव</w>
सोमावसार नाया</w>
सोमबोर खौ</w>
सोम स्रिनि</w>
सोम स्रिखौ</w>
सोम द्र
सोम दोन</w>
सोना बनि</w>
सोदोब फ्राव</w>
सोदोब फोरा</w>
सोदोब -
सों फिनो</w>
सों नायसै,</w>
सो होराव</w>
सो होर</w>
सो ला</w>
सो बै</w>
सो दांनाय</w>
सो गोम
सो गार
सो -
सेवा लि</w>
सेरफा ंगु
सेब खांनानै</w>
सेप्तेम्बर निफ्राय</w>
सेन्दे लखौ</w>
सेन् टि
सेक्सपीये रा</w>
सेक्सपी यारनि</w>
सेकस्पी यारा</w>
सेक ्रिफाइ
से र्जा
से र्
से नो।</w>
से जोंनो</w>
सुवा मि,</w>
सुवा -सु
सुबुं ।</w>
सुबुं जों</w>
सुबुं -
सुबु -रु
सुजु ग्रायाबो</w>
सुंदʼ यै</w>
सु लि,</w>
सु रि
सु ब
सु निखौ</w>
सु ंनि</w>
सु -मा
सु-मा सु</w>
सिरिजाहा त</w>
सिरि नाय</w>
सिबि नां</w>
सिफ ियाव</w>
सिनाय मोनै</w>
सिदो ब</w>
सिङा व)</w>
सिगा ंग्रो</w>
सिख्ला फोरखौ</w>
सिखा वा</w>
सिखा न</w>
सि लाइ
सि रा</w>
सि य
सि महा
सि फ्ला</w>
सि नि,</w>
सि खांनो</w>
सावरायज्लाय नो</w>
सावगारि जों</w>
साव ।</w>
साव गार
सार नो</w>
साय ै</w>
साय ा।</w>
साय नानै</w>
साय ,</w>
साबि द</w>
साब सिन
साफ्रा सी</w>
साफाय नानै</w>
सान्थ्रि नि</w>
सान् नायनि</w>
सान् दों-</w>
सानै ।</w>
सानसे मानि</w>
सानबोलाव रि</w>
सानथ्रि नि</w>
सानथौ नि</w>
सान फेरा
सान नाय-ह
साख्रि खौ</w>
साखाफा रा</w>
साखʼ न्द्रा</w>
साइ रʼ</w>
सा ह</w>
सा सु-मासु</w>
सा लाम</w>
सा री,</w>
सा म</w>
सा बेसे</w>
सा बा</w>
सा फ्रोम</w>
सा फोरा</w>
सा प्
सा नाबो</w>
सा दा</w>
सा थि
सा खोन
सा खाथिनि</w>
सा खा</w>
सलʼमा गिरिया</w>
सलʼ वानो</w>
सर्बे श्वर</w>
सर जाब
सय थि
सम्फ थि</w>
सम्प त्ति</w>
समे त</w>
समाय ा।</w>
समाय खिरा</w>
समाज ,</w>
समा वसो</w>
सम- सम</w>
सफ्ट वेर</w>
सं ख्रि,</w>
सʼना फुलि,</w>
स हि</w>
स हि
स हʼ
स लादे
सलादे ं</w>
स बाइ</w>
स नेल</w>
स दब
स ती</w>
स ति
सति स</w>
स क</w>
ष्टे डिया
ष्टे ट</w>
ष ,</w>
श्रा इन</w>
श्र ीनि</w>
शि ल
शंक रा।</w>
शंक र
श ्रि</w>
श ी</w>
श नाव</w>
श नखौ</w>
वाइ ल्ड</w>
वा लि
वा बा</w>
वर् क
वर्क श्व
व ाया।</w>
ल् दा-
लोर ि
लोगो सेनो</w>
लोगो से
लोगो फोरा</w>
लों ब्ला</w>
लों नाय,</w>
लों दों</w>
लों दो</w>
लैय ैनो</w>
लेबʼरे टʼ
ले हे
ले या</w>
ले -
लुस् सा,</w>
लुबैय ोब्ला</w>
लुबै नाय,</w>
ली याव</w>
लिर बाय</w>
लिर नांगौ</w>
लिया नो</w>
लिं हर</w>
लिं नो</w>
लि टार
लाव दाब</w>
लाव थिजों</w>
लाव ,</w>
लाय होनानै</w>
लामा-सा मा</w>
लाबो ,</w>
लाथि खʼ</w>
लाखि नायाव</w>
लाक ीखौ</w>
लाइमोन फोरा</w>
लाइ फ</w>
लाइ नाव</w>
लाइ ननि</w>
लाइ टा</w>
लांगो नानि</w>
लां फै
लां नो।</w>
लां नाया</w>
लां गासिनो</w>
ला हारी</w>
ला हारिया</w>
ला सखौ</w>
ला लु</w>
ला फा</w>
ला नो।</w>
ला नोबो</w>
ला नाय
ला दों,</w>
ला गैनो</w>
ला "</w>
लग् न</w>
लंपे न्ट</w>
ल आ</w>
रो दाखौ</w>
रै नो</w>
रेजिष्ट्रे शनखौ</w>
रुवा थिनि</w>
रुपा नि</w>
रुप ाया</w>
रुप नाथ</w>
रुजु ननानै</w>
रु माव
रु बैजों</w>
री जों</w>
रिया जों</w>
रिक् सायाव</w>
रि फोरजों</w>
रि पर्ट</w>
राव यै</w>
राव फोरखौ</w>
राव ना</w>
रायलाय नायनि</w>
रायज्लाय ग्रा</w>
राय जित</w>
रान नानै</w>
राज् य</w>
राजा फोरा</w>
राक्ष स</w>
राइ फे
राइ ज्लाय
रां खान्थिनि</w>
रा हानि</w>
रा वाबो</w>
रा मा
रा ब</w>
रा न्द
रा दाय</w>
रा ङानो</w>
रा गायाव</w>
रा गाया</w>
रहे लाया</w>
रमे न</w>
रमि व
रमाय श्रिया</w>
रमान् टिक</w>
रंजा लिया।</w>
रंजा नाय,</w>
रं जुलि
रʼ या
रʼ मान</w>
र य</w>
र मा,</w>
र -</w>
यै ब्लाबो</w>
या खै।</w>
म्ब ी
मोसा हारिया</w>
मोसा नो</w>
मोफ्ला म
मोन् नैसो</w>
मोनसे याव</w>
मोनथि बाय</w>
मोनजा रोङै</w>
मोनजा रोङै
मोन हैनाय</w>
मोन बाव
मोन नैखौ</w>
मोन थाव
मोन थायनि</w>
मोन जायो।</w>
मोन ग्रो
मोन खा
मोजा ंखौ</w>
मोखां ।</w>
मोखां थिं</w>
मोख ोना</w>
मोख थां
मैरा लिखौ</w>
मै नि</w>
मै ना</w>
मेसे ं</w>
मेलेम जि
मेने जा
मेग नानो</w>
मेंग् लि
मे सेब
मे ल
मे जे
मुंराइ नि</w>
मुं माखौ</w>
मुं मा,</w>
मुं फ्रोमखौबो</w>
मुं ख्लं
मु ल
मु थिया
मु ङै
मु गैया</w>
मीना रामनि</w>
मिहि राबो</w>
मिनिस् लु
मिनि ग्लाब
मिन थि
मिथिया ,</w>
मिथिगौ ,</w>
मिथि बाय,</w>
मि लाय
मि ल</w>
मि न्ट
मि उ</w>
मास् थारा</w>
मावा खै।</w>
मावरिजा :</w>
मावमोन थायनि</w>
माव बो
माव बाय।</w>
माव नाय,</w>
माव दों।</w>
माव गोन।</w>
माव गासिनो</w>
मालाय फोर</w>
माल दार</w>
मार् स</w>
मार बाय।</w>
मानसि फ्राबो</w>
मानसि फोरजों</w>
मानसि ङा</w>
मान ियानो</w>
माइ ल</w>
माइ खौ</w>
माइ -
मा सेबो</w>
मा ला
मा ब्रै
मा निफ्राय</w>
मा दैया</w>
मा ता
मा घ</w>
मा उजि
मही ध
महर थि</w>
मह राबो</w>
मह म्
मले न।</w>
मन्थ्रि ,</w>
मन्जु लाया</w>
मनजु लाया।</w>
मद दाव</w>
मद दजों</w>
मद दखौ</w>
मणि पुरनि</w>
मʼ ह
म सा
म ल्ल</w>
म थे
म ते
म ता
भो ट</w>
भे नि
भुटा ननि</w>
भुट िया</w>
भु म</w>
भारत निफ्राय</w>
भारत -
भा रि</w>
भ र्
भ र
ब्ला लʼ</w>
ब्ला य</w>
ब्रै नि</w>
ब्रेकफा स्
ब् ब
बोस्रां नो</w>
बोल् दानानै</w>
बो यै</w>
बैसो आबो</w>
बैथा ली</w>
बैथा लि</w>
बै ।</w>
बै सु
बै नि</w>
बै नाय</w>
बेसे न
बेला सि।</w>
बेलस्री -</w>
बेरखां नो</w>
बेर नाय</w>
बेफ्रु नाय</w>
बेफोर ।</w>
बेफोर ो</w>
बेफोर खौबो</w>
बेफा रिखौ</w>
बेफा र</w>
बेण्डे जखौ</w>
बेखेव थि</w>
बेंग ली</w>
बेंग ल</w>
बेंग ल,</w>
बें खननानै</w>
बें खन
बे सोरनि</w>
बे स
बे वाइ
बे व</w>
बे ल्
बे लायावबो</w>
बे ला</w>
बे रामा</w>
बे बादि
बे नो,</w>
बे गे
बे के
बे कार</w>
बृ टे
बुर्लुंबु थु
बुर् जा</w>
बुरै ,</w>
बुरखाय नाय</w>
बुद्र ु
बुङा लाबानो</w>
बुङा बालानो</w>
बुङा खै</w>
बुंहर ो।</w>
बुंहर ो-</w>
बुंहर नाय</w>
बुंबाव ो
बुं सʼनो</w>
बुं लाबाय
बुं बो
बुं फै
बुं फिनो।</w>
बुं नोबो</w>
बु वा
बु लेट</w>
बु रा</w>
बु बिलि</w>
बु बाय।</w>
बु न्दा</w>
बु जि</w>
बु क</w>
बु ,</w>
बी रु,</w>
बिहा राव</w>
बिसोर नाव</w>
बिसोर ,</w>
बिसुखे नि</w>
बिसि- फिसा</w>
बिष्ण ु
बिलिद बाय</w>
बिलि त
बिरहा ङा</w>
बियो दि</w>
बिबुं सारनि</w>
बिबुं थिखौ</w>
बिबां आ</w>
बिबा ज
बिफा नो</w>
बिफा न</w>
बिफा -
बिथि ङा
बिथां निनो</w>
बिथां -
बिजौ वाव</w>
बिजिर सालिनि</w>
बिजिर गिरि</w>
बिजि नि</w>
बिज नी,</w>
बिगु मै</w>
बिखा -बि
बिखा-बि ख्
बि स्व
बि सना</w>
बि लायाव</w>
बि लनि</w>
बि रे
बि मुं</w>
बि नो।</w>
बि दैजों</w>
बि द</w>
बि था,</w>
बि जों
बि जावजा
बि घा</w>
बि .ए.</w>
बि -</w>
बाहाय थि</w>
बाहा गि,</w>
बाव ो-</w>
बाव ब्ला</w>
बाव गार
बाराय ो।</w>
बार लांबाय।</w>
बार नायनि</w>
बाया बो</w>
बाय लै।</w>
बाय बो</w>
बाबु ,</w>
बान्दो लखौ</w>
बानाय सो।</w>
बानाय सो
बानजायफुं नो</w>
बाद नि</w>
बाथ्राया थʼ</w>
बाथौ नि</w>
बाथु वाया।</w>
बाथु वानि</w>
बाथु ल</w>
बाथ ोन
बाज् लʼ
बाजु वा</w>
बाङा ली</w>
बाक सा</w>
बांग्रि खʼबाव</w>
बांगा लनि</w>
बांगा ल
बां सिनसो</w>
बां खि</w>
बा सजों</w>
बा लाब
बा राय</w>
बा मोन</w>
बा थायाव</w>
बा ग्रा</w>
बा ख्रियाव</w>
बा ख्रि
बस् थायाव</w>
बस् था</w>
बसुमतारी या।</w>
बसुम था
बराय नाय</w>
बरʼ ।</w>
बरʼ जों</w>
बर ा</w>
बर द
बम फां</w>
बद नाम</w>
बं फां
ब राया</w>
ब माजों</w>
ब जों</w>
फ्ले बाय</w>
फ्रा व
फोसाव नानै</w>
फोसाब नायनि</w>
फोले रारि</w>
फोरा सो</w>
फोरा ,</w>
फोर माना</w>
फोर निबो</w>
फोर निख्रुइ</w>
फो राव।</w>
फो द
फो थार
फो जानानै</w>
फैयो ब्लाबो</w>
फैया खिसै</w>
फैया ,</w>
फैफिना खै।</w>
फै सानि</w>
फै बाय
फै फिन्नाय</w>
फै फिन्नानै</w>
फै गोन,</w>
फे फे
फेफे -फु
फे न्दा</w>
फे न्दा
फे देरनानै</w>
फे द</w>
फुदुं नो</w>
फुं नो</w>
फुं निफ्राय</w>
फु स
फु वा
फु बाय</w>
फु द
फु ख्रियाव</w>
फिसौ फोर</w>
फिरफि ला</w>
फिना खैसै।</w>
फिन नायखौ</w>
फिन नांगौ</w>
फिन ज्राब</w>
फि थो
फि उ</w>
फि ं
फिं गार</w>
फावथिना फोरा</w>
फाव थायारि</w>
फाराग खौ</w>
फारसे थिङै</w>
फार ौ</w>
फार िया।</w>
फाया रिं</w>
फाय ोब्ला</w>
फाफ् लि</w>
फान्दाय नायाव</w>
फान हर
फान थाव</w>
फान ग्रा</w>
फाग् लि।</w>
फा सय
फा फि
फा फा</w>
फा फनि</w>
फा गु
फरे ष्टनि</w>
फरायसा फोरनो</w>
फराय नोबो</w>
फरमे ट</w>
फʼ ना</w>
फ राइ
फ ज
फ ख्रि</w>
प्रम प्
प्रफु ल्ल
प्रदे शनि</w>
पेट्रि डिस</w>
पे से
पे ट्र
पु री</w>
पि सा
पाटि लनि</w>
पा ल
पा प</w>
पा ति</w>
पके टनिफ्राय</w>
प जों</w>
प जि
प केट</w>
प -
न्द्र नाथ</w>
न्दा य</w>
न्द ैया</w>
न्थ े</w>
न्त ्रिक</w>
न् डा
नौना रिफोरा</w>
नोसै मोन।</w>
नोम फानि</w>
नोम फा
नोजोर ।</w>
नोगोर खौ</w>
नोंसोर लाय</w>
नोंथाङा बो</w>
नोंथाङा नो</w>
नों सिनाव</w>
नों साला</w>
नों नि
नों ना</w>
नों -</w>
नो म्फानि</w>
नो मोन।</w>
नो मोन</w>
नो ब्रा</w>
ने शनेल</w>
ने म।</w>
ने बाय।</w>
नुजाथि नाय</w>
नुजा फैयो।</w>
नुजा फैनो</w>
नुजा फै
नु य
नु नानै।</w>
नु जायो।</w>
नु जायो</w>
नु ग्रोमोना</w>
नु गोन।</w>
नु गासे</w>
निया खौ</w>
निदा नखौ</w>
नि मोन।</w>
नि गिरि</w>
नि खाउरि</w>
नि -</w>
नार्जा रिनि</w>
नार्जा ं</w>
नार् सिं</w>
नार् ज
नारें खल</w>
नाया -</w>
नायगिर ो</w>
नाय हाबनानै</w>
नाय स्रा
नाय सन
नाय बाव
नाय नोबो</w>
नाय नि
नाय नायसाय</w>
नाय दाव</w>
नाय जोंनो</w>
नाय जानो</w>
नाय खं
नामा ब्रा</w>
नानै :</w>
नाथाय बा</w>
नाजाव नानै</w>
नाङा खिसै।</w>
नागिर नायाव</w>
नागा फ्रा</w>
नागा फोर</w>
नांथार गौ।</w>
नां नायखौ</w>
नां नाय,</w>
नां थाब
ना सय
ना री</w>
ना पि
ना दाय
ना जा</w>
ना ख्रेब
नवा व
नमस् कार</w>
नन्दे श्वर</w>
नङा ।
नङा हाय</w>
नङा मोनब्ला</w>
नङा ब्लानो</w>
नङा गोन।</w>
नङा -</w>
नखर ।</w>
नखर खौ</w>
नख रा</w>
नʼखर खौ</w>
नʼ सिङाव</w>
नʼ खर</w>
न सुं
न न्द</w>
न -बा
ध् य</w>
धुबु री</w>
धा ली
ध ी
द्राय ब्ला</w>
द् लाबाय
द् दिन</w>
दोहोर ोमारि</w>
दोहोन नि</w>
दोलो नि</w>
दोरो ङारि</w>
दोर सोन</w>
दोनथʼ नाय</w>
दोन नायनि</w>
दोन थʼ</w>
दोंमोन दि</w>
दो बै</w>
दो खो</w>
दो आ</w>
दैमा लुनि</w>
दैमा लु</w>
दैमा लु
दैमा री</w>
दैदेन नाय</w>
दैदेन गिरिफोरखौ</w>
दैथु ननि</w>
दैज् लां</w>
दै मायाव</w>
दै मा,</w>
दै खौनो</w>
दै खां</w>
देवा न
देव ना</w>
देरगा नाय</w>
देरगा नानै</w>
देर हानाय</w>
देर सिन।</w>
देर सिन
देंखो खौ</w>
दे ब्ला
दे ब</w>
दे नां
दे त
दे खोन</w>
दुर्जा ङा
दुर् लुब</w>
दुरु ं</w>
दुखु-दा हानि</w>
दुखु )</w>
दुंब्रु द</w>
दु ब्रि</w>
दु ब-
दिहुन ना</w>
दिन थिनो</w>
दिन थिनाय</w>
दि न्दां</w>
दि ननिफ्राय</w>
दि खांनो</w>
दाहो ना-
दावराव- दाव
दावगा नाय</w>
दाव हा।</w>
दाव हा,</w>
दायनि गिरिया</w>
दाम नानै</w>
दाब सियाव</w>
दाब खा</w>
दान निफ्राय</w>
दान ना</w>
दान थाम</w>
दाजाब फानाय</w>
दाङा बाजि</w>
दागाब सै</w>
दाखालि सो</w>
दाक् टारा</w>
दाका ति</w>
दाउ ,</w>
दाइ रि</w>
दां नाय,</w>
दा सान।</w>
दा लां
दा मानि</w>
दा बोर
दा बुं</w>
दा न्दा</w>
दा निफ्रायनो</w>
दा नाय-
दा थाय</w>
दा था
दा जा</w>
दा ख्
दा खु
दर्बा सि
दर नैनि</w>
दर जायाव</w>
दर जाया</w>
दर जाजों</w>
दङʼ ।"</w>
दख नाखौ</w>
दं ।
द स</w>
द राखौ</w>
द बो</w>
द न</w>
थै सʼ</w>
थै बाय,</w>
थै नाय
थै जासे</w>
थेर नाय</w>
थुंग्र िया</w>
थिया हां</w>
थिनहर दों</w>
थिन नायाव</w>
थिन दों।</w>
थि न्नायाव</w>
थि ना
थासा रिजों</w>
थाव गौ</w>
थारा ,</w>
थार ।"</w>
थार ो।</w>
थार ो</w>
थायो मोन</w>
थाया व।</w>
थाया वबो</w>
थाय नैजों</w>
थाम ।</w>
थाब नाय</w>
थाखो मा</w>
थांखि ।</w>
थां दो।"</w>
थां जोब
था सʼ
था ल्ला</w>
था लिर
था लाय
था म्
था मोन्
था फैनाय</w>
था नोबो</w>
था नायानो</w>
था नायखाय</w>
था नांगोन</w>
था थों।</w>
थरथिं से</w>
थर फा</w>
थब् लं</w>
थब् लʼ</w>
थफ् लि</w>
थफ ीया</w>
थगाय -थ
थ ीया</w>
थ खन</w>
तुला राम
ता र</w>
ता न्त्रिक</w>
ता ँ
त ्रि</w>
त सर
ढ ा
डे स्कटʼ
डिस् क्‌</w>
डाक्ता रा</w>
डाक्ता र</w>
डाक् टारा</w>
ड जों</w>
ड :</w>
ट्‌ ल</w>
ट्रेजे दि</w>
टे म</w>
टे ड</w>
टि उ
टि -
टाइ प</w>
टा टा</w>
टा उननि</w>
टा उन-
ट ियाव</w>
झ ु
ज्लाय ा
ज्रि ं</w>
ज्रा व</w>
ज् य
जौ थाइनि</w>
जौ जों</w>
जोम नो</w>
जोबथार नाय</w>
जोब ोर
जों हा
जों ब्लाबो</w>
जों थʼ</w>
जो ,</w>
जेसे बांनो</w>
जेर बायाव</w>
जें नायाव</w>
जे व</w>
जे लाव</w>
जु ब</w>
जु नैबो</w>
जु थु
जु त</w>
जु ,</w>
जिराय बाय</w>
जिनि सखौ</w>
जिं गासिनो</w>
जि- जोम</w>
जि वा
जि ला</w>
जि नाय</w>
जाव ै
जालां गोन</w>
जालां खो</w>
जारौ -
जार ला</w>
जायै- लोङै</w>
जाया ब्लाबो</w>
जाया नो</w>
जाय ैनि</w>
जाम्बि फोरखौ</w>
जाबो दों</w>
जाबाय लै</w>
जाबाय -
जानाय फोरनो</w>
जानां दों</w>
जान जि</w>
जाथों ,</w>
जात्रा गान</w>
जागाय जेननाय</w>
जांख्रि खां
जा फैनो</w>
जा फुं</w>
जा फा
जा नोसै।</w>
जा निफ्राय</w>
जा न</w>
जा थार</w>
जा त</w>
जा जोबनानै</w>
जा गौ</w>
जा खार
जा खाङो।</w>
जा खाङो</w>
जा खर</w>
जा इ</w>
जथु म</w>
जʼ रा,</w>
ज स्लं
ज वा</w>
ज गाज
छ ,</w>
चे न्
चि ला
चाणाक् य</w>
ङो मोन।</w>
ङ ,</w>
घ र्ना</w>
घ ड़
ग्ला स</w>
ग्रे णे
ग्रा य</w>
ग्रा फि
गोसोखां दों</w>
गोसो थो
गोसो आ।</w>
गोसो आव
गोल् लै
गोलोम दै</w>
गोलैय ो</w>
गोलै नो</w>
गोरो बै</w>
गोरा नजों</w>
गोर बो</w>
गोमोर लां
गोमो हाबनानै</w>
गोमो र</w>
गोमो थावना</w>
गोमाय ो।</w>
गोमा लां
गोमा ना</w>
गोमजोर ,</w>
गोबा ङैनो</w>
गोनां फोरनि</w>
गोन िफ्राय</w>
गोदाव- सोराव</w>
गोथै खौ</w>
गोजोन नायनि</w>
गोजा ,</w>
गोग्लैयो। ।</w>
गोग्लै बाय</w>
गो सो।</w>
गो लोम</w>
गो बांसिन</w>
गो फोन
गो नाङै</w>
गो थार।</w>
गो थारै</w>
गैया ;</w>
गै थार
गेव नाय</w>
गेले बाय</w>
गेदेर थार</w>
गे वा</w>
गे रेब
गे ब्लाया</w>
गे न्द्रा
गे दाइ</w>
गुवाहाट ीनि</w>
गुर हं</w>
गुफु र,</w>
गु लियाव</w>
गु लार</w>
गु रिनि</w>
गु दि।</w>
गु दिया</w>
गिला साव</w>
गिर ियानो</w>
गिया नि</w>
गिया नखौ</w>
गिया न
गिबि ,</w>
गि सिब</w>
गि सिखा
गि नांगौ।</w>
गि खांनाय</w>
गाहाय ,</w>
गासै खौ</w>
गावबु राखौ</w>
गावजें खौ</w>
गाव हानो</w>
गाव स्रा</w>
गाव राव</w>
गार् लस</w>
गारि निफ्राय</w>
गारा खै।</w>
गार नांगौ</w>
गार गोन</w>
गार खो</w>
गामिनि ।</w>
गाबज्रि नायाव</w>
गाबगु -खुगु</w>
गान हो
गाज्रि खौ</w>
गाइखे र,</w>
गां ।</w>
गाँ वनि</w>
गा हायावनो</w>
गा सा</w>
गा लाङो।</w>
गा राया</w>
गा नो।</w>
गा ण्डा</w>
गलाफ ीनि</w>
गलाफ ी</w>
गर द</w>
गर द
गम्भी र
गबʼ नाय</w>
गन्थ ं,</w>
गं सेयावनो</w>
गं फ्रोमबो</w>
गʼ लाम</w>
गʼ गा
ग ने
ग नायनि</w>
ग न</w>
ग दाया</w>
ग दायनि</w>
ग था</w>
ग ंग
ख्रु ब
ख्रि ं
ख् लायनानै</w>
खौरां फोरखौ</w>
खौ लाय।</w>
खौ )</w>
खौ '</w>
खोमा बाय।</w>
खोन् था
खोनासं बाय</w>
खोना दों</w>
खो नाय</w>
खै लै</w>
खै ना</w>
खें ख्रा
खे म
खृष्ट ीया
खुलुम नाय</w>
खुनुरुखु मै</w>
खुन ोरो
खुदुम नानै</w>
खुदिया फोरनो</w>
खुं थाइया</w>
खुं थाइखौ</w>
खु से
खु म्बी
खु मा</w>
खु म
खु न्थि
खु नाय</w>
खु नानै</w>
खु दु
खु थारै</w>
खु ंग्रि
खिन्था बाय</w>
खिन् थायो</w>
खि थि
खि ग्रा</w>
खाव ै</w>
खाव लायो।</w>
खाव ना</w>
खालामा खै</w>
खालाम होनानै</w>
खालाम ,</w>
खार लुं</w>
खार लुं
खार खो
खाया बो</w>
खाया ,</w>
खायसे~ खायफा</w>
खाय -
खाय ,</w>
खामानि ।</w>
खामान ियाव।</w>
खामान ियाबो</w>
खान्था ल,</w>
खां सोर</w>
खां नाय,</w>
खां ख्ला</w>
खा रा।</w>
खा प
खा ना।</w>
खा ख्ला
खा ख्र
खा ंग्रा
खम लाय</w>
खब जबनानै</w>
खन थामसो</w>
ख साब</w>
ख ष्ट</w>
ख वा</w>
ख माय
ख बै</w>
क्ष े
क्ला बाव</w>
के रानि</w>
के रल</w>
के जि</w>
कु नि</w>
काप ाव</w>
काप खौ</w>
का श्य
का ल
का म</w>
का ति
कहि ध
कल्पा नाया</w>
कमे दि</w>
कमिसना र</w>
कमि टिया</w>
कमाण्ड फोरखौ</w>
कनष्टे ब
क ्राइ
क ीया</w>
क बि
क फि</w>
क निफ्राय</w>
क '</w>
ओरै नो
ओंखारबो बाय।</w>
ओंखार लां</w>
ओंखार नायनि</w>
ओंखाम- इंख्रि</w>
ओंखा मा</w>
ओं ख्रि</w>
एसेम ब्लि
एव स्रां
एव नानै</w>
एल बा
एर नाय</w>
एम्ब ु</w>
एम.एल .ए.</w>
एम ,</w>
ए सि</w>
ए सनि</w>
ए ख
ए इस
उसि फाव
उन्दै नि</w>
उन्दै -
उन्दु ग्
उनाव ,</w>
उदु नि</w>
उदि स</w>
उद खार</w>
उत्त रा</w>
उखै नाय,</w>
उखु न्दै
उ मे
इराग्दाव खौ</w>
इन्जिनिया र</w>
इन टारनेल</w>
इण्ड िया</w>
इउ रिया</w>
इ लेक
इ लिय
इ न्द
इ छ
इ उन
आलाइ स्र
आल मि
आर् मि</w>
आय दा,</w>
आब्रु थिनि</w>
आब् राम-</w>
आब् दुल</w>
आबौ मोननि</w>
आफो द</w>
आफा ।"</w>
आफा फोर</w>
आफा '</w>
आप कुनि</w>
आन्दा र</w>
आनजा दा</w>
आन खि</w>
आथिं निफ्राय</w>
आगष्ट ,</w>
आखु नि।</w>
आखु थाइ</w>
आखु खौनो</w>
आखाया वनो</w>
आखा-फा खा</w>
आख ल।</w>
आइ ।"</w>
आइ दिया
आइ खौ</w>
आं खौ,</w>
आं -
आ लु</w>
आ लि
आ लʼ
आ न्था</w>
आ गोर
आ खि
अराय दिन</w>
अफि स
अन् थाय</w>
अनि लनि</w>
अनि मा</w>
अन सि</w>
अन थाव</w>
अदालगु री,</w>
अख्रां मायाव</w>
अखा फोरा</w>
अखा फोर,</w>
अक्ट ʼ
अ स्था
अ सान्
अ सम</w>
अ रनि</w>
अ मानि</w>
अ बाव</w>
अ ग
ंग्र ाय
ं नो</w>
ँ इ</w>
} :</w>
www .
ur e</w>
u re
tion )</w>
t ra
sen se
ro m</w>
rac tical</w>
ra tion</w>
ou s</w>
ori es</w>
or y</w>
o f
o -
n i
me an
m o
i r
i de
ha ra
ess ories</w>
es t</w>
es day.</w>
er s</w>
er s
em otion</w>
e x
e .</w>
e )</w>
d er</w>
com p
c t</w>
ation )</w>
ar d</w>
T rag
P o
M o
Li mi
K ac
I I
Go d</w>
G ra
Excellenc y</w>
E ,</w>
C :\></w>
B ri
Ac c
A ss
A n
A l
8 .
6 .
4 7</w>
4 -
3 5</w>
3 1</w>
200 3</w>
198 8</w>
198 0</w>
10 ,000</w>
1 -
0 )</w>
/ 2</w>
.ए फ
.......... ।"</w>
......... ।</w>
........ .....</w>
........ .......</w>
... ?</w>
.. ।"</w>
- हांखो</w>
- सोर</w>
- था
- इ
+आ =</w>
( रागा)</w>
( बि
( ज
( अ
( In
' मा</w>
' दोर्सोन</w>
' आव</w>
" हो
" हे:</w>
" सुखे</w>
" सि:</w>
" मानोथो</w>
" बेयो</w>
" बेनि</w>
" फिसा</w>
" थेंक</w>
" जानो</w>
" ए,</w>
" आलाइ</w>
" आबौ</w>
" अर
" अबंनि</w>
" -</w>
। नाथाय</w>
। 2</w>
। ..........</w>
्र ो
ो। '</w>
ोन ो
ो )।</w>
ैया वबो</w>
ै -</w>
ी ं</w>
िया -</w>
ि लाय</w>
ा नि</w>
हौवा फोर</w>
होम ब्लाबो</w>
होन् नानैसो</w>
होन नाबो</w>
होख्रा ं</w>
होंगो-दों गो
हो वा</w>
हो लायनानै</w>
हो बोनाय</w>
हो बाय-</w>
हो बा</w>
हो फैबाय।</w>
हो फैनाय</w>
हो फैदों</w>
हो फिन
हो नानै।</w>
हो नांगौ।"</w>
हो ना
हो ग्रो
हैया खै।</w>
हैय ो,</w>
है नि।"</w>
है नायसै।</w>
है नायसै</w>
है दो</w>
हेफाजाब गिरि</w>
हुसिया र</w>
हुरा गासे</w>
हुगार बाय।</w>
हु म</w>
हु दा
हि रʼ</w>
हि उ
हि -
हास् लाब
हासि ब</w>
हालो दाव</w>
हालो दखौ</w>
हालमा जि</w>
हाल दा</w>
हार् सिं</w>
हार ियानो</w>
हायो ब्लाबो</w>
हायाखै ब्लाबो</w>
हाया व।</w>
हाया नो</w>
हायना मुलि
हाय ैया</w>
हामबु रनि</w>
हाम ै</w>
हाब् रां</w>
हाबिल दारा</w>
हाबि लाखौ</w>
हाबफै दोंमोन।</w>
हाब हैनाय</w>
हाब लां
हाब बोयो।</w>
हाब बो
हाब बाय।</w>
हाब ना</w>
हानजा ,</w>
हाथाइ -बा
हाजो ,</w>
हाजार बार</w>
हाजार खि</w>
हाजा से।</w>
हाग्रा मायाव</w>
हाग्रा मानि</w>
हांखो खौनो</w>
हां फ्ला</w>
हा- हा-
हा सुं
हा सिगौ</w>
हा राव</w>
हा राव
हा राम</w>
हा मो
हामो ।
हा मार
हा ब्ला</w>
हा ब्रु
हा नो।</w>
हा नाय।</w>
हा नायखौ</w>
हा ननानै</w>
हा थारा।</w>
हा थʼ
हा जों</w>
हा खो</w>
हस्पि तालाव</w>
हरे श्वर</w>
हर ।"</w>
हर ु</w>
हर नायसै</w>
हम लायनानै</w>
हम ब्ला</w>
हम नायसै</w>
हगार सारनानै</w>
हं ख्र
ह नै।</w>
ह नाय,</w>
ह थʼ
स्लाय स्लाय</w>
स्लाय गोन</w>
स्ला बा।</w>
स्ल गान
स्रो त</w>
स्रि ं</w>
स्रा इ</w>
स्नि थि</w>
स्टाइ ल</w>
स्ट रे
स् ले
स् लायनो</w>
स् र</w>
स् फार</w>
सौ ग्दाव
सोलों थाइखौ</w>
सोलो यै</w>
सोलाय ै</w>
सोर ।</w>
सोर नो</w>
सोमोन् दो।</w>
सोमो नां
सोमजि होयो।</w>
सोमजि नायनि</w>
सोम ब्रʼ
सोम जियो</w>
सोम जाय
सोमजाय ग्रा</w>
सोब ग्रा</w>
सोना बारि</w>
सोद्रोमा फोरनि</w>
सोद्रोमा फोरखौ</w>
सोदोब थि
सों नांगौ</w>
सों दोंमोन</w>
सों दोंमोन-</w>
सो लाय।</w>
सो दोर
सेवा रि</w>
सेर नानै</w>
सेर जाखौ</w>
सेप्तेम्बर नि</w>
सेन्दे ला</w>
सेनाप ति।</w>
सेक ्रे
सेंग्रा- सिख्ला,</w>
सेंग्रा फोराबो</w>
सें सौ</w>
से ल्
से न्स
से निफ्राय</w>
से :</w>
से )</w>
सुवा मि</w>
सुलु ंनि</w>
सुर ो</w>
सुर लाङो।</w>
सुमि लाखौ</w>
सुबुरु न</w>
सुबुं फोरनो</w>
सुबि धा</w>
सुबि धा
सुफुं नायनि</w>
सुफुं नाय</w>
सुफुं नानै</w>
सुफु ंग्रा</w>
सुथु र।</w>
सुजु ग्राखौ</w>
सुखु- दुखु,</w>
सुखु यै</w>
सुखु थु</w>
सु शान्त</w>
सु बाव</w>
सु नि,</w>
सु नायनो</w>
सु नायनि</w>
सु नाय,</w>
सु ग्रा</w>
सु खि</w>
सु खʼनानै</w>
सिस्टे मखौ</w>
सिलि म</w>
सिया बो</w>
सिम् पा
सिम्पा न्ज
सिमां सो</w>
सिबि नायखौ</w>
सिब स्रां</w>
सिन्दु कनि</w>
सिने मानि</w>
सिनाय ै</w>
सिनाय नानै</w>
सिथ् लानि</w>
सिथार नानै</w>
सिङा व
सिगाङा व
सिगां -
सिख् लायानो</w>
सिखां दो</w>
सिखा रा
सिखा उ</w>
सिं नो</w>
सि रियाव</w>
सि बै</w>
सि दे
सि थोर</w>
सि थार</w>
सि डे
सि गौमोन।</w>
सावरायज्लाय नाय</w>
सावराय नायाव</w>
सावख् लिनि</w>
साव फुं
साव थुन</w>
सालि स
साला न</w>
सार् क</w>
सार फ्राव
सार फाव
सार नायनि</w>
सार जों</w>
साया -
सायख ङा</w>
साय ो</w>
साय रʼ</w>
साम लाय</w>
साबु कजों</w>
साबि त्र
साबाइ खर</w>
साब सिन।</w>
साफ्रा स
सान्थ्रि फ्रा</w>
सान्थ्र ʼ
सान् दोंमोन,</w>
सान् दा</w>
सानै नो</w>
सानै -सा
साना खै।</w>
सानथ्रʼ हायै</w>
सान सʼनो</w>
सान राय
सान फिनो</w>
सान फामानि</w>
सान नायाव</w>
सान नायसै,</w>
सान नायमोन।</w>
सान नाय
सान दों,</w>
सान दुं</w>
सान थाया</w>
सान थाम
सान जों</w>
सान गोन</w>
सान खां
सागु ,</w>
साख्रि वाला</w>
साखोन -सि
साइटʼकाइ नि
साइ द</w>
सा हाब
सा लायनो</w>
सा लाइखौ</w>
सा ल,</w>
सा रोन</w>
सा ब्रैसो</w>
सा न्थि
सा नो।"</w>
सा नावनो</w>
सा नाया</w>
सा ना-
सा थिं</w>
सा थामनि</w>
सा था</w>
सा जा।</w>
सा जानि</w>
सा खाथियावनो</w>
सा क
सहे ननि</w>
सलʼ वाबो</w>
सलʼ मायानो</w>
सलʼ गिरिनि</w>
सरका री</w>
सरका रि</w>
सरका र</w>
सर ला</w>
समि लाया</w>
सम सेर</w>
सम ष्
सम मथे</w>
सम जित</w>
सफ्ट्‌ वे
सन्दे ह
सन ।</w>
सदब नो</w>
संबिजि रनि</w>
संनाय- खाव
सं राजानि</w>
सं फ्
सं दाननो</w>
स न्द
स थब
स थ
सथ बनानै</w>
ष्टे ज</w>
श् या
शची पा
शंक र</w>
श ं
वा ल</w>
वा खैमोन।</w>
वा इ</w>
व ायाव</w>
लोगो रि</w>
लोगो या</w>
लों लाय
लों नांगौ।</w>
लों दों।</w>
लै सो</w>
लेन्थ न</w>
लेखा- फरा</w>
लेखा खौ</w>
लें हरनाय</w>
ले ।</w>
ले स</w>
ले वा</w>
ले यार्
ले म</w>
ले न्स</w>
ले ङा
ले ंग्रा
ले -ब
ले-ब ले</w>
लुबैया खैमोन।</w>
लुबैय ो,</w>
लुबै सुला</w>
लुबै दोंमोन</w>
लु सिन</w>
लु म
लु बै</w>
लु नो</w>
लु ना</w>
लु न,</w>
लु कुर</w>
लिर ो</w>
लिर स्
लिर बि
लिर दोंमोन</w>
लिया नि</w>
लिबारे सन</w>
लिं हरनाय</w>
लिं बो
लि रा
लि फोरनि</w>
लि ङो।</w>
लि क
लाव खार
लाव -
लाया सै</w>
लाया बा</w>
लाय ैनो</w>
लाबो नायनि</w>
लाबो गोन।</w>
लाबो गोन</w>
लाजि थाव</w>
लाङा सै</w>
लाङा खै</w>
लागो नि</w>
लाखि ।</w>
लाखि थों</w>
लाइजा म।</w>
लाइ सि
लाइ मोन,</w>
लाइ मु
लाइ टखौ</w>
लाइ जौ</w>
लांगोन ,</w>
लां सु
लां नांगोन।</w>
लां दों,</w>
ला ब्लानो</w>
ला बाव
ला न्थ्र
ला दो।</w>
ला जोबनो</w>
ला ङै</w>
लम न</w>
लखʼ बा</w>
लʼ थार।</w>
ल सिम</w>
ल ना</w>
ल ण्ड
ल जि
ल खि</w>
ल क</w>
ल ं,</w>
र् ड</w>
र् गो
रोजा बै</w>
रों नो</w>
रों नांगोन।</w>
रो दानि</w>
रो ङोब्ला</w>
रो खा।</w>
रो खा-
रेब ती</w>
रेब तिया</w>
रेन्जा रनि</w>
रे स'</w>
रे ष्टु
रुम े</w>
रुबि लानि</w>
रु खु</w>
री ।"</w>
री याबो</w>
री आ</w>
रिया नो</w>
रिक् सा
रिंसार थिजों</w>
रिंगासो याव</w>
रि सि
रि मोन
रि बो</w>
रि ग
रिग दै
रि खौनो</w>
रि क
रि ंगु
रिंगु दाम
रि ंगा</w>
राहा गिरि</w>
रासिया नि</w>
राव बोथʼ</w>
राया बो</w>
रायज्लाय नाया</w>
राय ो</w>
राय ा।</w>
राय फोद
राय ग्लि
रामोन् दा,</w>
रामनाथ नि</w>
रामनाथ जों</w>
राम -
राफो द
राण ीनि</w>
राज खुंगु
राइजो-राजा फोरा</w>
राइजो- राजाया</w>
राइजो फोरजों</w>
राइजो आरि</w>
राइजो आनो</w>
राइ जोनिफ्राय</w>
राइ घाट</w>
राइ खौ</w>
रां गानि</w>
रां खि
रां खाव
रां खान्थ
रा सो</w>
रा भानि</w>
रा निफ्राय</w>
रहे ला</w>
रमे नखौ</w>
रमाय श्रि
रबिल सना</w>
रʼ ।</w>
रʼ मान्
र ियाया</w>
र मानि</w>
र बिबाराव</w>
र बिबार
र ना-
रना- रनि</w>
र थʼ।</w>
र ङ
र ग
र )</w>
र '</w>
यो मोन।</w>
यो मोन</w>
यै )</w>
ये ल</w>
यु व</w>
याव बा</w>
या लाय</w>
या खै</w>
या -</w>
य े</w>
य र</w>
म्ब ल</w>
मोसा हारी
मोसा दों।</w>
मोर ोन</w>
मोर ो
मोन्दां थि</w>
मोन् नि</w>
मोन् नांगौ</w>
मोन् दा</w>
मोन् थोर
मोन् थाय</w>
मोनो ।"</w>
मोनाम नाय</w>
मोनसे निफ्राय</w>
मोन ै
मोन हैयो।</w>
मोन हैनानै</w>
मोन स्रा</w>
मोन लै</w>
मोन मार
मोन बा
मोन फ्रोम</w>
मोन नायाव</w>
मोन दोंमोन,</w>
मोन थोर
मोन थिया।</w>
मोन थाय
मोन जानाय</w>
मोन गोन,</w>
मोन खां
मोजां थार</w>
मोगथाङा रि</w>
मो दाया</w>
मो द
मो ज्लाय</w>
मैहुरा री</w>
मैहुरा री
मैगं-थाइ गं</w>
मै- मै</w>
मै ।</w>
मै ना
मै था</w>
मेले मखौ</w>
मेब्ला नि</w>
मेने ज
में नो</w>
मे लखौ</w>
मे राव</w>
मे नु</w>
मे थे
मुसाहा रीया</w>
मुसलि म</w>
मुलु कनि</w>
मुलि फोरखौ</w>
मुगा ।</w>
मुंराय ।</w>
मुंराय :</w>
मुंराइ खौ</w>
मुंराइ :</w>
मुंमा+ गोथे</w>
मुं ख
मु सि</w>
मु रि</w>
मु रा</w>
मु म्बाइ
मु जाहि
मु ख्लं
मी ला</w>
मी ,</w>
मिन्ट न</w>
मिनि श्री</w>
मिनि ग्
मिनि गाग्लाब
मिन ियै</w>
मिथि सʼ</w>
मिथि थारा
मिथि गोन</w>
मिटार सो</w>
मिजिं थि
मि निया
मि ना</w>
माहाजो ना।</w>
माहाजो नाबो</w>
मास्टा रा</w>
मास् थारनि</w>
माष् टारा</w>
मावा -दाङा</w>
मावरि जाजों</w>
मावफारिया फोरनि</w>
मावथि फोरा</w>
मावखुं गोरा</w>
माव ो,</w>
माव नाया</w>
माव नायजों</w>
माव नां</w>
माव दों,</w>
मार् का</w>
माय नानै</w>
माब्ला निफ्राय</w>
मानो मोन</w>
मानसि यासो</w>
माखा से
माउ सनि</w>
माउ स</w>
माइरं खौ</w>
माइरं ,</w>
माइथाय सिम</w>
माइथाय निफ्रायनो</w>
माइ क्रʼ
मा- दाउ
मा- गर
मा सेनि</w>
मा सिया</w>
मा सनि</w>
मा लि</w>
मा बायदि</w>
मा फा</w>
मा नाव</w>
मा ध
मा दै
मा थुरा</w>
मा थाव
मा थाम</w>
मा जे
मा गि
मा खन
महा रा
महा त्
महर फोरा</w>
महकु मानि</w>
मस ला</w>
मन्जु ।</w>
मन्जु लानि</w>
मन्जु जों</w>
मनि राम</w>
मनजु आबो</w>
मन ी</w>
मद त</w>
मडे ल</w>
मखʼ नो</w>
मखʼ जाथाव
मंग लीयान</w>
म ौ
म हाम
म न्द
म थर-
म ख
म )</w>
भेनि टि</w>
भे न</w>
भे ट
भु माव</w>
भि टा
भबे श</w>
भ ौ
भ िये
भ नि</w>
ब्ले क</w>
ब्लाउ स,</w>
ब्लाउ ज</w>
ब्ला -
ब्रा स</w>
ब्रह्म ।</w>
ब्रह्म वा।</w>
ब्रह्म आ</w>
ब्रʼ ब
ब्र ʼ</w>
ब्याव हा</w>
ब् ‌
बौ है
बोहै ग्
बोस्रां नानै</w>
बोसोर सो</w>
बोसोर से
बोसोर सालिया</w>
बोसोर थाम</w>
बोराय ा।</w>
बोराय -बे
बोराय-बे न्थ
बोराय -बु
बोराय -
बोरा ब</w>
बोर सिया</w>
बोर मा,</w>
बोयो ।)</w>
बोद लानानै</w>
बो है</w>
बो लोगो
बो जबनानै</w>
बो गौ</w>
बो खोनानै</w>
बो खावनो</w>
बो आनो</w>
बो -</w>
बैसो आवनो</w>
बैसा गो</w>
बैसा गिया</w>
बै से</w>
बै दिनखालि</w>
बेसे थो</w>
बेसा दनि</w>
बेला सिनि</w>
बेराय नो</w>
बेरा फारसे</w>
बेर लाव</w>
बेर खा
बेयाव हायनो</w>
बेमा रिखौ</w>
बेब् दिनो</w>
बेब् दि</w>
बेद रै</w>
बेद त</w>
बेग पाइ
बेखौ नोथʼ</w>
बेखेवगा स्
बेखेव फानि</w>
बें काव</w>
बें कनि</w>
बे सोर</w>
बे रामनि</w>
बे र</w>
बे मारि
बे थन</w>
बे गाव</w>
बृहस्पति बारखालि</w>
बुहु म
बुर खाय</w>
बुद् दि</w>
बुदा रुनि</w>
बुदा ंनि</w>
बुंफब नाय।</w>
बुंनाय सै
बुंनाय मोन।</w>
बुंदों दि,</w>
बुंदों --</w>
बुं है
बुं लाङो</w>
बुं लांदों।</w>
बुं नो।</w>
बुं नायसै।</w>
बुं दों।"</w>
बुं दों,</w>
बुं थार
बुं जोबनो</w>
बु हा
बु न्दा
बु ग्लि
बु गा</w>
बी र
बिहा वनो</w>
बिसोर निफ्राय</w>
बिसि ,</w>
बिसायखʼ थिनि</w>
बिलाइ स्रिया।</w>
बिलाइ याव</w>
बिरोंदा मि
बिर हां
बिर लांदों।</w>
बिर नानै</w>
बिर गʼ
बिया र</w>
बिमाय नो</w>
बिमाइ नो</w>
बिमा- बिफाखौ</w>
बिमा य</w>
बिब्दि नो।</w>
बिबो नां
बिब ौ</w>
बिफा ङा</w>
बिफा ं।</w>
बिफा ं-
बिना रामखौ</w>
बिन य</w>
बिदि ब्ला,</w>
बिथिं जाय</w>
बिथां मोनहा</w>
बिथां खिखौ</w>
बिजौ खौ</w>
बिजिर सालिया</w>
बिजिर गिरि,</w>
बिजि- फिसा</w>
बिजि ने
बिजाथि फोरा</w>
बिजने स
बिग्राया रिफोरखौ</w>
बिगोमा जोआ</w>
बिगो माया</w>
बिगु मा
बिखा-बिख् लो</w>
बिखा ,</w>
बिका स</w>
बि.टि.सि .
बि. टि
बि.टि .ए.
बि हारी</w>
बि सुखे</w>
बि साल
बि सान</w>
बि सान
बि श</w>
बि लियाव</w>
बि लʼ</w>
बि य
बि मायानो</w>
बि बायनानै</w>
बि बादिनो</w>
बि नायाव</w>
बि धान</w>
बि द्
बि थिङै</w>
बि थाया</w>
बि जिया</w>
बि खं
बि आ</w>
बाहाय ो</w>
बाहाय ग्रा</w>
बाहागो खौनो</w>
बास्रि नाय</w>
बावा खै।</w>
बाव हायनो</w>
बाव लांबाय</w>
बारि -बा
बारांगा बारी</w>
बारहुं खाया</w>
बार ीयाव</w>
बार हां</w>
बार सʼनानै</w>
बार बाय</w>
बार गनो</w>
बार ग
बायह ्रायाव</w>
बायदिसि ना।</w>
बायदिसि ना
बायदि सो</w>
बायदि फोरा</w>
बायदि फोरखौ</w>
बायदि खौ</w>
बायदि ,</w>
बाय सै</w>
बाय ब्लाबो</w>
बाय बा</w>
बाय दों,</w>
बाम ब्ले
बाब्रा ब
बादि बो</w>
बादाय लायनाय</w>
बाथ्रा बो</w>
बाथ्रा खौ।</w>
बाथ्रा खौबो</w>
बाथ ोर
बाज्रे द</w>
बाज्रे द-
बाज्र ु
बाज् ल</w>
बाज् ल
बाजि सो</w>
बाजार निफ्राय</w>
बाजा रि</w>
बाज ियावसो</w>
बाग् लाय</w>
बाग् दाव</w>
बागा नाव</w>
बागदाव खाङो</w>
बाख नायनाय</w>
बाइ जो</w>
बा लʼ</w>
बा मोना</w>
बा मोननि</w>
बा नेश्वर</w>
बा निफ्राय</w>
बा नि
बा ध्य</w>
बा दों</w>
बा दै</w>
बा जारि
बा ङै</w>
बा गैबो</w>
बा गै
बा ख्र
बा खौ</w>
बा खि</w>
बा :</w>
बसुम थार
बसु माता
बर् ड</w>
बरʼ फोर
बर े
बर फ</w>
बय बो।</w>
बय बो,</w>
बय निख्रुयबो</w>
बम ब्राय
बबे व
बबे यावबा</w>
बबे नि
बबे थिं</w>
बद ना
बड़ ʼ
बडʼले ण्ड
ब- सु
ब हाबा
ब ले
ब ला
ब राय</w>
ब माया</w>
ब बेखौ</w>
ब बाय।</w>
ब न्दानि</w>
ब कुल</w>
ब ंग्
फ्ले नाय</w>
फ्ला स्क
फ्रा न्
फ्रा थʼ</w>
फ्र ो
फ् लिं</w>
फ् लाबाय</w>
फ् लाङो</w>
फोले रा</w>
फोरमाय थि</w>
फोर जों।</w>
फोर जाया</w>
फोर -</w>
फोनां नायनि</w>
फो लाव</w>
फो नां</w>
फो थैनानै</w>
फो थार</w>
फो थाया
फो जोन
फैफिन नो</w>
फै माल
फै बानो</w>
फै फिन्
फै फिनो</w>
फै दोंमोन
फै दो,</w>
फै थʼ
फै गौ
फै खांबाय।</w>
फें खा</w>
फे हेर
फे स्व
फे लें
फे जेन्नानै</w>
फे -
फुं बिलि</w>
फुं बिलि
फु रि</w>
फु जानि</w>
फु ख्रि
फिसौ ,</w>
फिसा ।"</w>
फिसा फोरनि</w>
फिल् म</w>
फिना सै।</w>
फिन साजा</w>
फिन गोन।</w>
फिदिं नो</w>
फि ना।</w>
फि थाया</w>
फि थर</w>
फाहाम सालिखौ</w>
फाहाम सालि</w>
फावदु र</w>
फावथाइ फोरा</w>
फाव साय
फालि नो</w>
फालांगि खौ</w>
फालांगि ,</w>
फारिया ,</w>
फारि लाइ</w>
फारा -फारि</w>
फार सेबो</w>
फार लं
फार नैयाव</w>
फाय ो,</w>
फाफ खौ</w>
फान्दाय नानै</w>
फान लु
फादोर नि</w>
फाग्ला बादि</w>
फाइ नाल</w>
फां नै</w>
फा वा</w>
फा लिखौ</w>
फा लानि</w>
फा रि।</w>
फा नै</w>
फा दुब</w>
फा थ्रि
फा थो
फा ग्रा</w>
फा ख्रा</w>
फा खा</w>
फा -मा
फा-मा फा</w>
फसं नानै</w>
फरे इ
फरेइ नाव</w>
फरायसा फोरखौ</w>
फराय दों।</w>
फराय ग्रा
फजʼ नो</w>
फजʼ नाय</w>
फं नै</w>
फʼ ब
फ ोना</w>
फ ल
फ निफ्राय</w>
प्ला स्टिक</w>
प्ल ट,</w>
प्रे छ</w>
प्रे क
प्रेक ति
प्रेकति केल</w>
प्रि न्टा
प्रशान्त वा।</w>
प्रदे श</w>
प्रदे श
प्रदिप खौ</w>
प्र शान्त</w>
प्र मीला</w>
प्र भ
प्र ब्ले
प्र न
प्र ʼ
पे रि
पे न
पु र्
पाब्लिकेसन स्‌</w>
पाब्लिके सन</w>
पाट ी
पाकिस्ता न</w>
पा ले
पा प
पसम ी</w>
परे श</w>
परिष दा</w>
प ा।</w>
प य
प ट
प जʼ</w>
न्दा निफ्राय</w>
न्द ्रि
न्द ाया
न्ट नि</w>
न्ट ʼ
न् दि,</w>
न् दाव</w>
नोसै लै</w>
नोम फाया
नोजोर नि</w>
नोगोर माया
नोंसोर ।</w>
नोंसोर -
नोंथां मोन
नों हा।</w>
नों हाबो</w>
नों निनो</w>
नों खौबो</w>
नो लो</w>
नो लाय।</w>
नो खि</w>
नो /
नै ।"</w>
नेहा थार
नेर खां</w>
नेम खान्थि</w>
नेपा लि</w>
नेटवार् क</w>
नेटवार् क
ने हरु</w>
ने थʼ
ने ग्रा</w>
नुवा खै।</w>
नुजाथि दों।</w>
नु हरा।</w>
नु हरा
नु नायखाय</w>
नु थायाव</w>
नु थाइ</w>
नु जानानै</w>
नु जा</w>
नु खो</w>
निर् बा
निरा मिस</w>
नि साया</w>
नि म
नि फ्रा</w>
नि पा</w>
नि जोर
नि '</w>
नालि साव</w>
नार् सा</w>
नारा-ना था</w>
नारसिन नानै</w>
नार खो
नाया दि</w>
नायहर दों</w>
नायथिं- नायथा</w>
नायजाब ।</w>
नायग्रा फोरखौ</w>
नायगिर नो</w>
नायगिर ना</w>
नायखं ख्रे
नाय हरा
नाय साय।</w>
नाय बिजिर</w>
नाय फ्रा</w>
नाय फोरनि</w>
नाय दो।</w>
नाय जों,</w>
नाय ग्राफोरनि</w>
नाय गिरि
नाय गंनानै</w>
नाय खौलाय</w>
नाय खौलʼ</w>
नाय खायसो</w>
नाय ,
नाजा नायावनो</w>
नाजा गोन</w>
नाछा नि</w>
नाङा ।"</w>
नागिर ब्लाबो</w>
नागिर नायनि</w>
नागिर नायखौ</w>
नागिर दों।"</w>
नागा फोरखौ</w>
नांजाब फानाय</w>
नांगौ सो</w>
नांगौ बा</w>
नांगोन -</w>
नांगो ल</w>
नां हाब</w>
नां सिगोन</w>
नां लाय</w>
नां लाय-
नां दों,</w>
नां खो</w>
ना सिम</w>
ना म्बार</w>
ना थ्रोदनानै</w>
ना था</w>
ना ङो,</w>
नवा वबो</w>
नल बारी</w>
नर् थ</w>
नरका सुरनि</w>
नबे म्बराव</w>
नन्द ʼवा</w>
नङा ।'</w>
नङा मोन,</w>
नङा थाय</w>
नङा ;</w>
नखर ,</w>
नंखाय खौ</w>
नं लिया,</w>
नं नायनि</w>
नʼवा व।</w>
नʼ ,</w>
न सिङाव</w>
न ट
न ङि</w>
न ङ
न ग
न खौनो</w>
न क</w>
धा लि
धर णी</w>
धम क</w>
द्रे सिं</w>
द्र यिं</w>
द् लानानै</w>
दौदि निया</w>
दौ नांगौ।
दोहोर ोम
दोमै लु</w>
दोन ब्ला</w>
दोन फैनाय</w>
दोन जानाय</w>
दोन खुमानो</w>
दोन खार
दों सो।</w>
दो हौ
दो मो</w>
दो नानै</w>
दैमा-दै सा,</w>
दैदे न्नाय</w>
देम ग्
देग्लाय बो</w>
देंखो नि</w>
दे लाय
दे रायाव</w>
दे देन
दुर् ल्
दुम फ्ला</w>
दुखु यै</w>
दुखु गोनां</w>
दुइन म्ब
दुंबुरु द</w>
दुं खां
दु सि</w>
दु वा</w>
दु र</w>
दु मा</w>
दु त</w>
दिल्ली निफ्राय</w>
दिया नो</w>
दिप क</w>
दिन्थिफुं नाय</w>
दिन्थि गा
दिनै बा</w>
दिनै जों</w>
दि ब्रु
दि दोम</w>
दि ग्री</w>
दि खांना</w>
दि खां</w>
दि ंग्रि
दि -
दाहोना फ्रा</w>
दाहो ना,</w>
दावहा रु
दावगा नाया</w>
दावगा नायनि</w>
दाव स्रि</w>
दारि मिन
दार नो</w>
दायनि गिर
दाय -
दामो ल,</w>
दाम ि</w>
दाम दों</w>
दाबि नाय</w>
दाब नि</w>
दानाय- लु
दानसʼ नाय</w>
दान स्लाय
दान सोरांनि</w>
दान सोरांखौ</w>
दान दिसे</w>
दान थार</w>
दाद ्रि
दाङा बाजिनि</w>
दाउ सा</w>
दाउ बʼ</w>
दाउ नि</w>
दां नायनि</w>
दा हु
दा हा,</w>
दा सि।</w>
दा सा</w>
दा स</w>
दा स
दा लाय।</w>
दा मोन</w>
दा मा</w>
दा ब्राय
दा बु
दा नो।</w>
दा नाया</w>
दा नायखौ</w>
दा थां
दा ङो</w>
दा खोन</w>
दा खालाम।</w>
दा खालाम</w>
दर ं</w>
दमासु खौ</w>
ददेरे ।</w>
दंबाव यो</w>
दंथार ो</w>
दंखाय ोमोन।</w>
दं लै</w>
दं फा
द थि</w>
थोर् फो
थो यो।</w>
थो नाया</w>
थैय ो।</w>
थै नोसै।"</w>
थै नायाव</w>
थै नाया</w>
थै दों</w>
थै जानाय</w>
थै खो</w>
थेले फाया</w>
थेख्रे या</w>
थेख्रे नि</w>
थे लाखौ</w>
थे ब्रे</w>
थे बनानै</w>
थुर सि</w>
थुनलाया रि</w>
थुनफावथाइ ।</w>
थुनफावथाइ गिरिया</w>
थु योब्ला</w>
थियेटा राव</w>
थिनहर बाय।</w>
थिनहर दों।</w>
थिन हरबाय</w>
थिन नानै</w>
थिंगि निया</w>
थिंख् लि</w>
थिंख् लि
थिं नो</w>
थि रां</w>
थि फाय
थि न्नाय</w>
थि न्
थि निफ्राय</w>
थि खां
थाहै नाया</w>
थाव दि,</w>
थाव जों</w>
थालि द</w>
थारु नखौ</w>
थार लै</w>
थार नांगोन</w>
थाय ो-</w>
थाय नैयाव</w>
थाय नैया</w>
थाय नैनिफ्राय</w>
थाय नै
थाब -
थाङो ]</w>
थाङा मोन</w>
थाङा खै।</w>
थाङा ,</w>
थाखोमा नाय</w>
थाखो -</w>
थाइला लि।</w>
थाइ लिर</w>
थाइ नैया</w>
थाइ नै</w>
थाइ जाजों</w>
थांखि मोन।</w>
थांखि नि</w>
थां बावनो</w>
थां बाय,</w>
थां बा</w>
थां नायावनो</w>
थां दों,</w>
थां दो,</w>
थां खु
थां खां
था हैयो।</w>
था हैया
था से</w>
था लिया।</w>
था ला
था ब्लानो</w>
था फैयो।</w>
था नोसै</w>
था दो।</w>
था दʼ</w>
था थे
था खै</w>
थर थिं</w>
थबे ना</w>
थब स्रʼ</w>
थब सिया</w>
थफ् ला-
थफ ी</w>
थगाय सुला,</w>
थंब्ले द</w>
थʼ लै</w>
थ ।</w>
थ ्रे
थ ैयाव</w>
थ प
ति ब्ब
ता स</w>
ता ला</w>
तरु न</w>
त जों</w>
ढ ,</w>
डेनमार् कनि</w>
डे ल</w>
डे टा
डिभा इस
डि जाइन</w>
डि जाइ
डाक् टार
ड ़</w>
ड लार</w>
ड र</w>
ठ ै
ठ ,</w>
ट्रेइ निं</w>
ट्रे न्
ट्रे न
ट्रि क</w>
टेलि फʼन</w>
टे ंक
टि सि
टि सन</w>
टि सखौ</w>
टि ं
टाइ ट्‌ल</w>
टा री</w>
ट ं</w>
ञ ्
झा लु</w>
ज्लाय ो,</w>
ज्र य</w>
ज्ञ ा
ज् य</w>
जौगा नायनि</w>
जौ सो</w>
जौ सिन</w>
जौ थाय</w>
जौ खोन्दो</w>
जोहोलाव फोर</w>
जोहोलाव '</w>
जोमै नि</w>
जोबो ,</w>
जोबा सै।</w>
जोबस्रां नायनि</w>
जोब नायसै।</w>
जोब जासिम</w>
जोनो मा</w>
जोख् लोबनानै</w>
जोख् लोब</w>
जोंब्ला वनि</w>
जों हाबो</w>
जों सो।</w>
जों फ्रु
जों फोर</w>
जों नो।</w>
जों नानै]</w>
जों थियाबो</w>
जों खि</w>
जों )</w>
जो माव</w>
जेसे बांखि</w>
जें ना-
जे ब्लानो</w>
जे न्नो</w>
जे थो
जे क्ट
जुजि नो</w>
जुक् ति</w>
जु लिये
जु नि</w>
जु नार
जु थाय</w>
जु जियै</w>
जु ग
जिराय दों।</w>
जिर न</w>
जिबौ नि</w>
जिबारेलि न</w>
जिख्लाब से</w>
जिउ ।</w>
जिउ खौनो</w>
जि ल</w>
जि बादि</w>
जि नानै</w>
जि न</w>
जि दु</w>
जि थाम</w>
जि गाबनि</w>
जाहो नांगौ।</w>
जाहै नानै</w>
जाहा द</w>
जासि गौमोन।</w>
जालि जौनि</w>
जालाय दों।</w>
जार् लाखौ</w>
जार लायाव</w>
जायो मोनब्ला</w>
जायो बा</w>
जायो दि</w>
जायाखै ब्लाबो</w>
जाया सै</w>
जाया बालानो</w>
जाया -
जाय ोना</w>
जाय ख्लं</w>
जाय खार
जाम् बि।</w>
जाम िया</w>
जाब्र थायाव</w>
जाबाव नांगौ</w>
जाफुङा खिसै।</w>
जाफु ङा।</w>
जाफु ंगोन।</w>
जापा न</w>
जानाय ा।</w>
जान गार</w>
जाथार बाय।</w>
जाथार नाय</w>
जाथार दों।</w>
जाथार दों</w>
जाथाय फोरखौ</w>
जाखां बाय</w>
जाखां -
जाखा बाय।</w>
जांख्रि थाइया</w>
जा सुला
जा लिया।</w>
जा लिया</w>
जा मा</w>
जा ब्लासो</w>
जा बो</w>
जा बानो</w>
जा फिनो।</w>
जा नांनाय</w>
जा जेन
जा जानो</w>
जा ग्राया</w>
जा खानाय</w>
जरा से</w>
जम् मुनि</w>
जथुम् मा</w>
जथु मनि</w>
जʼ गार</w>
ज िया।</w>
ज य</w>
ज मि
ज ब्रानि</w>
ज ना</w>
ज ननि</w>
ज थुम
ज गार</w>
ज खायसे</w>
छि :</w>
चे ने
चि नि</w>
चि न</w>
चाइ डि
च र</w>
च न
ङो ।)</w>
ङो ।"</w>
ङ ाया</w>
घ ,</w>
ग्ल ब</w>
ग्रो यो</w>
ग्रि म</w>
ग्राफि क</w>
ग्रा मोन</w>
ग्र ो।</w>
गौ मा</w>
गोसो म,</w>
गोर् ब्
गोर् बो</w>
गोरोब नाय।</w>
गोरोन् थिया
गोरा न
गोरा जों</w>
गोरा जो
गोर लैयैनो</w>
गोर जिया</w>
गोमो बाय।</w>
गोमा बाय।</w>
गोमा जानाय</w>
गोबाख्र ʼ
गोबां नो</w>
गोबा से</w>
गोबा ब</w>
गोबा ंनि</w>
गोफोन ,</w>
गोनां बो</w>
गोनां थिया</w>
गोन ।'</w>
गोन खौ</w>
गोदो नानि</w>
गोदा नजों</w>
गोदा न-
गोद नायाव</w>
गोज्व ौ</w>
गोजौ थिं</w>
गोजोन थाव</w>
गोग्लै दोंमोन।</w>
गोगो ,</w>
गो लाउ
गो दौ
गो दोनिफ्राय</w>
गो था
गो खै,</w>
गैया मोनब्लाबो</w>
गैया मोन,</w>
गैजा रोङ
गै लिया,</w>
गै थʼ
गेव नानै</w>
गेले मु
गेले नाय।</w>
गेले नानै</w>
गेले गिरिफोरा</w>
गेदेर- उन्दै,</w>
गेजेर जोंसो</w>
गेजे र-
गे सेर
गे म
गे ब्ला</w>
गुस् थियाव</w>
गुस् टि</w>
गुर ब्ला</w>
गुबु न।</w>
गुफु र
गुन्दा जों</w>
गुन्द ्रा</w>
गुदु नि</w>
गु रै,</w>
गु री</w>
गु न।</w>
गिरि फोरनो</w>
गिरि -</w>
गिया ना</w>
गिबि यै</w>
गिदिं बाय
गिथाव -बा
गि नायाव</w>
गि नायखौ</w>
गाहाइ याव</w>
गासि म</w>
गासि खौबो</w>
गाव लʼ</w>
गाव निफ्राय</w>
गाव थार</w>
गाव थʼ</w>
गाव जेङा</w>
गारि -
गारा ङाव</w>
गारा ङा</w>
गार ी</w>
गार सोनानै</w>
गार बाय</w>
गायसन नो</w>
गायदे या</w>
गाय ो</w>
गाय दाङा</w>
गाय दा
गामिनि नो</w>
गामि ।</w>
गामि ,</w>
गाम ियावनो</w>
गाबोन नि</w>
गाबो ,</w>
गाबखʼ वा</w>
गाब ख्रा
गान होनानै</w>
गान दों</w>
गान ,</w>
गाड़ी जों</w>
गाड़ ी</w>
गाजा-गोम जायै</w>
गाजा-गोम जा</w>
गाग् लोब</w>
गाइखे र
गां सेखौ</w>
गां से
गां नैखौ</w>
गा स्नि</w>
गा लांनानै</w>
गा रोब्ला</w>
गा माखा
गा म</w>
गा निस्ता
गा नानै</w>
गा दि</w>
गा थोन
गा ज्
गा ङा</w>
गस्वा मीया</w>
गस् ला-
गसाइ नि</w>
गसं थे
गलʼ वाबो</w>
गलʼ जों</w>
गर मा-गर
गर दसे</w>
गन्थ ङा</w>
गनतन्त्र बादि</w>
गथʼ- ग
गं स्रि</w>
गं स्रि
गं सेनि</w>
गं नैसो</w>
गं थाम</w>
गं गार
गʼसाइ या</w>
गʼसाइ नि</w>
गʼगा प</w>
गʼ लायाव</w>
गʼ -
ग स्ला
ग लाय
ग नायनो</w>
ग जʼ
ग गै</w>
ख्रु बनानै</w>
ख्रा इ
ख् लां</w>
खौरां ,</w>
खौ -
खोरोमदाउ -</w>
खोमदोन नि</w>
खोम सिखौ</w>
खोब थेनानै</w>
खोना मारनो</w>
खोना बाय,</w>
खोना बा</w>
खो मोन</w>
खो नायोब्ला</w>
खैना लै</w>
खै -</w>
खेब सेबो</w>
खेब सʼ</w>
खें नो</w>
खे रेब
खे रे
खे राया
खे र</w>
खृष्टीया न</w>
खृष्टा न</w>
खुलुम ो।</w>
खुर ैयाव</w>
खुर मा
खुमा नाय</w>
खुद्रि नाय</w>
खुदिया फोरजों</w>
खुदिया नि</w>
खुगा जोंनो</w>
खुगा खौ</w>
खुगा ,</w>
खुं नायाव</w>
खु ग्लुबनानै</w>
खिर खिखौ</w>
खिन्था बाय।</w>
खिथे रखौ</w>
खि से</w>
खि रि
खि न
खाव लाया</w>
खाव लायनाय</w>
खाव लाइ,</w>
खाव नै</w>
खाव निया</w>
खाव नायनि</w>
खालामा मोन</w>
खालाम बा</w>
खालाम नानैसो</w>
खालाम नानै,</w>
खालाम नांगोन</w>
खालाम गोन,</w>
खाला रनिफ्राय</w>
खार ो
खार नाया</w>
खार नानै</w>
खाम सालिनि</w>
खाब थानानै</w>
खान्दि से</w>
खान्थि फोरखौ</w>
खानाइ ,</w>
खान सि
खां- आरिखां</w>
खा लै</w>
खा लम
खा राखै।</w>
खा जों</w>
खा जानाय</w>
खा ङो-</w>
खा ंग्रा</w>
खरथे ंनि</w>
खन् थाय
खनसे यैनो</w>
खनसाय खौ</w>
खन सेलʼ</w>
खं ख्
खʼ थानि</w>
खʼ था</w>
खʼ था
ख हा।</w>
ख नो)</w>
ख नि</w>
क्ष ा</w>
क्ला साव</w>
क्लʼ डिया
क्रि मि
क्र ु
क्ट र
क् लस</w>
क् त</w>
केरा नि
केम् पा
के हेर
के रिया
के न</w>
के ट
के च</w>
कि ट</w>
कि क</w>
कास्तमार फोरखौ</w>
कार् ड</w>
काप से</w>
काप नि</w>
कान् ते
काउ न्
का साराव</w>
का रजि।</w>
का न
का ता
कल्प नाया-</w>
कल्प नाजों</w>
कर् परे
ककराझा रनिफ्राय</w>
क ला
क मा</w>
क ट</w>
ओनसो लारि</w>
ओनसो ल</w>
ओनसो ल
ओंखार लाय</w>
ओंखार लाङो।]</w>
ओंखा मनि</w>
ओं थिया
ओं थि
ओ लै
ओ जोंबो</w>
एसे नोसै</w>
एसि बां</w>
एसʼ चिये
एर सोनानै</w>
एम्बु खौ</w>
एप्लिके सन
एदाव ब्ला</w>
एटा सि</w>
एइस .</w>
एंगो नाया</w>
ए रिया</w>
ए रʼ
ए ना
ए डि
ए खर</w>
ए उ
ऋ ,</w>
उल् टा</w>
उर् ब
उरि टि</w>
उमे श</w>
उपे न्द्र</w>
उन्दुलां फु
उदां स्रिनि</w>
उद खार
उथ्रि नानै</w>
उथु जुग</w>
उट र</w>
उइ लखौ</w>
उ सुखुथु</w>
उ स
उ फेरा</w>
उ पेन</w>
उ जियो।</w>
ई सान</w>
इस्ला रिया</w>
इसि बां</w>
इस ला
इले क्ट
इन् जुर</w>
इनिं थौ</w>
इउनि भार
इं ख्रिखौ</w>
इ सिंनि</w>
इ सिं
इ ला</w>
इ म
इ ब
इ नायै</w>
इ डु
आवराय जेननाय</w>
आव बा</w>
आव -
आव '</w>
आले ,</w>
आलुमि ंगिया</w>
आलुमि ंगि
आलाइ-सि लाइ</w>
आल फानि</w>
आरो मा</w>
आरो बा</w>
आय ु
आय ं।</w>
आमो खिया</w>
आमेरि का</w>
आमेरि का
आफाद फोरनि</w>
आफाद गिरिया</w>
आफ गानिस्ता
आन्द ायाबो</w>
आदुं गारि</w>
आदा -
आद ैया</w>
आथोन खौ</w>
आथि ं-
आथि ं,</w>
आजि रा</w>
आजाय नाय</w>
आग्रा ं
आगो लावनो</w>
आगो ल</w>
आगान नैसो</w>
आग दा
आखु -
आख लै</w>
आइकʼ ना</w>
आइ जें
आंखा लखौ</w>
आं हा,</w>
आं बो।</w>
आं निथिं</w>
आ सियाव</w>
आ शि
आ लियाव</w>
आ राम</w>
आ रांगानि</w>
आ याबो</w>
आ मि</w>
आ बो
आ बारि</w>
आ बादारि</w>
आ बा,</w>
आ फोर</w>
आ पे
आ पु
आ पार</w>
आ न्था
आ द्‌दा</w>
आ दुम
आ थें</w>
आ गा
आ खै।</w>
असि द</w>
असमिया फोरनि</w>
अवा ल</w>
अलका जों</w>
अलका ,</w>
अरु ना
अरु णा
अर न</w>
अर जों</w>
अम र</w>
अब्रा मा</w>
अबथि रानो</w>
अन्द राव</w>
अन्जि मा</w>
अन्जा लि</w>
अनि मानि</w>
अना र।</w>
अना रिखौ</w>
अनजि मा
अनजा लु</w>
अन नाय,</w>
अजिता -</w>
अजित जों</w>
अखा फोर
अक् सिन</w>
अ से
अ बे</w>
अ ब</w>
अ नो</w>
अ नो,</w>
अ ना</w>
अ जानि</w>
अ खनबा</w>
अ ख
अ ंक
अ ʼनि</w>
अ .
} ,</w>
ver b
ven ge</w>
v ow
ura l</w>
ul y,</w>
u c
u al</w>
ti ve
th is</w>
te r</w>
t y
sp i
sense )</w>
s w
pe op
p l
om e</w>
o y</w>
o w</w>
o m</w>
n o</w>
me an</w>
ma n</w>
m is
m in
m es
m ent
lo gu
le ct
k e</w>
in t</w>
i t</w>
i r</w>
i m
ha ve</w>
ha t</w>
g re
fic ation</w>
fac e</w>
f rom</w>
er v
er )</w>
ed y</w>
d o</w>
b i
an d
al )</w>
ab il
a m</w>
Y ou</w>
Th e
T o</w>
Sc en
Pa int</w>
P ractical</w>
P la
P C
M e
L a
J uly,</w>
H abil
Capta in</w>
C on
C li
C h
Acc essories</w>
A T
A :\></w>
9 0
9 )</w>
8 0
50 ,000</w>
5 4</w>
3 4</w>
3 2</w>
20 /
2 8
198 7</w>
198 6</w>
10 .
1 st</w>
.एल .
......... !</w>
........ ........</w>
........ ...
....... ।"</w>
..... "</w>
.... ?</w>
.. हि
. पि.</w>
. पि
-रे -रे
-बा दां</w>
-दा का
-आ ,</w>
-- -"
- ।</w>
- फे
- नै</w>
- नङा</w>
- खार
- इ</w>
- अर
,00 0
+ जो
(P ron
( हाबनानै)</w>
( सिङाव)</w>
( बे</w>
( थाङो)</w>
( ?)</w>
( 8)</w>
( 199
'बबि '</w>
' बावदा
' बा
' फुंखा
' आव'</w>
' -</w>
"अ उ</w>
" हे
" हा</w>
" या</w>
" मोनसे</w>
" माने</w>
" बोरै</w>
" नोंखौ</w>
" नंगौ
" जा
" गोदान</w>
" आदाया</w>
" अ</w>
" The</w>
! ''</w>
।" --
। ...</w>
। ....</w>
। ......</w>
। .......</w>
्र निक</w>
ौ ,</w>
ोर खौ</w>
ैया थʼ</w>
ैय ैनो</w>
ै लʼ</w>
ै जों</w>
ु ं</w>
ी याबो</w>
िया ।"</w>
िया रनि</w>
िया नि</w>
िय ै।</w>
िय ैब्ला</w>
ि फ्रायनो</w>
ाय नो</w>
हौवा फ्रा</w>
हौवा फोरा</w>
हौवा जों</w>
होयो -</w>
होया खै।</w>
होम बाना</w>
होब थानाय</w>
होन्नानै ।"</w>
होन् नाया</w>
होन् नानै,</w>
होनथे यो)</w>
होन ै।</w>
होन ब्लासो</w>
होन बानो</w>
होन बाथाय</w>
होख्रां हरनो</w>
होखार नायनि</w>
होआ सै।</w>
हो लाय
हो लांबाय</w>
हो ब्ला,</w>
हो बाव
हो फैनानै</w>
हो फा
हो नायमोन।</w>
हो नानैबो</w>
हो दो।"</w>
हो दों।"</w>
हो दोंमोन,</w>
हो थे
हो ग्रा।</w>
हो खानाय</w>
हो खांनानै</w>
हो -
हैया खै</w>
हैय ोब्ला</w>
हैय ो-</w>
है फिनो।</w>
है फिनबाय।</w>
है नाया</w>
है दोंमोन।</w>
हेफाजाब जों</w>
हेफाजाब खौ</w>
हें थायाव</w>
हे रा
हे म
हे न
हे ं</w>
हे :।</w>
हुगार ो।</w>
हुखुमोर नो</w>
हुखु म</w>
हु हुर
हु र</w>
हु दाखौ</w>
हु गारो
हिसा बैसो</w>
हिन्द ी</w>
हिन्जाव साया</w>
हिन्जाव सानि</w>
हिन्जाव साखौ</w>
हिन्जाव -
हिनजाव सा</w>
हिनजाव फोरनि</w>
हि .....
हासु ं</w>
हासि ल</w>
हाव रिया।</w>
हालो -दै
हालु वा
हाला म
हार् टनि</w>
हारि साफोरनि</w>
हारि मा</w>
हार ।</w>
हार े</w>
हार सिङै
हार सिंनि</w>
हार सा
हाये न</w>
हाया मोन।</w>
हाया खिसै
हाया -</w>
हाय ैखाय</w>
हाय ियाव</w>
हामबु रखौ</w>
हामबाय सै</w>
हामफे या</w>
हामथार बायलै</w>
हाम फे</w>
हाम गौमोन।</w>
हाम गौमोन।"</w>
हाब् रांखौ</w>
हाब् बाय।</w>
हाबिला स</w>
हाबि ला।</w>
हाबा जों</w>
हाबा ,</w>
हाबहै ब्ला</w>
हाबफैय ो।)</w>
हाबफैय ो]</w>
हाब लाय</w>
हाब लाङो।)</w>
हाब लांनाय</w>
हानजा खौ</w>
हान जाया</w>
हादोर खौ</w>
हादो रारि</w>
हाथा सी
हाजो खौ</w>
हाजʼवारी खौ</w>
हाजʼवा रीनि</w>
हाजʼवा रिनि</w>
हाग्रा-ब ंग्रा,</w>
हाग्रा निफ्राय</w>
हागौ ब्ला</w>
हाखु-दा खु
हाख रनि</w>
हाउ लाद</w>
हाइ जेंनि</w>
हांखोन िफ्राय</w>
हां बाय।</w>
हा सिगोन।</w>
हा वा</w>
हा लायै</w>
हा मा।</w>
हा ब्रु</w>
हा बै</w>
हा बावगोन</w>
हा फौ
हा नायमोन।</w>
हा नायबो</w>
हा दों,</w>
हा दुं
हा दाब</w>
हा दान</w>
हा थाव</w>
हा थʼ</w>
हा जवा
हा गा
हा -</w>
हस्रि खाव</w>
हस्पिटा लाव</w>
हसि ख्राव</w>
हरबिला सा।</w>
हर ो।)</w>
हर ो-</w>
हर ो)</w>
हर ु
हर सेनि</w>
हर सेखौ</w>
हर ब्लाबो</w>
हर बादि</w>
हर फिन</w>
हर दो।</w>
हर दोंमोन,</w>
हर दों,</w>
हय तʼ</w>
हमख्र ʼ
हम ै</w>
हम दोंमोन</w>
हम था।</w>
हम ज्लायनानै</w>
हम जानाय</w>
हब गानि</w>
हब गा</w>
हगार हर
हं ख्
हʼष्टे लाव</w>
हʼ लनि</w>
ह ब्राय
ह बे</w>
स्लाबा जासे</w>
स्लाबा खिसै</w>
स्ला बै</w>
स्लगान जों</w>
स्ल गान</w>
स्रो द
स्रो त
स्रां- स्रां</w>
स्रां ,</w>
स्र ु
स्र ियो।</w>
स्टे सनाव</w>
स्क्रि नाव</w>
स्कु ल
स् मि
स् पर्
स् पʼ
स् ने
स् त</w>
स् ट्रे
सौ सि</w>
सौ फैब्ला</w>
सौ नो</w>
सौ नाय</w>
सौ नानै</w>
सौ धु
सौ दाव
सोलो जोंनो</w>
सोलो खौ</w>
सोलो ं</w>
सोले रा</w>
सोले र
सोलाय ो</w>
सोल ियो</w>
सोरजि नाय।</w>
सोरजि नाय,</w>
सोरजि दों।</w>
सोरजि गिरिनि</w>
सोरजि गिरि</w>
सोरजि गिरि
सोरखार नो</w>
सोर हा</w>
सोर बानि</w>
सोर नोबा</w>
सोर खौथो</w>
सोमोन्दो नि</w>
सोमो नांथाव</w>
सोमाव नानै</w>
सोमजि नो</w>
सोमजि नायाव</w>
सोमजि नानै</w>
सोमजि खां
सोम बाय।</w>
सोम द्रि
सोद्रोमा फोराबो</w>
सोदोब मा
सोंलु वा</w>
सोंखारि नाय</w>
सों है
सों हरो।</w>
सों नायसै-</w>
सों दों।</w>
सो लै।</w>
सो लिया।</w>
सो बो।</w>
सो बाय</w>
सो बनानै</w>
सो ङो,</w>
सो गारो
सो खानो</w>
सो आ</w>
सैया -
सैया- सैया</w>
सैया ,</w>
सै ।
सै नानै</w>
सै थो।</w>
सेर थे
सेर खाय-
सेक्सप ियारनि</w>
सेके न्दा
सेंग्रा- सिख्लानि</w>
से टखौ</w>
से ंग्र
सुर हाब</w>
सुबुंसाइ नि</w>
सुबुं फोरजों</w>
सुबुं खौनो</w>
सुफुं थि</w>
सुन्द र</w>
सुन्द र
सुथु रजों</w>
सुजु ग</w>
सुख -
सुइ सखौ</w>
सु लुं</w>
सु रै</w>
सु री</w>
सु ति</w>
सु जों</w>
सु गाव</w>
सु ,</w>
सिस्टे म
सिलिं खार
सिरि था</w>
सिया वनो</w>
सिया लखौ</w>
सिया ल
सिम बो।</w>
सिम ब
सिम नानि</w>
सिबि नायाव</w>
सिबि नायनि</w>
सिबि नाय,</w>
सिन्दु रनि</w>
सिन् दों।</w>
सिनाय बाय</w>
सिनाय नाय</w>
सिनाय थिनो</w>
सिन नो</w>
सिन नाय</w>
सिन थायनो</w>
सिद दा</w>
सिथ ला</w>
सिङा वबो</w>
सिगारे टखौ</w>
सिगां ।</w>
सिगां नाय</w>
सिगां थिं</w>
सिखि रि</w>
सिखाव फोरनि</w>
सिखा उ
सिकि त
सिकि उ
सिकिउ री
सिकिउरी टि</w>
सिंह खौ</w>
सिंखाव रिनि</w>
सिं निफ्रायनो</w>
सि- ल
सि लाखौ</w>
सि लाइनि</w>
सि रां,</w>
सि मायाव</w>
सि मनि</w>
सि फोरखौ</w>
सि फुं</w>
सि फाय</w>
सि थोर-
सि थावना</w>
सि जेन</w>
सि ग्लाब</w>
सि ग्रि</w>
सि गि</w>
सि क</w>
साह स</w>
सासे याबो</w>
सासे यानो</w>
सासे ,</w>
सावसु ब</w>
सावरायज्लाय नायनि</w>
सावराय गिरि</w>
सावथा ल-
सावगारि -
सावख् लि
साव गारिनि</w>
सार् टिफि
सार स्रि
साया वनि</w>
साया व,</w>
सायखʼ नानै</w>
सायखʼ जानाय</w>
साय ख्
साम लाउथि</w>
साब नाय</w>
साब द्राय
सान्दु ं।</w>
सान्द ्रि</w>
सान्द ाया</w>
सान्थ्रि फोरनि</w>
सान्थ्रि खौ</w>
सान्थ्र िया</w>
सान् नैसो</w>
सान् नाय-ह
सान् दो
सान् दि।</w>
सान् जा</w>
सानो मोन-</w>
सानै-सा थामसो</w>
सानै लʼ</w>
सानै -ह
सानै-ह यै</w>
साना खै,</w>
सानस्रि नो</w>
सानसे याव</w>
सानबोलाव रिनि</w>
सानबोलाउ रिनि</w>
सानफेरा खैमोन</w>
सान हाब</w>
सान स्रि,</w>
सान सिम</w>
सान ब्ला</w>
सान बाय,</w>
सान फोराव</w>
सान फुनाय</w>
सान नैसो
सान नानैनो</w>
सान द्राय
सान थामसो</w>
सान जाथाव</w>
सादोर ,</w>
साथाम बो</w>
साग्लोब नो</w>
साग् लोब</w>
सागु लु
साख्रियाव ला</w>
साख थि
साइखे लखौ</w>
साइ बेर
साइ कʼ
सांग्रे मा
सा हाब</w>
सा हानि</w>
सा लाइ
सा रै</w>
सा मु
सा बेसे
सा फ्रोम
सा फ्रा</w>
सा न्जा
सा धा
सा दों</w>
सा जा
सा ङ
सा ग्रिद</w>
सा ख्
सा खाथि</w>
सहै नायसै।</w>
सहे नखौ</w>
सहʼ खौ</w>
सलʼमा फोरनि</w>
सलʼबा था
सलʼ बाथा</w>
सर् सा</w>
सर् मानि</w>
सरब त</w>
सर थे</w>
सर ʼ
सय -
सम्बा रुनि</w>
समाय ो</w>
समाय स्रीनि</w>
समाज जों</w>
समाज खान्थि,</w>
सम से
सम ब्रि</w>
सफ्ट्‌ वेर</w>
सन् या
सन् माना</w>
सन् देर
सन निफ्राय</w>
सन दे
सद बां
सती स</w>
सं नो-
सʼ यै</w>
सʼ ना-
स ।"</w>
स ैया।</w>
स हर
स सियेल</w>
स लाइ</w>
स रा</w>
स बाय</w>
स फैबाय।</w>
स त्य
स खौनो</w>
स ंगि
स "</w>
ष्टे ट
ष्टा र्
ष्ट ्रि
शे खर</w>
शुक्र बारखालि</w>
शान्त ियाबो</w>
शर् मि
शनि त
वे ल
वार् क</w>
वा व
वा बो।</w>
व ्
व सो।</w>
व राज</w>
ल्दा मैनो</w>
ल् दानानै</w>
लौ -
लोर ्
लोगो फोरनि</w>
लों होनो</w>
लों नाय-
लों गोन</w>
लों ,</w>
लो हो</w>
लो लो</w>
लो ब्ला</w>
लो ङो।</w>
लो ,</w>
लैथो आव</w>
लेहे म</w>
लेबे ना</w>
लेङा य</w>
लेक सार</w>
ले निया
लुबैय ै</w>
लुबै दोंमोन।</w>
लुफुं नायनि</w>
लु र</w>
लु ङि</w>
ली ।</w>
लिर बाय।</w>
लिया मेन्ट
लिया न</w>
लिं हरामोन</w>
लिं नाय</w>
लिं ना</w>
लि भ</w>
लि प
लि द</w>
लि गाँ
लाहै गोन</w>
लाहा खि</w>
लासै -
लाव रि</w>
लाव थिखौ</w>
लाया लाबासिनो</w>
लाया खिसै।</w>
लाया ,</w>
लाय- लथर</w>
लाय ।।</w>
लाय ो-</w>
लाय ब्ला</w>
लाय जा
लाय गोन।</w>
लाय ?</w>
लामाया व
लाम नाय</w>
लाबो आ</w>
लाबाय ो।</w>
लाफांगे ,</w>
लान्थ्र ियै</w>
लानजा इ</w>
लान जाय</w>
लाथि खʼ
लाजि नायजों</w>
लाजि नां
लाजि गुसु</w>
लागाय नानै,</w>
लाखि ना</w>
लाखा दों।</w>
लाख नि</w>
लाख ,</w>
लाउ दा
लाइमोन फोरखौ</w>
लाइनमे नखौ</w>
लाइजाम जों</w>
लाइजा मा।</w>
लाइ फा
लाइ टाव</w>
लाइ टनि</w>
लाइ टजों</w>
लाइ ट
लांगोन ।"</w>
लांखार जानाय</w>
लां बाय।"</w>
लां फानो</w>
लां नोसै</w>
लां नाय।</w>
लां नायसै</w>
लां नांगौ</w>
लां गार</w>
लां गार
लां गाब</w>
लां खा
लां -
लां ,</w>
ला हो
ला सै।</w>
ला सा</w>
ला री,</w>
ला बोर
ला बा
ला न्स</w>
ला नोसै</w>
ला नांदों।</w>
ला था</w>
ला गाम</w>
ला गा</w>
ला खो</w>
ला उ</w>
लण्ड नाव</w>
लग् न
लख्रा ,</w>
लʼ ।"</w>
लʼ नि</w>
ल ह
ल र</w>
ल न्थि</w>
ल नो</w>
ल ख्रा</w>
ल केल</w>
र् ‌
रौनिया नि</w>
रौ- रौ</w>
रोजाब नाय</w>
रोजाब गिरि</w>
रोङै खौ</w>
रोङा बोला</w>
रो म
रो जासे</w>
रै मोना</w>
रेष्टु रे
रेन्जा रखौ</w>
रेकर् ड</w>
रेकर् ड
रे द</w>
रे जे
रे गे</w>
रे गा</w>
रुमा लखौ</w>
रुप ा।</w>
रुगु ं
रु टि</w>
रु टि
रु जु</w>
रु गि
रिसि भारखौ</w>
रिजार् भ</w>
रिंसार थिनि</w>
रि ता</w>
राव लʼ</w>
राव नो।</w>
राया नो</w>
रायज्लाय ो</w>
रायज्लाय ा
रायजो- राजानि</w>
राय ो।</w>
राय दों</w>
राय थि
राय ज्लाया</w>
राय खौ</w>
राय ,</w>
राम ै</w>
रान्दि खौ</w>
रान नाय</w>
राण ीया</w>
राज खुंग्रि
राङा नोथʼ</w>
राइजो- राजा</w>
राइजो ।</w>
राइजो ,</w>
राइ जोन
रां- खाव
रां- खाउरि</w>
रां खान्थि,</w>
रा सिनसो</w>
रा वारि</w>
रा लाय</w>
रा ल</w>
रा मि
रा मा।</w>
रा भा</w>
रा ब
रा निनि</w>
रा जेन</w>
रा खेब
रह स्
रबिबार खालि</w>
रन् जित</w>
रन जित</w>
रजि ,</w>
रजʼ नाय</w>
रंफा लीया</w>
रं ,</w>
रʼ द</w>
र स</w>
र लै</w>
र मा।</w>
र मा
र बी
र न</w>
र दʼ</w>
र त
र गʼ</w>
र आव</w>
यो ।"</w>
यो सो</w>
यो ;</w>
यै लाबोर
या ।"</w>
या दि</w>
या द
य ी
य य
य दा</w>
मोसाय ो।</w>
मोसा हारि</w>
मोसा नायनि</w>
मोसा नायखौ</w>
मोसा नानै</w>
मोब्ला व</w>
मोन् नैयाव</w>
मोन् नायाव</w>
मोन् दांनो</w>
मोन् थोर</w>
मोनो मोनब्ला</w>
मोनाम नाया</w>
मोना खै।"</w>
मोनहै ब्ला</w>
मोनसे या
मोनलाय नाया</w>
मोनथार बाय</w>
मोनज्लाय नाय</w>
मोन ।
मोन ोमोन।</w>
मोन ो-</w>
मोन हैनो</w>
मोन हा।</w>
मोन हां</w>
मोन बायदि</w>
मोन फै
मोन फिनबाय।</w>
मोन नायसै।</w>
मोन नायसै</w>
मोन नायमोन।</w>
मोन नाय
मोन दांनो</w>
मोन थिया</w>
मोन थि</w>
मोन थाय।</w>
मोन जायै</w>
मोन खौ।</w>
मोन खादों</w>
मोन खाङो</w>
मोदोम फ्रु
मोदोम नाय</w>
मोदो मै</w>
मोदो म,</w>
मोदाय जो</w>
मोदाइ नि</w>
मोजां- गाज्रि,</w>
मोजा ङानो</w>
मोख्रा नि</w>
मो सौ।</w>
मो ले</w>
मो दाउ
मैगं-थाइ गं
मै सो
मेवा ब्
मेले रिया</w>
मेरे जनि</w>
मेने ज</w>
मेथाइ जों</w>
मेडा म</w>
मेघाल यनि</w>
मे लाखौ</w>
मे ब्ला।</w>
मे न्टे
मे नाजा
मे टिक</w>
मे जि
मे क्
मुवा -
मुलु क</w>
मुलु क
मुला म्
मुर् ख</w>
मुर दा</w>
मुङै सो</w>
मुगै नाय,</w>
मुं राया</w>
मुं राइ</w>
मु स्र
मु सुरनाय</w>
मु सल
मु वा।</w>
मु व
मु ला</w>
मु रु
मु फु
मु गाया</w>
मु ख्लं</w>
मी खौ</w>
मिलौ हाब</w>
मिब थि
मिन्थि नो</w>
मिन्थि गौ</w>
मिन्थ िया
मिनिट सोनि</w>
मिनिखै रे</w>
मिनि बाला</w>
मिथिगौ ना</w>
मिथिखा गौ</w>
मिथि सʼनो</w>
मिथि स
मिथि ब्ला</w>
मिथि ङाव</w>
मिञ ा</w>
मिज्लि उ</w>
मिजिं थिनो</w>
मिजि ं।</w>
मि स्टि
मि डिया</w>
मि जʼ
माहार ी</w>
माहाजोन हा</w>
मास्टा रनि</w>
मासि निफ्राय</w>
मावग्रा -
माव ो
माव होनो</w>
माव नाय।</w>
माव नायाबो</w>
माव दोंमोन।</w>
माव जा
माव ग्राया</w>
माव ग्रा,</w>
माव गोन,</w>
माव खां
माल दारा</w>
मारु टियाव</w>
मार ौ</w>
मार दों।</w>
मार ʼ
माब्ला बा
माब्ला दि</w>
माबा सो</w>
माबा ,</w>
मान्दा र</w>
मानि नो</w>
मानसि-दुम सि,</w>
मानसि सो।</w>
मानसि या।</w>
मानसि फोरनो</w>
मानसि नाव</w>
मान ियो।</w>
माथो ,</w>
माथाउ री</w>
माख् लि</w>
माखा ,</w>
माइक्रʼ सफ्
माइ नाव।</w>
माइ नाव
मां सि</w>
मा हामै</w>
मा सै</w>
मा सेया</w>
मा लाखौ</w>
मा ला,</w>
मा लनि</w>
मा ल-
मा रो
मा रैनो</w>
मा राम</w>
मा ब्ला,</w>
मा बोरैथो</w>
मा फोरनि</w>
मा फ
मा धु
मा द्रा
मा खु
महे स्वर</w>
महिला रीया</w>
महाम ाया</w>
महात् मा</w>
महा भारत</w>
महर ै।</w>
महर ैनो</w>
मर् टा</w>
मर नि
मन्जु मोननि</w>
मन् त</w>
मन् चा</w>
मनजु ।</w>
मनजु ला
मन रन्जन</w>
मध ्
मध ु
मद दनि</w>
मʼ सन</w>
मʼ ना</w>
म- सि
म रि
म बो</w>
म नाखौ</w>
म ना
म थि</w>
म ण</w>
म गʼ</w>
भे टे
भुटा ना</w>
भुगि नो</w>
भु त-
भु ँइ</w>
भि स</w>
भा स</w>
भक ता</w>
भʼ ग</w>
भ ्रा
भ टाव</w>
ब्ले नानै</w>
ब्लि द
ब्ला व</w>
ब्ला ;</w>
ब्ल कनि</w>
ब्रेक -फा
ब्रा उ
ब्र ोम</w>
ब्र ैयाव</w>
ब् लाय
ब् बाय।</w>
बोहै बाय</w>
बोसोर निफ्रायनो</w>
बोलोगो रा</w>
बोराय ।</w>
बोराय जों</w>
बोर ो,</w>
बोथोर खौ</w>
बोग दाद</w>
बो ल</w>
बो बोनानै</w>
बो फ्
बो नायसै</w>
बो दोर
बो ग्रा</w>
बो खावनाय</w>
बो खानानै</w>
बो खां
बो -
बैसो मुथिया
बैसागि खौ</w>
बैसा ं</w>
बैरा गि</w>
बै ग्रि</w>
बेसा त</w>
बेव हाय।</w>
बेला सेयाव</w>
बेला -</w>
बेल ।</w>
बेल श्री
बेराम जों</w>
बेरफ्रु नाय</w>
बेरखां होनो</w>
बेर स्रां</w>
बेफ्रु होनाय</w>
बेफ्रु होनानै</w>
बेफोर हा</w>
बेफोर निफ्राय</w>
बेन् साव</w>
बेनो लʼ</w>
बेनि खायनोथʼ</w>
बेनि खाय
बेदि ं</w>
बेगे ं</w>
बेगपाइ पार</w>
बेग रनि</w>
बेखेवफा फोरखौ</w>
बेखेवफा खौनो</w>
बेखेवगास् निनि</w>
बेके टा</w>
बेंग ली
बें खʼ
बें क,</w>
बे हुस</w>
बे लुन,</w>
बे यो,</w>
बे बʼ
बे फोराव</w>
बे फोरजों</w>
बे फार
बे न्दो
बे निफ्रायसो</w>
बे टे
बे ट
बे क्
बे का
बे ंगु
बुर ला</w>
बुब्लि खौ</w>
बुन्दि नि</w>
बुद्र ैनि</w>
बुदुं -बादां</w>
बुथार दों</w>
बुथार ग्रा</w>
बुजिया खिसै</w>
बुजाय बाय</w>
बुङा हां</w>
बुङा ब्लाबो</w>
बुख्रु ब
बुंहर बाय-</w>
बुंबाव दों</w>
बुंफोर नाय</w>
बुंफब नाय</w>
बुंदों दि</w>
बुंगोन ,</w>
बुं सनो</w>
बुं लाङो-</w>
बुं लांबाय</w>
बुं बोनाय</w>
बुं फ्लां
बुं फादेर
बुं फा
बुं नि</w>
बुं नांगौब्ला</w>
बुं नांगोन।</w>
बुं नांगोन</w>
बुं ना
बुं दोंमोनब्लाबो</w>
बुं खौ</w>
बु स्रि</w>
बु सा</w>
बु लाय</w>
बु यो।</w>
बु टिं</w>
बु गʼ
बु ंग्रा
बी र,</w>
बिहो माया</w>
बिहो माखौ</w>
बिहा रनि</w>
बिस्कु त</w>
बिसोर खि</w>
बिसोर -
बिसि ।</w>
बिसि फोरनि</w>
बिसि नो</w>
बिसाइ नि</w>
बिष माव,</w>
बिल्डि ंनि</w>
बिल्डि ं</w>
बिलिफां ।</w>
बिलिफा ङा
बिलाइ फोरखौ</w>
बिर लाङो।</w>
बिर लांनाय</w>
बिमाय ा।</w>
बिमाय ं,</w>
बिमा- फिसा</w>
बिब्दि खौ</w>
बिब्द ियैनो</w>
बिब् दियाव</w>
बिबौ नि</w>
बिबार िया</w>
बिबाया रिया</w>
बिबा ननि</w>
बिबनां खौ</w>
बिबʼ वा</w>
बिबʼ -बिनानाव</w>
बिब थै</w>
बिफा ।</w>
बिफा ननो</w>
बिफा न,</w>
बिदि ब्लाथʼ</w>
बिदि ब्ला
बिदि न्थियाव</w>
बिदि न्
बिदि नो।</w>
बिदि नोसै</w>
बिदा- बिनानाव</w>
बिदा -बि
बिथिङा व)</w>
बिथिं जायनिफ्राय</w>
बिथाङा नो</w>
बिथां मोनखौ</w>
बिथां मोन-
बिथां मोन
बिथां नो</w>
बिथराइ ,</w>
बिथ राय</w>
बिजिर नाय,</w>
बिजि द
बिजि खौ</w>
बिजाब निफ्राय</w>
बिजा द</w>
बिजा थिया</w>
बिग्राया रिफोरनि</w>
बिगुमै नि</w>
बिगु मैया</w>
बिगिया नारि</w>
बिख्लो खौ</w>
बिखुं खौ</w>
बिखु म
बिखाया व,</w>
बिखा व</w>
बिखा -
बि.टि.ए. डि.
बि हाउ
बि साराव</w>
बि सारनि</w>
बि साना</w>
बि सखौ</w>
बि लोगोनि</w>
बि लो</w>
बि लायनो</w>
बि बाय</w>
बि फाया।</w>
बि नो
बि नेश्वर</w>
बि दैया</w>
बि दांखौ</w>
बि था।</w>
बि थाजों</w>
बि जार</w>
बि ग्रि</w>
बि खि</w>
बि ख
बि उ
बि ं</w>
बाहे रा</w>
बाहाय नानै:</w>
बाहागो फोराव</w>
बाहागो आनो</w>
बाहागि -
बावदिया बो</w>
बावदिया ,</w>
बावदिया "</w>
बाव सो</w>
बाव लांबाय।</w>
बाव नायनि</w>
बाला बारियाव</w>
बाल न्दा</w>
बाल न्दा,</w>
बाराय ा
बारगʼ नाय</w>
बार ो।</w>
बार े</w>
बार ीनि</w>
बार िया</w>
बार ब्लानो</w>
बार ब्ला</w>
बार दों।</w>
बाया नोसै।</w>
बायदिसि नाखौ</w>
बाय ।'</w>
बाय ा।</w>
बाय हाजार</w>
बाय लुं</w>
बाय नोसै</w>
बाय नायाव</w>
बाय नाय,</w>
बाय नांगौ</w>
बाय ग्लि
बाय "</w>
बामोन मारा</w>
बाबु ।"</w>
बान्दो ल</w>
बान साल</w>
बादि -</w>
बादाय लायनायाव</w>
बाद े</w>
बाद ला।</w>
बाथ्रा जोंनो</w>
बाथे नो</w>
बाथु वा</w>
बाथ िया</w>
बाथ रुम</w>
बाट नखौ</w>
बाट न-</w>
बाजि ।</w>
बाजि नो</w>
बाग्दाव नाय</w>
बाग्दाव नानै</w>
बागान ।</w>
बाखनाय थाव</w>
बाउ सोम
बाइ ह
बाइ नारि</w>
बाइ काव</w>
बांलादेशी फोरनि</w>
बां ला,</w>
बां द्राय
बां खौ</w>
बा ।"</w>
बा वा</w>
बा लें
बा रि,</w>
बा बाज
बा नाय,</w>
बा नाइ
बा दाव,</w>
बा थाय
बा खै।</w>
बा ंग्रि</w>
बह न्नानै</w>
बला त
बलात कार</w>
बरु वानि</w>
बरगया रीया।</w>
बरगया री
बरʼ वा।</w>
बरʼ फोराबो</w>
बरʼ )</w>
बर सा</w>
बर मा,</w>
बबे सिम</w>
बद मास</w>
बडʼ सा</w>
बट लखौ</w>
बक्स ीं</w>
ब- सब</w>
ब ौ</w>
ब ैयो</w>
ब ी</w>
ब से</w>
ब सʼनानै</w>
ब यो</w>
ब म</w>
ब न,</w>
ब टा
ब क</w>
फ्लां दों</w>
फ्रो मावबो</w>
फ्रे नानै</w>
फ्रु ं</w>
फ्रा ।</w>
फ्रा लाय</w>
फ्र न्ट</w>
फोसाव गिरि</w>
फोसाब नाय,</w>
फोरों गिरिफोरा</w>
फोरा ननानै</w>
फोरा दि</w>
फोरा थʼ</w>
फोरमाय ा
फोरमाय नायखौ</w>
फोरमाय थियो।</w>
फोरमाय थिदों।</w>
फोरमाय थि
फोर सो</w>
फोर मानि</w>
फोर बोनि</w>
फोर जानि</w>
फोर खौ
फोनां नो</w>
फोनां जाब</w>
फोथाय थि</w>
फो लाबाय</w>
फो रावसो</w>
फो थाया</w>
फो जोंनानै</w>
फो जों
फो जाखां
फैसाली "</w>
फैया सै</w>
फैया ब्ला</w>
फैया खिसै।</w>
फैय ो।]</w>
फैय ोमोन।</w>
फैय ोब्ला</w>
फैमा ल।</w>
फैफिन बाय</w>
फै ला</w>
फै नाया
फै नायमोन।</w>
फै गौ,</w>
फै खाङो।</w>
फेस्व न</w>
फेब्रु वारी</w>
फेफे-फु फु</w>
फें फोना</w>
फे सा</w>
फे नाय</w>
फुथि हां</w>
फुं जा
फु लिया</w>
फु र्
फु दु
फु थुर</w>
फु थियाहां</w>
फिसाय नि</w>
फिसाय खौ</w>
फिसाज् ला,</w>
फिसाजो जों</w>
फिसाइ फोरा</w>
फिसा सिन</w>
फिसा जों</w>
फिरफि लाखौ</w>
फिन् दों।</w>
फिन् दों</w>
फिना ब्ला</w>
फिन नाया</w>
फिन दों।</w>
फिन दोंमोन।</w>
फिन दों</w>
फिथ राव</w>
फि राय
फि फा
फि जि
फास् लां</w>
फावदु रा</w>
फावथाइ याव</w>
फाव खुंग्रि</w>
फाव खुंगुर</w>
फाव "</w>
फार् से।</w>
फार् नि
फारसे निफ्राय</w>
फार फा</w>
फार नैबो</w>
फान् ड
फानजा रियाव</w>
फान लुनि</w>
फान दाय
फाग्ला स्रो
फाग् ला।</w>
फा ल्ला</w>
फा म</w>
फा बाय।</w>
फा न्नाय</w>
फा निफ्राय</w>
फसं थान
फर् म</w>
फरायसालि निफ्राय</w>
फराय ाव</w>
फराय साया</w>
फराय थि
फराय गोन</w>
फटʼ नि</w>
फजʼ हैबाय</w>
फं बायाबो</w>
फं बाइ
फ ल,</w>
फ य
फ जनानै</w>
प्रु भ</w>
प्रिन् सि
प्रिन् टिं</w>
प्रि न्ट</w>
प्रमप् ट</w>
प्रभ ु</w>
प्रग्राम फोरखौ</w>
प्रग्रा मा</w>
प्रग्रा मनि</w>
प्र भा</w>
प्र ता
पे न्
पुर नि
पुरनि मा</w>
पु री,</w>
पिय न</w>
पि ष्ट
पि रामि
पार् काव</w>
पाब्लि क
पान जाब
पाटि ला</w>
पाटि लखौ</w>
पाक् का</w>
पा स
पा रा,</w>
पन् जि
पजʼ नि</w>
प ौ
प ष्ट</w>
प लेनिया
प न्च
प ण्डि
प '</w>
न्द राम</w>
न्थि ,</w>
न्ट खौ</w>
न् याव।</w>
न् याव
न् नायनि</w>
नोसै -</w>
नोर खो
नोम फा</w>
नोजोर थावदि,</w>
नोंसा ज्ला</w>
नोंथाङा ,</w>
नोंथां ।"</w>
नोंथां मोननो</w>
नोंथां मोनखौ</w>
नोंथां नो</w>
नोंथां -
नों ।"</w>
नों स्रा</w>
नों स्रा
नों बोथʼ</w>
नों नि।</w>
नों नियाव</w>
नों निया</w>
नों नाव
नों दानि</w>
नो स
नो माया</w>
नो माजों</w>
नो माखौ</w>
नो थाङा</w>
नो थां
नो खौ</w>
नो ;</w>
नो --</w>
नो '</w>
नेहा त</w>
नेर् सोन।</w>
नेर सोन।</w>
नेपा लनि</w>
ने सा
ने यै</w>
ने क्स
ने ,</w>
नुवा ब्ला</w>
नुयै लाय</w>
नुजाथि दों</w>
नुजा फैनाय</w>
नुजा नायनि</w>
नुजा थियो।</w>
नु स्लाबा</w>
नु यो,</w>
नु फेरै</w>
नु फिनबाय</w>
नु नायनि</w>
नु नानैबो</w>
नु थाया</w>
नु थायनि</w>
नु थायखौ</w>
नु जाबाय</w>
नु जादों।</w>
नु गानै</w>
निस् सय</w>
निस् थार
निर्मा लिया</w>
निया वबो</w>
निया व
निया नो</w>
निफ्राय ,</w>
निफ्राय )</w>
निजोम ,</w>
निउ यर्
नि होर
नि स</w>
नि स
नि ष्ट
नि म</w>
नि दानाव</w>
नि जो
नि खाउ
नाव निपा</w>
नाले नि</w>
नार् भास</w>
नाराय णा</w>
नाराय ण
नारा नाथा</w>
नायाव लʼ</w>
नाया खि</w>
नायहर ो
नायहर गासिनो</w>
नायबिजिर नाय</w>
नायबिजिर गिरिफोरा</w>
नायग्रा फ्रा</w>
नायगिर ै</w>
नायगिर दों।</w>
नायगिर दों</w>
नाय- देनाय,</w>
नाय ो,</w>
नाय ै-
नाय बादि।</w>
नाय नाया</w>
नाय नानैसो</w>
नाय नानै)</w>
नाय दिं
नाय दा</w>
नाय जों।</w>
नाय ग्रानि</w>
नाय ग्
नाय ख्
नाजा व।</w>
नाजा नांगौ।</w>
नाजा नांगोन।</w>
नाङा मोन।</w>
नागिर ब्लानो</w>
नागिर बाबो</w>
नागार नाय</w>
नागा ।</w>
नागा रा।</w>
नागा फोरजों</w>
नागा खौ</w>
नाइ याव</w>
नाइ ट
नांथार गौ</w>
नांजाब नाय</w>
नांगौ ब्लाबो</w>
नांगौ बो।</w>
नांगौ बो</w>
नांगौ नो।</w>
नांगौ -
नांग ्रो
नां फैदों।</w>
नां नायाव</w>
नां थʼ
ना स्राय</w>
ना रि,</w>
ना रा</w>
ना मैनो</w>
ना ना
ना न</w>
ना थाइ</w>
ना ङि</w>
नरेश खौ</w>
नम्बर ी</w>
नब थि
नन्द ʼनि</w>
नजा र</w>
नखʼ रनि</w>
नख रारि</w>
नंथार गौ
नं -
नʼख रा</w>
नʼ स
नʼ ल
नʼ प
नʼ टिसखौ</w>
नʼ आ</w>
न- सिखान</w>
न ।"</w>
न सिम</w>
न व</w>
न या
न बो</w>
न आव</w>
धोरोम जों</w>
धोरो मारि</w>
धोन सिं</w>
धु ना,</w>
धा माल</w>
ध न</w>
द्‌ लामा
द्र ाया</w>
द्र ाया
द् दा</w>
दौ व
दोहो नि</w>
दोनि ।</w>
दोनथुम नाय</w>
दोनथʼ नायनि</w>
दोन हैदों।</w>
दोन स्लाय
दोन खा
दोन ,</w>
दों सै</w>
दों ब्रा</w>
दों बो</w>
दों नो।</w>
दों थाम</w>
दों )</w>
दो लʼ</w>
दो ल</w>
दो आव</w>
दैमा सिम</w>
दैमा रीया</w>
दैमा रिनि</w>
दैदेनगिरि फोरजों</w>
दैख रा</w>
दैख रनि</w>
दै स्
दै सानि</w>
दै लो</w>
दै रोम</w>
दै मुवा</w>
दै बानाजों</w>
दै खाङो।</w>
देहाया बो</w>
देवा नीया</w>
देव बार</w>
देरहा नायनि</w>
देर फुनाय</w>
देर नायनि</w>
देब ी</w>
देब दा
देग् लाइ</w>
देगार जों</w>
देंखो आव</w>
दें खो।</w>
दे- दे</w>
दे हा-
दे हा,</w>
दे रो
दे द्‌लामा
दे त</w>
दुलु र</w>
दुर्जां नाव</w>
दुर्जां जों</w>
दुरु ङा</w>
दुगै नो</w>
दुखु बो</w>
दु रा</w>
दु न
दु खारु
दिहुन जानाय</w>
दिल् लीया</w>
दिन्थि ना</w>
दिन्थ िया</w>
दिन बाव</w>
दिन थि
दि स</w>
दि म</w>
दि नि
दि दो
दि ङा
दि ंग्राय</w>
दाहार जों</w>
दाहार खौ</w>
दाहा राव</w>
दाहा रा</w>
दावराव- दावसि</w>
दावबाया रिफोरा</w>
दाव- रिनसि</w>
दाव ।</w>
दाव हायाव।</w>
दाव राय</w>
दाव बो</w>
दाव ज्ला</w>
दाला न</w>
दार फोरा</w>
दाय से</w>
दाय ल
दाय निफ्राय</w>
दाम सिखौ</w>
दाम ब्लेनानै</w>
दाम ब्रा</w>
दाम नाय-देनाय,</w>
दाबोर से</w>
दाबि या</w>
दाबाद ियाव</w>
दाब फा</w>
दान्दि सेयावनो</w>
दान ब्ला</w>
दान फाय
दान नैनि</w>
दान नै</w>
दान नाय</w>
दान नानै</w>
दाजाबदा फोरा</w>
दाजाब दा।</w>
दाग ।</w>
दाका तनि</w>
दाउबʼ वा</w>
दाउ मा-दाउ
दाउ फोरनि</w>
दाउ थु</w>
दाउ ज्ला</w>
दांग्रोम नानै</w>
दा हो।</w>
दा हो</w>
दा सनि</w>
दा ला</w>
दा री</w>
दा रा।</w>
दा राव</w>
दा रा
दा रजों</w>
दा मोन।</w>
दा बारी
दा न्नो</w>
दा न्थे</w>
दा नो,</w>
दा नाय।</w>
दा दों।</w>
दा देर
दा ड़
दा खि
दा खन
दा खʼ</w>
दहाय सो</w>
दल रै</w>
दरबा सि
दर लाया।</w>
दन्द राव</w>
ददेरे ,</w>
दङʼ मोन।</w>
दखा नाव</w>
दखा न</w>
दखʼ रा</w>
दख नानि</w>
दख ना,</w>
दंफां ,</w>
दंग ʼ</w>
दं फाय
दं ना।</w>
दʼ हाय</w>
द हर
द लि
द रा</w>
द मासु</w>
द फोरनि</w>
द न्दाया</w>
द त्
द गʼ</w>
थौ जासे</w>
थोर फो</w>
थोन -
थों ।"</w>
थों सै।"</w>
थों जों
थो लो</w>
थो ङै</w>
थै ना</w>
थै गोन।</w>
थै खांनायनि</w>
थै -
थेले बनि</w>
थेले फानि</w>
थेफे न।</w>
थेफे ननि</w>
थेफे न,</w>
थें गो
थुम ना</w>
थुनलाइ या</w>
थुन- फावथाइनि</w>
थुंग्र ी</w>
थुं सुं</w>
थु नि</w>
थु ख्रा</w>
थु ंग
थिसन नायनि</w>
थिया रि
थिया ,</w>
थिनहर दोंमोन</w>
थिन ब्ला</w>
थिन बा</w>
थिन दों</w>
थिं सो</w>
थिं जाय
थि सन्
थि बो</w>
थि थि
थि -</w>
थाव रि
थाव नियाव</w>
थाव खौ</w>
थालो आव</w>
थारो लै</w>
थारा लै</w>
थार नानै</w>
थायो नो</w>
थाया सै।</w>
थाय ो।]</w>
थाय नै</w>
थाम थि
थाम )</w>
थाबाय नाय,</w>
थाबाय ग्रा</w>
थाब थायो।</w>
थाफ् लि</w>
थाथʼ नानै</w>
थाङा सै।</w>
थाखो से</w>
थाइ लेण्डनि</w>
थाइ जों</w>
थाइ गिर</w>
थां लाय
थां ब्लाबो</w>
थां फिनो</w>
थां फानानै</w>
थां नायाव
थां नायथिं</w>
थां नाय,</w>
थां नांगोन।</w>
थां खांनानै</w>
था है</w>
था लांबाय।</w>
था बाव</w>
था फैनो</w>
था फैदों।</w>
था न्दा</w>
था नाय।</w>
था नाया।</w>
था नायबादि</w>
था नाङो।</w>
था नांगौब्ला</w>
था नांगौ
था देरनाय</w>
था द
था थेरनो</w>
था थाव</w>
था थʼ</w>
था जोब
था गिरि</w>
था गासिनो</w>
था ख
था कु
थर नै</w>
थफ्ला- थफ्लि</w>
थफ् लाखौ</w>
थन थ्रʼ
थगाय-थ सि</w>
थगाय सुला</w>
थगाय नाय,</w>
थगाय नानै</w>
थʼ से</w>
थʼ फ्
थ लʼ</w>
थ ल
थ फानै</w>
थ खʼ</w>
थ क
थ ं,</w>
त् ‌</w>
त् व
त् या
तुला राम।</w>
ति ल</w>
ति क</w>
ति -
ता लु
ता मुल
त ।"</w>
त ु</w>
त ीनि</w>
त ी,</w>
त ियाव</w>
त र</w>
त बो</w>
त '</w>
ण्ड े
ण ी
ण -
ड्रे स</w>
डे पु
डी लनि</w>
डी ल</w>
डिस्क ाव</w>
डिसे म्बर</w>
डिसे म्बर
डि टेक्
डि ग्री</w>
डि ं</w>
डाक्ता र
डाइरेक्ट रिनि</w>
डाइ लʼ
डाइ निं</w>
डा र।</w>
डा रा</w>
डा टा</w>
ड़ ा</w>
ड 0</w>
ठा कु
ठ ि
ट्रेइन जों</w>
ट्रे ड</w>
ट्रे जि-
ट्राइ क</w>
ट् टा
टे म्प
टे बोला</w>
टे ं
टें कि
टि. भि.</w>
टि सनि</w>
टि फिन</w>
टि के
टि ,</w>
टा स्क
टा रे
टा बो</w>
टा उन
टमे टʼ</w>
ट ्रा</w>
ट ु</w>
ट ाया</w>
ट मेन्ट</w>
ट ं
झा लु
झ ,</w>
ज्र ब</w>
ज्यो ति</w>
ज् ला,</w>
जौ स्रां</w>
जौ मोना</w>
जौ मोनखौ</w>
जोम नायखौ</w>
जोबा ब्ला</w>
जोबा खिसै।</w>
जोबथे सालिनिफ्राय</w>
जोब ै</w>
जोब नानैबो</w>
जोब ना</w>
जोब जानाय</w>
जोनोमफु रिखौ</w>
जोनोमफु रि</w>
जोंरू वा।</w>
जोंरु हा</w>
जों बो।</w>
जों निसिम</w>
जों दों</w>
जों खाङो</w>
जो लानि</w>
जो ला,</w>
जै- जै</w>
जै- जै,</w>
जेरै हाय</w>
जेरै नो</w>
जेब्ला बो।</w>
जेने भायाव</w>
जेन नायनि</w>
जेन दोंमोन।</w>
जे रि
जे माखौ</w>
जे न्ट</w>
जे द</w>
जे इ</w>
जे इ
जे ,</w>
जुवा न</w>
जुरि जेननाय</w>
जुना रनि</w>
जुजि बाबो</w>
जुजि नायनि</w>
जु लिया</w>
जु लाइ
जु ल
जु निया</w>
जु नानै</w>
जु दा
जु थे</w>
जु थि
जु गनि</w>
जी ब-
जिल् लाया</w>
जिबारेलि ना</w>
जिबारेलि ननि</w>
जिब ख्रि
जिउ गोनां</w>
जिउ -जुना
जि र</w>
जि निफ्राय</w>
जि गां</w>
जाहै बाय</w>
जाहै गोन</w>
जाहा राव</w>
जासि गोन।"</w>
जालाय बाय।</w>
जालाय दों</w>
जालां नायसै।</w>
जालां नायमोन।</w>
जालां दों</w>
जार् मान</w>
जारौ वा</w>
जारौ ,</w>
जाय फोरनि</w>
जाय जों</w>
जामार बाय</w>
[...]
