<unk>	0
<s>	0
</s>	0
▁आरो	-4.29587
▁बे	-4.6897
▁:	-4.73643
▁?	-4.82301
▁आं	-5.04009
▁!	-5.16366
▁मा	-5.3246
▁बियो	-5.36564
▁नों	-5.48432
▁नाथाय	-5.55988
▁?"	-5.70259
▁एबा	-5.75773
▁--"	-5.77741
▁बिनि	-5.80674
▁आंनि	-5.8573
▁गावनि	-5.87607
▁मोजां	-5.96462
▁मोनसे	-5.97999
▁थाखाय	-5.99785
▁उनाव	-6.06419
▁बरʼ	-6.07143
▁लानानै	-6.07508
▁(	-6.11352
▁गुबुन	-6.13396
▁बादि	-6.16275
▁जायो।	-6.17075
▁लोगो	-6.21594
▁-	-6.25158
▁जों	-6.31139
▁जानो	-6.32223
▁जेबो	-6.35549
▁मानो	-6.37336
▁जानानै	-6.375
▁नोंनि	-6.37664
▁थानाय	-6.38159
▁बेनि	-6.3849
▁गोसो	-6.39323
▁गोनां	-6.4135
▁सासे	-6.42379
▁बायदि	-6.43768
▁बेखौ	-6.46246
▁समाव	-6.46246
▁दिनै	-6.47418
▁दा	-6.48603
▁दं।	-6.53877
▁आंखौ	-6.58428
▁[	-6.61512
▁हाबा	-6.61721
▁खालामनो	-6.6235
▁ना	-6.63196
▁बाथ्रा	-6.65559
▁नङा	-6.65995
▁एसे	-6.69551
▁गोबां	-6.71377
▁सायाव	-6.71377
▁)	-6.71608
▁नङा।	-6.72536
▁दं	-6.74181
▁जानाय	-6.74418
▁गोदान	-6.75613
▁माबा	-6.76095
▁गेजेराव	-6.76579
▁खालामनानै	-6.76822
▁गाव	-6.76822
▁जाबाय	-6.7731
▁बिखौ	-6.78788
▁बुंनो	-6.83357
▁बि	-6.83878
▁होननानै	-6.84665
▁जोंनि	-6.86524
▁होनो	-6.90071
▁फिसा	-6.91189
▁बाथ्राखौ	-6.9147
▁जादों	-6.91752
▁]	-6.93175
▁गाज्रि	-6.93749
▁सोर	-6.94327
▁बिसोर	-6.95201
▁बेफोर	-6.96082
▁होनानै	-6.96377
▁होन्नानै	-6.97868
▁जाबाय।	-6.9847
▁गैया।	-6.98773
▁दै	-6.9938
▁जादों।	-7.00299
▁बै	-7.02477
▁जाय	-7.06979
▁राव	-7.07309
▁नोंखौ	-7.09984
▁गैया	-7.10665
▁जौ	-7.10665
▁जेरै-	-7.11349
▁थांनानै	-7.11694
▁"	-7.13784
▁रां	-7.14137
▁नामा	-7.16642
▁--	-7.17005
▁नुनानै	-7.18102
▁लोगोसे	-7.1884
▁एन	-7.19583
▁हागौ।	-7.19957
▁मानसिया	-7.21466
▁नवाव	-7.21847
▁मानसि	-7.2223
▁हाया।	-7.2223
▁बुङो।	-7.22614
▁बारा	-7.22999
▁बेयो	-7.24555
▁आं।	-7.24948
▁होनाय	-7.24948
▁खाथियाव	-7.25343
▁गामिनि	-7.25343
▁बुङो	-7.25343
▁हानाय	-7.25343
▁मानोना	-7.25739
▁थायो।	-7.26136
▁सिङाव	-7.26136
▁ओंखाम	-7.26937
▁थानो	-7.27339
▁सम	-7.27743
▁जिउ	-7.28556
▁जेरै	-7.28556
▁जायो	-7.31035
▁मोनो।	-7.31035
▁आदा	-7.31455
▁गासै	-7.31455
▁महर	-7.31455
▁फारसे	-7.31876
▁बयबो	-7.31876
▁नुनो	-7.32723
▁बिब्दि	-7.33578
▁।	-7.34008
▁माथो	-7.34874
▁सोरबा	-7.34874
▁आंहा	-7.3531
▁दसे	-7.3531
▁दुखु	-7.37072
▁रावबो	-7.37072
▁जागोन	-7.37517
▁गुबै	-7.37965
▁बिसोरनि	-7.37965
▁सिरि	-7.37965
▁जोनोम	-7.38866
▁बिमा	-7.38866
▁माखासे	-7.39775
▁लानो	-7.41154
▁आलेया	-7.42084
▁लामा	-7.42553
▁जोबोद	-7.43023
▁सिगां	-7.43023
▁बुंनाय	-7.44448
▁मेगन	-7.44928
▁सा	-7.44928
▁!"	-7.4541
▁गासिबो	-7.45894
▁हाया	-7.47361
▁गोसोआव	-7.47608
▁मानसिनि	-7.47855
▁बेखौनो	-7.48351
▁दि	-7.49351
▁थांनाय	-7.49855
▁गंसे	-7.50361
▁बुंबाय	-7.50361
▁उन	-7.5087
▁जागोन।	-7.5087
▁हागौ	-7.5087
▁सलʼ	-7.51382
▁बेनो	-7.52413
▁लासै	-7.52413
▁मोखां	-7.53454
▁आफा	-7.53979
▁जा	-7.53979
▁समावनो	-7.55571
▁हिन्जाव	-7.55571
▁गारां	-7.56107
▁सोदोब	-7.56107
▁नʼवाव	-7.57188
▁गासैबो	-7.58281
▁राहा	-7.58832
▁आखाइ	-7.59943
▁खामानि	-7.59943
▁गोजौ	-7.59943
▁नि	-7.59943
▁सुबुं	-7.59943
▁गोसोखौ	-7.61067
▁जेब्ला	-7.61067
▁नांगौ	-7.62203
▁अब्ला	-7.62776
▁आंबो	-7.62776
▁जिउनि	-7.62776
▁थांनो	-7.62776
▁नोंसोर	-7.63353
▁मोननाय	-7.63353
▁दाबो	-7.63932
▁बेसेबा	-7.63932
▁न	-7.65102
▁हायो।	-7.65102
▁नै	-7.65692
▁गोसोनि	-7.66285
▁जेब्लाबो	-7.66285
▁थेवबो	-7.66882
▁बिदि	-7.66882
▁गोबाव	-7.67483
▁जाखो	-7.67483
▁आखायाव	-7.68087
▁सुंदʼ	-7.68087
▁दन्दा	-7.68695
▁दानो	-7.68695
▁बुंनानै	-7.68695
▁फैनानै	-7.69307
▁गावनो	-7.69922
▁गोरा	-7.69922
▁गेजेरजों	-7.70541
▁सिगाङाव	-7.71791
▁गाहाय	-7.72422
▁महरै	-7.72422
▁मोजाङै	-7.72422
▁राइजो	-7.72422
▁लानाय	-7.72422
▁गोहो	-7.73057
▁मोनो	-7.73696
▁होयो।	-7.73696
▁खौरां	-7.74339
▁नङाब्ला	-7.74339
▁माबोरै	-7.74339
▁नायनानै	-7.74987
▁हौवा	-7.74987
▁बरʼनि	-7.75638
▁बेनिखायनो	-7.76294
▁आंनो	-7.77618
▁खरʼ	-7.77618
▁मोदै	-7.77618
▁साहा	-7.77618
▁एसेबां	-7.79639
▁नङा,	-7.79639
▁बांसिन	-7.79639
▁मोननै	-7.79639
▁हमनानै	-7.79639
▁हारिनि	-7.79639
▁नायनो	-7.80321
▁सानसे	-7.80321
▁बेसे	-7.81008
▁जायगा	-7.817
▁बेयाव	-7.817
▁दे	-7.82397
▁जि	-7.83099
▁राजा	-7.83099
▁सानै	-7.83099
▁सुलुंआव	-7.83099
▁गेजेर	-7.83806
▁मोननो	-7.83806
▁हा	-7.83806
▁गिबि	-7.84518
▁मलेना	-7.85234
▁महाराजा	-7.85234
▁मालाय	-7.85234
▁मिथिनो	-7.85234
▁सिं	-7.85234
▁सेप्तेम्बर	-7.85234
▁जाया	-7.86684
▁बेबादि	-7.86684
▁हमनो	-7.86684
▁हा:	-7.86684
▁जोंथिया	-7.87416
▁जोबोर	-7.87416
▁बिखायाव	-7.87416
▁बेनिफ्राय	-7.87416
▁आइ	-7.88154
▁बोरै	-7.88154
▁सान	-7.88154
▁होनना	-7.88154
▁:-	-7.88898
▁गाहाइ	-7.88898
▁समाय	-7.88898
▁आ	-7.89647
▁मावनो	-7.89647
▁बड़ʼ	-7.90402
▁बिखा	-7.90402
▁आखु	-7.91162
▁नोंथाङा	-7.91162
▁थायो	-7.91928
▁सोमबोर	-7.91928
▁तुलाराम	-7.92701
▁खालामनाय	-7.93479
▁थि	-7.93479
▁इराग्दाव	-7.95054
▁खालि	-7.95054
▁गावखौ	-7.95054
▁बियो।	-7.95054
▁मोनबाय।	-7.95054
▁मोखाङाव	-7.9585
▁आर	-7.96654
▁इ	-7.96654
▁गोलाव	-7.96654
▁गोसोआ	-7.96654
▁जायगायाव	-7.96654
▁बहा	-7.96654
▁बायदि।	-7.96654
▁बिहा	-7.96654
▁बोसोर	-7.96654
▁गांसे	-7.97463
▁बादिब्ला,	-7.97463
▁बिदिब्ला	-7.9828
▁माब्लाबा	-7.9828
▁साननानै	-7.9828
▁खाबु	-7.99103
▁गैयै	-7.99103
▁दुर्जाङा	-7.99103
▁बाहागो	-7.99103
▁लायो।	-7.99103
▁गथʼ	-7.99933
▁गोख्रों	-7.99933
▁नʼ	-7.99933
▁बाथ्राया	-7.99933
▁आबौ	-8.00769
▁गिदिर	-8.00769
▁दमन	-8.00769
▁बिमाया	-8.00769
▁मोनबाय	-8.00769
▁सलʼनि	-8.00769
▁हांखो	-8.00769
▁आफादनि	-8.01613
▁जादोंमोन।	-8.01613
▁सानैबो	-8.01613
▁हायो	-8.01613
▁"मा	-8.02464
▁लेखा	-8.02464
▁नोंनो	-8.03323
▁फावथाइ	-8.03323
▁बाहायनाय	-8.03323
▁अजया	-8.04189
▁ओंखार	-8.04189
▁नोजोर	-8.04189
▁बिमानि	-8.04189
▁बेफोरखौ	-8.04189
▁मानि	-8.04189
▁"आं	-8.05062
▁फावथाइनि	-8.05062
▁रावखौ	-8.05062
▁लिरनाय	-8.05062
▁सलʼमा	-8.05062
▁सानो	-8.05943
▁थाखायनो	-8.07729
▁फिन	-8.07729
▁बादल	-8.07729
▁फोरमायनाय	-8.08634
▁बादला	-8.08634
▁अनगायैबो	-8.10469
▁थै	-8.10469
▁मोना	-8.10469
▁हेफाजाब	-8.10469
▁खोनानानै	-8.11399
▁जानायनि	-8.11399
▁थां	-8.11399
▁मिहिरा	-8.11399
▁मोसौ	-8.11399
▁रागा	-8.13286
▁आलेखौ	-8.14243
▁बुङो-	-8.14243
▁मदद	-8.14243
▁रुमाव	-8.14243
▁उदां	-8.15209
▁थाब	-8.15209
▁बेसेबां	-8.15209
▁गैया,	-8.16185
▁हां	-8.16185
▁हेंथा	-8.16185
▁फिसाजो	-8.17666
▁थाखो	-8.18165
▁दाय	-8.18165
▁देहा	-8.18165
▁बबाव	-8.18165
▁बिब्दिनो	-8.18165
▁सेंग्रा	-8.18165
▁मन्थ्रि	-8.1917
▁माबार	-8.1917
▁रावनि	-8.1917
▁सलʼमानि	-8.1917
▁सान्थ्रि	-8.1917
▁आगान	-8.20185
▁जिंगा	-8.20185
▁बुंदों	-8.20185
▁रोखोमनि	-8.20185
▁लामायाव	-8.20185
▁हि:	-8.20185
▁नाङा	-8.21211
▁फैनो	-8.21211
▁मानसिखौ	-8.21211
▁सिख्ला	-8.21211
▁हर	-8.21211
▁राइजोनि	-8.22247
▁सानबाय	-8.22247
▁दावहा	-8.23294
▁आथोन	-8.24352
▁गम्भीर	-8.24352
▁जनानै	-8.24352
▁देनानै	-8.24352
▁मान	-8.24352
▁समनि	-8.24352
▁थार	-8.25422
▁दानिया	-8.25422
▁बिथांनि	-8.25422
▁बिलाइ	-8.25422
▁बिसोरखौ	-8.25422
▁मुं	-8.25422
▁सोमोन्दो	-8.25422
▁गलʼवा	-8.26503
▁नोजोरथावनादि,	-8.26503
▁रैखा	-8.26503
▁होबाय	-8.26503
▁खुगा	-8.27596
▁खोथाखौ	-8.27596
▁गामि	-8.27596
▁गोरोन्थि	-8.27596
▁ददेरेया	-8.27596
▁नोंथां	-8.27596
▁फोरमायदों।	-8.27596
▁बिनानाव	-8.27596
▁साजा	-8.27596
▁अराय	-8.28701
▁खालामो।	-8.28701
▁जाब्ला	-8.28701
▁दंमोन।	-8.28701
▁मोन्नाय	-8.28701
▁होदों।	-8.28701
▁अमा	-8.29818
▁आसामनि	-8.29818
▁नोंहा	-8.29818
▁बिसि	-8.29818
▁हाबानि	-8.29818
▁हे:	-8.29818
▁of	-8.30948
▁गोजानाव	-8.30948
▁जायखौ	-8.30948
▁बिदिनो	-8.30948
▁बिफा	-8.30948
▁रावाव	-8.30948
▁उनावनो	-8.32091
▁नाथाय,	-8.32091
▁बिबार	-8.32091
▁सेराव	-8.32091
▁हाबनानै	-8.32091
▁हायै	-8.32091
▁खोमदोन	-8.33247
▁जिउखौ	-8.33247
▁दिन्थिग्रा	-8.33247
▁फा	-8.33247
▁मेहेरसिं	-8.33247
▁मोनगोन।	-8.33247
▁शान्तिया	-8.33247
▁सान्नानै	-8.33247
▁थाखोनि	-8.34417
▁थाङो।	-8.34417
▁पुलिस	-8.34417
▁मोदोमाव	-8.34417
▁इसे	-8.356
▁थाङो	-8.356
▁बिलिफाङा	-8.356
▁बुंबाय--	-8.356
▁बेलस्रि	-8.356
▁माने	-8.356
▁हराव	-8.356
▁हागोन	-8.356
▁आरोबाव	-8.36798
▁ए	-8.36798
▁फंबाय	-8.36798
▁बिनो	-8.36798
▁बिसोरो	-8.36798
▁मालायनि	-8.36798
▁मुङा	-8.36798
▁मोसा	-8.36798
▁हमबाय।	-8.36798
▁खोथा	-8.3801
▁बेवहाय	-8.3801
▁समाजनि	-8.3801
▁हाबाखौ	-8.3801
▁उन्दै	-8.39237
▁जेराव	-8.39237
▁जोंथिनि	-8.39237
▁थाबाय	-8.39237
▁दं,	-8.39237
▁बुं	-8.39237
▁मिथिगौ	-8.39237
▁मुंनि	-8.39237
▁रोखा	-8.39237
▁होबाय।	-8.39237
▁थानानै	-8.40479
▁दङ।	-8.40479
▁दुलाराय	-8.40479
▁फारिया	-8.40479
▁फैनाय	-8.40479
▁बिफानि	-8.40479
▁बोराया	-8.40479
▁मेथाइ	-8.40479
▁सान्दो	-8.40479
▁आंगो	-8.41737
▁खोमसि	-8.41737
▁थाबाय।	-8.41737
▁फैदों	-8.41737
▁माहाजोना	-8.41737
▁राजानि	-8.41737
▁सोनानै	-8.41737
▁गाहाम	-8.43011
▁गोजोन	-8.43011
▁थाव	-8.43011
▁मेगनाव	-8.43011
▁मैया	-8.43011
▁मोननानै	-8.43011
▁मोना।	-8.43011
▁सिखारनानै	-8.43011
▁हिसाबै	-8.43011
▁आदा।	-8.44301
▁आलेनि	-8.44301
▁आसाम	-8.44301
▁गोथार	-8.44301
▁दिन्थिनो	-8.44301
▁मलेन	-8.44301
▁मानसिफोरा	-8.44301
▁लाबाय।	-8.44301
▁सुबुंनि	-8.44301
▁सोमोन्दै	-8.44301
▁अखा	-8.45608
▁आंजों	-8.45608
▁एसेबो	-8.45608
▁गाहायाव	-8.45608
▁गोदो	-8.45608
▁नंगौ	-8.45608
▁नाङा।	-8.45608
▁बबे	-8.45608
▁बिखाया	-8.45608
▁लाइजामखौ	-8.45608
▁!!	-8.46933
▁2	-8.46933
▁अलʼका।	-8.46933
▁आथिखालाव	-8.46933
▁एरै	-8.46933
▁गाबोन	-8.46933
▁गावजों	-8.46933
▁गोथौ	-8.46933
▁गोसोजों	-8.46933
▁जोंखौ	-8.46933
▁दासो	-8.46933
▁बागै	-8.46933
▁मानसिफ्रा	-8.46933
▁माब्ला	-8.46933
▁मोदोम	-8.46933
▁लाखिनो	-8.46933
▁से	-8.46933
▁आथिं	-8.48275
▁खोनानो	-8.48275
▁खौ	-8.48275
▁गुदि	-8.48275
▁जोहोलाव	-8.48275
▁थामहिनबा	-8.48275
▁साना	-8.48275
▁1.	-8.49636
▁आबुं	-8.49636
▁खोमा	-8.49636
▁गामियाव	-8.49636
▁गोजाम	-8.49636
▁जायनि	-8.49636
▁जाया।	-8.49636
▁जेरैबो	-8.49636
▁दङʼ।	-8.49636
▁नोंथांनि	-8.49636
▁फाव	-8.49636
▁फै	-8.49636
▁बायदिसिना	-8.49636
▁बिजाब	-8.49636
▁बिथाङा	-8.49636
▁बिदा	-8.49636
▁मन्जुनि	-8.49636
▁मुलुगाव	-8.49636
▁साख्रि	-8.49636
▁हरनि	-8.49636
▁हादर	-8.49636
▁हारि	-8.49636
▁उदै	-8.51015
▁जानांगौ।	-8.51015
▁जेरावबो	-8.51015
▁बावनो	-8.51015
▁मुं.	-8.51015
▁साननो	-8.51015
▁एम	-8.52414
▁खालामदों।	-8.52414
▁गोरों	-8.52414
▁गोसोम	-8.52414
▁दयाराम-	-8.52414
▁नोंलाय	-8.52414
▁फैगौ	-8.52414
▁मीनाराम	-8.52414
▁रामनाथा	-8.52414
▁हादोरनि	-8.52414
▁"नों	-8.53832
▁2.	-8.53832
▁अरुना	-8.53832
▁आलाइस्रिया	-8.53832
▁खालामना	-8.53832
▁खेबसे	-8.53832
▁जाग्रा	-8.53832
▁जोंहा	-8.53832
▁थुनलाइ	-8.53832
▁दान्दिसे	-8.53832
▁फरायसा	-8.53832
▁बा	-8.53832
▁ब्रह्म	-8.53832
▁मिनिस्लु	-8.53832
▁सावगारि	-8.53832
▁सासेया	-8.53832
▁हांमा	-8.53832
▁हाग्रा	-8.53832
▁अनगायै	-8.55271
▁जाथाय	-8.55271
▁जानांगौ	-8.55271
▁जोंनो	-8.55271
▁फारि	-8.55271
▁फिसाज्ला	-8.55271
▁बोलो	-8.55271
▁मुवा	-8.55271
▁सोंबाय	-8.55271
▁सोदोबनि	-8.55271
▁होनायनि	-8.55271
▁होयो	-8.55271
▁अर	-8.56731
▁गारनानै	-8.56731
▁गुदुं	-8.56731
▁दानि	-8.56731
▁नुयो।	-8.56731
▁नोंबो	-8.56731
▁फैदों।	-8.56731
▁फैयो	-8.56731
▁बबेखानि	-8.56731
▁बिथां	-8.56731
▁बेखेवफा	-8.56731
▁ब्रह्मनि	-8.56731
▁मोनफा	-8.56731
▁रावआव	-8.56731
▁हाबाब	-8.56731
▁होमब्ला	-8.56731
▁अदेबानि	-8.58213
▁एफा	-8.58213
▁खहा	-8.58213
▁खुगायाव	-8.58213
▁गेदेर	-8.58213
▁जायाखै।	-8.58213
▁नखरनि	-8.58213
▁फैयो।	-8.58213
▁बिखानि	-8.58213
▁मिनि	-8.58213
▁मुलुगनि	-8.58213
▁सानैजों	-8.58213
▁आखाइयाव	-8.59716
▁आदा,	-8.59716
▁खालाम	-8.59716
▁जायोब्ला	-8.59716
▁थांखि	-8.59716
▁माहाजोननि	-8.59716
▁समायना	-8.59716
▁हादरनि	-8.59716
▁आखल	-8.61243
▁आङो	-8.61243
▁आलाइया	-8.61243
▁जुनै	-8.61243
▁फिसाया	-8.61243
▁फोरमान	-8.61243
▁बादिनो	-8.61243
▁बोसोरनि	-8.61243
▁मन्जुवा	-8.61243
▁लाबोनानै	-8.61243
▁हाजार	-8.61243
▁हायाखै।	-8.61243
▁इन्दिस्री	-8.62794
▁गले	-8.62794
▁थानायनि	-8.62794
▁दासिमबो	-8.62794
▁फिसार्च	-8.62794
▁बिबान	-8.62794
▁मलेनखौ	-8.62794
▁मुस्री	-8.62794
▁रैखाथि	-8.62794
▁आनारी-	-8.64368
▁खामानिखौ	-8.64368
▁फिसाजोखौ	-8.64368
▁फैबाय	-8.64368
▁बादियै	-8.64368
▁बिफां	-8.64368
▁मोनगोन	-8.64368
▁सʼना	-8.64368
▁हायाखिसै।	-8.64368
▁थुनलाइनि	-8.65165
▁आङो।	-8.65968
▁आलासि	-8.65968
▁खालामनायनि	-8.65968
▁गसंनानै	-8.65968
▁दानाय	-8.65968
▁दुखुनि	-8.65968
▁दोर्सोन	-8.65968
▁नायजाबनि	-8.65968
▁बाजै	-8.65968
▁माइथायाव	-8.65968
▁मानोथो	-8.65968
▁मानोबा	-8.65968
▁माब्रै	-8.65968
▁मोननायनि	-8.65968
▁सांग्रां	-8.65968
▁सेर	-8.65968
▁हरनो	-8.65968
▁अब्लाबो	-8.67594
▁एस	-8.67594
▁खायफा	-8.67594
▁खालामो	-8.67594
▁थिक	-8.67594
▁दङ	-8.67594
▁बिफाननि	-8.67594
▁मेगननि	-8.67594
▁लाइजाम	-8.67594
▁हाबो)	-8.67594
▁हायाखिसै	-8.67594
▁हेंथायै	-8.67594
▁10	-8.69247
▁अनलाइन	-8.69247
▁अनाथी	-8.69247
▁आफादगिरि	-8.69247
▁कल्पना	-8.69247
▁खामानियाव	-8.69247
▁जाथाइनि	-8.69247
▁जेसेबां	-8.69247
▁थानायाव	-8.69247
▁दोननाय	-8.69247
▁नंखाय	-8.69247
▁नुबाय	-8.69247
▁फावथायाव	-8.69247
▁बेखायनो	-8.69247
▁मिथिबाय	-8.69247
▁मोनदों।	-8.69247
▁लांनो	-8.69247
▁लाख	-8.69247
▁सानो।	-8.69247
▁साबसिन	-8.69247
▁हादों।	-8.69247
▁'	-8.70928
▁...	-8.70928
▁कल्पनाया	-8.70928
▁खलथा	-8.70928
▁गाबा	-8.70928
▁गिदिद	-8.70928
▁जादोंमोन	-8.70928
▁जायो,	-8.70928
▁थेलेफा	-8.70928
▁दाजाबदा	-8.70928
▁नायबाय	-8.70928
▁बाइदि	-8.70928
▁बिबो	-8.70928
▁माहारिनि	-8.70928
▁रांखौ	-8.70928
▁रागाजों	-8.70928
▁साफा	-8.70928
▁सेंग्राया	-8.70928
▁5	-8.72637
▁अजिता	-8.72637
▁ओजों	-8.72637
▁खाथि	-8.72637
▁गुमै	-8.72637
▁जोबथा	-8.72637
▁दिन	-8.72637
▁दिन्थिनाय	-8.72637
▁मलेननि	-8.72637
▁माइथायनि	-8.72637
▁मादाव	-8.72637
▁मिथिया	-8.72637
▁रोदा,	-8.72637
▁सैमा	-8.72637
▁हागौ,	-8.72637
▁होन्ना	-8.72637
▁>	-8.74377
▁अननाय	-8.74377
▁आसि	-8.74377
▁खानानै	-8.74377
▁गाबै	-8.74377
▁गावखौनो	-8.74377
▁गेजेरावनो	-8.74377
▁जादों-	-8.74377
▁जारिमिनारि	-8.74377
▁जो	-8.74377
▁फिसानि	-8.74377
▁बानु	-8.74377
▁मुंखौ	-8.74377
▁रांनि	-8.74377
▁सहेन	-8.74377
▁सोरगिदिं	-8.74377
▁हाजेवनि	-8.74377
▁अजितनि	-8.76147
▁आनारी	-8.76147
▁खायसे	-8.76147
▁गथʼखौ	-8.76147
▁गय	-8.76147
▁गारि	-8.76147
▁गुन्दाया	-8.76147
▁जे	-8.76147
▁तितागुरि	-8.76147
▁थु	-8.76147
▁दङʼ	-8.76147
▁बिमाखौ	-8.76147
▁रावजों	-8.76147
▁लाबाय	-8.76147
▁स्रि	-8.76147
▁होदों	-8.76147
▁आगै	-8.77948
▁आफाया	-8.77948
▁गिनानै	-8.77948
▁गुवार	-8.77948
▁गोजौवाव	-8.77948
▁जानायाव	-8.77948
▁थेफेना	-8.77948
▁नायहरनानै	-8.77948
▁निमाहा	-8.77948
▁पि	-8.77948
▁बां	-8.77948
▁बिलाय	-8.77948
▁समान	-8.77948
▁सानसेखालि	-8.77948
▁सिंनि	-8.77948
▁हरखाब	-8.77948
▁हाबाया	-8.77948
▁अजयनि	-8.79783
▁आव	-8.79783
▁कलेजाव	-8.79783
▁गथʼवा	-8.79783
▁गोदोनि	-8.79783
▁गोब्राब	-8.79783
▁जायखि	-8.79783
▁जेन	-8.79783
▁जै	-8.79783
▁डा.	-8.79783
▁दाननि	-8.79783
▁देरसिन	-8.79783
▁देहाखौ	-8.79783
▁बाबु	-8.79783
▁बिफाया	-8.79783
▁बैसोनि	-8.79783
▁मोन्नानै	-8.79783
▁सानराइ	-8.79783
▁सोलाय	-8.79783
▁हारिया	-8.79783
▁अ	-8.81653
▁आलाइस्रिनि	-8.81653
▁खालामबाय।	-8.81653
▁गुरै	-8.81653
▁गैलिया।	-8.81653
▁गोजा	-8.81653
▁थांबाय।	-8.81653
▁नायजाब	-8.81653
▁बार	-8.81653
▁बाहागोआव	-8.81653
▁बिदाय	-8.81653
▁बिहामजो	-8.81653
▁बेदर	-8.81653
▁बेबादिनो	-8.81653
▁बेयावनो	-8.81653
▁बेसेन	-8.81653
▁बोहैथि	-8.81653
▁मोनदों	-8.81653
▁राइजोखौ	-8.81653
▁रोजा	-8.81653
▁साननाय	-8.81653
▁सिमां	-8.81653
▁सोरनिबा	-8.81653
▁हारिखौ	-8.81653
▁"मानो	-8.83557
▁आखुनि	-8.83557
▁इराग्दावा	-8.83557
▁एरैनो	-8.83557
▁खाफाल	-8.83557
▁जुदि	-8.83557
▁थिङै	-8.83557
▁निउ	-8.83557
▁फेलें	-8.83557
▁बोराय	-8.83557
▁ब्रा	-8.83557
▁रंजा	-8.83557
▁रावखौबो	-8.83557
▁लादों।	-8.83557
▁लोंनो	-8.83557
▁सोङो	-8.83557
▁सोरखौ	-8.83557
▁2008	-8.84524
▁the	-8.85499
▁अपारेटिं	-8.85499
▁आबʼ	-8.85499
▁आयै	-8.85499
▁आलो	-8.85499
▁खौरांखौ	-8.85499
▁जखम	-8.85499
▁जेंना	-8.85499
▁दंमोन	-8.85499
▁दिनैनि	-8.85499
▁दिन्थि	-8.85499
▁दोननानै	-8.85499
▁ननि	-8.85499
▁नोंथां।	-8.85499
▁फुंनि	-8.85499
▁माखौ	-8.85499
▁मासे	-8.85499
▁लामाजों	-8.85499
▁समाज	-8.85499
▁सलʼवा	-8.85499
▁हाबफैयो।	-8.85499
▁3.	-8.87479
▁खनसाया	-8.87479
▁खर	-8.87479
▁खरʼवाव	-8.87479
▁खालामबाय	-8.87479
▁गिदिं	-8.87479
▁थांबाय	-8.87479
▁नागा	-8.87479
▁फिसाखौ	-8.87479
▁फैबाय।	-8.87479
▁बबेबा	-8.87479
▁बुङो,	-8.87479
▁माबाफोर	-8.87479
▁मारजित	-8.87479
▁मेब्ला-	-8.87479
▁लाबोनो	-8.87479
▁सोम	-8.87479
▁आंथʼ	-8.895
▁आदाया	-8.895
▁खाफालाव	-8.895
▁गाबो	-8.895
▁जानायखौ	-8.895
▁जिरायनानै	-8.895
▁जोला	-8.895
▁थाङोब्ला	-8.895
▁दान	-8.895
▁नांनानै	-8.895
▁फाग्ला	-8.895
▁फिसौ	-8.895
▁बरʼफोरा	-8.895
▁बिसिखौ	-8.895
▁बोरैबा	-8.895
▁माब्लाबानो	-8.895
▁लाजि	-8.895
▁लायो	-8.895
▁लोब्बा	-8.895
▁समबारु-	-8.895
▁हजों	-8.895
▁हाया,	-8.895
▁हारसिं	-8.895
▁होमबा	-8.895
▁गोग्लैनानै	-8.91562
▁गोनां।	-8.91562
▁थांना	-8.91562
▁दोंसे	-8.91562
▁धोरोम	-8.91562
▁नङा।"	-8.91562
▁नोंजों	-8.91562
▁फावथिना	-8.91562
▁बाहायनो	-8.91562
▁मावनाय	-8.91562
▁सरलाया	-8.91562
▁सलʼवाव	-8.91562
▁सि	-8.91562
▁हाजो	-8.91562
▁होननाय	-8.91562
▁आं।"	-8.93667
▁आइजो	-8.93667
▁आखाइनि	-8.93667
▁आनजाद	-8.93667
▁आनाराम-	-8.93667
▁आबै	-8.93667
▁कम्पिउटार	-8.93667
▁खालामगोन	-8.93667
▁खैफोद	-8.93667
▁जिल्लानि	-8.93667
▁थांब्ला	-8.93667
▁दावराव	-8.93667
▁नखर	-8.93667
▁फार्से	-8.93667
▁बिनिफ्राय	-8.93667
▁बेबो	-8.93667
▁मानसि।	-8.93667
▁मिजिं	-8.93667
▁मुंदांखा	-8.93667
▁मुंमा	-8.93667
▁लिरनानै	-8.93667
▁सिबाय	-8.93667
▁सोरनि	-8.93667
▁हाबायाव	-8.93667
▁हायाव	-8.93667
▁हुरा	-8.93667
▁ओंखारलाङो।	-8.95818
▁कलेज	-8.95818
▁खनसे	-8.95818
▁खाना	-8.95818
▁गन्थं	-8.95818
▁गोथै	-8.95818
▁जिनाहारि	-8.95818
▁थांनोसै	-8.95818
▁थुलुंगा	-8.95818
▁दहाय	-8.95818
▁दिनैनिफ्राय	-8.95818
▁दिनैसिम	-8.95818
▁नʼनि	-8.95818
▁नैथि	-8.95818
▁नोंसोरनि	-8.95818
▁फिथाइ	-8.95818
▁बाथ्रा।	-8.95818
▁बुंगोन	-8.95818
▁बेफोरनि	-8.95818
▁बोरो	-8.95818
▁मोनब्ला	-8.95818
▁लख्राया	-8.95818
▁संसाराव	-8.95818
▁सिनायथि	-8.95818
▁हांखोनि	-8.95818
▁हागोन।	-8.95818
▁होननानै।	-8.95818
▁ड.	-8.96911
▁आनारीया	-8.98016
▁आफाद	-8.98016
▁ओंखायनो	-8.98016
▁ओंथि	-8.98016
▁गोदै	-8.98016
▁जाथाइ	-8.98016
▁जाथाया	-8.98016
▁जावलिया	-8.98016
▁जिवाव	-8.98016
▁थागोन	-8.98016
▁थाब्ला	-8.98016
▁बिफाखौ	-8.98016
▁बि।	-8.98016
▁मटर	-8.98016
▁मोनथाम	-8.98016
▁मोनहा	-8.98016
▁रावा	-8.98016
▁लांनानै	-8.98016
▁हिन्जावनि	-8.98016
▁अलʼका	-9.00263
▁खनले	-9.00263
▁खनै	-9.00263
▁गैयाब्ला	-9.00263
▁गोनांथि	-9.00263
▁जायै	-9.00263
▁जोंथिखौ	-9.00263
▁थियेटार	-9.00263
▁थैनायनि	-9.00263
▁बिजों	-9.00263
▁बिष	-9.00263
▁मुस्रि	-9.00263
▁साला	-9.00263
▁सोङो।	-9.00263
▁हनै	-9.00263
▁हमो।	-9.00263
▁....	-9.02562
▁अरायबो	-9.02562
▁आफादा	-9.02562
▁ए.	-9.02562
▁खुगानिफ्राय	-9.02562
▁गावबुराया	-9.02562
▁गियान	-9.02562
▁गुवाहाटी,	-9.02562
▁जायाखै	-9.02562
▁जैबोर	-9.02562
▁जोहै	-9.02562
▁बिथोन	-9.02562
▁बिदै	-9.02562
▁बिलिफांनि	-9.02562
▁बोनाय	-9.02562
▁मावनानै	-9.02562
▁सहायनो	-9.02562
▁हाबाफारि	-9.02562
▁हारसिङै	-9.02562
▁हार्सिङै	-9.02562
▁होगोन	-9.02562
▁"बे	-9.04915
▁1	-9.04915
▁4.	-9.04915
▁Window	-9.04915
▁आथिङाव	-9.04915
▁उनावसो	-9.04915
▁ओरैनो	-9.04915
▁कम्पिउटारनि	-9.04915
▁खामानिया	-9.04915
▁गाहाम।	-9.04915
▁चन्द्र	-9.04915
▁जʼ	-9.04915
▁थादोंमोन।	-9.04915
▁थारैनो	-9.04915
▁दंफां	-9.04915
▁दं।"	-9.04915
▁दमना	-9.04915
▁देंखो	-9.04915
▁दैयाव	-9.04915
▁फंसे	-9.04915
▁फादोर	-9.04915
▁फिसाजोनि	-9.04915
▁बाइदि।	-9.04915
▁बिजाबखौ	-9.04915
▁मोखाङा	-9.04915
▁लासैनो	-9.04915
▁लुबैयो	-9.04915
▁सानदों	-9.04915
▁सुनानै	-9.04915
▁हले	-9.04915
▁हाजʼवारी	-9.04915
▁हाबफैयो	-9.04915
▁हिनजाव	-9.04915
▁होदोंमोन।	-9.04915
▁आखुवा	-9.07325
▁उन्दुनो	-9.07325
▁गथʼनि	-9.07325
▁गथʼफोर	-9.07325
▁गैयि	-9.07325
▁गोथां	-9.07325
▁गोसोयाव	-9.07325
▁जाथायखौ	-9.07325
▁थांगोन	-9.07325
▁थोर	-9.07325
▁पास	-9.07325
▁प्र:	-9.07325
▁बरʼफोरनि	-9.07325
▁बसुमतारीनि	-9.07325
▁बान्था	-9.07325
▁बिथा	-9.07325
▁महरखौ	-9.07325
▁लाङो।	-9.07325
▁लाना	-9.07325
▁सिंनिफ्राय	-9.07325
▁हाय	-9.07325
▁12	-9.09794
▁and	-9.09794
▁अख्रां	-9.09794
▁आं,	-9.09794
▁एम.	-9.09794
▁कुमार	-9.09794
▁खाथिनि	-9.09794
▁खिन्था	-9.09794
▁खुसि	-9.09794
▁गावबा	-9.09794
▁गोजान	-9.09794
▁गोदानै	-9.09794
▁चि	-9.09794
▁जाथायनि	-9.09794
▁जादों,	-9.09794
▁देहानि	-9.09794
▁नखराव	-9.09794
▁नुयो	-9.09794
▁बयनिबो	-9.09794
▁बुंबाय-	-9.09794
▁बेदि	-9.09794
▁बोहैथिया	-9.09794
▁माइ	-9.09794
▁मानसिफोरखौ	-9.09794
▁मासियाव	-9.09794
▁मोन	-9.09794
▁लाइफांनि	-9.09794
▁लादों	-9.09794
▁सलʼमायाव	-9.09794
▁हाथाइ	-9.09794
▁हेलाराम	-9.09794
▁हो	-9.09794
▁होनांगौ।	-9.09794
▁होन्नानै।	-9.09794
▁?'	-9.12326
▁असे	-9.12326
▁आयदा	-9.12326
▁ओंथिया	-9.12326
▁गिनाय	-9.12326
▁गोख्रै	-9.12326
▁गोदोनायाव	-9.12326
▁गोमजोरै	-9.12326
▁डज	-9.12326
▁डि	-9.12326
▁थाबैनो	-9.12326
▁थाम	-9.12326
▁थियेटारनि	-9.12326
▁दाबि	-9.12326
▁दाव	-9.12326
▁नङामोन।	-9.12326
▁नागिरनानै	-9.12326
▁नों।	-9.12326
▁फरायनो	-9.12326
▁फारियै	-9.12326
▁फावथाइखौ	-9.12326
▁बेखौबो	-9.12326
▁महरा	-9.12326
▁मिरु	-9.12326
▁मोखांखौ	-9.12326
▁रावै	-9.12326
▁रासिन	-9.12326
▁सलʼखौ	-9.12326
▁सानफ्रोमबो	-9.12326
▁सिगारेट	-9.12326
▁सिनायनो	-9.12326
▁सोदोबखौ	-9.12326
▁(1)	-9.14923
▁(2)	-9.14923
▁अमला	-9.14923
▁इनाय	-9.14923
▁ओंखारनाय	-9.14923
▁कलिं	-9.14923
▁कल्पनानि	-9.14923
▁खरʼखौ	-9.14923
▁गलʼनि	-9.14923
▁गोरलै	-9.14923
▁जाबाय,	-9.14923
▁जेरै--	-9.14923
▁डाः	-9.14923
▁थाखाय।	-9.14923
▁थादों।	-9.14923
▁ददेरेखौ	-9.14923
▁ददेरेनि	-9.14923
▁दरजाखौ	-9.14923
▁दे।	-9.14923
▁दौनांगौ।	-9.14923
▁नांनाय	-9.14923
▁फरायनाय	-9.14923
▁बरʼवा	-9.14923
▁बिनारामा	-9.14923
▁बेदर,	-9.14923
▁बोनानै	-9.14923
▁मिनिनानै	-9.14923
▁मुगानि	-9.14923
▁रंजानाय	-9.14923
▁रन्जन	-9.14923
▁राइजोआव	-9.14923
▁रोङै	-9.14923
▁लोंनाय	-9.14923
▁संसार	-9.14923
▁साखाथियाव	-9.14923
▁सिख्लानि	-9.14923
▁सिख्लाया	-9.14923
▁सोलो	-9.14923
▁होनब्ला	-9.14923
▁15	-9.1759
▁अजय	-9.1759
▁अजितखौ	-9.1759
▁आंलाय	-9.1759
▁आखाइखौ	-9.1759
▁आफानि	-9.1759
▁ओंखारनानै	-9.1759
▁औ	-9.1759
▁खानाइ	-9.1759
▁खालामदों	-9.1759
▁गलʼ	-9.1759
▁गुवाहाटी	-9.1759
▁जानाया	-9.1759
▁जिल्ला	-9.1759
▁ज्राम	-9.1759
▁टि	-9.1759
▁थांदो	-9.1759
▁नङाना	-9.1759
▁नुनाय	-9.1759
▁पि.	-9.1759
▁फैमाल	-9.1759
▁बाथ्रानि	-9.1759
▁बाथ्रायाव	-9.1759
▁बिजौ,	-9.1759
▁बिथिङाव	-9.1759
▁बिफांनि	-9.1759
▁मानसिफोरनि	-9.1759
▁मोखाङै	-9.1759
▁मोनफ्रोमबो	-9.1759
▁मोनाब्ला	-9.1759
▁मोनै	-9.1759
▁रमा	-9.1759
▁राइजोफोर	-9.1759
▁राजाया	-9.1759
▁रुपा	-9.1759
▁लानायनि	-9.1759
▁लामाखौ	-9.1759
▁लामानि	-9.1759
▁शान्तिनि	-9.1759
▁सान्दों	-9.1759
▁आंखाल	-9.2033
▁आखाइजों	-9.2033
▁इंराजी	-9.2033
▁एल	-9.2033
▁ऐ	-9.2033
▁खालामनायाव	-9.2033
▁गाहायनि	-9.2033
▁गोजां	-9.2033
▁जाना	-9.2033
▁था	-9.2033
▁थांखिनानै	-9.2033
▁थाबनो	-9.2033
▁दाहार	-9.2033
▁दुखुजों	-9.2033
▁दैनि	-9.2033
▁नांगौ।	-9.2033
▁नागिरदों	-9.2033
▁फिसा।	-9.2033
▁बायनानै	-9.2033
▁बेरेखा	-9.2033
▁मेगना	-9.2033
▁राग	-9.2033
▁सानफ्रामबो	-9.2033
▁सि:	-9.2033
▁सोंनो	-9.2033
▁हरनानै	-9.2033
▁हादों	-9.2033
▁हान्जाया	-9.2033
▁।"	-9.2033
▁साइकेल	-9.21729
▁आगोर	-9.23147
▁आदा।"	-9.23147
▁आया	-9.23147
▁उननि	-9.23147
▁खन्थाइ	-9.23147
▁खि	-9.23147
▁गाबनानै	-9.23147
▁गोबानानै	-9.23147
▁थांदों	-9.23147
▁दावहायाव	-9.23147
▁दो	-9.23147
▁नङाबा	-9.23147
▁पुलिसनि	-9.23147
▁फंसेबो	-9.23147
▁फिसाइ	-9.23147
▁फोथायनाय	-9.23147
▁बिजौ	-9.23147
▁बिनिखायनो	-9.23147
▁माइगाब	-9.23147
▁मिथिया।	-9.23147
▁मीनारामा	-9.23147
▁मुङै	-9.23147
▁मुलुग	-9.23147
▁मै	-9.23147
▁मोब्लिब	-9.23147
▁रुम	-9.23147
▁लिरगिरिया	-9.23147
▁लोंनानै	-9.23147
▁समा	-9.23147
▁समाजाव	-9.23147
▁समानै	-9.23147
▁सेरनि	-9.23147
▁स्रें	-9.23147
▁हमबाय	-9.23147
▁हांखोखौ	-9.23147
▁हागौ।"	-9.23147
▁हान्जा	-9.23147
▁हायाखै	-9.23147
▁"औ	-9.26046
▁अफिसाव	-9.26046
▁अलʼकखौ	-9.26046
▁असमीया	-9.26046
▁आदब	-9.26046
▁आन्दाया	-9.26046
▁आफा।	-9.26046
▁आलाइ	-9.26046
▁आलादा	-9.26046
▁आले	-9.26046
▁एफाग्राब	-9.26046
▁के:	-9.26046
▁खथायाव	-9.26046
▁खोनासं	-9.26046
▁गरम	-9.26046
▁गाखोनानै	-9.26046
▁गावसोरनि	-9.26046
▁गुबुननि	-9.26046
▁गैयामोन।	-9.26046
▁गोजोननाय	-9.26046
▁गोराया	-9.26046
▁गोहोम	-9.26046
▁जानांगोन।	-9.26046
▁जोबोत	-9.26046
▁थबसि	-9.26046
▁थाग्रा	-9.26046
▁थासारि	-9.26046
▁दिन्थियो।	-9.26046
▁धोरोमनि	-9.26046
▁नं	-9.26046
▁नाङै	-9.26046
▁नायहरो	-9.26046
▁नैबे	-9.26046
▁फाग्लि	-9.26046
▁फाफ्लियाव	-9.26046
▁बादिब्ला	-9.26046
▁बि.	-9.26046
▁बिखायनो	-9.26046
▁बिबारि	-9.26046
▁बिहोमा	-9.26046
▁बुंदोंमोन	-9.26046
▁बोरायनि	-9.26046
▁मुलाम्फा	-9.26046
▁मुलि	-9.26046
▁मेगननिफ्राय	-9.26046
▁राफोद	-9.26046
▁रावनिबो	-9.26046
▁लाइफां	-9.26046
▁लायनो	-9.26046
▁सा-सानजा	-9.26046
▁सिलागां	-9.26046
▁सैबारी	-9.26046
▁सोनाब	-9.26046
▁सोरां	-9.26046
▁सोलोंथाइ	-9.26046
▁स्रां	-9.26046
▁हाखु-दाखु	-9.26046
▁3	-9.29031
▁9	-9.29031
▁आयं	-9.29031
▁आवगाय	-9.29031
▁एफ	-9.29031
▁एसेलʼ	-9.29031
▁कम्पिउटारखौ	-9.29031
▁खʼथायाव	-9.29031
▁खालामा	-9.29031
▁गेब्ला-	-9.29031
▁जाउनाव	-9.29031
▁जालांबाय।	-9.29031
▁जाहाथे	-9.29031
▁जिवा	-9.29031
▁जुलि	-9.29031
▁थायो,	-9.29031
▁थुंग्रि	-9.29031
▁दाखालि	-9.29031
▁दाहा	-9.29031
▁फैदो	-9.29031
▁बाथौ	-9.29031
▁बुंदों-	-9.29031
▁बुंना	-9.29031
▁महराव	-9.29031
▁माहाजोन	-9.29031
▁मोदोमनि	-9.29031
▁मोनदोंमोन।	-9.29031
▁मोनसेलʼ	-9.29031
▁मोन्नायनि	-9.29031
▁रामोन्दा	-9.29031
▁रिंसार	-9.29031
▁रोखोम	-9.29031
▁लायै	-9.29031
▁सिस्टेम	-9.29031
▁हिन्जावा	-9.29031
▁(3)	-9.32108
▁20	-9.32108
▁अजया।	-9.32108
▁आसामाव	-9.32108
▁उ:	-9.32108
▁गाननाय	-9.32108
▁गुन्दाखौ	-9.32108
▁गुबैयै	-9.32108
▁जाखांनानै	-9.32108
▁जोंथिया।	-9.32108
▁ट्राइबेल	-9.32108
▁थांगोन।	-9.32108
▁थानायखौ	-9.32108
▁थायोब्ला	-9.32108
▁थिग	-9.32108
▁दाउ	-9.32108
▁दिखांनानै	-9.32108
▁दैखांनानै	-9.32108
▁दैया	-9.32108
▁नायब्ला	-9.32108
▁निफ्राय	-9.32108
▁फरायसालियाव	-9.32108
▁फिसा,	-9.32108
▁फिसाइनि	-9.32108
▁बांसिनानो	-9.32108
▁बुंदों।	-9.32108
▁बुंहरबाय	-9.32108
▁महनलाला	-9.32108
▁मानसि,	-9.32108
▁मेगनजों	-9.32108
▁रंफाली	-9.32108
▁रोदा	-9.32108
▁लुबैनाय	-9.32108
▁सिखाव	-9.32108
▁सिलानि	-9.32108
▁सुजुग्राया	-9.32108
▁सुथुर	-9.32108
▁सोंनाय	-9.32108
▁हिन्जावखौ	-9.32108
▁(क)	-9.35283
▁;	-9.35283
▁is	-9.35283
▁to	-9.35283
▁अखाफोर	-9.35283
▁अफिसनि	-9.35283
▁अब्राम-	-9.35283
▁अब्लासो	-9.35283
▁अलकाया	-9.35283
▁आखलखौ	-9.35283
▁आखुखौ	-9.35283
▁आगु	-9.35283
▁आथिखालनि	-9.35283
▁आबुङै	-9.35283
▁आयʼ	-9.35283
▁कल्पनाखौ	-9.35283
▁खालार	-9.35283
▁गारिखौ	-9.35283
▁गारिनि	-9.35283
▁गिलिर	-9.35283
▁गुफुर	-9.35283
▁गोगोम	-9.35283
▁गोहोखौ	-9.35283
▁जाथाइजों	-9.35283
▁थाइलालि	-9.35283
▁थागोन।	-9.35283
▁थियारि	-9.35283
▁थोंजों	-9.35283
▁दमननि	-9.35283
▁दिनैबो	-9.35283
▁दिन्थिनानै	-9.35283
▁दिहुननो	-9.35283
▁दुइ	-9.35283
▁फावथिनानि	-9.35283
▁बारनानै	-9.35283
▁बिसार	-9.35283
▁बोथोर	-9.35283
▁बोरसि	-9.35283
▁भारतनि	-9.35283
▁महाराजा।	-9.35283
▁मानसिजों	-9.35283
▁मिहिर	-9.35283
▁मोनबा	-9.35283
▁मोनाखिसै।	-9.35283
▁मोन्नो	-9.35283
▁रʼ	-9.35283
▁सलʼमाया	-9.35283
▁साबायखर	-9.35283
▁स्नि	-9.35283
▁हयथʼ	-9.35283
▁हरनाय	-9.35283
▁हायोब्ला	-9.35283
▁होगोन।	-9.35283
▁"नै	-9.38562
▁(एसेयाव	-9.38562
▁(ख)	-9.38562
▁)।	-9.38562
▁अलʼकनि	-9.38562
▁आइनि	-9.38562
▁आसारि	-9.38562
▁इउ	-9.38562
▁उदु	-9.38562
▁उदैयाव	-9.38562
▁एखनब्ला	-9.38562
▁एसेयावनो	-9.38562
▁खाथियावनो	-9.38562
▁खोथाया	-9.38562
▁गाबनो	-9.38562
▁गाम्बारि	-9.38562
▁गावबो	-9.38562
▁गासे	-9.38562
▁गुन्दा	-9.38562
▁गोग्लैनाय	-9.38562
▁जुदा	-9.38562
▁जेंनाखौ	-9.38562
▁जोंरुवा	-9.38562
▁दसेनि	-9.38562
▁ना,	-9.38562
▁नाजानाय	-9.38562
▁फारसेथिं	-9.38562
▁बादलनि	-9.38562
▁बिगुर	-9.38562
▁बिलाइ,	-9.38562
▁बिस	-9.38562
▁बुंनायसै,	-9.38562
▁बुजिनो	-9.38562
▁महरनि	-9.38562
▁मादि	-9.38562
▁माबादि	-9.38562
▁मावग्रा	-9.38562
▁मावो।	-9.38562
▁मिथिंगानि	-9.38562
▁मैगं	-9.38562
▁मोनो,	-9.38562
▁रंजालि	-9.38562
▁राइजोफ्रा	-9.38562
▁रुमनि	-9.38562
▁लख्रानि	-9.38562
▁लांदां	-9.38562
▁लाबोनाय	-9.38562
▁शान्तिया।	-9.38562
▁समाया	-9.38562
▁साननि	-9.38562
▁सिनाय	-9.38562
▁हायो,	-9.38562
▁होना	-9.38562
▁होन्नाय	-9.38562
▁होब्ला	-9.38562
▁अनारि	-9.41952
▁आंनाव	-9.41952
▁आथिखाल	-9.41952
▁आफा,	-9.41952
▁एल.	-9.41952
▁कासारनि	-9.41952
▁खम	-9.41952
▁खान्थि	-9.41952
▁खावसे	-9.41952
▁खैफोदाव	-9.41952
▁गलायनानै	-9.41952
▁गासैखौबो	-9.41952
▁गेवलां	-9.41952
▁जात्रा	-9.41952
▁जिं	-9.41952
▁तुलारामा	-9.41952
▁थब	-9.41952
▁थाङा	-9.41952
▁थाया।	-9.41952
▁थालायाव	-9.41952
▁दरजा	-9.41952
▁दासिम	-9.41952
▁दे,	-9.41952
▁देहाया	-9.41952
▁दैमानि	-9.41952
▁नखौ	-9.41952
▁नोङो	-9.41952
▁फाहामसालियाव	-9.41952
▁बयखौबो	-9.41952
▁बानानै	-9.41952
▁बावदियानि	-9.41952
▁बाहायनानै	-9.41952
▁बिगुर,	-9.41952
▁बिलाइखौ	-9.41952
▁बिसोरबो	-9.41952
▁बेबायदि	-9.41952
▁बैसो	-9.41952
▁ब्लद	-9.41952
▁माइरं	-9.41952
▁मोदोमखौ	-9.41952
▁राजखान्थि	-9.41952
▁लादोंमोन।	-9.41952
▁लिरनो	-9.41952
▁सहेना	-9.41952
▁सायारामा	-9.41952
▁सिंआव	-9.41952
▁सिन	-9.41952
▁सुमिलाया	-9.41952
▁सोरखारा	-9.41952
▁हगारनानै	-9.41952
▁हाजʼवारीया	-9.41952
▁होनायाव	-9.41952
▁हो।	-9.41952
▁11	-9.45461
▁25	-9.45461
▁अख्राङाव	-9.45461
▁अरायनि	-9.45461
▁आलाइनि	-9.45461
▁आवथायाव	-9.45461
▁इं	-9.45461
▁इसिं	-9.45461
▁एबसुनि	-9.45461
▁औवा	-9.45461
▁खोनाबाय	-9.45461
▁गाब	-9.45461
▁गुन	-9.45461
▁जाथाइखौ	-9.45461
▁जायगानि	-9.45461
▁जारिमिनखौ	-9.45461
▁जेनʼ	-9.45461
▁डेभिद	-9.45461
▁थांखिया	-9.45461
▁दैजों	-9.45461
▁नʼखराव	-9.45461
▁नोंथʼ	-9.45461
▁फुङावनो	-9.45461
▁फैगोन।	-9.45461
▁फैलाव	-9.45461
▁फोरमायो।	-9.45461
▁बन्द	-9.45461
▁बाजुराम	-9.45461
▁बान्दि	-9.45461
▁बिजिरनानै	-9.45461
▁बिबारनि	-9.45461
▁बिमा-बिफानि	-9.45461
▁बिसिनायाव	-9.45461
▁बुहुमनि	-9.45461
▁बेखेवनानै	-9.45461
▁बोरमा	-9.45461
▁भकत	-9.45461
▁भारत	-9.45461
▁मनजुवा	-9.45461
▁माय	-9.45461
▁माहारि	-9.45461
▁मिथिगौ।	-9.45461
▁मुंराय	-9.45461
▁मोनाखै।	-9.45461
▁रोखायै	-9.45461
▁लिरगिरि	-9.45461
▁लुनानै	-9.45461
▁लुबैयो।	-9.45461
▁सन्देह	-9.45461
▁सिगांनि	-9.45461
▁सियाला	-9.45461
▁सुबुंफोरा	-9.45461
▁सुबुङा	-9.45461
▁सैथो	-9.45461
▁सोदोबथि	-9.45461
▁सोदोबा	-9.45461
▁हमथानो	-9.45461
▁हानो	-9.45461
▁हाबलाङो।	-9.45461
▁हाबाय	-9.45461
▁हाबाय।	-9.45461
▁24	-9.49098
▁5.	-9.49098
▁अनाथीया	-9.49098
▁आइजोआ	-9.49098
▁इंख्रि	-9.49098
▁एमाव	-9.49098
▁एसेग्राब	-9.49098
▁ककराझार	-9.49098
▁कल्पनाया।	-9.49098
▁खालामब्ला	-9.49098
▁खिन्थानो	-9.49098
▁खेवनानै	-9.49098
▁गारनो	-9.49098
▁गावसोर	-9.49098
▁गुलि	-9.49098
▁गोथाव	-9.49098
▁गोनांदि,	-9.49098
▁गोर्लै	-9.49098
▁गोहोनि	-9.49098
▁जागोन।"	-9.49098
▁जोबनो	-9.49098
▁ट्राक	-9.49098
▁थिं	-9.49098
▁थ्रोब	-9.49098
▁दं-	-9.49098
▁दाबसे	-9.49098
▁दावहानि	-9.49098
▁दाहोना	-9.49098
▁दि-	-9.49098
▁नंलिया।	-9.49098
▁नङाब्लाबो	-9.49098
▁नांनो	-9.49098
▁नागारनानै	-9.49098
▁नागिरो।	-9.49098
▁नायै	-9.49098
▁नार्जा	-9.49098
▁फरायसालिनि	-9.49098
▁फोजोबनो	-9.49098
▁फोलेर	-9.49098
▁बाथ्राखौनो	-9.49098
▁बानजायनाय	-9.49098
▁बिजि	-9.49098
▁बुंजायो।	-9.49098
▁बेथʼ	-9.49098
▁ब्रह्मवा	-9.49098
▁माबार।	-9.49098
▁मुस्रिमा	-9.49098
▁मेलाव	-9.49098
▁रजिया	-9.49098
▁राइजोफोरा	-9.49098
▁रुवाथि	-9.49098
▁लांनाय	-9.49098
▁लानानै।	-9.49098
▁लोरबां	-9.49098
▁शंकरा	-9.49098
▁संसारनि	-9.49098
▁सलʼमा।	-9.49098
▁सोंबाय--	-9.49098
▁हरो।	-9.49098
▁हानजा	-9.49098
▁हाब	-9.49098
▁हाल	-9.49098
▁"नाथाय	-9.52872
▁आखाय	-9.52872
▁आखुथाय	-9.52872
▁आदै	-9.52872
▁आनाराम	-9.52872
▁आबौ।	-9.52872
▁आलाइस्रिखौ	-9.52872
▁इन्दुप्रभा	-9.52872
▁ओंखारबाय।	-9.52872
▁ओंखारलाङो	-9.52872
▁कलेजनि	-9.52872
▁कासार	-9.52872
▁खनसाय	-9.52872
▁गिज्रा	-9.52872
▁गुन्दानि	-9.52872
▁गुसु	-9.52872
▁गैया।"	-9.52872
▁गोजोनै	-9.52872
▁गोमजोर	-9.52872
▁गोलाउ	-9.52872
▁जेखौ	-9.52872
▁जोंनानै	-9.52872
▁जोंबो	-9.52872
▁टेबिलाव	-9.52872
▁थावनि	-9.52872
▁था।	-9.52872
▁थैखौ	-9.52872
▁थौ	-9.52872
▁दाया	-9.52872
▁दिनैसो	-9.52872
▁दुर्जां	-9.52872
▁देरहाग्राया	-9.52872
▁नागिरनाय	-9.52872
▁नाय	-9.52872
▁नायजाबाव	-9.52872
▁नायहरो।	-9.52872
▁नायो।	-9.52872
▁नेर्सोन	-9.52872
▁नों,	-9.52872
▁प्रेमधरा	-9.52872
▁फावथाइगिरिया	-9.52872
▁फावथाया	-9.52872
▁फिसाइखौ	-9.52872
▁फोथाराव	-9.52872
▁फोरमायनो	-9.52872
▁बमा	-9.52872
▁बाराद्राय	-9.52872
▁बारान्दायाव	-9.52872
▁बिबानखौ	-9.52872
▁बिसिनि	-9.52872
▁बिसोरनो	-9.52872
▁बुंब्ला	-9.52872
▁बुनानै	-9.52872
▁बेजों	-9.52872
▁बोर	-9.52872
▁बोसोराव	-9.52872
▁मुंखʼनो	-9.52872
▁मुलिखौ	-9.52872
▁रादाब	-9.52872
▁रोमै	-9.52872
▁लामाया	-9.52872
▁लिरगिरिनि	-9.52872
▁लोगोआव	-9.52872
▁सान्नाय	-9.52872
▁सायावनो	-9.52872
▁स्कुलाव	-9.52872
▁हमथानानै	-9.52872
▁हानायनि	-9.52872
▁हुगारनानै	-9.52872
▁होग्रा	-9.52872
▁18	-9.56794
▁अफ	-9.56794
▁अब्राम	-9.56794
▁आच्छा	-9.56794
▁आफादाव	-9.56794
▁आबौ,	-9.56794
▁आलाइखौ	-9.56794
▁आलाइस्रि	-9.56794
▁एखनबा	-9.56794
▁खामानिनि	-9.56794
▁खुगाजों	-9.56794
▁खोनासंनो	-9.56794
▁गाबनि	-9.56794
▁गिनो	-9.56794
▁गिलुं	-9.56794
▁गोग्लैयो।	-9.56794
▁गोबारै	-9.56794
▁गोसा	-9.56794
▁गोहोआ	-9.56794
▁जानो।	-9.56794
▁जेनबा	-9.56794
▁जोबनाय	-9.56794
▁जोमैया	-9.56794
▁टाउनाव	-9.56794
▁ड्रइं	-9.56794
▁दाद्रि	-9.56794
▁दावा	-9.56794
▁दिहुननाय	-9.56794
▁देरहासार	-9.56794
▁नेम	-9.56794
▁नोंसिनि	-9.56794
▁नोंसोरखौ	-9.56794
▁फाइल	-9.56794
▁बहाबा	-9.56794
▁बादि।	-9.56794
▁बाला	-9.56794
▁बावदिया	-9.56794
▁बिगोमा	-9.56794
▁बुजिबाय	-9.56794
▁बेवहायनो	-9.56794
▁मावनायनि	-9.56794
▁मिहिरनि	-9.56794
▁मोखांजों	-9.56794
▁मोनाबिलियाव	-9.56794
▁मोन्नै	-9.56794
▁राइजोफोरनि	-9.56794
▁राहाजों	-9.56794
▁रोङा	-9.56794
▁रोङा।	-9.56794
▁लांबाय।	-9.56794
▁लानानैनो	-9.56794
▁लाबोयो	-9.56794
▁लेङाइ	-9.56794
▁समखौ	-9.56794
▁साननाया	-9.56794
▁सान्नो	-9.56794
▁सिगाङावनो	-9.56794
▁सिमान	-9.56794
▁सुख	-9.56794
▁सुरनानै	-9.56794
▁सेथि	-9.56794
▁सोरबाफोर	-9.56794
▁सोलायनानै	-9.56794
▁सोलायनाय	-9.56794
▁हमदों।	-9.56794
▁हमना	-9.56794
▁हरो	-9.56794
▁हानि	-9.56794
▁हान्जानि	-9.56794
▁हेलारामा	-9.56794
▁.....	-9.60876
▁23	-9.60876
▁August,	-9.60876
▁अफिस	-9.60876
▁अरखिया	-9.60876
▁आग्रां	-9.60876
▁आनारीखौ	-9.60876
▁आय	-9.60876
▁आसा	-9.60876
▁ओइ	-9.60876
▁कमिटिनि	-9.60876
▁कम्पिउटारा	-9.60876
▁खनायाव	-9.60876
▁खालामनाया	-9.60876
▁खुरै	-9.60876
▁खेबनै	-9.60876
▁खोमायाव	-9.60876
▁गं	-9.60876
▁गाइखेर	-9.60876
▁गेदेमा	-9.60876
▁गोथे	-9.60876
▁गोदाननि	-9.60876
▁गोबा	-9.60876
▁गोरोब	-9.60876
▁जानाय।	-9.60876
▁जाब्लानो	-9.60876
▁जारिमिन	-9.60876
▁जाहोन	-9.60876
▁जोमै	-9.60876
▁थबेन-	-9.60876
▁थां।	-9.60876
▁थालानि	-9.60876
▁थैबाय	-9.60876
▁दंबावो	-9.60876
▁दखना	-9.60876
▁दयाराम	-9.60876
▁दरखं	-9.60876
▁दानानै	-9.60876
▁दायखौ	-9.60876
▁नʼखरनि	-9.60876
▁नांगोन।	-9.60876
▁नायो	-9.60876
▁निजोम	-9.60876
▁नुना	-9.60876
▁पुलिसा	-9.60876
▁फरायनानै	-9.60876
▁फिननाय	-9.60876
▁फुङाव	-9.60876
▁फैया	-9.60876
▁बडʼ	-9.60876
▁बडʼलेण्ड	-9.60876
▁बसुमतारी	-9.60876
▁बाबुवा	-9.60876
▁बारगʼ	-9.60876
▁बिनाराम-	-9.60876
▁बियो-	-9.60876
▁बुंनायसाय	-9.60876
▁बेरखांदों।	-9.60876
▁बेसेबांबा	-9.60876
▁बोथोरनि	-9.60876
▁मन्जुखौ	-9.60876
▁मा,	-9.60876
▁मिथिनानै	-9.60876
▁मुगायाव	-9.60876
▁मोदैखौ	-9.60876
▁मोनदोंमोन	-9.60876
▁मोनब्रै	-9.60876
▁मोनसेया	-9.60876
▁मोनाबिलि	-9.60876
▁या	-9.60876
▁रंजालिया	-9.60876
▁रैखाथिनि	-9.60876
▁लाहार	-9.60876
▁संख्रि	-9.60876
▁सरासनस्रायै	-9.60876
▁साइकेलखौ	-9.60876
▁सानैनि	-9.60876
▁सारिनि	-9.60876
▁सासेबो	-9.60876
▁सिलाया	-9.60876
▁सुदेम	-9.60876
▁सुफुंनो	-9.60876
▁सेनानै	-9.60876
▁सो	-9.60876
▁स्रोद	-9.60876
▁हमनाय	-9.60876
▁हादोरगिरि	-9.60876
▁होनांगौ	-9.60876
▁अ,	-9.65132
▁अन्नाय	-9.65132
▁अफिसार	-9.65132
▁अलकाखौ	-9.65132
▁आंहा।	-9.65132
▁आनारामा	-9.65132
▁आफादगिरि।	-9.65132
▁आहार	-9.65132
▁इराग्दावनि	-9.65132
▁खानाय	-9.65132
▁खालामनांगौ	-9.65132
▁खें	-9.65132
▁ख्रे	-9.65132
▁गंनै	-9.65132
▁गलʼवा।	-9.65132
▁गस्ला	-9.65132
▁गैयाब्लाबो	-9.65132
▁गोसोवाव	-9.65132
▁घन्टा	-9.65132
▁ज	-9.65132
▁जाबाय-	-9.65132
▁जाबाय।"	-9.65132
▁जासे	-9.65132
▁जाहार	-9.65132
▁जाहोनाव	-9.65132
▁जिबा	-9.65132
▁जिरायनाय	-9.65132
▁टेबिल	-9.65132
▁था.	-9.65132
▁थानाया	-9.65132
▁थिलियाव	-9.65132
▁दाजाबदाखौ	-9.65132
▁दानायाव	-9.65132
▁दाफोदार	-9.65132
▁दिन्थिदों।	-9.65132
▁दिल्लीयाव	-9.65132
▁दुबफुं	-9.65132
▁दुर्जांनि	-9.65132
▁देरहाग्रानि	-9.65132
▁दोन्नाय	-9.65132
▁नङामोन	-9.65132
▁नवा	-9.65132
▁नवावनो	-9.65132
▁नागिरनो	-9.65132
▁नागिरो	-9.65132
▁नाजादों।	-9.65132
▁नाजायो।	-9.65132
▁नुब्ला	-9.65132
▁फालो	-9.65132
▁बाथुवाया	-9.65132
▁बामुन	-9.65132
▁बायजो	-9.65132
▁बाहाय	-9.65132
▁बाहायो।	-9.65132
▁बिलिफाङा।	-9.65132
▁बिसिया	-9.65132
▁बिसोरजों	-9.65132
▁बिहा।	-9.65132
▁बुङै	-9.65132
▁बेरखां	-9.65132
▁बेरखाङो।	-9.65132
▁बेलस्रिया	-9.65132
▁बे।	-9.65132
▁बोब्ला	-9.65132
▁ब्रै	-9.65132
▁मनजुलाया	-9.65132
▁महाराजानि	-9.65132
▁माना	-9.65132
▁मैदेर	-9.65132
▁मोजांनि	-9.65132
▁मोजां।	-9.65132
▁मोजाङैनो	-9.65132
▁मोदाइ	-9.65132
▁मोननाया	-9.65132
▁मोननि	-9.65132
▁मोनब्लाबो	-9.65132
▁रांजों	-9.65132
▁लाइमोन	-9.65132
▁लोब	-9.65132
▁समाजा	-9.65132
▁सानबाय-	-9.65132
▁सानाय	-9.65132
▁सार	-9.65132
▁सिथ्लायाव	-9.65132
▁सिरि।	-9.65132
▁सिलाइ	-9.65132
▁हगार	-9.65132
▁हरा	-9.65132
▁होफैयो।	-9.65132
▁हारिमु	-9.6733
▁अनसुंथाइ	-9.69578
▁अलका	-9.69578
▁आंसो	-9.69578
▁आंहाबो	-9.69578
▁आइ,	-9.69578
▁आखलनि	-9.69578
▁आनान	-9.69578
▁इनायनो	-9.69578
▁एन.	-9.69578
▁कमाण्डखौ	-9.69578
▁खफʼ	-9.69578
▁खालामबावनो	-9.69578
▁गंफा	-9.69578
▁गाबनाय	-9.69578
▁गारांजों	-9.69578
▁गुदियाव	-9.69578
▁गुदुंजों	-9.69578
▁गुसुं	-9.69578
▁गैला।	-9.69578
▁गोजौनि	-9.69578
▁गोमोथाव	-9.69578
▁जयो	-9.69578
▁जा,	-9.69578
▁जागोन,	-9.69578
▁जायखिजाया	-9.69578
▁जालाङो।	-9.69578
▁जाहोनो	-9.69578
▁जिबौ	-9.69578
▁जेकेटखौ	-9.69578
▁जोंनाव	-9.69578
▁जौनि	-9.69578
▁थान्दै	-9.69578
▁थामथि	-9.69578
▁थैनाय	-9.69578
▁थैनो	-9.69578
▁दांनानै	-9.69578
▁दिन्थियो	-9.69578
▁दिहुननानै	-9.69578
▁दुंहाव	-9.69578
▁देहायाव	-9.69578
▁दोननो	-9.69578
▁दोनो।	-9.69578
▁नंगुबै	-9.69578
▁नंगौ।	-9.69578
▁नागिरदों।	-9.69578
▁नाजादोंमोन।	-9.69578
▁नुजागोन।	-9.69578
▁नोंथांखौ	-9.69578
▁फाथो	-9.69578
▁फाहार	-9.69578
▁फिसाज्लाखौ	-9.69578
▁फिसाफोरखौ	-9.69578
▁फेस्ला	-9.69578
▁फैगोन	-9.69578
▁फैयाखै।	-9.69578
▁बबेनि	-9.69578
▁बसुमतारीया	-9.69578
▁बांद्राय	-9.69578
▁बाजि	-9.69578
▁बाथ्राफोरखौ	-9.69578
▁बायदियै	-9.69578
▁बायनो	-9.69578
▁बारियाव	-9.69578
▁बिजिरनाय	-9.69578
▁बिफां,	-9.69578
▁बेमारि	-9.69578
▁बेराम	-9.69578
▁बेसाद	-9.69578
▁बैसोआ	-9.69578
▁बोनो	-9.69578
▁मंगलसिं	-9.69578
▁मखʼजाथाव	-9.69578
▁मथे	-9.69578
▁माखन	-9.69578
▁माथो।	-9.69578
▁मानोना,	-9.69578
▁मावरिया	-9.69578
▁माहारियारि	-9.69578
▁मोनखो	-9.69578
▁मोननायखौ	-9.69578
▁मोन्दों।	-9.69578
▁मोन्नाया	-9.69578
▁राज	-9.69578
▁राम	-9.69578
▁रायलायनो	-9.69578
▁रेजें	-9.69578
▁लं	-9.69578
▁लाजिनाय	-9.69578
▁लोगोनि	-9.69578
▁शान्तिखौ	-9.69578
▁साजों	-9.69578
▁सानदों।	-9.69578
▁सानबाय।	-9.69578
▁सालि	-9.69578
▁सावनानै	-9.69578
▁सिनेमा	-9.69578
▁सु	-9.69578
▁सुजुग्रा	-9.69578
▁सोरखारि	-9.69578
▁हाथाय	-9.69578
▁हामो।	-9.69578
▁हायैनि	-9.69578
▁"नोंथाङा	-9.7423
▁"सोर	-9.7423
▁......	-9.7423
▁6	-9.7423
▁अनसुला	-9.7423
▁अरहे	-9.7423
▁आं-	-9.7423
▁आंनिफ्राय	-9.7423
▁आखाइनिफ्राय	-9.7423
▁आखु,	-9.7423
▁आद्रा	-9.7423
▁आमाइ	-9.7423
▁आयदायाव	-9.7423
▁आरतिया।	-9.7423
▁इंराजि	-9.7423
▁इयुन	-9.7423
▁इस	-9.7423
▁उनावबो	-9.7423
▁के	-9.7423
▁केसखौ	-9.7423
▁क्लास	-9.7423
▁खरʼनि	-9.7423
▁खानाइखौ	-9.7423
▁खिन्थि	-9.7423
▁गंस्रिनानै	-9.7423
▁गुरैयै	-9.7423
▁गेजेरनि	-9.7423
▁गोगो	-9.7423
▁गोजों	-9.7423
▁गोदाना	-9.7423
▁गोरा।	-9.7423
▁जनो	-9.7423
▁जयो।	-9.7423
▁जायगाखौ	-9.7423
▁जारौ	-9.7423
▁जिनिस	-9.7423
▁जिराय	-9.7423
▁जिरायनो	-9.7423
▁जेना,	-9.7423
▁थांखो	-9.7423
▁थागिबि	-9.7423
▁थाङा।	-9.7423
▁थानांगौ	-9.7423
▁थाया	-9.7423
▁थारै	-9.7423
▁थाल	-9.7423
▁थिर	-9.7423
▁थुनलायाव	-9.7423
▁थेफेनखौ	-9.7423
▁दाना	-9.7423
▁दानाव	-9.7423
▁दालाइ	-9.7423
▁देग्लाय	-9.7423
▁दैखौ	-9.7423
▁नायोब्ला	-9.7423
▁नेबाय	-9.7423
▁नोगोरनि	-9.7423
▁फालांगियारि	-9.7423
▁फाहामथायनि	-9.7423
▁फुजा	-9.7423
▁फैगासिनो	-9.7423
▁फोथाय	-9.7423
▁फोरमायनानै	-9.7423
▁फोसावनाय	-9.7423
▁बसुमतारी,	-9.7423
▁बादल,	-9.7423
▁बानजायनो	-9.7423
▁बिखुङाव	-9.7423
▁बिखौनो	-9.7423
▁बिनानै	-9.7423
▁बिलाइनि	-9.7423
▁बिलिफां	-9.7423
▁बुंनायसै	-9.7423
▁बुंनायसै-	-9.7423
▁बुनो	-9.7423
▁बेखेवगास्नि	-9.7423
▁बेगर	-9.7423
▁बेलखौ	-9.7423
▁बेलाय	-9.7423
▁बोराइ	-9.7423
▁बोसोन	-9.7423
▁मनजुनि	-9.7423
▁मलेनजों	-9.7423
▁महना	-9.7423
▁माब्लाबाबो	-9.7423
▁मावथि	-9.7423
▁मोदोमा	-9.7423
▁मोननैजों	-9.7423
▁मोन्दों	-9.7423
▁रंजानायनि	-9.7423
▁राइजोआ	-9.7423
▁लारि	-9.7423
▁समाजारि	-9.7423
▁सरकारनि	-9.7423
▁सलʼ,	-9.7423
▁सलʼ।	-9.7423
▁सानदोंमोन	-9.7423
▁सानैया	-9.7423
▁सान्नाया	-9.7423
▁सेप्तेम्बरखालि	-9.7423
▁सोमबोरा	-9.7423
▁स्रा	-9.7423
▁हारसिंनो	-9.7423
▁होयै	-9.7423
▁"नंगौ	-9.79109
▁.........	-9.79109
▁21	-9.79109
▁4	-9.79109
▁अनसाय	-9.79109
▁अन्थाइ	-9.79109
▁अब्लानो	-9.79109
▁अलकानि	-9.79109
▁आगदा	-9.79109
▁आमाय	-9.79109
▁उन्दु	-9.79109
▁उल्था	-9.79109
▁एइ	-9.79109
▁एस.	-9.79109
▁ओंखारो।	-9.79109
▁ओनसोलनि	-9.79109
▁कक्राझार	-9.79109
▁कमल	-9.79109
▁खथा	-9.79109
▁खामसालियाव	-9.79109
▁खुन्दुं	-9.79109
▁खोन्दो	-9.79109
▁गर	-9.79109
▁गलʼखौ	-9.79109
▁गाननानै	-9.79109
▁गाबो।	-9.79109
▁गावबुरा	-9.79109
▁गिथाव	-9.79109
▁गोग्लैयो	-9.79109
▁गोजाननि	-9.79109
▁गोर	-9.79109
▁गोरिब	-9.79109
▁गोसोया	-9.79109
▁जयै	-9.79109
▁जानाय,	-9.79109
▁जायफोर	-9.79109
▁जोहोलावनि	-9.79109
▁थबेन	-9.79109
▁थांदिनि	-9.79109
▁थांदों।	-9.79109
▁थानांगोन।	-9.79109
▁थाबै	-9.79109
▁थारैब्ला	-9.79109
▁थाला	-9.79109
▁थुनफावथाइनि	-9.79109
▁दंना	-9.79109
▁दर	-9.79109
▁दामै	-9.79109
▁दावबाय	-9.79109
▁दासान्दि	-9.79109
▁दिउ	-9.79109
▁नायबाय।	-9.79109
▁नायहरबाय	-9.79109
▁नार्जारीया	-9.79109
▁निदान	-9.79109
▁नेहाथारि	-9.79109
▁नेहाद	-9.79109
▁फालांगि	-9.79109
▁फिसाजोआ	-9.79109
▁फोजोबनानै	-9.79109
▁फोरमायग्रा	-9.79109
▁बडʼलेण्डनि	-9.79109
▁बाथि	-9.79109
▁बाबु।	-9.79109
▁बायजोयाव	-9.79109
▁बावदियाया	-9.79109
▁बाहागोनि	-9.79109
▁बुंहरबाय--	-9.79109
▁बुरै	-9.79109
▁बेखेवगानै	-9.79109
▁भरम	-9.79109
▁भारा	-9.79109
▁मन्स	-9.79109
▁मानिनां	-9.79109
▁मानिबा	-9.79109
▁मेंनाय	-9.79109
▁मोखांनि	-9.79109
▁मोदैया	-9.79109
▁मोनजाया।	-9.79109
▁मोनैनि	-9.79109
▁रावजोंबो	-9.79109
▁राव।	-9.79109
▁रिंगायाव	-9.79109
▁रेन्जारा	-9.79109
▁ला	-9.79109
▁लांगोनायाव	-9.79109
▁लांबाय	-9.79109
▁लुबैनायखौ	-9.79109
▁शान्ति	-9.79109
▁सानस्रि	-9.79109
▁सान्दोंमोन	-9.79109
▁सावगारिखौ	-9.79109
▁सावरायनो	-9.79109
▁सासेनि	-9.79109
▁सासेलʼ	-9.79109
▁साहाखौ	-9.79109
▁सिलाराम	-9.79109
▁सुनि	-9.79109
▁सेंग्राफ्रा	-9.79109
▁सेप्तेम्बराव	-9.79109
▁सोंनानै	-9.79109
▁सोद्रोमा	-9.79109
▁सोरखौबा	-9.79109
▁हा-हु	-9.79109
▁हांखोजों	-9.79109
▁हांगार	-9.79109
▁हाग्रायाव	-9.79109
▁हाजासे	-9.79109
▁हाजोनि	-9.79109
▁हाबाफारियाव	-9.79109
▁हिसाब	-9.79109
▁"दे	-9.84238
▁16	-9.84238
▁6.	-9.84238
▁अखानायै	-9.84238
▁अजद	-9.84238
▁आंखौ।	-9.84238
▁आइया	-9.84238
▁आथिंखौ	-9.84238
▁आदार	-9.84238
▁आयदाखौ	-9.84238
▁उ,	-9.84238
▁ए,	-9.84238
▁कल्पना,	-9.84238
▁खबर	-9.84238
▁खाइला	-9.84238
▁खावलायाव	-9.84238
▁खुगाया	-9.84238
▁खोमदोना	-9.84238
▁खौसे	-9.84238
▁गां	-9.84238
▁गांनै	-9.84238
▁गासिनो	-9.84238
▁गोखा	-9.84238
▁गोबावनि	-9.84238
▁गोमानाय	-9.84238
▁जमा	-9.84238
▁जायगायावनो	-9.84238
▁जायाखिसै।	-9.84238
▁जेला	-9.84238
▁जेसे	-9.84238
▁जोंलाय	-9.84238
▁ट्राइबेलफोरनि	-9.84238
▁थांदो।	-9.84238
▁थांनायनि	-9.84238
▁थांनायाव	-9.84238
▁थादों	-9.84238
▁थानानि	-9.84238
▁थामथिम	-9.84238
▁थुनफावथाइ	-9.84238
▁थैया	-9.84238
▁दʼ	-9.84238
▁दां	-9.84238
▁दाजाबदाया	-9.84238
▁दालाय	-9.84238
▁दुपसावफा	-9.84238
▁दैख्रं	-9.84238
▁दैदेनगिरि	-9.84238
▁दैमा	-9.84238
▁द्रइं	-9.84238
▁धोन	-9.84238
▁नङालै	-9.84238
▁नायगोन	-9.84238
▁नुदों	-9.84238
▁नोंखि	-9.84238
▁न।	-9.84238
▁पुराना	-9.84238
▁फटʼखौ	-9.84238
▁फारियाया	-9.84238
▁फुंखा	-9.84238
▁फैब्ला	-9.84238
▁फोर	-9.84238
▁बाजिनि	-9.84238
▁बायनाय	-9.84238
▁बारगʼनो	-9.84238
▁बारनाय	-9.84238
▁बारनि	-9.84238
▁बासा	-9.84238
▁बिजिरगिरिया	-9.84238
▁बिनानाव।	-9.84238
▁बिलिफांखौ	-9.84238
▁बिसिना	-9.84238
▁बुंनांगौ	-9.84238
▁बेखेवगाथाम	-9.84238
▁बेदद	-9.84238
▁बेलायाव	-9.84238
▁मबेबा	-9.84238
▁महनलालनि	-9.84238
▁मावो	-9.84238
▁मासि	-9.84238
▁मिनिनाय	-9.84238
▁मुंखʼनांदि,	-9.84238
▁मुवाफोरखौ	-9.84238
▁मेट्रिक	-9.84238
▁मोथो	-9.84238
▁मोदैजों	-9.84238
▁मोनायाव	-9.84238
▁मोनोब्ला	-9.84238
▁रावआ	-9.84238
▁रुंसारि	-9.84238
▁रुमनिफ्राय	-9.84238
▁रैसुमै	-9.84238
▁रोखोमै	-9.84238
▁रोन	-9.84238
▁रोनाव	-9.84238
▁लाखिनानै	-9.84238
▁लादोंमोन	-9.84238
▁लोगो।	-9.84238
▁लोङो	-9.84238
▁संगालि	-9.84238
▁समनिफ्रायनो	-9.84238
▁सम।	-9.84238
▁सलʼफोरा	-9.84238
▁साथाम	-9.84238
▁सार।"	-9.84238
▁सावगारिया	-9.84238
▁सावराय	-9.84238
▁सिखा	-9.84238
▁सिगांनो	-9.84238
▁सुशान्तवा	-9.84238
▁सेयाराव	-9.84238
▁सोदोबजों	-9.84238
▁हमनायसै।	-9.84238
▁हरखाबै	-9.84238
▁हांगारिया	-9.84238
▁हाखराव	-9.84238
▁हादराव	-9.84238
▁हाबाफारिखौ	-9.84238
▁हाबाफारिनि	-9.84238
▁हामा	-9.84238
▁हे	-9.84238
▁होम्बा	-9.84238
▁जारिमिननि	-9.86905
▁"फा	-9.89645
▁30	-9.89645
▁I	-9.89645
▁अक्टबर	-9.89645
▁अन	-9.89645
▁अनसुलि	-9.89645
▁अरा	-9.89645
▁आंदि	-9.89645
▁आयदानि	-9.89645
▁आलाइया।	-9.89645
▁आवगायाव	-9.89645
▁एफाग्राफ	-9.89645
▁ओंखारनो	-9.89645
▁ओंखारलाङो)	-9.89645
▁ओनसोलाव	-9.89645
▁खालामनायखौ	-9.89645
▁खालाय	-9.89645
▁खोनानै	-9.89645
▁गथʼफोरखौ	-9.89645
▁गावसिनि	-9.89645
▁गेट	-9.89645
▁गोजाननिफ्राय	-9.89645
▁गोमा	-9.89645
▁गोर्बोनि	-9.89645
▁जʼयो।	-9.89645
▁जागासिनो	-9.89645
▁जालांदों।	-9.89645
▁जु	-9.89645
▁जेनिबो	-9.89645
▁जौखौ	-9.89645
▁थाइजा	-9.89645
▁थाखा	-9.89645
▁थाखाय,	-9.89645
▁थाजिम	-9.89645
▁थिउरियाफोरा	-9.89645
▁थुनलाइयाव	-9.89645
▁थैयो	-9.89645
▁थोजासे	-9.89645
▁दाइनिं	-9.89645
▁दाजाबनाय	-9.89645
▁दिनैनो	-9.89645
▁दुखुथिया	-9.89645
▁दोनबाय।	-9.89645
▁नागिरना	-9.89645
▁नाजानायाव	-9.89645
▁नाथ	-9.89645
▁नार्जारी	-9.89645
▁नुवाखै	-9.89645
▁नेरसोन	-9.89645
▁नोंखौनो	-9.89645
▁नोंसो	-9.89645
▁नोगोराव	-9.89645
▁नोजोरजों	-9.89645
▁प्रग्राम	-9.89645
▁फंनैसो	-9.89645
▁फंबाय।	-9.89645
▁फारनैजों	-9.89645
▁फुदुंनानै	-9.89645
▁फोलेरनि	-9.89645
▁बबेयाव	-9.89645
▁बहननानै	-9.89645
▁बांला	-9.89645
▁बाजाराव	-9.89645
▁बायदिनो	-9.89645
▁बारि	-9.89645
▁बावनानै	-9.89645
▁बाहायनायखौ	-9.89645
▁बिदिबादि	-9.89645
▁बिमा-बिफा	-9.89645
▁बिसोर।	-9.89645
▁बुंखो	-9.89645
▁बुंबाय।	-9.89645
▁बुरैया	-9.89645
▁बेंगा	-9.89645
▁बेखेवगासे	-9.89645
▁बोदोर	-9.89645
▁भारतारि	-9.89645
▁मानसियानो	-9.89645
▁माबा-माबि	-9.89645
▁मिनियो।	-9.89645
▁मुंख्लं	-9.89645
▁मुंमानि	-9.89645
▁मुश्री	-9.89645
▁मेगनखौ	-9.89645
▁मेमʼरि	-9.89645
▁राजाखौ	-9.89645
▁रिंसारखौ	-9.89645
▁रोङा,	-9.89645
▁लाबो	-9.89645
▁लिरनायाव	-9.89645
▁लुबैया।	-9.89645
▁लेंग्रा	-9.89645
▁लोगोनो	-9.89645
▁समायस्रीया	-9.89645
▁सलʼमाखौ	-9.89645
▁सांग्रांथि	-9.89645
▁सानजा	-9.89645
▁सानैसो	-9.89645
▁सायाराम	-9.89645
▁सिमा	-9.89645
▁सुखु	-9.89645
▁सुथुरा	-9.89645
▁सेंग्राफोरा	-9.89645
▁सैबारीया	-9.89645
▁सोङो-	-9.89645
▁सोमावसारनायनि	-9.89645
▁सोरजिनो	-9.89645
▁हमदांनो	-9.89645
▁हरबाय	-9.89645
▁हरबिलासा	-9.89645
▁हांखोआ	-9.89645
▁हाजेव	-9.89645
▁हाबनो	-9.89645
▁हामला	-9.89645
▁हावरिया	-9.89645
▁हिन्दु	-9.89645
▁हुगारो	-9.89645
▁होनबा	-9.89645
▁होनायखौ	-9.89645
▁होयोब्ला	-9.89645
▁।।	-9.89645
▁"आरो	-9.9536
▁(4)	-9.9536
▁,	-9.9536
▁22	-9.9536
▁50	-9.9536
▁8	-9.9536
▁Windows	-9.9536
▁in	-9.9536
▁अख्रांनि	-9.9536
▁अननायनि	-9.9536
▁अनिमाया	-9.9536
▁अमब्रागं	-9.9536
▁अरखौ	-9.9536
▁आखुथायनि	-9.9536
▁आथिंनि	-9.9536
▁आदै,	-9.9536
▁आनजादाव	-9.9536
▁आबाद	-9.9536
▁आरति	-9.9536
▁आरतिया	-9.9536
▁इ,	-9.9536
▁इयुननि	-9.9536
▁उ	-9.9536
▁उन्दुग्रा	-9.9536
▁उन्दुनाय	-9.9536
▁उन्दैनिफ्राय	-9.9536
▁कमाण्ड	-9.9536
▁केस	-9.9536
▁खनसाया।	-9.9536
▁खाफालखौ	-9.9536
▁खाफालनि	-9.9536
▁खायनो	-9.9536
▁खालामदोंमोन।	-9.9536
▁खावनानै	-9.9536
▁खुनु	-9.9536
▁खुलुमनानै	-9.9536
▁खेमा	-9.9536
▁खोथायाव	-9.9536
▁गमामायैनो	-9.9536
▁गय-फाथै	-9.9536
▁गयथिखौ	-9.9536
▁गांफा	-9.9536
▁गाब्रै	-9.9536
▁गामियारि	-9.9536
▁गावरावा	-9.9536
▁गाहाय।	-9.9536
▁गिदिंनानै	-9.9536
▁गिलिद	-9.9536
▁गैलिया	-9.9536
▁गोथां,	-9.9536
▁गोब्राब।	-9.9536
▁गोयै	-9.9536
▁जाम्बा	-9.9536
▁जिङाव	-9.9536
▁जिसे	-9.9536
▁जोहोलाव।	-9.9536
▁ड्रयिं	-9.9536
▁थं	-9.9536
▁थांगासिनो	-9.9536
▁थाखायसो	-9.9536
▁थानायसै।	-9.9536
▁थिउरिया	-9.9536
▁दंखायो।	-9.9536
▁दंफांनि	-9.9536
▁दंब्ला	-9.9536
▁ददेरे	-9.9536
▁दरबासिखौ	-9.9536
▁दामनाय	-9.9536
▁दासान	-9.9536
▁दि,	-9.9536
▁दिनाव	-9.9536
▁दुखुखौ	-9.9536
▁दोनदों।	-9.9536
▁दोन्नो	-9.9536
▁नʼखौ	-9.9536
▁नंगौ,	-9.9536
▁नंला।	-9.9536
▁नरेना	-9.9536
▁नागिरब्ला	-9.9536
▁नाङो।	-9.9536
▁निस्थार	-9.9536
▁नेगासिनो	-9.9536
▁नोंनाव	-9.9536
▁नोगोर	-9.9536
▁नोगोरमानि	-9.9536
▁नोजोरा	-9.9536
▁फʼन	-9.9536
▁फाराग	-9.9536
▁फुरा	-9.9536
▁फैसा	-9.9536
▁फैसालि	-9.9536
▁फोरजा	-9.9536
▁बाजियाव	-9.9536
▁बानायनाय	-9.9536
▁बारनो	-9.9536
▁बाराव	-9.9536
▁बाहागोखौ	-9.9536
▁बिथांखौ	-9.9536
▁बिथांमोननि	-9.9536
▁बिनहारी	-9.9536
▁बिब्दिब्ला	-9.9536
▁बुङाखिसै।	-9.9536
▁बेखेवगाबा	-9.9536
▁बेखेवगाब्रै	-9.9536
▁बेखौलʼ	-9.9536
▁बेल	-9.9536
▁बोखांनानै	-9.9536
▁बोरायखौ	-9.9536
▁बोलोजों	-9.9536
▁ब्रह्म,	-9.9536
▁माननि	-9.9536
▁मानो,	-9.9536
▁मा।	-9.9536
▁मिथिनाय	-9.9536
▁मोगा-मोगि	-9.9536
▁मोनग्रा	-9.9536
▁मोनाखै	-9.9536
▁रथʼ	-9.9536
▁रां।	-9.9536
▁राजखान्थिनि	-9.9536
▁राजि	-9.9536
▁रेल	-9.9536
▁लागोन	-9.9536
▁लाबोदों	-9.9536
▁वेब	-9.9536
▁संनो	-9.9536
▁साननै	-9.9536
▁सालाइ	-9.9536
▁सालाया	-9.9536
▁सालिसनि	-9.9536
▁सालिसाव	-9.9536
▁साहित्य	-9.9536
▁सि.	-9.9536
▁सिखारो	-9.9536
▁सिख्लाखौ	-9.9536
▁सिगांआव	-9.9536
▁सिनो	-9.9536
▁सुथि	-9.9536
▁सुबुंखौ	-9.9536
▁सुबुंफोरखौ	-9.9536
▁सेन्देल	-9.9536
▁सेरजों	-9.9536
▁सेवारिया	-9.9536
▁सोनारनानै	-9.9536
▁सोमावसारनाय	-9.9536
▁सोरजिनाय	-9.9536
▁सोलायो।	-9.9536
▁स्टार्ट	-9.9536
▁हटेलाव	-9.9536
▁हरदों।	-9.9536
▁हाग्रानि	-9.9536
▁हाथायाव	-9.9536
▁हादरखौ	-9.9536
▁हाबहैबाय।	-9.9536
▁हामबुरा	-9.9536
▁हिन्जावफोरा	-9.9536
▁हिन्जावसा	-9.9536
▁हेफाजाबै	-9.9536
▁हेला	-9.9536
▁होदो	-9.9536
▁होनाया	-9.9536
▁हौवानि	-9.9536
▁नोजोराव	-9.98346
▁---	-10.0142
▁13	-10.0142
▁14	-10.0142
▁26	-10.0142
▁7	-10.0142
▁The	-10.0142
▁your	-10.0142
▁अʼ	-10.0142
▁अगेन	-10.0142
▁अनजिमा	-10.0142
▁अन्नायखौ	-10.0142
▁अरनानै	-10.0142
▁अलʼक	-10.0142
▁आंनि।	-10.0142
▁आइयै	-10.0142
▁आखुफोरा	-10.0142
▁आगोलनि	-10.0142
▁आजावनो	-10.0142
▁आनारीनि	-10.0142
▁इयुनाव	-10.0142
▁एम्बुवा	-10.0142
▁ओंखारो	-10.0142
▁ओरै	-10.0142
▁कमाण्ड।	-10.0142
▁खाजा	-10.0142
▁खानाया	-10.0142
▁खालामग्रा	-10.0142
▁खालायनानै	-10.0142
▁खावलाय	-10.0142
▁खुरनानै	-10.0142
▁खेंफोरथि	-10.0142
▁खैफोदनि	-10.0142
▁खोब	-10.0142
▁खोला	-10.0142
▁गंगार	-10.0142
▁गथायनानै	-10.0142
▁गनायथि	-10.0142
▁गसंनो	-10.0142
▁गाथाम	-10.0142
▁गानै	-10.0142
▁गान्नानै	-10.0142
▁गाबदों	-10.0142
▁गिलु-बालु	-10.0142
▁गु	-10.0142
▁गुसुङै	-10.0142
▁गेटाव	-10.0142
▁गैलामोन।	-10.0142
▁गोख्रोङै	-10.0142
▁गोमो	-10.0142
▁गोर्बोआव	-10.0142
▁चित्तरन्जन	-10.0142
▁जʼनानै	-10.0142
▁जाति	-10.0142
▁जानायमोन।	-10.0142
▁जानायसै।	-10.0142
▁जाफुंसार	-10.0142
▁जाबावनो	-10.0142
▁जायो।"	-10.0142
▁जासेनो	-10.0142
▁जिउवा	-10.0142
▁जिरादखौ	-10.0142
▁जुलिनि	-10.0142
▁जोबनानै	-10.0142
▁जोबबाय।	-10.0142
▁जोलैनि	-10.0142
▁टेबिलनि	-10.0142
▁थांनाया	-10.0142
▁थांनोसै।	-10.0142
▁थांहां	-10.0142
▁थाखोआव	-10.0142
▁थादोंमोन	-10.0142
▁थार।	-10.0142
▁थुबुर	-10.0142
▁थैनानै	-10.0142
▁दंबावो।	-10.0142
▁दङ,	-10.0142
▁ददेरेया।	-10.0142
▁दरबासिया	-10.0142
▁दस्रा	-10.0142
▁दाग	-10.0142
▁दावला	-10.0142
▁दुपसाव	-10.0142
▁दैदेननायाव	-10.0142
▁दैमाया	-10.0142
▁दोन्नानै	-10.0142
▁ननिफ्राय	-10.0142
▁नो	-10.0142
▁पाकिस्ताननि	-10.0142
▁प्राइभेट	-10.0142
▁फंबायखौ	-10.0142
▁फरायसाफोरा	-10.0142
▁फांथेनानै	-10.0142
▁फाननो	-10.0142
▁फालाय	-10.0142
▁फावथिनायाव	-10.0142
▁फिनखौ	-10.0142
▁फिसाइया	-10.0142
▁फोरोंगिरि	-10.0142
▁बथलखौ	-10.0142
▁बरʼफोरखौ	-10.0142
▁बां-सानराय	-10.0142
▁बाना	-10.0142
▁बिट	-10.0142
▁बिथांखि	-10.0142
▁बिदानि	-10.0142
▁बिदाया	-10.0142
▁बिनानावनि	-10.0142
▁बिफाना	-10.0142
▁बिबʼ	-10.0142
▁बिहावखौ	-10.0142
▁बुन्दिया	-10.0142
▁बेरखांदों	-10.0142
▁बेलासि	-10.0142
▁बोथोराव	-10.0142
▁बोयो।	-10.0142
▁बोराइदब	-10.0142
▁मन्थ्रिनि	-10.0142
▁मागोन	-10.0142
▁मावजि	-10.0142
▁मिथियो	-10.0142
▁मुलियाव	-10.0142
▁मुसुखा	-10.0142
▁मोब्लावा	-10.0142
▁मोसाया	-10.0142
▁रमेना	-10.0142
▁राइजोफोरखौ	-10.0142
▁राजथावनि	-10.0142
▁राजाजों	-10.0142
▁रामनाथखौ	-10.0142
▁राय	-10.0142
▁रायलायनाय	-10.0142
▁लरेना	-10.0142
▁लानाया	-10.0142
▁लाफानानै	-10.0142
▁लाहार-फाहार	-10.0142
▁लोङै	-10.0142
▁सना	-10.0142
▁ससे	-10.0142
▁साननैसो	-10.0142
▁सानैखौ	-10.0142
▁सार।	-10.0142
▁सावरायनाय	-10.0142
▁सिख्ला।	-10.0142
▁सिङा	-10.0142
▁सुबुंआ	-10.0142
▁सुबुंसाइ	-10.0142
▁सेक्सपीयेरनि	-10.0142
▁सोदोबआ	-10.0142
▁सोदोब।	-10.0142
▁सोरखारखौ	-10.0142
▁सोरखारनि	-10.0142
▁सोरबाबा	-10.0142
▁स्क्रल	-10.0142
▁हमथा	-10.0142
▁हरसे	-10.0142
▁हाखौ	-10.0142
▁हायना	-10.0142
▁हायाखैमोन	-10.0142
▁हुक	-10.0142
▁हुजुर	-10.0142
▁हुस	-10.0142
▁होखार	-10.0142
▁होदो।	-10.0142
▁होनांगोन	-10.0142
▁होबाय,	-10.0142
▁होलाङो।	-10.0142
▁!!!	-10.0788
▁"आंनि	-10.0788
▁"आदा	-10.0788
▁"जों	-10.0788
▁"नोंनि	-10.0788
▁'सान्दो	-10.0788
▁(ग)	-10.0788
▁*	-10.0788
▁..........	-10.0788
▁are	-10.0788
▁अजयखौ	-10.0788
▁अबथिरा	-10.0788
▁अरखि	-10.0788
▁आंनियाव	-10.0788
▁आखला	-10.0788
▁आनारामनि	-10.0788
▁आयै।	-10.0788
▁आरतिनि	-10.0788
▁आसागि	-10.0788
▁इन्दु	-10.0788
▁उदुराम	-10.0788
▁उनथिं	-10.0788
▁ओंखामखौ	-10.0788
▁ओंखारलांनाय	-10.0788
▁खरसा	-10.0788
▁खांनानै	-10.0788
▁खाफाला	-10.0788
▁खामफ्लाय	-10.0788
▁खामफ्लायाव	-10.0788
▁खारबोनाय	-10.0788
▁खालामगोन।	-10.0788
▁खालाम।	-10.0788
▁खालायनाय	-10.0788
▁खास्रि	-10.0788
▁खुगानि	-10.0788
▁खौराङा	-10.0788
▁ग	-10.0788
▁गगैया	-10.0788
▁गथʼफ्रा	-10.0788
▁गाबज्रि	-10.0788
▁गारनाय	-10.0788
▁गारामा	-10.0788
▁गारिया	-10.0788
▁गालांनाय	-10.0788
▁गावनाय	-10.0788
▁गाहामै	-10.0788
▁गाहामैनो	-10.0788
▁गेटनि	-10.0788
▁गोरानि	-10.0788
▁गोसोवा	-10.0788
▁गोहोजों	-10.0788
▁जाखां	-10.0788
▁जानो,	-10.0788
▁जान्जि	-10.0788
▁जाबा	-10.0788
▁जारिमिनाव	-10.0788
▁जोंथि	-10.0788
▁जोंनाय	-10.0788
▁जोथोन	-10.0788
▁जोबथारनायाव	-10.0788
▁जोबनायाव	-10.0788
▁जौवा	-10.0788
▁तितागुरिनि	-10.0788
▁तुलारामनि	-10.0788
▁थफी-	-10.0788
▁थाखानाय	-10.0788
▁थाखायबो	-10.0788
▁थानायावनो	-10.0788
▁थाब्लाबो	-10.0788
▁थुनानै	-10.0788
▁थुलुंगानि	-10.0788
▁दाइन	-10.0788
▁दाजाबनानै	-10.0788
▁दायाव	-10.0788
▁दिना	-10.0788
▁दिनै।	-10.0788
▁दिन्थिनायाव	-10.0788
▁दुब्लियाव	-10.0788
▁देनां	-10.0788
▁दोगोन	-10.0788
▁नांगोन	-10.0788
▁नांगौब्ला	-10.0788
▁नागिर	-10.0788
▁नालाय	-10.0788
▁नुजानाय	-10.0788
▁नुथाय	-10.0788
▁नोंथां,	-10.0788
▁पाब्लिक	-10.0788
▁प्रेस	-10.0788
▁फन	-10.0788
▁फाख्रि	-10.0788
▁फाथै	-10.0788
▁फारसे।	-10.0788
▁फावथाइगिरि	-10.0788
▁फावथाइ।	-10.0788
▁फिसाज्लानि	-10.0788
▁फुंखाया	-10.0788
▁फुल	-10.0788
▁बन	-10.0788
▁बबेनिफ्राय	-10.0788
▁बरʼखौ	-10.0788
▁बसुमतारि	-10.0788
▁बानाजों	-10.0788
▁बानाय	-10.0788
▁बानायनानै	-10.0788
▁बानायसो	-10.0788
▁बारजों	-10.0788
▁बावदा	-10.0788
▁बाहायनायाव	-10.0788
▁बिखाखौ	-10.0788
▁बिजाबनि	-10.0788
▁बिजाबाव	-10.0788
▁बिथिंनिफ्राय	-10.0788
▁बिदाखौ	-10.0788
▁बिनानाव,	-10.0788
▁बिनारामनि	-10.0788
▁बिबुंथि	-10.0788
▁बिमा,	-10.0788
▁बुंजासे	-10.0788
▁बुंदोंमोन-	-10.0788
▁बुंनायखौ	-10.0788
▁बुंफिनो-	-10.0788
▁बुंलाङो।	-10.0788
▁बुदारुवा	-10.0788
▁बेखेवगाडʼ	-10.0788
▁बेगखौ	-10.0788
▁बेन्दों	-10.0788
▁बेफारिया	-10.0788
▁बोजोंनि	-10.0788
▁बोहैथिनि	-10.0788
▁भारताव	-10.0788
▁मंगल	-10.0788
▁मनʼरन्जन	-10.0788
▁मन्जु	-10.0788
▁मन्जुवा।	-10.0788
▁माइनाव	-10.0788
▁मादै	-10.0788
▁मावनांगौ	-10.0788
▁मिनिनो	-10.0788
▁मुगैथाव	-10.0788
▁मुवाखौ	-10.0788
▁मेल	-10.0788
▁मोजां,	-10.0788
▁मोनखाङो।	-10.0788
▁मोनब्लानो	-10.0788
▁मोनसिंसिं	-10.0788
▁रंजालिनि	-10.0788
▁रजि	-10.0788
▁रादाबखौ	-10.0788
▁रामनाथ,	-10.0788
▁रायज्लायनो	-10.0788
▁रायनो	-10.0788
▁राहाखौ	-10.0788
▁रुवाथिया	-10.0788
▁रुवाथी	-10.0788
▁रोहो	-10.0788
▁लांदों।	-10.0788
▁लानायाव	-10.0788
▁लायनानै	-10.0788
▁लिरदोंमोन।	-10.0788
▁लिरो।	-10.0788
▁लेबʼरेटरीयाव	-10.0788
▁लोगोफोरजों	-10.0788
▁समबारु	-10.0788
▁सानखो	-10.0788
▁सानथाम	-10.0788
▁सानथौ	-10.0788
▁सानो,	-10.0788
▁सान्दुं	-10.0788
▁सायाराम,	-10.0788
▁सारि	-10.0788
▁सिख्ला,	-10.0788
▁सिनायथिखौ	-10.0788
▁सिम	-10.0788
▁सियाराव	-10.0788
▁सिरियै	-10.0788
▁सिलिंखार	-10.0788
▁सुबुंफोरनि	-10.0788
▁सुरथ	-10.0788
▁सुरो।	-10.0788
▁सेखʼनानै	-10.0788
▁सेरजा	-10.0788
▁सेवारिनि	-10.0788
▁सै	-10.0788
▁सैनाय	-10.0788
▁सैया	-10.0788
▁सोमखोर	-10.0788
▁सोरजों	-10.0788
▁सोरजोंबा	-10.0788
▁स्राय	-10.0788
▁हमबाय--	-10.0788
▁हांखोफोरनि	-10.0788
▁हांसो	-10.0788
▁हाइ	-10.0788
▁हायाब्ला	-10.0788
▁हायि	-10.0788
▁हारिमुनि	-10.0788
▁हाव	-10.0788
▁हि	-10.0788
▁हु	-10.0788
▁हेमलेटनि	-10.0788
▁होनब्लानो	-10.0788
▁होब्लाबो	-10.0788
▁होमब्लानो	-10.0788
▁होयो।)	-10.0788
▁"आरसा	-10.1478
▁-बुंनानै	-10.1478
▁..	-10.1478
▁17	-10.1478
▁19	-10.1478
▁7.	-10.1478
▁अ:	-10.1478
▁अनिमाया।	-10.1478
▁अन्नायनि	-10.1478
▁आगसि	-10.1478
▁आग्रा	-10.1478
▁आथिङा	-10.1478
▁आयै,	-10.1478
▁आरतिखौ	-10.1478
▁आसान	-10.1478
▁इयुनखौ	-10.1478
▁ऐखालि	-10.1478
▁औ,	-10.1478
▁कन्ट्रल	-10.1478
▁कलेजनिफ्राय	-10.1478
▁किटसेनाव	-10.1478
▁खबरदार	-10.1478
▁खरʼवा	-10.1478
▁खान्थिनि	-10.1478
▁खामानिफोरखौ	-10.1478
▁खायदा	-10.1478
▁खारखोमा	-10.1478
▁खारदै	-10.1478
▁खालामखो	-10.1478
▁खालामनो।	-10.1478
▁खालामबाय,	-10.1478
▁खिन्थायो।	-10.1478
▁खिबु	-10.1478
▁खेंनानै	-10.1478
▁खेब	-10.1478
▁खेबाव	-10.1478
▁खैला	-10.1478
▁गंसेयाव	-10.1478
▁गलʼआ	-10.1478
▁गसाइ	-10.1478
▁गसाइया	-10.1478
▁गाज्रि।	-10.1478
▁गान्दा	-10.1478
▁गाराय	-10.1478
▁गिबियावनो	-10.1478
▁गुमुर	-10.1478
▁गुरलुब	-10.1478
▁गेटखौ	-10.1478
▁गैयामोन	-10.1478
▁गोग्लैसोनानै	-10.1478
▁गोजाव	-10.1478
▁गोथों	-10.1478
▁गोदाव	-10.1478
▁गोनांथार	-10.1478
▁गोलाव।	-10.1478
▁गोसोखां	-10.1478
▁जʼयै	-10.1478
▁जʼरा	-10.1478
▁जनाय	-10.1478
▁जागौमोन	-10.1478
▁जाथाव	-10.1478
▁जाथों	-10.1478
▁जादब	-10.1478
▁जानांगोन	-10.1478
▁जानाय-लोंनाय	-10.1478
▁जाबायमोन।	-10.1478
▁जायाखिसै	-10.1478
▁जारिमिना	-10.1478
▁जोनोमगिरि	-10.1478
▁जोबनायनि	-10.1478
▁जौ,	-10.1478
▁डिस्क	-10.1478
▁तरुण	-10.1478
▁थांखिखौ	-10.1478
▁थांदोंमोन।	-10.1478
▁थाइलालिआ	-10.1478
▁थाङो)	-10.1478
▁थाबावनो	-10.1478
▁थु,	-10.1478
▁थुंग्रिखौ	-10.1478
▁थुनफावथाइया	-10.1478
▁थोनो	-10.1478
▁दंमोन,	-10.1478
▁दङʼ,	-10.1478
▁दहायनो	-10.1478
▁दाब	-10.1478
▁दाबसेयाव	-10.1478
▁दायनि	-10.1478
▁दाहानि	-10.1478
▁दिखार	-10.1478
▁दिनैसिमबो	-10.1478
▁दिल्ली	-10.1478
▁देगारखौ	-10.1478
▁देरहासाद	-10.1478
▁देरा	-10.1478
▁दैथाय	-10.1478
▁दोनै	-10.1478
▁दोम	-10.1478
▁धोरोमा	-10.1478
▁नंला	-10.1478
▁नांगौ,	-10.1478
▁नागार	-10.1478
▁नाजागासिनो	-10.1478
▁नायगिरनाय	-10.1478
▁नायजाबा	-10.1478
▁नायनि	-10.1478
▁नोजोरनानै	-10.1478
▁फराय	-10.1478
▁फाइलनि	-10.1478
▁फाननानै	-10.1478
▁फान्नानै	-10.1478
▁फाफ	-10.1478
▁फावजों	-10.1478
▁फावथाइया	-10.1478
▁फिथाइ,	-10.1478
▁फिसा-फिसौ	-10.1478
▁फैया।	-10.1478
▁फै।"	-10.1478
▁फोथायखेबसʼ	-10.1478
▁फोरखौ	-10.1478
▁फोरमायो	-10.1478
▁फोरोंगिरिया	-10.1478
▁बजबनानै	-10.1478
▁बथल	-10.1478
▁बरʼवाव	-10.1478
▁बहाथो	-10.1478
▁बाजार	-10.1478
▁बायो।	-10.1478
▁बारहुंखा	-10.1478
▁बारिनि	-10.1478
▁बाहायदों।	-10.1478
▁बिखानिफ्राय	-10.1478
▁बिगियान	-10.1478
▁बिथिं	-10.1478
▁बिथिंखौ	-10.1478
▁बिदुं	-10.1478
▁बिनहारीखौ	-10.1478
▁बिबारखौ	-10.1478
▁बिसोरहा	-10.1478
▁बिस्रि	-10.1478
▁बिहावनि	-10.1478
▁बुंदोंमोन।	-10.1478
▁बुथारनो	-10.1478
▁बुब्लियावनो	-10.1478
▁बेखौसो	-10.1478
▁बेरेखायै	-10.1478
▁बोखारनानै	-10.1478
▁बोयो	-10.1478
▁माजों	-10.1478
▁मानिनानै	-10.1478
▁माबि	-10.1478
▁माला	-10.1478
▁मालायजों	-10.1478
▁मावफुं	-10.1478
▁माहाजोन।	-10.1478
▁मिथि	-10.1478
▁मिथिहोनाय	-10.1478
▁मिनियो	-10.1478
▁मुखुब	-10.1478
▁मुलुगखौ	-10.1478
▁मेम्बर	-10.1478
▁मेला	-10.1478
▁मेलेम	-10.1478
▁मैखोम	-10.1478
▁मैगं,	-10.1478
▁मोनथिनो	-10.1478
▁मोनदों,	-10.1478
▁मोनाबिलिनि	-10.1478
▁मोसानाय	-10.1478
▁मोसानि	-10.1478
▁रंजा,	-10.1478
▁रसा	-10.1478
▁राइजो-	-10.1478
▁राननो	-10.1478
▁रानि	-10.1478
▁रामनाथ	-10.1478
▁रावखान्थि	-10.1478
▁रुफाथिया	-10.1478
▁रुवाथिखौ	-10.1478
▁रोखोमसे	-10.1478
▁रौ	-10.1478
▁लांगोना	-10.1478
▁लाइजामनि	-10.1478
▁लाजिनानै	-10.1478
▁लानानैसो	-10.1478
▁लाबोदों।	-10.1478
▁लाबोयो।	-10.1478
▁लाय	-10.1478
▁लायाब्ला	-10.1478
▁ला।	-10.1478
▁लिंनानै	-10.1478
▁लिरदों	-10.1478
▁लुनाय	-10.1478
▁लोंबाय	-10.1478
▁लोगोआ	-10.1478
▁लोगोखौ	-10.1478
▁संस्कृत	-10.1478
▁सफायाव	-10.1478
▁समबारुवा	-10.1478
▁समावबो	-10.1478
▁सरखारनि	-10.1478
▁सात	-10.1478
▁सानजाहा	-10.1478
▁साननायखौ	-10.1478
▁सानराय	-10.1478
▁सानाव	-10.1478
▁साबाइस	-10.1478
▁साला,	-10.1478
▁साव	-10.1478
▁सावख्लिया	-10.1478
▁सिथर	-10.1478
▁सिथ्ला	-10.1478
▁सिबिनाय	-10.1478
▁सुजुनाय	-10.1478
▁सुथुरखौ	-10.1478
▁सुनो	-10.1478
▁सेनो	-10.1478
▁सोद्रोमाफोरा	-10.1478
▁सोमावसारनायाव	-10.1478
▁सोरबाया	-10.1478
▁सोलʼ	-10.1478
▁हर।	-10.1478
▁हा-हु,	-10.1478
▁हांखो,	-10.1478
▁हांखोआव	-10.1478
▁हादोंमोन।	-10.1478
▁हानजानि	-10.1478
▁हाबफैनाय	-10.1478
▁हाबा।	-10.1478
▁हायेनारि	-10.1478
▁हिन्जावफ्रा	-10.1478
▁हिस्रि	-10.1478
▁हुदा	-10.1478
▁हैनो	-10.1478
▁हो,	-10.1478
▁होनजायो।	-10.1478
▁होनो।	-10.1478
▁होम	-10.1478
▁हौवासा	-10.1478
▁मुलुगा	-10.1841
▁"जेबो	-10.2219
▁"नङा	-10.2219
▁"माथो	-10.2219
▁2008,	-10.2219
▁?''	-10.2219
▁Soliloquy	-10.2219
▁or	-10.2219
▁you	-10.2219
▁अक्सिना	-10.2219
▁अजिता।	-10.2219
▁अनलायनायाव	-10.2219
▁अनसुमै	-10.2219
▁अन्दर	-10.2219
▁अन्नाया	-10.2219
▁अभि	-10.2219
▁अरुन,	-10.2219
▁अरुनखौ	-10.2219
▁अलकेशा	-10.2219
▁आ,	-10.2219
▁आंखौबो	-10.2219
▁आंना	-10.2219
▁आंनिनो	-10.2219
▁आंबोथʼ	-10.2219
▁आगै।	-10.2219
▁आदै।	-10.2219
▁आबहावा	-10.2219
▁आबैया	-10.2219
▁आयदाया	-10.2219
▁आसार	-10.2219
▁इसारा	-10.2219
▁इसोरनि	-10.2219
▁उदखारि	-10.2219
▁उन्दुग्रायाव	-10.2219
▁ऊ,	-10.2219
▁एप्लिकेसन	-10.2219
▁एफा-एनै	-10.2219
▁ओ,	-10.2219
▁ओंखारदों।	-10.2219
▁ओंखारबोयो।	-10.2219
▁औवानि	-10.2219
▁औ।	-10.2219
▁कʼक्राझार	-10.2219
▁कर्णियाखौ	-10.2219
▁केनसेल	-10.2219
▁खननै	-10.2219
▁खायसेबा	-10.2219
▁खारनाय	-10.2219
▁खालामदोंमोन	-10.2219
▁खालामनो,	-10.2219
▁खालामा।	-10.2219
▁खासि	-10.2219
▁खोनायो।	-10.2219
▁खोमसिया	-10.2219
▁खोमोरनो	-10.2219
▁खौरांगासे	-10.2219
▁गदाय	-10.2219
▁गबिन्द	-10.2219
▁गांसो	-10.2219
▁गागि	-10.2219
▁गान्नाय	-10.2219
▁गाबनायखौ	-10.2219
▁गाबनायनि	-10.2219
▁गामाखालि	-10.2219
▁गारियाव	-10.2219
▁गाहाया	-10.2219
▁गिसि	-10.2219
▁गुदुङाव	-10.2219
▁गुन्दा,	-10.2219
▁गुबुनजों	-10.2219
▁गुमैया	-10.2219
▁गुरलाब	-10.2219
▁गेसाव	-10.2219
▁गोग्लैबाय।	-10.2219
▁गोजोन।	-10.2219
▁गोथौयै	-10.2219
▁गोदोना	-10.2219
▁गोदोनिफ्रायनो	-10.2219
▁गोनांनि	-10.2219
▁गोब्राबै	-10.2219
▁गोमोयो	-10.2219
▁गोरलैयै	-10.2219
▁गोरा,	-10.2219
▁गोरोन्थिखौ	-10.2219
▁गोलैनानै	-10.2219
▁गोसोआबो	-10.2219
▁गोसोयै	-10.2219
▁ग्रोब	-10.2219
▁जाखांनायनि	-10.2219
▁जाखो,	-10.2219
▁जाथाइया	-10.2219
▁जाथाइयाव	-10.2219
▁जानानैबो	-10.2219
▁जानोबो	-10.2219
▁जाब्लाबो	-10.2219
▁जाम्बि	-10.2219
▁जायफ्रा	-10.2219
▁जाया,	-10.2219
▁जायोमोन।	-10.2219
▁जिउवाव	-10.2219
▁जिनै	-10.2219
▁जिराद	-10.2219
▁जुजिगोन	-10.2219
▁जेथो	-10.2219
▁जेनेरेल	-10.2219
▁जै,	-10.2219
▁जैमती	-10.2219
▁जोनोमनि	-10.2219
▁जोहोलावा	-10.2219
▁जौमोननि	-10.2219
▁जौसाय	-10.2219
▁ट्रेयाव	-10.2219
▁डिटेकटिभ	-10.2219
▁था,	-10.2219
▁थाय	-10.2219
▁थारजा	-10.2219
▁थासान्दियाव	-10.2219
▁थिख	-10.2219
▁थिखादार	-10.2219
▁थियेटारा	-10.2219
▁थिरांथा	-10.2219
▁थेफेन	-10.2219
▁थैनि	-10.2219
▁दंब्लाबो	-10.2219
▁दलद	-10.2219
▁दांनाय	-10.2219
▁दाजानाय	-10.2219
▁दाबा	-10.2219
▁दिहुन्नाय	-10.2219
▁दिहुन्नो	-10.2219
▁दुर्गा	-10.2219
▁देवानि	-10.2219
▁दै,	-10.2219
▁दैदेनगिरिफोरा	-10.2219
▁दैफां	-10.2219
▁दोलोआ	-10.2219
▁दौब्लाबो	-10.2219
▁द्	-10.2219
▁नंलिया	-10.2219
▁नांनायनि	-10.2219
▁नागारनो	-10.2219
▁नागिरदोंमोन।	-10.2219
▁नागिरै	-10.2219
▁नाङा,	-10.2219
▁नाङो	-10.2219
▁नाजादोंमोन	-10.2219
▁नाथाय।	-10.2219
▁नाम	-10.2219
▁नायजाबगिरिया	-10.2219
▁नायहर	-10.2219
▁नारें	-10.2219
▁नालिस	-10.2219
▁निउक्लियार	-10.2219
▁नीलकमल	-10.2219
▁नुदों।	-10.2219
▁नुवा	-10.2219
▁नेनानै	-10.2219
▁नै,	-10.2219
▁नोंखौ।	-10.2219
▁नोंथांमोननि	-10.2219
▁नोगोरमायाव	-10.2219
▁परिषदनि	-10.2219
▁पलिअʼ	-10.2219
▁फजʼनानै	-10.2219
▁फटʼ	-10.2219
▁फरायग्राफोरनि	-10.2219
▁फरायबाय	-10.2219
▁फांसे	-10.2219
▁फाफि	-10.2219
▁फालोसे	-10.2219
▁फुननांगौ।	-10.2219
▁फै,	-10.2219
▁फैदोंमोन।	-10.2219
▁फैनायनि	-10.2219
▁फ्रि	-10.2219
▁बनानै	-10.2219
▁बयनिख्रुइबो	-10.2219
▁बरमा	-10.2219
▁बांगाल	-10.2219
▁बाजै।"	-10.2219
▁बाथ्राजों	-10.2219
▁बाबा	-10.2219
▁बायजोआव	-10.2219
▁बाराब्ला	-10.2219
▁बावखुंग्रि	-10.2219
▁बिखं	-10.2219
▁बिदिन्थि	-10.2219
▁बिनारामा।	-10.2219
▁बिबाजै	-10.2219
▁बिबानाव	-10.2219
▁बिबार,	-10.2219
▁बिबारा	-10.2219
▁बिमाजों	-10.2219
▁बियाव	-10.2219
▁बिलाय।	-10.2219
▁बेखेवनो	-10.2219
▁बेनिनो	-10.2219
▁बेलासियाव	-10.2219
▁बेलासे	-10.2219
▁बेहा	-10.2219
▁बैसागु	-10.2219
▁बोखांनो	-10.2219
▁बोथोरा	-10.2219
▁बोनाया	-10.2219
▁बोराइखौ	-10.2219
▁मथर	-10.2219
▁मनजुखौ	-10.2219
▁मलेन,	-10.2219
▁माबार।"	-10.2219
▁मारुटि	-10.2219
▁मालाया	-10.2219
▁मावफारिया	-10.2219
▁मावब्ला	-10.2219
▁माहाजोनखौ	-10.2219
▁मि.	-10.2219
▁मिजिंखौ	-10.2219
▁मिथिंगा	-10.2219
▁मिथिमोननाय	-10.2219
▁मुगा	-10.2219
▁मुलिनि	-10.2219
▁मेब्ला	-10.2219
▁मोदाय	-10.2219
▁मोननैनि	-10.2219
▁मोननैसो	-10.2219
▁मोनबाय-	-10.2219
▁मोनलायनाय	-10.2219
▁मोनसेनि	-10.2219
▁मोनहाबो	-10.2219
▁मोसौ,	-10.2219
▁युमुना	-10.2219
▁रबिबार	-10.2219
▁राङारि	-10.2219
▁राणी	-10.2219
▁रान्नानै	-10.2219
▁रायज्लायनाय	-10.2219
▁रावनोबो	-10.2219
▁रुगुं	-10.2219
▁रुमा	-10.2219
▁रेबतीया	-10.2219
▁रोंगौ	-10.2219
▁लʼ	-10.2219
▁लाइजामा	-10.2219
▁लाइन	-10.2219
▁लाइसि	-10.2219
▁लागोन।	-10.2219
▁लानांगौ	-10.2219
▁लानायखौ	-10.2219
▁लान्थाया	-10.2219
▁लाबो।	-10.2219
▁लिरगिरिफोरनि	-10.2219
▁लिरनाया	-10.2219
▁लुबैया	-10.2219
▁लै	-10.2219
▁लोंग्रा	-10.2219
▁लोगो,	-10.2219
▁लोगोफ्रा	-10.2219
▁लोमजानानै	-10.2219
▁लोमजानाय	-10.2219
▁वर्ल्ड	-10.2219
▁संनानै	-10.2219
▁संसारखौ	-10.2219
▁सभानि	-10.2219
▁समाव।	-10.2219
▁सलʼजों	-10.2219
▁साइकेलजों	-10.2219
▁साजायनानै	-10.2219
▁सान-हर	-10.2219
▁सान्थि	-10.2219
▁सालिस	-10.2219
▁सिउ	-10.2219
▁सिगांनिफ्रायनो	-10.2219
▁सिमना	-10.2219
▁सिरां	-10.2219
▁सुदʼ	-10.2219
▁सुपार	-10.2219
▁सुमिलानि	-10.2219
▁सुलाद	-10.2219
▁सुशान्तवा।	-10.2219
▁से-सानराय	-10.2219
▁सेंग्राजों	-10.2219
▁सेंग्राफोर	-10.2219
▁सेंग्रा।	-10.2219
▁सेकस्पीयारनि	-10.2219
▁सेरावनो	-10.2219
▁सोंनाया	-10.2219
▁सोंनायाव	-10.2219
▁सोनो	-10.2219
▁सोमजिनाय	-10.2219
▁सोमदोननि	-10.2219
▁सोराव	-10.2219
▁सोलायनो	-10.2219
▁सोलोजों	-10.2219
▁सौरा	-10.2219
▁हयै	-10.2219
▁हरबाय।	-10.2219
▁हरेन	-10.2219
▁हांख्राय	-10.2219
▁हाजोआव	-10.2219
▁हाद्रि	-10.2219
▁हान्थु	-10.2219
▁हाबहैनानै	-10.2219
▁हायो-	-10.2219
▁हार्ट	-10.2219
▁हालामनि	-10.2219
▁हालिया	-10.2219
▁हुगार	-10.2219
▁हेद	-10.2219
▁हेमलेट	-10.2219
▁हेमलेटा	-10.2219
▁होआ	-10.2219
▁होआ।	-10.2219
▁होननाया	-10.2219
▁होनांगोन।	-10.2219
▁होनायसै।	-10.2219
▁होनै	-10.2219
▁होलाङो	-10.2219
▁उसु-खुथु	-10.2611
▁"आंबो	-10.3019
▁"आइ	-10.3019
▁"आयै	-10.3019
▁"आलाइस्रि।"	-10.3019
▁...।	-10.3019
▁27	-10.3019
▁??	-10.3019
▁be	-10.3019
▁will	-10.3019
▁ँ	-10.3019
▁अंगुबै	-10.3019
▁अखाफोराव	-10.3019
▁अजा	-10.3019
▁अनगा	-10.3019
▁अनजालि	-10.3019
▁अनजिमाया	-10.3019
▁अरदाबाव	-10.3019
▁अराव	-10.3019
▁अलसिया	-10.3019
▁आखुजों	-10.3019
▁आगर	-10.3019
▁आगै,	-10.3019
▁आन्दा	-10.3019
▁आन्दा,	-10.3019
▁आफादखौ	-10.3019
▁आफादगिरि,	-10.3019
▁आबारीनि	-10.3019
▁आबारीया	-10.3019
▁आब्रा	-10.3019
▁आरʼज	-10.3019
▁आरसा	-10.3019
▁आलेजों	-10.3019
▁इसेबां	-10.3019
▁उन्दुना	-10.3019
▁उसाव-बादाव	-10.3019
▁एखे	-10.3019
▁एम्फौ	-10.3019
▁एरा	-10.3019
▁एरेष्ट	-10.3019
▁एरैबादि	-10.3019
▁ओंखारदों	-10.3019
▁ओंखारलांबाय।	-10.3019
▁ओहो	-10.3019
▁कंग्रेस	-10.3019
▁ककराझार,	-10.3019
▁कपि	-10.3019
▁कि	-10.3019
▁खनथाम	-10.3019
▁खनथायारि	-10.3019
▁खाथियाव।	-10.3019
▁खानायाव	-10.3019
▁खान्थिजों	-10.3019
▁खाबुखौ	-10.3019
▁खालामगासिनो	-10.3019
▁खालामदों,	-10.3019
▁खालामनाय।	-10.3019
▁खिन्थानानै	-10.3019
▁खुंनाय	-10.3019
▁खुदै	-10.3019
▁खुलि	-10.3019
▁खै	-10.3019
▁खोल	-10.3019
▁गथʼ।	-10.3019
▁गराय	-10.3019
▁गलामनि	-10.3019
▁गसङो।	-10.3019
▁गाग्लोबनाय	-10.3019
▁गाजा	-10.3019
▁गाथोनाव	-10.3019
▁गाबदों।	-10.3019
▁गाबोननो	-10.3019
▁गामिनिफ्राय	-10.3019
▁गामोन	-10.3019
▁गाम्बारिया	-10.3019
▁गावबुरानि	-10.3019
▁गिनांगौ	-10.3019
▁गियो	-10.3019
▁गिलास	-10.3019
▁गुगुरुब	-10.3019
▁गुड	-10.3019
▁गेजेरावबो	-10.3019
▁गेबें	-10.3019
▁गेलेनाय	-10.3019
▁गैयाजासे	-10.3019
▁गोदानखौ	-10.3019
▁गोनां,	-10.3019
▁गोनो	-10.3019
▁गोनोखोआरिफोरा	-10.3019
▁गोमोनानै	-10.3019
▁गोरोबनानै	-10.3019
▁ग्लाब	-10.3019
▁जथʼ	-10.3019
▁जथाइ	-10.3019
▁जथाय	-10.3019
▁जाखो।	-10.3019
▁जादों।"	-10.3019
▁जायनो	-10.3019
▁जायहा	-10.3019
▁जायो।)	-10.3019
▁जालायखो	-10.3019
▁जिंगा।	-10.3019
▁जिरायबाय।	-10.3019
▁जीउ	-10.3019
▁जेरावखि	-10.3019
▁जों।	-10.3019
▁टि.	-10.3019
▁थʼ	-10.3019
▁थर	-10.3019
▁थांखु	-10.3019
▁थाखायलʼ	-10.3019
▁थागोन,	-10.3019
▁थामजि	-10.3019
▁थालिर	-10.3019
▁थुदो	-10.3019
▁थुनफावथाइयाव	-10.3019
▁थुलुंगाया	-10.3019
▁थैनोसै	-10.3019
▁थैब्लाबो	-10.3019
▁दबथायनो	-10.3019
▁दानसे	-10.3019
▁दायो	-10.3019
▁दावबायनायनि	-10.3019
▁दिननिफ्रायनो	-10.3019
▁दिन्थिनायनि	-10.3019
▁दुब	-10.3019
▁दैखाङो	-10.3019
▁दौनानै	-10.3019
▁नङादा	-10.3019
▁नबेम्बर	-10.3019
▁नम्बर	-10.3019
▁नम्बरि	-10.3019
▁नरेशा	-10.3019
▁नागिरदोंमोन	-10.3019
▁नायनाय	-10.3019
▁नायबिजिरनो	-10.3019
▁निदाननि	-10.3019
▁नुजानो	-10.3019
▁नुदोंमोन	-10.3019
▁नुमारनो	-10.3019
▁नुहरनानै	-10.3019
▁नोंगौ	-10.3019
▁नोंथांमोना	-10.3019
▁नोंनिफ्राय	-10.3019
▁नोंबादि	-10.3019
▁नोंसोरनो	-10.3019
▁नोमा	-10.3019
▁प्रसेनजित	-10.3019
▁प्रेमधरनि	-10.3019
▁प्लट	-10.3019
▁फरायनायाव	-10.3019
▁फरायो।	-10.3019
▁फैदों,	-10.3019
▁फैदोंमोन	-10.3019
▁फैदों।"	-10.3019
▁फैफानाय	-10.3019
▁फोथांना	-10.3019
▁फोरोंनो	-10.3019
▁बङाइगाव	-10.3019
▁बरʼ,	-10.3019
▁बरपेटा	-10.3019
▁बाजिनिफ्राय	-10.3019
▁बाजु	-10.3019
▁बाजैया	-10.3019
▁बाटनाव	-10.3019
▁बाद	-10.3019
▁बादा	-10.3019
▁बान	-10.3019
▁बान्थाखौ	-10.3019
▁बान्दा	-10.3019
▁बालानो	-10.3019
▁बाहायनायनि	-10.3019
▁बिखौ।	-10.3019
▁बिजाबफोरखौ	-10.3019
▁बिनहारी-	-10.3019
▁बिफाङाव	-10.3019
▁बिमा-बिफाया	-10.3019
▁बियो।"	-10.3019
▁बिषनि	-10.3019
▁बिहामजोखौ	-10.3019
▁बिहारि	-10.3019
▁बुं,	-10.3019
▁बुंलांनाय	-10.3019
▁बुं।	-10.3019
▁बुङाखै।	-10.3019
▁बुङोब्ला	-10.3019
▁बुथारनानै	-10.3019
▁बुथारनायनि	-10.3019
▁बुदुं	-10.3019
▁बुदों	-10.3019
▁बुब्लियाव	-10.3019
▁बुयै	-10.3019
▁बुरजा	-10.3019
▁बेखेवफाया	-10.3019
▁बेनिबो	-10.3019
▁बेनोथʼ	-10.3019
▁बेफोरनो	-10.3019
▁बोथों	-10.3019
▁बोरैथो	-10.3019
▁मनजु	-10.3019
▁मनजुलानि	-10.3019
▁मबाइल	-10.3019
▁मरनिं	-10.3019
▁महननि	-10.3019
▁मानसिफोर	-10.3019
▁मारिनानै	-10.3019
▁मावफुंनो	-10.3019
▁माहारिया	-10.3019
▁मिथियै	-10.3019
▁मिथिहोदों।	-10.3019
▁मिनिट	-10.3019
▁मिन्थिना	-10.3019
▁मुलामफा	-10.3019
▁मेउ	-10.3019
▁मेगन,	-10.3019
▁मेडिकेल	-10.3019
▁मेनेजार	-10.3019
▁मेहेरनां	-10.3019
▁मोगथां	-10.3019
▁मोननांगौ	-10.3019
▁मोननैबो	-10.3019
▁मोनाखिसै	-10.3019
▁मोन।	-10.3019
▁मोसायै	-10.3019
▁मोसाहारिनि	-10.3019
▁रंजाली	-10.3019
▁राखेब	-10.3019
▁राखेबा	-10.3019
▁राजा,	-10.3019
▁रिंसारआ	-10.3019
▁रिंसारनि	-10.3019
▁रोंनाय	-10.3019
▁रोङाखिसै।	-10.3019
▁ल	-10.3019
▁लाखिनाय	-10.3019
▁लाखियो।	-10.3019
▁लानाय।	-10.3019
▁लेफे	-10.3019
▁लैथो	-10.3019
▁सʼनानि	-10.3019
▁संसारा	-10.3019
▁सरकारा	-10.3019
▁सानगोन।	-10.3019
▁सानदोंमोन।	-10.3019
▁सानाखैमोन।	-10.3019
▁सान्ति	-10.3019
▁सान्नायखौ	-10.3019
▁सायावसो	-10.3019
▁सावगारि।	-10.3019
▁सावथाल	-10.3019
▁सावरायनायनि	-10.3019
▁सिथारनो	-10.3019
▁सिफायनानै	-10.3019
▁सिफायनो	-10.3019
▁सिफिनिफ्राय	-10.3019
▁सिबिनो	-10.3019
▁सुखुनि	-10.3019
▁सुनै	-10.3019
▁सुशान्तनि	-10.3019
▁सेंग्रानि	-10.3019
▁सेनापति	-10.3019
▁सैनो	-10.3019
▁सोदोबफोरखौ	-10.3019
▁सोलिनो	-10.3019
▁हांखुरै	-10.3019
▁हाइजें	-10.3019
▁हागौमोन।	-10.3019
▁हाबनाय	-10.3019
▁हाबहैयो।	-10.3019
▁हामगोन	-10.3019
▁हायाखैमोन।	-10.3019
▁हायार	-10.3019
▁हारा	-10.3019
▁हारावा	-10.3019
▁हारि,	-10.3019
▁हारिमु,	-10.3019
▁हालिया।	-10.3019
▁हालुवा	-10.3019
▁हालोदै	-10.3019
▁हिनजावनि	-10.3019
▁हेंथा।	-10.3019
▁हेफाजाबाव	-10.3019
▁होनब्लाबो	-10.3019
▁होनलाय	-10.3019
▁होनोब्ला	-10.3019
▁होम्बाना	-10.3019
▁अनिल	-10.3445
▁"ओइ	-10.3889
▁"औ।	-10.3889
▁"थौ	-10.3889
▁"मोजां	-10.3889
▁'आ'	-10.3889
▁(5)	-10.3889
▁(6)	-10.3889
▁-हे:	-10.3889
▁.......	-10.3889
▁........	-10.3889
▁...........	-10.3889
▁............	-10.3889
▁100	-10.3889
▁2009	-10.3889
▁8.	-10.3889
▁9.	-10.3889
▁Date	-10.3889
▁not	-10.3889
▁our	-10.3889
▁अन्नायाव	-10.3889
▁अपमान	-10.3889
▁अबं	-10.3889
▁अल	-10.3889
▁अलखद	-10.3889
▁आंखालाव	-10.3889
▁आंखौनो	-10.3889
▁आंनो।	-10.3889
▁आंलाय।	-10.3889
▁आइन	-10.3889
▁आखाइया	-10.3889
▁आखुवाव	-10.3889
▁आगोलाव	-10.3889
▁आनो	-10.3889
▁आन्जाद	-10.3889
▁आन्दासाव	-10.3889
▁आबु	-10.3889
▁आमेरिकानि	-10.3889
▁आर.	-10.3889
▁आल	-10.3889
▁इजराइलनि	-10.3889
▁इन्टारनेट	-10.3889
▁इसेबो	-10.3889
▁ई,	-10.3889
▁उजिगासेयाव	-10.3889
▁उजिगिबि	-10.3889
▁उदयाचल	-10.3889
▁उदैनि	-10.3889
▁उफ्ले	-10.3889
▁एंगारनो	-10.3889
▁एमनिफ्राय	-10.3889
▁एमफौ	-10.3889
▁एसेबांनो	-10.3889
▁ओंखारबाय	-10.3889
▁ओंखारबोयो	-10.3889
▁किउरियʼ	-10.3889
▁खंख्ला	-10.3889
▁खनसेबो	-10.3889
▁खन्थायारि	-10.3889
▁खरʼ,	-10.3889
▁खानो	-10.3889
▁खान्थिखौ	-10.3889
▁खामहाब	-10.3889
▁खारनो	-10.3889
▁खुंनो	-10.3889
▁खुदिया	-10.3889
▁खुदियाफोरा	-10.3889
▁खुलुमो	-10.3889
▁खुसियै	-10.3889
▁खेंख्रा	-10.3889
▁खोनाना	-10.3889
▁खोमसिनि	-10.3889
▁खोमानानै	-10.3889
▁गʼला	-10.3889
▁गʼसाइ	-10.3889
▁गंनानै	-10.3889
▁गम्भिर	-10.3889
▁गयो	-10.3889
▁गरन्थʼ	-10.3889
▁गरसेबो	-10.3889
▁गवा	-10.3889
▁गसङो	-10.3889
▁गाग्लोबनायनि	-10.3889
▁गाननो	-10.3889
▁गानो	-10.3889
▁गाबनाया	-10.3889
▁गाबबाय	-10.3889
▁गाम्बारिनि	-10.3889
▁गाराङै	-10.3889
▁गावबागाव	-10.3889
▁गावहा	-10.3889
▁गावो।	-10.3889
▁गिख्रंथावना	-10.3889
▁गिबियाव	-10.3889
▁गुमुरखौ	-10.3889
▁गुमै।"	-10.3889
▁गेलेग्रा	-10.3889
▁गैला	-10.3889
▁गोजौयाव	-10.3889
▁गोदै,	-10.3889
▁गोबां।	-10.3889
▁गोम	-10.3889
▁गोमजोरा	-10.3889
▁गोरों,	-10.3889
▁गोसोखांनानै	-10.3889
▁गोहो,	-10.3889
▁ग्रीमउइगा	-10.3889
▁जनता	-10.3889
▁जबाब	-10.3889
▁जब्रा	-10.3889
▁जवानफोरा	-10.3889
▁जांख्रिथाइ	-10.3889
▁जांगिला	-10.3889
▁जाइली	-10.3889
▁जानायखाय	-10.3889
▁जानायजों	-10.3889
▁जानायलाय	-10.3889
▁जानुवारि	-10.3889
▁जानोहागौ	-10.3889
▁जाबोदों।	-10.3889
▁जाबोनाय	-10.3889
▁जालांनो	-10.3889
▁जासिगोन	-10.3889
▁जासुला	-10.3889
▁जाहैनो	-10.3889
▁जिखि	-10.3889
▁जुनाद	-10.3889
▁जुलाफि	-10.3889
▁जेंनानि	-10.3889
▁जेल	-10.3889
▁जोंबाय	-10.3889
▁जोंरूवा	-10.3889
▁जोङो	-10.3889
▁जोबबाय	-10.3889
▁जौगानाय	-10.3889
▁टर्स	-10.3889
▁टेबुल	-10.3889
▁डिजिटाल	-10.3889
▁थरायना	-10.3889
▁थांखिजों	-10.3889
▁थांदिनि।	-10.3889
▁थांफानो	-10.3889
▁थांलाय	-10.3889
▁थांलाय-फैलाय	-10.3889
▁थाथों	-10.3889
▁थानांगौ।	-10.3889
▁थायाखै।	-10.3889
▁थायै	-10.3889
▁थारखौ	-10.3889
▁थुनलाइखौ	-10.3889
▁थेर	-10.3889
▁थेर-बेथेर	-10.3889
▁थेला	-10.3889
▁थैजों	-10.3889
▁थैनायखौ	-10.3889
▁दन्दि	-10.3889
▁दन्दी	-10.3889
▁दरखौ	-10.3889
▁दल	-10.3889
▁दलर	-10.3889
▁दानायनि	-10.3889
▁दायनिगिरि	-10.3889
▁दालि,	-10.3889
▁दावबʼ	-10.3889
▁दावबायनो	-10.3889
▁दिल्ली,	-10.3889
▁दिल्लीनि	-10.3889
▁दिहुन	-10.3889
▁दुखु-दाहा	-10.3889
▁दुगा	-10.3889
▁दुम	-10.3889
▁दुरजां	-10.3889
▁दुर्जां,	-10.3889
▁दुर्जांखौ	-10.3889
▁देंखोआ	-10.3889
▁दैखांदों।	-10.3889
▁दैथुन	-10.3889
▁दोनथʼनानै	-10.3889
▁दोनदों	-10.3889
▁दोनो	-10.3889
▁दोरफो	-10.3889
▁धोरोमखौ	-10.3889
▁न,	-10.3889
▁नʼआव	-10.3889
▁नʼवावनो	-10.3889
▁नंगौना	-10.3889
▁नाʼ	-10.3889
▁नांबाय	-10.3889
▁नाङा-फाङा	-10.3889
▁नाजाबाय	-10.3889
▁नायगिरो।	-10.3889
▁नायजाबखौ	-10.3889
▁नायजाबारि	-10.3889
▁नायदों	-10.3889
▁नायहरब्ला	-10.3889
▁नार्जारीनि	-10.3889
▁नार्स	-10.3889
▁नुनायाव	-10.3889
▁नुहरबाय	-10.3889
▁नेनो	-10.3889
▁नैजि	-10.3889
▁नोंसोरबो	-10.3889
▁नोंहालाय	-10.3889
▁पार्टिनि	-10.3889
▁पि.टि.सि.ए.नि	-10.3889
▁प्रेमधरा।	-10.3889
▁फंबायनि	-10.3889
▁फरायग्रानि	-10.3889
▁फरायसाफोरनि	-10.3889
▁फारनैखौ	-10.3889
▁फारागा	-10.3889
▁फालांगियाव	-10.3889
▁फाहामथाय	-10.3889
▁फैनाया	-10.3889
▁फैनायाव	-10.3889
▁फैयामोन	-10.3889
▁फै।	-10.3889
▁फोजोबनाय	-10.3889
▁फोथायनो	-10.3889
▁फोरनि	-10.3889
▁फोरमायथिनो	-10.3889
▁फोरा	-10.3889
▁फोसाव	-10.3889
▁फ्राय	-10.3889
▁बखʼनानै	-10.3889
▁बबावबा	-10.3889
▁बयजोंबो	-10.3889
▁बयनोबो	-10.3889
▁बसुमतारिनि	-10.3889
▁बाजुरामा	-10.3889
▁बाथ्रायानो	-10.3889
▁बापा	-10.3889
▁बाबांसिन	-10.3889
▁बारʼलाम्फा	-10.3889
▁बारआ	-10.3889
▁बारसे	-10.3889
▁बारायनाय	-10.3889
▁बारासो	-10.3889
▁बावैनो	-10.3889
▁बास	-10.3889
▁बाहायखान्थि	-10.3889
▁बाहेराव	-10.3889
▁बिगियाननि	-10.3889
▁बिजिरसालियाव	-10.3889
▁बिथʼ	-10.3889
▁बिथाखौ	-10.3889
▁बिथायाव	-10.3889
▁बिदिन्था	-10.3889
▁बिना	-10.3889
▁बिनानावखौ	-10.3889
▁बिबु	-10.3889
▁बिमा।	-10.3889
▁बिरहां	-10.3889
▁बुंनाया	-10.3889
▁बुंबावो	-10.3889
▁बुंबावो-	-10.3889
▁बुंब्लाबो	-10.3889
▁बुङासै	-10.3889
▁बुथुमनो	-10.3889
▁बुरखायनो	-10.3889
▁बुहुमाव	-10.3889
▁बेजोंनो	-10.3889
▁बेद	-10.3889
▁बेदरखौ	-10.3889
▁बेबायदिनो	-10.3889
▁बेमा	-10.3889
▁बेरे	-10.3889
▁बेलʼ	-10.3889
▁बेसेननि	-10.3889
▁बेसेना	-10.3889
▁बेसो	-10.3889
▁बेहाय	-10.3889
▁बेहायनो	-10.3889
▁बोथोर।	-10.3889
▁बोलोखौ	-10.3889
▁बोसोरसे	-10.3889
▁बोहैथिया।	-10.3889
▁ब्रा।	-10.3889
▁भि.	-10.3889
▁भुमनि	-10.3889
▁मदाराम	-10.3889
▁महन	-10.3889
▁महाराजाखौ	-10.3889
▁माउजि	-10.3889
▁माखासेया	-10.3889
▁माखौबा	-10.3889
▁मानसिनो	-10.3889
▁मानिमुनि	-10.3889
▁मामाय	-10.3889
▁माया	-10.3889
▁मावना	-10.3889
▁मावनायाव	-10.3889
▁मावरिजा	-10.3889
▁मासिखौ	-10.3889
▁मिन्थिया	-10.3889
▁मिहिर,	-10.3889
▁मुं,	-10.3889
▁मुंमाया	-10.3889
▁मुङाव	-10.3889
▁मुजुब्ला	-10.3889
▁मुवानि	-10.3889
▁मे	-10.3889
▁मेइन	-10.3889
▁मोखथां	-10.3889
▁मोगथाङाव	-10.3889
▁मोनगोन।"	-10.3889
▁मोनजानो	-10.3889
▁मोनजाया,	-10.3889
▁मोनथाय	-10.3889
▁मोना,	-10.3889
▁मोनानि	-10.3889
▁मोनाबा	-10.3889
▁मोन्नायखौ	-10.3889
▁मोसाखौ	-10.3889
▁र	-10.3889
▁र,	-10.3889
▁रामोन्दाया	-10.3889
▁रायज्लायबाय	-10.3889
▁रावफोरनि	-10.3889
▁राहाया	-10.3889
▁रिंसारा	-10.3889
▁रिक्सा	-10.3889
▁रोङो।	-10.3889
▁लांगोनानिफ्राय	-10.3889
▁लागायनानै	-10.3889
▁लाजिया	-10.3889
▁लानानै,	-10.3889
▁लाबो।"	-10.3889
▁लामा।	-10.3889
▁लुबैदों	-10.3889
▁लुबैनाया	-10.3889
▁लेंहरनानै	-10.3889
▁लोमसाव	-10.3889
▁सं	-10.3889
▁सलʼमा,	-10.3889
▁सानखालि	-10.3889
▁सानथ्रि	-10.3889
▁सानबोलाउरि	-10.3889
▁सानाखैमोन	-10.3889
▁सानो-	-10.3889
▁साफ्रोमबो	-10.3889
▁सामब्राम	-10.3889
▁सायखʼ	-10.3889
▁सारनानै	-10.3889
▁सासे।	-10.3889
▁सिंजों	-10.3889
▁सिखारो।	-10.3889
▁सिखावै	-10.3889
▁सिखोमानानै	-10.3889
▁सिथाबनानै	-10.3889
▁सिनखौ	-10.3889
▁सिमांनि	-10.3889
▁सियालनि	-10.3889
▁सुजुग्राया।	-10.3889
▁सेंग्रा,	-10.3889
▁सेंग्राफोरनि	-10.3889
▁सेयार	-10.3889
▁सोंदों	-10.3889
▁सोंनायनि	-10.3889
▁सोदोबफोरनि	-10.3889
▁सोमखे	-10.3889
▁सोमावसारनायखौ	-10.3889
▁सोलायनायनि	-10.3889
▁स्लिम	-10.3889
▁हरनायनि	-10.3889
▁हांखोफोरखौ	-10.3889
▁हाखिमा	-10.3889
▁हागौमोन	-10.3889
▁हानाया	-10.3889
▁हाबलाङो	-10.3889
▁हामनाय	-10.3889
▁हाया।"	-10.3889
▁हायिनि	-10.3889
▁हायैलाय	-10.3889
▁हारियाव	-10.3889
▁हार्ड	-10.3889
▁हाला	-10.3889
▁हिउ	-10.3889
▁हिनजावखौ	-10.3889
▁है	-10.3889
▁होदोंमोन	-10.3889
▁होननानैबो	-10.3889
▁होन्नानैनो	-10.3889
▁होन्नानैबो	-10.3889
▁होयो,	-10.3889
▁हौवाया	-10.3889
▁"आलाइस्रि	-10.4842
▁"ए	-10.4842
▁"जागोन	-10.4842
▁"थेवबो	-10.4842
▁"दिनै	-10.4842
▁"बहा	-10.4842
▁"सान्दो	-10.4842
▁(घ)	-10.4842
▁(मेथाइ	-10.4842
▁---"	-10.4842
▁.....।"	-10.4842
▁2000	-10.4842
▁2008.	-10.4842
▁40	-10.4842
▁IBM	-10.4842
▁for	-10.4842
▁that	-10.4842
▁अजाया	-10.4842
▁अनागारि	-10.4842
▁अनारिया	-10.4842
▁अनी	-10.4842
▁अनुलेखाया	-10.4842
▁अपारेसन	-10.4842
▁अफिसनिफ्राय	-10.4842
▁अरायथा	-10.4842
▁अरुन	-10.4842
▁असमिया	-10.4842
▁आंहालाय	-10.4842
▁आइयै।	-10.4842
▁आखुथाया	-10.4842
▁आखु।	-10.4842
▁आथोन।	-10.4842
▁आनारी,	-10.4842
▁आन्दाज	-10.4842
▁आफाखौ	-10.4842
▁आबʼ,	-10.4842
▁आबो	-10.4842
▁आमथा	-10.4842
▁आरति,	-10.4842
▁आलां	-10.4842
▁आवगायनि	-10.4842
▁आवाराम	-10.4842
▁इंराजनि	-10.4842
▁इनपुट	-10.4842
▁इनफरमेसनखौ	-10.4842
▁इन्दुप्रभाया	-10.4842
▁इसेलʼ	-10.4842
▁इसोर	-10.4842
▁उखुन्दै	-10.4842
▁उन-उन	-10.4842
▁उन्दुबाय	-10.4842
▁उरां	-10.4842
▁एनै	-10.4842
▁एरैनोथʼ	-10.4842
▁एष्ट्रागʼना	-10.4842
▁एसेनो	-10.4842
▁ओंखारदो	-10.4842
▁ओंखारबोनानै	-10.4842
▁ओरैबादि	-10.4842
▁ओहो,	-10.4842
▁कमन	-10.4842
▁कम्पिउटार-	-10.4842
▁कौटि	-10.4842
▁खʼ	-10.4842
▁खन्थाइगिरि	-10.4842
▁खन्थाइनि	-10.4842
▁खान्थियाव	-10.4842
▁खाफालानो	-10.4842
▁खामफ्लाइ	-10.4842
▁खालामनाय,	-10.4842
▁खालामाखै।	-10.4842
▁खावलायदों।	-10.4842
▁खिथेर	-10.4842
▁खिनो	-10.4842
▁खुरमा	-10.4842
▁खुरैखौ	-10.4842
▁खुलुमनो	-10.4842
▁खोनाबाय।	-10.4842
▁खोबनानै	-10.4842
▁गंब्रै	-10.4842
▁गंसेबो	-10.4842
▁गथाय	-10.4842
▁गरन्थ	-10.4842
▁गाइखेरखौ	-10.4842
▁गाखो	-10.4842
▁गाज्रिनि	-10.4842
▁गाननाया	-10.4842
▁गान्दु	-10.4842
▁गावसो	-10.4842
▁गिदिंनाय	-10.4842
▁गिबिसिन	-10.4842
▁गिया	-10.4842
▁गुवारै	-10.4842
▁गुवाहाटीयाव	-10.4842
▁गेदेद	-10.4842
▁गैयालै	-10.4842
▁गैयै,	-10.4842
▁गैयैनि	-10.4842
▁गैयै।	-10.4842
▁गोखा,	-10.4842
▁गोखै	-10.4842
▁गोजोनग्लाय	-10.4842
▁गोजोन्नाय	-10.4842
▁गोथौवै	-10.4842
▁गोरान	-10.4842
▁गोरोन्थिनि	-10.4842
▁गोलैनाय	-10.4842
▁गोसोखाङो	-10.4842
▁गोहोमा	-10.4842
▁गोहो।	-10.4842
▁ग्रें	-10.4842
▁जबाय	-10.4842
▁जागायनाय	-10.4842
▁जाथोंसै	-10.4842
▁जानांबाय।	-10.4842
▁जानोसै	-10.4842
▁जाबोनो	-10.4842
▁जायाब्ला	-10.4842
▁जायो-	-10.4842
▁जारिमिन।	-10.4842
▁जालाय	-10.4842
▁जालायबाय	-10.4842
▁जावलियानि	-10.4842
▁जावले	-10.4842
▁जासिगोन।	-10.4842
▁जाहोना	-10.4842
▁जा।	-10.4842
▁जिरायनायनिफ्राय	-10.4842
▁जुथुम	-10.4842
▁जेकेट	-10.4842
▁जेकेट,	-10.4842
▁जेनो	-10.4842
▁जेसेखि	-10.4842
▁जै।	-10.4842
▁जोंना	-10.4842
▁जोंबाय।	-10.4842
▁जोङो।	-10.4842
▁जोलै	-10.4842
▁जौगाखां	-10.4842
▁जौमोन	-10.4842
▁ट,	-10.4842
▁ट्रेक्टर	-10.4842
▁डाइरेक्टरि	-10.4842
▁थक	-10.4842
▁थांखियै	-10.4842
▁थांनायखौ	-10.4842
▁थाइलालिखौ	-10.4842
▁थाखोमानानै	-10.4842
▁थाथोंसै	-10.4842
▁थाबायनाय	-10.4842
▁थाबायनो	-10.4842
▁थायाब्ला	-10.4842
▁थायोमोन।	-10.4842
▁था।"	-10.4842
▁थिखिनि	-10.4842
▁थिनो	-10.4842
▁थुलुंगाखौ	-10.4842
▁थेवब्लाबो	-10.4842
▁थोंजोङै	-10.4842
▁दंसै।	-10.4842
▁दरखङाव	-10.4842
▁दरसि	-10.4842
▁दसेनो	-10.4842
▁दागाब	-10.4842
▁दागि	-10.4842
▁दानस्लायनाय	-10.4842
▁दान्दिसेनि	-10.4842
▁दाबोनो	-10.4842
▁दायनिगिरिफोरखौ	-10.4842
▁दारि	-10.4842
▁दारेन्द्र	-10.4842
▁दावबायनायाव	-10.4842
▁दावहाया	-10.4842
▁दाहाखौ	-10.4842
▁दाहायाव	-10.4842
▁दिननि	-10.4842
▁दुखुवा	-10.4842
▁दुयारी	-10.4842
▁देरनानै	-10.4842
▁दैखांनाय	-10.4842
▁दैनानै	-10.4842
▁दोनबाय	-10.4842
▁दोन।	-10.4842
▁द्लाम	-10.4842
▁नʼ-बां	-10.4842
▁नʼनिफ्राय	-10.4842
▁नʼसिम	-10.4842
▁नङासै	-10.4842
▁नङै	-10.4842
▁नरेशा।	-10.4842
▁नांलिया	-10.4842
▁नागिरबाय	-10.4842
▁नाजाबाय।	-10.4842
▁नाजायो	-10.4842
▁नायगार	-10.4842
▁नायग्रा	-10.4842
▁नायनायनि	-10.4842
▁नायबा	-10.4842
▁नाया	-10.4842
▁नारनानै	-10.4842
▁नुगोन	-10.4842
▁नुदोंमोन।	-10.4842
▁नुब्लानो	-10.4842
▁नोंथांजों	-10.4842
▁नोंदि	-10.4842
▁नोंसोरबादि	-10.4842
▁नोमफाया	-10.4842
▁फरायखांनानै	-10.4842
▁फरेष्ट	-10.4842
▁फाइलखौ	-10.4842
▁फारनै	-10.4842
▁फार्सेथिङै	-10.4842
▁फावथाइयारि	-10.4842
▁फिनो।	-10.4842
▁फिसाफोर	-10.4842
▁फुलिनि	-10.4842
▁फैसालियाव	-10.4842
▁फोरोंगिरिनि	-10.4842
▁फोरोंनाय	-10.4842
▁बटल	-10.4842
▁बरायनो	-10.4842
▁बहाय	-10.4842
▁बाजै,	-10.4842
▁बाथाव	-10.4842
▁बादोर	-10.4842
▁बानखौ	-10.4842
▁बानानि	-10.4842
▁बायजोनि	-10.4842
▁बायजोनिफ्राय	-10.4842
▁बारजां	-10.4842
▁बारफुनाय	-10.4842
▁बारानिफ्राय	-10.4842
▁बावदिया'	-10.4842
▁बावनाय	-10.4842
▁बाहागोआ	-10.4842
▁बिखौबो	-10.4842
▁बिख्लो	-10.4842
▁बिगियानगिरिफोरा	-10.4842
▁बिग्रायारि	-10.4842
▁बिजाबा	-10.4842
▁बिजाब।	-10.4842
▁बिजामादै	-10.4842
▁बिथराइ	-10.4842
▁बिथांमोना	-10.4842
▁बिदिन्थि।	-10.4842
▁बिदिब्ला।	-10.4842
▁बिनहारीया	-10.4842
▁बिनाय	-10.4842
▁बिमायं	-10.4842
▁बिरि	-10.4842
▁बिलिफांजों	-10.4842
▁बिलिफाङाबो	-10.4842
▁बिसो	-10.4842
▁बिहामजोनि	-10.4842
▁बुंनायनि	-10.4842
▁बुंनायाव	-10.4842
▁बुंफैयो-	-10.4842
▁बुंबावो,	-10.4842
▁बुंहरो	-10.4842
▁बुङो।)	-10.4842
▁बुङो।]	-10.4842
▁बुथार	-10.4842
▁बुरि	-10.4842
▁बे,	-10.4842
▁बेखेवफाखौ	-10.4842
▁बेखौथʼ	-10.4842
▁बेजाय	-10.4842
▁बेदिनो	-10.4842
▁बेनिख्रुइ	-10.4842
▁बेमार	-10.4842
▁बेयो।	-10.4842
▁बेरा	-10.4842
▁बेरामाव	-10.4842
▁बेलश्री	-10.4842
▁बेवनो	-10.4842
▁बेसेदि	-10.4842
▁बेसेबांदि	-10.4842
▁बो	-10.4842
▁बोखे	-10.4842
▁बोथिसे	-10.4842
▁बोनायाव	-10.4842
▁बोहैलांनाय	-10.4842
▁ब्रैथि	-10.4842
▁ब्लाउ	-10.4842
▁भबेन	-10.4842
▁भ्लादिमिर	-10.4842
▁मदन	-10.4842
▁मनिपुर	-10.4842
▁महरजों	-10.4842
▁महाराजाया	-10.4842
▁माइथायाव।	-10.4842
▁माग्रा	-10.4842
▁मानास	-10.4842
▁मानिया।	-10.4842
▁मानै	-10.4842
▁मारुति	-10.4842
▁मालायखौ	-10.4842
▁मालायनो	-10.4842
▁मावदों	-10.4842
▁मावफारियाफोरा	-10.4842
▁माहारियाव	-10.4842
▁मिथिखा	-10.4842
▁मिनिटसो	-10.4842
▁मुंखʼनाय	-10.4842
▁मुहिनि	-10.4842
▁मेडामनि	-10.4842
▁मेडिया	-10.4842
▁मेलेमनि	-10.4842
▁मेव	-10.4842
▁मैयानि	-10.4842
▁मैला	-10.4842
▁मैहुराव	-10.4842
▁मोखाङावनो	-10.4842
▁मोनखौ	-10.4842
▁मोनजायो	-10.4842
▁मोनबाय,	-10.4842
▁मोनलायनायखौ	-10.4842
▁मोनलायनायनि	-10.4842
▁मोन्दोंमोन।	-10.4842
▁मोसौखौ	-10.4842
▁यै	-10.4842
▁रमायना	-10.4842
▁रमेननि	-10.4842
▁राखाउ	-10.4842
▁रागजों	-10.4842
▁राङा	-10.4842
▁राजखान्थियारि	-10.4842
▁रायजो	-10.4842
▁राव,	-10.4842
▁रावनिफ्राय	-10.4842
▁रुंसार	-10.4842
▁रुमखौ	-10.4842
▁रेदि	-10.4842
▁रैखानि	-10.4842
▁लगायनानै	-10.4842
▁लवार	-10.4842
▁लांदों	-10.4842
▁लाइट	-10.4842
▁लाउदुम	-10.4842
▁लाखि	-10.4842
▁लाग्रा	-10.4842
▁लाजिनो	-10.4842
▁लानांगोन।	-10.4842
▁लान्था	-10.4842
▁लाफानो	-10.4842
▁लाया।	-10.4842
▁लासैयै	-10.4842
▁लाहारीनि	-10.4842
▁लिंहरनानै	-10.4842
▁लिरदों।	-10.4842
▁लिरनायखौ	-10.4842
▁लिरनायनि	-10.4842
▁लिर।	-10.4842
▁लोगो-लोगो	-10.4842
▁लोङा	-10.4842
▁लोमजानायनि	-10.4842
▁शंकरनि	-10.4842
▁शिबराज	-10.4842
▁सʼना,	-10.4842
▁सʼना।	-10.4842
▁संग्रा	-10.4842
▁संग्रायाव	-10.4842
▁सनानि	-10.4842
▁सफ्ट्	-10.4842
▁समर	-10.4842
▁समाजखौ	-10.4842
▁समायखौ	-10.4842
▁सयथि	-10.4842
▁सलʼमागिरिनि	-10.4842
▁साजायनाय	-10.4842
▁सानजौफु	-10.4842
▁सानथामनि	-10.4842
▁सानब्लाबो	-10.4842
▁सानहाबनानै	-10.4842
▁साना।	-10.4842
▁सान्थ्रिफोर	-10.4842
▁सान्थ्रिफोरखौ	-10.4842
▁साबगौ	-10.4842
▁सामलायनो	-10.4842
▁सायो।	-10.4842
▁सालाय	-10.4842
▁सि-जोम	-10.4842
▁सिं,	-10.4842
▁सिं।	-10.4842
▁सिखौ	-10.4842
▁सिगाङाव।	-10.4842
▁सिङाव।	-10.4842
▁सिथलायाव	-10.4842
▁सिनायाखै	-10.4842
▁सिन्था	-10.4842
▁सिमाङा	-10.4842
▁सिमाङाव	-10.4842
▁सिमानि	-10.4842
▁सिलाराम,	-10.4842
▁सुखे	-10.4842
▁सुलु	-10.4842
▁सेंग्राफोरखौ	-10.4842
▁सेरे	-10.4842
▁सोंबाय-	-10.4842
▁सोंहरबाय	-10.4842
▁सोदोबथिया	-10.4842
▁सोदोबाव	-10.4842
▁सोद्रोम	-10.4842
▁सोमावसारनो	-10.4842
▁सोरखार	-10.4842
▁सोरमाङा	-10.4842
▁सोलोंथाय	-10.4842
▁ह,	-10.4842
▁हमासै।	-10.4842
▁हमो	-10.4842
▁हरै	-10.4842
▁हर्खाब	-10.4842
▁हांखो।	-10.4842
▁हाखिमनि	-10.4842
▁हागौ।'	-10.4842
▁हादरा	-10.4842
▁हादाब-	-10.4842
▁हाबफैनानै	-10.4842
▁हाबफैयो।]	-10.4842
▁हाबबोयो)	-10.4842
▁हाबहां	-10.4842
▁हाबाफारिजों	-10.4842
▁हाबाफारिया	-10.4842
▁हाबो	-10.4842
▁हायनारि	-10.4842
▁हायैयाव	-10.4842
▁हारसिङैनो	-10.4842
▁हावरिया,	-10.4842
▁हि:।	-10.4842
▁हिन्जावफोर	-10.4842
▁हिन्जावफोरनि	-10.4842
▁हेड	-10.4842
▁होख्राव	-10.4842
▁होननानैनो	-10.4842
▁होनाय,	-10.4842
▁होबथानो	-10.4842
▁होब्लानो	-10.4842
▁हौवा,	-10.4842
▁"औ।"	-10.5896
▁"गुड	-10.5896
▁"जोंनि	-10.5896
▁"दा	-10.5896
▁"नोंथांनि	-10.5896
▁MS-DOS	-10.5896
▁October,	-10.5896
▁Yes,	-10.5896
▁]।	-10.5896
▁a	-10.5896
▁अ.	-10.5896
▁अजितनो	-10.5896
▁अनथाइ	-10.5896
▁अननानै	-10.5896
▁अननायाव	-10.5896
▁अभार	-10.5896
▁अमब्रा	-10.5896
▁अरखाव	-10.5896
▁अलकेशनि	-10.5896
▁आंखि	-10.5896
▁आंखौसो	-10.5896
▁आंबा	-10.5896
▁आइ.	-10.5896
▁आखुथायखौ	-10.5896
▁आथोननि	-10.5896
▁आदाखौ	-10.5896
▁आदानि	-10.5896
▁आनजादनि	-10.5896
▁आनारामखौ	-10.5896
▁आबʼ।	-10.5896
▁आबै,	-10.5896
▁आमाइ,	-10.5896
▁आयु	-10.5896
▁आलारि	-10.5896
▁आलुमिंगि	-10.5896
▁आवथायनो	-10.5896
▁आवाज	-10.5896
▁आसोल	-10.5896
▁इंख्रि,	-10.5896
▁इंराज	-10.5896
▁इउनिट	-10.5896
▁इनफरमेसनफोरखौ	-10.5896
▁इसिङाव	-10.5896
▁इसोरा	-10.5896
▁उथ्रिनो	-10.5896
▁उदुवा	-10.5896
▁उनथाराव	-10.5896
▁उन्दुनानै	-10.5896
▁उन्दैयाव	-10.5896
▁एंगार	-10.5896
▁एंगारनाय	-10.5896
▁एक्सटेनसन	-10.5896
▁एप्रिल	-10.5896
▁एफनि	-10.5896
▁ऐ,	-10.5896
▁ओंखारबोनाय	-10.5896
▁ओंखारलांबाय	-10.5896
▁क,	-10.5896
▁कन्या:	-10.5896
▁कम्पिउटार।	-10.5896
▁कर्कट:	-10.5896
▁कामरुप	-10.5896
▁कुम्भ:	-10.5896
▁कैलाशा	-10.5896
▁खʼनायाव	-10.5896
▁खननानै	-10.5896
▁खन्थाइ,	-10.5896
▁खरʼयाव	-10.5896
▁खांनाय	-10.5896
▁खानायखौ	-10.5896
▁खानि	-10.5896
▁खान्थिया	-10.5896
▁खायसेया	-10.5896
▁खारै	-10.5896
▁खालामनांगोन।	-10.5896
▁खालारखालि	-10.5896
▁खिफि	-10.5896
▁खुंथाइ	-10.5896
▁खुलुमबाय।	-10.5896
▁खुसिजों	-10.5896
▁खेरासिन	-10.5896
▁खेवनाय	-10.5896
▁खैफोदखौ	-10.5896
▁खैफोर	-10.5896
▁खोख्लैनो	-10.5896
▁खोथाखौनो	-10.5896
▁खोमसियाव	-10.5896
▁खोमसि।	-10.5896
▁खोलाहा	-10.5896
▁खौरांगिरि	-10.5896
▁खौसेयै	-10.5896
▁ख्लाब	-10.5896
▁गʼस्ला	-10.5896
▁गगन्द	-10.5896
▁गदʼखौ	-10.5896
▁गनाय	-10.5896
▁गनो	-10.5896
▁गला	-10.5896
▁गसं	-10.5896
▁गसाथिया	-10.5896
▁गसाया	-10.5896
▁गस्लाखौ	-10.5896
▁गहेना	-10.5896
▁गाखोनाय	-10.5896
▁गाब।	-10.5896
▁गामिखौ	-10.5896
▁गामिया	-10.5896
▁गारबोनाय	-10.5896
▁गारिजों	-10.5896
▁गावनानै	-10.5896
▁गिदित	-10.5896
▁गिनाया	-10.5896
▁गियो।	-10.5896
▁गिलु	-10.5896
▁गेजेरजोंनो	-10.5896
▁गेम	-10.5896
▁गेसेव	-10.5896
▁गो	-10.5896
▁गोख्रैयै	-10.5896
▁गोथार,	-10.5896
▁गोथो	-10.5896
▁गोनांथार।	-10.5896
▁गोबाङानो	-10.5896
▁ग्रीक	-10.5896
▁चौधुरीया	-10.5896
▁जग्रा	-10.5896
▁जथुम्मायाव	-10.5896
▁जफायो।	-10.5896
▁जब्द	-10.5896
▁जाखांनाय	-10.5896
▁जाखोब्रा	-10.5896
▁जाजोबबाय।	-10.5896
▁जाथावै	-10.5896
▁जादोंब्लाबो	-10.5896
▁जादोंमोनब्लाबो	-10.5896
▁जानजियाव	-10.5896
▁जायगानिफ्राय	-10.5896
▁जालांबाय	-10.5896
▁जाहां	-10.5896
▁जाहैयो।	-10.5896
▁जाहोनखौ	-10.5896
▁जाहोनानै	-10.5896
▁जाहोनाय	-10.5896
▁जिंगानि	-10.5896
▁जिंनि	-10.5896
▁जुजाइनि	-10.5896
▁जेंनाफोरखौ	-10.5896
▁जेंनाया	-10.5896
▁जेखि	-10.5896
▁जेसेनो	-10.5896
▁जोंथिहा	-10.5896
▁जोमनाय	-10.5896
▁जौगा	-10.5896
▁जौगानायाव	-10.5896
▁जौगानो	-10.5896
▁जौ।	-10.5896
▁ज्राब	-10.5896
▁टाउन	-10.5896
▁टेबुलाव	-10.5896
▁टेबोल	-10.5896
▁ट्रेजिक	-10.5896
▁डʼ	-10.5896
▁डकुमेन्ट	-10.5896
▁डा:	-10.5896
▁डाक्टार	-10.5896
▁डिस्कनि	-10.5896
▁डिस्क्	-10.5896
▁त,	-10.5896
▁तुला:	-10.5896
▁थगायनो	-10.5896
▁थजेन	-10.5896
▁थफ्ला	-10.5896
▁थबनो	-10.5896
▁थां,	-10.5896
▁थांखियाव	-10.5896
▁थांनांगौ	-10.5896
▁थांफिनबाय।	-10.5896
▁थांब्लानो	-10.5896
▁थाइजौ	-10.5896
▁थादो	-10.5896
▁थाना	-10.5896
▁थाबोला	-10.5896
▁थारला	-10.5896
▁थालाखौ	-10.5896
▁थासारिखौ	-10.5896
▁थिनबाय।	-10.5896
▁थिफुं	-10.5896
▁थियेटारखौ	-10.5896
▁थुनलाइगिरि	-10.5896
▁थुनलाइगिरिफोरा	-10.5896
▁थुनलाया	-10.5896
▁थुरि	-10.5896
▁थैगोन	-10.5896
▁थैनायजों	-10.5896
▁थैबाय।	-10.5896
▁थों	-10.5896
▁द	-10.5896
▁दʼसे	-10.5896
▁दंसै	-10.5896
▁दङमोन	-10.5896
▁दङ।"	-10.5896
▁दमासुवा	-10.5896
▁दयारामा	-10.5896
▁दर्बासिया	-10.5896
▁दाग्रा	-10.5896
▁दानसʼनानै	-10.5896
▁दानसोरां	-10.5896
▁दानाय,	-10.5896
▁दालां	-10.5896
▁दावगा	-10.5896
▁दावहारु	-10.5896
▁दासि	-10.5896
▁दिथा	-10.5896
▁दुं	-10.5896
▁दुखुवाव	-10.5896
▁दुथां	-10.5896
▁देरहाग्रा	-10.5896
▁दैसा	-10.5896
▁दोनखानाय	-10.5896
▁दोहोन	-10.5896
▁दोहोरोम	-10.5896
▁द्लामैनो	-10.5896
▁ध,	-10.5896
▁धनु:	-10.5896
▁न-बां	-10.5896
▁नʼवा	-10.5896
▁नंखायनो	-10.5896
▁नंदों	-10.5896
▁नट	-10.5896
▁नवाव।	-10.5896
▁नांजाब	-10.5896
▁नांलिया।	-10.5896
▁नागिरनाया	-10.5896
▁नाजादों	-10.5896
▁नाजानानै	-10.5896
▁नाजाब्लाबो	-10.5896
▁नामा,	-10.5896
▁नामा।	-10.5896
▁नायब्लानो	-10.5896
▁नालाय।	-10.5896
▁नुबाय।	-10.5896
▁ने	-10.5896
▁नैजिबा	-10.5896
▁नोंथांमोनहा	-10.5896
▁नोंलʼ	-10.5896
▁पजʼवा	-10.5896
▁पार्टि	-10.5896
▁पुलिसनो	-10.5896
▁पुलिसफोरा	-10.5896
▁प्रफेसार	-10.5896
▁प्रसेसिं	-10.5896
▁प्रेकटिस	-10.5896
▁प्लटा	-10.5896
▁फरायगासिनो	-10.5896
▁फसंनो	-10.5896
▁फाग्लिया	-10.5896
▁फाथिनानै	-10.5896
▁फारियाव	-10.5896
▁फालांगिरि	-10.5896
▁फालि	-10.5896
▁फालु	-10.5896
▁फालो,	-10.5896
▁फावनि	-10.5896
▁फास	-10.5896
▁फासि	-10.5896
▁फिट	-10.5896
▁फिफा	-10.5896
▁फिफानि	-10.5896
▁फिसाइजों	-10.5896
▁फिसाजोया	-10.5896
▁फिसाज्लाया	-10.5896
▁फिसाफोरा	-10.5896
▁फु	-10.5896
▁फुंनिफ्रायनो	-10.5896
▁फुन्नानै	-10.5896
▁फेल	-10.5896
▁फैफिनबाय।	-10.5896
▁फैलाय	-10.5896
▁फोनांनानै	-10.5896
▁फोसाबनाय	-10.5896
▁फोसाबनो	-10.5896
▁फोसावदों।	-10.5896
▁बʼहा	-10.5896
▁बंफां	-10.5896
▁बड़ʼनि	-10.5896
▁बदमाइस,	-10.5896
▁बबा	-10.5896
▁बबेनिफ्रायबा	-10.5896
▁बयनिखुरैबो	-10.5896
▁बाइजोआव	-10.5896
▁बाख्नाय	-10.5896
▁बाजा	-10.5896
▁बाथ्राफोरा	-10.5896
▁बाथ्रायाबो	-10.5896
▁बानजाय	-10.5896
▁बानायसो,	-10.5896
▁बानाया	-10.5896
▁बारायनायाव	-10.5896
▁बावहाय	-10.5896
▁बावैसो	-10.5896
▁बासायनो	-10.5896
▁बाहेरायाव	-10.5896
▁बिखायाव।	-10.5896
▁बिजनी	-10.5896
▁बिजिर	-10.5896
▁बिजिरनायखौ	-10.5896
▁बिथिंआव	-10.5896
▁बिथिखौ	-10.5896
▁बिदिन्थानि	-10.5896
▁बिदैखौ	-10.5896
▁बिनाव	-10.5896
▁बिनिनो	-10.5896
▁बिफा,	-10.5896
▁बिफांखौ	-10.5896
▁बिफायाबो	-10.5896
▁बिमाइ	-10.5896
▁बियादै	-10.5896
▁बिलाइस्रिया	-10.5896
▁बिश्व	-10.5896
▁बिसिजों	-10.5896
▁बिसोरो।	-10.5896
▁बुंग्रा	-10.5896
▁बुंङो।	-10.5896
▁बुंजायो	-10.5896
▁बुंथिगिरि	-10.5896
▁बुंथिनाय	-10.5896
▁बुंसʼ	-10.5896
▁बुंसʼहाया।	-10.5896
▁बुंहां	-10.5896
▁बुङा	-10.5896
▁बुङाबानो	-10.5896
▁बुङा।	-10.5896
▁बुङो--	-10.5896
▁बुजायनो	-10.5896
▁बुब्लि	-10.5896
▁बुर्लुंबुथुर	-10.5896
▁बृष:	-10.5896
▁बेंपार्ति	-10.5896
▁बेग	-10.5896
▁बेज	-10.5896
▁बेनो-	-10.5896
▁बेनोदि	-10.5896
▁बेफोरखौनो	-10.5896
▁बेफोरबादि	-10.5896
▁बेलनि	-10.5896
▁बेलस्रि।	-10.5896
▁बोबाय	-10.5896
▁बोरसिनि	-10.5896
▁बोराइनि	-10.5896
▁बोसोरारि	-10.5896
▁बोहैनाय	-10.5896
▁ब्रिटिस	-10.5896
▁ब्लां	-10.5896
▁भुटियाफोरजों	-10.5896
▁मंगलबारखालि	-10.5896
▁मकर:	-10.5896
▁मदारामा	-10.5896
▁मनʼमहन	-10.5896
▁मनिपुरनि	-10.5896
▁मम	-10.5896
▁मागो	-10.5896
▁मानसियाबो	-10.5896
▁मानसिहा	-10.5896
▁माराव	-10.5896
▁मालायनाव	-10.5896
▁माव	-10.5896
▁मावनायखौ	-10.5896
▁मावा	-10.5896
▁मावै	-10.5896
▁माष्टार	-10.5896
▁मिथुन:	-10.5896
▁मीन:	-10.5896
▁मीना	-10.5896
▁मुंहा	-10.5896
▁मुं।	-10.5896
▁मुलुगनिफ्राय	-10.5896
▁मृगेन	-10.5896
▁मेजर	-10.5896
▁मेलनि	-10.5896
▁मेष:	-10.5896
▁मैखुन	-10.5896
▁मैदेरा	-10.5896
▁मोदै।	-10.5896
▁मोदोमजों	-10.5896
▁मोदोमफ्रु	-10.5896
▁मोनथिगौ	-10.5896
▁मोननाय।	-10.5896
▁मोनबोनाय	-10.5896
▁मोनि	-10.5896
▁मोन्नाव	-10.5896
▁मोबायजोंबो	-10.5896
▁रʼ,	-10.5896
▁रंगिना	-10.5896
▁रंजालिखौ	-10.5896
▁रमाया	-10.5896
▁राजखान्थि,	-10.5896
▁रान्दि	-10.5896
▁रायलायनानै	-10.5896
▁रायलायनाया	-10.5896
▁रायलायबाय	-10.5896
▁रासायनारि	-10.5896
▁राहायै	-10.5896
▁रुगुङाव	-10.5896
▁रेप	-10.5896
▁रेस	-10.5896
▁रोंगौथि	-10.5896
▁रोंगौ।	-10.5896
▁लाउथि	-10.5896
▁लाकीया	-10.5896
▁लाङो	-10.5896
▁लाजियो।	-10.5896
▁लाम	-10.5896
▁लायोब्ला	-10.5896
▁लावथि	-10.5896
▁लिंहरदों	-10.5896
▁लोंखां	-10.5896
▁लोंनायनि	-10.5896
▁लोंनायाव	-10.5896
▁लोगोजों	-10.5896
▁शाला	-10.5896
▁स	-10.5896
▁सʼ	-10.5896
▁संनाय	-10.5896
▁सना।	-10.5896
▁सन्थलाया	-10.5896
▁समफोर	-10.5896
▁सरासनस्रा	-10.5896
▁सलʼफोरनि	-10.5896
▁सलʼफोराव	-10.5896
▁सहखौ	-10.5896
▁सहरनि	-10.5896
▁सहाय	-10.5896
▁सांग्राङा	-10.5896
▁सानगासिनो	-10.5896
▁सानना	-10.5896
▁साननांगौ	-10.5896
▁साननैनि	-10.5896
▁सानसेबो	-10.5896
▁सानस्रिया	-10.5896
▁सानि	-10.5896
▁सानैखौबो	-10.5896
▁सान्दों।	-10.5896
▁सान।	-10.5896
▁साफा-सानै	-10.5896
▁साफ्रासीफोरा	-10.5896
▁साबिखौ	-10.5896
▁साब्रै	-10.5896
▁सायखं	-10.5896
▁साया	-10.5896
▁सारेण्डार	-10.5896
▁साल	-10.5896
▁सावरायनानै	-10.5896
▁सासेखौ	-10.5896
▁साहाया	-10.5896
▁सि,	-10.5896
▁सिंह:	-10.5896
▁सिख्लाफोरनि	-10.5896
▁सिख्लाफोरा	-10.5896
▁सिङावनो	-10.5896
▁सिमांखौ	-10.5896
▁सिमाङावबो	-10.5896
▁सिरिनि	-10.5896
▁सिरिसे	-10.5896
▁सिला	-10.5896
▁सुग्रि-बाग्रि	-10.5896
▁सुथुरनि	-10.5896
▁सुथुरनिफ्राय	-10.5896
▁सुनाय	-10.5896
▁सुरनाय	-10.5896
▁सैमाया	-10.5896
▁सोदोबफ्रा	-10.5896
▁सोमबोरनि	-10.5896
▁सोलिबोनाय	-10.5896
▁सोहोरनि	-10.5896
▁स्कुल	-10.5896
▁स्राव	-10.5896
▁हजम	-10.5896
▁हनै,	-10.5896
▁हमदोंमोन।	-10.5896
▁हरदों	-10.5896
▁हरबिलासनि	-10.5896
▁हाउसाव	-10.5896
▁हागोन,	-10.5896
▁हागोनखौ	-10.5896
▁हाजʼवारीया।	-10.5896
▁हाजʼवारी।"	-10.5896
▁हाथियार	-10.5896
▁हानानै	-10.5896
▁हानायमानि	-10.5896
▁हान्जाखौ	-10.5896
▁हाबाफोरखौ	-10.5896
▁हामफे,	-10.5896
▁हालदै	-10.5896
▁हासुनो	-10.5896
▁हिनजावा	-10.5896
▁होखारनो	-10.5896
▁होननो	-10.5896
▁होफैनो	-10.5896
▁हौवाखौ	-10.5896
▁।।आयदा	-10.5896
▁September	-10.6468
▁!!"	-10.7074
▁"आंहा	-10.7074
▁"बियो	-10.7074
▁''मा	-10.7074
▁'सोमदोन'	-10.7074
▁(7)	-10.7074
▁(सानैबो	-10.7074
▁--'	-10.7074
▁-हा:	-10.7074
▁.	-10.7074
▁....।	-10.7074
▁.txt	-10.7074
▁200	-10.7074
▁28	-10.7074
▁500	-10.7074
▁60	-10.7074
▁<	-10.7074
▁अखाफोरनि	-10.7074
▁अख्रांमा	-10.7074
▁अजित	-10.7074
▁अननायखौ	-10.7074
▁अनसायनाय	-10.7074
▁अनाली	-10.7074
▁अपारेशन	-10.7074
▁अबंलाउरिया	-10.7074
▁अबंलावरिनि	-10.7074
▁अलʼका-	-10.7074
▁आ:	-10.7074
▁आंनिया	-10.7074
▁आइजें	-10.7074
▁आइजोनि	-10.7074
▁आइफोर	-10.7074
▁आउटपुट	-10.7074
▁आखʼ-फाखʼ	-10.7074
▁आखलाव	-10.7074
▁आखा	-10.7074
▁आखान्थियाव	-10.7074
▁आखाया	-10.7074
▁आखुफोरखौ	-10.7074
▁आगोमा	-10.7074
▁आजावनानै	-10.7074
▁आदबखौ	-10.7074
▁आदबनि	-10.7074
▁आनारी।	-10.7074
▁आनै	-10.7074
▁आन्चलिक	-10.7074
▁आन्जादाव	-10.7074
▁आन्दो	-10.7074
▁आफायाबो	-10.7074
▁आबसा	-10.7074
▁आबैनि	-10.7074
▁आयनायाव	-10.7074
▁आरिखां	-10.7074
▁आरो।	-10.7074
▁आर्य	-10.7074
▁आलाइयाबो	-10.7074
▁आलेनो	-10.7074
▁आसʼ	-10.7074
▁आसारि,	-10.7074
▁इ.	-10.7074
▁इंख्रिया	-10.7074
▁इंलिस	-10.7074
▁इउ,	-10.7074
▁इक्लेटिक	-10.7074
▁इण्डियान	-10.7074
▁इनफरमेसन	-10.7074
▁उदैया	-10.7074
▁उन्दै,	-10.7074
▁उन्दैनिफ्रायनो	-10.7074
▁उरां-फारां	-10.7074
▁उसाव	-10.7074
▁ऊँ	-10.7074
▁एंगारनायनि	-10.7074
▁एक	-10.7074
▁एखमबा	-10.7074
▁एम.ए.	-10.7074
▁एमेले	-10.7074
▁एरैबादि।	-10.7074
▁ओंखारलांनो	-10.7074
▁ओंखारहां	-10.7074
▁ओंथिखौ	-10.7074
▁ककराझाराव	-10.7074
▁कम्पिउटाराव	-10.7074
▁कर्ट	-10.7074
▁कर्टाव	-10.7074
▁कामाख्या	-10.7074
▁कामाख्यानि	-10.7074
▁केसनि	-10.7074
▁कैलाश	-10.7074
▁खनखांनानै	-10.7074
▁खनसायनि	-10.7074
▁खरʼनिफ्राय	-10.7074
▁खरथेङा	-10.7074
▁खलथाया	-10.7074
▁खाजाखौ	-10.7074
▁खाजि	-10.7074
▁खाथि-खाला	-10.7074
▁खाथिनिफ्राय	-10.7074
▁खान्थियारि	-10.7074
▁खाब	-10.7074
▁खायफाबा	-10.7074
▁खायै	-10.7074
▁खारदो	-10.7074
▁खारबोनानै	-10.7074
▁खारलाङो।	-10.7074
▁खाराव	-10.7074
▁खाराव-माराव	-10.7074
▁खालामजानाय	-10.7074
▁खालामदो।"	-10.7074
▁खालामनांगौ।	-10.7074
▁खालामब्लानो	-10.7074
▁खालामै	-10.7074
▁खालामो,	-10.7074
▁खालामोब्ला	-10.7074
▁खालाराव	-10.7074
▁खालिनि	-10.7074
▁खावलाइ	-10.7074
▁खिन्थानाय	-10.7074
▁खियो	-10.7074
▁खियो।	-10.7074
▁खिरखिजों	-10.7074
▁खिला	-10.7074
▁खुथार	-10.7074
▁खुदियाया	-10.7074
▁खुन	-10.7074
▁खुलुम	-10.7074
▁खेराइ	-10.7074
▁खैनाशान्तिया	-10.7074
▁खोथा।	-10.7074
▁खोनानाय	-10.7074
▁खोनायाखै	-10.7074
▁खोमा।	-10.7074
▁खौसेथि	-10.7074
▁गंग्लायनानै	-10.7074
▁गंसे,	-10.7074
▁गथʼ-गथाय	-10.7074
▁गथʼफोरा	-10.7074
▁गब्लंजों	-10.7074
▁गमामा	-10.7074
▁गरसे	-10.7074
▁गलाम	-10.7074
▁गाखोनो	-10.7074
▁गाखोबाय।	-10.7074
▁गाग्लोबनो	-10.7074
▁गानग्रा	-10.7074
▁गान्थि	-10.7074
▁गाबहां	-10.7074
▁गाबोननिफ्राय	-10.7074
▁गायनो	-10.7074
▁गारो।	-10.7074
▁गालांदों।	-10.7074
▁गाव-गावनि	-10.7074
▁गावथारनानै	-10.7074
▁गावदां	-10.7074
▁गावसोरनो	-10.7074
▁गावो	-10.7074
▁गिलासखौ	-10.7074
▁गिलु-फालु	-10.7074
▁गुद	-10.7074
▁गुदिनिफ्राय	-10.7074
▁गुमै,	-10.7074
▁गुरुं	-10.7074
▁गेजेराव।	-10.7074
▁गेटजों	-10.7074
▁गेदाइया	-10.7074
▁गेबेङै	-10.7074
▁गेब्ला,	-10.7074
▁गेलेनो	-10.7074
▁गेस्रेम	-10.7074
▁गैयैयाव	-10.7074
▁गोजांस्रिउ	-10.7074
▁गोथाङै	-10.7074
▁गोथौ,	-10.7074
▁गोदान,	-10.7074
▁गोनांथिखौ	-10.7074
▁गोनांसिन	-10.7074
▁गोनाङा	-10.7074
▁गोनो-गोथो	-10.7074
▁गोफोन	-10.7074
▁गोमानानै	-10.7074
▁गोरबोनि	-10.7074
▁गोरां	-10.7074
▁गोरायै	-10.7074
▁गोरोन्थिया	-10.7074
▁गोरोबनाय	-10.7074
▁गोलाव,	-10.7074
▁गौहाटीयाव	-10.7074
▁चाहा	-10.7074
▁चीननि	-10.7074
▁चेयार	-10.7074
▁जʼखायसे	-10.7074
▁जʼयो	-10.7074
▁जनायनिफ्राय	-10.7074
▁जरा	-10.7074
▁जाखां-लोंखां	-10.7074
▁जागोनखौ	-10.7074
▁जागौमोन।	-10.7074
▁जाथाय,	-10.7074
▁जाथोंसै।	-10.7074
▁जाथों।	-10.7074
▁जानांदों।	-10.7074
▁जानाङो।	-10.7074
▁जानाय-लोंनाय,	-10.7074
▁जानायबादि	-10.7074
▁जान्जियाव	-10.7074
▁जाब	-10.7074
▁जाबजों	-10.7074
▁जायफोरा	-10.7074
▁जायाखैमोन।	-10.7074
▁जायाखैसै।	-10.7074
▁जायामोन	-10.7074
▁जालाङो	-10.7074
▁जालायनाय	-10.7074
▁जालायो।	-10.7074
▁जावनानै	-10.7074
▁जावलियाया	-10.7074
▁जिउजों	-10.7074
▁जिबख्रि	-10.7074
▁जिबनि	-10.7074
▁जिरादा	-10.7074
▁जिल्लायाव	-10.7074
▁जुथा	-10.7074
▁जुथायखौ	-10.7074
▁जुलाइ	-10.7074
▁जेंना,	-10.7074
▁जेंनाजों	-10.7074
▁जेकेटनि	-10.7074
▁जेकेटा	-10.7074
▁जेखौबो	-10.7074
▁जेरावनो	-10.7074
▁जेरै,	-10.7074
▁जो-जोला	-10.7074
▁जोंजों	-10.7074
▁जोंथिहा।	-10.7074
▁जोंबादि	-10.7074
▁जोंरुनि	-10.7074
▁जोंरुवा।	-10.7074
▁जोनोम,	-10.7074
▁जोबाखै	-10.7074
▁जौसां	-10.7074
▁टा	-10.7074
▁ड,	-10.7074
▁डब्लिउ	-10.7074
▁डाइन	-10.7074
▁डि.	-10.7074
▁डेटा	-10.7074
▁थ,	-10.7074
▁थरसे	-10.7074
▁थांगोन,	-10.7074
▁थांदिनि।"	-10.7074
▁थांनायसै।	-10.7074
▁थांनोसै।"	-10.7074
▁थां।"	-10.7074
▁थाइलालिनि	-10.7074
▁थाङै	-10.7074
▁थाङोबा	-10.7074
▁थानसालियाव	-10.7074
▁थायनैनि	-10.7074
▁थायो।"	-10.7074
▁थावरिनो	-10.7074
▁थासʼ	-10.7074
▁थासान्दियाव।	-10.7074
▁थासारिया	-10.7074
▁थासारियाव	-10.7074
▁थिउरियाफोरखौ	-10.7074
▁थिननाय	-10.7074
▁थिसननाय	-10.7074
▁थुयै	-10.7074
▁थुलुंसि	-10.7074
▁थु।	-10.7074
▁थेलेफा,	-10.7074
▁थैजासिम	-10.7074
▁द,	-10.7074
▁दख्ना	-10.7074
▁दफा	-10.7074
▁दरबा	-10.7074
▁दरलायनि	-10.7074
▁दरसे	-10.7074
▁दाउदै	-10.7074
▁दाउस्रि	-10.7074
▁दाखु	-10.7074
▁दागा	-10.7074
▁दाजाब	-10.7074
▁दाजाबदानि	-10.7074
▁दाथ	-10.7074
▁दाथʼ	-10.7074
▁दाद	-10.7074
▁दाननो	-10.7074
▁दानसेनि	-10.7074
▁दाबिनायनि	-10.7074
▁दाबुं।	-10.7074
▁दामनो	-10.7074
▁दायनिगिरिखौ	-10.7074
▁दायो।	-10.7074
▁दाय।	-10.7074
▁दारै	-10.7074
▁दालायाव	-10.7074
▁दावगानो	-10.7074
▁दावबायनाया	-10.7074
▁दाहाया	-10.7074
▁दाहालागै	-10.7074
▁दिनैलाय	-10.7074
▁दिन्थिथि	-10.7074
▁दिन्थिनाया	-10.7074
▁दिहुनगिरि	-10.7074
▁दिहुननायनि	-10.7074
▁दिहुन्नानै	-10.7074
▁दुइसिन	-10.7074
▁दुफुं	-10.7074
▁दुब्लि	-10.7074
▁दुर्जाङाबो	-10.7074
▁देउल	-10.7074
▁देरनो	-10.7074
▁देरबाय।	-10.7074
▁देरहाग्राया।	-10.7074
▁देरहानो	-10.7074
▁देवान	-10.7074
▁देवाननि	-10.7074
▁दैखर	-10.7074
▁दैथायहरनो	-10.7074
▁दोनग्रा	-10.7074
▁दोनथुमग्रा	-10.7074
▁दोनथुमनो	-10.7074
▁दोहो	-10.7074
▁धुना	-10.7074
▁धोनि	-10.7074
▁धोरोम,	-10.7074
▁नंमारगौ	-10.7074
▁नङाब्ला,	-10.7074
▁नबीन	-10.7074
▁नांगौमोन	-10.7074
▁नांग्रा	-10.7074
▁नांथाबनानै	-10.7074
▁नांथाव	-10.7074
▁नांबावगौ	-10.7074
▁नागानि	-10.7074
▁नागाया	-10.7074
▁नागारै	-10.7074
▁नाजानायनि	-10.7074
▁नाजानाया	-10.7074
▁नायगिरनानै	-10.7074
▁नायैनो	-10.7074
▁नायो।)	-10.7074
▁नार्जारिया	-10.7074
▁नार्जारी।	-10.7074
▁नालेया	-10.7074
▁निलिखत	-10.7074
▁नुयो-	-10.7074
▁नुवा।	-10.7074
▁नुहरो।	-10.7074
▁नेम-खान्थि	-10.7074
▁नेमखौ	-10.7074
▁नोंदा	-10.7074
▁नोंदाया	-10.7074
▁नोंनि,	-10.7074
▁नोंनो।	-10.7074
▁नोंलाय।	-10.7074
▁नोंसोरो	-10.7074
▁नोगोद	-10.7074
▁नोजोरखौ	-10.7074
▁प,	-10.7074
▁पापी	-10.7074
▁पुलिस,	-10.7074
▁पुलिसजों	-10.7074
▁प्रदीपा	-10.7074
▁फंबाया	-10.7074
▁फंसेलʼ	-10.7074
▁फरायनायनि	-10.7074
▁फरायफुनाय	-10.7074
▁फरायो	-10.7074
▁फसंनाय	-10.7074
▁फाइलफोरखौ	-10.7074
▁फाखʼनाव	-10.7074
▁फानलु	-10.7074
▁फार्सेथिं	-10.7074
▁फालाया	-10.7074
▁फावथाइगिरिनि	-10.7074
▁फावथिनाया	-10.7074
▁फित	-10.7074
▁फिथाइखौ	-10.7074
▁फिनबाय	-10.7074
▁फिल्टार	-10.7074
▁फिसाजो।	-10.7074
▁फिसाफ्रा	-10.7074
▁फुंआव	-10.7074
▁फे	-10.7074
▁फैगौ।	-10.7074
▁फैना	-10.7074
▁फैनायसै।	-10.7074
▁फैनाय।	-10.7074
▁फैफिननानै	-10.7074
▁फैब्लानो	-10.7074
▁फैयाखै	-10.7074
▁फैयै	-10.7074
▁फैयो,	-10.7074
▁फोथांनो	-10.7074
▁फोथायथाव	-10.7074
▁फोथायो।	-10.7074
▁फोदो	-10.7074
▁फोरबो	-10.7074
▁फोरमानखौ	-10.7074
▁फोरमाय	-10.7074
▁फोरों	-10.7074
▁फोरोंनानै	-10.7074
▁फोलेरखौ	-10.7074
▁फोसाबनानै	-10.7074
▁फोसावनो	-10.7074
▁बजबना	-10.7074
▁बयनिख्रुइ	-10.7074
▁बरʼवानो	-10.7074
▁बरगयारीया	-10.7074
▁बांसिनै	-10.7074
▁बागान	-10.7074
▁बाजारनि	-10.7074
▁बाजिनानै	-10.7074
▁बाजै।	-10.7074
▁बाथ्रा,	-10.7074
▁बादलखौ	-10.7074
▁बाबुनि	-10.7074
▁बायबाय।	-10.7074
▁बायहेरायाव	-10.7074
▁बायोब्ला	-10.7074
▁बारबाय।	-10.7074
▁बारलाम्फा	-10.7074
▁बारसनानै	-10.7074
▁बाराखौ	-10.7074
▁बारायनानै	-10.7074
▁बालु	-10.7074
▁बासिनो	-10.7074
▁बाहा	-10.7074
▁बाहागो।	-10.7074
▁बि,	-10.7074
▁बिखाजों	-10.7074
▁बिखुं	-10.7074
▁बिगुमा	-10.7074
▁बिगुमैखौ	-10.7074
▁बिजिरनाया	-10.7074
▁बिजोंनो	-10.7074
▁बिथांखिनि	-10.7074
▁बिथिंनि	-10.7074
▁बिदा-फंबाय	-10.7074
▁बिदिसो	-10.7074
▁बिनानाव।"	-10.7074
▁बिनाराम	-10.7074
▁बिफानाव	-10.7074
▁बिफोर	-10.7074
▁बिबनां	-10.7074
▁बिबा	-10.7074
▁बिबांनि	-10.7074
▁बिबायारि	-10.7074
▁बिबोनां	-10.7074
▁बिमानो	-10.7074
▁बियो,	-10.7074
▁बिर	-10.7074
▁बिलाया	-10.7074
▁बिलिदनानै	-10.7074
▁बिसनायाव	-10.7074
▁बुंगोन।	-10.7074
▁बुंबावनो	-10.7074
▁बुंबावो।	-10.7074
▁बुजिया	-10.7074
▁बुधबारखालि	-10.7074
▁बुध्दि	-10.7074
▁बुन्दाया	-10.7074
▁बुब्लिनि	-10.7074
▁बुब्लिया	-10.7074
▁बृशिक:	-10.7074
▁बेंक	-10.7074
▁बेंगिरि	-10.7074
▁बेंनो	-10.7074
▁बेथेर	-10.7074
▁बेनिफ्रायनो	-10.7074
▁बेफारिनि	-10.7074
▁बेरखांनाय	-10.7074
▁बेरखाङो	-10.7074
▁बेसिम	-10.7074
▁बेसेग्राब	-10.7074
▁बैफोर	-10.7074
▁बैसागुनि	-10.7074
▁बैसोआव	-10.7074
▁बोथ्रोदनानै	-10.7074
▁बोनायनि	-10.7074
▁बोसोरबा	-10.7074
▁बोसोरि	-10.7074
▁बोहैथिखौ	-10.7074
▁ब्रेक	-10.7074
▁भुगिनांनाय	-10.7074
▁भुटान	-10.7074
▁भ्लादिमिरा	-10.7074
▁मते	-10.7074
▁मदʼ	-10.7074
▁मनजुवा।	-10.7074
▁मनबारु	-10.7074
▁ममखौ	-10.7074
▁महर।	-10.7074
▁माइथायनिफ्राय	-10.7074
▁मादावनो	-10.7074
▁मानखौ	-10.7074
▁मानसिखौनो	-10.7074
▁मानिखौ	-10.7074
▁माबेबा	-10.7074
▁मामोन	-10.7074
▁माय,	-10.7074
▁मावगोन	-10.7074
▁मावजाग्रा	-10.7074
▁मावबाय	-10.7074
▁मावरिजा।	-10.7074
▁मावरिया-	-10.7074
▁मासिनि	-10.7074
▁माहारिखौ	-10.7074
▁मि	-10.7074
▁मिथिंगाया	-10.7074
▁मिथिंगायारि	-10.7074
▁मिथिना	-10.7074
▁मिथिबाय।	-10.7074
▁मिनिथाव	-10.7074
▁मिस	-10.7074
▁मुंमा:	-10.7074
▁मुंमा।	-10.7074
▁मुंरायनि	-10.7074
▁मुगैनाय	-10.7074
▁मुवाफोरा	-10.7074
▁मुवाया	-10.7074
▁मुस्रीमा	-10.7074
▁मेगनाबो	-10.7074
▁मेब्लाया	-10.7074
▁मेमʼरियाव	-10.7074
▁मोखांआव	-10.7074
▁मोख्रा	-10.7074
▁मोगथांनि	-10.7074
▁मोगामोगि	-10.7074
▁मोजांब्ला	-10.7074
▁मोजांसो	-10.7074
▁मोजाङा	-10.7074
▁मोनगासिनो	-10.7074
▁मोनफ्रामबो	-10.7074
▁मोनफ्रोमखौबो	-10.7074
▁मोनलोङा।	-10.7074
▁मोनसेखौ	-10.7074
▁मोनाखैमोन।	-10.7074
▁मोनासै।	-10.7074
▁मोन्दोंमोन	-10.7074
▁रंजा-बाजा	-10.7074
▁रबि,	-10.7074
▁रहमान	-10.7074
▁रां-रुफा	-10.7074
▁राइजोयाव	-10.7074
▁रागाखौ	-10.7074
▁राजाफोरनि	-10.7074
▁रान्नाय	-10.7074
▁रायखांनो	-10.7074
▁रायज्लाय	-10.7074
▁रायज्लायनायखौ	-10.7074
▁रिलिफ	-10.7074
▁रुजुनाय	-10.7074
▁रुनानै	-10.7074
▁रुब	-10.7074
▁रेडि	-10.7074
▁रेलवे	-10.7074
▁रोङाखै।	-10.7074
▁रोङि	-10.7074
▁लड	-10.7074
▁लांबाय,	-10.7074
▁लाइजामाव	-10.7074
▁लाइजौवा	-10.7074
▁लागासिनो	-10.7074
▁लागो	-10.7074
▁लादाय	-10.7074
▁लानांगौ।	-10.7074
▁लानायमोन।	-10.7074
▁लामाथिं	-10.7074
▁लाया	-10.7074
▁लाव	-10.7074
▁लावखार	-10.7074
▁लिरना	-10.7074
▁लिरनाय।	-10.7074
▁लेंहरदों	-10.7074
▁लेबेल	-10.7074
▁लोंखांनानै	-10.7074
▁लोंबाय।	-10.7074
▁लोगोफोरखौ	-10.7074
▁लोगोयाव	-10.7074
▁लोबबा	-10.7074
▁वार्ड	-10.7074
▁सतीश	-10.7074
▁सफैबाय	-10.7074
▁समनिफ्राय	-10.7074
▁समबारुनि	-10.7074
▁समायस्री	-10.7074
▁सल	-10.7074
▁साइकेलनि	-10.7074
▁साखि	-10.7074
▁साख्रिनि	-10.7074
▁सागु	-10.7074
▁साथ	-10.7074
▁सादु	-10.7074
▁सादोर	-10.7074
▁सानदोंमोन;	-10.7074
▁साननायनि	-10.7074
▁सानसुनि	-10.7074
▁सानसुमै	-10.7074
▁सानानै	-10.7074
▁सानैनिबो	-10.7074
▁सानैबो।	-10.7074
▁सान्थ्रिफोरा	-10.7074
▁साबुकखौ	-10.7074
▁साबुकनि	-10.7074
▁सामोल	-10.7074
▁सायायाव	-10.7074
▁सायाव।	-10.7074
▁सालियाव	-10.7074
▁सालिसखौ	-10.7074
▁साहाबा	-10.7074
▁सिखाङो	-10.7074
▁सिखार	-10.7074
▁सिखारबाय।	-10.7074
▁सिख्रि	-10.7074
▁सिख्लाफोर	-10.7074
▁सिख्लाफ्रा	-10.7074
▁सिजों	-10.7074
▁सिनजों	-10.7074
▁सिनि	-10.7074
▁सियाल	-10.7074
▁सिलाइखौ	-10.7074
▁सिलागां,	-10.7074
▁सिलारामा	-10.7074
▁सिस्टेमा	-10.7074
▁सुजुग्रानि	-10.7074
▁सुथारनो	-10.7074
▁सुवा	-10.7074
▁सेन्ट्रेल	-10.7074
▁सेरजानि	-10.7074
▁सेरै	-10.7074
▁सैथोनि	-10.7074
▁सैमाखौ	-10.7074
▁सोंथि	-10.7074
▁सोंब्ला	-10.7074
▁सोदोब,	-10.7074
▁सोदोबखौनो	-10.7074
▁सोदोबमा	-10.7074
▁सोदोबमाया	-10.7074
▁सोदोमस्रि	-10.7074
▁सोमजि	-10.7074
▁सोमाव	-10.7074
▁सोमोन्दोआ	-10.7074
▁सोरजिनायनि	-10.7074
▁सोलाय-सोलʼ	-10.7074
▁सोलोंसालिनि	-10.7074
▁सौवै	-10.7074
▁स्लʼगान	-10.7074
▁ह	-10.7074
▁हं	-10.7074
▁हगारनो	-10.7074
▁हम	-10.7074
▁हय	-10.7074
▁हर,	-10.7074
▁हरखाबनो	-10.7074
▁हरखि	-10.7074
▁हरमʼन	-10.7074
▁हरावनो	-10.7074
▁हलाव	-10.7074
▁हसिया	-10.7074
▁हा,	-10.7074
▁हा:-	-10.7074
▁हांख्रायनाय	-10.7074
▁हाखर	-10.7074
▁हागोन।"	-10.7074
▁हागौ-	-10.7074
▁हाजʼवारी।	-10.7074
▁हाथुरा	-10.7074
▁हादोंमोन	-10.7074
▁हानायानो	-10.7074
▁हाबसोनानै	-10.7074
▁हाबाफारिफोरखौ	-10.7074
▁हाबिला	-10.7074
▁हाब्लानो	-10.7074
▁हामसिन	-10.7074
▁हारसा	-10.7074
▁हारिजों	-10.7074
▁हारियारि	-10.7074
▁हावरिया-	-10.7074
▁हिंसायारि	-10.7074
▁हिन्जावफोरखौ	-10.7074
▁हिन्जावफोरजों	-10.7074
▁हिन्जाव।	-10.7074
▁हैनानै	-10.7074
▁होनानै,	-10.7074
▁होनो,	-10.7074
▁होफिनो।	-10.7074
▁होफैदों।	-10.7074
▁होबाय--	-10.7074
▁होबोदों।	-10.7074
▁होसो	-10.7074
▁हौ	-10.7074
▁हारावनि	-10.7719
▁!'	-10.8409
▁"अबंनि	-10.8409
▁"आबौ	-10.8409
▁"ए,	-10.8409
▁"थेंक	-10.8409
▁"बेनि	-10.8409
▁"बेयो	-10.8409
▁"मानोथो	-10.8409
▁"सि:	-10.8409
▁"हे:	-10.8409
▁''	-10.8409
▁'आनारी'	-10.8409
▁'दोर्सोन	-10.8409
▁'बार्थ	-10.8409
▁'मा	-10.8409
▁(रागा)	-10.8409
▁....।"	-10.8409
▁10.	-10.8409
▁1980	-10.8409
▁1988	-10.8409
▁2005	-10.8409
▁2007	-10.8409
▁29	-10.8409
▁31	-10.8409
▁=	-10.8409
▁C:\>	-10.8409
▁Excellency	-10.8409
▁plot	-10.8409
▁अंक	-10.8409
▁अखाफोर,	-10.8409
▁अख्रांमायाव	-10.8409
▁अनथाव	-10.8409
▁अनसि	-10.8409
▁अनाथीनि	-10.8409
▁अनिमा	-10.8409
▁अनिलनि	-10.8409
▁अनुलेखानि	-10.8409
▁अन्थाय	-10.8409
▁अबाव	-10.8409
▁अमल	-10.8409
▁अर,	-10.8409
▁अरनि	-10.8409
▁अरनो	-10.8409
▁अरायदिन	-10.8409
▁अलंबार	-10.8409
▁असिला	-10.8409
▁आंखौ,	-10.8409
▁आइखौ	-10.8409
▁आइजोफोरा	-10.8409
▁आइदिया	-10.8409
▁आइननि	-10.8409
▁आइ।"	-10.8409
▁आखल-आखु	-10.8409
▁आखुखौनो	-10.8409
▁आगष्ट,	-10.8409
▁आथिंजों	-10.8409
▁आथिंनिफ्राय	-10.8409
▁आथुर	-10.8409
▁आनखि	-10.8409
▁आन्दाखौ	-10.8409
▁आन्दार	-10.8409
▁आफाफोर	-10.8409
▁आफा।"	-10.8409
▁आबा	-10.8409
▁आबौनि	-10.8409
▁आब्राम-	-10.8409
▁आयदा,	-10.8409
▁आरजलाइ	-10.8409
▁आरि	-10.8409
▁आलाय	-10.8409
▁आलासिफोर	-10.8409
▁आलि	-10.8409
▁आलु	-10.8409
▁आसिजों	-10.8409
▁इन	-10.8409
▁इनटारनेल	-10.8409
▁इन्जुराव	-10.8409
▁इराग्दावखौ	-10.8409
▁इसादि	-10.8409
▁इसोरखौ	-10.8409
▁उजेर	-10.8409
▁उदांस्रि	-10.8409
▁उदिस	-10.8409
▁उदुनि	-10.8409
▁उदुरामा	-10.8409
▁उदैखौ	-10.8409
▁उनदाहा	-10.8409
▁उनावहालागै	-10.8409
▁एंगारनाया	-10.8409
▁एनजर	-10.8409
▁एबसुवा	-10.8409
▁एम्बु	-10.8409
▁एरनाय	-10.8409
▁एवनानै	-10.8409
▁एसि	-10.8409
▁ओ	-10.8409
▁ओंखाम,	-10.8409
▁ओंखामा	-10.8409
▁ओंखारनायनि	-10.8409
▁ओंखारबोबाय।	-10.8409
▁ओंखारलां	-10.8409
▁ओंथियाव	-10.8409
▁ओनसोलफोराव	-10.8409
▁कफि	-10.8409
▁कमाण्डफोरखौ	-10.8409
▁कमिसनार	-10.8409
▁काप	-10.8409
▁कापखौ	-10.8409
▁किउरियʼनि	-10.8409
▁ख,	-10.8409
▁खʼनाजों	-10.8409
▁खथानिफ्राय	-10.8409
▁खनाथिं	-10.8409
▁खल	-10.8409
▁खलथा,	-10.8409
▁खसाब	-10.8409
▁खांदों	-10.8409
▁खांसोर	-10.8409
▁खान्थाल	-10.8409
▁खामानियाबो	-10.8409
▁खामानियाव।	-10.8409
▁खामायनो	-10.8409
▁खायदाजों	-10.8409
▁खायफाया	-10.8409
▁खायसे~खायफा	-10.8409
▁खारलांनानै	-10.8409
▁खारा।	-10.8409
▁खारो	-10.8409
▁खारो।	-10.8409
▁खावलायो।	-10.8409
▁खास्रि-बिस्रि	-10.8409
▁खिथिर	-10.8409
▁खुथारै	-10.8409
▁खुनुरुखुमै	-10.8409
▁खुवा	-10.8409
▁खुसिनि	-10.8409
▁खे	-10.8409
▁खेबनि	-10.8409
▁खेला	-10.8409
▁खेवनो	-10.8409
▁खोख्लैनानै	-10.8409
▁खोनादों	-10.8409
▁खौनो	-10.8409
▁खौरांगाबा	-10.8409
▁खौरांगिरिफोरनि	-10.8409
▁गʼ	-10.8409
▁गʼयो	-10.8409
▁गथʼफोरनि	-10.8409
▁गथʼवाबो	-10.8409
▁गथायनो	-10.8409
▁गनायना	-10.8409
▁गनायनानै	-10.8409
▁गन्थङाव	-10.8409
▁गबʼनाय	-10.8409
▁गम्भीरा	-10.8409
▁गय-फाथै,	-10.8409
▁गयथिया	-10.8409
▁गलाफी	-10.8409
▁गलाफीनि	-10.8409
▁गलायाव	-10.8409
▁गलि	-10.8409
▁गाज्रिखौ	-10.8409
▁गाज्रियै	-10.8409
▁गाडʼ	-10.8409
▁गाण्डा	-10.8409
▁गाबज्रिनायाव	-10.8409
▁गामसा	-10.8409
▁गारा	-10.8409
▁गारि,	-10.8409
▁गारिनिफ्राय	-10.8409
▁गालाङो।	-10.8409
▁गावनिनो	-10.8409
▁गावबुराखौ	-10.8409
▁गावराव	-10.8409
▁गावरावनि	-10.8409
▁गासैखौ	-10.8409
▁गिख्रंथाव	-10.8409
▁गिदों	-10.8409
▁गिनांगौ।	-10.8409
▁गिबिनि	-10.8409
▁गियानि	-10.8409
▁गिरि	-10.8409
▁गिसिब	-10.8409
▁गुदि।	-10.8409
▁गुफुर,	-10.8409
▁गुरहं	-10.8409
▁गुस्थि	-10.8409
▁गुस्लायनाय	-10.8409
▁गेलेबाय	-10.8409
▁गेवनाय	-10.8409
▁गेवा	-10.8409
▁गैजारोङै	-10.8409
▁गोख्रैनो	-10.8409
▁गोग्लैयो।।	-10.8409
▁गोजा,	-10.8409
▁गोथारै	-10.8409
▁गोनांखौ	-10.8409
▁गोनांब्ला	-10.8409
▁गोनाङै	-10.8409
▁गोबांथार	-10.8409
▁गोबाङैनो	-10.8409
▁गोमाना	-10.8409
▁गोमोन	-10.8409
▁गोलैनो	-10.8409
▁गोलैयो	-10.8409
▁गोलोम	-10.8409
▁गोलोमदै	-10.8409
▁गोसोआ।	-10.8409
▁गोसोखांदों	-10.8409
▁ग्रा	-10.8409
▁ग्रोम	-10.8409
▁घर्ना	-10.8409
▁ङ,	-10.8409
▁च,	-10.8409
▁चन्दन	-10.8409
▁चीन	-10.8409
▁जʼनो	-10.8409
▁जʼरासे	-10.8409
▁जर	-10.8409
▁जर्ज	-10.8409
▁जाखर	-10.8409
▁जाखाङो।	-10.8409
▁जाखादों	-10.8409
▁जागा	-10.8409
▁जागायजेननाय	-10.8409
▁जात	-10.8409
▁जाथि	-10.8409
▁जाद	-10.8409
▁जानगाराव	-10.8409
▁जानांगौ,	-10.8409
▁जानांगौब्ला	-10.8409
▁जानांदों	-10.8409
▁जानानै।	-10.8409
▁जानायसै	-10.8409
▁जानोबा	-10.8409
▁जानोसै।	-10.8409
▁जानोसो	-10.8409
▁जायगाया	-10.8409
▁जाया।"	-10.8409
▁जायोब्लाबो	-10.8409
▁जारां	-10.8409
▁जालʼ	-10.8409
▁जालांगोन	-10.8409
▁जालायनानै	-10.8409
▁जाल्ला	-10.8409
▁जासिनानै	-10.8409
▁जाहैदों।	-10.8409
▁जाहैबाय।	-10.8409
▁जाहोननि	-10.8409
▁जिंगासिनो	-10.8409
▁जिनिसखौ	-10.8409
▁जिबौजों	-10.8409
▁जिरात	-10.8409
▁जिरि	-10.8409
▁जुगाव	-10.8409
▁जुनार	-10.8409
▁जेननानै	-10.8409
▁जेयाव	-10.8409
▁जेरा	-10.8409
▁जेलाव	-10.8409
▁जेसेबांनो	-10.8409
▁जोगोनार	-10.8409
▁जोबथेसालियाव	-10.8409
▁जोबाखै।	-10.8409
▁जोबो।	-10.8409
▁जोब्बाय।	-10.8409
▁जौजों	-10.8409
▁जौसे	-10.8409
▁ज्रेम	-10.8409
▁ज्रोम	-10.8409
▁टाइप	-10.8409
▁टाटा	-10.8409
▁ड:	-10.8409
▁डाक्टारा	-10.8409
▁थखन	-10.8409
▁थगाय	-10.8409
▁थब्लʼ	-10.8409
▁थसे	-10.8409
▁थांदोंमोन	-10.8409
▁थाखोखौ	-10.8409
▁थागोन।"	-10.8409
▁थाङो,	-10.8409
▁थाथों।	-10.8409
▁थादʼनाय	-10.8409
▁थानांगोन	-10.8409
▁थानाय,	-10.8409
▁थानायखाय	-10.8409
▁थानोबो	-10.8409
▁थायसे	-10.8409
▁थाव,	-10.8409
▁थिउ	-10.8409
▁थिउरियाफोरनि	-10.8409
▁थिकखौनो	-10.8409
▁थिङै।	-10.8409
▁थिनदों।	-10.8409
▁थिनहरदों	-10.8409
▁थिसननानै	-10.8409
▁थेरनाय	-10.8409
▁थै,	-10.8409
▁थैब्ला	-10.8409
▁थैसʼ	-10.8409
▁थोआ	-10.8409
▁थोन	-10.8409
▁थौदो	-10.8409
▁थौले	-10.8409
▁दंखायो	-10.8409
▁दंजोबो।	-10.8409
▁दंमोनब्लाबो	-10.8409
▁दखनाखौ	-10.8409
▁दखरसे	-10.8409
▁दङʼ।"	-10.8409
▁दरजानि	-10.8409
▁दर्बासि	-10.8409
▁दाइरियाव	-10.8409
▁दाकाति	-10.8409
▁दाक्टारा	-10.8409
▁दाखालिसो	-10.8409
▁दाङा	-10.8409
▁दाजाबफानाय	-10.8409
▁दाथां	-10.8409
▁दानथाम	-10.8409
▁दाबखा	-10.8409
▁दाबसियाव	-10.8409
▁दाबुं	-10.8409
▁दायनिगिरिया	-10.8409
▁दावबायारिफोरनि	-10.8409
▁दावसा	-10.8409
▁दासान्दै	-10.8409
▁दासान।	-10.8409
▁दिङा	-10.8409
▁दिनथिनो	-10.8409
▁दिन्थिनाय,	-10.8409
▁दिरिया	-10.8409
▁दिहुनबाय।	-10.8409
▁दुरुं	-10.8409
▁दें	-10.8409
▁देंखोखौ	-10.8409
▁देंखोजों	-10.8409
▁देरगानानै	-10.8409
▁देरगानाय	-10.8409
▁देरसिन।	-10.8409
▁देरहानाय	-10.8409
▁देलै	-10.8409
▁देवना	-10.8409
▁दे।"	-10.8409
▁दैखां	-10.8409
▁दैखांना	-10.8409
▁दैखांनो	-10.8409
▁दैथुननि	-10.8409
▁दैदेनगिरिफोरनि	-10.8409
▁दैदेननाय	-10.8409
▁दैमायाव	-10.8409
▁दोंनै	-10.8409
▁दोंफा	-10.8409
▁दोंमोन।	-10.8409
▁दोनथʼ	-10.8409
▁दोनथʼनाय	-10.8409
▁दोननायसै।	-10.8409
▁दोरोङारि	-10.8409
▁दोहोननि	-10.8409
▁दोहोरोमनि	-10.8409
▁दोहोरोमारि	-10.8409
▁धुबुरी	-10.8409
▁धोरोमाव	-10.8409
▁नʼसिङाव	-10.8409
▁नंखायखौनो	-10.8409
▁नखरा	-10.8409
▁नखल	-10.8409
▁नङागोन।	-10.8409
▁नङामोनब्ला	-10.8409
▁नङैनि	-10.8409
▁नम्बरनि	-10.8409
▁नां	-10.8409
▁नांथारगौ।	-10.8409
▁नांलायनाय	-10.8409
▁नागाफोर	-10.8409
▁नागाफ्रा	-10.8409
▁नाजागोन।	-10.8409
▁नाजानाय।	-10.8409
▁नामाब्रा	-10.8409
▁नायगिरो	-10.8409
▁नायजानो	-10.8409
▁नायजाबफोरा	-10.8409
▁नायफिन	-10.8409
▁नायबिजिरनायनि	-10.8409
▁नायसि	-10.8409
▁नायहरबाय।	-10.8409
▁नायहाबनानै	-10.8409
▁नार्जां	-10.8409
▁नार्जारी,	-10.8409
▁नाव	-10.8409
▁निदानखौ	-10.8409
▁निन	-10.8409
▁निरन्जन	-10.8409
▁नील	-10.8409
▁नुगोन।	-10.8409
▁नुग्रोमोना	-10.8409
▁नुजाथिनाय	-10.8409
▁नुजाफैनो	-10.8409
▁नुजायो	-10.8409
▁नुजाहैनो	-10.8409
▁नुयै	-10.8409
▁नुयोब्ला	-10.8409
▁नेम।	-10.8409
▁नेवसिनो	-10.8409
▁नोंथाङानो	-10.8409
▁नोंथाङाबो	-10.8409
▁नोंना	-10.8409
▁नोंसाला	-10.8409
▁नोंसिनाव	-10.8409
▁नोंसोरलाय	-10.8409
▁नोंसोरहा	-10.8409
▁नोगोरखौ	-10.8409
▁नोमफानि	-10.8409
▁नो।	-10.8409
▁नौनारिफोरखौ	-10.8409
▁पाब्लिकेसनस्	-10.8409
▁प्र.	-10.8409
▁प्रदीप	-10.8409
▁प्रसाद	-10.8409
▁प्लटखौ	-10.8409
▁प्लेट	-10.8409
▁फंबाय,	-10.8409
▁फख्रि	-10.8409
▁फर	-10.8409
▁फरमेट	-10.8409
▁फरायग्रा	-10.8409
▁फरायसालि	-10.8409
▁फरेष्टनि	-10.8409
▁फाग्ला,	-10.8409
▁फाग्लि,	-10.8409
▁फाग्लि।	-10.8409
▁फाङा	-10.8409
▁फान	-10.8409
▁फानग्रा	-10.8409
▁फानलु,	-10.8409
▁फान्दायनायाव	-10.8409
▁फाफनि	-10.8409
▁फाफा	-10.8409
▁फारौ	-10.8409
▁फाला	-10.8409
▁फालिनाय	-10.8409
▁फावखौ	-10.8409
▁फावथाइ,	-10.8409
▁फावथाइगिरि।	-10.8409
▁फाहामसालिनि	-10.8409
▁फिथाइनि	-10.8409
▁फिनज्राब	-10.8409
▁फिसाजोनो	-10.8409
▁फिसाज्ला।	-10.8409
▁फिसाय	-10.8409
▁फिसिनाय	-10.8409
▁फिसिनो	-10.8409
▁फुंजानि	-10.8409
▁फुकन	-10.8409
▁फुवा	-10.8409
▁फेदेरनानै	-10.8409
▁फेनानै	-10.8409
▁फेन्दा	-10.8409
▁फैगोन,	-10.8409
▁फैफिनो।	-10.8409
▁फैफिन्नानै	-10.8409
▁फैफिन्नो	-10.8409
▁फैहां	-10.8409
▁फोजोबस्रांनो	-10.8409
▁फोथांनानै	-10.8409
▁फोथायो	-10.8409
▁फोथैनो	-10.8409
▁फोरमायथिनाय	-10.8409
▁फोलानो	-10.8409
▁फोलावनानै	-10.8409
▁फोसाबनायनि	-10.8409
▁फोसावजायो	-10.8409
▁फोसावनायनि	-10.8409
▁फ्रेस	-10.8409
▁बकसिस	-10.8409
▁बङाइगाँव	-10.8409
▁बदनाम	-10.8409
▁बदलै	-10.8409
▁बन्दाया	-10.8409
▁बमफां	-10.8409
▁बयहाबो	-10.8409
▁बरʼजों	-10.8409
▁बरʼफ्रा	-10.8409
▁बरʼ।	-10.8409
▁बरबाद	-10.8409
▁बसुमतारीखौ	-10.8409
▁बहरा	-10.8409
▁बांगालनि	-10.8409
▁बांग्रिखʼबाव	-10.8409
▁बांसिन।	-10.8409
▁बांहोनो	-10.8409
▁बाउनाय	-10.8409
▁बाख्रि	-10.8409
▁बाग्रा	-10.8409
▁बाजिबायमोन।	-10.8409
▁बाथा	-10.8409
▁बाथायाव	-10.8409
▁बाथुवानि	-10.8409
▁बाथुवाया।	-10.8409
▁बाथ्राफ्रा	-10.8409
▁बादिया	-10.8409
▁बानायसो।	-10.8409
▁बान्दोलखौ	-10.8409
▁बाब	-10.8409
▁बारलांबाय।	-10.8409
▁बाराय	-10.8409
▁बारायो।	-10.8409
▁बावदियाखौ	-10.8409
▁बासजों	-10.8409
▁बासाव	-10.8409
▁बाहायजानाय	-10.8409
▁बि-	-10.8409
▁बिगोमानि	-10.8409
▁बिग्रायारिफोरा	-10.8409
▁बिजिनि	-10.8409
▁बिजिरगिरि	-10.8409
▁बिजिरनो	-10.8409
▁बिजिरसालिनि	-10.8409
▁बिथं	-10.8409
▁बिथा,	-10.8409
▁बिथांआ	-10.8409
▁बिथिङा	-10.8409
▁बिनिया	-10.8409
▁बिनो।	-10.8409
▁बिफाजों	-10.8409
▁बिफानो	-10.8409
▁बिफोरखौ	-10.8409
▁बिबʼनि	-10.8409
▁बिबाराव	-10.8409
▁बिबुंसारनि	-10.8409
▁बिमा-बिफा,	-10.8409
▁बिमा-बिफानिफ्राय	-10.8409
▁बिमायाबो	-10.8409
▁बिरहाङा	-10.8409
▁बिलायाव	-10.8409
▁बिलिरनानै	-10.8409
▁बिलोगो	-10.8409
▁बिसारखौ	-10.8409
▁बिसोर,	-10.8409
▁बिहाबो	-10.8409
▁बिहाव	-10.8409
▁बु	-10.8409
▁बुंदो	-10.8409
▁बुंनोबो	-10.8409
▁बुंफिनो।	-10.8409
▁बुंबा	-10.8409
▁बुंसʼनो	-10.8409
▁बुंहरनाय	-10.8409
▁बुंहरो-	-10.8409
▁बुक	-10.8409
▁बुङाबालानो	-10.8409
▁बुङालाबानो	-10.8409
▁बुथारनाय	-10.8409
▁बुथुमनानै	-10.8409
▁बुनाय	-10.8409
▁बुन्दि	-10.8409
▁बुरखायनाय	-10.8409
▁बुरा	-10.8409
▁बुरैनि	-10.8409
▁बेंखन	-10.8409
▁बेंग्रा	-10.8409
▁बेंनानै	-10.8409
▁बेखि	-10.8409
▁बेण्डेजखौ	-10.8409
▁बेनो।	-10.8409
▁बेफोरो	-10.8409
▁बेफोर।	-10.8409
▁बेफ्रुथायजों	-10.8409
▁बेलस्री-	-10.8409
▁बेलासि।	-10.8409
▁बेलासेनि	-10.8409
▁बेसादफोरखौ	-10.8409
▁बेसेनखौ	-10.8409
▁बेसोरनि	-10.8409
▁बैखौ	-10.8409
▁बैथालि	-10.8409
▁बैथाली	-10.8409
▁बैराथी	-10.8409
▁बैसोआबो	-10.8409
▁बोराय,	-10.8409
▁बोलोआव	-10.8409
▁बोस्रांनो	-10.8409
▁बोहैबोनाय	-10.8409
▁ब्रह्मखौ	-10.8409
▁ब्रां	-10.8409
▁ब्रुं	-10.8409
▁ब्लक	-10.8409
▁भट	-10.8409
▁मणिपुरनि	-10.8409
▁मददखौ	-10.8409
▁मनजुलाया।	-10.8409
▁मना	-10.8409
▁मन्जुलाया	-10.8409
▁मन्जुवाबो	-10.8409
▁मन्थ्रिया	-10.8409
▁मस्ट	-10.8409
▁महर,	-10.8409
▁महरथि	-10.8409
▁मा-	-10.8409
▁माखासेखौ	-10.8409
▁माने,	-10.8409
▁मारि	-10.8409
▁मार्स	-10.8409
▁मावबाय।	-10.8409
▁मावमोनथायनि	-10.8409
▁मावरिजा:	-10.8409
▁मासेबो	-10.8409
▁मास्थारा	-10.8409
▁माहाजोन,	-10.8409
▁माहि	-10.8409
▁मिथिगोन।	-10.8409
▁मिथिगौ,	-10.8409
▁मिथिबाय,	-10.8409
▁मिथियो।	-10.8409
▁मिनिखैरो	-10.8409
▁मिनिटनि	-10.8409
▁मिनिस्लुयै	-10.8409
▁मीनारामनि	-10.8409
▁मुंजों	-10.8409
▁मुंफ्रोमखौबो	-10.8409
▁मुंमा,	-10.8409
▁मुंमाखौ	-10.8409
▁मुंराइनि	-10.8409
▁मुकुट	-10.8409
▁मुगै	-10.8409
▁मुगैयो	-10.8409
▁मुङानो	-10.8409
▁मुसाहारीनि	-10.8409
▁मुस्रिया	-10.8409
▁मेथाइनि	-10.8409
▁मेथाय	-10.8409
▁मेरगानि	-10.8409
▁मेलानि	-10.8409
▁मेलायाव	-10.8409
▁मेहेर	-10.8409
▁मैनि	-10.8409
▁मैसो	-10.8409
▁मोखां,	-10.8409
▁मोखांथिं	-10.8409
▁मोखां।	-10.8409
▁मोखोना	-10.8409
▁मोख्राया	-10.8409
▁मोगा	-10.8409
▁मोगि	-10.8409
▁मोदैनि	-10.8409
▁मोनजायो।	-10.8409
▁मोनथिबाय	-10.8409
▁मोनना	-10.8409
▁मोननाय,	-10.8409
▁मोननैखौ	-10.8409
▁मोनबानो	-10.8409
▁मोनसे।	-10.8409
▁मोनाखैमोन	-10.8409
▁मोनाखैसै।	-10.8409
▁मोन्नैसो	-10.8409
▁मोसानाय,	-10.8409
▁मोसानो	-10.8409
▁य,	-10.8409
▁रंजानाय,	-10.8409
▁रंजानो	-10.8409
▁रंजालिया।	-10.8409
▁रजिजों	-10.8409
▁रजि।	-10.8409
▁रमा,	-10.8409
▁रमायश्रिया	-10.8409
▁रहेलाया	-10.8409
▁रां,	-10.8409
▁राइजोफोरनो	-10.8409
▁राइट	-10.8409
▁राखाव	-10.8409
▁राङानो	-10.8409
▁राजानो	-10.8409
▁राज्य	-10.8409
▁राननानै	-10.8409
▁रानी	-10.8409
▁रायजित	-10.8409
▁रायज्लायग्रा	-10.8409
▁रायदाव	-10.8409
▁रायनाय	-10.8409
▁रायलायनायनि	-10.8409
▁रुजुनानै	-10.8409
▁रुपाया	-10.8409
▁रुफाथि	-10.8409
▁रुबैजों	-10.8409
▁रेन्ज	-10.8409
▁रेबग्रा	-10.8409
▁रोङाब्ला	-10.8409
▁रोदाखौ	-10.8409
▁लरेननि	-10.8409
▁लर्ड।	-10.8409
▁लहेना	-10.8409
▁लांगोन	-10.8409
▁लांनायनि	-10.8409
▁लाकीखौ	-10.8409
▁लाखिनायनि	-10.8409
▁लाङासै।	-10.8409
▁लाजिनाया	-10.8409
▁लाबोदोंमोन।	-10.8409
▁लाबोबाय	-10.8409
▁लाब्ला	-10.8409
▁लामा,	-10.8409
▁लायाखै	-10.8409
▁लायाजासे	-10.8409
▁लायो,	-10.8409
▁लावथिजों	-10.8409
▁लावदाब	-10.8409
▁लासखौ	-10.8409
▁लिरग्रा	-10.8409
▁लिरनांगौ	-10.8409
▁लिरबाय	-10.8409
▁लु	-10.8409
▁लुन	-10.8409
▁लुबैनायनि	-10.8409
▁लुबैयोब्ला	-10.8409
▁लेट	-10.8409
▁लेदिज	-10.8409
▁लैहोर	-10.8409
▁लोंनाय,	-10.8409
▁लोंहोनानै	-10.8409
▁वाइल्ड	-10.8409
▁शंकरा।	-10.8409
▁शनिबारखालि	-10.8409
▁सʼनाफुलि,	-10.8409
▁सतिस	-10.8409
▁सनै	-10.8409
▁सफा	-10.8409
▁सफ्टवेर	-10.8409
▁सबाइ	-10.8409
▁सम-सम	-10.8409
▁समान।	-10.8409
▁समायना-रमायना	-10.8409
▁समाया।	-10.8409
▁सम्फथि	-10.8409
▁सम्बारु	-10.8409
▁सर्बेश्वर	-10.8409
▁सलʼमागिरि	-10.8409
▁सलʼवानो	-10.8409
▁साखʼन्द्रा	-10.8409
▁साखाफारा	-10.8409
▁साख्रिखौ	-10.8409
▁साजाखौ	-10.8409
▁साथामसो	-10.8409
▁साद	-10.8409
▁सानजौफुनि	-10.8409
▁सानथ्रिनि	-10.8409
▁साननायजों	-10.8409
▁सानफा	-10.8409
▁सानबोलावरि	-10.8409
▁सानसेनि	-10.8409
▁सानस्रिखौ	-10.8409
▁सानाबो	-10.8409
▁सानायनि	-10.8409
▁सानिफ्राय	-10.8409
▁सानैयाबो	-10.8409
▁सानै।	-10.8409
▁सानोब्ला	-10.8409
▁सान्थ्रिनि	-10.8409
▁सान्नानै।	-10.8409
▁साफ्रासी	-10.8409
▁साबा	-10.8409
▁साबिद	-10.8409
▁सामफ्रोमबो	-10.8409
▁सार,	-10.8409
▁सालाम	-10.8409
▁सालिसा	-10.8409
▁सावरायनाया	-10.8409
▁सासु-मासु	-10.8409
▁सिंखौ	-10.8409
▁सिखांनानै	-10.8409
▁सिखाव,	-10.8409
▁सिख्लाफोरखौ	-10.8409
▁सिख्लासा	-10.8409
▁सिगांग्रो	-10.8409
▁सिजौ	-10.8409
▁सिदोब	-10.8409
▁सिनानै	-10.8409
▁सिनायथिया	-10.8409
▁सिनायमोनै	-10.8409
▁सिन्दुर	-10.8409
▁सिन्दुर,	-10.8409
▁सिफियाव	-10.8409
▁सिबनो	-10.8409
▁सिबाय।	-10.8409
▁सुंदʼयै	-10.8409
▁सुखे,	-10.8409
▁सुजुग्रायाबो	-10.8409
▁सुनिखौ	-10.8409
▁सुबिदा	-10.8409
▁सुबुं,	-10.8409
▁सुबुङारि	-10.8409
▁सुवामि,	-10.8409
▁सुस्रांनो	-10.8409
▁सेंग्राखौ	-10.8409
▁सेकस्पीयारा	-10.8409
▁सेबखांनानै	-10.8409
▁सेबनानै	-10.8409
▁सैथि	-10.8409
▁सैथोआ	-10.8409
▁सैबा	-10.8409
▁सैमानि	-10.8409
▁सोंफिनो	-10.8409
▁सोंलु	-10.8409
▁सोदोबफोरा	-10.8409
▁सोदोबफ्राव	-10.8409
▁सोदोमस्रिनि	-10.8409
▁सोनारो।	-10.8409
▁सोबै	-10.8409
▁सोमजियो।	-10.8409
▁सोमजिहोदों।	-10.8409
▁सोमदोन	-10.8409
▁सोमबोरखौ	-10.8409
▁सोमहाबनानै	-10.8409
▁सोमो	-10.8409
▁सोरजि	-10.8409
▁सोरथो	-10.8409
▁सोरमोन	-10.8409
▁सोरहाबा	-10.8409
▁सोरांनाय	-10.8409
▁सोराङा	-10.8409
▁सोराङाव	-10.8409
▁सोलाव	-10.8409
▁हʼ	-10.8409
▁हजुर	-10.8409
▁हटेल	-10.8409
▁हम,	-10.8409
▁हमदों	-10.8409
▁हमसʼनो	-10.8409
▁हरगोन	-10.8409
▁हरदम	-10.8409
▁हरबिलास	-10.8409
▁हांखुर	-10.8409
▁हांखोफ्रा	-10.8409
▁हांगार।	-10.8409
▁हांसानि	-10.8409
▁हाखु	-10.8409
▁हाजोनिफ्राय	-10.8409
▁हाथर	-10.8409
▁हाथाइनि	-10.8409
▁हाथाइयाव	-10.8409
▁हाथेर	-10.8409
▁हादोर	-10.8409
▁हानायसिम	-10.8409
▁हानायाव	-10.8409
▁हान्था	-10.8409
▁हाबफैबाय।	-10.8409
▁हाबाब,	-10.8409
▁हामगौ	-10.8409
▁हायाखै,	-10.8409
▁हायोदि	-10.8409
▁हाय।	-10.8409
▁हारिफोरनि	-10.8409
▁हालिसे	-10.8409
▁हावलाद	-10.8409
▁हुमखि	-10.8409
▁हैदिनि।	-10.8409
▁हैदोंमोन	-10.8409
▁होगासिनो	-10.8409
▁होदों,	-10.8409
▁होनथेयो	-10.8409
▁होनायमोन	-10.8409
▁होफैयो	-10.8409
▁होयि	-10.8409
▁होवाखिसै।	-10.8409
▁"अ	-10.9951
▁"अउ	-10.9951
▁"आंखौ	-10.9951
▁"आदाया	-10.9951
▁"आलाइ	-10.9951
▁"गोदान	-10.9951
▁"जानो	-10.9951
▁"नोंखौ	-10.9951
▁"फिसा	-10.9951
▁"बोरै	-10.9951
▁"माने	-10.9951
▁"हा	-10.9951
▁'बबि'	-10.9951
▁(8)	-10.9951
▁(थाङो)	-10.9951
▁(बे	-10.9951
▁(सिङाव)	-10.9951
▁(हाबनानै)	-10.9951
▁+	-10.9951
▁-!	-10.9951
▁-[	-10.9951
▁-इ	-10.9951
▁1000	-10.9951
▁1986	-10.9951
▁1987	-10.9951
▁2,	-10.9951
▁2004	-10.9951
▁34	-10.9951
▁45	-10.9951
▁70	-10.9951
▁A	-10.9951
▁A:\>	-10.9951
▁Accessories	-10.9951
▁Captain	-10.9951
▁July,	-10.9951
▁Paint	-10.9951
▁You	-10.9951
▁from	-10.9951
▁have	-10.9951
▁mean	-10.9951
▁no	-10.9951
▁sense)	-10.9951
▁this	-10.9951
▁~	-10.9951
▁अक्सिन	-10.9951
▁अजानि	-10.9951
▁अजितजों	-10.9951
▁अजिता-	-10.9951
▁अदालगुरी	-10.9951
▁अननाया	-10.9951
▁अनफावरि	-10.9951
▁अनार।	-10.9951
▁अनिमानि	-10.9951
▁अनिराम	-10.9951
▁अनो	-10.9951
▁अनो,	-10.9951
▁अन्जालि	-10.9951
▁अन्दराव	-10.9951
▁अब	-10.9951
▁अबंलाउरिनि	-10.9951
▁अबिनासा	-10.9951
▁अलका,	-10.9951
▁अलकाजों	-10.9951
▁असम	-10.9951
▁असमियाफोरनि	-10.9951
▁असिद	-10.9951
▁आंखालखौ	-10.9951
▁आंखालनि	-10.9951
▁आंनिथिं	-10.9951
▁आंबो।	-10.9951
▁आंहा,	-10.9951
▁आइकʼना	-10.9951
▁आखलै	-10.9951
▁आखा-फाखा	-10.9951
▁आखायावनो	-10.9951
▁आखुफोरनि	-10.9951
▁आगाननैसो	-10.9951
▁आगोलावनो	-10.9951
▁आजायनाय	-10.9951
▁आथें	-10.9951
▁आथोनखौ	-10.9951
▁आदुंगारि	-10.9951
▁आनजादा	-10.9951
▁आन्दोआव	-10.9951
▁आफाद,	-10.9951
▁आफोद	-10.9951
▁आफोर	-10.9951
▁आबा,	-10.9951
▁आबारि	-10.9951
▁आबौवा	-10.9951
▁आमाइ।"	-10.9951
▁आयं।	-10.9951
▁आयथा	-10.9951
▁आयाबो	-10.9951
▁आर,	-10.9951
▁आरज	-10.9951
▁आरांगानि	-10.9951
▁आराम	-10.9951
▁आरोबा	-10.9951
▁आरोमा	-10.9951
▁आलाइ-सिलाइ	-10.9951
▁आलुमिंगिया	-10.9951
▁आलेहा	-10.9951
▁आवग्रिनानै	-10.9951
▁आवरायजेननाय	-10.9951
▁इज्जत	-10.9951
▁इनिंथौ	-10.9951
▁इन्जिनियार	-10.9951
▁इमारजेन्सि	-10.9951
▁इसि	-10.9951
▁इसिबां	-10.9951
▁इस्लारिया	-10.9951
▁ईसान	-10.9951
▁उइलखौ	-10.9951
▁उजियो।	-10.9951
▁उथ्रिनानै	-10.9951
▁उदाङै	-10.9951
▁उननिफ्रायनो	-10.9951
▁उन्दुयो	-10.9951
▁उन्दैनि	-10.9951
▁उपेन	-10.9951
▁उफेरा	-10.9951
▁उरिष्या	-10.9951
▁उरिष्यानि	-10.9951
▁उलाफादाव	-10.9951
▁उल्टा	-10.9951
▁ऋ	-10.9951
▁ऋ,	-10.9951
▁एइस.	-10.9951
▁एदावब्ला	-10.9951
▁एबसु	-10.9951
▁एम्बुखौ	-10.9951
▁एरसोनानै	-10.9951
▁एरिया	-10.9951
▁एसेनोसै	-10.9951
▁एसेब्लाबो	-10.9951
▁ओंखारबोदों	-10.9951
▁ओंखारलाङो।]	-10.9951
▁ओंख्रि	-10.9951
▁ओजोंबो	-10.9951
▁ओरैहाय	-10.9951
▁कʼकराझार	-10.9951
▁कटन	-10.9951
▁कमा	-10.9951
▁कमेदि	-10.9951
▁कल्पनाजों	-10.9951
▁कल्पनाया-	-10.9951
▁कल्पनायाबो	-10.9951
▁कापनि	-10.9951
▁कापसे	-10.9951
▁कारजि।	-10.9951
▁कार्ड	-10.9951
▁काल	-10.9951
▁कासाराव	-10.9951
▁कास्तमारफोरखौ	-10.9951
▁किक	-10.9951
▁किलʼमिटार	-10.9951
▁केच	-10.9951
▁केजि	-10.9951
▁केसा	-10.9951
▁क्लस	-10.9951
▁क्लाबाव	-10.9951
▁क्लासाव	-10.9951
▁खनसायखौ	-10.9951
▁खनसेयैनो	-10.9951
▁खनसेलʼ	-10.9951
▁खना	-10.9951
▁खनो)	-10.9951
▁खबै	-10.9951
▁खमैबो	-10.9951
▁खरथेंनि	-10.9951
▁खष्ट	-10.9951
▁खहा।	-10.9951
▁खांख्ला	-10.9951
▁खांनायनि	-10.9951
▁खाङो	-10.9951
▁खाजानाय	-10.9951
▁खाना,	-10.9951
▁खान्थि,	-10.9951
▁खाम्फा	-10.9951
▁खाया	-10.9951
▁खारसां	-10.9951
▁खालामगोन,	-10.9951
▁खालामबा	-10.9951
▁खालामहोनानै	-10.9951
▁खालामाखै	-10.9951
▁खालामामोन	-10.9951
▁खावना	-10.9951
▁खावलाइ,	-10.9951
▁खावलाया	-10.9951
▁खिथा	-10.9951
▁खिन्थाबाय।	-10.9951
▁खिरखि	-10.9951
▁खुंथाइखौ	-10.9951
▁खुगाखौ	-10.9951
▁खुदुमनानै	-10.9951
▁खुनाय	-10.9951
▁खुरिया	-10.9951
▁खुलुमनाय	-10.9951
▁खुलुमो।	-10.9951
▁खेबसेबो	-10.9951
▁खैसार	-10.9951
▁खोथा,	-10.9951
▁खोनाबा	-10.9951
▁खोनाबाय,	-10.9951
▁खोनासंबाय	-10.9951
▁खोबथेनानै	-10.9951
▁खोमदोननि	-10.9951
▁खोमाना	-10.9951
▁खोमानांनाय	-10.9951
▁खोरोमदाउ-	-10.9951
▁खोलो	-10.9951
▁ख्रुब	-10.9951
▁ख्रेब	-10.9951
▁ख्लां	-10.9951
▁ग,	-10.9951
▁गʼगाप	-10.9951
▁गʼलाम	-10.9951
▁गʼलायाव	-10.9951
▁गʼसाइया	-10.9951
▁गंफ्रोमबो	-10.9951
▁गंसेनि	-10.9951
▁गथʼ,	-10.9951
▁गथायनाय	-10.9951
▁गदायनि	-10.9951
▁गदाया	-10.9951
▁गनतन्त्रबादि	-10.9951
▁गन्थं,	-10.9951
▁गलʼजों	-10.9951
▁गलʼवाबो	-10.9951
▁गसंनाय	-10.9951
▁गसाइनि	-10.9951
▁गस्वामीया	-10.9951
▁गाज्रि,	-10.9951
▁गाड़ी	-10.9951
▁गाड़ीजों	-10.9951
▁गान्दुखौ	-10.9951
▁गाबखʼवा	-10.9951
▁गाबगासिनो	-10.9951
▁गाबगु-खुगु	-10.9951
▁गाबजों	-10.9951
▁गाबो,	-10.9951
▁गाब्बाय	-10.9951
▁गामिनिनो	-10.9951
▁गामिनि।	-10.9951
▁गामियावनो	-10.9951
▁गायदेया	-10.9951
▁गारगोन	-10.9951
▁गारजानाय	-10.9951
▁गारना	-10.9951
▁गारबाय।	-10.9951
▁गाराङा	-10.9951
▁गाराङाव	-10.9951
▁गाराया	-10.9951
▁गार्लस	-10.9951
▁गावथार	-10.9951
▁गावलʼ	-10.9951
▁गावस्रा	-10.9951
▁गाव।	-10.9951
▁गासिखौबो	-10.9951
▁गाहाइयाव	-10.9951
▁गाहायै	-10.9951
▁गिग्लुंनाय	-10.9951
▁गिबिया	-10.9951
▁गिलाससे	-10.9951
▁गुदुनि	-10.9951
▁गुबुनारि	-10.9951
▁गुबुन।	-10.9951
▁गुर	-10.9951
▁गुरब्ला	-10.9951
▁गुरु	-10.9951
▁गुवाहाटीनि	-10.9951
▁गुस्टि	-10.9951
▁गुस्थियाव	-10.9951
▁गेदेर-उन्दै,	-10.9951
▁गेब्ला	-10.9951
▁गेब्लाया	-10.9951
▁गेरेमसा	-10.9951
▁गैया;	-10.9951
▁गोखै,	-10.9951
▁गोग्लैबाय	-10.9951
▁गोजोनथाव	-10.9951
▁गोजोननायनि	-10.9951
▁गोजौनिफ्राय	-10.9951
▁गोनांबो	-10.9951
▁गोफोन,	-10.9951
▁गोबांनो	-10.9951
▁गोबांसिन	-10.9951
▁गोबासे	-10.9951
▁गोमाबाय।	-10.9951
▁गोमोबाय	-10.9951
▁गोमोर	-10.9951
▁गोमोहाबनानै	-10.9951
▁गोरजिया	-10.9951
▁गोरबो	-10.9951
▁गोरलैयैनो	-10.9951
▁गोराजों	-10.9951
▁गोरोबै	-10.9951
▁गोर्बोयाव	-10.9951
▁गोसो,	-10.9951
▁गोसोआवनो	-10.9951
▁गोसोखांबाय	-10.9951
▁गोसोज्लिद	-10.9951
▁गोसोनिफ्राय	-10.9951
▁गोसो।	-10.9951
▁गोहोगोरा	-10.9951
▁गोहोमखौ	-10.9951
▁गौथुम	-10.9951
▁गौमा	-10.9951
▁ग्रिद	-10.9951
▁ग्लब	-10.9951
▁ग्लास	-10.9951
▁घ,	-10.9951
▁छ,	-10.9951
▁छि:	-10.9951
▁जखायसे	-10.9951
▁जथायै	-10.9951
▁जथुम्मा	-10.9951
▁जथुम्मानि	-10.9951
▁जब्रानि	-10.9951
▁जरखा	-10.9951
▁जरासे	-10.9951
▁जांख्रिथाइनि	-10.9951
▁जाइ	-10.9951
▁जाखाबाय।	-10.9951
▁जागोननि	-10.9951
▁जाग्राया	-10.9951
▁जात्रागान	-10.9951
▁जाथायजों	-10.9951
▁जाथारदों	-10.9951
▁जाथारबाय।	-10.9951
▁जाथों,	-10.9951
▁जानगारनानै	-10.9951
▁जानायफोरखौ	-10.9951
▁जापाननि	-10.9951
▁जाफिनो।	-10.9951
▁जाफुंगोन।	-10.9951
▁जाफुंहोनो	-10.9951
▁जाफुङा।	-10.9951
▁जाफैबाय।	-10.9951
▁जाबानो	-10.9951
▁जाबायलै	-10.9951
▁जाबावनांगौ	-10.9951
▁जाबोदों	-10.9951
▁जाब्रथायाव	-10.9951
▁जाम्बि।	-10.9951
▁जायफोरखौ	-10.9951
▁जायाखैमोन	-10.9951
▁जायामानो	-10.9951
▁जायोमोन	-10.9951
▁जारलायाव	-10.9951
▁जार्डारीया	-10.9951
▁जालांखो	-10.9951
▁जालांनाय	-10.9951
▁जालिजौनि	-10.9951
▁जालिया	-10.9951
▁जाहाद	-10.9951
▁जाहोनांगौ।	-10.9951
▁जिखौ	-10.9951
▁जिगाब	-10.9951
▁जिगाबनि	-10.9951
▁जिथाम	-10.9951
▁जिदु	-10.9951
▁जिब	-10.9951
▁जिब-जुनाद	-10.9951
▁जिरादफोरखौ	-10.9951
▁जिरायदों।	-10.9951
▁जिला	-10.9951
▁जुग	-10.9951
▁जुजिनो	-10.9951
▁जुजियै	-10.9951
▁जुथाय	-10.9951
▁जुब	-10.9951
▁जुलुम	-10.9951
▁जेसेबांखि	-10.9951
▁जोंथियाबो	-10.9951
▁जोंनानै]	-10.9951
▁जोंफोर	-10.9951
▁जोंहाबो	-10.9951
▁जोथोनै	-10.9951
▁जोनोमा	-10.9951
▁जोबजासिम	-10.9951
▁जोबथारनाय	-10.9951
▁जोबो	-10.9951
▁जोमनानै	-10.9951
▁जोहोलाव'	-10.9951
▁जोहोलाव,	-10.9951
▁जोहोलावफोर	-10.9951
▁जौगाखांनाय	-10.9951
▁जौगाखांनायनि	-10.9951
▁जौथाइनि	-10.9951
▁जौथाय	-10.9951
▁झालु	-10.9951
▁टाइट्	-10.9951
▁टाइम	-10.9951
▁टाउननि	-10.9951
▁ट्रेइन	-10.9951
▁ट्रेजेदि	-10.9951
▁ठ,	-10.9951
▁डाक्तार	-10.9951
▁डिजाइन	-10.9951
▁ढ,	-10.9951
▁ण,	-10.9951
▁थंब्लेद	-10.9951
▁थफी	-10.9951
▁थफीया	-10.9951
▁थबसिया	-10.9951
▁थरफा	-10.9951
▁थांदो,	-10.9951
▁थांदों,	-10.9951
▁थांबाय,	-10.9951
▁थांबावनो	-10.9951
▁थाइजाजों	-10.9951
▁थाइनै	-10.9951
▁थाइलालि।	-10.9951
▁थाइलिर	-10.9951
▁थाखै	-10.9951
▁थाखो-	-10.9951
▁थाखोमा	-10.9951
▁थाखोमानाय	-10.9951
▁थागिदायाव	-10.9951
▁थाङा,	-10.9951
▁थाङाखै।	-10.9951
▁थाङामोन	-10.9951
▁थादो।	-10.9951
▁थानानैबो	-10.9951
▁थानोसै	-10.9951
▁थानो।	-10.9951
▁थाफैयो।	-10.9951
▁थाबायनानै	-10.9951
▁थायनैखौ	-10.9951
▁थायनैया	-10.9951
▁थायो-	-10.9951
▁थायोमोन	-10.9951
▁थारुनखौ	-10.9951
▁थालांनाय	-10.9951
▁थालिया।	-10.9951
▁थाल्ला	-10.9951
▁थाहैयो।	-10.9951
▁थिखं	-10.9951
▁थिखानाय	-10.9951
▁थिननायाव	-10.9951
▁थिनहरदों।	-10.9951
▁थिनहरनानै	-10.9951
▁थिनो।	-10.9951
▁थिन्नानै	-10.9951
▁थिन्नायाव	-10.9951
▁थिया	-10.9951
▁थुंग्रिया	-10.9951
▁थुन	-10.9951
▁थुनफावथाइखौ	-10.9951
▁थुनफावथाइ।	-10.9951
▁थुनलाइ,	-10.9951
▁थुनलाइयारि	-10.9951
▁थुनलायारि	-10.9951
▁थुयोब्ला	-10.9951
▁थें	-10.9951
▁थेलाखौ	-10.9951
▁थेलेफाया	-10.9951
▁थेलेब	-10.9951
▁थैखो	-10.9951
▁थैजासे	-10.9951
▁थैदों	-10.9951
▁थैनायाव	-10.9951
▁थैबाय,	-10.9951
▁थैयो।	-10.9951
▁थोंगोर	-10.9951
▁थोनाय	-10.9951
▁थोयो।	-10.9951
▁दंनायमानि	-10.9951
▁दंबावयो	-10.9951
▁दङमोन।	-10.9951
▁ददेरे।	-10.9951
▁दन	-10.9951
▁दरजाजों	-10.9951
▁दरजाया	-10.9951
▁दरजायाव	-10.9951
▁दराखौ	-10.9951
▁दर्बासिखौ	-10.9951
▁दांनो	-10.9951
▁दाउबʼ	-10.9951
▁दाउला	-10.9951
▁दाखालाम	-10.9951
▁दाखालाम।	-10.9951
▁दाखोन	-10.9951
▁दाखोर	-10.9951
▁दाङाबाजि	-10.9951
▁दाजा	-10.9951
▁दाथाय	-10.9951
▁दानदिसे	-10.9951
▁दानना	-10.9951
▁दानसोरांखौ	-10.9951
▁दानसोरांनि	-10.9951
▁दानायखौ	-10.9951
▁दानिफ्रायनो	-10.9951
▁दानो।	-10.9951
▁दान्दा	-10.9951
▁दाबिनाय	-10.9951
▁दाबियाव	-10.9951
▁दामदों	-10.9951
▁दामानि	-10.9951
▁दामि	-10.9951
▁दामोन	-10.9951
▁दामोल,	-10.9951
▁दाय,	-10.9951
▁दालाय।	-10.9951
▁दालि	-10.9951
▁दावखा	-10.9951
▁दावसि	-10.9951
▁दावस्रि	-10.9951
▁दावहा।	-10.9951
▁दासि।	-10.9951
▁दाहोनाफ्रा	-10.9951
▁दिखां	-10.9951
▁दिखांना	-10.9951
▁दिखांनो	-10.9951
▁दिनैजों	-10.9951
▁दिनैबा	-10.9951
▁दिहुनना	-10.9951
▁दुंबुरुद	-10.9951
▁दुंब्रुद	-10.9951
▁दुखु-दाहा,	-10.9951
▁दुखु-दाहानि	-10.9951
▁दुब्रि	-10.9951
▁दुसि	-10.9951
▁दे'	-10.9951
▁देगार	-10.9951
▁देग्लायबो	-10.9951
▁दैज्लां	-10.9951
▁दैमा,	-10.9951
▁दैमारी	-10.9951
▁दैमालु	-10.9951
▁दोआ	-10.9951
▁दोखौ	-10.9951
▁दोनखुमानो	-10.9951
▁दोनफैनाय	-10.9951
▁दोनब्ला	-10.9951
▁दोनासै।	-10.9951
▁दोमैलु	-10.9951
▁दोमो	-10.9951
▁दौदिनिया	-10.9951
▁नʼखर	-10.9951
▁नʼखरखौ	-10.9951
▁नंथारगौ।	-10.9951
▁नक	-10.9951
▁नखर।	-10.9951
▁नङा-	-10.9951
▁नङा;	-10.9951
▁नङाब्लानो	-10.9951
▁नङा।'	-10.9951
▁नन्दʼवा	-10.9951
▁नन्देश्वर	-10.9951
▁नबेम्बराव	-10.9951
▁नमस्कार	-10.9951
▁नलबारी	-10.9951
▁नांगोन,	-10.9951
▁नांगोन।"	-10.9951
▁नांदों	-10.9951
▁नांदों।	-10.9951
▁नांबाय।	-10.9951
▁नांब्ला	-10.9951
▁नांलाय	-10.9951
▁नांहाब	-10.9951
▁नागाफोरखौ	-10.9951
▁नागिरदों।"	-10.9951
▁नागिरनायखौ	-10.9951
▁नागिरनायाव	-10.9951
▁नागिरब्लाबो	-10.9951
▁नाजानायखौ	-10.9951
▁नाजावनानै	-10.9951
▁नाजा।	-10.9951
▁नाथ्रोदनानै	-10.9951
▁नानि	-10.9951
▁नाम्बार	-10.9951
▁नायगिरना	-10.9951
▁नायगिरनो	-10.9951
▁नायग्राफोरखौ	-10.9951
▁नायग्राफोरनि	-10.9951
▁नायजाब।	-10.9951
▁नायथिं	-10.9951
▁नायथिं-नायथा	-10.9951
▁नायदो	-10.9951
▁नायनायसाय	-10.9951
▁नायनोबो	-10.9951
▁नायलाय	-10.9951
▁नारसिननानै	-10.9951
▁नार्सिं	-10.9951
▁ना।	-10.9951
▁निखाउरि	-10.9951
▁निखावरि	-10.9951
▁निरामिस	-10.9951
▁निसाया	-10.9951
▁नुखो	-10.9951
▁नुजाथियो	-10.9951
▁नुजाफैयो।	-10.9951
▁नुजायो।	-10.9951
▁नुथाइ	-10.9951
▁नुनानै।	-10.9951
▁नुबाय-	-10.9951
▁नुवाखै।	-10.9951
▁नुहरा।	-10.9951
▁नुहैबाय	-10.9951
▁नेटवार्क	-10.9951
▁नेबाय।	-10.9951
▁नेमखान्थि	-10.9951
▁नेरखां	-10.9951
▁नेशनेल	-10.9951
▁नेसा	-10.9951
▁नेहरु	-10.9951
▁नैथियाव	-10.9951
▁नों-	-10.9951
▁नोंखौबो	-10.9951
▁नोंनिनो	-10.9951
▁नोंसोर।	-10.9951
▁नोंहाबो	-10.9951
▁नोंहा।	-10.9951
▁नोजोर।	-10.9951
▁नोम्फानि	-10.9951
▁नोलो	-10.9951
▁पकेटनिफ्राय	-10.9951
▁पजʼ	-10.9951
▁परिषदा	-10.9951
▁परेश	-10.9951
▁पाब्लिकेसन	-10.9951
▁पेट्रिडिस	-10.9951
▁प्रदिपखौ	-10.9951
▁प्रशान्तवा।	-10.9951
▁प्रेकतिकेल	-10.9951
▁प्रेछ	-10.9951
▁फ,	-10.9951
▁फʼ	-10.9951
▁फजʼनाय	-10.9951
▁फरायदों।	-10.9951
▁फरायनोबो	-10.9951
▁फाग्लाया	-10.9951
▁फादुब	-10.9951
▁फादोरनि	-10.9951
▁फानथाव	-10.9951
▁फायारिं	-10.9951
▁फारागखौ	-10.9951
▁फारिया,	-10.9951
▁फारिया।	-10.9951
▁फारिलाइ	-10.9951
▁फालिनायनि	-10.9951
▁फावथायारि	-10.9951
▁फावदुर	-10.9951
▁फावाव	-10.9951
▁फाहामसालिखौ	-10.9951
▁फिंगार	-10.9951
▁फिथाया	-10.9951
▁फिदिंनो	-10.9951
▁फिननायखौ	-10.9951
▁फिननो	-10.9951
▁फिनो	-10.9951
▁फिरफिला	-10.9951
▁फिल्म	-10.9951
▁फिसायानो	-10.9951
▁फुं	-10.9951
▁फुंनिफ्राय	-10.9951
▁फुख्रियाव	-10.9951
▁फुट	-10.9951
▁फुथुनानै	-10.9951
▁फेंखा	-10.9951
▁फैखो	-10.9951
▁फैदो।	-10.9951
▁फैनायखौ	-10.9951
▁फैया,	-10.9951
▁फैसानि	-10.9951
▁फोथैनानै	-10.9951
▁फोनांनायनि	-10.9951
▁फोरजाया	-10.9951
▁फोरमाना	-10.9951
▁फोरमायथि	-10.9951
▁फोरमायनायजों	-10.9951
▁फोलाव	-10.9951
▁फोलेरारि	-10.9951
▁फोलेराव	-10.9951
▁फोसावनानै	-10.9951
▁ब,	-10.9951
▁बं	-10.9951
▁बकुल	-10.9951
▁बनाय	-10.9951
▁बबेखौ	-10.9951
▁बबेयावबा	-10.9951
▁बयबो,	-10.9951
▁बरफ	-10.9951
▁बरा	-10.9951
▁बरायनानै	-10.9951
▁बह्रा	-10.9951
▁बांसिनसो	-10.9951
▁बाइजो	-10.9951
▁बाकसा	-10.9951
▁बाखनायनाय	-10.9951
▁बाख्रियाव	-10.9951
▁बागदावखाङो	-10.9951
▁बागानाव	-10.9951
▁बाग्दाव	-10.9951
▁बाजारनिफ्राय	-10.9951
▁बाजारि	-10.9951
▁बाजिबाय।	-10.9951
▁बाजुवा	-10.9951
▁बाजौ	-10.9951
▁बाज्ल	-10.9951
▁बाथ्राखौ।	-10.9951
▁बाथ्रायाथʼ	-10.9951
▁बादिखौ	-10.9951
▁बादियैनो	-10.9951
▁बादिसो	-10.9951
▁बादै	-10.9951
▁बानजायफुंनो	-10.9951
▁बानायाव	-10.9951
▁बान्थाया	-10.9951
▁बाब्राब	-10.9951
▁बामोन	-10.9951
▁बाय	-10.9951
▁बायदिफोरखौ	-10.9951
▁बायदों	-10.9951
▁बायना	-10.9951
▁बायह्रायाव	-10.9951
▁बाया	-10.9951
▁बारसʼनानै	-10.9951
▁बारहां	-10.9951
▁बारांगाबारी	-10.9951
▁बाल	-10.9951
▁बावदों।	-10.9951
▁बावबाय।	-10.9951
▁बावलांबाय	-10.9951
▁बावहायनो	-10.9951
▁बास्रिनाय	-10.9951
▁बाहागोखौनो	-10.9951
▁बाहायनाया	-10.9951
▁बि.ए.	-10.9951
▁बिकास	-10.9951
▁बिखा-बिख्लो	-10.9951
▁बिगुमै	-10.9951
▁बिग्रायारिफोरखौ	-10.9951
▁बिघा	-10.9951
▁बिजाथिफोरा	-10.9951
▁बिजिया	-10.9951
▁बिजौखौ	-10.9951
▁बिजौवाव	-10.9951
▁बिथांनिनो	-10.9951
▁बिथिंजाय	-10.9951
▁बिदिब्ला,	-10.9951
▁बिदैजों	-10.9951
▁बिनानावा	-10.9951
▁बिनारामखौ	-10.9951
▁बिबाङा	-10.9951
▁बिबादि	-10.9951
▁बिबाननिफ्राय	-10.9951
▁बिबाना	-10.9951
▁बिबारजों	-10.9951
▁बिबार।	-10.9951
▁बिब्दिब्लाथʼ	-10.9951
▁बिमाइनो	-10.9951
▁बिमाय	-10.9951
▁बिमायनो	-10.9951
▁बिया	-10.9951
▁बियोदि	-10.9951
▁बिरलांदों।	-10.9951
▁बिल	-10.9951
▁बिलाइजों	-10.9951
▁बिलाइस्रिया।	-10.9951
▁बिलिदबाय	-10.9951
▁बिलिर	-10.9951
▁बिश	-10.9951
▁बिसायखʼ	-10.9951
▁बिसायखʼथि	-10.9951
▁बिसि-फिसा	-10.9951
▁बिस्कुट	-10.9951
▁बिहाराव	-10.9951
▁बिहारिफोरा	-10.9951
▁बिहावनो	-10.9951
▁बीरु,	-10.9951
▁बुंजोबनो	-10.9951
▁बुंदों।"	-10.9951
▁बुंनायमोन।	-10.9951
▁बुंनो।	-10.9951
▁बुंफबनाय।	-10.9951
▁बुंलाङो	-10.9951
▁बुंहरदों	-10.9951
▁बुंहरो।	-10.9951
▁बुं।"	-10.9951
▁बुगा	-10.9951
▁बुङाखै	-10.9951
▁बुद	-10.9951
▁बुदारुनि	-10.9951
▁बुद्रैया	-10.9951
▁बुन्दा	-10.9951
▁बुन्दानि	-10.9951
▁बुबिलि	-10.9951
▁बुब्राब	-10.9951
▁बुरैखौ	-10.9951
▁बुर्जा	-10.9951
▁बुलि	-10.9951
▁बुहुम	-10.9951
▁बेंगल	-10.9951
▁बेंगल,	-10.9951
▁बेंगली	-10.9951
▁बेखेवथि	-10.9951
▁बेखेवफानि	-10.9951
▁बेखौनोथʼ	-10.9951
▁बेदद,	-10.9951
▁बेदरनि	-10.9951
▁बेनो,	-10.9951
▁बेब्दि	-10.9951
▁बेब्दिनो	-10.9951
▁बेयावहायनो	-10.9951
▁बेरामा	-10.9951
▁बेरायनो	-10.9951
▁बेव	-10.9951
▁बेसेथो	-10.9951
▁बैनाय	-10.9951
▁बैसागो	-10.9951
▁बैसोआवनो	-10.9951
▁बोखावनानै	-10.9951
▁बोखावनो	-10.9951
▁बोजबनानै	-10.9951
▁बोदलानानै	-10.9951
▁बोदों।	-10.9951
▁बोद्	-10.9951
▁बोरमा,	-10.9951
▁बोराया।	-10.9951
▁बोलो,	-10.9951
▁बोसोनखौ	-10.9951
▁बोसोरथाम	-10.9951
▁बोसोरनै	-10.9951
▁बोसोरफ्रोमबो	-10.9951
▁ब्रह्म।	-10.9951
▁ब्रेकफास्ट	-10.9951
▁ब्लाउज	-10.9951
▁भबेश	-10.9951
▁भारता	-10.9951
▁भुटिया	-10.9951
▁भेन	-10.9951
▁भेनिटि	-10.9951
▁भोट	-10.9951
▁मखʼनो	-10.9951
▁मददाव	-10.9951
▁मनजुआबो	-10.9951
▁मन्जुजों	-10.9951
▁मन्जुबाला	-10.9951
▁मन्जुलानि	-10.9951
▁मन्जु।	-10.9951
▁मसला	-10.9951
▁महरफोरा	-10.9951
▁महराबो	-10.9951
▁माइरं,	-10.9951
▁माइल	-10.9951
▁माउस	-10.9951
▁माउसनि	-10.9951
▁माघ	-10.9951
▁माथा	-10.9951
▁मानगोनां	-10.9951
▁मानसिफोरजों	-10.9951
▁मानैखौ	-10.9951
▁मानोमोन	-10.9951
▁माबार,	-10.9951
▁मालिस	-10.9951
▁मावखʼनि	-10.9951
▁मावगासिनो	-10.9951
▁मावजिया	-10.9951
▁मावनायजों	-10.9951
▁मावरिजाजों	-10.9951
▁मावो,	-10.9951
▁माष्टारा	-10.9951
▁मासनि	-10.9951
▁मासिया	-10.9951
▁मास्टारा	-10.9951
▁मास्थारनि	-10.9951
▁माहाजोना।	-10.9951
▁मिटिं	-10.9951
▁मिथिगोन	-10.9951
▁मिथिया।"	-10.9951
▁मिनिदों।	-10.9951
▁मिनियै	-10.9951
▁मिनिश्री	-10.9951
▁मिहिरखौ	-10.9951
▁मिहिराबो	-10.9951
▁मुंमा+गोथे	-10.9951
▁मुंराइ:	-10.9951
▁मुंराइखौ	-10.9951
▁मुंराय:	-10.9951
▁मुंराय।	-10.9951
▁मुलुकनि	-10.9951
▁मुवाफोर	-10.9951
▁मुसाहारीया	-10.9951
▁मेनु	-10.9951
▁मेरगाया	-10.9951
▁मेलेमखौ	-10.9951
▁मै,	-10.9951
▁मै-मै	-10.9951
▁मैहुरारी	-10.9951
▁मोज्लाय	-10.9951
▁मोदै,	-10.9951
▁मोनगोन,	-10.9951
▁मोनजानाय	-10.9951
▁मोनजारोङै	-10.9951
▁मोनथिया।	-10.9951
▁मोननाव	-10.9951
▁मोननो।	-10.9951
▁मोनबो	-10.9951
▁मोनसेनिफ्राय	-10.9951
▁मोनसेबो	-10.9951
▁मोनहोनो	-10.9951
▁मोनामनाय	-10.9951
▁मोनैयाव	-10.9951
▁मोनो।"	-10.9951
▁मोन्थाय	-10.9951
▁मोसा,	-10.9951
▁मोसादों।	-10.9951
▁याव	-10.9951
▁युव	-10.9951
▁रʼमान	-10.9951
▁रंगिना-संगिना	-10.9951
▁रजिखौ	-10.9951
▁रथʼ।	-10.9951
▁रबिबाराव	-10.9951
▁रमान	-10.9951
▁रमानि	-10.9951
▁रमेनखौ	-10.9951
▁रहेला	-10.9951
▁राइजो-राजाया	-10.9951
▁रागाया	-10.9951
▁राणीनि	-10.9951
▁राभानि	-10.9951
▁रामनाथनि	-10.9951
▁रामोन्दा,	-10.9951
▁रायखांनानै	-10.9951
▁रायजितखौ	-10.9951
▁रायज्लायनाया	-10.9951
▁रावा।	-10.9951
▁राहागिरि	-10.9951
▁राहाबो	-10.9951
▁राहा।	-10.9951
▁रि	-10.9951
▁रिंगानिफ्राय	-10.9951
▁रिंगासोयाव	-10.9951
▁रिंसारथिजों	-10.9951
▁रिपर्ट	-10.9951
▁रुखु	-10.9951
▁रुपनाथ	-10.9951
▁रुपा,	-10.9951
▁रुपानि	-10.9951
▁रुमावनो	-10.9951
▁रुमु	-10.9951
▁रुम।	-10.9951
▁रुवाथिनि	-10.9951
▁रे	-10.9951
▁रेन्जारनि	-10.9951
▁रेबती	-10.9951
▁रोंनांगोन।	-10.9951
▁रोजाबै	-10.9951
▁रौनिया	-10.9951
▁लंपेन्ट	-10.9951
▁लखʼबनि	-10.9951
▁लमन	-10.9951
▁लांगोनानि	-10.9951
▁लांदोंमोन	-10.9951
▁लाइजाम।	-10.9951
▁लाइजौ	-10.9951
▁लाइफ	-10.9951
▁लाखिगोन	-10.9951
▁लाखिथों	-10.9951
▁लाखिदों।	-10.9951
▁लाखि।	-10.9951
▁लागैनो	-10.9951
▁लागोनि	-10.9951
▁लाजिथाव	-10.9951
▁लादों,	-10.9951
▁लादो।	-10.9951
▁लानथ्रियै	-10.9951
▁लानानैबो	-10.9951
▁लानो।	-10.9951
▁लाफा	-10.9951
▁लाबानो	-10.9951
▁लाबाय,	-10.9951
▁लाबोगोन।	-10.9951
▁लाबोबाय।	-10.9951
▁लाभ	-10.9951
▁लामा-सामा	-10.9951
▁लामाजोंनो	-10.9951
▁लायनाय	-10.9951
▁लायनो।	-10.9951
▁लाहारी	-10.9951
▁लिंनो	-10.9951
▁लिंहर	-10.9951
▁लिङो।	-10.9951
▁लिबारेसन	-10.9951
▁लिरो	-10.9951
▁लुबैयाखैमोन।	-10.9951
▁लुबैयो,	-10.9951
▁लुयै	-10.9951
▁लु।	-10.9951
▁लेन्थन	-10.9951
▁लेप	-10.9951
▁लोंदों।	-10.9951
▁लोंनांगौ।	-10.9951
▁वा	-10.9951
▁श,	-10.9951
▁शंकर	-10.9951
▁ष्टेज	-10.9951
▁स,	-10.9951
▁संगिना	-10.9951
▁संबिजिरनि	-10.9951
▁सती	-10.9951
▁सब	-10.9951
▁समसिम	-10.9951
▁समसेर	-10.9951
▁समायखिरा	-10.9951
▁समाव,	-10.9951
▁समिलाया	-10.9951
▁सरकार	-10.9951
▁सरकारि	-10.9951
▁सरकारी	-10.9951
▁सरलानि	-10.9951
▁सलʼगिरिया	-10.9951
▁सलʼफोरखौ	-10.9951
▁सलʼमागिरिया	-10.9951
▁सलʼवाबो	-10.9951
▁सहराव	-10.9951
▁सहि	-10.9951
▁सहैब्ला	-10.9951
▁साइट	-10.9951
▁साइरʼ	-10.9951
▁साखाथिनि	-10.9951
▁साखाथियावनो	-10.9951
▁साजानि	-10.9951
▁साजा।	-10.9951
▁साथा	-10.9951
▁साथिं	-10.9951
▁सानखौ	-10.9951
▁सानगोन	-10.9951
▁सानथौनि	-10.9951
▁सानदुं	-10.9951
▁साननानै।	-10.9951
▁साननायमोन।	-10.9951
▁साननिफ्राय	-10.9951
▁साननिफ्रायनो	-10.9951
▁सानफिनो	-10.9951
▁सानस्रियाव	-10.9951
▁सानाया	-10.9951
▁सानो।"	-10.9951
▁सान्थ्रिफ्रा	-10.9951
▁सान्दा	-10.9951
▁सान्दों-	-10.9951
▁सान्नायनि	-10.9951
▁साब	-10.9951
▁साबसिन।	-10.9951
▁साबुकजों	-10.9951
▁साब्रैसो	-10.9951
▁सामलाय	-10.9951
▁सायनासालियाव	-10.9951
▁सायरʼ	-10.9951
▁सायारामनि	-10.9951
▁सायावबो	-10.9951
▁सायो	-10.9951
▁सारा	-10.9951
▁साल,	-10.9951
▁सालान	-10.9951
▁सावख्लिनि	-10.9951
▁सावगारिजों	-10.9951
▁सावनाय	-10.9951
▁सावनाय,	-10.9951
▁सावरायनायखौ	-10.9951
▁साह	-10.9951
▁सिखांदो	-10.9951
▁सिखारनो	-10.9951
▁सिख्लायानो	-10.9951
▁सिथोर	-10.9951
▁सिनायै	-10.9951
▁सिन्दुकनि	-10.9951
▁सिन।	-10.9951
▁सिबै	-10.9951
▁सिमांसो	-10.9951
▁सियान	-10.9951
▁सियालफोरा	-10.9951
▁सिलङाव	-10.9951
▁सिलिम	-10.9951
▁सिस्टेमखौ	-10.9951
▁सुइसाइद	-10.9951
▁सुखʼनानै	-10.9951
▁सुग्रा	-10.9951
▁सुजुगिरि	-10.9951
▁सुजुग्राखौ	-10.9951
▁सुथुर।	-10.9951
▁सुनायनो	-10.9951
▁सुनि,	-10.9951
▁सुबाय	-10.9951
▁सुबुंफ्रा	-10.9951
▁सुमिलाखौ	-10.9951
▁सुरनो	-10.9951
▁सुरो	-10.9951
▁सुवामि	-10.9951
▁से:	-10.9951
▁सेंग्रा-सिख्ला,	-10.9951
▁सेंसौ	-10.9951
▁सेनापति।	-10.9951
▁सेप्तेम्बरनिफ्राय	-10.9951
▁सेमोन	-10.9951
▁सेरजाखौ	-10.9951
▁सेवारि	-10.9951
▁सोंदोंमोन	-10.9951
▁सोद्रोमाफोर	-10.9951
▁सोनाबनि	-10.9951
▁सोनाबारि	-10.9951
▁सोनाय	-10.9951
▁सोबग्रा	-10.9951
▁सोमजायग्रा	-10.9951
▁सोमजिनायनि	-10.9951
▁सोमस्रिया	-10.9951
▁सोमोन्दोखौ	-10.9951
▁सोरजिनायाव	-10.9951
▁सोरजिलु	-10.9951
▁सोरनाव	-10.9951
▁सोरनावबा	-10.9951
▁सोरांनि	-10.9951
▁सोलायै	-10.9951
▁सोलिगासिनो	-10.9951
▁सोलिनाय	-10.9951
▁सोलोंथाइनि	-10.9951
▁स्कुलनि	-10.9951
▁स्टाइल	-10.9951
▁स्पिद	-10.9951
▁हʼवा	-10.9951
▁हक	-10.9951
▁हगारनाय	-10.9951
▁हगारसारनानै	-10.9951
▁हनै।	-10.9951
▁हब्रा	-10.9951
▁हमबाय,	-10.9951
▁हमलायनानै	-10.9951
▁हरबाय--	-10.9951
▁हराब्ला	-10.9951
▁हरासै।	-10.9951
▁हस्पितालाव	-10.9951
▁हांखोखौनो	-10.9951
▁हांफ्ला	-10.9951
▁हाग्रामानि	-10.9951
▁हाग्रामायाव	-10.9951
▁हाजारबार	-10.9951
▁हाजासे।	-10.9951
▁हाथारनाय	-10.9951
▁हाथारा।	-10.9951
▁हादोरनाङै	-10.9951
▁हानजा,	-10.9951
▁हाबबोयो।	-10.9951
▁हाबाबो	-10.9951
▁हाबिलदारा	-10.9951
▁हाबिलाखौ	-10.9951
▁हाबिलाया	-10.9951
▁हाबो।	-10.9951
▁हाब्ला	-10.9951
▁हामबाय	-10.9951
▁हामबाय।	-10.9951
▁हामबुरनि	-10.9951
▁हामिद	-10.9951
▁हाय,	-10.9951
▁हायाखैब्लाबो	-10.9951
▁हायाखैसै।	-10.9951
▁हायैखौ	-10.9951
▁हाराम	-10.9951
▁हार्सा	-10.9951
▁हार्सिङैनो	-10.9951
▁हालदा	-10.9951
▁हालमाजि	-10.9951
▁हालाय	-10.9951
▁हालाय-हाफाय	-10.9951
▁हालोदखौ	-10.9951
▁हालोदाव	-10.9951
▁हाव-हाव	-10.9951
▁हिन्जाव,	-10.9951
▁हुकुम	-10.9951
▁हुगारै	-10.9951
▁हुसियारै	-10.9951
▁हेफाजाबगिरि	-10.9951
▁हैयो।	-10.9951
▁होंगो-दोंगो	-10.9951
▁होख्रां	-10.9951
▁होनांगौ।"	-10.9951
▁होनायजों	-10.9951
▁होनायसै	-10.9951
▁होनायानो	-10.9951
▁होफैदों	-10.9951
▁होबथानानै	-10.9951
▁होबा	-10.9951
▁होयासै।	-10.9951
▁होलांनाय	-10.9951
▁होवाखै।	-10.9951
▁हौवाफोर	-10.9951
▁हौवाफोरनि	-10.9951
▁!''	-11.1774
▁"अन्नानै	-11.1774
▁"अह	-11.1774
▁"आंथʼ	-11.1774
▁"आदसा	-11.1774
▁"आदा।"	-11.1774
▁"ऐ	-11.1774
▁"ओहो।"	-11.1774
▁"औ,	-11.1774
▁"कल्पना,	-11.1774
▁"जायखि	-11.1774
▁"जोंथि	-11.1774
▁"थौदो	-11.1774
▁"नङा,	-11.1774
▁"नै,	-11.1774
▁"नोंथां	-11.1774
▁"बरʼ	-11.1774
▁"बिदिब्ला	-11.1774
▁"बेफोर	-11.1774
▁"बेफोरखौ	-11.1774
▁"मा"	-11.1774
▁"माबा	-11.1774
▁"मोनसे	-11.1774
▁"राजा	-11.1774
▁"सार	-11.1774
▁"सार,	-11.1774
▁"साहा	-11.1774
▁"हाब	-11.1774
▁"हैद,	-11.1774
▁'आफा'	-11.1774
▁'आव'	-11.1774
▁'खौ'	-11.1774
▁'जावलिया	-11.1774
▁'नों	-11.1774
▁'राजा	-11.1774
▁(ओंखारलाङो)	-11.1774
▁(ङ)	-11.1774
▁(थांहां	-11.1774
▁(भुँइ	-11.1774
▁(मान	-11.1774
▁(मोदै	-11.1774
▁(रोन	-11.1774
▁+आ	-11.1774
▁--नरेना	-11.1774
▁..............	-11.1774
▁...।"	-11.1774
▁..।	-11.1774
▁10,000	-11.1774
▁11.	-11.1774
▁1984	-11.1774
▁5th	-11.1774
▁80	-11.1774
▁::	-11.1774
▁Interface	-11.1774
▁MS	-11.1774
▁Your	-11.1774
▁[राइजोफोरा	-11.1774
▁do	-11.1774
▁emotion	-11.1774
▁its	-11.1774
▁mean,	-11.1774
▁my	-11.1774
▁noun)	-11.1774
▁they	-11.1774
▁us	-11.1774
▁very	-11.1774
▁who	-11.1774
▁अ-	-11.1774
▁अक्टʼ	-11.1774
▁अक्सिजेन	-11.1774
▁अगर	-11.1774
▁अजय,	-11.1774
▁अजयजों	-11.1774
▁अजयाबो	-11.1774
▁अजाखौ	-11.1774
▁अदालगुरी,	-11.1774
▁अनलायनाया	-11.1774
▁अना	-11.1774
▁अनाथीखौ	-11.1774
▁अनुलेखा	-11.1774
▁अनुलेखामोननि	-11.1774
▁अनो।	-11.1774
▁अन्जिमा	-11.1774
▁अन्दर।	-11.1774
▁अन्नानै	-11.1774
▁अबंलावरिखौ	-11.1774
▁अबथिरानो	-11.1774
▁अबस्ये	-11.1774
▁अब्रामा	-11.1774
▁अमर	-11.1774
▁अमा,	-11.1774
▁अमानि	-11.1774
▁अरखिखौ	-11.1774
▁अरगें	-11.1774
▁अरन	-11.1774
▁अर्दार	-11.1774
▁अलʼकनो	-11.1774
▁अवाल	-11.1774
▁असमीया,	-11.1774
▁आंखौलʼ	-11.1774
▁आंखौलाय	-11.1774
▁आंजोंनो	-11.1774
▁आंलʼ	-11.1774
▁आइदियाया	-11.1774
▁आइनो	-11.1774
▁आइलि	-11.1774
▁आखल।	-11.1774
▁आखाइ,	-11.1774
▁आखुथाइ	-11.1774
▁आखुथि	-11.1774
▁आखुमा।	-11.1774
▁आगरवालाखौ	-11.1774
▁आगसिथिं	-11.1774
▁आजिरा	-11.1774
▁आथिं,	-11.1774
▁आदबजों	-11.1774
▁आदबा	-11.1774
▁आदैया	-11.1774
▁आदै।"	-11.1774
▁आद्	-11.1774
▁आनजादखौ	-11.1774
▁आनि	-11.1774
▁आन्जादखौ	-11.1774
▁आन्था	-11.1774
▁आन्दानि	-11.1774
▁आप	-11.1774
▁आफादगिरिया	-11.1774
▁आफादनिफ्राय	-11.1774
▁आफादफोरा	-11.1774
▁आफाफोर,	-11.1774
▁आबʼ।"	-11.1774
▁आबादारि	-11.1774
▁आबौमोननि	-11.1774
▁आमाइ।	-11.1774
▁आमुखाया	-11.1774
▁आमेरिका	-11.1774
▁आयदा।	-11.1774
▁आरति।	-11.1774
▁आरांगायाव	-11.1774
▁आरिस्रां	-11.1774
▁आलफानि	-11.1774
▁आलमर्टा	-11.1774
▁आलाइस्रि।	-11.1774
▁आलाय-सिलाय	-11.1774
▁आलासिफोरखौ	-11.1774
▁आलासिफोरनि	-11.1774
▁आली	-11.1774
▁आले,	-11.1774
▁आवगायलाङो	-11.1774
▁आवबा	-11.1774
▁आसामजों	-11.1774
▁आसामनो	-11.1774
▁आसारिया	-11.1774
▁आसिखौ	-11.1774
▁आसिया	-11.1774
▁आसियाव	-11.1774
▁इंखं	-11.1774
▁इंख्रिखौ	-11.1774
▁इंराजीयाव	-11.1774
▁इं।	-11.1774
▁इउजार	-11.1774
▁इउनिटाव	-11.1774
▁इखान-सिखान	-11.1774
▁इण्ड	-11.1774
▁इण्डिया	-11.1774
▁इनस्ट्राकसन	-11.1774
▁इनाइनो	-11.1774
▁इनायै	-11.1774
▁इनावनिपा	-11.1774
▁इन्जिनियारिं	-11.1774
▁इन्जुर	-11.1774
▁इन्टारनेटनि	-11.1774
▁इयर	-11.1774
▁इलेक्ट्रनिक	-11.1774
▁इसिंनि	-11.1774
▁ई	-11.1774
▁उखैनाय	-11.1774
▁उजिदों	-11.1774
▁उजिनांगौ	-11.1774
▁उत्तरा	-11.1774
▁उथुजुग	-11.1774
▁उदखार	-11.1774
▁उदांस्रिनि	-11.1774
▁उनखालि	-11.1774
▁उननिफ्राय	-11.1774
▁उनाव,	-11.1774
▁उनावथʼ	-11.1774
▁उन्दुलांनो	-11.1774
▁उवाल	-11.1774
▁उस	-11.1774
▁उसु	-11.1774
▁उसुखुथु	-11.1774
▁उसुन्दायाव	-11.1774
▁ए-	-11.1774
▁एंगारनायखौ	-11.1774
▁एंगोनाया	-11.1774
▁एइस	-11.1774
▁एकाडेमी	-11.1774
▁एक्स	-11.1774
▁एक्सटारनेल	-11.1774
▁एखुथा	-11.1774
▁एम.एल.ए.	-11.1774
▁एम्बुनि	-11.1774
▁एरायनो	-11.1774
▁एसिटिक	-11.1774
▁एसिबां	-11.1774
▁एसे,	-11.1774
▁एसेयाव	-11.1774
▁ओंखाम-इंख्रि	-11.1774
▁ओंखारदोंमोन।	-11.1774
▁ओंखारना	-11.1774
▁ओंखारलांदों।	-11.1774
▁कक्राझारनि	-11.1774
▁कफिनि	-11.1774
▁कमाण्डफोर	-11.1774
▁कमाण्डा	-11.1774
▁कर्नियाखौ	-11.1774
▁कापाव	-11.1774
▁कारेन्ट	-11.1774
▁कुमारनि	-11.1774
▁कृष्ण	-11.1774
▁केकखौ	-11.1774
▁केम्पनि	-11.1774
▁क्रिकेट	-11.1774
▁ख	-11.1774
▁खʼथा	-11.1774
▁खʼथानि	-11.1774
▁खथानि	-11.1774
▁खनथामसो	-11.1774
▁खना-खनला	-11.1774
▁खफʼनि	-11.1774
▁खफाथिया	-11.1774
▁खबरदार,	-11.1774
▁खरʼसिम	-11.1774
▁खरस	-11.1774
▁खहा,	-11.1774
▁खांनो	-11.1774
▁खानस्रि	-11.1774
▁खान्दा	-11.1774
▁खान्दिसे	-11.1774
▁खाफाल।	-11.1774
▁खामसालिनि	-11.1774
▁खारनानै	-11.1774
▁खारनाया	-11.1774
▁खारलांनो	-11.1774
▁खाराखै।	-11.1774
▁खालामखांनायनि	-11.1774
▁खालामनांगोन	-11.1774
▁खालामनानै,	-11.1774
▁खालामनानैसो	-11.1774
▁खालामा,	-11.1774
▁खालामाब्ला	-11.1774
▁खालारसिम	-11.1774
▁खावलायखौ	-11.1774
▁खिग्रा	-11.1774
▁खिनि	-11.1774
▁खिन्थाबाय	-11.1774
▁खिन्थायो	-11.1774
▁खिन्थाहैनो	-11.1774
▁खिसे	-11.1774
▁खुंगुर	-11.1774
▁खुंथाय	-11.1774
▁खुगा,	-11.1774
▁खुगाजोंनो	-11.1774
▁खुग्लुबनानै	-11.1774
▁खुदियाखौ	-11.1774
▁खुदियानि	-11.1774
▁खुदियाफोरनि	-11.1774
▁खुदुमो।	-11.1774
▁खुद्रिनाय	-11.1774
▁खुनुमथै	-11.1774
▁खुनुरोखोमै	-11.1774
▁खुनो	-11.1774
▁खृष्टीयान	-11.1774
▁खेमथा	-11.1774
▁खेर	-11.1774
▁खैनालै	-11.1774
▁खोथायानो	-11.1774
▁खोथिया	-11.1774
▁खोना	-11.1774
▁खोनामारनो	-11.1774
▁खोनायोब्ला	-11.1774
▁खोनासंनो।	-11.1774
▁खोमदोन।	-11.1774
▁खोमसि,	-11.1774
▁खोमानो	-11.1774
▁खौऔ	-11.1774
▁खौरांनि	-11.1774
▁खौरांफोरखौ	-11.1774
▁ख्रि	-11.1774
▁गʼगा	-11.1774
▁गʼलाप	-11.1774
▁गंगना	-11.1774
▁गंनैखौ	-11.1774
▁गंसेयावनो	-11.1774
▁गंस्रि	-11.1774
▁गगल्स	-11.1774
▁गनानै	-11.1774
▁गनायनि	-11.1774
▁गनायनो	-11.1774
▁गन्थङा	-11.1774
▁गब	-11.1774
▁गबोयो	-11.1774
▁गरद	-11.1774
▁गरदसे	-11.1774
▁गलʼनो	-11.1774
▁गसंबाय	-11.1774
▁गांनाय	-11.1774
▁गाइ	-11.1774
▁गाइखेर,	-11.1774
▁गाइखेराव	-11.1774
▁गाखोहैयो	-11.1774
▁गाखोहैयो।	-11.1774
▁गाग्लोब	-11.1774
▁गाजा-गोमजा	-11.1774
▁गाज्रिसिन	-11.1774
▁गादि	-11.1774
▁गान	-11.1774
▁गानहो	-11.1774
▁गाबज्रिनाय	-11.1774
▁गाबज्रियो।	-11.1774
▁गाबोनबो	-11.1774
▁गामि।	-11.1774
▁गायदाङा	-11.1774
▁गायनानै	-11.1774
▁गायसननो	-11.1774
▁गारनांगौ	-11.1774
▁गारसोनानै	-11.1774
▁गारसोम	-11.1774
▁गावजें,	-11.1774
▁गावजेङा	-11.1774
▁गावथʼ	-11.1774
▁गावथारनाय	-11.1774
▁गावनिफ्राय	-11.1774
▁गावहानो	-11.1774
▁गासा	-11.1774
▁गास्नि	-11.1774
▁गाहायावनो	-11.1774
▁गाहेलाफोरा	-11.1774
▁गिखांनाय	-11.1774
▁गिदिंबाय	-11.1774
▁गिनानै।	-11.1774
▁गिनायाव	-11.1774
▁गिबाय।	-11.1774
▁गिबि,	-11.1774
▁गिबियै	-11.1774
▁गिलासाव	-11.1774
▁गिलिरै	-11.1774
▁गुंग्राय	-11.1774
▁गुदिया	-11.1774
▁गुदुंनि	-11.1774
▁गुन्दै	-11.1774
▁गुरै,	-11.1774
▁गुलिनि	-11.1774
▁गुलियाव	-11.1774
▁गेजेरजोंसो	-11.1774
▁गेजेर।	-11.1774
▁गेदेरा	-11.1774
▁गेब्ला।	-11.1774
▁गेलेनायाव	-11.1774
▁गेलेयो।	-11.1774
▁गेवलांनाय	-11.1774
▁गेवा,	-11.1774
▁गैथारा	-11.1774
▁गैमारा।	-11.1774
▁गैयामोन,	-11.1774
▁गैयामोनब्लाबो	-11.1774
▁गोख्रोंसिन	-11.1774
▁गोगो,	-11.1774
▁गोग्लैजोबो।	-11.1774
▁गोग्लैदोंमोन।	-11.1774
▁गोग्लैनो	-11.1774
▁गोजोनथों।	-11.1774
▁गोजोनबाय।	-11.1774
▁गोजोर	-11.1774
▁गोजौआव	-11.1774
▁गोज्वौ	-11.1774
▁गोथार।	-11.1774
▁गोथैनि	-11.1774
▁गोदना	-11.1774
▁गोदनायाव	-11.1774
▁गोदानजों	-11.1774
▁गोदाव-सोराव	-11.1774
▁गोदि	-11.1774
▁गोदोनानि	-11.1774
▁गोनांथिया	-11.1774
▁गोनांफोरनि	-11.1774
▁गोबां,	-11.1774
▁गोबाख्रबनानै	-11.1774
▁गोबाब,	-11.1774
▁गोबायो।	-11.1774
▁गोमजोर,	-11.1774
▁गोमाजानाय	-11.1774
▁गोमायो।	-11.1774
▁गोमो,	-11.1774
▁गोमोथावना	-11.1774
▁गोमोनाय	-11.1774
▁गोमोबाय।	-11.1774
▁गोराखौ	-11.1774
▁गोरोबथा	-11.1774
▁गोरोबथानि	-11.1774
▁गोरोबनाय।	-11.1774
▁गोरोबो।	-11.1774
▁गोर्बो	-11.1774
▁गोलांनानै	-11.1774
▁गोसोम,	-11.1774
▁ग्राफिक	-11.1774
▁ग्रीमउइग	-11.1774
▁चरण	-11.1774
▁चाणाक्य	-11.1774
▁ज,	-11.1774
▁जʼरा,	-11.1774
▁जं	-11.1774
▁जखानि	-11.1774
▁जगार	-11.1774
▁जथुम	-11.1774
▁जदामब्लेनानै	-11.1774
▁जफानाय	-11.1774
▁जलंगा	-11.1774
▁जवा	-11.1774
▁जाखांफैयो।	-11.1774
▁जाखांबाय	-11.1774
▁जाखाङो	-11.1774
▁जागाय	-11.1774
▁जागायनानै	-11.1774
▁जागिखांनानै	-11.1774
▁जागोदान	-11.1774
▁जागोनना	-11.1774
▁जातनि	-11.1774
▁जाथ	-11.1774
▁जाथायफोरखौ	-11.1774
▁जाथायाव	-11.1774
▁जाथार	-11.1774
▁जाथारदों।	-11.1774
▁जाथारनाय	-11.1774
▁जान	-11.1774
▁जानांनाय	-11.1774
▁जानांनायनि	-11.1774
▁जानायनिफ्राय	-11.1774
▁जानायफोरनि	-11.1774
▁जानाया।	-11.1774
▁जाफुं	-11.1774
▁जाफुंनाय	-11.1774
▁जाफुङाखिसै।	-11.1774
▁जाफैनो	-11.1774
▁जाबां	-11.1774
▁जाबायमोन	-11.1774
▁जाबोदोंमोन।	-11.1774
▁जामारबाय	-11.1774
▁जायगाफोराव	-11.1774
▁जायाखै,	-11.1774
▁जायासै	-11.1774
▁जायैनि	-11.1774
▁जारला	-11.1774
▁जारौवा	-11.1774
▁जाला	-11.1774
▁जालांदों	-11.1774
▁जालांनायमोन।	-11.1774
▁जालायदों	-11.1774
▁जालायबाय।	-11.1774
▁जालिया।	-11.1774
▁जाहाराव	-11.1774
▁जाहैनाय	-11.1774
▁जि-जोम	-11.1774
▁जिउनां	-11.1774
▁जिगां	-11.1774
▁जिबारेलिन	-11.1774
▁जिबारेलिननि	-11.1774
▁जिबारेलिना	-11.1774
▁जिबौनि	-11.1774
▁जिल्लाया	-11.1774
▁जुक्ति	-11.1774
▁जुगनि	-11.1774
▁जुथे	-11.1774
▁जुन	-11.1774
▁जुनैनो	-11.1774
▁जुरिजेननाय	-11.1774
▁जुवा	-11.1774
▁जुवान	-11.1774
▁जेद	-11.1774
▁जेब्लानो	-11.1774
▁जेब्लासिम	-11.1774
▁जेरबायाव	-11.1774
▁जेरैनो	-11.1774
▁जेरैहाय	-11.1774
▁जै-जै,	-11.1774
▁जोंखाङो	-11.1774
▁जोंनिसिम	-11.1774
▁जोंब्लावा	-11.1774
▁जोंरुहा	-11.1774
▁जोंरूवा।	-11.1774
▁जोख्लोब	-11.1774
▁जोनोमफुरिखौ	-11.1774
▁जोबजानाय	-11.1774
▁जोबनाय।	-11.1774
▁जोबस्रांनायनि	-11.1774
▁जोब्बाय	-11.1774
▁जोलानि	-11.1774
▁जौगानायनि	-11.1774
▁जौमोना	-11.1774
▁जौसिन	-11.1774
▁जौस्रां	-11.1774
▁ज्रय	-11.1774
▁झ,	-11.1774
▁टेबोला	-11.1774
▁टेलिफʼन	-11.1774
▁ट्रेड	-11.1774
▁ड0	-11.1774
▁डलार	-11.1774
▁डाइनिं	-11.1774
▁डाक्तारा	-11.1774
▁डाटा	-11.1774
▁डिग्री	-11.1774
▁डिमापुर	-11.1774
▁डिसेम्बर	-11.1774
▁डिस्काव	-11.1774
▁डेनमार्कनि	-11.1774
▁ताला	-11.1774
▁तुलाराम।	-11.1774
▁थʼसे	-11.1774
▁थगायसुला	-11.1774
▁थगायसुला,	-11.1774
▁थफानै	-11.1774
▁थबस्रʼ	-11.1774
▁थब्लं	-11.1774
▁थरथिंसे	-11.1774
▁थलʼ	-11.1774
▁थांखांनानै	-11.1774
▁थांखिनि	-11.1774
▁थांखिमोन।	-11.1774
▁थांखि।	-11.1774
▁थांनांगोन।	-11.1774
▁थांनायथिं	-11.1774
▁थांफिनो	-11.1774
▁थांबा	-11.1774
▁थाइनैया	-11.1774
▁थाइलेण्डनि	-11.1774
▁थाखोसे	-11.1774
▁थागिरि	-11.1774
▁थाङासै।	-11.1774
▁थाथʼनानै	-11.1774
▁थाथाव	-11.1774
▁थादʼ	-11.1774
▁थानांगौब्ला	-11.1774
▁थानायानो	-11.1774
▁थानाया।	-11.1774
▁थान्दा	-11.1774
▁थाफ्लि	-11.1774
▁थाबथायो।	-11.1774
▁थाबायग्रा	-11.1774
▁थाबायनाय,	-11.1774
▁थाबाव	-11.1774
▁थाबोदों।	-11.1774
▁थाब्लानो	-11.1774
▁थामफै	-11.1774
▁थायनैजों	-11.1774
▁थायनैयाव	-11.1774
▁थायासै।	-11.1774
▁थायोनो	-11.1774
▁थार,	-11.1774
▁थावजों	-11.1774
▁थावा	-11.1774
▁थाव।	-11.1774
▁थासारिजों	-11.1774
▁थासारिनि	-11.1774
▁थाहैनाया	-11.1774
▁थाहैनो	-11.1774
▁थिंगिनिया	-11.1774
▁थिनदों	-11.1774
▁थिननानै	-11.1774
▁थिनबा	-11.1774
▁थिनब्ला	-11.1774
▁थिनहरदोंमोन	-11.1774
▁थियेटाराव	-11.1774
▁थिरां	-11.1774
▁थुंसुं	-11.1774
▁थुनलाइया	-11.1774
▁थुरसि	-11.1774
▁थुवा	-11.1774
▁थेख्रेनि	-11.1774
▁थेख्रेया	-11.1774
▁थेफेन।	-11.1774
▁थेलेफानि	-11.1774
▁थैगोन।	-11.1774
▁थोङै	-11.1774
▁थोलो	-11.1774
▁दʼहाय	-11.1774
▁दंथारो	-11.1774
▁दंना।	-11.1774
▁दंलै	-11.1774
▁दखानाव	-11.1774
▁दङʼमोन।	-11.1774
▁ददेरे,	-11.1774
▁दन्दराव	-11.1774
▁दरं	-11.1774
▁दरनैनि	-11.1774
▁दरलाया	-11.1774
▁दरा	-11.1774
▁दलरै	-11.1774
▁दस	-11.1774
▁दहायसो	-11.1774
▁दाइरि	-11.1774
▁दाउथु	-11.1774
▁दाउफोरनि	-11.1774
▁दाउबʼवा	-11.1774
▁दाउसा	-11.1774
▁दाकातनि	-11.1774
▁दाखʼ	-11.1774
▁दाजाबदाफोरा	-11.1774
▁दाजाबदा।	-11.1774
▁दानथार	-11.1774
▁दाननाय	-11.1774
▁दानब्ला	-11.1774
▁दानसʼनाय	-11.1774
▁दानसेयारि	-11.1774
▁दाबादियाव	-11.1774
▁दाबोरसे	-11.1774
▁दामनानै	-11.1774
▁दामनाय-देनाय,	-11.1774
▁दामसिखौ	-11.1774
▁दामोन।	-11.1774
▁दाव,	-11.1774
▁दावज्ला	-11.1774
▁दावबायारिफोरा	-11.1774
▁दावराय	-11.1774
▁दावराव-दावसि	-11.1774
▁दाहाजों	-11.1774
▁दाहारा	-11.1774
▁दाहो	-11.1774
▁दाहोना,	-11.1774
▁दाहो।	-11.1774
▁दा।	-11.1774
▁दिग्री	-11.1774
▁दिन्थिना	-11.1774
▁दिन्थिफुंनाय	-11.1774
▁दिन्थिया	-11.1774
▁दिन्दां	-11.1774
▁दिहुनजानाय	-11.1774
▁दुखुबो	-11.1774
▁दुखुयै	-11.1774
▁दुगैनो	-11.1774
▁दुमफ्ला	-11.1774
▁दुरुङा	-11.1774
▁दुर्जांनाव	-11.1774
▁दुर्जाङानो	-11.1774
▁दुलुर	-11.1774
▁दे-दे	-11.1774
▁देंखोआव	-11.1774
▁देंखोनि	-11.1774
▁देगारजों	-11.1774
▁देग्लायनि	-11.1774
▁देद्	-11.1774
▁देरनाय	-11.1774
▁दैखरनि	-11.1774
▁दैखरा	-11.1774
▁दैखौनो	-11.1774
▁दैनो	-11.1774
▁दैबो	-11.1774
▁दैमा-दैसा,	-11.1774
▁दैमारीया	-11.1774
▁दैमासिम	-11.1774
▁दैलो	-11.1774
▁दों	-11.1774
▁दोंथाम	-11.1774
▁दोनहैदों।	-11.1774
▁दोबै	-11.1774
▁दोलोनि	-11.1774
▁दोहोनि	-11.1774
▁दौनाय	-11.1774
▁द्रयिं	-11.1774
▁धमक	-11.1774
▁धर	-11.1774
▁धरणी	-11.1774
▁धुप	-11.1774
▁धोन-दौलद	-11.1774
▁धोनसिं	-11.1774
▁नʼ,	-11.1774
▁नʼखरा	-11.1774
▁नंखायखौ	-11.1774
▁नंनायनि	-11.1774
▁नंलिया,	-11.1774
▁नखʼर	-11.1774
▁नखरखौ	-11.1774
▁नखरारि	-11.1774
▁नङाथाय	-11.1774
▁नङाहाय	-11.1774
▁नन्दʼनि	-11.1774
▁नम्बरी	-11.1774
▁नरकासुरनि	-11.1774
▁नरेशखौ	-11.1774
▁नसिङाव	-11.1774
▁नांगोल	-11.1774
▁नांजाबफानाय	-11.1774
▁नांदोंमोन।	-11.1774
▁नांनायखौ	-11.1774
▁नांफैदों।	-11.1774
▁नांला	-11.1774
▁नाखौ	-11.1774
▁नागाखौ	-11.1774
▁नागाफोरजों	-11.1774
▁नागारनाय	-11.1774
▁नागारा।	-11.1774
▁नागिरनायनि	-11.1774
▁नागिरब्लानो	-11.1774
▁नाङा।"	-11.1774
▁नाङि	-11.1774
▁नाछानि	-11.1774
▁नाजा	-11.1774
▁नाजागोन	-11.1774
▁नाजानांगोन।	-11.1774
▁नाजानायावनो	-11.1774
▁नाजावनो	-11.1774
▁नाजाव।	-11.1774
▁नाथाइ	-11.1774
▁नामखौ	-11.1774
▁नामैनो	-11.1774
▁नाय,	-11.1774
▁नायगंनानै	-11.1774
▁नायगिरदों।	-11.1774
▁नायग्रानि	-11.1774
▁नायग्राफ्रा	-11.1774
▁नायदाव	-11.1774
▁नायनाया	-11.1774
▁नायलʼ	-11.1774
▁नायहरगासिनो	-11.1774
▁नायहरदों	-11.1774
▁नाय।	-11.1774
▁नारा-नाथा	-11.1774
▁नारायणा	-11.1774
▁नारेंखल	-11.1774
▁नार्सा	-11.1774
▁नास्राय	-11.1774
▁निदानाव	-11.1774
▁निर्मालिया	-11.1774
▁निस्सय	-11.1774
▁नुगानै	-11.1774
▁नुगासे	-11.1774
▁नुजा	-11.1774
▁नुजाथिदों।	-11.1774
▁नुथायनि	-11.1774
▁नुथायाव	-11.1774
▁नुनायखाय	-11.1774
▁नुफिनबाय	-11.1774
▁नुफैबाय	-11.1774
▁नुयैलाय	-11.1774
▁नुवाब्ला	-11.1774
▁नेग्रा	-11.1774
▁नेपालनि	-11.1774
▁नेपालि	-11.1774
▁नेरसोन।	-11.1774
▁नेर्सोन।	-11.1774
▁नोंथांनो	-11.1774
▁नोंथांमोनखौ	-11.1774
▁नोंथांमोननो	-11.1774
▁नोंथां।"	-11.1774
▁नोंथाङा,	-11.1774
▁नोंदानि	-11.1774
▁नोंनिया	-11.1774
▁नोंनियाव	-11.1774
▁नोंनि।	-11.1774
▁नोंबोथʼ	-11.1774
▁नोंसाज्ला	-11.1774
▁नों।"	-11.1774
▁नोथाङा	-11.1774
▁नोमाखौ	-11.1774
▁नोमाजों	-11.1774
▁नोमाया	-11.1774
▁पजʼनि	-11.1774
▁पाक्का	-11.1774
▁पार्ट	-11.1774
▁पि,	-11.1774
▁पुरनिमा	-11.1774
▁पेकेट	-11.1774
▁प्रग्रामनि	-11.1774
▁प्रग्रामफोरखौ	-11.1774
▁प्रग्रामा	-11.1774
▁प्रमप्ट	-11.1774
▁प्रशान्त	-11.1774
▁प्रिन्ट	-11.1774
▁प्रिन्टिं	-11.1774
▁प्लट,	-11.1774
▁फंबायाबो	-11.1774
▁फजʼनो	-11.1774
▁फटʼनि	-11.1774
▁फबनानै	-11.1774
▁फरायसाफोरखौ	-11.1774
▁फरायसालिनिफ्राय	-11.1774
▁फरायसालिफोराव	-11.1774
▁फरेइनाव	-11.1774
▁फसंथान	-11.1774
▁फसंनानै	-11.1774
▁फाइनाल	-11.1774
▁फाखा	-11.1774
▁फाख्रा	-11.1774
▁फाग्लाबादि	-11.1774
▁फाग्ला।	-11.1774
▁फाफखौ	-11.1774
▁फाफ्लि	-11.1774
▁फारनैयाव	-11.1774
▁फारा	-11.1774
▁फारि।	-11.1774
▁फालांगिखौ	-11.1774
▁फालानि	-11.1774
▁फालिनो	-11.1774
▁फाव"	-11.1774
▁फावखुंग्रि	-11.1774
▁फावथाइफोरा	-11.1774
▁फावदुरा	-11.1774
▁फावा	-11.1774
▁फास्लां	-11.1774
▁फाहामसालि	-11.1774
▁फिउ	-11.1774
▁फिथराव	-11.1774
▁फिनसाजा	-11.1774
▁फिन्नानै	-11.1774
▁फिसाज्ला,	-11.1774
▁फिसासिन	-11.1774
▁फिसा।"	-11.1774
▁फिसौ,	-11.1774
▁फुजानि	-11.1774
▁फुथियाहां	-11.1774
▁फुथिहां	-11.1774
▁फुदुंनो	-11.1774
▁फुनो	-11.1774
▁फुलिया	-11.1774
▁फेंफोना	-11.1774
▁फेनाय	-11.1774
▁फेफे-फुफु	-11.1774
▁फेस्वन	-11.1774
▁फैफिननो	-11.1774
▁फैफिनब्ला	-11.1774
▁फैफिनाखै।	-11.1774
▁फैफिनो	-11.1774
▁फैमाल।	-11.1774
▁फैसाली"	-11.1774
▁फोनांनो	-11.1774
▁फोरजानि	-11.1774
▁फोलाबाय	-11.1774
▁फोलेरा	-11.1774
▁फोसाबनाय,	-11.1774
▁फोसावगिरि	-11.1774
▁बक्सीं	-11.1774
▁बटलखौ	-11.1774
▁बदमास	-11.1774
▁बम	-11.1774
▁बमाखौ	-11.1774
▁बयनिख्रुयबो	-11.1774
▁बयबो।	-11.1774
▁बरमा,	-11.1774
▁बराय	-11.1774
▁बसुमतारि,	-11.1774
▁बस्थायाव	-11.1774
▁बहन्नानै	-11.1774
▁बा:	-11.1774
▁बांग्रि	-11.1774
▁बांला,	-11.1774
▁बांलादेशी	-11.1774
▁बाखनायथाव	-11.1774
▁बाग्दावनानै	-11.1774
▁बाग्दावनाय	-11.1774
▁बाग्लाय	-11.1774
▁बाङाइ	-11.1774
▁बाङाली	-11.1774
▁बाजियावनो	-11.1774
▁बाजियावसो	-11.1774
▁बाजिसिम	-11.1774
▁बाजिसो	-11.1774
▁बाजि।	-11.1774
▁बाज्रेद	-11.1774
▁बाटनखौ	-11.1774
▁बाथरुमाव	-11.1774
▁बाथुल	-11.1774
▁बाथुवा	-11.1774
▁बाथेनो	-11.1774
▁बाथौनि	-11.1774
▁बाथ्राखौबो	-11.1774
▁बाथ्राजोंनो	-11.1774
▁बाथ्राबो	-11.1774
▁बादायलायनायाव	-11.1774
▁बादाव,	-11.1774
▁बादिनि	-11.1774
▁बादिबो	-11.1774
▁बादों	-11.1774
▁बाननानै	-11.1774
▁बान्दो	-11.1774
▁बाबु,	-11.1774
▁बामोननि	-11.1774
▁बामोनमारा	-11.1774
▁बायदिखौ	-11.1774
▁बायदिफोरा	-11.1774
▁बायदिफोराव	-11.1774
▁बायदिसिनाखौ	-11.1774
▁बायदिसिना।	-11.1774
▁बायदिसो	-11.1774
▁बायनांगौ	-11.1774
▁बायलुं	-11.1774
▁बायहाजार	-11.1774
▁बार,	-11.1774
▁बारदों।	-11.1774
▁बारब्लानो	-11.1774
▁बारै	-11.1774
▁बारो।	-11.1774
▁बालन्दा	-11.1774
▁बालन्दा,	-11.1774
▁बालाबारियाव	-11.1774
▁बावदिया,	-11.1774
▁बावदियाबो	-11.1774
▁बावयैसो	-11.1774
▁बावलांबाय।	-11.1774
▁बावाखै	-11.1774
▁बाहागि	-11.1774
▁बाहागोयाव	-11.1774
▁बाहायथि	-11.1774
▁बाहायनानै:	-11.1774
▁बाहायो	-11.1774
▁बिखा,	-11.1774
▁बिखाव	-11.1774
▁बिखुंखौ	-11.1774
▁बिख्लोखौ	-11.1774
▁बिगुमैनि	-11.1774
▁बिगुमैया	-11.1774
▁बिगोमाजोआ	-11.1774
▁बिगोमाया	-11.1774
▁बिग्रि	-11.1774
▁बिजाथिया	-11.1774
▁बिजिरगिरि,	-11.1774
▁बिजिरसालिया	-11.1774
▁बिजोंनि	-11.1774
▁बिथराइ,	-11.1774
▁बिथराय	-11.1774
▁बिथांनो	-11.1774
▁बिथांमोनखौ	-11.1774
▁बिथांमोनहा	-11.1774
▁बिथाजों	-11.1774
▁बिथिङाव)	-11.1774
▁बिदा-बिनानाव	-11.1774
▁बिदिनोसै	-11.1774
▁बिदिनो।	-11.1774
▁बिनायाव	-11.1774
▁बिफानजों	-11.1774
▁बिबनांखौ	-11.1774
▁बिबादिनो	-11.1774
▁बिबाय	-11.1774
▁बिबायारिया	-11.1774
▁बिबारिया	-11.1774
▁बिबौ	-11.1774
▁बिबौनि	-11.1774
▁बिब्दिखौ	-11.1774
▁बिब्दिनो।	-11.1774
▁बिब्दियाव	-11.1774
▁बिमा-बिफाखौ	-11.1774
▁बिमायानो	-11.1774
▁बिरनानै	-11.1774
▁बिरलाङो।	-11.1774
▁बिलाइफोरखौ	-11.1774
▁बिल्डिं	-11.1774
▁बिल्डिंनि	-11.1774
▁बिसना	-11.1774
▁बिसाइनि	-11.1774
▁बिसान।	-11.1774
▁बिसि-फिसाइ	-11.1774
▁बिसिनो	-11.1774
▁बिसि।	-11.1774
▁बिसुखेनि	-11.1774
▁बिसोरनाव	-11.1774
▁बिहारनि	-11.1774
▁बुंगोन,	-11.1774
▁बुंदों,	-11.1774
▁बुंदों--	-11.1774
▁बुंदोंमोनब्लाबो	-11.1774
▁बुंनांगोन।	-11.1774
▁बुंफबनाय	-11.1774
▁बुंफोरनाय	-11.1774
▁बुंबावदों	-11.1774
▁बुंबोनाय	-11.1774
▁बुंलांदों।	-11.1774
▁बुंलांबाय	-11.1774
▁बुंलाङो-	-11.1774
▁बुंसनो	-11.1774
▁बुंसो	-11.1774
▁बुंहरबाय-	-11.1774
▁बुङाब्लाबो	-11.1774
▁बुजायबाय	-11.1774
▁बुटिं	-11.1774
▁बुथारग्रा	-11.1774
▁बुदांनि	-11.1774
▁बुद्दि	-11.1774
▁बुद्रैनि	-11.1774
▁बुरखाय	-11.1774
▁बुरला	-11.1774
▁बुलाय	-11.1774
▁बेंकनि	-11.1774
▁बेंकाव	-11.1774
▁बेंखननानै	-11.1774
▁बेकेटा	-11.1774
▁बेखेवगास्निनि	-11.1774
▁बेखेवनाय	-11.1774
▁बेखेवफाखौनो	-11.1774
▁बेखेवफाफोरखौ	-11.1774
▁बेगपाइपार	-11.1774
▁बेगरनि	-11.1774
▁बेगाव	-11.1774
▁बेदत	-11.1774
▁बेनिखायनोथʼ	-11.1774
▁बेनिफ्रायसो	-11.1774
▁बेन्साव	-11.1774
▁बेफोरखौबो	-11.1774
▁बेफोरजों	-11.1774
▁बेफोरहा	-11.1774
▁बेफोराव	-11.1774
▁बेबा	-11.1774
▁बेमारिखौ	-11.1774
▁बेयावबो	-11.1774
▁बेयो,	-11.1774
▁बेरखांनो	-11.1774
▁बेरखांहोनो	-11.1774
▁बेरलाव	-11.1774
▁बेरामजों	-11.1774
▁बेरामनि	-11.1774
▁बेला-	-11.1774
▁बेलासिनि	-11.1774
▁बेलुन,	-11.1774
▁बेवहाय।	-11.1774
▁बेसर	-11.1774
▁बेसात	-11.1774
▁बेसोर	-11.1774
▁बेहुस	-11.1774
▁बैग्रि	-11.1774
▁बैदिनखालि	-11.1774
▁बैयाव	-11.1774
▁बैसां	-11.1774
▁बैसागि	-11.1774
▁बैसागिखौ	-11.1774
▁बैसागिया	-11.1774
▁बोगासिनो	-11.1774
▁बोना	-11.1774
▁बोनायसै	-11.1774
▁बोबोनानै	-11.1774
▁बोयै	-11.1774
▁बोरसिया	-11.1774
▁बोरायजों	-11.1774
▁बोराय।	-11.1774
▁बोलोगोरा	-11.1774
▁बोसोर,	-11.1774
▁बोसोरसालिया	-11.1774
▁बोस्रांनानै	-11.1774
▁बोहै	-11.1774
▁ब्यावहा	-11.1774
▁ब्रह्मआ	-11.1774
▁ब्रास	-11.1774
▁ब्रें	-11.1774
▁ब्लाव	-11.1774
▁ब्लेक	-11.1774
▁भ,	-11.1774
▁भि	-11.1774
▁भुटाननि	-11.1774
▁भुटाना	-11.1774
▁भुमाव	-11.1774
▁म,	-11.1774
▁मʼकाबिला	-11.1774
▁मंगलीयान	-11.1774
▁मत	-11.1774
▁मदत	-11.1774
▁मददनि	-11.1774
▁मनजु।	-11.1774
▁मन्चा	-11.1774
▁मन्जुमोननि	-11.1774
▁मन्थ्रि,	-11.1774
▁मलेन।	-11.1774
▁महरै।	-11.1774
▁महात्मा	-11.1774
▁महामाया	-11.1774
▁महाराजा,	-11.1774
▁महेस्वर	-11.1774
▁माइरंखौ	-11.1774
▁माखा,	-11.1774
▁माथाउरी	-11.1774
▁माथाम	-11.1774
▁माथो,	-11.1774
▁मादैया	-11.1774
▁मान,	-11.1774
▁मानसि-दुमसि,	-11.1774
▁मानसिङा	-11.1774
▁मानसिफोरनो	-11.1774
▁मानसिफ्राबो	-11.1774
▁मानसियासो	-11.1774
▁मानसिया।	-11.1774
▁मानाव	-11.1774
▁मानियो।	-11.1774
▁मान्दार	-11.1774
▁माफा	-11.1774
▁माबा,	-11.1774
▁माबायदि	-11.1774
▁माबासो	-11.1774
▁माब्लादि	-11.1774
▁माब्लानिफ्राय	-11.1774
▁मारा	-11.1774
▁माराम	-11.1774
▁मारुटियाव	-11.1774
▁मारुती	-11.1774
▁मार्का	-11.1774
▁मालदार	-11.1774
▁मालायफोर	-11.1774
▁मावगोन,	-11.1774
▁मावगोन।	-11.1774
▁मावग्रा,	-11.1774
▁मावग्राया	-11.1774
▁मावदों,	-11.1774
▁मावदों।	-11.1774
▁मावनां	-11.1774
▁मावनाय,	-11.1774
▁मावनाय।	-11.1774
▁मावाखै।	-11.1774
▁मासिनिफ्राय	-11.1774
▁मासेया	-11.1774
▁मास्टारनि	-11.1774
▁माहाजोनाबो	-11.1774
▁मिजिं।	-11.1774
▁मिथिगौना	-11.1774
▁मिनिखैरे	-11.1774
▁मिनिबाला	-11.1774
▁मिन्थिगौ	-11.1774
▁मिन्थिनो	-11.1774
▁मिरुनि	-11.1774
▁मिलिटारि	-11.1774
▁मिलियन	-11.1774
▁मुंराइ	-11.1774
▁मुंराया	-11.1774
▁मुगा।	-11.1774
▁मुगैया	-11.1774
▁मुरदा	-11.1774
▁मुर्ख	-11.1774
▁मुलिफोरखौ	-11.1774
▁मुलुक	-11.1774
▁मुवा।	-11.1774
▁मुसुरनाय	-11.1774
▁मुस्रिखौ	-11.1774
▁मेंनो	-11.1774
▁मेगनानो	-11.1774
▁मेडाम	-11.1774
▁मेनेज	-11.1774
▁मेब्ला।	-11.1774
▁मेरेजनि	-11.1774
▁मेलाखौ	-11.1774
▁मेलेरिया	-11.1774
▁मैगं-थाइगं	-11.1774
▁मोजां-गाज्रि,	-11.1774
▁मोजांखौ	-11.1774
▁मोजांथार	-11.1774
▁मोजाङानो	-11.1774
▁मोदाइनि	-11.1774
▁मोदायजो	-11.1774
▁मोदोमनाय	-11.1774
▁मोनखाङो	-11.1774
▁मोनथायनि	-11.1774
▁मोनथारबाय	-11.1774
▁मोनदोंमोन,	-11.1774
▁मोननायमोन।	-11.1774
▁मोननायाव	-11.1774
▁मोनफिनबाय।	-11.1774
▁मोनलाय	-11.1774
▁मोनसेयाव	-11.1774
▁मोनहैनानै	-11.1774
▁मोनहैनाय	-11.1774
▁मोनहैनो	-11.1774
▁मोनैलाय	-11.1774
▁मोनो-	-11.1774
▁मोनोमोन।	-11.1774
▁मोन्नांगौ	-11.1774
▁मोन्नाय,	-11.1774
▁मोन्नायाव	-11.1774
▁मोब्लाव	-11.1774
▁मोरोन	-11.1774
▁मोले	-11.1774
▁मोसानायनि	-11.1774
▁मोसायो।	-11.1774
▁मोसाहारिया	-11.1774
▁मोसौ।	-11.1774
▁रʼ।	-11.1774
▁रंफालीया	-11.1774
▁रजि,	-11.1774
▁रना-रनि	-11.1774
▁रन्जित	-11.1774
▁रबिबारखालि	-11.1774
▁रमा।	-11.1774
▁रांखान्थि	-11.1774
▁रांखान्थि,	-11.1774
▁रांखान्थिनि	-11.1774
▁रांखान्थियारि	-11.1774
▁राइजो-राजा	-11.1774
▁राइजो-राजाफोरा	-11.1774
▁राइजोआरि	-11.1774
▁राइजोफोरजों	-11.1774
▁राइजो।	-11.1774
▁राक्षस	-11.1774
▁राङानोथʼ	-11.1774
▁राननाय	-11.1774
▁रान्दिखौ	-11.1774
▁राभा	-11.1774
▁रायजो-राजानि	-11.1774
▁रायज्लायो	-11.1774
▁रावबोथʼ	-11.1774
▁रावयै	-11.1774
▁रावहाबो	-11.1774
▁रावाबो	-11.1774
▁रासिनसो	-11.1774
▁रासियानि	-11.1774
▁रिं	-11.1774
▁रिंसारथिनि	-11.1774
▁रिजार्भ	-11.1774
▁रिता	-11.1774
▁रिसिभारखौ	-11.1774
▁रुजुननानै	-11.1774
▁रुपा।	-11.1774
▁रुमालखौ	-11.1774
▁रेगा	-11.1774
▁रेगे	-11.1774
▁रेन्जारखौ	-11.1774
▁रैमोना	-11.1774
▁रोङाबोला	-11.1774
▁रोङोब्ला	-11.1774
▁रोजाबगिरि	-11.1774
▁रोजाबनाय	-11.1774
▁रोजासे	-11.1774
▁ल,	-11.1774
▁लʼ।	-11.1774
▁लं,	-11.1774
▁लख्रा,	-11.1774
▁लग्न	-11.1774
▁लण्डनाव	-11.1774
▁लन्थि	-11.1774
▁लांखारजानाय	-11.1774
▁लांगाब	-11.1774
▁लांगासिनो	-11.1774
▁लांनायसै।	-11.1774
▁लांनायाव	-11.1774
▁लांनो।	-11.1774
▁लांफानो	-11.1774
▁लां।	-11.1774
▁लाइ	-11.1774
▁लाइजामा।	-11.1774
▁लाइननि	-11.1774
▁लाइनमेनखौ	-11.1774
▁लाइनाव	-11.1774
▁लाइमोन,	-11.1774
▁लाखनि	-11.1774
▁लाखिनायाव	-11.1774
▁लाखो	-11.1774
▁लागा	-11.1774
▁लाङो,	-11.1774
▁लाजिनायजों	-11.1774
▁लाजोबनो	-11.1774
▁लाथा	-11.1774
▁लाथिखʼ	-11.1774
▁लानजाइ	-11.1774
▁लानायसै।	-11.1774
▁लानोबो	-11.1774
▁लानोसै	-11.1774
▁लाबो,	-11.1774
▁लाबोआ	-11.1774
▁लाबोगोन	-11.1774
▁लासै।	-11.1774
▁लाहाखि	-11.1774
▁लाहारिनि	-11.1774
▁लाहैगोन	-11.1774
▁लिंहरनाय	-11.1774
▁लिभ	-11.1774
▁लिरदोंमोन	-11.1774
▁लुफुंनाय	-11.1774
▁लुफुंनायनि	-11.1774
▁लुबैदोंमोन	-11.1774
▁लुबैदोंमोन।	-11.1774
▁लुबैनानै	-11.1774
▁लुबैनाय,	-11.1774
▁लुबैसुला	-11.1774
▁लेंनानै	-11.1774
▁लेंहरनाय	-11.1774
▁लेकसार	-11.1774
▁लेङाय	-11.1774
▁लेब	-11.1774
▁लेबार	-11.1774
▁लोंदो	-11.1774
▁लोंदों	-11.1774
▁लोंब्ला	-11.1774
▁लोंहोनो	-11.1774
▁लोगोफोरा	-11.1774
▁लोगोरि	-11.1774
▁लोगोसेनो	-11.1774
▁लोङो।	-11.1774
▁लोहो	-11.1774
▁वार्क	-11.1774
▁वेर	-11.1774
▁संख्रि,	-11.1774
▁संदाननो	-11.1774
▁संराजानि	-11.1774
▁सदबनो	-11.1774
▁सन्माना	-11.1774
▁समजित	-11.1774
▁समजों	-11.1774
▁सममथे	-11.1774
▁समाज,	-11.1774
▁समाजखान्थि,	-11.1774
▁समायो	-11.1774
▁समावसो	-11.1774
▁सरखारा	-11.1774
▁सरला	-11.1774
▁सलʼगिरि	-11.1774
▁सलʼबाथा	-11.1774
▁सलादें	-11.1774
▁सहेनखौ	-11.1774
▁सहेननि	-11.1774
▁साइखेलखौ	-11.1774
▁साइद	-11.1774
▁साखा	-11.1774
▁साख्रियावला	-11.1774
▁सागु,	-11.1774
▁साग्रिद	-11.1774
▁साथामनि	-11.1774
▁सादा	-11.1774
▁सादों	-11.1774
▁सान,	-11.1774
▁सानथामसो	-11.1774
▁सानथ्रʼहायै	-11.1774
▁साननायाव	-11.1774
▁साननैसोनि	-11.1774
▁सानफामानि	-11.1774
▁सानफुनाय	-11.1774
▁सानबोलावरिनि	-11.1774
▁सानब्ला	-11.1774
▁सानसʼनो	-11.1774
▁सानस्रिनि	-11.1774
▁सानस्रिनो	-11.1774
▁सानहाब	-11.1774
▁सानाखै।	-11.1774
▁सानावनो	-11.1774
▁सानै-हयै	-11.1774
▁सानैनो	-11.1774
▁सान्थ्रिखौ	-11.1774
▁सान्थ्रिया	-11.1774
▁सान्दाया	-11.1774
▁सान्दुं।	-11.1774
▁सान्दोंमोन,	-11.1774
▁साफायनानै	-11.1774
▁साफ्रोम	-11.1774
▁साबाइखर	-11.1774
▁साबेसे	-11.1774
▁सामलाउथि	-11.1774
▁सामलायनानै	-11.1774
▁सायखʼनाय	-11.1774
▁सायखङा	-11.1774
▁सारोन	-11.1774
▁सालाइखौ	-11.1774
▁सावरायनायाव	-11.1774
▁सावसुब	-11.1774
▁सासे,	-11.1774
▁साहाब	-11.1774
▁सिकिउरीटि	-11.1774
▁सिखांनो	-11.1774
▁सिखाउ	-11.1774
▁सिखावा	-11.1774
▁सिगां।	-11.1774
▁सिग्रि	-11.1774
▁सिथार	-11.1774
▁सिथावना	-11.1774
▁सिददा	-11.1774
▁सिनथायनो	-11.1774
▁सिनायनानै	-11.1774
▁सिनि,	-11.1774
▁सिफुं	-11.1774
▁सिफोरखौ	-11.1774
▁सिफ्ला	-11.1774
▁सिबिनायखौ	-11.1774
▁सिबिनायाव	-11.1774
▁सिमायाव	-11.1774
▁सिरां,	-11.1774
▁सिरियाव	-11.1774
▁सिलाइनि	-11.1774
▁सिलाखौ	-11.1774
▁सुइसखौ	-11.1774
▁सुखि	-11.1774
▁सुखुयै	-11.1774
▁सुखौ	-11.1774
▁सुजुग	-11.1774
▁सुति	-11.1774
▁सुथुरजों	-11.1774
▁सुनिया	-11.1774
▁सुफुंग्रा	-11.1774
▁सुफुंनाय	-11.1774
▁सुबुंखौनो	-11.1774
▁सुबुंजों	-11.1774
▁सुबुंफोरनो	-11.1774
▁सुबुंसाइनि	-11.1774
▁सुरलाङो।	-11.1774
▁सुरै	-11.1774
▁सुस्रांनायनि	-11.1774
▁सेंग्रा-सिख्लानि	-11.1774
▁सेक्सपीयारनि	-11.1774
▁सेटखौ	-11.1774
▁सेनो।	-11.1774
▁सेन्देला	-11.1774
▁सेप्तेम्बरनि	-11.1774
▁सेरनानै	-11.1774
▁सैनानै	-11.1774
▁सैया,	-11.1774
▁सैया-सैया	-11.1774
▁सैया।	-11.1774
▁सोंदोंमोन-	-11.1774
▁सोंदों।	-11.1774
▁सोंनांगौ	-11.1774
▁सोंलुवा	-11.1774
▁सोंहरो।	-11.1774
▁सोङो,	-11.1774
▁सोना	-11.1774
▁सोबनानै	-11.1774
▁सोबो।	-11.1774
▁सोमजिनायाव	-11.1774
▁सोमजियो	-11.1774
▁सोमस्रिनि	-11.1774
▁सोमावनानै	-11.1774
▁सोमोनांथाव	-11.1774
▁सोर,	-11.1774
▁सोरखौथो	-11.1774
▁सोरजिगिरिनि	-11.1774
▁सोरजिदों।	-11.1774
▁सोरजिनाय।	-11.1774
▁सोरजिनि	-11.1774
▁सोरनोबा	-11.1774
▁सोरबानि	-11.1774
▁सोलिबाय	-11.1774
▁सोलियो	-11.1774
▁सोलोंनो	-11.1774
▁सोलोजोंनो	-11.1774
▁सोलोयै	-11.1774
▁सौनानै	-11.1774
▁सौफैब्ला	-11.1774
▁सौवो।	-11.1774
▁स्क्रिनाव	-11.1774
▁स्टेसनाव	-11.1774
▁स्रोदै	-11.1774
▁स्रोब	-11.1774
▁स्लगान	-11.1774
▁हʼलनि	-11.1774
▁हʼष्टेलाव	-11.1774
▁हक,	-11.1774
▁हबे	-11.1774
▁हमथा।	-11.1774
▁हमदोंमोन	-11.1774
▁हमबाय-	-11.1774
▁हमो,	-11.1774
▁हयतʼ	-11.1774
▁हरगोन।	-11.1774
▁हरबिलासा।	-11.1774
▁हरसेखौ	-11.1774
▁हरसेनि	-11.1774
▁हरसेमानि	-11.1774
▁हराखै	-11.1774
▁हरो,	-11.1774
▁हस्रिखाव	-11.1774
▁हांमानि	-11.1774
▁हाखन	-11.1774
▁हाखो	-11.1774
▁हागौब्ला	-11.1774
▁हागौमानि	-11.1774
▁हाग्रा-बंग्रा	-11.1774
▁हाजʼवारिनि	-11.1774
▁हाजʼवारीखौ	-11.1774
▁हाजʼवारीनि	-11.1774
▁हाजिर	-11.1774
▁हाथर्खि	-11.1774
▁हाथाव	-11.1774
▁हादान	-11.1774
▁हादों,	-11.1774
▁हादोरारि	-11.1774
▁हानजाया	-11.1774
▁हाननानै	-11.1774
▁हानायमोन।	-11.1774
▁हानाय।	-11.1774
▁हानो।	-11.1774
▁हान्जाजों	-11.1774
▁हान्था-मेला	-11.1774
▁हाबफैदोंमोन।	-11.1774
▁हाबफैयो]	-11.1774
▁हाबफैयो।)	-11.1774
▁हाबबाय।	-11.1774
▁हाबलांनाय	-11.1774
▁हाबलाङो।)	-11.1774
▁हाबिलास	-11.1774
▁हाबिला।	-11.1774
▁हाब्रु	-11.1774
▁हामगौमोन।	-11.1774
▁हामगौमोन।"	-11.1774
▁हामबुरखौ	-11.1774
▁हामा।	-11.1774
▁हाया-	-11.1774
▁हायाखैसै	-11.1774
▁हायामोन।	-11.1774
▁हायावनो	-11.1774
▁हायोब्लाबो	-11.1774
▁हाय।"	-11.1774
▁हारसिंनि	-11.1774
▁हारिमुखौ	-11.1774
▁हारिमुवारि	-11.1774
▁हारिहा	-11.1774
▁हार्टनि	-11.1774
▁हार्सिं	-11.1774
▁हालामाव	-11.1774
▁हालायै	-11.1774
▁हालोदा	-11.1774
▁हावरिया।	-11.1774
▁हासिगौ	-11.1774
▁हासिब	-11.1774
▁हासिल	-11.1774
▁हासुदै	-11.1774
▁हास्थायनायखौ	-11.1774
▁हिनजाव,	-11.1774
▁हिनजावसा	-11.1774
▁हिन्जावसानि	-11.1774
▁हिन्जावसाया	-11.1774
▁हिरʼ	-11.1774
▁हुखुमोरनो	-11.1774
▁हुरागासे	-11.1774
▁हुसियार	-11.1774
▁हे:।	-11.1774
▁हेंथायाव	-11.1774
▁हेफाजाबखौ	-11.1774
▁हेफाजाबजों	-11.1774
▁हेमलेटखौ	-11.1774
▁हेव	-11.1774
▁हैगोन।	-11.1774
▁हैबाय।	-11.1774
▁होआखै।	-11.1774
▁होखांनायनि	-11.1774
▁होखो	-11.1774
▁होगोन।"	-11.1774
▁होथेनानै	-11.1774
▁होनब्लासो	-11.1774
▁होनाय।	-11.1774
▁होनै।	-11.1774
▁होनोबो	-11.1774
▁होन्नानै,	-11.1774
▁होन्नानै।"	-11.1774
▁होन्नाया	-11.1774
▁होफैनानै	-11.1774
▁होफैनाय	-11.1774
▁होफैबाय।	-11.1774
▁होबथानाय	-11.1774
▁होमबाना	-11.1774
▁होमब्लाबो	-11.1774
▁होमब्लालाय	-11.1774
▁होयो-	-11.1774
▁हौवाफोरजों	-11.1774
▁1st	-11.2827
▁"....	-11.4005
▁"A	-11.4005
▁"आंदि	-11.4005
▁"आंनाव	-11.4005
▁"आफाया	-11.4005
▁"आरति।"	-11.4005
▁"आरसा,	-11.4005
▁"ओ	-11.4005
▁"ओहो	-11.4005
▁"औलै	-11.4005
▁"कल्पना	-11.4005
▁"कल्पनाया	-11.4005
▁"कल्पना।"	-11.4005
▁"खोनासं	-11.4005
▁"गाज्रि	-11.4005
▁"डा.	-11.4005
▁"थां	-11.4005
▁"दानिया	-11.4005
▁"नाङा	-11.4005
▁"नाङा,	-11.4005
▁"फिसा,	-11.4005
▁"बडʼ	-11.4005
▁"बिनि	-11.4005
▁"बिब्दि	-11.4005
▁"बिब्दिब्ला	-11.4005
▁"बुजिबाय	-11.4005
▁"रʼ	-11.4005
▁"सि	-11.4005
▁"सुखे	-11.4005
▁"हाबाब	-11.4005
▁"हे	-11.4005
▁"हो	-11.4005
▁"होत्	-11.4005
▁''नों	-11.4005
▁'अ'	-11.4005
▁'गदʼखौ	-11.4005
▁'दाबोद'	-11.4005
▁'बरʼ	-11.4005
▁'बे	-11.4005
▁'मानो	-11.4005
▁'हाग्रा	-11.4005
▁(9)	-11.4005
▁(?)	-11.4005
▁(Adverbs	-11.4005
▁(Pronominal	-11.4005
▁(च)	-11.4005
▁(दमना	-11.4005
▁(बयबो	-11.4005
▁(सा	-11.4005
▁-"	-11.4005
▁-उ	-11.4005
▁...!	-11.4005
▁....!	-11.4005
▁.......।"	-11.4005
▁12.	-11.4005
▁13.	-11.4005
▁15,000	-11.4005
▁1500	-11.4005
▁1854	-11.4005
▁1911	-11.4005
▁1963	-11.4005
▁1968	-11.4005
▁1974	-11.4005
▁1983	-11.4005
▁2003	-11.4005
▁35	-11.4005
▁36	-11.4005
▁47	-11.4005
▁50,000	-11.4005
▁98	-11.4005
▁Bodo	-11.4005
▁But	-11.4005
▁D	-11.4005
▁God	-11.4005
▁Henry	-11.4005
▁Note	-11.4005
▁October,2008.	-11.4005
▁Pad	-11.4005
▁Revenge	-11.4005
▁Scene	-11.4005
▁System	-11.4005
▁Tuesday.	-11.4005
▁User	-11.4005
▁Window।	-11.4005
▁[आनारीया	-11.4005
▁[गसङो]	-11.4005
▁a)	-11.4005
▁all	-11.4005
▁boy	-11.4005
▁come	-11.4005
▁cruel	-11.4005
▁he	-11.4005
▁him	-11.4005
▁hour	-11.4005
▁ideal	-11.4005
▁it	-11.4005
▁name	-11.4005
▁on	-11.4005
▁one	-11.4005
▁people	-11.4005
▁root	-11.4005
▁specialised	-11.4005
▁state	-11.4005
▁their	-11.4005
▁theme	-11.4005
▁was	-11.4005
▁we	-11.4005
▁with	-11.4005
▁words	-11.4005
▁words)	-11.4005
▁अ.सि,	-11.4005
▁अंगनबादी	-11.4005
▁अखनबा	-11.4005
▁अखानायब्लानो	-11.4005
▁अख्रा	-11.4005
▁अख्रांखौ	-11.4005
▁अख्रांनिफ्राय	-11.4005
▁अजा,	-11.4005
▁अजितनिफ्राय	-11.4005
▁अटʼ	-11.4005
▁अनखांनाय	-11.4005
▁अनजालु	-11.4005
▁अननाय,	-11.4005
▁अनलि	-11.4005
▁अनसायनाया	-11.4005
▁अनसुंथाय	-11.4005
▁अनसुला,	-11.4005
▁अनसुला।	-11.4005
▁अनारिखौ	-11.4005
▁अनारीया	-11.4005
▁अनि	-11.4005
▁अन्दरखौ	-11.4005
▁अन्दरनि	-11.4005
▁अन्दरनिफ्राय	-11.4005
▁अन्नाय,	-11.4005
▁अन्नाय।	-11.4005
▁अफिसार,	-11.4005
▁अफिसारनि	-11.4005
▁अबंनि	-11.4005
▁अबश्ये	-11.4005
▁अब्ला।	-11.4005
▁अरखा	-11.4005
▁अरजों	-11.4005
▁अरुननो	-11.4005
▁अरुनमोना	-11.4005
▁अरुप	-11.4005
▁अरै	-11.4005
▁अर।	-11.4005
▁अल-काइदानि	-11.4005
▁अलकेशा।	-11.4005
▁अलखदाव	-11.4005
▁असमिया,	-11.4005
▁असमियाफोरा	-11.4005
▁असित	-11.4005
▁अहं	-11.4005
▁अहं,	-11.4005
▁अहाजासे	-11.4005
▁आंखाल।	-11.4005
▁आंगुर	-11.4005
▁आंगोनि	-11.4005
▁आंग्रां	-11.4005
▁आंनिया।	-11.4005
▁आंलायनो	-11.4005
▁आइखौबो	-11.4005
▁आइजोफोरखौ	-11.4005
▁आइजो।	-11.4005
▁आइयै,	-11.4005
▁आइ।	-11.4005
▁आखुथाइनि	-11.4005
▁आखुथाइफोरखौ	-11.4005
▁आखुथायफोरखौ	-11.4005
▁आखुमा	-11.4005
▁आखुवानो	-11.4005
▁आगष्ट	-11.4005
▁आगाननि	-11.4005
▁आगानसे	-11.4005
▁आगोल	-11.4005
▁आग्दा	-11.4005
▁आजावनाय	-11.4005
▁आजोला	-11.4005
▁आथा	-11.4005
▁आथि	-11.4005
▁आथोन,	-11.4005
▁आदायालाय	-11.4005
▁आदि	-11.4005
▁आदिबाशी	-11.4005
▁आनज्रायनानै	-11.4005
▁आन्दामोना	-11.4005
▁आन्दायाबो	-11.4005
▁आन्सलिक	-11.4005
▁आफाखि	-11.4005
▁आफादगिरिनि	-11.4005
▁आफादानो	-11.4005
▁आफामोनखौ	-11.4005
▁आफिं	-11.4005
▁आबारीखौ	-11.4005
▁आबुर	-11.4005
▁आब्रुथिखौ	-11.4005
▁आमार	-11.4005
▁आमि	-11.4005
▁आमुखाखौ	-11.4005
▁आयं।"	-11.4005
▁आयना	-11.4005
▁आयाव	-11.4005
▁आया।	-11.4005
▁आरजलाइखौ	-11.4005
▁आरमि	-11.4005
▁आरसा,	-11.4005
▁आरो,	-11.4005
▁आरो।"	-11.4005
▁आर्मि	-11.4005
▁आलफा	-11.4005
▁आलाइस्रिया।	-11.4005
▁आलायनानै	-11.4005
▁आलासिफोरा	-11.4005
▁आलासिफ्रा	-11.4005
▁आलिनि	-11.4005
▁आलियाव	-11.4005
▁आल्ला	-11.4005
▁आवगायनानै	-11.4005
▁आवा	-11.4005
▁आवाजखौ	-11.4005
▁आवारामा	-11.4005
▁आशिफ	-11.4005
▁आसʼखान्दा	-11.4005
▁आसथाम	-11.4005
▁आसल	-11.4005
▁आसानि	-11.4005
▁आसामखौ	-11.4005
▁आसाम।	-11.4005
▁आसाया	-11.4005
▁आसारखान्थि	-11.4005
▁इंखंनि	-11.4005
▁इंख्रियाव	-11.4005
▁इटाली	-11.4005
▁इडुवार्ड	-11.4005
▁इनफरमेसनफोरा	-11.4005
▁इनाइ	-11.4005
▁इन्जिनियार,	-11.4005
▁इन्टारनेटखौ	-11.4005
▁इन्टारनेटा	-11.4005
▁इयुना	-11.4005
▁इराग्दाउनि	-11.4005
▁इराग्दाव।	-11.4005
▁इलेकट्रिक	-11.4005
▁उथुमायाव	-11.4005
▁उदां।	-11.4005
▁उदै,	-11.4005
▁उनहालागै	-11.4005
▁उन्दुगासिनो	-11.4005
▁उन्दुग्लांनानै	-11.4005
▁उन्दुलांबाय	-11.4005
▁उन्दुलांबाय।	-11.4005
▁उन्दैयावनो	-11.4005
▁उन।	-11.4005
▁उपेन्द्र	-11.4005
▁उफेले	-11.4005
▁उमेश	-11.4005
▁उरनायाव	-11.4005
▁उराल	-11.4005
▁उलाफादनि	-11.4005
▁उसिफावनाय	-11.4005
▁उसुं	-11.4005
▁ए:	-11.4005
▁एकाउन्ट	-11.4005
▁एखर	-11.4005
▁एखायनो	-11.4005
▁एनालʼग	-11.4005
▁एनि	-11.4005
▁एप्रिलाव	-11.4005
▁एफोरनि	-11.4005
▁एबसु,	-11.4005
▁एमबु	-11.4005
▁एमसायाव	-11.4005
▁एमावनो	-11.4005
▁एरखां	-11.4005
▁एरिष्टटलनि	-11.4005
▁एवखांनाय	-11.4005
▁एवनाय,	-11.4005
▁एवनो	-11.4005
▁एसनि	-11.4005
▁एसेनोसै।	-11.4005
▁एसेयैब्लाबो	-11.4005
▁ओंखामजों	-11.4005
▁ओंखामनि	-11.4005
▁ओंखामबो	-11.4005
▁ओंखारनायखौ	-11.4005
▁ओंखारनायसै।	-11.4005
▁ओंखारबोब्ला	-11.4005
▁ओंखारब्ला	-11.4005
▁ओंखारलांनायनि	-11.4005
▁ओंखारलांनायसै।	-11.4005
▁ओंखारलांनोसै	-11.4005
▁ओंखारलांब्ला	-11.4005
▁ओंखारलाङासै।	-11.4005
▁ओंखाराखिसै।	-11.4005
▁ओनसोलारि	-11.4005
▁ओलैस्रो	-11.4005
▁औ-	-11.4005
▁औवा,	-11.4005
▁औवारिनि	-11.4005
▁औवारी	-11.4005
▁कʼक्राझार,	-11.4005
▁कंग्रेसा	-11.4005
▁ककराझारआव	-11.4005
▁कक्राझाराव	-11.4005
▁कनट्रल	-11.4005
▁कनष्टेबलफोरखौ	-11.4005
▁कमिसनारनि	-11.4005
▁कम्पानी	-11.4005
▁कम्पिउटार,	-11.4005
▁कम्पिउटारनो	-11.4005
▁कम्बल	-11.4005
▁करम	-11.4005
▁कर्णिया	-11.4005
▁कल्पनामोननि	-11.4005
▁कल्पना।"	-11.4005
▁काछार	-11.4005
▁काज	-11.4005
▁काजिरङा	-11.4005
▁काट	-11.4005
▁कापनै	-11.4005
▁काम	-11.4005
▁कारजि	-11.4005
▁कारजिया	-11.4005
▁कासारखौ	-11.4005
▁किउरियʼखौ	-11.4005
▁केडारफोरा	-11.4005
▁केन्सार	-11.4005
▁केम्प	-11.4005
▁केरल	-11.4005
▁केरानि	-11.4005
▁केरानिनि	-11.4005
▁कैलासा	-11.4005
▁क्रʼरपति	-11.4005
▁खत	-11.4005
▁खथʼ	-11.4005
▁खन्थाइखौ	-11.4005
▁खन्थाइयाव	-11.4005
▁खन्नानै	-11.4005
▁खबजबनानै	-11.4005
▁खमलाय	-11.4005
▁खरसाखौ	-11.4005
▁खरसा।	-11.4005
▁खराग	-11.4005
▁खरायनानै	-11.4005
▁खलथाखौ	-11.4005
▁खहाब	-11.4005
▁खांबाय	-11.4005
▁खाखानाय	-11.4005
▁खाजादों	-11.4005
▁खाजायो।	-11.4005
▁खानाखौ	-11.4005
▁खाना।	-11.4005
▁खाफालावनो	-11.4005
▁खाब्रां	-11.4005
▁खाम	-11.4005
▁खामनाय	-11.4005
▁खामानि।	-11.4005
▁खाम्फानि	-11.4005
▁खायदायै	-11.4005
▁खारखाना	-11.4005
▁खारगासिनो	-11.4005
▁खारनायनि	-11.4005
▁खारबोयो।	-11.4005
▁खारलांनाय	-11.4005
▁खारलाङो	-11.4005
▁खारलुं	-11.4005
▁खारसन	-11.4005
▁खारस्लिउ	-11.4005
▁खाराप	-11.4005
▁खालानि	-11.4005
▁खालाम,	-11.4005
▁खालामखांनानै	-11.4005
▁खालामदो	-11.4005
▁खालामदो।	-11.4005
▁खालामनानैनो	-11.4005
▁खालामनायबादि	-11.4005
▁खालामनायसै।	-11.4005
▁खालामनायावनो	-11.4005
▁खालामब्लाबो	-11.4005
▁खालामहरो।	-11.4005
▁खालामहैयो।	-11.4005
▁खालाम।"	-11.4005
▁खालायनो	-11.4005
▁खालारनिफ्राय	-11.4005
▁खालै	-11.4005
▁खावनाय	-11.4005
▁खावनै	-11.4005
▁खावनो	-11.4005
▁खावयां	-11.4005
▁खावरिया	-11.4005
▁खावलाय,	-11.4005
▁खावलायनानै	-11.4005
▁खावलायनाय	-11.4005
▁खासिबारीसिम	-11.4005
▁खिथेरखौ	-11.4005
▁खिना	-11.4005
▁खिनाय	-11.4005
▁खिन्थाहरो।	-11.4005
▁खिन्थिगासे	-11.4005
▁खिबुवाव	-11.4005
▁खिरखिखौ	-11.4005
▁खिरखिनि	-11.4005
▁खिरफिन	-11.4005
▁खिसुरी	-11.4005
▁खुंख्रा	-11.4005
▁खुंख्रामांसि	-11.4005
▁खुंग्रा	-11.4005
▁खुंनायाव	-11.4005
▁खुगु	-11.4005
▁खुजेब	-11.4005
▁खुथु	-11.4005
▁खुदियाफोरखौ	-11.4005
▁खुनानै	-11.4005
▁खुनोरोखोम	-11.4005
▁खुन्थि	-11.4005
▁खुन्दायाव	-11.4005
▁खुम	-11.4005
▁खुम्बीबा	-11.4005
▁खुरैयाव	-11.4005
▁खुलिनानै	-11.4005
▁खुलुमबाय	-11.4005
▁खुसि।	-11.4005
▁खुस्रा	-11.4005
▁खृष्टान	-11.4005
▁खेंनो	-11.4005
▁खेंबाय।	-11.4005
▁खेफथा	-11.4005
▁खेबथाम	-11.4005
▁खेबनानै	-11.4005
▁खेबब्ला	-11.4005
▁खेबसʼ	-11.4005
▁खेबसेलʼ	-11.4005
▁खेराइसालियाव	-11.4005
▁खेवना	-11.4005
▁खैना	-11.4005
▁खैफोदजों	-11.4005
▁खैफोदनिफ्राय	-11.4005
▁खैरोम-दैरोम	-11.4005
▁खैसिं	-11.4005
▁खोख्लैनाय	-11.4005
▁खोथाफोरखौ	-11.4005
▁खोनादों।	-11.4005
▁खोनानानैबो	-11.4005
▁खोनासंनानै	-11.4005
▁खोन्दोनि	-11.4005
▁खोबनाय	-11.4005
▁खोमदोन,	-11.4005
▁खोमदोन-	-11.4005
▁खोमा,	-11.4005
▁खोमाखौ	-11.4005
▁खोमाया	-11.4005
▁खोमोन	-11.4005
▁खौबो	-11.4005
▁खौरां,	-11.4005
▁ख्रों	-11.4005
▁ख्लोब	-11.4005
▁गʼथायनानै	-11.4005
▁गʼदाय	-11.4005
▁गʼदायखौ	-11.4005
▁गʼदाया	-11.4005
▁गʼसाइनि	-11.4005
▁गंथाम	-11.4005
▁गंनैसो	-11.4005
▁गंफ्रोम	-11.4005
▁गंब्रैसो	-11.4005
▁गंसेलʼ	-11.4005
▁गंसे।	-11.4005
▁गंस्रियो।	-11.4005
▁गगल्सा	-11.4005
▁गग्र	-11.4005
▁गग्रायाव	-11.4005
▁गत	-11.4005
▁गथा	-11.4005
▁गथायो।	-11.4005
▁गथि	-11.4005
▁गदʼनि	-11.4005
▁गदʼवा	-11.4005
▁गनायगोन	-11.4005
▁गनायनांगोन।	-11.4005
▁गनेश	-11.4005
▁गम्भीरसिं।	-11.4005
▁गयो।	-11.4005
▁गरज	-11.4005
▁गरमा-गरमि	-11.4005
▁गरसि	-11.4005
▁गराइ	-11.4005
▁गलʼलʼ	-11.4005
▁गलानि	-11.4005
▁गलाय	-11.4005
▁गसंना	-11.4005
▁गसङो।]	-11.4005
▁गस्ला-गामसा	-11.4005
▁गहां	-11.4005
▁गांजेमाखौ	-11.4005
▁गांथाम	-11.4005
▁गांनाय-उखैनाय,	-11.4005
▁गांनैखौ	-11.4005
▁गांनैसो	-11.4005
▁गांसेखौ	-11.4005
▁गांसेया	-11.4005
▁गांसेयाव	-11.4005
▁गाजा-गोमजायै	-11.4005
▁गाज्रियानो	-11.4005
▁गाथामाव	-11.4005
▁गाथोन	-11.4005
▁गाननायाव	-11.4005
▁गाननि	-11.4005
▁गानहोनानै	-11.4005
▁गानो।	-11.4005
▁गान्दुसिङाव	-11.4005
▁गान्धी	-11.4005
▁गाबखाङो	-11.4005
▁गाबखाङो,	-11.4005
▁गाबखाङो।	-11.4005
▁गाबख्राव	-11.4005
▁गाबज्रियो	-11.4005
▁गाबदोंमोन	-11.4005
▁गाबनायजों	-11.4005
▁गाबनायाव	-11.4005
▁गाबनाय।	-11.4005
▁गाबबाय।	-11.4005
▁गामि,	-11.4005
▁गायग्रा	-11.4005
▁गायनाय	-11.4005
▁गारजा	-11.4005
▁गारनाया	-11.4005
▁गारांखौ	-11.4005
▁गाराइ	-11.4005
▁गाराइखौ	-11.4005
▁गाराव	-11.4005
▁गारोब्ला	-11.4005
▁गालांनानै	-11.4005
▁गावनायनि	-11.4005
▁गावलायनाय	-11.4005
▁गावसोरखौ	-11.4005
▁गावहाबो	-11.4005
▁गासाखौ	-11.4005
▁गासैबो।	-11.4005
▁गाहाम।"	-11.4005
▁गाहायखौ	-11.4005
▁गाहेला	-11.4005
▁गिदिंबायनानै	-11.4005
▁गिदिर-गिदिर	-11.4005
▁गिदिराव	-11.4005
▁गिदोंमोन।	-11.4005
▁गिनायखौ	-11.4005
▁गिनायबो	-11.4005
▁गिबाय	-11.4005
▁गिबिफोरा	-11.4005
▁गिया-लना	-11.4005
▁गियानखौ	-11.4005
▁गियाननि	-11.4005
▁गियाना	-11.4005
▁गिया।	-11.4005
▁गिलिद,	-11.4005
▁गिलिर।	-11.4005
▁गिहु	-11.4005
▁गुग्रुब	-11.4005
▁गुदिखौ	-11.4005
▁गुदु	-11.4005
▁गुना	-11.4005
▁गुन्दाजों	-11.4005
▁गुन्दाफ्रा	-11.4005
▁गुन्दामि	-11.4005
▁गुबुंले	-11.4005
▁गुबुननिफ्राय	-11.4005
▁गुबुनफोर	-11.4005
▁गुबुनफ्रा	-11.4005
▁गुबुनसो।	-11.4005
▁गुबुनारिनि	-11.4005
▁गुरजेउ	-11.4005
▁गुरफा	-11.4005
▁गुलिया	-11.4005
▁गुसुजों	-11.4005
▁गुसुवाव	-11.4005
▁गुसु।	-11.4005
▁गेजेरजोंबो	-11.4005
▁गेजेरनिफ्राय	-11.4005
▁गेटा	-11.4005
▁गेदाइ	-11.4005
▁गेदेर,	-11.4005
▁गेन्द्रिखौ	-11.4005
▁गेरेजाव	-11.4005
▁गेले	-11.4005
▁गेलेदों।	-11.4005
▁गेलेनानै	-11.4005
▁गेलेनाया	-11.4005
▁गेलेनाय।	-11.4005
▁गेवनानै	-11.4005
▁गैजारोङि	-11.4005
▁गैथारा।	-11.4005
▁गैयाथाय	-11.4005
▁गैयामोनब्ला	-11.4005
▁गैयैखाय	-11.4005
▁गैयैखौ	-11.4005
▁गैयैलाय	-11.4005
▁गैलिया,	-11.4005
▁गोगोमैनो	-11.4005
▁गोग्लैदों।	-11.4005
▁गोग्लैया	-11.4005
▁गोग्लैहां	-11.4005
▁गोजांदों।	-11.4005
▁गोजांनाया	-11.4005
▁गोजांनायाव	-11.4005
▁गोजांनाय।	-11.4005
▁गोजांस्रिव	-11.4005
▁गोजांस्रिवो	-11.4005
▁गोजानै	-11.4005
▁गोजोन,	-11.4005
▁गोजोनगोन।	-11.4005
▁गोजोननो	-11.4005
▁गोजौवाव।	-11.4005
▁गोथैसालियाव	-11.4005
▁गोदाननो	-11.4005
▁गोदैसिन	-11.4005
▁गोदोनानै	-11.4005
▁गोदोनिफ्राय	-11.4005
▁गोद्	-11.4005
▁गोनांफोरा	-11.4005
▁गोबांनि	-11.4005
▁गोबाख्रबना	-11.4005
▁गोबाना	-11.4005
▁गोबाय	-11.4005
▁गोबायै	-11.4005
▁गोबालायनानै	-11.4005
▁गोबाव।	-11.4005
▁गोब्रामनानै	-11.4005
▁गोमायो	-11.4005
▁गोमालांनाय	-11.4005
▁गोमोना	-11.4005
▁गोमोयो।	-11.4005
▁गोरानजों	-11.4005
▁गोरासिन।	-11.4005
▁गोरों-गोरा	-11.4005
▁गोरोन्थिफोरखौ	-11.4005
▁गोरोन्थियावबो	-11.4005
▁गोरोन्थि।	-11.4005
▁गोरोबथाखौ	-11.4005
▁गोरोबनो	-11.4005
▁गोरोबहोनानै	-11.4005
▁गोलावजों	-11.4005
▁गोलावसिन	-11.4005
▁गोलैदों	-11.4005
▁गोलैदों।	-11.4005
▁गोलैना	-11.4005
▁गोलैयो।	-11.4005
▁गोलोन्दां	-11.4005
▁गोलोमदैजों	-11.4005
▁गोल्लै	-11.4005
▁गोसोआव।	-11.4005
▁गोसोयाबो	-11.4005
▁गौथुमनि	-11.4005
▁गौरां	-11.4005
▁ग्रिन	-11.4005
▁ग्रीमउइग,	-11.4005
▁ग्रुपनि	-11.4005
▁ग्रोम-ग्रोम	-11.4005
▁ग्लोम	-11.4005
▁घुस	-11.4005
▁चछमानि	-11.4005
▁चिनि	-11.4005
▁चिरु	-11.4005
▁चेन्टारनि	-11.4005
▁चेयाराव	-11.4005
▁जʼथाय	-11.4005
▁जʼथारला	-11.4005
▁जʼनाय	-11.4005
▁जखा	-11.4005
▁जगायनो	-11.4005
▁जङा	-11.4005
▁जथाइखौ	-11.4005
▁जथेरनो	-11.4005
▁जबा	-11.4005
▁जयफल,	-11.4005
▁जरʼखा	-11.4005
▁जराय	-11.4005
▁जलदब	-11.4005
▁जहैयो।	-11.4005
▁जांख्रिथाइया	-11.4005
▁जांख्रिथाइयाव	-11.4005
▁जाखांबाय।	-11.4005
▁जाखानाय	-11.4005
▁जाखोसै	-11.4005
▁जागोना	-11.4005
▁जागौ	-11.4005
▁जाग्रा।	-11.4005
▁जाजोब्बाय।	-11.4005
▁जाथाइखौनो	-11.4005
▁जाथाइफोरखौ	-11.4005
▁जाथाइफोरा	-11.4005
▁जाथायफोरा	-11.4005
▁जादिया	-11.4005
▁जादु	-11.4005
▁जानगार	-11.4005
▁जानजि	-11.4005
▁जाननु	-11.4005
▁जानांबाय	-11.4005
▁जानायाबो	-11.4005
▁जापान	-11.4005
▁जापानी	-11.4005
▁जाफुंसारदों।	-11.4005
▁जाफ्लायबाय	-11.4005
▁जाबाय;	-11.4005
▁जाबायब्ला	-11.4005
▁जाबावनो।	-11.4005
▁जाबोबाय।	-11.4005
▁जाबोयो।	-11.4005
▁जाबोला	-11.4005
▁जाब्ला,	-11.4005
▁जामिया	-11.4005
▁जाम्बिफोरखौ	-11.4005
▁जायख्लं	-11.4005
▁जायगा।	-11.4005
▁जायफोरनि	-11.4005
▁जायाबालानो	-11.4005
▁जायोदि	-11.4005
▁जायोना	-11.4005
▁जारें	-11.4005
▁जारौ,	-11.4005
▁जार्मान	-11.4005
▁जार्ला	-11.4005
▁जार्लाखौ	-11.4005
▁जालांनानै	-11.4005
▁जालांनि	-11.4005
▁जावलियाखौ	-11.4005
▁जावैसोखौ	-11.4005
▁जासिगौमोन।	-11.4005
▁जासिनाय	-11.4005
▁जाहाजखौ	-11.4005
▁जाहैगोन	-11.4005
▁जाहोदों	-11.4005
▁जाहोदों।	-11.4005
▁जि.	-11.4005
▁जिउखौनो	-11.4005
▁जिउगोनां	-11.4005
▁जिउमाया	-11.4005
▁जिउ।	-11.4005
▁जिगि	-11.4005
▁जिथायाव	-11.4005
▁जिनाय	-11.4005
▁जिनाराम	-11.4005
▁जिनिद	-11.4005
▁जिब-जुनाद,	-11.4005
▁जिबादि	-11.4005
▁जिबि	-11.4005
▁जिब्रै	-11.4005
▁जिरायना	-11.4005
▁जिरायफिनबाय।	-11.4005
▁जिरायबाय	-11.4005
▁जिरायहैबाय।	-11.4005
▁जिल्लाफोराव	-11.4005
▁जीब	-11.4005
▁जुगे	-11.4005
▁जुजिनानै	-11.4005
▁जुजिनायनि	-11.4005
▁जुजिबाबो	-11.4005
▁जुनादनि	-11.4005
▁जुनानै	-11.4005
▁जुनारनि	-11.4005
▁जुनिया	-11.4005
▁जुवारि,	-11.4005
▁जेंनाफोरनि	-11.4005
▁जेंनायाव	-11.4005
▁जेंनि	-11.4005
▁जेकेट।"	-11.4005
▁जेना	-11.4005
▁जेनो।	-11.4005
▁जेबो।	-11.4005
▁जेब्लाबो।	-11.4005
▁जेरबाया	-11.4005
▁जेरावबो।	-11.4005
▁जेरैबादि	-11.4005
▁जेव	-11.4005
▁जेवारि	-11.4005
▁जै-जै	-11.4005
▁जैबोर।	-11.4005
▁जोंखौबो	-11.4005
▁जोंसो	-11.4005
▁जोनोमनिफ्रायनो	-11.4005
▁जोनोमफुरि	-11.4005
▁जोबगोन।	-11.4005
▁जोबथाहैयो	-11.4005
▁जोबथेसालिनिफ्राय	-11.4005
▁जोबदों।	-11.4005
▁जोबनानैबो	-11.4005
▁जोबनाया	-11.4005
▁जोबा।	-11.4005
▁जोब।	-11.4005
▁जोला,	-11.4005
▁जोहोलावफ्रा	-11.4005
▁जोहोलावारि	-11.4005
▁झालु,	-11.4005
▁ञ,	-11.4005
▁टमेटʼ	-11.4005
▁टर्सनि	-11.4005
▁टाया	-11.4005
▁टि.भि.	-11.4005
▁टिउटर	-11.4005
▁टिक	-11.4005
▁टु	-11.4005
▁टेनसन	-11.4005
▁ट्रेइनजों	-11.4005
▁ट्रेनाव	-11.4005
▁ट्रेन्सफार	-11.4005
▁ट्रेन्स्फार	-11.4005
▁डजनि	-11.4005
▁डाइरेक्टरिखौ	-11.4005
▁डाइरेक्टरिनि	-11.4005
▁डिस्कखौ	-11.4005
▁डेपुटि	-11.4005
▁डेभिदा	-11.4005
▁ड्राइभ	-11.4005
▁ड्रेस	-11.4005
▁ण	-11.4005
▁तदबिद	-11.4005
▁तास	-11.4005
▁तिता)	-11.4005
▁तुलाराम,	-11.4005
▁तुलारामाबो	-11.4005
▁थ	-11.4005
▁थंखौ	-11.4005
▁थगाय-थसि	-11.4005
▁थगायनानै	-11.4005
▁थगायनाय,	-11.4005
▁थननानै	-11.4005
▁थफ्ला-थफ्लि	-11.4005
▁थफ्ला।	-11.4005
▁थबगां,	-11.4005
▁थबेना	-11.4005
▁थांजासिम	-11.4005
▁थांथार	-11.4005
▁थांथोंसै	-11.4005
▁थांदो।"	-11.4005
▁थांनांगौ।	-11.4005
▁थांनायावनो	-11.4005
▁थांफानानै	-11.4005
▁थांफानाय	-11.4005
▁थांफायो।	-11.4005
▁थांफिननो	-11.4005
▁थांब्लाबो	-11.4005
▁थांला	-11.4005
▁थांसिगोन	-11.4005
▁थाइगिर	-11.4005
▁थाइजानि	-11.4005
▁थाइलालिया	-11.4005
▁थाइस्रिया	-11.4005
▁थाखायनो।	-11.4005
▁थाखायब्लाबो	-11.4005
▁थाखायसो।	-11.4005
▁थागासिनो	-11.4005
▁थाङाबा	-11.4005
▁थाङाब्ला	-11.4005
▁थाथʼ	-11.4005
▁थाथावगौ	-11.4005
▁थाथेरनो	-11.4005
▁थादʼग्रा	-11.4005
▁थादेरनाय	-11.4005
▁थान	-11.4005
▁थानाङो	-11.4005
▁थानाङो।	-11.4005
▁थानादार	-11.4005
▁थानायबादि	-11.4005
▁थानासिम	-11.4005
▁थाफानाय	-11.4005
▁थाफाव	-11.4005
▁थाफिनो।	-11.4005
▁थाफैदों।	-11.4005
▁थाफैनाय	-11.4005
▁थाबथानानै	-11.4005
▁थाबा	-11.4005
▁थाबाय।"	-11.4005
▁थाम,	-11.4005
▁थामनि	-11.4005
▁थामहिनबा,	-11.4005
▁थायनै	-11.4005
▁थायनैनिफ्राय	-11.4005
▁थायब्रै	-11.4005
▁थाया,	-11.4005
▁थायोमोनब्ला	-11.4005
▁थायो।]	-11.4005
▁थारजानि	-11.4005
▁थारबाय।	-11.4005
▁थारुन	-11.4005
▁थार्ला	-11.4005
▁थालांबाय।	-11.4005
▁थालाङो।	-11.4005
▁थालिद	-11.4005
▁थालोआव	-11.4005
▁थालोजाब	-11.4005
▁थावनि,	-11.4005
▁थावनियाव	-11.4005
▁थासारि,	-11.4005
▁थाहैनाय	-11.4005
▁थाहैबाय।	-11.4005
▁थाहोनो	-11.4005
▁थिंजाय	-11.4005
▁थिनबाय	-11.4005
▁थिनहर।"	-11.4005
▁थिनानै	-11.4005
▁थिनाय	-11.4005
▁थिनि	-11.4005
▁थिन्नाय	-11.4005
▁थिब	-11.4005
▁थियेटाराबो	-11.4005
▁थिसननायनि	-11.4005
▁थुन-फावथाइनि	-11.4005
▁थुनलाइजों	-11.4005
▁थुलुंगाजों	-11.4005
▁थुहरनानै	-11.4005
▁थे	-11.4005
▁थेफ	-11.4005
▁थेफेन,	-11.4005
▁थेब्रे	-11.4005
▁थेलेफाखौ	-11.4005
▁थेलेबनि	-11.4005
▁थैखांनायनि	-11.4005
▁थैजानाय	-11.4005
▁थैनायनिफ्राय	-11.4005
▁थैनाया	-11.4005
▁थैबा	-11.4005
▁थैबाय।"	-11.4005
▁थैयाव	-11.4005
▁थोआ।	-11.4005
▁थोथोर	-11.4005
▁थोननाय	-11.4005
▁थोनाया	-11.4005
▁थोर-थोर	-11.4005
▁थोलायनायाव	-11.4005
▁थौजासे	-11.4005
▁थौबाय	-11.4005
▁थौ।	-11.4005
▁दंखायोमोन	-11.4005
▁दंखायोमोन।	-11.4005
▁दंगʼ	-11.4005
▁दंनाय	-11.4005
▁दंफां,	-11.4005
▁दंसै,	-11.4005
▁दखरा	-11.4005
▁दखान	-11.4005
▁दगʼ	-11.4005
▁दतमा	-11.4005
▁ददेरेजों	-11.4005
▁दद्रʼ	-11.4005
▁दन्दाया	-11.4005
▁दब	-11.4005
▁दब्लाय	-11.4005
▁दमासु	-11.4005
▁दरबासि,	-11.4005
▁दलाम	-11.4005
▁दले-बले	-11.4005
▁दसेलʼ	-11.4005
▁दस्टुर	-11.4005
▁दहमैनो	-11.4005
▁दांग्रोमनानै	-11.4005
▁दांग्रोमै	-11.4005
▁दांब्ला	-11.4005
▁दाउखाया	-11.4005
▁दाखालामसै।	-11.4005
▁दाजाबनायाव	-11.4005
▁दाजा।	-11.4005
▁दाथा	-11.4005
▁दानसोराङा	-11.4005
▁दानाया	-11.4005
▁दानै	-11.4005
▁दानो,	-11.4005
▁दानो।"	-11.4005
▁दान्थे	-11.4005
▁दान्दिसेयावनो	-11.4005
▁दान्नानै	-11.4005
▁दाफोदारा	-11.4005
▁दाबसा	-11.4005
▁दाबसेथिङै	-11.4005
▁दाबाश्रीया	-11.4005
▁दाम	-11.4005
▁दामब्रा	-11.4005
▁दामा	-11.4005
▁दायसे	-11.4005
▁दारʼगानि	-11.4005
▁दारʼगाया	-11.4005
▁दाराय	-11.4005
▁दारिमिन	-11.4005
▁दारिया	-11.4005
▁दालान	-11.4005
▁दावखाया	-11.4005
▁दावगानाय	-11.4005
▁दावगानाया	-11.4005
▁दावथु	-11.4005
▁दावदाब	-11.4005
▁दावबायारिफोर	-11.4005
▁दावरा	-11.4005
▁दावराव-दावसि।	-11.4005
▁दावहायाव।	-11.4005
▁दास	-11.4005
▁दासा	-11.4005
▁दासान्दि।	-11.4005
▁दाहारखौ	-11.4005
▁दाहारजों	-11.4005
▁दाहा।	-11.4005
▁दाहोनाफोरखौ	-11.4005
▁दाहोना।	-11.4005
▁दिंग्राय	-11.4005
▁दिङाया	-11.4005
▁दिदोम	-11.4005
▁दिनखालि	-11.4005
▁दिनथिनाय	-11.4005
▁दिननिफ्राय	-11.4005
▁दिन्थिथि-	-11.4005
▁दिन्थिदों	-11.4005
▁दिन्थियो)	-11.4005
▁दिन।	-11.4005
▁दिपक	-11.4005
▁दिल्लीनिफ्राय	-11.4005
▁दिल्लीया	-11.4005
▁दिव	-11.4005
▁दिहुनगाबा	-11.4005
▁दिहुनगिबि	-11.4005
▁दिहुनो	-11.4005
▁दिहुनो।	-11.4005
▁दिहुन्नायाव	-11.4005
▁दुंनाय	-11.4005
▁दुंबुर	-11.4005
▁दुंलुब	-11.4005
▁दुखु)	-11.4005
▁दुखु,	-11.4005
▁दुखुनांथाव	-11.4005
▁दुखुवै	-11.4005
▁दुमफे,	-11.4005
▁दुमा	-11.4005
▁देंखो।	-11.4005
▁देखोन	-11.4005
▁देनाय	-11.4005
▁देने	-11.4005
▁देफ्रु	-11.4005
▁देबनागरि	-11.4005
▁देबी	-11.4005
▁देमग्लाय	-11.4005
▁देमुख	-11.4005
▁देरायाव	-11.4005
▁देवबार	-11.4005
▁देवान'	-11.4005
▁देवानीया	-11.4005
▁देहा,	-11.4005
▁देहायाबो	-11.4005
▁दैखराव	-11.4005
▁दैखाङो।	-11.4005
▁दैदेननो	-11.4005
▁दैबानाजों	-11.4005
▁दैमारीनि	-11.4005
▁दैमुनि	-11.4005
▁दैसाखौ	-11.4005
▁दैसानि	-11.4005
▁दोआव	-11.4005
▁दोखो	-11.4005
▁दोन	-11.4005
▁दोनखादोंमोन।	-11.4005
▁दोनजानाय	-11.4005
▁दोनथुमनाय	-11.4005
▁दोनथुमो।	-11.4005
▁दोनदो।	-11.4005
▁दोनलांदों।	-11.4005
▁दोनहैयो।	-11.4005
▁दोर	-11.4005
▁दोरसोन	-11.4005
▁दोर्फा	-11.4005
▁दोल	-11.4005
▁दोलो	-11.4005
▁दौरि,	-11.4005
▁दौलद	-11.4005
▁दौसे	-11.4005
▁दौस्रेम	-11.4005
▁द्रेसिं	-11.4005
▁धर्मेन्द्र	-11.4005
▁धुना,	-11.4005
▁धोरोमारि	-11.4005
▁नʼआ	-11.4005
▁नʼटिसखौ	-11.4005
▁नʼवाव।	-11.4005
▁नʼ।	-11.4005
▁नंखाइ	-11.4005
▁नंगौ-नङा	-11.4005
▁नंब्लाबो	-11.4005
▁नंमारगौ।	-11.4005
▁नंला।"	-11.4005
▁नखौनो	-11.4005
▁नङा"	-11.4005
▁नङाथʼ	-11.4005
▁नङाब्ला।	-11.4005
▁नङालै।	-11.4005
▁नङि	-11.4005
▁नथिं	-11.4005
▁नन्द	-11.4005
▁नन्दʼखौ	-11.4005
▁नभेल	-11.4005
▁नरेशनो	-11.4005
▁नलबारि	-11.4005
▁नवावसो	-11.4005
▁नसिम	-11.4005
▁नहा	-11.4005
▁नांगौनि	-11.4005
▁नांथारगौ	-11.4005
▁नांथे	-11.4005
▁नांना	-11.4005
▁नांफैबाय।	-11.4005
▁नांब्लानो	-11.4005
▁नांलाया	-11.4005
▁नांला।	-11.4005
▁नाइट।"	-11.4005
▁नाइदाव	-11.4005
▁नाइनानै	-11.4005
▁नाकि	-11.4005
▁नाख्रेब	-11.4005
▁नागा।	-11.4005
▁नागिरगासिनो	-11.4005
▁नागिरबाबो	-11.4005
▁नागिरा।	-11.4005
▁नागिरोब्ला	-11.4005
▁नाङैनो	-11.4005
▁नाङो,	-11.4005
▁नाजागोन।"	-11.4005
▁नाजादो	-11.4005
▁नाजाना	-11.4005
▁नाजानाय,	-11.4005
▁नाजानायसै।	-11.4005
▁नाजाबाबो	-11.4005
▁नाथाय....	-11.4005
▁नाथायबा	-11.4005
▁नाथ्रोद	-11.4005
▁नाम्बार,	-11.4005
▁नाय>	-11.4005
▁नायगंना	-11.4005
▁नायगिदिङो।	-11.4005
▁नायगिरदों	-11.4005
▁नायगिरदोंमोन।	-11.4005
▁नायगिरै	-11.4005
▁नायजाबफोराव	-11.4005
▁नायदो।	-11.4005
▁नायना	-11.4005
▁नायनानै)	-11.4005
▁नायनानैसो	-11.4005
▁नायनायाव	-11.4005
▁नायबानो	-11.4005
▁नायबिजिर	-11.4005
▁नायबिजिरसं	-11.4005
▁नायब्लाबो	-11.4005
▁नायहरदों।	-11.4005
▁नायहरनो	-11.4005
▁नायाव	-11.4005
▁नाय।"	-11.4005
▁नारानाथा	-11.4005
▁नारायण	-11.4005
▁नार्जारि	-11.4005
▁नार्जारिनि	-11.4005
▁नार्जि	-11.4005
▁नार्भास	-11.4005
▁नालिसाव	-11.4005
▁नालेनि	-11.4005
▁नालै	-11.4005
▁निंनि	-11.4005
▁निख्रुइबो	-11.4005
▁निमुख	-11.4005
▁निस्थार,	-11.4005
▁नीलाम्बर	-11.4005
▁नुगाथाम	-11.4005
▁नुग्रा	-11.4005
▁नुजादों।	-11.4005
▁नुजानानै	-11.4005
▁नुजानायनि	-11.4005
▁नुजाफैयो	-11.4005
▁नुजाबाय	-11.4005
▁नुथायखौ	-11.4005
▁नुथायफोरा	-11.4005
▁नुदों,	-11.4005
▁नुनायनि	-11.4005
▁नुनायबादि	-11.4005
▁नुनायलाय	-11.4005
▁नुबानो	-11.4005
▁नुबोला	-11.4005
▁नुयो,	-11.4005
▁नुहुरनो	-11.4005
▁नेबावनो	-11.4005
▁नेयै	-11.4005
▁नेयोसो	-11.4005
▁नेर	-11.4005
▁नेहात	-11.4005
▁नै।	-11.4005
▁नै।"	-11.4005
▁नोंथांआ	-11.4005
▁नोंथांनाव	-11.4005
▁नोंथांमोन	-11.4005
▁नोंनोथʼ	-11.4005
▁नोंनोलाय	-11.4005
▁नोंसाजोखौ	-11.4005
▁नोंसोरनाव	-11.4005
▁नोंसो।	-11.4005
▁नोंस्रा	-11.4005
▁नोगोरारिफोरा	-11.4005
▁नोगोराव।	-11.4005
▁नोजोरथावदि,	-11.4005
▁नोजोरनि	-11.4005
▁नौनारिफोरनि	-11.4005
▁नौनारिफोरा	-11.4005
▁परिषद	-11.4005
▁पर्दाखौ	-11.4005
▁पलिअʼनि	-11.4005
▁पष्ट	-11.4005
▁पसमी	-11.4005
▁पाटिला	-11.4005
▁पारमिट	-11.4005
▁पावार	-11.4005
▁पाहार	-11.4005
▁पि.इउ.	-11.4005
▁पिन	-11.4005
▁पिरामिड	-11.4005
▁प्रग्राम,	-11.4005
▁प्रग्राम।	-11.4005
▁प्रदिपा	-11.4005
▁प्रदीपा।	-11.4005
▁प्रभु	-11.4005
▁प्रमʼसन	-11.4005
▁प्रमिला	-11.4005
▁प्लास्टिक	-11.4005
▁प्लेटाव	-11.4005
▁फʼना	-11.4005
▁फंनै	-11.4005
▁फंबाइ	-11.4005
▁फजʼहैबाय	-11.4005
▁फजनानै	-11.4005
▁फन्दि	-11.4005
▁फबनाय	-11.4005
▁फरा	-11.4005
▁फरामनि	-11.4005
▁फरायगासे	-11.4005
▁फरायगोन	-11.4005
▁फरायजोबनो	-11.4005
▁फरायदों	-11.4005
▁फरायनायखौ	-11.4005
▁फरायब्ला	-11.4005
▁फरायसाफोरनो	-11.4005
▁फरायसा।	-11.4005
▁फरायै	-11.4005
▁फर्सनि	-11.4005
▁फल्डार	-11.4005
▁फांथेना	-11.4005
▁फांनानै	-11.4005
▁फाइकी	-11.4005
▁फाइलफोरखौलʼ	-11.4005
▁फाखायनानै	-11.4005
▁फागुन	-11.4005
▁फाग्लानि	-11.4005
▁फाग्लिबादि	-11.4005
▁फानजारियाव	-11.4005
▁फाननायखौ	-11.4005
▁फान्दायनानै	-11.4005
▁फान्नाय	-11.4005
▁फामि	-11.4005
▁फारनैनि	-11.4005
▁फारनैबो	-11.4005
▁फारनैया	-11.4005
▁फारफा	-11.4005
▁फारब्रै	-11.4005
▁फारसेथिङै	-11.4005
▁फारसेबो	-11.4005
▁फालांगिनि	-11.4005
▁फालिखौ	-11.4005
▁फालिदों	-11.4005
▁फाव,	-11.4005
▁फावखुंगुर	-11.4005
▁फावगिरि	-11.4005
▁फावगिरिफोरा	-11.4005
▁फावथाइगिरि,	-11.4005
▁फावदिन्थिनाय	-11.4005
▁फावै	-11.4005
▁फाव।	-11.4005
▁फाहामनो	-11.4005
▁फिथर	-11.4005
▁फिथा	-11.4005
▁फिथोबाव	-11.4005
▁फिदिङो	-11.4005
▁फिफ्टि	-11.4005
▁फिर	-11.4005
▁फिरि	-11.4005
▁फिस	-11.4005
▁फिसाजोजों	-11.4005
▁फिसानिफ्राय	-11.4005
▁फिसाफोरनि	-11.4005
▁फिसायखौ	-11.4005
▁फिसौफोर	-11.4005
▁फुंखाखौ	-11.4005
▁फुंखा।	-11.4005
▁फुंबिलि	-11.4005
▁फुजियो	-11.4005
▁फुटसो	-11.4005
▁फुथुनो	-11.4005
▁फुननानै	-11.4005
▁फुलि	-11.4005
▁फेदेरदों	-11.4005
▁फेब्रुवारि	-11.4005
▁फेब्रुवारी	-11.4005
▁फेस्लायै	-11.4005
▁फैगोननि	-11.4005
▁फैगौ,	-11.4005
▁फैदो,	-11.4005
▁फैफिन्नाय	-11.4005
▁फैमारनो	-11.4005
▁फैयाखिसै	-11.4005
▁फैयाखिसै।	-11.4005
▁फैयैयाव	-11.4005
▁फैयोब्ला	-11.4005
▁फैयोब्लाबो	-11.4005
▁फैला	-11.4005
▁फैसान्दि	-11.4005
▁फैसालिखौ	-11.4005
▁फोजायो	-11.4005
▁फोजोननो	-11.4005
▁फोजोबना	-11.4005
▁फोथार	-11.4005
▁फोनांजाब	-11.4005
▁फोनांजाबनाय	-11.4005
▁फोरजा-	-11.4005
▁फोरबोनि	-11.4005
▁फोरमानजों	-11.4005
▁फोरमायथियो	-11.4005
▁फोरमाय।	-11.4005
▁फोराननानै	-11.4005
▁फोरोंगिरिफोरा	-11.4005
▁फोल्ला	-11.4005
▁फोसावग्रा	-11.4005
▁फोसावदों	-11.4005
▁फौ	-11.4005
▁फ्रन्ट	-11.4005
▁फ्राम	-11.4005
▁फ्रुङा-फ्रुं	-11.4005
▁फ्लपि	-11.4005
▁फ्लिं	-11.4005
▁बइबो	-11.4005
▁बक्स	-11.4005
▁बखनो	-11.4005
▁बङाइगावनि	-11.4005
▁बडʼसा	-11.4005
▁बथला	-11.4005
▁बन,	-11.4005
▁बन्दानि	-11.4005
▁बबेथिं	-11.4005
▁बबेसिम	-11.4005
▁बमाजों	-11.4005
▁बमाया	-11.4005
▁बयसियाल	-11.4005
▁बर	-11.4005
▁बरʼ)	-11.4005
▁बरʼफोरजों	-11.4005
▁बरʼफोराबो	-11.4005
▁बरʼवा।	-11.4005
▁बरगयारीया।	-11.4005
▁बरदास्ट	-11.4005
▁बरपेटा,	-11.4005
▁बरमायाव	-11.4005
▁बरायनाय	-11.4005
▁बराया	-11.4005
▁बरुवा	-11.4005
▁बरुवा,	-11.4005
▁बरुवानि	-11.4005
▁बर्ड	-11.4005
▁बर्डनि	-11.4005
▁बल	-11.4005
▁बलातकार	-11.4005
▁बलेरʼ	-11.4005
▁बसुमतारीया।	-11.4005
▁बा,	-11.4005
▁बाइनारि	-11.4005
▁बाइह्रायाव	-11.4005
▁बाख्नायथाव	-11.4005
▁बाख्नायबाय।	-11.4005
▁बागान।	-11.4005
▁बागैबो	-11.4005
▁बाजारि,	-11.4005
▁बाजैयानो	-11.4005
▁बाज्रेद-बाथेद	-11.4005
▁बाटन-	-11.4005
▁बाथʼ	-11.4005
▁बाथुवाखौ	-11.4005
▁बाथेद	-11.4005
▁बाथोन	-11.4005
▁बाथ्राखौसो	-11.4005
▁बाथ्रायावनो	-11.4005
▁बाथ्राहा	-11.4005
▁बाथ्रा।"	-11.4005
▁बादानि	-11.4005
▁बादायलायनाय	-11.4005
▁बादारि	-11.4005
▁बादारि।	-11.4005
▁बादे	-11.4005
▁बानजायनायाव	-11.4005
▁बानसाल	-11.4005
▁बानाय,	-11.4005
▁बानायनो	-11.4005
▁बानेश्वर	-11.4005
▁बान्दी	-11.4005
▁बान्दोल	-11.4005
▁बाबाय।	-11.4005
▁बाबुनो	-11.4005
▁बाबुया	-11.4005
▁बाबु।"	-11.4005
▁बामुना	-11.4005
▁बामोनाबो	-11.4005
▁बायदों,	-11.4005
▁बायदों।	-11.4005
▁बारगʼलांनायनि	-11.4005
▁बारगनो	-11.4005
▁बारग्रा	-11.4005
▁बारदों	-11.4005
▁बारनायनि	-11.4005
▁बारबाय	-11.4005
▁बारब्ला	-11.4005
▁बारसʼलामा	-11.4005
▁बारहावा	-11.4005
▁बारहुंखाया	-11.4005
▁बारानिखुरै	-11.4005
▁बारायहोयो।	-11.4005
▁बारासिन	-11.4005
▁बार्लि,	-11.4005
▁बार।	-11.4005
▁बालाय	-11.4005
▁बाव	-11.4005
▁बावदा।	-11.4005
▁बावदिया"	-11.4005
▁बावबाय	-11.4005
▁बावस्रोम	-11.4005
▁बाहागोआनो	-11.4005
▁बाहागोफोरा	-11.4005
▁बाहान्दारि	-11.4005
▁बाहायग्रा	-11.4005
▁बाहायदों	-11.4005
▁बाहायनांगोन।	-11.4005
▁बाहायोब्ला	-11.4005
▁बाहाय।	-11.4005
▁बि.टि.सि.	-11.4005
▁बिं	-11.4005
▁बिआ	-11.4005
▁बिखायावबो	-11.4005
▁बिखाया।	-11.4005
▁बिखि	-11.4005
▁बिग	-11.4005
▁बिगुमाया	-11.4005
▁बिग्रो	-11.4005
▁बिजनी,	-11.4005
▁बिजनेस	-11.4005
▁बिजाबनिफ्राय	-11.4005
▁बिजामादैनि	-11.4005
▁बिजार	-11.4005
▁बिजिखौ	-11.4005
▁बिजिनेस	-11.4005
▁बिजौवा	-11.4005
▁बिथाङानो	-11.4005
▁बिथानि	-11.4005
▁बिथा।	-11.4005
▁बिथिंजायनिफ्राय	-11.4005
▁बिथिङै	-11.4005
▁बिदांखौ	-11.4005
▁बिदानो	-11.4005
▁बिदिनोसै।	-11.4005
▁बिदिन्थियाव	-11.4005
▁बिदैया	-11.4005
▁बिधान	-11.4005
▁बिनय	-11.4005
▁बिनायनि	-11.4005
▁बिनाराममोनजों	-11.4005
▁बिनावनो	-11.4005
▁बिनोबो	-11.4005
▁बिफाङा	-11.4005
▁बिफान	-11.4005
▁बिबʼ-बिनानाव	-11.4005
▁बिबथै	-11.4005
▁बिबांआ	-11.4005
▁बिबाननि	-11.4005
▁बिबायनानै	-11.4005
▁बिबायारिखौ	-11.4005
▁बिबुंथिखौ	-11.4005
▁बिब्दियैनो	-11.4005
▁बिभीसनखौ	-11.4005
▁बिमा-	-11.4005
▁बिमा-फिसा	-11.4005
▁बिमायं,	-11.4005
▁बिमायंखौ	-11.4005
▁बिमाया।	-11.4005
▁बिमुं	-11.4005
▁बियार	-11.4005
▁बियावनो	-11.4005
▁बियै	-11.4005
▁बिरनाय	-11.4005
▁बिलां	-11.4005
▁बिलाइयाव	-11.4005
▁बिलाइस्रिनि	-11.4005
▁बिलाताव	-11.4005
▁बिलाय,	-11.4005
▁बिलिफाङाबो।	-11.4005
▁बिलो	-11.4005
▁बिलोआव	-11.4005
▁बिलोगोनि	-11.4005
▁बिलोनिफ्राय	-11.4005
▁बिल्डिंखौ	-11.4005
▁बिल्डिङाव	-11.4005
▁बिषमाव,	-11.4005
▁बिष्णुनि	-11.4005
▁बिसान	-11.4005
▁बिसाना	-11.4005
▁बिसायखʼथिनि	-11.4005
▁बिसारनि	-11.4005
▁बिसाराव	-11.4005
▁बिसि,	-11.4005
▁बिसि-फिसाइनि	-11.4005
▁बिसियाबो	-11.4005
▁बिसोरखौनो	-11.4005
▁बिसोरखौ।	-11.4005
▁बिसोरनावनो	-11.4005
▁बिसोरलाय	-11.4005
▁बिस्कुत	-11.4005
▁बिहामजोआ	-11.4005
▁बिहामजो।	-11.4005
▁बिहारी	-11.4005
▁बिहोमाखौ	-11.4005
▁बुं-	-11.4005
▁बुंखांना	-11.4005
▁बुंखांनानैनो	-11.4005
▁बुंखाङो	-11.4005
▁बुंखानाया	-11.4005
▁बुंखाबाय	-11.4005
▁बुंखौ	-11.4005
▁बुंगासिनो	-11.4005
▁बुंथिनानै	-11.4005
▁बुंदोंदि	-11.4005
▁बुंदोंदि,	-11.4005
▁बुंनांगोन	-11.4005
▁बुंनांगौब्ला	-11.4005
▁बुंनायसै।	-11.4005
▁बुंफादेरबावो।	-11.4005
▁बुंफिनबाय	-11.4005
▁बुंबाय--"	-11.4005
▁बुंबावनायसै-	-11.4005
▁बुंब्लानो	-11.4005
▁बुङासै।	-11.4005
▁बुङाहां	-11.4005
▁बुजाय	-11.4005
▁बुजायनानै	-11.4005
▁बुजि	-11.4005
▁बुथारदों	-11.4005
▁बुथारना	-11.4005
▁बुथारनायाव	-11.4005
▁बुदुं-बादां	-11.4005
▁बुनायनि	-11.4005
▁बुन्दिखौ	-11.4005
▁बुन्दिनि	-11.4005
▁बुबाय।	-11.4005
▁बुब्लिखौ	-11.4005
▁बुब्लिखौनो	-11.4005
▁बुयो।	-11.4005
▁बुर्लुंबुथुरनि	-11.4005
▁बुलायनाय	-11.4005
▁बुसा	-11.4005
▁बुस्रि	-11.4005
▁बृटेइननि	-11.4005
▁बें	-11.4005
▁बेंक,	-11.4005
▁बेंनायनि	-11.4005
▁बेखेवगादʼ	-11.4005
▁बेखौलाय	-11.4005
▁बेगनिफ्राय	-11.4005
▁बेथन	-11.4005
▁बेदत,	-11.4005
▁बेनाव	-11.4005
▁बेनोलʼ	-11.4005
▁बेन्दों,	-11.4005
▁बेफार	-11.4005
▁बेफोर,	-11.4005
▁बेमारिया	-11.4005
▁बेयाव।	-11.4005
▁बेरनाय	-11.4005
▁बेरस्रां	-11.4005
▁बेरायबाय	-11.4005
▁बेलश्रीया	-11.4005
▁बेलायावबो	-11.4005
▁बेलुन	-11.4005
▁बेल।	-11.4005
▁बेवहा	-11.4005
▁बेसोरखौ	-11.4005
▁बैनि	-11.4005
▁बैनो	-11.4005
▁बैयो	-11.4005
▁बैरागि	-11.4005
▁बैसाग	-11.4005
▁बोखानानै	-11.4005
▁बोखावनाय	-11.4005
▁बोखोनानै	-11.4005
▁बोख्लाय	-11.4005
▁बोख्लायनानै	-11.4005
▁बोथोरखौ	-11.4005
▁बोदों	-11.4005
▁बोदोंमोन	-11.4005
▁बोनायखौ	-11.4005
▁बोरला	-11.4005
▁बोराय-बुरै	-11.4005
▁बोरायाबो	-11.4005
▁बोरैबासो	-11.4005
▁बोरो,	-11.4005
▁बोला	-11.4005
▁बोल्दानानै	-11.4005
▁बोसोरखौ	-11.4005
▁बोसोरनिफ्रायनो	-11.4005
▁बोसोरनैनि	-11.4005
▁बोसोरबासो	-11.4005
▁बोसोरसो	-11.4005
▁बोहैगासिनो	-11.4005
▁बोहैबाय	-11.4005
▁बोहैबोयो	-11.4005
▁बोहैलांदों	-11.4005
▁ब्रʼ	-11.4005
▁ब्रेष्ट	-11.4005
▁ब्लकनि	-11.4005
▁भʼज	-11.4005
▁भरत	-11.4005
▁भुम	-11.4005
▁भेटेनारि	-11.4005
▁भ्राम्यमान	-11.4005
▁म	-11.4005
▁मखʼजाथावदि	-11.4005
▁मडेल	-11.4005
▁मथरजों	-11.4005
▁मन	-11.4005
▁मनजुलाखौ	-11.4005
▁मनरन्जन	-11.4005
▁मनायाव	-11.4005
▁मनिराम	-11.4005
▁मरनिं।	-11.4005
▁मलेनाबो	-11.4005
▁मल्ल	-11.4005
▁महर-मुस्रिया	-11.4005
▁महरैनो	-11.4005
▁महाभारत	-11.4005
▁महिलारीया	-11.4005
▁महीधरा	-11.4005
▁माइखौ	-11.4005
▁माइथाइयाव	-11.4005
▁माइथाय	-11.4005
▁माइथायसिम	-11.4005
▁माइनारा	-11.4005
▁माइनाव।	-11.4005
▁माखासेमानि	-11.4005
▁माखौ,	-11.4005
▁माखौथो	-11.4005
▁मागिनानै	-11.4005
▁मागोन।	-11.4005
▁माजां	-11.4005
▁मान-सन्मान	-11.4005
▁मानबाय	-11.4005
▁मानसिनाव	-11.4005
▁मानसिनिख्रुइ	-11.4005
▁मानसिनिफ्राय	-11.4005
▁मानसिफोरनिफ्राय	-11.4005
▁मानसिबो	-11.4005
▁मानसिसो।	-11.4005
▁मानोसै	-11.4005
▁माबाव	-11.4005
▁माबेयाव	-11.4005
▁माबोरैथो	-11.4005
▁माब्रै,	-11.4005
▁माब्लाबो	-11.4005
▁मामला	-11.4005
▁मायथायाव	-11.4005
▁मायाजे	-11.4005
▁मायो	-11.4005
▁मालाइनि	-11.4005
▁मालाखौ	-11.4005
▁माल्टिमिडिया	-11.4005
▁मावखाङो।	-11.4005
▁मावग्रोन	-11.4005
▁मावजाथा	-11.4005
▁मावथिफोरा	-11.4005
▁मावदोंमोन।	-11.4005
▁मावरिया,	-11.4005
▁मावा-दाङा	-11.4005
▁मावाखै	-11.4005
▁माव।	-11.4005
▁मास	-11.4005
▁मासु	-11.4005
▁मासेनि	-11.4005
▁मासेयाव	-11.4005
▁मासै	-11.4005
▁मास्थारा।	-11.4005
▁माहाजोननो	-11.4005
▁माहाजोनहा	-11.4005
▁माहारी	-11.4005
▁मिग्रि	-11.4005
▁मिजिंथिनो	-11.4005
▁मिजिङा	-11.4005
▁मिञाया	-11.4005
▁मिथिखागौ	-11.4005
▁मिथिखागौ।	-11.4005
▁मिथिखानाय	-11.4005
▁मिथिगौ-	-11.4005
▁मिथिनायाव	-11.4005
▁मिथिब्ला	-11.4005
▁मिथिया,	-11.4005
▁मिथियाखै	-11.4005
▁मिथिरोङा।	-11.4005
▁मिथिसʼनो	-11.4005
▁मिथिसिगौ।	-11.4005
▁मिथिस्लाबा	-11.4005
▁मिनिखुसि	-11.4005
▁मिनिखुसियै	-11.4005
▁मिनिटसोनि	-11.4005
▁मिनिनाय,	-11.4005
▁मिनिनाया	-11.4005
▁मिनिबाय।	-11.4005
▁मिनिस्रां	-11.4005
▁मिलिटारि,	-11.4005
▁मिलिटारी	-11.4005
▁मिसेसा	-11.4005
▁मुंआव	-11.4005
▁मुंखौनो	-11.4005
▁मुंफोरखौ	-11.4005
▁मुंसुं	-11.4005
▁मुंसेबो	-11.4005
▁मुक्तियारी	-11.4005
▁मुख्लं	-11.4005
▁मुगाजों	-11.4005
▁मुगाया	-11.4005
▁मुगैनायजों	-11.4005
▁मुगैनो	-11.4005
▁मुङैसो	-11.4005
▁मुब्रुं-मुसि	-11.4005
▁मुराबादि	-11.4005
▁मुरि,	-11.4005
▁मुलिया	-11.4005
▁मुलुगनां	-11.4005
▁मुवा,	-11.4005
▁मुसाहारिया	-11.4005
▁मुसे	-11.4005
▁मेइल	-11.4005
▁मेक्सिमाइज	-11.4005
▁मेगनेटिक	-11.4005
▁मेजेम	-11.4005
▁मेडाम।	-11.4005
▁मेथाइ-	-11.4005
▁मेथाइखौ	-11.4005
▁मेथाइजों	-11.4005
▁मेदबनानै	-11.4005
▁मेनेजमेन्ट	-11.4005
▁मेब्लानि	-11.4005
▁मेम्बर,	-11.4005
▁मेम्बर।	-11.4005
▁मेलेमजों	-11.4005
▁मेलेमा	-11.4005
▁मेलेमाव	-11.4005
▁मेवा	-11.4005
▁मेसिन	-11.4005
▁मैखौ	-11.4005
▁मैथा	-11.4005
▁मोखथांनि	-11.4005
▁मोगथांनिफ्राय	-11.4005
▁मोगथाङारि	-11.4005
▁मोदाइखौ	-11.4005
▁मोदोम,	-11.4005
▁मोदोमारि	-11.4005
▁मोदोमै	-11.4005
▁मोन,	-11.4005
▁मोनखादों	-11.4005
▁मोनगौमोन	-11.4005
▁मोनजाग्रा	-11.4005
▁मोनजायै	-11.4005
▁मोनजों	-11.4005
▁मोनज्लायनाय	-11.4005
▁मोनथाम।	-11.4005
▁मोनथि	-11.4005
▁मोनथिया	-11.4005
▁मोनदां	-11.4005
▁मोनदांथिया	-11.4005
▁मोननानैबो	-11.4005
▁मोननायसै	-11.4005
▁मोननायसै।	-11.4005
▁मोननायावनो	-11.4005
▁मोननैखौबो	-11.4005
▁मोननैया	-11.4005
▁मोननैयाव	-11.4005
▁मोनफिननो	-11.4005
▁मोनफैयो	-11.4005
▁मोनलाङो।	-11.4005
▁मोनलायनाया	-11.4005
▁मोनलिया।	-11.4005
▁मोनसिं	-11.4005
▁मोनस्रा	-11.4005
▁मोनहा।	-11.4005
▁मोनहैबाय।	-11.4005
▁मोनहैयो।	-11.4005
▁मोनहोनाय	-11.4005
▁मोनाखै।"	-11.4005
▁मोनाबो	-11.4005
▁मोनामनाया	-11.4005
▁मोनासै	-11.4005
▁मोना।"	-11.4005
▁मोनोमोनब्ला	-11.4005
▁मोन्नैया	-11.4005
▁मोन्नैयाव	-11.4005
▁मोब्लावखौ	-11.4005
▁मोब्लावानो	-11.4005
▁मोब्लावा।	-11.4005
▁मोसायो)	-11.4005
▁मोसाहारिनो	-11.4005
▁मोसाहारी	-11.4005
▁मोसाहारीनि	-11.4005
▁मोसाहारीया	-11.4005
▁मोस्रोम	-11.4005
▁रʼग	-11.4005
▁रʼड,	-11.4005
▁रंजानायखौ	-11.4005
▁रंजाफुनायाव	-11.4005
▁रंजालि।	-11.4005
▁रंजालीया	-11.4005
▁रंफाली,	-11.4005
▁रजʼनाय	-11.4005
▁रजʼयो।	-11.4005
▁रदʼ	-11.4005
▁रन्जन,	-11.4005
▁रमान्टिक	-11.4005
▁रमेन	-11.4005
▁रय	-11.4005
▁रयाथिया	-11.4005
▁रहेलाजों	-11.4005
▁रहेलानि	-11.4005
▁रहेलाया।	-11.4005
▁रां-खाउरि	-11.4005
▁रांखाउरि	-11.4005
▁रांखौबो	-11.4005
▁रांजोंसो	-11.4005
▁राइजोआनो	-11.4005
▁राइजोजों	-11.4005
▁राइजोनिफ्राय	-11.4005
▁राखें	-11.4005
▁रागाजोंनो	-11.4005
▁रागायाव	-11.4005
▁राजखुंगुर	-11.4005
▁राजाफोरा	-11.4005
▁राजाफ्रा	-11.4005
▁राजा।	-11.4005
▁राणीया	-11.4005
▁रानबावनो	-11.4005
▁राभा,	-11.4005
▁रामनाथजों	-11.4005
▁रामसियारि	-11.4005
▁रामोन्दानि	-11.4005
▁रायजोनि	-11.4005
▁रायज्लायदों।	-11.4005
▁रायज्लायनायाव	-11.4005
▁रायदों	-11.4005
▁रायफोरनाय	-11.4005
▁रायै	-11.4005
▁रायो	-11.4005
[...]
