<unk>	0
<s>	0
</s>	0
ाय	-0
▁ब	-1
ान	-2
ाव	-3
▁म	-4
▁स	-5
▁ग	-6
नि	-7
▁ज	-8
ोन	-9
ला	-10
▁आ	-11
▁ह	-12
ों	-13
ार	-14
▁न	-15
▁द	-16
्र	-17
ां	-18
खौ	-19
नो	-20
▁थ	-21
ोर	-22
▁बि	-23
ाब	-24
▁ख	-25
ानै	-26
▁फ	-27
नाय	-28
▁बे	-29
▁र	-30
नानै	-31
बो	-32
या	-33
से	-34
ाम	-35
▁गो	-36
▁ल	-37
दों	-38
सि	-39
थि	-40
ुं	-41
्ला	-42
दि	-43
न्	-44
बाय	-45
ाज	-46
ाइ	-47
▁मोन	-48
ाथ	-49
▁अ	-50
▁आं	-51
रो	-52
ाया	-53
ाग	-54
फोर	-55
▁आरो	-56
ानो	-57
ोम	-58
ानि	-59
ाल	-60
ाख	-61
▁सि	-62
यो	-63
ेर	-64
सो	-65
▁ला	-66
बा	-67
▁ए	-68
ाह	-69
्रा	-70
▁नों	-71
▁?	-72
ारि	-73
जों	-74
ाला	-75
मोन	-76
ानाय	-77
्ल	-78
िर	-79
ब्ला	-80
..	-81
ना	-82
ायो	-83
▁मो	-84
▁"	-85
्रि	-86
▁:	-87
िस	-88
▁सान	-89
याव	-90
▁उ	-91
ायाव	-92
ुर	-93
▁बुं	-94
▁होन	-95
िन	-96
फ्र	-97
ङा	-98
▁क	-99
ुब	-100
मा	-101
▁खाला	-102
ांग	-103
▁गाव	-104
ोब	-105
▁खालाम	-106
ङो	-107
ाद	-108
▁-	-109
सै	-110
▁!	-111
।"	-112
ानानै	-113
ुन	-114
लाय	-115
फ्राय	-116
▁मा	-117
▁सम	-118
▁थां	-119
▁(	-120
▁मि	-121
▁जों	-122
दा	-123
ले	-124
▁हाब	-125
▁फै	-126
ान्	-127
▁मान	-128
वा	-129
जि	-130
ंख	-131
ंग	-132
▁बु	-133
लि	-134
▁हो	-135
सोर	-136
निफ्राय	-137
ाबो	-138
▁इ	-139
▁जा	-140
▁जे	-141
खा	-142
ाथाय	-143
▁प	-144
▁बियो	-145
▁नाय	-146
ुम	-147
गोन	-148
हा	-149
दोंमोन	-150
फा	-151
▁गोसो	-152
▁नु	-153
गो	-154
नाव	-155
▁सो	-156
िन्	-157
▁जि	-158
▁मे	-159
▁दं	-160
जा	-161
हर	-162
▁ओ	-163
▁गे	-164
▁बा	-165
ाबाय	-166
न्द	-167
ैया	-168
▁बर	-169
था	-170
▁--	-171
▁मु	-172
▁फिस	-173
खां	-174
▁थाख	-175
▁सोर	-176
▁नाथाय	-177
▁बाथ	-178
▁सु	-179
....	-180
ालि	-181
▁बो	-182
▁आख	-183
▁लो	-184
▁राव	-185
ांगौ	-186
राय	-187
रि	-188
▁मानसि	-189
▁गि	-190
▁सा	-191
गा	-192
्ट	-193
जां	-194
▁बाय	-195
थार	-196
नायनि	-197
यै	-198
▁से	-199
ारी	-200
▁माब	-201
जो	-202
बि	-203
थाइ	-204
▁दै	-205
▁लोगो	-206
फोरखौ	-207
▁जाय	-208
लाइ	-209
▁दे	-210
▁दा	-211
फै	-212
▁गुब	-213
▁जायो	-214
▁?"	-215
दो	-216
▁गु	-217
ावनो	-218
▁बार	-219
▁ओंख	-220
िरि	-221
▁--"	-222
▁नङा	-223
▁बादि	-224
▁बिनि	-225
ायनो	-226
है	-227
फोरा	-228
▁एबा	-229
▁आंनि	-230
खि	-231
सा	-232
नै	-233
▁हर	-234
थाय	-235
▁अन	-236
▁सल	-237
▁बिब	-238
▁'	-239
▁गोर	-240
▁मोजां	-241
ङाव	-242
आव	-243
ङै	-244
ागोन	-245
बां	-246
▁मोनसे	-247
▁माव	-248
थां	-249
नायाव	-250
▁गावनि	-251
म्	-252
▁दिन	-253
दै	-254
ुग	-255
▁उनाव	-256
▁थाखाय	-257
▁बाथ्रा	-258
▁जेर	-259
▁हम	-260
लां	-261
बाव	-262
▁मिथि	-263
ोनां	-264
बे	-265
▁था	-266
▁बिसोर	-267
हो	-268
ोना	-269
स्रि	-270
▁ना	-271
▁गोज	-272
जेर	-273
गिरि	-274
▁ड	-275
▁फोर	-276
▁लानानै	-277
ख्र	-278
वाव	-279
सार	-280
ाजा	-281
▁जाबाय	-282
ाब्ला	-283
▁गुबुन	-284
▁बायदि	-285
▁दि	-286
▁सोम	-287
▁फो	-288
▁फाव	-289
खौनो	-290
▁थि	-291
▁गा	-292
ग्रा	-293
▁गैया	-294
▁गेजेर	-295
नाया	-296
ालाय	-297
▁जानाय	-298
▁दु	-299
खो	-300
▁थानाय	-301
▁ट	-302
▁एसे	-303
फोरनि	-304
ब्लाबो	-305
▁हाया	-306
▁गाब	-307
▁जो	-308
ेन	-309
▁गोनां	-310
▁दिनै	-311
▁जादों	-312
सिन	-313
▁बाह	-314
▁हा	-315
ति	-316
ार्	-317
ुल	-318
▁1	-319
▁बेनि	-320
ेव	-321
▁हाग	-322
▁रो	-323
▁खा	-324
▁मुं	-325
▁हे	-326
▁बोर	-327
खु	-328
▁दाव	-329
▁मानो	-330
▁ओंखार	-331
ाहा	-332
▁हाबा	-333
खै	-334
ामा	-335
▁सासे	-336
▁जेरै	-337
▁जानो	-338
ायै	-339
▁नाग	-340
ेट	-341
जाव	-342
▁बुङो	-343
▁बै	-344
▁गार	-345
▁दोन	-346
्लि	-347
लाव	-348
्रे	-349
▁सान्	-350
▁राइ	-351
लै	-352
▁गोद	-353
▁थै	-354
थिं	-355
▁भ	-356
▁सोद	-357
गौ	-358
▁जौ	-359
▁गाह	-360
ामि	-361
▁लिर	-362
नायखौ	-363
▁महर	-364
▁खाम	-365
बादि	-366
ग्र	-367
ाजों	-368
▁आब	-369
▁नि	-370
▁सिख	-371
▁नोंनि	-372
▁हां	-373
▁बेखौ	-374
स्र	-375
ेब	-376
▁हागौ	-377
िन्थि	-378
ाखै	-379
▁फराय	-380
▁जानानै	-381
सु	-382
▁राइजो	-383
जु	-384
▁जेबो	-385
रा	-386
जाब	-387
▁जिउ	-388
स्	-389
ोन्	-390
▁समाव	-391
▁आइ	-392
नांगौ	-393
▁दिन्थि	-394
▁2	-395
▁गै	-396
▁सों	-397
▁जोब	-398
▁फिसा	-399
फिन	-400
▁खु	-401
▁बेसे	-402
फ्रा	-403
ांगोन	-404
▁आफ	-405
ब्र	-406
▁नो	-407
▁राय	-408
ाना	-409
ेल	-410
▁आन	-411
▁नां	-412
▁सुब	-413
दाव	-414
▁रां	-415
ायनाय	-416
▁[	-417
मानि	-418
▁लाइ	-419
▁अर	-420
▁सोदोब	-421
▁आंखौ	-422
थिया	-423
▁साव	-424
▁मेग	-425
--	-426
ोनो	-427
▁गामि	-428
▁होन्	-429
▁फोरम	-430
▁जागोन	-431
िं	-432
थाव	-433
▁बिदि	-434
ारा	-435
▁माबा	-436
▁मिनि	-437
ोनाय	-438
▁हारि	-439
ाराम	-440
▁आखु	-441
▁लां	-442
ल्	-443
▁खालामनो	-444
▁मोन्	-445
जोब	-446
▁खर	-447
▁खोम	-448
देर	-449
▁गथ	-450
फां	-451
बर	-452
ोनानै	-453
▁खार	-454
▁सायाव	-455
▁हिन्	-456
▁बाज	-457
▁खौ	-458
सिम	-459
▁सानै	-460
▁गोबां	-461
▁थायो	-462
▁मोनो	-463
▁गोदान	-464
सिनो	-465
▁आले	-466
▁उन्द	-467
लो	-468
▁श	-469
गां	-470
्दि	-471
▁जाख	-472
▁बिख	-473
दां	-474
ैनो	-475
▁हाज	-476
▁गासै	-477
▁अल	-478
▁नङ	-479
...	-480
्लाय	-481
▁फार	-482
▁जाथ	-483
▁दुखु	-484
▁सुबुं	-485
▁)	-486
ाज्रि	-487
▁हिन्जाव	-488
▁जु	-489
र्	-490
गार	-491
▁रं	-492
▁ले	-493
▁मन्	-494
▁गं	-495
▁जाया	-496
▁मोद	-497
▁खाथि	-498
खोम	-499
▁होननानै	-500
ाबा	-501
▁बाव	-502
▁गोम	-503
▁माह	-504
▁खामानि	-505
▁गाज्रि	-506
क्	-507
▁आग	-508
▁आदा	-509
▁जान	-510
फि	-511
िसै	-512
▁दान	-513
▁गेजेराव	-514
▁मह	-515
बार	-516
▁बिखौ	-517
▁लों	-518
सिं	-519
▁बाद	-520
▁हाद	-521
▁होनाय	-522
जोर	-523
▁देर	-524
▁बां	-525
▁बेख	-526
▁मले	-527
▁फिसाज	-528
ाखा	-529
▁खालामनानै	-530
खौबो	-531
ाजाब	-532
ामोन	-533
सं	-534
ब्ल	-535
▁खो	-536
टि	-537
▁जाह	-538
▁आखाइ	-539
▁होनो	-540
▁बिमा	-541
▁खन	-542
▁फावथाइ	-543
▁आर	-544
▁होन्नानै	-545
▁नागिर	-546
▁बुंनो	-547
▁बय	-548
▁बेफोर	-549
▁बिज	-550
▁माइ	-551
▁बिब्दि	-552
▁ध	-553
▁आलाइ	-554
का	-555
▁थुन	-556
▁फु	-557
▁बिन	-558
▁आफाद	-559
न्ट	-560
▁मेगन	-561
........	-562
▁आस	-563
ानाव	-564
खर	-565
थ्रि	-566
▁जोंनि	-567
▁हायो	-568
▁प्र	-569
न्दा	-570
सालि	-571
नायसै	-572
राम	-573
ुबै	-574
ारिया	-575
▁च	-576
▁त	-577
ष्ट	-578
▁दङ	-579
▁खोन	-580
▁नोंथां	-581
▁गिदि	-582
लाङो	-583
ेस	-584
▁राज	-585
ान्थि	-586
्लै	-587
ें	-588
▁रु	-589
▁बाथ्राखौ	-590
▁सिगां	-591
जानाय	-592
्ड	-593
फुं	-594
▁फि	-595
▁मोस	-596
▁सेर	-597
▁उन	-598
थायाव	-599
▁सिरि	-600
▁बुंबाय	-601
▁सेंग	-602
▁नोंसोर	-603
▁होनानै	-604
▁सं	-605
लिया	-606
ारनि	-607
▁]	-608
▁जिर	-609
▁बेखेव	-610
ाथो	-611
▁आय	-612
▁आव	-613
▁सिं	-614
ोद	-615
▁ब्र	-616
▁बोसोर	-617
▁गोग	-618
हाय	-619
▁अज	-620
▁सै	-621
▁हानाय	-622
▁मै	-623
जित	-624
रे	-625
ाबु	-626
▁थे	-627
▁मोखां	-628
▁हांखो	-629
गि	-630
थो	-631
म्बर	-632
पि	-633
▁थार	-634
साव	-635
▁ने	-636
▁नाज	-637
▁दर	-638
▁नै	-639
माया	-640
मि	-641
▁एन	-642
ल्प	-643
▁नोजोर	-644
ागो	-645
ुर्	-646
ण्ड	-647
हां	-648
ौवा	-649
▁बिसि	-650
▁गोहो	-651
▁थाब	-652
▁बबे	-653
▁नोंखौ	-654
▁लामा	-655
रां	-656
ारिनि	-657
▁बिथां	-658
थे	-659
ीया	-660
ुरि	-661
▁आद	-662
▁फारसे	-663
▁मोदोम	-664
ंबाय	-665
फैयो	-666
▁गल	-667
ानिफ्राय	-668
्त	-669
▁आफा	-670
▁ओंखाम	-671
▁जोन	-672
▁गोजौ	-673
बोर	-674
▁गां	-675
▁नामा	-676
यावनो	-677
▁जोनोम	-678
ुरै	-679
▁हाम	-680
्राया	-681
▁एर	-682
▁नांगौ	-683
▁थांनानै	-684
▁खाव	-685
▁बिफ	-686
▁समाय	-687
▁होयो	-688
▁फा	-689
▁मालाय	-690
▁मोनबाय	-691
▁बारा	-692
▁माब्ला	-693
▁।	-694
▁दाब	-695
▁लुबै	-696
ाग्	-697
▁बेल	-698
▁कल्प	-699
दे	-700
ायनानै	-701
▁बाहागो	-702
नोसै	-703
▁रुम	-704
▁खिन्	-705
▁मलेन	-706
▁नुनानै	-707
थाम	-708
▁बान	-709
▁थानो	-710
▁नवाव	-711
▁लोगोसे	-712
्म	-713
▁दसे	-714
▁लानाय	-715
▁राम	-716
▁माथो	-717
▁मानसिया	-718
लनि	-719
▁जाग	-720
▁थाबाय	-721
नां	-722
▁गोग्लै	-723
फु	-724
▁सौ	-725
ान्ति	-726
फ्ला	-727
▁गामिनि	-728
00	-729
ʼ।	-730
▁बेयो	-731
▁मानोना	-732
आं	-733
▁दिह	-734
▁सिङाव	-735
▁सोरबा	-736
▁रा	-737
▁उन्दु	-738
लु	-739
▁फिसाजो	-740
हाब	-741
ाग्दाव	-742
▁दुर्	-743
▁गुबै	-744
▁लाबो	-745
▁लासै	-746
▁बुंनाय	-747
साय	-748
▁बिह	-749
▁आंहा	-750
▁खाथियाव	-751
▁जोबो	-752
▁थाङो	-753
खांनानै	-754
खाय	-755
▁मानि	-756
फिस	-757
▁खै	-758
राव	-759
▁खि	-760
▁रि	-761
ोमोन	-762
ान्दि	-763
▁माहाज	-764
▁राग	-765
▁बिलि	-766
▁साब	-767
▁बेनो	-768
खार	-769
फाल	-770
▁हु	-771
▁मन	-772
▁गंसे	-773
▁माखा	-774
ुला	-775
देरे	-776
सुम	-777
▁दाय	-778
गासिनो	-779
▁सेंग्रा	-780
▁बयबो	-781
▁सिनाय	-782
याबो	-783
▁एम	-784
थाङा	-785
खायनो	-786
ारीया	-787
थिनि	-788
▁ददेरे	-789
▁सानसे	-790
्राय	-791
▁खौरां	-792
▁मन्जु	-793
▁माखासे	-794
▁फिन	-795
मु	-796
▁रै	-797
▁नं	-798
्रां	-799
▁थाखो	-800
खिसै	-801
▁लाइज	-802
▁लाखि	-803
▁समाज	-804
▁सिख्ला	-805
न्थ	-806
▁गोजोन	-807
ंगा	-808
जाय	-809
▁सर	-810
▁होम	-811
▁नुनो	-812
▁हौवा	-813
▁बिलाइ	-814
▁रे	-815
▁महार	-816
उट	-817
▁इर	-818
▁बड	-819
▁हार	-820
रिया	-821
▁कम्	-822
▁गान	-823
▁लानो	-824
दु	-825
लों	-826
▁खाय	-827
▁मुल	-828
in	-829
▁दाह	-830
▁मोखा	-831
▁मोदै	-832
खालि	-833
ाइनि	-834
▁हाय	-835
▁सानो	-836
सन	-837
थिखौ	-838
यानो	-839
▁दाजाब	-840
▁रावबो	-841
लाया	-842
▁हाथ	-843
▁बोहै	-844
▁बिसोरनि	-845
थुम	-846
नों	-847
यारि	-848
▁गोख्र	-849
▁मोननै	-850
खाल	-851
▁फे	-852
▁लु	-853
▁खेब	-854
▁थाइ	-855
▁मुलुग	-856
▁थांनाय	-857
प्त	-858
▁आसाम	-859
▁गारां	-860
ोमा	-861
ालां	-862
▁सुं	-863
▁गोथ	-864
▁ब्रह	-865
▁गाहाय	-866
▁स्	-867
▁मोना	-868
▁लाजि	-869
▁शान्ति	-870
थोन	-871
न्ज	-872
सिबो	-873
▁बेर	-874
▁थु	-875
▁गिबि	-876
▁मोननाय	-877
गोर	-878
दुं	-879
▁थाम	-880
▁बिजिर	-881
▁होबाय	-882
▁ब्रह्म	-883
▁इराग्दाव	-884
▁नायजाब	-885
▁का	-886
▁गोरा	-887
▁गोबाव	-888
er	-889
▁थुनलाइ	-890
हिर	-891
▁मद	-892
▁खोथा	-893
▁बोरै	-894
▁सोमोन्	-895
▁गोसोआव	-896
स्ट	-897
▁साय	-898
मिन	-899
▁दम	-900
▁राजा	-901
▁अब्ला	-902
▁आलेया	-903
▁फोरमाय	-904
खाङो	-905
▁सिम	-906
▁अजित	-907
▁नाङा	-908
ब्लानो	-909
▁राहा	-910
लुं	-911
गायाव	-912
▁तुला	-913
▁सिगा	-914
▁थांखि	-915
क्ट	-916
ननि	-917
ुरा	-918
▁आथि	-919
▁जोबोद	-920
▁बिजाब	-921
▁मिहिर	-922
हरो	-923
दिया	-924
▁लाब	-925
फोरजों	-926
▁गासिबो	-927
रनि	-928
▁!"	-929
▁बेखौनो	-930
ाननि	-931
▁बिग	-932
फोराव	-933
▁दिहुन	-934
▁बेबादि	-935
▁मानसिनि	-936
निफ्रायनो	-937
▁खुग	-938
▁जाब	-939
▁लाम	-940
▁जाखो	-941
▁बाहाय	-942
स्री	-943
सोन	-944
▁गर	-945
फिनो	-946
यार	-947
▁दो	-948
थाया	-949
▁थाव	-950
▁बेद	-951
▁सोलाय	-952
▁नङाब्ला	-953
ुलिस	-954
▁मोजा	-955
सोम	-956
▁....	-957
▁लायो	-958
खान्थि	-959
गै	-960
ंगौ	-961
▁गुव	-962
▁नखर	-963
▁खोना	-964
▁साहा	-965
▁जादोंमोन	-966
▁जारि	-967
ाम्	-968
ेवबो	-969
ेम्बर	-970
नांगोन	-971
लांबाय	-972
▁सेप्त	-973
जाया	-974
पिउट	-975
▁हें	-976
▁बांसिन	-977
▁बुंदों	-978
ुंग	-979
ोरोम	-980
▁सार	-981
▁पुलिस	-982
▁लाइजाम	-983
फाव	-984
▁जाथाय	-985
▁आलाइस्रि	-986
▁सेप्तेम्बर	-987
फोद	-988
ुवा	-989
▁रंज	-990
▁आंबो	-991
▁नार्	-992
▁कम्पिउट	-993
सान	-994
▁रोखोम	-995
▁साइ	-996
th	-997
▁आबौ	-998
▁बाग	-999
▁आनारी	-1000
फे	-1001
▁डि	-1002
▁थान	-1003
ाखिसै	-1004
▁महाराजा	-1005
।'	-1006
▁सिखार	-1007
▁समावनो	-1008
मे	-1009
गायै	-1010
▁थिन	-1011
▁हाल	-1012
▁बसुम	-1013
▁फैदों	-1014
▁गासैबो	-1015
on	-1016
्लाब	-1017
▁आला	-1018
होलाव	-1019
जायो	-1020
स्रां	-1021
मार	-1022
▁जायगा	-1023
▁जानांगौ	-1024
▁सह	-1025
▁फाग	-1026
▁गैयै	-1027
▁अन्	-1028
▁गसं	-1029
▁दाख	-1030
▁खिन्थ	-1031
▁जेब्ला	-1032
माय	-1033
▁अनगायै	-1034
▁मोजाङै	-1035
▁गेजेरजों	-1036
्रै	-1037
▁अराय	-1038
▁रैखा	-1039
▁सुंद	-1040
नायजों	-1041
▁थेवबो	-1042
▁जोहोलाव	-1043
▁डा	-1044
▁दानो	-1045
▁थांनो	-1046
▁गोसोखौ	-1047
▁सिगाङाव	-1048
।)	-1049
दार	-1050
▁दौ	-1051
▁बिर	-1052
▁लिं	-1053
▁गोलाव	-1054
▁जिउनि	-1055
▁सोमबोर	-1056
जे	-1057
ोरै	-1058
नाथ	-1059
▁जेन	-1060
▁आंनो	-1061
▁दाबो	-1062
▁खाफाल	-1063
▁आखायाव	-1064
▁मोनगोन	-1065
फ्ल	-1066
▁के	-1067
▁जै	-1068
ज्लाय	-1069
▁बसुमत	-1070
▁खालामो	-1071
▁नार	-1072
▁फुं	-1073
▁हान्	-1074
▁बिबार	-1075
थोर	-1076
दाय	-1077
▁दानि	-1078
▁फारि	-1079
▁बिफा	-1080
▁जेराव	-1081
▁बिनानाव	-1082
▁खालामनाय	-1083
▁जारिमिन	-1084
▁19	-1085
▁गस	-1086
▁नायहर	-1087
▁बेसेबा	-1088
▁माहाजोन	-1089
हेर	-1090
▁हि	-1091
बावो	-1092
▁गोसोनि	-1093
ti	-1094
▁3	-1095
ागि	-1096
▁हेफ	-1097
▁महरै	-1098
▁सोरजि	-1099
▁जेब्लाबो	-1100
ंगि	-1101
ाख्रि	-1102
▁गोदो	-1103
▁गाहाम	-1104
▁फैनानै	-1105
▁सान्थ्रि	-1106
गाय	-1107
ब्रा	-1108
▁देहा	-1109
▁दन्दा	-1110
▁सावराय	-1111
▁नायनानै	-1112
थु	-1113
▁गाख	-1114
▁दंमोन	-1115
▁बेयाव	-1116
▁हागोन	-1117
▁जोंथिया	-1118
▁तुलाराम	-1119
▁दाउ	-1120
▁दाम	-1121
▁फान	-1122
▁बाइ	-1123
▁माबोरै	-1124
▁हेफाजाब	-1125
्री	-1126
▁गय	-1127
सिगोन	-1128
▁गावनो	-1129
▁बुंनानै	-1130
▁5	-1131
ारामा	-1132
बु	-1133
फ्रोम	-1134
▁एसेबां	-1135
ʼ,	-1136
यान	-1137
▁पि	-1138
▁गेले	-1139
▁बिखा	-1140
▁फंबाय	-1141
▁सानबाय	-1142
▁मोसौ	-1143
▁होदों	-1144
ज्रि	-1145
▁बाजि	-1146
लायनाय	-1147
दोन	-1148
पार	-1149
न्दि	-1150
▁फैयो	-1151
▁बोराय	-1152
▁अखा	-1153
▁रों	-1154
▁अफिस	-1155
▁हगार	-1156
▁बिफां	-1157
▁बादिब्ला	-1158
थुर	-1159
राइ	-1160
सिया	-1161
▁थाय	-1162
▁लाय	-1163
▁बिहा	-1164
▁गोसोआ	-1165
▁जाथाइ	-1166
▁नायनो	-1167
▁हायाखै	-1168
▁बेनिखायनो	-1169
ीन	-1170
ल्ल	-1171
▁टे	-1172
▁नंगौ	-1173
▁सावग	-1174
▁उन्दै	-1175
पा	-1176
स्ल	-1177
▁है	-1178
▁कले	-1179
▁जें	-1180
▁लाबाय	-1181
▁हमबाय	-1182
सालियाव	-1183
बानो	-1184
ाग्रा	-1185
▁बैसो	-1186
▁हारिनि	-1187
▁बिखायाव	-1188
▁बेव	-1189
▁गांसे	-1190
ारिखौ	-1191
▁मोननो	-1192
▁सुलुं	-1193
▁गोरोन्	-1194
केल	-1195
▁मार	-1196
▁बादल	-1197
▁फोरों	-1198
▁जायगायाव	-1199
दिं	-1200
▁जाव	-1201
▁हायै	-1202
डि	-1203
▁बड़	-1204
▁साम	-1205
▁हाख	-1206
▁खाबु	-1207
▁औ	-1208
येट	-1209
बोनाय	-1210
गिरिया	-1211
▁संसार	-1212
▁जायाखै	-1213
ता	-1214
ुमै	-1215
ख्रु	-1216
निबो	-1217
▁अजया	-1218
▁लिरनाय	-1219
▁बेनिफ्राय	-1220
▁फाह	-1221
▁हमनानै	-1222
▁बिदिब्ला	-1223
फेर	-1224
▁साल	-1225
▁नोगोर	-1226
▁माबार	-1227
हे	-1228
▁इं	-1229
▁पा	-1230
▁खन्	-1231
▁मुवा	-1232
▁गाहाइ	-1233
▁जाखां	-1234
क्स	-1235
▁खालि	-1236
▁गुदि	-1237
▁गिदिर	-1238
▁सोलों	-1239
राज	-1240
ाहै	-1241
▁अब	-1242
▁फं	-1243
▁आखल	-1244
▁फोजोब	-1245
▁मिथिनो	-1246
▁नोंथाङा	-1247
es	-1248
▁उदै	-1249
▁गुर	-1250
▁हिस	-1251
▁आथिं	-1252
▁बेसेबां	-1253
▁गैय	-1254
▁हमनो	-1255
▁फोथाय	-1256
▁बानाय	-1257
▁मलेना	-1258
▁मावनो	-1259
▁दुर्जा	-1260
▁सुलुंआव	-1261
▁200	-1262
ारीनि	-1263
▁बान्	-1264
▁बाबु	-1265
▁मिथिगौ	-1266
▁मोनदों	-1267
जोंनो	-1268
थायनि	-1269
▁नुयो	-1270
▁........	-1271
▁व	-1272
ख्ल	-1273
ाथाम	-1274
▁सुर	-1275
▁जोबोर	-1276
▁आथिखाल	-1277
केट	-1278
जुग	-1279
▁गुन्द	-1280
▁गोरोब	-1281
▁होनना	-1282
ाब्लाबो	-1283
▁गोख्रों	-1284
ंखो	-1285
▁खे	-1286
ुलुम	-1287
▁खान	-1288
▁रिं	-1289
▁आथोन	-1290
▁सांग	-1291
▁a	-1292
ेसन	-1293
▁लि	-1294
खानि	-1295
ख्रि	-1296
सिनि	-1297
होनो	-1298
▁मदद	-1299
▁मोसा	-1300
लांनाय	-1301
▁रामनाथ	-1302
en	-1303
मो	-1304
ीर	-1305
झार	-1306
▁थो	-1307
नानि	-1308
▁थाल	-1309
▁थास	-1310
▁बुजि	-1311
ra	-1312
थों	-1313
▁अम	-1314
ंगोन	-1315
दाया	-1316
▁अजय	-1317
▁आङो	-1318
▁जिंगा	-1319
▁दानाय	-1320
▁नोंनो	-1321
▁हाबाफ	-1322
▁बेफोरखौ	-1323
▁सोमोन्दो	-1324
खाव	-1325
ाबै	-1326
▁:-	-1327
यानि	-1328
▁खां	-1329
बावनो	-1330
▁उदां	-1331
▁धोरोम	-1332
▁साननानै	-1333
▁हायाखिसै	-1334
थावना	-1335
▁लेखा	-1336
▁जिराय	-1337
▁मिथिया	-1338
ou	-1339
टी	-1340
गाव	-1341
देन	-1342
ुना	-1343
साया	-1344
ाखैमोन	-1345
▁फैबाय	-1346
▁मन्थ्रि	-1347
लायो	-1348
्रेम	-1349
्लानो	-1350
▁साला	-1351
▁हादोर	-1352
▁खालामबाय	-1353
▁कम्पिउटार	-1354
▁4	-1355
▁घ	-1356
ंगार	-1357
▁...	-1358
▁दां	-1359
.....	-1360
▁बिदा	-1361
▁सोङो	-1362
▁गावखौ	-1363
▁गिदिं	-1364
▁बाथ्र	-1365
▁मोखाङाव	-1366
▁खालामदों	-1367
ंक	-1368
ुव	-1369
ेम	-1370
हार	-1371
हैयो	-1372
फैबाय	-1373
▁थियेट	-1374
ेश	-1375
।]	-1376
जेन	-1377
न्थि	-1378
फाङा	-1379
▁बहा	-1380
▁सिन	-1381
न्द्र	-1382
हरबाय	-1383
▁बिबान	-1384
▁बुथार	-1385
▁कल्पना	-1386
▁बाहायनाय	-1387
पुर	-1388
लेर	-1389
दिनि	-1390
▁इसे	-1391
▁बुर	-1392
▁भार	-1393
▁बोलो	-1394
▁मनजु	-1395
▁गोब्र	-1396
▁खोनासं	-1397
▁माब्लाबा	-1398
▁आल	-1399
▁जोम	-1400
▁दमन	-1401
▁मीन	-1402
बोदों	-1403
मोननि	-1404
▁गोथौ	-1405
▁ट्रे	-1406
▁सानैबो	-1407
▁बेलस्रि	-1408
or	-1409
ʼ-	-1410
खे	-1411
सुं	-1412
▁मेहेर	-1413
▁सोमाव	-1414
▁बिमाया	-1415
▁हाबफैयो	-1416
जाद	-1417
सिना	-1418
हाबो	-1419
खानाय	-1420
ालिया	-1421
▁आगान	-1422
▁गोमो	-1423
▁जाला	-1424
▁रागा	-1425
▁हेंथा	-1426
फ्रोमबो	-1427
▁रिंसार	-1428
म्भ	-1429
सनि	-1430
ाथी	-1431
▁खोमसि	-1432
▁बिमानि	-1433
▁दुर्जाङा	-1434
▁बाथ्राया	-1435
▁फोरमायनाय	-1436
ंखाय	-1437
ब्रै	-1438
▁थुल	-1439
ुब्लि	-1440
▁नायग	-1441
▁फावथि	-1442
▁गोरोन्थि	-1443
जार	-1444
मान	-1445
▁ओं	-1446
ुगार	-1447
बनानै	-1448
िनजाव	-1449
ारियाव	-1450
▁खुलुम	-1451
▁आफादनि	-1452
▁थाखायनो	-1453
▁शान्तिया	-1454
▁आम	-1455
मोना	-1456
हैबाय	-1457
▁आइजो	-1458
▁नागार	-1459
▁बोथोर	-1460
▁थांबाय	-1461
गाब	-1462
फिन्	-1463
सिङै	-1464
▁दुं	-1465
सेयाव	-1466
▁गम्भ	-1467
▁देरह	-1468
▁बेदर	-1469
▁हाजो	-1470
▁मेथाइ	-1471
▁रावखौ	-1472
▁सुजुग	-1473
लायनानै	-1474
▁फरायसा	-1475
▁माद	-1476
▁नुजा	-1477
कनि	-1478
▁टि	-1479
▁खुं	-1480
▁सिला	-1481
▁खान्थि	-1482
▁साख्रि	-1483
सम	-1484
▁इन	-1485
▁दोर	-1486
ख्रां	-1487
▁गान्	-1488
▁भारत	-1489
▁मुलि	-1490
▁दैदेन	-1491
▁सोमजि	-1492
▁सोरनि	-1493
▁आनाराम	-1494
▁गुवाहा	-1495
▁खोनानानै	-1496
▁फिसाज्ला	-1497
कि	-1498
जिर	-1499
ावा	-1500
ंख्रि	-1501
फिनबाय	-1502
▁फाहाम	-1503
▁बादला	-1504
▁रुमाव	-1505
▁हुगार	-1506
▁दावबाय	-1507
▁फावथाइनि	-1508
्सोन	-1509
▁दों	-1510
▁लान	-1511
▁आन्द	-1512
▁बबाव	-1513
फावथाइ	-1514
▁हिनजाव	-1515
▁मोन्नाय	-1516
्व	-1517
▁इउ	-1518
▁चि	-1519
▁बह	-1520
बोयो	-1521
▁अमा	-1522
▁अलक	-1523
▁जेसे	-1524
▁रंजा	-1525
▁दावहा	-1526
▁हादों	-1527
▁सोंबाय	-1528
▁अनगायैबो	-1529
खन	-1530
रु	-1531
थाब	-1532
ीनि	-1533
ाग्ल	-1534
ान्त	-1535
▁जिब	-1536
ख्रुइ	-1537
▁आरति	-1538
▁गाबोन	-1539
▁गोथार	-1540
▁जानायनि	-1541
▁ददेरेया	-1542
हु	-1543
ाइल	-1544
ाबि	-1545
स्रा	-1546
▁जेंना	-1547
लिर	-1548
▁एफ	-1549
सुला	-1550
▁गोब	-1551
▁हान	-1552
फांनि	-1553
लांदों	-1554
▁देंखो	-1555
▁फैनाय	-1556
▁मिहिरा	-1557
▁दाजाबदा	-1558
▁लामायाव	-1559
▁सांग्रां	-1560
भि	-1561
िया	-1562
▁एस	-1563
▁खल	-1564
▁थाथ	-1565
▁फाल	-1566
फ्राम	-1567
लायाव	-1568
▁गावब	-1569
▁फाला	-1570
▁फैया	-1571
▁बाजै	-1572
▁हादर	-1573
▁आलासि	-1574
▁फोसाव	-1575
▁समबार	-1576
▁सावगारि	-1577
▁गुवाहाटी	-1578
al	-1579
जानो	-1580
नोबो	-1581
फानि	-1582
्राब	-1583
▁सोन	-1584
थियाव	-1585
याराम	-1586
▁खुगा	-1587
▁साजा	-1588
▁गुदुं	-1589
▁खोमदोन	-1590
▁रोखोमनि	-1591
▁बिलिफाङा	-1592
साइ	-1593
ालै	-1594
▁!!	-1595
▁उद	-1596
्राइ	-1597
▁बुङ	-1598
▁रान	-1599
▁स्ट	-1600
फैदों	-1601
▁गोजां	-1602
▁जालाय	-1603
▁थागोन	-1604
▁फिसाइ	-1605
▁रायलाय	-1606
▁आफादगिरि	-1607
▁बिब्दिनो	-1608
▁C	-1609
उरि	-1610
ज्ल	-1611
फाय	-1612
▁ति	-1613
ख्रा	-1614
नैसो	-1615
सेबो	-1616
▁एरै	-1617
▁लोम	-1618
▁स्क	-1619
▁मिजि	-1620
▁आलेखौ	-1621
▁लादों	-1622
▁बेरखां	-1623
वारी	-1624
▁नार्ज	-1625
▁रावनि	-1626
▁बिथांनि	-1627
is	-1628
ुट	-1629
्य	-1630
फाया	-1631
▁गाय	-1632
▁फां	-1633
▁लाख	-1634
▁खोमा	-1635
▁खन्थाइ	-1636
▁जाब्ला	-1637
▁सोमावसार	-1638
▁थुनफावथाइ	-1639
जाथ	-1640
▁''	-1641
खाया	-1642
जासे	-1643
निया	-1644
▁जौग	-1645
▁बाइदि	-1646
ान्दिसे	-1647
टा	-1648
्राम	-1649
▁गला	-1650
▁नाजा	-1651
▁फैनो	-1652
▁रोदा	-1653
▁गोरों	-1654
▁सिमां	-1655
जौ	-1656
।।	-1657
दान	-1658
ाली	-1659
ग्रो	-1660
माखौ	-1661
लानि	-1662
▁थेले	-1663
▁बिनो	-1664
▁हार्	-1665
▁जनानै	-1666
▁गम्भीर	-1667
▁दयाराम	-1668
▁दानिया	-1669
▁गाबज्रि	-1670
गु	-1671
फो	-1672
▁o	-1673
▁कक	-1674
▁कम	-1675
जानि	-1676
ामजो	-1677
▁खें	-1678
▁जुन	-1679
▁देव	-1680
▁आंगो	-1681
▁माने	-1682
▁जाहोन	-1683
▁सुथुर	-1684
▁दुर्जां	-1685
▁मानसिखौ	-1686
▁राइजोनि	-1687
▁ओंखारलाङो	-1688
▁W	-1689
स्क	-1690
▁कि	-1691
▁थब	-1692
▁देह	-1693
ार्से	-1694
▁नागा	-1695
▁खैफोद	-1696
▁बिसोरखौ	-1697
▁अद	-1698
मानो	-1699
ाजोब	-1700
ेन्ट	-1701
्बाय	-1702
हरदों	-1703
▁कलेज	-1704
▁गारि	-1705
▁बेला	-1706
▁साना	-1707
ुंग्रि	-1708
▁दासिम	-1709
थावनादि	-1710
▁गुन्दा	-1711
▁फोरमायदों	-1712
हि	-1713
ंगल	-1714
▁थौ	-1715
दानि	-1716
▁आसि	-1717
▁हाव	-1718
▁आनजाद	-1719
▁नोंहा	-1720
▁खोथाखौ	-1721
▁गोजानाव	-1722
▁लिरगिरि	-1723
▁मेहेरसिं	-1724
▁साइकेल	-1725
ow	-1726
▁A	-1727
▁th	-1728
मायाव	-1729
▁बिजौ	-1730
थारबाय	-1731
▁खेबसे	-1732
▁गेदेर	-1733
▁फारिया	-1734
▁बिदिनो	-1735
▁लुबैयो	-1736
▁नाजानाय	-1737
▁अनि	-1738
थौ	-1739
▁ओर	-1740
▁लोब	-1741
लांनो	-1742
▁गनाय	-1743
▁रोखा	-1744
▁अख्रां	-1745
▁गोमजोर	-1746
▁देनानै	-1747
▁बिहामजो	-1748
▁रायज्लाय	-1749
▁सान्नानै	-1750
)।	-1751
re	-1752
त्र	-1753
ाजि	-1754
▁इय	-1755
▁कमा	-1756
फोरनो	-1757
▁समनि	-1758
......	-1759
ाग्लोब	-1760
▁इंराज	-1761
▁जिउखौ	-1762
▁गावसोर	-1763
▁थांगोन	-1764
▁मुस्रि	-1765
थै	-1766
▁s	-1767
दुम	-1768
▁(1	-1769
बोला	-1770
▁जार	-1771
▁नेर	-1772
▁नोम	-1773
▁बेग	-1774
▁सोब	-1775
गौमोन	-1776
▁गुमै	-1777
▁नायो	-1778
▁सिबि	-1779
खांनाय	-1780
▁रावाव	-1781
▁सेराव	-1782
▁नायगिर	-1783
▁बिसोरो	-1784
▁दान्दिसे	-1785
▁नोजोरथावनादि	-1786
ती	-1787
माल	-1788
▁10	-1789
न्जन	-1790
होनाय	-1791
▁गाखो	-1792
▁हराव	-1793
▁हाबो	-1794
▁इन्दि	-1795
▁हाजार	-1796
▁थानानै	-1797
▁बेवहाय	-1798
▁हाबाखौ	-1799
▁हाबानि	-1800
▁कल्पनाया	-1801
▁S	-1802
जोम	-1803
साब	-1804
▁आगै	-1805
▁गेव	-1806
▁बारग	-1807
▁मुगै	-1808
▁सोलो	-1809
▁हेला	-1810
▁खायसे	-1811
▁खालाय	-1812
▁फिथाइ	-1813
▁आसामनि	-1814
▁उनावनो	-1815
▁बेखेवफा	-1816
▁मालायनि	-1817
▁हाबनानै	-1818
खं	-1819
▁खम	-1820
खारि	-1821
गानि	-1822
फायो	-1823
बारी	-1824
गिदिं	-1825
ङावनो	-1826
▁आयदा	-1827
▁मासि	-1828
होनानै	-1829
▁मिजिं	-1830
▁थाखोनि	-1831
▁फोरमान	-1832
▁हाग्रा	-1833
▁गोब्राब	-1834
थ्र	-1835
साद	-1836
▁of	-1837
▁आयै	-1838
▁थों	-1839
फानाय	-1840
▁गोलै	-1841
▁फान्	-1842
▁गोजाम	-1843
▁जायखौ	-1844
▁जालां	-1845
▁नंखाय	-1846
▁नोंलाय	-1847
▁गोसोखां	-1848
▁बायदिसिना	-1849
▁दिन्थिग्रा	-1850
▁7	-1851
▁9	-1852
▁बिष	-1853
▁बिस	-1854
▁स्र	-1855
▁हरख	-1856
▁थाया	-1857
▁फैगौ	-1858
▁सुखु	-1859
▁बिलाय	-1860
▁मुंमा	-1861
▁कमाण्ड	-1862
▁नायबाय	-1863
▁बोराया	-1864
▁हिसाबै	-1865
▁माहाजोना	-1866
फुर	-1867
ाइन	-1868
▁एल	-1869
स्लु	-1870
▁थाद	-1871
▁बें	-1872
▁बायजो	-1873
▁साननाय	-1874
▁मिथिबाय	-1875
▁मोदोमाव	-1876
▁रंजानाय	-1877
▁होमब्ला	-1878
),	-1879
थर	-1880
रम	-1881
▁6	-1882
फार	-1883
ागा	-1884
ुनि	-1885
्बा	-1886
tion	-1887
जोबो	-1888
थायै	-1889
▁थिक	-1890
उरिया	-1891
जोंबो	-1892
शान्त	-1893
▁मैया	-1894
▁गोसोम	-1895
▁नुबाय	-1896
▁बिथिं	-1897
▁बिखाया	-1898
▁मेगनाव	-1899
▁थांनोसै	-1900
▁मोननानै	-1901
▁दख	-1902
▁माय	-1903
ागुरि	-1904
▁गुरै	-1905
▁जाम्	-1906
▁बागै	-1907
▁ब्रा	-1908
▁साखा	-1909
▁जोंखौ	-1910
▁मोनथि	-1911
▁होगोन	-1912
▁आरोबाव	-1913
▁जाग्रा	-1914
▁हारसिं	-1915
▁मन्जुवा	-1916
▁सोमोन्दै	-1917
ar	-1918
el	-1919
गं	-1920
भा	-1921
जें	-1922
बेल	-1923
मनि	-1924
▁जिन	-1925
▁लें	-1926
▁अपार	-1927
▁मुङा	-1928
लायबाय	-1929
▁आंजों	-1930
▁जाफुं	-1931
▁जायखि	-1932
▁आलाइया	-1933
▁गैलिया	-1934
▁नङामोन	-1935
▁बिफानि	-1936
▁राजानि	-1937
▁समाजनि	-1938
▁होनांगौ	-1939
om	-1940
री	-1941
फेन	-1942
हिन	-1943
▁टा	-1944
जिया	-1945
न्दु	-1946
सेनि	-1947
ार्ट	-1948
▁एफा	-1949
▁निउ	-1950
▁लाव	-1951
▁साह	-1952
जागोन	-1953
फैनाय	-1954
ब्राम	-1955
▁दावह	-1956
▁दुला	-1957
▁मुंख	-1958
▁सोलि	-1959
▁गोरलै	-1960
▁थाइला	-1961
▁मुंनि	-1962
▁हांमा	-1963
▁गाहायाव	-1964
▁T	-1965
▁1.	-1966
याया	-1967
▁खहा	-1968
▁खुर	-1969
▁बाल	-1970
▁बिम	-1971
्रानि	-1972
▁गाबो	-1973
▁मोनै	-1974
▁रुवा	-1975
▁हांग	-1976
▁सान्दो	-1977
▁जोंथिनि	-1978
▁सुबुंनि	-1979
▁नोंथांनि	-1980
▁राजखान्थि	-1981
an	-1982
थाल	-1983
▁लै	-1984
जाखौ	-1985
▁महन	-1986
▁हमथ	-1987
▁जाहै	-1988
▁आलेनि	-1989
▁गुवार	-1990
▁फोलेर	-1991
▁फाग्ला	-1992
▁लाखिनो	-1993
▁दुलाराय	-1994
▁मुलुगाव	-1995
▁मिनिस्लु	-1996
▁लाइजामखौ	-1997
▁मानसिफोरा	-1998
कखौ	-1999
ागौ	-2000
्बो	-2001
हैनो	-2002
ाखां	-2003
▁बाख	-2004
ायाबो	-2005
्लाया	-2006
▁बेरे	-2007
▁आवगाय	-2008
▁सानदों	-2009
▁सोनानै	-2010
▁मीनाराम	-2011
▁दिन्थिनो	-2012
▁बुंदोंमोन	-2013
दाब	-2014
ङानो	-2015
फ्ले	-2016
लिनि	-2017
▁तित	-2018
▁आबुं	-2019
▁फिसौ	-2020
▁लख्र	-2021
▁साफा	-2022
▁एसेबो	-2023
▁नोंबो	-2024
▁गावजों	-2025
▁थामहिन	-2026
▁फार्से	-2027
▁गामियाव	-2028
▁गोसोजों	-2029
▁जेरावबो	-2030
▁बिनाराम	-2031
▁बुंनायसै	-2032
खम	-2033
टार	-2034
ुमि	-2035
फ्रु	-2036
बारि	-2037
रामा	-2038
▁आबै	-2039
▁बैस	-2040
ंग्रा	-2041
फ्लां	-2042
▁इनाय	-2043
▁गन्थ	-2044
▁दासो	-2045
▁अजिता	-2046
▁अनाथी	-2047
▁हाबाब	-2048
▁सानस्रि	-2049
▁तितागुरि	-2050
▁थामहिनबा	-2051
▁माइथायाव	-2052
▁मानसिफ्रा	-2053
▁सिखारनानै	-2054
बेन	-2055
खौसो	-2056
बाबो	-2057
ार्च	-2058
▁प्ल	-2059
▁बिथ	-2060
▁राह	-2061
▁इयुन	-2062
▁गोथै	-2063
▁दाबि	-2064
▁बिथा	-2065
▁आंखाल	-2066
▁खानाइ	-2067
▁बिगुर	-2068
▁सोद्र	-2069
▁सोरखौ	-2070
▁हाजेव	-2071
▁मावनाय	-2072
▁थियेटार	-2073
▁P	-2074
ind	-2075
न्स	-2076
्रेस	-2077
▁गाइ	-2078
▁गेट	-2079
▁ग्र	-2080
▁खुसि	-2081
▁गोजा	-2082
फोराबो	-2083
▁अरुना	-2084
▁जाथार	-2085
▁दिल्ल	-2086
▁खोनानो	-2087
▁बादियै	-2088
▁बिथाङा	-2089
▁समायना	-2090
▁साबसिन	-2091
▁खालामगोन	-2092
▁इन्दिस्री	-2093
▁2008	-2094
पी	-2095
प्र	-2096
लें	-2097
▁खेव	-2098
▁होब	-2099
ग्लाय	-2100
मोनहा	-2101
▁रोङा	-2102
▁स्रि	-2103
जानानै	-2104
▁जोंहा	-2105
▁मोनफा	-2106
▁सोरां	-2107
▁खुगायाव	-2108
▁मन्जुनि	-2109
▁आथिखालाव	-2110
▁आलाइस्रिया	-2111
टे	-2112
गुर	-2113
लास	-2114
▁पे	-2115
▁एम्	-2116
▁निम	-2117
▁फाफ	-2118
लियाव	-2119
लेण्ड	-2120
▁जाबो	-2121
▁सहेन	-2122
▁हरनि	-2123
▁जायनि	-2124
▁जोंनो	-2125
▁बावनो	-2126
▁सुफुं	-2127
▁जेरैबो	-2128
▁नायहरो	-2129
▁रंजालि	-2130
▁जेसेबां	-2131
▁दिन्थिनाय	-2132
द्	-2133
ने	-2134
▁I	-2135
▁2.	-2136
ङाखै	-2137
▁आदै	-2138
▁साज	-2139
द्राय	-2140
ाजासे	-2141
ायाखै	-2142
्लानि	-2143
▁खनसे	-2144
▁खलथा	-2145
▁गुसु	-2146
खांबाय	-2147
सालिनि	-2148
▁एंगार	-2149
▁गोजान	-2150
▁थेफेन	-2151
▁साननो	-2152
▁खिन्था	-2153
▁थेलेफा	-2154
▁फाग्लि	-2155
▁माब्रै	-2156
▁मुस्री	-2157
▁मेब्ला	-2158
▁हादरनि	-2159
▁ब्रह्मनि	-2160
िक	-2161
▁w	-2162
बाद	-2163
िस्	-2164
खोमा	-2165
थारा	-2166
▁खुन	-2167
▁गोल	-2168
▁जां	-2169
▁नेम	-2170
▁लाउ	-2171
▁शंक	-2172
▁सिब	-2173
▁सेव	-2174
हायनो	-2175
▁टेबि	-2176
▁दोन्	-2177
▁माखौ	-2178
▁एरैनो	-2179
▁कासार	-2180
▁जेकेट	-2181
▁थांदो	-2182
▁प्रेम	-2183
▁देरसिन	-2184
▁बुब्लि	-2185
▁सासेया	-2186
▁गारनानै	-2187
▁रामनाथा	-2188
▁हादोरनि	-2189
▁माहाजोननि	-2190
रं	-2191
▁ऐ	-2192
द्र	-2193
नसो	-2194
होम	-2195
▁डे	-2196
खुरै	-2197
गासे	-2198
थिङै	-2199
ब्लि	-2200
वाबो	-2201
स्ला	-2202
▁माल	-2203
बिजिर	-2204
राझार	-2205
▁गोदै	-2206
▁बिनह	-2207
▁मंगल	-2208
▁अननाय	-2209
▁थुलुं	-2210
▁बोराइ	-2211
▁रावआव	-2212
▁सिखाव	-2213
▁प्रेमध	-2214
▁फिसाया	-2215
▁बिखानि	-2216
▁बेखेवग	-2217
▁समबारु	-2218
गिरिफोरा	-2219
▁खालामना	-2220
▁थाइलालि	-2221
▁फालांगि	-2222
▁होनायनि	-2223
▁जायोब्ला	-2224
te	-2225
इन	-2226
के	-2227
क्ष	-2228
ङाइ	-2229
ाथा	-2230
िसन	-2231
▁थर	-2232
▁the	-2233
▁थोर	-2234
▁ब्ल	-2235
▁हरो	-2236
▁हाइ	-2237
दायाव	-2238
लायनो	-2239
▁जायै	-2240
▁बिदै	-2241
▁मोनथाम	-2242
▁मोनाबि	-2243
▁रागाजों	-2244
▁सोदोबनि	-2245
▁नागिरदों	-2246
▁खामानियाव	-2247
nd	-2248
माव	-2249
▁15	-2250
ंखार	-2251
▁अबं	-2252
▁खेर	-2253
▁होआ	-2254
ख्राव	-2255
ाहारि	-2256
ेबानि	-2257
▁खोन्	-2258
▁गाम्	-2259
हरनानै	-2260
▁फैफिन	-2261
▁सालिस	-2262
▁हाथाइ	-2263
▁दावराव	-2264
▁थानायनि	-2265
▁बबेखानि	-2266
▁बावदिया	-2267
▁मुलुगनि	-2268
▁सानैजों	-2269
िरो	-2270
▁फज	-2271
उनाव	-2272
फानो	-2273
लाइन	-2274
ल्ला	-2275
सिगौ	-2276
्लिक	-2277
▁फाद	-2278
▁सिथ	-2279
ानाया	-2280
▁थाङा	-2281
▁बिजि	-2282
▁मेले	-2283
▁लाङो	-2284
▁हरनो	-2285
ोनायाव	-2286
▁गोथां	-2287
▁हाबाय	-2288
▁खनसाया	-2289
▁थांदों	-2290
▁बादिनो	-2291
▁अदेबानि	-2292
▁गैयामोन	-2293
▁खालामनायनि	-2294
ic	-2295
टर	-2296
▁c	-2297
▁p	-2298
खेर	-2299
भार	-2300
ाखि	-2301
▁मख	-2302
श्री	-2303
्रें	-2304
▁नरे	-2305
▁हनै	-2306
▁हमो	-2307
फ्राव	-2308
▁Wind	-2309
▁जुनै	-2310
▁बन्द	-2311
▁नखरनि	-2312
▁फैगोन	-2313
▁लांनो	-2314
▁नागिरो	-2315
▁बुंगोन	-2316
▁मलेनखौ	-2317
▁रैखाथि	-2318
▁आखाइयाव	-2319
▁थानायाव	-2320
▁दासिमबो	-2321
▁खामानिखौ	-2322
▁लाबोनानै	-2323
▁हाबाफारि	-2324
▁हारिमु	-2325
le	-2326
शा	-2327
▁D	-2328
▁t	-2329
थुन	-2330
बुं	-2331
मले	-2332
र्ट	-2333
लखौ	-2334
िनि	-2335
▁एव	-2336
यैनो	-2337
ुमार	-2338
▁आदब	-2339
▁गुन	-2340
▁सुख	-2341
खादों	-2342
ालागै	-2343
▁थिङै	-2344
▁बाला	-2345
▁बिबो	-2346
▁थादों	-2347
▁बेसेन	-2348
▁बोनाय	-2349
▁Window	-2350
▁गोख्रै	-2351
▁दाहोना	-2352
▁बोसोरनि	-2353
▁दिन्थियो	-2354
▁मोनदोंमोन	-2355
्ब	-2356
▁M	-2357
▁m	-2358
थेर	-2359
ोमै	-2360
▁12	-2361
▁खब	-2362
लाम्	-2363
▁उजि	-2364
▁गले	-2365
▁बाब	-2366
जाथाव	-2367
स्लाब	-2368
ाबादि	-2369
▁खाना	-2370
▁जुजि	-2371
▁बांग	-2372
▁समान	-2373
▁सैथो	-2374
▁सैमा	-2375
▁हाबि	-2376
नायमोन	-2377
▁हरखाब	-2378
▁अब्राम	-2379
▁गावबुर	-2380
▁मानोबा	-2381
▁रामोन्	-2382
▁लांबाय	-2383
▁बसुमतारी	-2384
▁8	-2385
ुटि	-2386
▁जाद	-2387
ग्राम	-2388
फुनाय	-2389
मोनखौ	-2390
▁ओजों	-2391
▁फालि	-2392
▁रोजा	-2393
▁जिल्ल	-2394
▁सिस्ट	-2395
.......	-2396
▁बोहैथि	-2397
▁माहारि	-2398
▁रावजों	-2399
▁गसंनानै	-2400
▁गाग्लोब	-2401
▁दोर्सोन	-2402
▁फिसार्च	-2403
▁लामाजों	-2404
▁फिसाजोखौ	-2405
▁होदोंमोन	-2406
▁थुनलाइनि	-2407
ंनि	-2408
▁बथ	-2409
▁लं	-2410
ङाबो	-2411
रांग	-2412
▁दुग	-2413
▁दुब	-2414
▁नाइ	-2415
ग्रां	-2416
न्टार	-2417
ागिरि	-2418
▁ओनसो	-2419
▁दहाय	-2420
▁मासे	-2421
▁सिया	-2422
▁खायफा	-2423
▁गिदिद	-2424
▁जानां	-2425
▁रांखौ	-2426
▁होमबा	-2427
▁बान्था	-2428
▁मोनाखै	-2429
▁थुंग्रि	-2430
▁थादोंमोन	-2431
▁फावथायाव	-2432
▁मोननायनि	-2433
सानि	-2434
ol	-2435
चि	-2436
फाद	-2437
हुर	-2438
▁एब	-2439
▁गौ	-2440
वाखै	-2441
▁दार	-2442
▁राद	-2443
▁रोन	-2444
▁लोर	-2445
▁अरखि	-2446
▁अलका	-2447
▁फालो	-2448
न्नानै	-2449
्रायाव	-2450
▁जिराद	-2451
▁दायनि	-2452
▁खावलाय	-2453
▁खौरांग	-2454
▁दुखुनि	-2455
▁देरहाग	-2456
▁मानोथो	-2457
▁सानराइ	-2458
▁बिफाननि	-2459
▁बेखायनो	-2460
▁हेंथायै	-2461
▁गुन्दाया	-2462
▁नायजाबनि	-2463
▁माहारिनि	-2464
▁सोरगिदिं	-2465
▁सानसेखालि	-2466
जुल	-2467
लिं	-2468
▁काम	-2469
▁दाग	-2470
▁बाम	-2471
▁मुस	-2472
▁ष्ट	-2473
बायदि	-2474
▁अरुन	-2475
▁गाबा	-2476
▁गैला	-2477
▁गोबा	-2478
▁जोंर	-2479
गिरिनि	-2480
▁इन्दु	-2481
▁गन्थं	-2482
▁बावदि	-2483
▁बिदाय	-2484
▁महनला	-2485
▁सिबाय	-2486
▁गिनानै	-2487
▁गोर्बो	-2488
▁दोननाय	-2489
▁मुंराय	-2490
▁मेगननि	-2491
▁अब्लाबो	-2492
▁जांख्रि	-2493
▁जाथाइनि	-2494
▁थुलुंगा	-2495
▁दिनैसिम	-2496
▁गोग्लैयो	-2497
▁सेंग्राया	-2498
खौल	-2499
सेल	-2500
हाव	-2501
ालु	-2502
ग्रि	-2503
लाखौ	-2504
▁आलो	-2505
▁कर्	-2506
▁दाद	-2507
जोबनो	-2508
▁गाबै	-2509
▁थाला	-2510
▁दाहा	-2511
▁दिहु	-2512
▁मावो	-2513
▁आदाया	-2514
▁आफाया	-2515
▁खानाय	-2516
▁अनलाइन	-2517
▁दिल्ली	-2518
▁नांगोन	-2519
▁फिसानि	-2520
▁बिमाखौ	-2521
▁बोरैबा	-2522
▁मलेननि	-2523
▁मोनलाय	-2524
▁हाबाया	-2525
▁फावथिना	-2526
▁सिनायथि	-2527
▁माइथायनि	-2528
▁गेजेरावनो	-2529
il	-2530
▁>	-2531
▁फट	-2532
▁हय	-2533
होयो	-2534
ार्ड	-2535
ावबो	-2536
्लां	-2537
▁जाम	-2538
▁फसं	-2539
▁मोग	-2540
▁थाहै	-2541
▁फाइल	-2542
थारदों	-2543
▁जोबथा	-2544
▁मादाव	-2545
फ्रामबो	-2546
हाबनानै	-2547
▁खानानै	-2548
▁मिथिंग	-2549
▁मिन्थि	-2550
▁होन्ना	-2551
▁गोजौवाव	-2552
▁बुंहरबाय	-2553
▁जारिमिनारि	-2554
त्	-2555
▁य	-2556
आरि	-2557
क्त	-2558
स्व	-2559
हुम	-2560
▁11	-2561
▁18	-2562
▁बद	-2563
्राक	-2564
▁केस	-2565
▁दोह	-2566
▁बोख	-2567
▁मिर	-2568
▁में	-2569
▁सरक	-2570
स्लाय	-2571
▁ओंथि	-2572
▁जाना	-2573
▁दरबा	-2574
▁बेदि	-2575
▁लान्	-2576
▁अजयनि	-2577
▁आखुनि	-2578
▁गियान	-2579
▁जाथों	-2580
▁जैबोर	-2581
▁दंफां	-2582
▁दाहार	-2583
▁फारनै	-2584
▁फेलें	-2585
▁होखार	-2586
▁इंख्रि	-2587
▁निमाहा	-2588
▁बिफाया	-2589
▁हारिया	-2590
▁बिलिफां	-2591
▁होनब्ला	-2592
▁सोद्रोमा	-2593
st	-2594
ड़	-2595
▁b	-2596
ाथे	-2597
▁20	-2598
▁दल	-2599
▁हौ	-2600
फैनो	-2601
ुराम	-2602
▁एखन	-2603
▁रेब	-2604
▁जोला	-2605
▁बानु	-2606
▁बुरै	-2607
▁मैगं	-2608
▁रावा	-2609
नायानो	-2610
लाम्फा	-2611
▁जोंथि	-2612
▁दैखां	-2613
▁बाराय	-2614
▁बिसार	-2615
▁मुंखौ	-2616
▁मोनहा	-2617
▁रांनि	-2618
▁सिगार	-2619
▁अजितनि	-2620
▁कलेजाव	-2621
▁गाइखेर	-2622
▁लांगोन	-2623
▁लोंनाय	-2624
▁ककराझार	-2625
▁गावखौनो	-2626
▁जानायाव	-2627
▁थिउरिया	-2628
▁राइजोखौ	-2629
▁सायाराम	-2630
▁हाजेवनि	-2631
▁हारसिङै	-2632
▁बाहागोआव	-2633
▁हार्सिङै	-2634
फोरनिफ्राय	-2635
खुम	-2636
दनि	-2637
दाउ	-2638
दाख	-2639
▁सफ	-2640
खिनि	-2641
फेना	-2642
सेनो	-2643
▁उदु	-2644
▁गुम	-2645
▁नाल	-2646
▁बिगि	-2647
ायावनो	-2648
▁ट्राइ	-2649
▁फोनां	-2650
▁फोसाब	-2651
▁बिजों	-2652
▁बेराय	-2653
▁सिंनि	-2654
▁स्रां	-2655
▁खालामा	-2656
▁गेब्ला	-2657
▁हारिखौ	-2658
▁सिस्टेम	-2659
▁बेबादिनो	-2660
▁मोन्नानै	-2661
▁नायहरनानै	-2662
नु	-2663
▁d	-2664
आबो	-2665
▁एक	-2666
▁गब	-2667
▁फर	-2668
खायै	-2669
▁रबि	-2670
▁लुब	-2671
जाबाय	-2672
फिननो	-2673
ैयाखै	-2674
▁क्ला	-2675
▁खुरै	-2676
▁जिनि	-2677
▁बिथि	-2678
▁बोरो	-2679
▁हजों	-2680
▁हास्	-2681
फानानै	-2682
▁नुनाय	-2683
▁बिथोन	-2684
▁मोदाइ	-2685
▁लोंनो	-2686
▁साथाम	-2687
▁सोनाब	-2688
▁हेमले	-2689
▁थाब्ला	-2690
▁थेफेना	-2691
▁दाखालि	-2692
▁दिनैनि	-2693
▁देहाखौ	-2694
▁नंलिया	-2695
▁नुजाथि	-2696
▁रायज्ल	-2697
▁बिनहारी	-2698
▁बेयावनो	-2699
▁सान्दों	-2700
▁सुशान्त	-2701
.........	-2702
▁नायबिजिर	-2703
it	-2704
मै	-2705
ग्ल	-2706
टनि	-2707
लाम	-2708
स्त	-2709
ाजो	-2710
▁अस	-2711
सिखौ	-2712
ाराव	-2713
ेटिं	-2714
▁जयो	-2715
▁जाल	-2716
▁नाम	-2717
▁नेह	-2718
▁साद	-2719
न्नाय	-2720
हरनाय	-2721
▁डिस्	-2722
▁रोङै	-2723
▁सिमा	-2724
▁सुमि	-2725
▁गोहोम	-2726
▁दाननि	-2727
▁देरहा	-2728
▁दोंसे	-2729
▁गावथार	-2730
▁गोदोनि	-2731
▁बान्दि	-2732
▁बैसोनि	-2733
▁खौरांखौ	-2734
▁मावग्रा	-2735
▁सोरनिबा	-2736
▁ट्राइबेल	-2737
इं	-2738
नखौ	-2739
पीय	-2740
ाथै	-2741
ोङै	-2742
▁3.	-2743
▁?'	-2744
न्दे	-2745
यारी	-2746
▁198	-2747
▁आयं	-2748
▁दुम	-2749
▁रोङ	-2750
खाबाय	-2751
दांखा	-2752
योमोन	-2753
लाबाय	-2754
▁एबसु	-2755
▁खौसे	-2756
▁हाला	-2757
फ्राबो	-2758
सोनानै	-2759
ानायनि	-2760
▁ओरैनो	-2761
▁फुंनि	-2762
▁स्कुल	-2763
▁फिसाखौ	-2764
▁लाबोनो	-2765
▁होननाय	-2766
▁खाफालाव	-2767
▁थांब्ला	-2768
▁दोननानै	-2769
▁मोनब्ला	-2770
▁हाबलाङो	-2771
▁जानांगोन	-2772
▁थाङोब्ला	-2773
▁प्रग्राम	-2774
▁बिनारामा	-2775
▁लादोंमोन	-2776
▁आलाइस्रिनि	-2777
▁f	-2778
लाउ	-2779
।''	-2780
नारि	-2781
▁जखम	-2782
▁ननि	-2783
▁मटर	-2784
▁जुदि	-2785
▁थांना	-2786
▁बुहुम	-2787
▁जिल्ला	-2788
▁थासारि	-2789
▁मारजित	-2790
▁जानायखौ	-2791
▁जावलिया	-2792
▁रावखौबो	-2793
▁लिरनानै	-2794
▁अपारेटिं	-2795
▁इराग्दावा	-2796
▁जिरायनानै	-2797
ed	-2798
फौ	-2799
थें	-2800
▁गग	-2801
थानि	-2802
याखै	-2803
सुलि	-2804
▁काप	-2805
ग्राय	-2806
हैदों	-2807
होदों	-2808
ांग्र	-2809
ान्दै	-2810
▁अन्द	-2811
▁गैयि	-2812
▁थगाय	-2813
▁थबेन	-2814
▁दावग	-2815
फारिया	-2816
▁आंलाय	-2817
▁खालार	-2818
▁गिलिर	-2819
▁थैबाय	-2820
▁बिमाय	-2821
▁इन्टार	-2822
▁नोंजों	-2823
▁सरलाया	-2824
▁माबाफोर	-2825
▁नोंसोरनि	-2826
▁बोहैथिया	-2827
गे	-2828
गोम	-2829
सखौ	-2830
▁रौ	-2831
थायो	-2832
रिनि	-2833
वानो	-2834
हरनो	-2835
▁असम	-2836
▁आंथ	-2837
▁ड्र	-2838
▁थिख	-2839
▁धोन	-2840
▁फाख	-2841
▁रमा	-2842
▁संग	-2843
▁सम्	-2844
▁गसाइ	-2845
▁जुलि	-2846
▁ब्रै	-2847
▁रुपा	-2848
▁सायख	-2849
फोरानो	-2850
स्रिया	-2851
्राझार	-2852
▁फादोर	-2853
▁बबेबा	-2854
▁बेसाद	-2855
▁मैदेर	-2856
▁रादाब	-2857
▁रेन्ज	-2858
लांनानै	-2859
▁आखुथाय	-2860
▁दंबावो	-2861
▁बिसिखौ	-2862
▁लोब्बा	-2863
▁ओंखायनो	-2864
▁नांनानै	-2865
▁बाहायनो	-2866
▁मोन्दों	-2867
▁सिगारेट	-2868
▁खामानिया	-2869
▁बिनिफ्राय	-2870
▁सानदोंमोन	-2871
▁माब्लाबानो	-2872
ct	-2873
ष्	-2874
▁h	-2875
मेन	-2876
म्ब	-2877
▁डज	-2878
▁रज	-2879
सुमै	-2880
▁असे	-2881
▁खोब	-2882
▁गाम	-2883
▁बेम	-2884
▁राख	-2885
▁सुन	-2886
बोबाय	-2887
▁जाहो	-2888
▁फंसे	-2889
▁बिलो	-2890
▁बेबो	-2891
▁हुरा	-2892
हालागै	-2893
हैनानै	-2894
▁गुफुर	-2895
▁जिवाव	-2896
▁बिबुं	-2897
▁बेराम	-2898
▁रासिन	-2899
▁हायाव	-2900
खांनायनि	-2901
▁खोनाबाय	-2902
▁फरायनाय	-2903
▁हाबायाव	-2904
▁हावरिया	-2905
▁गैयाब्ला	-2906
▁जालांबाय	-2907
▁मुंदांखा	-2908
▁खुगानिफ्राय	-2909
उन	-2910
दब	-2911
श्व	-2912
सिख	-2913
▁एइ	-2914
ग्लि	-2915
वानि	-2916
▁कार	-2917
▁खनै	-2918
▁दुइ	-2919
▁रजि	-2920
गोनां	-2921
मेन्ट	-2922
▁खनले	-2923
▁दाला	-2924
▁फैदो	-2925
▁बानज	-2926
▁लाना	-2927
▁सन्थ	-2928
▁सालि	-2929
▁हरबि	-2930
िनांगौ	-2931
▁.....	-2932
▁गस्ला	-2933
▁बुंथि	-2934
ाब्लानो	-2935
▁अखाफोर	-2936
▁गोर्लै	-2937
▁चन्द्र	-2938
▁जाथाया	-2939
▁नांनाय	-2940
▁मावफुं	-2941
▁जोंथिखौ	-2942
▁दौनांगौ	-2943
▁लांनानै	-2944
▁संसाराव	-2945
▁सिलागां	-2946
▁हांखोनि	-2947
▁सोलोंथाइ	-2948
▁हिन्जावनि	-2949
▁गोग्लैनानै	-2950
ेज	-2951
▁,	-2952
▁H	-2953
our	-2954
दाम	-2955
बाथ	-2956
ाइस	-2957
▁(2	-2958
▁सन	-2959
स्नि	-2960
▁केर	-2961
▁दास	-2962
▁नाथ	-2963
▁माख	-2964
▁लाह	-2965
खांनो	-2966
ासिनो	-2967
▁अक्ट	-2968
▁इसोर	-2969
▁नैथि	-2970
▁स्नि	-2971
▁हाखु	-2972
ाजानाय	-2973
▁खुदुम	-2974
▁जाजोब	-2975
▁थामथि	-2976
▁फोथार	-2977
▁बिहाव	-2978
▁माइरं	-2979
▁मोनाम	-2980
▁मोब्ल	-2981
▁आखाइनि	-2982
▁बिफाखौ	-2983
▁हांख्र	-2984
▁गोनांथि	-2985
▁फोरमायो	-2986
▁बेफोरनि	-2987
▁मावनानै	-2988
▁जिनाहारि	-2989
▁जिल्लानि	-2990
▁सुजुग्राया	-2991
आइ	-2992
ख्रं	-2993
ङारि	-2994
जायै	-2995
नैनि	-2996
बनाय	-2997
▁खबर	-2998
▁थिर	-2999
▁थोन	-3000
▁पाब	-3001
▁पास	-3002
जादों	-3003
रन्जन	-3004
▁खान्	-3005
▁जिबौ	-3006
▁दुगै	-3007
▁लायै	-3008
बोनानै	-3009
▁आसारि	-3010
▁गिनाय	-3011
▁फैमाल	-3012
▁रन्जन	-3013
▁लाहार	-3014
▁हाबफै	-3015
▁खुदिया	-3016
▁बेलासि	-3017
▁आनारीया	-3018
▁बाग्दाव	-3019
▁बुंबावो	-3020
▁बेखेवगा	-3021
▁राइजोआव	-3022
▁लख्राया	-3023
▁सान्नाय	-3024
▁ओंखारबाय	-3025
▁मोनाखिसै	-3026
▁दैदेनगिरि	-3027
▁दिनैनिफ्राय	-3028
टिस	-3029
पति	-3030
ेमा	-3031
▁कन	-3032
▁गम	-3033
▁भि	-3034
न्था	-3035
फिसा	-3036
्नाय	-3037
▁जात	-3038
▁दुप	-3039
▁मेम	-3040
▁मेर	-3041
ंगिरि	-3042
न्देल	-3043
याराव	-3044
वावनो	-3045
हैनाय	-3046
▁आगोर	-3047
▁एसेल	-3048
▁गथाय	-3049
▁जुरि	-3050
▁थारै	-3051
▁दोनथ	-3052
▁मिरु	-3053
▁रुजु	-3054
▁सुबु	-3055
▁सोरख	-3056
▁होसो	-3057
▁आन्दा	-3058
▁खनसाय	-3059
▁गावबा	-3060
▁पार्ट	-3061
▁बिबाय	-3062
▁मनजुल	-3063
▁रंफाल	-3064
▁हरबाय	-3065
▁अरायबो	-3066
▁इंराजी	-3067
▁लाबोयो	-3068
▁थैनायनि	-3069
▁बिथिङाव	-3070
▁हेलाराम	-3071
▁बिलिफांनि	-3072
आर	-3073
ग्	-3074
सी	-3075
सौ	-3076
डार	-3077
त्त	-3078
नाद	-3079
प्ल	-3080
▁दब	-3081
▁आया	-3082
▁कमि	-3083
▁थिं	-3084
▁रुग	-3085
थायनो	-3086
सिङाव	-3087
ायानो	-3088
ालानो	-3089
▁अनजि	-3090
▁आमाइ	-3091
▁जोमै	-3092
▁दैमा	-3093
▁मुङै	-3094
थायारि	-3095
थारगोन	-3096
▁आफादा	-3097
▁गोमोर	-3098
▁बांला	-3099
▁मावरि	-3100
▁मिनिट	-3101
▁लायनो	-3102
▁सिलाइ	-3103
▁हमदों	-3104
निख्रुइ	-3105
फोरखौबो	-3106
▁आथिङाव	-3107
▁गाननाय	-3108
▁जानाया	-3109
▁फरायनो	-3110
▁मोखाङा	-3111
▁बिजाबखौ	-3112
▁रामोन्दा	-3113
▁गावबुराया	-3114
▁बेरखांदों	-3115
▁खालामनांगौ	-3116
▁नाजादोंमोन	-3117
▁मानसिफोरखौ	-3118
**	-3119
णी	-3120
नी	-3121
000	-3122
जुर	-3123
▁4.	-3124
▁बख	-3125
ङासै	-3126
द्रि	-3127
ार्क	-3128
िनां	-3129
▁आगो	-3130
▁आबु	-3131
▁खिर	-3132
▁गेर	-3133
▁थेर	-3134
▁दर्	-3135
▁दुर	-3136
▁द्र	-3137
▁लेब	-3138
▁हले	-3139
▁हाउ	-3140
नाथाय	-3141
न्दों	-3142
▁जोहै	-3143
▁दमना	-3144
▁महरा	-3145
▁रावै	-3146
▁होदो	-3147
फिन्नो	-3148
बावबाय	-3149
▁अनसाय	-3150
▁खावसे	-3151
▁थावनि	-3152
▁नखराव	-3153
▁नङाना	-3154
▁नुदों	-3155
▁बोसोन	-3156
▁महरखौ	-3157
▁रोंगौ	-3158
▁साबाय	-3159
▁उनावसो	-3160
▁ओंखारो	-3161
▁खाथिनि	-3162
▁गेवलां	-3163
▁थारैनो	-3164
▁थुलुंग	-3165
▁दुपसाव	-3166
▁दुब्लि	-3167
▁दोनथुम	-3168
▁फाफ्लि	-3169
▁रुवाथि	-3170
▁लाइफां	-3171
▁लासैनो	-3172
▁सहायनो	-3173
▁गोसोयाव	-3174
▁जाथायखौ	-3175
▁थानांगौ	-3176
▁नाजादों	-3177
▁बानायसो	-3178
▁लाबोनाय	-3179
▁लुबैनाय	-3180
▁इन्दुप्र	-3181
▁ओंखारनाय	-3182
नायनिफ्राय	-3183
▁नागिरनानै	-3184
▁सानफ्रोमबो	-3185
ve	-3186
जाह	-3187
न्ड	-3188
ेना	-3189
खायो	-3190
्रिक	-3191
▁ओरै	-3192
▁जुग	-3193
▁दंख	-3194
▁फुन	-3195
▁बुद	-3196
▁साख	-3197
ation	-3198
▁गेदे	-3199
▁मारि	-3200
▁मेने	-3201
▁सुनि	-3202
▁सौफै	-3203
वारीया	-3204
▁आखुवा	-3205
▁ज्राम	-3206
▁दैथाय	-3207
▁दैयाव	-3208
▁फोथां	-3209
▁बुथुम	-3210
▁मावथि	-3211
▁राफोद	-3212
▁सन्दे	-3213
▁सेक्स	-3214
नायबादि	-3215
▁उन्दुग	-3216
▁बानजाय	-3217
▁सुनानै	-3218
▁हान्जा	-3219
▁उन्दुनो	-3220
▁जाथायनि	-3221
▁बेबायदि	-3222
▁मावरिया	-3223
▁मोखांखौ	-3224
▁हास्थाय	-3225
▁नार्जारी	-3226
▁फिसाजोनि	-3227
▁खालामनायाव	-3228
▁बसुमतारीनि	-3229
▁कम्पिउटारनि	-3230
gu	-3231
▁n	-3232
क्र	-3233
सिब	-3234
्रु	-3235
▁जी	-3236
▁थं	-3237
▁बन	-3238
ख्लि	-3239
थारो	-3240
्रेक	-3241
▁and	-3242
▁इनफ	-3243
▁फेस	-3244
▁बाट	-3245
▁माम	-3246
▁रुप	-3247
▁सरा	-3248
▁सर्	-3249
▁इण्ड	-3250
▁इसिं	-3251
▁घन्ट	-3252
▁दोनो	-3253
▁नाङै	-3254
▁ब्ला	-3255
जोबबाय	-3256
बायमोन	-3257
▁उथ्रि	-3258
▁कुमार	-3259
▁फांथे	-3260
▁मोदाय	-3261
▁सोनार	-3262
▁हरदों	-3263
जोबनानै	-3264
ाबालानो	-3265
▁असमीया	-3266
▁आरतिया	-3267
▁जाम्बि	-3268
▁फारियै	-3269
▁महाराज	-3270
▁मोखाङै	-3271
▁मोन्नै	-3272
▁लोरबां	-3273
▁पाब्लिक	-3274
▁बायनानै	-3275
▁बुंजायो	-3276
▁फोरमायथि	-3277
▁मिनिनानै	-3278
▁राइजोफोर	-3279
▁लाइफांनि	-3280
▁सिख्लाया	-3281
..........	-3282
▁सिंनिफ्राय	-3283
',	-3284
at	-3285
कत	-3286
च्	-3287
छा	-3288
ज्	-3289
दी	-3290
पे	-3291
बै	-3292
िब	-3293
दोर	-3294
बिस	-3295
होर	-3296
ेटा	-3297
्टि	-3298
▁बृ	-3299
द्ला	-3300
▁थाह	-3301
▁सिफ	-3302
ग्राब	-3303
थिजों	-3304
रेष्ट	-3305
ुवाया	-3306
ोनाया	-3307
▁अमला	-3308
▁गिलु	-3309
▁गोनो	-3310
▁जथुम	-3311
▁नंला	-3312
▁बाथौ	-3313
▁होफै	-3314
ग्रानि	-3315
▁गोलोम	-3316
▁थाबनो	-3317
▁दाबसे	-3318
▁बिलिर	-3319
▁लागोन	-3320
ारिफोरा	-3321
▁खिन्थि	-3322
▁गोदानै	-3323
▁थाबैनो	-3324
▁देहानि	-3325
▁बयनिबो	-3326
▁बेखौबो	-3327
▁मुगानि	-3328
▁मेम्बर	-3329
▁लाइमोन	-3330
▁हांगार	-3331
▁गोमजोरै	-3332
▁नेर्सोन	-3333
▁मासियाव	-3334
▁मोनजाया	-3335
▁सोदोबखौ	-3336
ग्राफोरनि	-3337
▁ओंखारलां	-3338
▁फरायसालि	-3339
▁फावथाइखौ	-3340
▁फोथायनाय	-3341
▁साखाथियाव	-3342
▁सानफ्रामबो	-3343
'।	-3344
ac	-3345
▁{	-3346
▁16	-3347
▁अग	-3348
▁एप	-3349
आलाइ	-3350
दाखु	-3351
ालाम	-3352
▁डाः	-3353
▁थिग	-3354
▁माउ	-3355
▁समा	-3356
▁सुइ	-3357
ंगुबै	-3358
ननानै	-3359
▁उननि	-3360
▁एक्स	-3361
▁खोला	-3362
▁ग्री	-3363
▁जागौ	-3364
▁नाङो	-3365
▁बोयो	-3366
फिनगोन	-3367
ाग्राब	-3368
▁अख्रा	-3369
▁आफानि	-3370
▁गोगोम	-3371
▁बोरमा	-3372
▁लिंहर	-3373
▁समाया	-3374
▁सालाय	-3375
बारखालि	-3376
▁ओंथिया	-3377
▁गाबनाय	-3378
▁थाग्रा	-3379
▁थियारि	-3380
▁दरजाखौ	-3381
▁नाजायो	-3382
▁बिहोमा	-3383
▁बोनानै	-3384
▁मिनियो	-3385
▁मोब्लि	-3386
▁रंफाली	-3387
▁सानथाम	-3388
▁थांदिनि	-3389
▁ददेरेखौ	-3390
▁ददेरेनि	-3391
▁लोंनानै	-3392
▁सिनायनो	-3393
▁कल्पनानि	-3394
▁दावहायाव	-3395
▁प्रेमधरा	-3396
▁मोनाब्ला	-3397
▁हान्जाया	-3398
▁गोदोनायाव	-3399
▁थांखिनानै	-3400
▁थियेटारनि	-3401
▁बाथ्रायाव	-3402
▁मानसिफोरनि	-3403
▁B	-3404
ʼ।"	-3405
आनो	-3406
देम	-3407
बुर	-3408
म्प	-3409
रखौ	-3410
ल्ड	-3411
वार	-3412
वाल	-3413
हुं	-3414
ावो	-3415
बायो	-3416
ब्दि	-3417
▁(1)	-3418
▁(2)	-3419
▁एसि	-3420
▁थाफ	-3421
▁बास	-3422
▁साग	-3423
ायैनो	-3424
▁आखाय	-3425
▁कन्ट	-3426
▁कलिं	-3427
▁गारा	-3428
▁डेभि	-3429
▁नैबे	-3430
▁लाया	-3431
▁लैथो	-3432
▁सिलि	-3433
▁सुजु	-3434
▁हानो	-3435
▁इनफरम	-3436
▁खोमोर	-3437
▁गोमोन	-3438
▁प्रसे	-3439
▁मेगना	-3440
▁मैहुर	-3441
▁मोसाह	-3442
▁सिथार	-3443
▁सोंनो	-3444
फिननानै	-3445
▁अजितखौ	-3446
▁अन्नाय	-3447
▁खोन्दो	-3448
▁गंस्रि	-3449
▁गावराव	-3450
▁बेरेखा	-3451
▁राजाया	-3452
▁लामाखौ	-3453
▁लामानि	-3454
▁संख्रि	-3455
▁सैबारी	-3456
▁हरनानै	-3457
▁गाबनानै	-3458
▁जोंरुवा	-3459
▁दुखुजों	-3460
▁देग्लाय	-3461
▁बिग्राय	-3462
▁बिफांनि	-3463
▁गोजोननाय	-3464
▁जिरायनाय	-3465
▁शान्तिनि	-3466
▁सिख्लानि	-3467
▁ओंखारनानै	-3468
as	-3469
ec	-3470
ot	-3471
फी	-3472
▁L	-3473
ing	-3474
ुरी	-3475
▁..	-3476
▁14	-3477
▁23	-3478
ख्लं	-3479
ज्रा	-3480
टिनि	-3481
डिया	-3482
बोनो	-3483
राजा	-3484
▁गरम	-3485
▁थाङ	-3486
▁दाइ	-3487
▁बुज	-3488
▁सेब	-3489
▁हरा	-3490
थारगौ	-3491
लायखो	-3492
सानजा	-3493
▁खाजा	-3494
▁गंनै	-3495
▁जारौ	-3496
▁जुदा	-3497
▁दन्द	-3498
▁बारि	-3499
याब्ला	-3500
▁आलादा	-3501
▁जाथाव	-3502
▁थैनाय	-3503
▁देगार	-3504
▁नम्बर	-3505
▁समानै	-3506
▁हरनाय	-3507
▁हाथाय	-3508
▁......	-3509
▁आखाइखौ	-3510
▁खथायाव	-3511
▁थोंजों	-3512
▁बिबारि	-3513
▁मोनदां	-3514
▁मोनसेल	-3515
▁लुबैया	-3516
▁सोंनाय	-3517
▁आखाइजों	-3518
▁पुलिसनि	-3519
▁बिगियान	-3520
▁लानायनि	-3521
▁होन्नाय	-3522
▁गाम्बारि	-3523
▁फैदोंमोन	-3524
▁बाथ्रानि	-3525
▁मुलाम्फा	-3526
▁बाहायनानै	-3527
▁बिनिखायनो	-3528
▁मोनफ्रोमबो	-3529
3)	-3530
?"	-3531
ro	-3532
कु	-3533
वै	-3534
सर	-3535
▁R	-3536
ent	-3537
त्य	-3538
िरा	-3539
्रल	-3540
▁13	-3541
▁in	-3542
▁खफ	-3543
▁नी	-3544
▁।"	-3545
दाहा	-3546
नंगौ	-3547
ब्ले	-3548
सारि	-3549
हायै	-3550
ाथार	-3551
ारखौ	-3552
▁आरि	-3553
▁टाइ	-3554
▁फुल	-3555
▁बाउ	-3556
▁रुं	-3557
▁सेक	-3558
जोंनि	-3559
यावबो	-3560
स्थार	-3561
▁गासे	-3562
▁जासि	-3563
▁थबसि	-3564
▁थिसन	-3565
▁दैनि	-3566
▁नुहर	-3567
▁माला	-3568
▁सिखा	-3569
▁होना	-3570
▁होबथ	-3571
ग्राया	-3572
नांदों	-3573
▁अनारि	-3574
▁आंनाव	-3575
▁नङाबा	-3576
▁बुंना	-3577
▁मेलेम	-3578
▁शंकरा	-3579
▁स्रें	-3580
जोब्बाय	-3581
▁गोराया	-3582
▁फंसेबो	-3583
▁फैयाखै	-3584
▁मनजुवा	-3585
▁सन्देह	-3586
▁होब्ला	-3587
▁इन्टारन	-3588
▁गाहायनि	-3589
▁गुबुननि	-3590
▁निफ्राय	-3591
▁बाख्नाय	-3592
▁बेरखाङो	-3593
▁बोरायनि	-3594
▁लाबोदों	-3595
▁सोदोबथि	-3596
लांदोंमोन	-3597
▁एफाग्राब	-3598
▁गोबानानै	-3599
▁जायाखिसै	-3600
▁जांख्रिथाइ	-3601
ri	-3602
लं	-3603
आदा	-3604
जुन	-3605
फाम	-3606
▁24	-3607
▁25	-3608
▁अह	-3609
▁जग	-3610
खराव	-3611
जालि	-3612
नाखौ	-3613
फाथै	-3614
बिफा	-3615
वाला	-3616
सान्	-3617
स्लि	-3618
▁आर्	-3619
▁खाब	-3620
▁जिं	-3621
▁थुं	-3622
▁दाथ	-3623
▁फाइ	-3624
▁बथल	-3625
▁बेथ	-3626
▁भकत	-3627
▁मनि	-3628
▁रेल	-3629
फोदाव	-3630
होबाय	-3631
▁जान्	-3632
▁जिवा	-3633
▁दरखं	-3634
▁दरजा	-3635
▁नन्द	-3636
▁प्रि	-3637
▁बङाइ	-3638
▁माना	-3639
▁मिलि	-3640
खांदों	-3641
नांबाय	-3642
बावदों	-3643
▁आखलखौ	-3644
▁गोथाव	-3645
▁जागाय	-3646
▁ट्राक	-3647
▁महराव	-3648
▁मोनबा	-3649
▁रोजाब	-3650
▁सेरनि	-3651
▁हानजा	-3652
ायोब्ला	-3653
▁अफिसाव	-3654
▁आग्रां	-3655
▁माइगाब	-3656
▁लांदां	-3657
▁लांनाय	-3658
▁समाजाव	-3659
▁जौगाखां	-3660
▁नायब्ला	-3661
▁महनलाला	-3662
▁मोब्लिब	-3663
▁रावनिबो	-3664
▁साबायखर	-3665
▁हांखोखौ	-3666
▁होनायाव	-3667
▁गाखोनानै	-3668
▁गावसोरनि	-3669
▁नागिरनाय	-3670
▁मीनारामा	-3671
▁दिखांनानै	-3672
▁मोन्नायनि	-3673
▁लिरगिरिया	-3674
▁दिन्थिनानै	-3675
▁मेगननिफ्राय	-3676
आब	-3677
की	-3678
ये	-3679
▁G	-3680
टखौ	-3681
दुर	-3682
नाइ	-3683
रेन	-3684
लिद	-3685
▁22	-3686
▁इस	-3687
▁कै	-3688
▁चे	-3689
▁रह	-3690
,000	-3691
नाङा	-3692
न्दै	-3693
फेरा	-3694
लासा	-3695
साखौ	-3696
▁उल्	-3697
▁गंग	-3698
▁फ्र	-3699
▁मुग	-3700
▁मेल	-3701
▁सना	-3702
ंग्रि	-3703
फारसे	-3704
सायाव	-3705
हालाय	-3706
▁आइयै	-3707
▁आसार	-3708
▁इउनि	-3709
▁जोलै	-3710
▁दैया	-3711
▁बुंस	-3712
▁रमाय	-3713
▁रान्	-3714
▁सैया	-3715
▁स्रा	-3716
जेननाय	-3717
फेराखै	-3718
▁अलकेश	-3719
▁गरन्थ	-3720
▁जिनिस	-3721
▁जोबोत	-3722
▁डाक्ट	-3723
▁थाथों	-3724
▁नेहाथ	-3725
▁फोरजा	-3726
▁बुजाय	-3727
▁बोरसि	-3728
▁सरासन	-3729
▁सानथौ	-3730
▁सानाय	-3731
▁अफिसार	-3732
▁जाउनाव	-3733
▁जाम्बा	-3734
▁जाहाथे	-3735
▁थान्दै	-3736
▁आन्दाया	-3737
▁खुगाजों	-3738
▁धोरोमनि	-3739
▁फिसाइनि	-3740
▁बिखायनो	-3741
▁सिलाराम	-3742
▁थायोब्ला	-3743
▁देरहासार	-3744
▁फारसेथिं	-3745
▁रंजालिया	-3746
▁लोमजानाय	-3747
▁हायोब्ला	-3748
▁हिन्जावा	-3749
▁गोग्लैनाय	-3750
▁दायनिगिरि	-3751
▁फाफ्लियाव	-3752
▁फावथिनानि	-3753
▁खालामदोंमोन	-3754
▁देरहाग्राया	-3755
▁उसु	-3756
▁मुलु	-3757
he	-3758
▁;	-3759
▁y	-3760
▁छ	-3761
▁झ	-3762
खाइ	-3763
खुर	-3764
गाँ	-3765
बान	-3766
बिन	-3767
लाद	-3768
लाब	-3769
▁to	-3770
▁आप	-3771
▁कल	-3772
▁या	-3773
▁सब	-3774
गुरि	-3775
मासु	-3776
लानो	-3777
ानां	-3778
ेश्व	-3779
्रोब	-3780
▁अनु	-3781
▁आगु	-3782
▁इन्	-3783
▁डाइ	-3784
▁थुब	-3785
▁हयथ	-3786
खांना	-3787
ख्रुब	-3788
थ्रोद	-3789
बाथाय	-3790
ष्टार	-3791
▁आबाद	-3792
▁आमाय	-3793
▁गुदु	-3794
▁गुलि	-3795
▁दानस	-3796
▁देरग	-3797
▁नोङो	-3798
▁फुजि	-3799
▁साबि	-3800
▁सारि	-3801
▁हालो	-3802
गाब्रै	-3803
जारोङै	-3804
मागिरि	-3805
स्रिनि	-3806
ानांगौ	-3807
▁गालां	-3808
▁गुसुं	-3809
▁दाफोद	-3810
▁निजोम	-3811
▁बामुन	-3812
▁रायजो	-3813
गायनानै	-3814
▁अन्थाइ	-3815
▁खोथाया	-3816
▁गारिखौ	-3817
▁जोबनाय	-3818
▁बिगोमा	-3819
▁माबादि	-3820
▁मोन्नो	-3821
▁सोरखार	-3822
▁हालिया	-3823
▁होफैयो	-3824
▁अनिमाया	-3825
▁जोंनानै	-3826
▁बारनानै	-3827
▁बुजिबाय	-3828
▁मोदोमनि	-3829
▁सावख्लि	-3830
▁इनफरमेसन	-3831
▁एसेयावनो	-3832
▁गुन्दाखौ	-3833
▁मानसिजों	-3834
▁होनांगोन	-3835
▁.........	-3836
▁खाथियावनो	-3837
▁जाखांनानै	-3838
▁मिथिंगानि	-3839
▁हिन्जावखौ	-3840
▁फावथाइगिरि	-3841
▁सान्दोंमोन	-3842
▁कम्पिउटारखौ	-3843
▁फरायसालियाव	-3844
"।	-3845
घा	-3846
▁E	-3847
▁N	-3848
ess	-3849
ंखा	-3850
आरो	-3851
काव	-3852
नेल	-3853
न्त	-3854
फाह	-3855
मुं	-3856
साल	-3857
सोल	-3858
ुबि	-3859
▁17	-3860
▁21	-3861
▁5.	-3862
▁is	-3863
▁अफ	-3864
▁गन	-3865
▁बं	-3866
▁।।	-3867
...।	-3868
क्टर	-3869
गोरा	-3870
बाया	-3871
वारि	-3872
सोनि	-3873
हेना	-3874
ादार	-3875
्लाइ	-3876
▁(19	-3877
▁(3)	-3878
▁औवा	-3879
▁दैम	-3880
ख्रुय	-3881
जाजों	-3882
जोंसो	-3883
थायखौ	-3884
न्त्र	-3885
ाथीया	-3886
ोब्रा	-3887
▁आइनि	-3888
▁ख्रे	-3889
▁थांग	-3890
▁थागि	-3891
▁नायै	-3892
▁बुङै	-3893
▁ब्लद	-3894
▁भुटि	-3895
▁मानै	-3896
▁रिंग	-3897
▁लक्ष	-3898
▁लोङो	-3899
सानराय	-3900
्लायाव	-3901
▁आखुखौ	-3902
▁आबुङै	-3903
▁गारनो	-3904
▁गावबो	-3905
▁गिलास	-3906
▁गिलुं	-3907
▁गुमुर	-3908
▁गोजाव	-3909
▁जोंबो	-3910
▁जोंरु	-3911
▁थाखोम	-3912
▁दाबुं	-3913
▁नाजाव	-3914
▁बामोन	-3915
▁बाहेर	-3916
▁बुदार	-3917
▁बोखार	-3918
▁लिरनो	-3919
▁सौग्र	-3920
▁हाथार	-3921
▁अलकाया	-3922
▁आसामाव	-3923
▁गुबैयै	-3924
▁गोहोखौ	-3925
▁जात्रा	-3926
▁जालाङो	-3927
▁दिनैबो	-3928
▁दैमानि	-3929
▁नुवाखै	-3930
▁बारान्	-3931
▁सिलानि	-3932
▁होग्रा	-3933
▁थानायखौ	-3934
▁दिहुननो	-3935
▁बिसोरनो	-3936
▁बिसोरबो	-3937
▁मेगनजों	-3938
▁कल्पनाखौ	-3939
▁सुबुंसाइ	-3940
▁सोलायनाय	-3941
▁हांख्राय	-3942
▁दैखांनानै	-3943
▁फोरोंगिरि	-3944
▁बांसिनानो	-3945
▁मावफारिया	-3946
▁रावखान्थि	-3947
▁सुबुंफोरा	-3948
▁सुशान्तवा	-3949
डा	-3950
लद	-3951
---	-3952
नङा	-3953
बाज	-3954
लार	-3955
ोनि	-3956
▁ओइ	-3957
▁बट	-3958
दोबा	-3959
नैया	-3960
▁---	-3961
▁क्ल	-3962
▁नाङ	-3963
▁भुट	-3964
▁मेड	-3965
▁सफै	-3966
नावनो	-3967
फादों	-3968
स्रेम	-3969
ाबानो	-3970
ाब्रा	-3971
▁आजाव	-3972
▁गदाय	-3973
▁गियो	-3974
▁गोखा	-3975
▁गोसा	-3976
▁जाफु	-3977
▁थाना	-3978
▁दान्	-3979
▁बेदद	-3980
एसेयाव	-3981
नानैबो	-3982
फिननाय	-3983
स्रायै	-3984
▁अनसुं	-3985
▁अनुले	-3986
▁आइजोआ	-3987
▁गाबनो	-3988
▁गोलाउ	-3989
▁घन्टा	-3990
▁थायनै	-3991
▁थिनहर	-3992
▁दमननि	-3993
▁दैथुन	-3994
▁नांनो	-3995
▁फुदुं	-3996
▁फैलाव	-3997
▁बाजार	-3998
▁महरनि	-3999
▁रुमनि	-4000
▁रोनाव	-4001
▁स्रोद	-4002
▁अनसुला	-4003
▁अफिसनि	-4004
▁उदैयाव	-4005
▁गाबदों	-4006
▁गारिनि	-4007
▁गावस्र	-4008
▁गोजोनै	-4009
▁दोनदों	-4010
▁दोनबाय	-4011
▁बांगाल	-4012
▁बानानै	-4013
▁बेमारि	-4014
▁भारतनि	-4015
▁रान्दि	-4016
▁हमथानो	-4017
▁होलाङो	-4018
लायनायाव	-4019
▁अब्लासो	-4020
▁एखनब्ला	-4021
▁खैफोदाव	-4022
▁गावबुरा	-4023
▁जागौमोन	-4024
▁लख्रानि	-4025
▁सानथ्रि	-4026
▁सिगांनि	-4027
▁आथिखालनि	-4028
▁खिन्थानो	-4029
▁जाथाइजों	-4030
▁तुलारामा	-4031
▁ब्रह्मवा	-4032
▁सेक्सपीय	-4033
▁हादोंमोन	-4034
▁गोजांस्रि	-4035
जिनि	-4036
गय	-4037
ली	-4038
ुत	-4039
ोल	-4040
▁ई	-4041
जाम	-4042
टिं	-4043
टिभ	-4044
तखौ	-4045
▁)।	-4046
▁{-	-4047
▁अप	-4048
▁गद	-4049
▁जल	-4050
▁नख	-4051
▁रथ	-4052
कल्प	-4053
खरनि	-4054
ज्लि	-4055
टारि	-4056
न्नो	-4057
वाया	-4058
सानै	-4059
ार्स	-4060
्रिं	-4061
्रेद	-4062
▁खाइ	-4063
▁खाल	-4064
▁दाल	-4065
▁नङै	-4066
▁भुग	-4067
▁भुम	-4068
▁लिभ	-4069
थोंसै	-4070
ेश्वर	-4071
▁आहार	-4072
▁गसङो	-4073
▁दंना	-4074
▁दाका	-4075
▁दोलो	-4076
▁नुवा	-4077
▁नोंथ	-4078
▁फाथो	-4079
▁मादि	-4080
▁लांग	-4081
▁सेना	-4082
▁हानि	-4083
न्थिया	-4084
बिफानि	-4085
स्रीया	-4086
ोनांगौ	-4087
▁गोरिब	-4088
▁जाबाव	-4089
▁थ्रोब	-4090
▁दर्बा	-4091
▁दसेनि	-4092
▁निदान	-4093
▁फाराग	-4094
▁बैसाग	-4095
▁साजों	-4096
▁साननि	-4097
▁सोंलु	-4098
खुंग्रि	-4099
ागासिनो	-4100
▁गान्दु	-4101
▁थानाया	-4102
▁दंखायो	-4103
▁नुब्ला	-4104
▁बयखौबो	-4105
▁बादलनि	-4106
▁बुजिनो	-4107
▁बुनानै	-4108
▁बेफ्रु	-4109
▁माइनाव	-4110
▁लांदों	-4111
▁लिरदों	-4112
▁लोगोआव	-4113
▁सियाला	-4114
▁सोमदोन	-4115
▁सोरजों	-4116
▁कासारनि	-4117
▁जेंनाखौ	-4118
▁नायग्रा	-4119
▁बाजुराम	-4120
▁बिबारनि	-4121
▁बुंब्ला	-4122
▁मुगायाव	-4123
▁सेन्देल	-4124
▁हागौमोन	-4125
▁ओंखारदों	-4126
▁कक्राझार	-4127
▁खोनासंनो	-4128
▁जाफुंसार	-4129
▁नुदोंमोन	-4130
▁बाथुवाया	-4131
▁बिदिन्थि	-4132
▁मनजुलाया	-4133
▁नागारनानै	-4134
▁बावदियानि	-4135
▁राइजोफ्रा	-4136
▁इन्दुप्रभा	-4137
▁फाहामसालियाव	-4138
0.	-4139
8.	-4140
od	-4141
us	-4142
उइ	-4143
दौ	-4144
यि	-4145
टाल	-4146
वान	-4147
ेनि	-4148
ेशन	-4149
ैनि	-4150
▁उइ	-4151
▁जर	-4152
▁मत	-4153
नाबो	-4154
मिया	-4155
ाख्र	-4156
ेबुल	-4157
▁अक्	-4158
▁आच्	-4159
▁उखै	-4160
▁गाद	-4161
▁नखौ	-4162
▁पार	-4163
▁पुर	-4164
▁रुव	-4165
▁सुव	-4166
▁स्ल	-4167
खायाव	-4168
लावरि	-4169
▁उसाव	-4170
▁खुलि	-4171
▁खैना	-4172
▁थाबो	-4173
▁थैयो	-4174
▁दंसै	-4175
▁दाबा	-4176
▁दाया	-4177
▁नैजि	-4178
▁बेगर	-4179
▁मारु	-4180
▁रोमै	-4181
▁लाइन	-4182
▁सेथि	-4183
▁सोरब	-4184
नायाबो	-4185
शान्ति	-4186
ाद्राय	-4187
▁आवराय	-4188
▁खुन्द	-4189
▁गोहोआ	-4190
▁जोबनो	-4191
▁टेबिल	-4192
▁दालाइ	-4193
▁दासान	-4194
▁नङालै	-4195
▁नायगि	-4196
▁बायनो	-4197
▁बिबाज	-4198
▁मुसाह	-4199
▁रेजें	-4200
▁सहेना	-4201
▁सालाइ	-4202
▁सिंआव	-4203
▁सुथार	-4204
लेण्डनि	-4205
▁आलाइनि	-4206
▁एबसुनि	-4207
▁जोबबाय	-4208
▁दानसोर	-4209
▁दिनैसो	-4210
▁देहाया	-4211
▁बाहायो	-4212
▁भुटिया	-4213
▁मुंराइ	-4214
▁मोगथां	-4215
▁लुनानै	-4216
▁सिनेमा	-4217
▁सोदोबा	-4218
▁हाजासे	-4219
▁गोनांदि	-4220
▁जाथाइखौ	-4221
▁जायगानि	-4222
▁थांखिया	-4223
▁थालायाव	-4224
▁दोहोरोम	-4225
▁बिलाइखौ	-4226
▁बेन्दों	-4227
▁मिनिनाय	-4228
▁मेनेजार	-4229
▁मोदोमखौ	-4230
▁साग्लोब	-4231
▁साननाया	-4232
▁सान्दुं	-4233
▁सोरखारा	-4234
▁अख्राङाव	-4235
▁गलायनानै	-4236
▁गासैखौबो	-4237
▁नोंसोरखौ	-4238
▁बसुमतारि	-4239
▁बेवहायनो	-4240
▁लानानैनो	-4241
▁सायारामा	-4242
▁सुजुग्रा	-4243
▁सुमिलाया	-4244
▁सोरजिनाय	-4245
▁हगारनानै	-4246
▁दिन्थिदों	-4247
▁हायाखैमोन	-4248
▁फरायसालिनि	-4249
▁बाथ्राखौनो	-4250
▁बिब्दिब्ला	-4251
▁नागिरदोंमोन	-4252
em	-4253
et	-4254
अन	-4255
णा	-4256
दर	-4257
फब	-4258
सल	-4259
हम	-4260
ain	-4261
आखै	-4262
कुम	-4263
खेब	-4264
जाल	-4265
दिन	-4266
देश	-4267
पनि	-4268
रिष	-4269
लिक	-4270
ेबा	-4271
▁30	-4272
▁जन	-4273
▁जब	-4274
▁जय	-4275
▁शि	-4276
▁सय	-4277
उरिय	-4278
ख्लै	-4279
दोना	-4280
हैदो	-4281
िस्ट	-4282
्लाम	-4283
▁आसा	-4284
▁मुख	-4285
▁सेख	-4286
ंगिना	-4287
न्जाद	-4288
ाखालि	-4289
ानिया	-4290
▁एमाव	-4291
▁गाजा	-4292
▁गिया	-4293
▁जथाइ	-4294
▁थैनो	-4295
▁थैया	-4296
▁दखना	-4297
▁बिया	-4298
▁माखन	-4299
▁मावख	-4300
▁मुजु	-4301
▁रुफा	-4302
▁साबु	-4303
▁हरसे	-4304
▁हाखि	-4305
▁हामो	-4306
सान्दो	-4307
ांग्रा	-4308
▁उनथिं	-4309
▁जेनबा	-4310
▁डेभिद	-4311
▁दालाय	-4312
▁देवान	-4313
▁दैजों	-4314
▁नेबाय	-4315
▁फरायो	-4316
▁फुंखा	-4317
▁फोलाव	-4318
▁बबेनि	-4319
▁बहाबा	-4320
▁बेलाय	-4321
▁मेलाव	-4322
▁मोननि	-4323
▁हज्रि	-4324
▁अरायनि	-4325
▁आन्जाद	-4326
▁खास्रि	-4327
▁गिज्रा	-4328
▁गेदेमा	-4329
▁थांलाय	-4330
▁नार्जा	-4331
▁फैसालि	-4332
▁बाबुवा	-4333
▁रोखायै	-4334
▁लोंबाय	-4335
▁सिखारो	-4336
▁सुबुङा	-4337
▁हुगारो	-4338
फिन्नानै	-4339
▁अनाथीया	-4340
▁आवथायाव	-4341
▁दावहानि	-4342
▁फुङावनो	-4343
▁फोजोबनो	-4344
▁बाथ्राय	-4345
▁बुहुमनि	-4346
▁बोसोराव	-4347
▁मन्जुखौ	-4348
▁मोसानाय	-4349
▁एसेग्राब	-4350
▁गुन्दानि	-4351
▁थानांगोन	-4352
▁नायजाबाव	-4353
▁फोरमायनो	-4354
▁मोनाबिलि	-4355
▁हमथानानै	-4356
▁ओंखारबोयो	-4357
▁खालामब्ला	-4358
▁जारिमिनखौ	-4359
▁नङाब्लाबो	-4360
▁बाराद्राय	-4361
▁बिजिरनानै	-4362
▁बिसिनायाव	-4363
▁बुंनायसाय	-4364
▁बेखेवनानै	-4365
▁राइजोफोरा	-4366
▁बारान्दायाव	-4367
ap	-4368
qu	-4369
अर	-4370
गर	-4371
ृत	-4372
्द	-4373
▁ऊ	-4374
--"	-4375
ell	-4376
ord	-4377
ver	-4378
कार	-4379
गिर	-4380
ज्र	-4381
टेल	-4382
र्ड	-4383
लुब	-4384
ल्ट	-4385
सुर	-4386
ुलि	-4387
ेया	-4388
ेला	-4389
▁उर	-4390
▁बम	-4391
आंनि	-4392
फारि	-4393
बारै	-4394
मिनि	-4395
श्रि	-4396
ाथोन	-4397
▁आइक	-4398
▁आलु	-4399
▁खथा	-4400
▁देब	-4401
▁नुज	-4402
▁फाथ	-4403
▁फाय	-4404
▁बमा	-4405
▁बुध	-4406
▁मेट	-4407
▁सन्	-4408
▁सात	-4409
गावनि	-4410
जासिम	-4411
रेक्ट	-4412
हैगोन	-4413
▁कैला	-4414
▁गाबख	-4415
▁गोगो	-4416
▁गोमा	-4417
▁जेना	-4418
▁जोङो	-4419
▁नारे	-4420
▁नोंस	-4421
▁बेंग	-4422
▁मोगा	-4423
▁हुदा	-4424
▁होयै	-4425
जबनानै	-4426
फिनदों	-4427
योब्ला	-4428
लायदों	-4429
सिख्ला	-4430
ानायाव	-4431
▁अबंला	-4432
▁आखलनि	-4433
▁खिरखि	-4434
▁गाम्ब	-4435
▁गिथाव	-4436
▁गिलिद	-4437
▁ग्रीम	-4438
▁जाहार	-4439
▁थालां	-4440
▁दस्रा	-4441
▁नुथाय	-4442
▁नोंथा	-4443
▁फुङाव	-4444
▁बिजाम	-4445
▁रजिया	-4446
▁सानजौ	-4447
▁सिमान	-4448
▁हिसाब	-4449
थाबनानै	-4450
▁कलेजनि	-4451
▁खनायाव	-4452
▁गोहोनि	-4453
▁जान्जि	-4454
▁जोबथार	-4455
▁टाउनाव	-4456
▁दाद्रि	-4457
▁नेरसोन	-4458
▁बारहुं	-4459
▁बुंहरो	-4460
▁लामाया	-4461
▁सानैनि	-4462
लांनायनि	-4463
▁.......	-4464
▁खेवनानै	-4465
▁दाखालाम	-4466
▁निस्थार	-4467
▁फावथाया	-4468
▁फोथाराव	-4469
▁बायदियै	-4470
▁बिबानखौ	-4471
▁मावरिजा	-4472
▁मोनब्रै	-4473
▁लाजिनाय	-4474
▁संसारनि	-4475
▁साननैसो	-4476
▁सायावनो	-4477
▁सेनापति	-4478
▁दिहुननाय	-4479
▁नायहरबाय	-4480
▁मुस्रिमा	-4481
▁सोरबाफोर	-4482
▁इन्टारनेट	-4483
▁खालामनाया	-4484
▁बानजायनाय	-4485
▁सानाखैमोन	-4486
▁सिगाङावनो	-4487
▁हादोरगिरि	-4488
▁हुगारनानै	-4489
▁आलाइस्रिखौ	-4490
▁बेखेवगास्नि	-4491
▁फावथाइगिरिया	-4492
",	-4493
''	-4494
4)	-4495
id	-4496
si	-4497
जर	-4498
लौ	-4499
वो	-4500
▁O	-4501
ate	-4502
आफा	-4503
खुन	-4504
थिर	-4505
फुल	-4506
माइ	-4507
येल	-4508
लिय	-4509
ाहर	-4510
ेरि	-4511
▁50	-4512
▁अट	-4513
▁आज	-4514
▁नब	-4515
▁नौ	-4516
▁पज	-4517
ंखां	-4518
गुरी	-4519
थिनो	-4520
फाला	-4521
बासो	-4522
ब्रि	-4523
सायख	-4524
हावा	-4525
ान्द	-4526
िस्त	-4527
▁मथे	-4528
▁मोख	-4529
▁रहे	-4530
▁सिग	-4531
थाइनि	-4532
पुरनि	-4533
फ्लाय	-4534
स्रोम	-4535
▁आदार	-4536
▁खासि	-4537
▁खुनु	-4538
▁खेंख	-4539
▁गिनो	-4540
▁गुजु	-4541
▁गोथे	-4542
▁जाखा	-4543
▁जिंग	-4544
▁जेखौ	-4545
▁थैखौ	-4546
▁दावा	-4547
▁परिष	-4548
▁बाथि	-4549
▁बेंक	-4550
▁बेंख	-4551
▁रमेन	-4552
▁लिरो	-4553
▁सुरो	-4554
▁हमथा	-4555
▁हमना	-4556
▁हामा	-4557
नोंथां	-4558
लोंनाय	-4559
ामोननि	-4560
▁खेबनै	-4561
▁गाबनि	-4562
▁गाराय	-4563
▁टेबुल	-4564
▁थांखो	-4565
▁दायखौ	-4566
▁दोननो	-4567
▁नालाय	-4568
▁फोरबो	-4569
▁बेंगा	-4570
▁बेजों	-4571
▁ब्लाउ	-4572
▁मागोन	-4573
▁सुदेम	-4574
▁हमनाय	-4575
फोरखौनो	-4576
▁अरखिया	-4577
▁आफादाव	-4578
▁आलाइखौ	-4579
▁गोबारै	-4580
▁फरेष्ट	-4581
▁फिननाय	-4582
▁फेस्ला	-4583
▁बाखनाय	-4584
▁बाख्रि	-4585
▁बायनाय	-4586
▁बिसिनि	-4587
▁माइथाय	-4588
▁मुलिखौ	-4589
▁सान्नो	-4590
▁साफ्रा	-4591
▁सावथाल	-4592
▁आवगायाव	-4593
▁गिनांगौ	-4594
▁गोमोथाव	-4595
▁ग्रीमउइ	-4596
▁टेबिलाव	-4597
▁नोंसिनि	-4598
▁फिसाइखौ	-4599
▁बुंफिनो	-4600
▁बुंलाङो	-4601
▁मोजांनि	-4602
▁मोननाया	-4603
▁मोनसेया	-4604
▁सुरनानै	-4605
▁सोंखारि	-4606
▁स्कुलाव	-4607
▁हानायनि	-4608
▁गोनांथार	-4609
▁जालांदों	-4610
▁जोबस्रां	-4611
▁थासान्दि	-4612
▁बिजिरनाय	-4613
▁बुंनांगौ	-4614
▁मावनायनि	-4615
▁नोंथांमोन	-4616
▁लिरगिरिनि	-4617
▁सोलायनानै	-4618
▁बसुमतारीया	-4619
▁राइजोफोरनि	-4620
ber	-4621
am	-4622
ay	-4623
आन	-4624
ram	-4625
गान	-4626
जाइ	-4627
नाम	-4628
पुट	-4629
रेट	-4630
वेर	-4631
ष्ण	-4632
सां	-4633
साम	-4634
ैसो	-4635
्लो	-4636
खागौ	-4637
गाँव	-4638
गाया	-4639
थावा	-4640
दुखु	-4641
नाङो	-4642
नोनो	-4643
फिना	-4644
बेबा	-4645
स्ति	-4646
▁असि	-4647
▁ओहो	-4648
▁कंग	-4649
▁ख्र	-4650
▁नुब	-4651
ख्रेब	-4652
ख्लाब	-4653
ख्लाय	-4654
जुनाद	-4655
थामसो	-4656
दांनो	-4657
ोब्ला	-4658
▁आगदा	-4659
▁आनान	-4660
▁कम्प	-4661
▁गंफा	-4662
▁जासे	-4663
▁जिबा	-4664
▁दाइन	-4665
▁फाफि	-4666
▁मुसु	-4667
▁लागो	-4668
▁समखौ	-4669
▁सोर्	-4670
ब्लासो	-4671
लांगोन	-4672
▁आच्छा	-4673
▁एखनबा	-4674
▁एम्फौ	-4675
▁गांनै	-4676
▁गाथाम	-4677
▁गाथोन	-4678
▁गोरबो	-4679
▁ड्रइं	-4680
▁थानां	-4681
▁दानसे	-4682
▁नालिस	-4683
▁बिखुं	-4684
▁बिमाइ	-4685
▁लेङाइ	-4686
▁सानजा	-4687
▁सासेल	-4688
▁असमिया	-4689
▁आंहाबो	-4690
▁किउरिय	-4691
▁खारखोम	-4692
▁खोख्लै	-4693
▁जोमैया	-4694
▁थागिबि	-4695
▁दामनाय	-4696
▁नंगुबै	-4697
▁नायगोन	-4698
▁बिख्लो	-4699
▁बिगुमै	-4700
▁बिसायख	-4701
▁बुङाखै	-4702
▁मावदों	-4703
▁मोनसिं	-4704
▁रबिबार	-4705
▁सानहाब	-4706
▁साब्रै	-4707
▁सारिनि	-4708
▁सिलाया	-4709
▁सेनानै	-4710
▁हाद्रि	-4711
▁हिन्दु	-4712
▁होम्बा	-4713
आलाइस्रि	-4714
बोदोंमोन	-4715
▁गेजेरनि	-4716
▁जेकेटखौ	-4717
▁थिलियाव	-4718
▁दोन्नाय	-4719
▁नुजागोन	-4720
▁बारियाव	-4721
▁बिजामाद	-4722
▁बेलायाव	-4723
▁मिहिरनि	-4724
▁राहाजों	-4725
▁लानांगौ	-4726
▁सिगांआव	-4727
▁होनायसै	-4728
▁खामानिनि	-4729
▁गारांजों	-4730
▁डाइरेक्ट	-4731
▁थांनायाव	-4732
▁नेहाथारि	-4733
▁नोंथांखौ	-4734
▁मोखांजों	-4735
▁मोन्नाया	-4736
▁हान्जानि	-4737
▁हेलारामा	-4738
▁जायखिजाया	-4739
▁थांदोंमोन	-4740
▁बेखेवगानै	-4741
...........	-4742
▁खालामबावनो	-4743
▁मोनाबिलियाव	-4744
▁सरासनस्रायै	-4745
,-	-4746
1.	-4747
30	-4748
5.	-4749
आद	-4750
सय	-4751
▁Y	-4752
ugu	-4753
टाव	-4754
दिम	-4755
पाल	-4756
बना	-4757
मखौ	-4758
माब	-4759
मेट	-4760
यिं	-4761
रोम	-4762
र्स	-4763
हरा	-4764
हाम	-4765
्या	-4766
▁-"	-4767
▁लख	-4768
▁हक	-4769
क्ति	-4770
गिबि	-4771
ग्री	-4772
ङैनो	-4773
ज्ला	-4774
दाङा	-4775
फुरि	-4776
ब्रु	-4777
ब्रे	-4778
भानि	-4779
मेना	-4780
रेना	-4781
ार्भ	-4782
ाहाय	-4783
▁197	-4784
▁थफी	-4785
▁दिउ	-4786
▁पाक	-4787
▁मिस	-4788
▁मुर	-4789
ugust	-4790
नाजों	-4791
ाइनिं	-4792
ुंगुर	-4793
▁आगसि	-4794
▁गाड़	-4795
▁गानै	-4796
▁गाला	-4797
▁गुस्	-4798
▁थाखा	-4799
▁थादो	-4800
▁दालि	-4801
▁दैमु	-4802
▁नुना	-4803
▁फुजा	-4804
▁फुथु	-4805
▁महना	-4806
▁मुगा	-4807
▁मुहि	-4808
▁राणी	-4809
▁लारि	-4810
▁हासु	-4811
खानानै	-4812
जाग्रा	-4813
जोबदों	-4814
बिब्दि	-4815
▁आद्रा	-4816
▁एम्बु	-4817
▁कामाख	-4818
▁क्लास	-4819
▁गोजों	-4820
▁जामार	-4821
▁डाक्त	-4822
▁थफ्ला	-4823
▁थेख्र	-4824
▁दिखार	-4825
▁नरेशा	-4826
▁फाहार	-4827
▁बादाय	-4828
▁बिगोम	-4829
▁हायेन	-4830
मोनब्ला	-4831
स्रांनो	-4832
▁August	-4833
▁अक्टबर	-4834
▁अखानाय	-4835
▁केरानि	-4836
▁जानोसै	-4837
▁जाहोनो	-4838
▁जोंनाव	-4839
▁थालानि	-4840
▁दांनाय	-4841
▁दानानै	-4842
▁दुंहाव	-4843
▁नायनाय	-4844
▁पुलिसा	-4845
▁बबेयाव	-4846
▁बान्दो	-4847
▁बिसिया	-4848
▁मनजुनि	-4849
▁मिथियो	-4850
▁मोदैखौ	-4851
▁संगालि	-4852
▁सासेनि	-4853
▁सासेबो	-4854
▁सोंदों	-4855
▁हादराव	-4856
▁हामबाय	-4857
▁आनारामा	-4858
▁आनारीखौ	-4859
▁ओंखारबो	-4860
▁कमिटिनि	-4861
▁खोमायाव	-4862
▁गोदाननि	-4863
▁गोसोवाव	-4864
▁जाथोंसै	-4865
▁जासिगोन	-4866
▁जाहोनाव	-4867
▁दानायाव	-4868
▁दाफोदार	-4869
▁नागिरनो	-4870
▁नोगोराव	-4871
▁बाजियाव	-4872
▁बिथांखि	-4873
▁बोथोरनि	-4874
▁मुंख्लं	-4875
▁लुबैदों	-4876
▁सानजौफु	-4877
▁सुफुंनो	-4878
▁हमनायसै	-4879
▁अनसुंथाइ	-4880
▁जाब्लानो	-4881
▁थुनलायाव	-4882
▁दासान्दि	-4883
▁फरायनानै	-4884
▁फोसावनाय	-4885
▁बिसोरजों	-4886
▁मावनांगौ	-4887
▁मिथिनानै	-4888
▁मोजाङैनो	-4889
▁रैखाथिनि	-4890
▁शान्तिखौ	-4891
▁साइकेलखौ	-4892
▁बेलस्रिया	-4893
▁बेसेबांबा	-4894
▁महाराजानि	-4895
▁मोनलायनाय	-4896
▁रांखान्थि	-4897
▁रायलायनाय	-4898
▁कम्पिउटारा	-4899
▁गैयाब्लाबो	-4900
▁बबेनिफ्राय	-4901
▁सेक्सपीयेर	-4902
▁आखाइनिफ्राय	-4903
▁बाथ्राफोरखौ	-4904
6.	-4905
li	-4906
आय	-4907
चल	-4908
जन	-4909
जै	-4910
टक	-4911
भु	-4912
सब	-4913
▁F	-4914
उनि	-4915
खोन	-4916
टेक	-4917
भेट	-4918
र्म	-4919
सेर	-4920
▁6.	-4921
▁थग	-4922
क्सा	-4923
खेबस	-4924
गानै	-4925
फिसौ	-4926
बारु	-4927
बाला	-4928
बियो	-4929
राङा	-4930
रासे	-4931
सिनै	-4932
सुखे	-4933
हानि	-4934
हारि	-4935
्लुब	-4936
▁अनो	-4937
▁खना	-4938
▁खाख	-4939
▁नवा	-4940
▁माज	-4941
▁ससे	-4942
खौलाय	-4943
थारला	-4944
नोंनि	-4945
फोनां	-4946
ष्ट्र	-4947
सोमोन	-4948
▁अगेन	-4949
▁अरहे	-4950
▁आंसो	-4951
▁आलाय	-4952
▁कर्ण	-4953
▁खिबु	-4954
▁गेबे	-4955
▁दायो	-4956
▁दासि	-4957
▁नुयै	-4958
▁बाना	-4959
▁बारस	-4960
▁बिखु	-4961
▁बिबु	-4962
▁बोनो	-4963
▁भारा	-4964
▁मादै	-4965
▁साइख	-4966
▁सिफि	-4967
▁स्लि	-4968
▁हायि	-4969
खोमायो	-4970
ङाब्ला	-4971
जोबगोन	-4972
तन्त्र	-4973
थिनानै	-4974
बावगोन	-4975
ब्रैसो	-4976
लायाबो	-4977
स्रिखौ	-4978
▁अन्दर	-4979
▁अमब्र	-4980
▁गायसन	-4981
▁गोदाव	-4982
▁गौथुम	-4983
▁डिस्क	-4984
▁थिरां	-4985
▁दागाब	-4986
▁दानाव	-4987
▁दामोन	-4988
▁नुगोन	-4989
▁नोंसो	-4990
▁प्लेट	-4991
▁बैसोआ	-4992
▁मिथिस	-4993
▁मेडाम	-4994
▁मोनखो	-4995
▁समाजा	-4996
▁सायखं	-4997
▁हामफे	-4998
▁हुजुर	-4999
जानायनि	-5000
▁अलकाखौ	-5001
▁इंराजि	-5002
▁खबरदार	-5003
▁खुंथाइ	-5004
▁जायफोर	-5005
▁दुबफुं	-5006
▁देवानि	-5007
▁नवावनो	-5008
▁नांजाब	-5009
▁नांलाय	-5010
▁नोंनाव	-5011
▁बारसोम	-5012
▁बैसागि	-5013
▁बोब्ला	-5014
▁मुश्री	-5015
▁रांजों	-5016
▁हायैनि	-5017
खादोंमोन	-5018
▁खुन्दुं	-5019
▁गुदियाव	-5020
▁गोबाख्र	-5021
▁जानायसै	-5022
▁थाखायसो	-5023
▁थेफेनखौ	-5024
▁दांनानै	-5025
▁नाजाबाय	-5026
▁भारतारि	-5027
▁मंगलसिं	-5028
▁मलेनजों	-5029
▁मोदैजों	-5030
▁मोब्लाव	-5031
▁समाजारि	-5032
▁सौग्राव	-5033
▁उन्दुनाय	-5034
▁खिन्थायो	-5035
▁गुदुंजों	-5036
▁थांनायनि	-5037
▁दुपसावफा	-5038
▁नायोब्ला	-5039
▁फैगासिनो	-5040
▁बांद्राय	-5041
▁मोननायखौ	-5042
▁सान्नाया	-5043
▁हरबिलासा	-5044
▁हारसिंनो	-5045
▁खौरांगिरि	-5046
▁दाजाबदाखौ	-5047
▁दिल्लीयाव	-5048
▁दुर्जांनि	-5049
▁फिसाफोरखौ	-5050
▁मोनब्लाबो	-5051
▁लुबैनायखौ	-5052
▁सिथ्लायाव	-5053
▁हिन्जावसा	-5054
▁इराग्दावनि	-5055
▁गंस्रिनानै	-5056
▁फिसाज्लाखौ	-5057
▁लांगोनायाव	-5058
▁देरहाग्रानि	-5059
2.	-5060
4.	-5061
9.	-5062
:।	-5063
ge	-5064
ङि	-5065
रौ	-5066
▁g	-5067
▁ठ	-5068
ter	-5069
नार	-5070
र्क	-5071
िला	-5072
ोमो	-5073
▁बक	-5074
▁मथ	-5075
गोनो	-5076
गोसो	-5077
फैया	-5078
फ्रि	-5079
बेनि	-5080
मारा	-5081
मोन्	-5082
रिखौ	-5083
सारा	-5084
ांनि	-5085
ृष्ट	-5086
्लुं	-5087
▁अजा	-5088
▁आगर	-5089
▁क्र	-5090
▁जनो	-5091
▁जोर	-5092
▁ज्र	-5093
▁धोर	-5094
▁नेट	-5095
▁फोज	-5096
▁बिद	-5097
▁मथर	-5098
▁मेव	-5099
▁सिद	-5100
▁हिं	-5101
ग्रोन	-5102
ग्रोम	-5103
टेलाव	-5104
न्थाइ	-5105
बायाव	-5106
ल्डिं	-5107
ुरामा	-5108
▁आइया	-5109
▁कर्ट	-5110
▁गावो	-5111
▁गिसि	-5112
▁जाति	-5113
▁जौनि	-5114
▁थब्ल	-5115
▁थिन्	-5116
▁दामै	-5117
▁देरा	-5118
▁फिसि	-5119
▁फैसा	-5120
▁बायो	-5121
▁बासि	-5122
▁बिजा	-5123
▁भ्ला	-5124
▁मन्स	-5125
▁माया	-5126
▁मोथो	-5127
▁संनो	-5128
▁सफ्ट	-5129
▁सुखे	-5130
कल्पना	-5131
ङाखिसै	-5132
हैब्ला	-5133
ाजोंनो	-5134
▁आलुमि	-5135
▁उल्था	-5136
▁खोनास	-5137
▁जोख्ल	-5138
▁थुबुर	-5139
▁दमासु	-5140
▁प्राइ	-5141
▁प्रेस	-5142
▁बुंखो	-5143
▁बुदों	-5144
▁बेलखौ	-5145
▁ब्रेक	-5146
▁मुखुब	-5147
▁रुजुन	-5148
▁सिफाय	-5149
▁सैनाय	-5150
▁हाराम	-5151
नोंथाङा	-5152
▁इनायनो	-5153
▁खुलुमो	-5154
▁गुरैयै	-5155
▁गोजौनि	-5156
▁जोंबाय	-5157
▁दिनैनो	-5158
▁नारसिन	-5159
▁फैब्ला	-5160
▁बारनाय	-5161
▁बिखौनो	-5162
▁बुन्दि	-5163
▁मानिबा	-5164
▁मारुटि	-5165
▁मेंनाय	-5166
▁मोदैया	-5167
▁लोगोनि	-5168
▁सानैया	-5169
▁सानैसो	-5170
▁सेंग्र	-5171
▁सोलायो	-5172
खोमानानै	-5173
▁इन्जिनि	-5174
▁एरैबादि	-5175
▁खानाइखौ	-5176
▁खोथायाव	-5177
▁गाननानै	-5178
▁गोमानाय	-5179
▁जाबावनो	-5180
▁जाबोदों	-5181
▁देहायाव	-5182
▁नांलिया	-5183
▁नोगोरनि	-5184
▁पाकिस्त	-5185
▁बिलाइनि	-5186
▁भ्लादिम	-5187
▁मिथिंगा	-5188
▁मोनखाङो	-5189
▁मोन्दां	-5190
▁लांगोना	-5191
▁सावनानै	-5192
▁सिबिनाय	-5193
▁सिमाङाव	-5194
▁सोरखारि	-5195
▁स्टार्ट	-5196
स्रांनानै	-5197
▁कमाण्डखौ	-5198
▁गामियारि	-5199
▁थारैब्ला	-5200
▁प्रशान्त	-5201
▁मानसिफोर	-5202
▁रायलायनो	-5203
▁हांखोजों	-5204
▁दिहुननानै	-5205
▁नोगोरमानि	-5206
▁फालांगिरि	-5207
▁माब्लाबाबो	-5208
▁माहारियारि	-5209
▁मोन्दोंमोन	-5210
▁ओंखारलांबाय	-5211
▁थासान्दियाव	-5212
-2	-5213
3.	-5214
7.	-5215
se	-5216
ur	-5217
गथ	-5218
जी	-5219
ट्	-5220
धा	-5221
ेद	-5222
▁V	-5223
rag	-5224
आखु	-5225
खोर	-5226
टसे	-5227
तनि	-5228
फाख	-5229
फोन	-5230
मती	-5231
ल्द	-5232
श्र	-5233
सिस	-5234
सेब	-5235
स्थ	-5236
ोबो	-5237
▁एड	-5238
▁कृ	-5239
▁जं	-5240
▁हं	-5241
tive	-5242
खाखौ	-5243
जोला	-5244
दाखौ	-5245
न्दो	-5246
बानि	-5247
यासै	-5248
हाया	-5249
्रेब	-5250
▁अभि	-5251
▁आखा	-5252
▁कमल	-5253
▁खोल	-5254
▁जयै	-5255
▁नील	-5256
▁फेर	-5257
▁बीर	-5258
▁महा	-5259
▁सरख	-5260
▁सुम	-5261
▁सोल	-5262
खैमोन	-5263
गोदान	-5264
जायाव	-5265
नांदि	-5266
सियाव	-5267
स्पीय	-5268
स्राव	-5269
ाखैसै	-5270
ारीखौ	-5271
▁उरां	-5272
▁खरसा	-5273
▁खारो	-5274
▁जथाय	-5275
▁जार्	-5276
▁थाफै	-5277
▁दाना	-5278
▁दारि	-5279
▁दैखौ	-5280
▁नरेश	-5281
▁नाया	-5282
▁नेटव	-5283
▁फिनो	-5284
▁फोथै	-5285
▁बासा	-5286
▁बिला	-5287
▁बुङा	-5288
▁बुनो	-5289
▁बोथि	-5290
▁लरेन	-5291
▁लोङै	-5292
▁सुथि	-5293
▁सेके	-5294
▁सेनो	-5295
ग्रोयो	-5296
जोबनाय	-5297
थिंजाय	-5298
थेनानै	-5299
न्दिया	-5300
स्लाबा	-5301
ांग्रो	-5302
ेन्द्र	-5303
ोनायनि	-5304
▁आग्रा	-5305
▁आसागि	-5306
▁कास्त	-5307
▁किटसे	-5308
▁केसखौ	-5309
▁खोरोम	-5310
▁गंगार	-5311
▁गोरान	-5312
▁गोसार	-5313
▁जोंरू	-5314
▁जोथोन	-5315
▁थाइजा	-5316
▁थाबाव	-5317
▁दोहोन	-5318
▁प्रदि	-5319
▁फेदेर	-5320
▁बोदोर	-5321
▁रुगुं	-5322
▁साजाय	-5323
▁सुनाय	-5324
▁सोदोम	-5325
▁हार्ट	-5326
बिनानाव	-5327
ानांगोन	-5328
▁अनजिमा	-5329
▁अलकानि	-5330
▁उनावबो	-5331
▁खावलाइ	-5332
▁गासिनो	-5333
▁गिख्रं	-5334
▁गोदाना	-5335
▁गोमोयो	-5336
▁गोसोया	-5337
▁जानगार	-5338
▁जोंलाय	-5339
▁दैखाङो	-5340
▁बिनानै	-5341
▁बिसिना	-5342
▁मावगोन	-5343
▁मोदोमा	-5344
▁मोनथाय	-5345
▁मोनैनि	-5346
▁राइजोआ	-5347
▁लाजिया	-5348
▁लोमसाव	-5349
▁साहाखौ	-5350
▁हान्थु	-5351
्लायनानै	-5352
▁आयदायाव	-5353
▁कर्णिया	-5354
▁गोजाननि	-5355
▁गोब्राम	-5356
▁जायगाखौ	-5357
▁जिरायनो	-5358
▁थायोमोन	-5359
▁नायगिरो	-5360
▁बिखुङाव	-5361
▁मेट्रिक	-5362
▁मोनायाव	-5363
▁लेंग्रा	-5364
▁सरकारनि	-5365
▁सानबोला	-5366
▁सिगांनो	-5367
▁सोमबोरा	-5368
▁हाबबोयो	-5369
▁जानायमोन	-5370
▁बानजायनो	-5371
▁बायजोयाव	-5372
▁बाहागोनि	-5373
▁मोननैजों	-5374
▁लाखिनानै	-5375
▁साफ्रासी	-5376
▁सावरायनो	-5377
▁हाबहैबाय	-5378
▁आंनिफ्राय	-5379
▁खालामग्रा	-5380
▁जोहोलावनि	-5381
▁फोथायखेबस	-5382
▁बयनिख्रुइ	-5383
▁मानसियानो	-5384
▁रंजानायनि	-5385
▁लिरदोंमोन	-5386
▁सावगारिया	-5387
▁सोनारनानै	-5388
▁हांगारिया	-5389
▁नार्जारीया	-5390
▁फाहामथायनि	-5391
▁फोरमायनानै	-5392
▁बेखेवगाथाम	-5393
▁फालांगियारि	-5394
▁सेप्तेम्बरखालि	-5395
▁हाराव	-5396
एल	-5397
दम	-5398
धर	-5399
मन	-5400
रै	-5401
▁ढ	-5402
आबौ	-5403
कुर	-5404
खौथ	-5405
गोब	-5406
पाव	-5407
फाग	-5408
बनि	-5409
बाग	-5410
रुम	-5411
लिअ	-5412
ामी	-5413
ुबु	-5414
ुमा	-5415
्मी	-5416
▁ची	-5417
▁नर	-5418
▁र्	-5419
****	-5420
आंबो	-5421
आरसा	-5422
थेयो	-5423
दिनै	-5424
मोगि	-5425
साली	-5426
स्टि	-5427
्याव	-5428
▁!!!	-5429
▁196	-5430
▁199	-5431
▁The	-5432
▁अबि	-5433
▁अरा	-5434
▁उदि	-5435
▁खंख	-5436
▁गाग	-5437
▁जमा	-5438
▁ट्र	-5439
▁नंख	-5440
▁नबे	-5441
▁नाव	-5442
▁नेव	-5443
▁फिर	-5444
▁बोब	-5445
▁भरम	-5446
▁रेक	-5447
▁रेस	-5448
▁लाज	-5449
▁सैब	-5450
▁हमा	-5451
▁हरि	-5452
खाउरि	-5453
खावरि	-5454
न्जुर	-5455
रीयाव	-5456
सिनाव	-5457
▁एराय	-5458
▁खारग	-5459
▁खुदै	-5460
▁गोखै	-5461
▁जाबा	-5462
▁जेथो	-5463
▁जेला	-5464
▁जौवा	-5465
▁टाउन	-5466
▁थाबै	-5467
▁दाहो	-5468
▁दुगा	-5469
▁नोमा	-5470
▁प्रम	-5471
▁फार्	-5472
▁फ्रि	-5473
▁बराय	-5474
▁रहेल	-5475
▁रानि	-5476
▁सप्त	-5477
▁सानज	-5478
▁सेरे	-5479
निखुरै	-5480
न्द्रा	-5481
सालिया	-5482
हाबनाय	-5483
▁खाइला	-5484
▁खेराइ	-5485
▁गाड़ी	-5486
▁चित्त	-5487
▁जाब्र	-5488
▁जावलि	-5489
▁जिङाव	-5490
▁जुथुम	-5491
▁दावला	-5492
▁दिनाव	-5493
▁देनां	-5494
▁नंमार	-5495
▁नुमार	-5496
▁नेहाद	-5497
▁प्रदी	-5498
▁फिदिं	-5499
▁बाज्ल	-5500
▁बावदा	-5501
▁बोराब	-5502
▁मिनिग	-5503
▁साननै	-5504
▁सानबो	-5505
▁सेयार	-5506
▁स्राय	-5507
▁हांसो	-5508
▁हादाब	-5509
▁हालाय	-5510
क्राझार	-5511
ामायैनो	-5512
्लिकेसन	-5513
▁अनसुलि	-5514
▁आथिंखौ	-5515
▁आयदाखौ	-5516
▁उदखारि	-5517
▁खुगाया	-5518
▁खोनानै	-5519
▁गुसुङै	-5520
▁गोदोना	-5521
▁गोमसार	-5522
▁जासुला	-5523
▁थामथिम	-5524
▁थोजासे	-5525
▁दंब्ला	-5526
▁दुखुखौ	-5527
▁नांबाय	-5528
▁नौनारि	-5529
▁बिबाजै	-5530
▁बुरैया	-5531
▁रायदाव	-5532
▁रुवाथी	-5533
▁रैसुमै	-5534
▁रोखोमै	-5535
▁लायाखै	-5536
▁सानगोन	-5537
▁सानराय	-5538
▁हटेलाव	-5539
▁हाजोनि	-5540
▁अब्लानो	-5541
▁ओंखारनो	-5542
▁ओनसोलनि	-5543
▁ओनसोलाव	-5544
▁गान्नाय	-5545
▁गावरावा	-5546
▁गेलेनाय	-5547
▁गैलामोन	-5548
▁गोहोजों	-5549
▁जायोमोन	-5550
▁थानायसै	-5551
▁नबेम्बर	-5552
▁फिसाजोआ	-5553
▁फोलेरनि	-5554
▁बिल्डिं	-5555
▁मानिनां	-5556
▁मोखांनि	-5557
▁मोनग्रा	-5558
▁रुंसारि	-5559
▁सेयाराव	-5560
▁सोंनानै	-5561
▁सोरखौबा	-5562
▁होख्राव	-5563
खांदोंमोन	-5564
▁आलुमिंगि	-5565
▁खावलायाव	-5566
▁गिदिंबाय	-5567
▁थांनांगौ	-5568
▁बानायनाय	-5569
▁बाहायदों	-5570
▁मोब्लावा	-5571
▁रावजोंबो	-5572
▁रिंगायाव	-5573
▁रेन्जारा	-5574
▁सिख्लाखौ	-5575
▁सेकस्पीय	-5576
▁सोदोबजों	-5577
▁हेफाजाबै	-5578
▁होयोब्ला	-5579
▁उन्दुग्रा	-5580
▁दावबायारि	-5581
▁फोजोबनानै	-5582
▁बावदियाया	-5583
▁बेखेवगासे	-5584
▁मोनाखैमोन	-5585
▁सावगारिखौ	-5586
▁हाग्रायाव	-5587
▁..........	-5588
▁खामसालियाव	-5589
▁फोरमायग्रा	-5590
▁बिग्रायारि	-5591
▁रुमनिफ्राय	-5592
दोंमोनब्लाबो	-5593
▁थुनफावथाइनि	-5594
▁बिजिरगिरिया	-5595
▁बेखेवगाब्रै	-5596
▁रायज्लायनाय	-5597
▁समनिफ्रायनो	-5598
▁सेंग्राफ्रा	-5599
▁हाबाफारियाव	-5600
▁सेप्तेम्बराव	-5601
-1	-5602
:-	-5603
OS	-5604
ul	-5605
कट	-5606
जम	-5607
आयै	-5608
ओंख	-5609
ओहो	-5610
खाब	-5611
नेस	-5612
न्च	-5613
न्ध	-5614
बाह	-5615
ागं	-5616
्रो	-5617
्ले	-5618
▁इज	-5619
▁बस	-5620
खाना	-5621
ख्ला	-5622
गैया	-5623
जेबो	-5624
थारै	-5625
पारा	-5626
बिदि	-5627
माबि	-5628
मेदि	-5629
लोगो	-5630
हाबा	-5631
▁अजद	-5632
▁आइन	-5633
▁आरज	-5634
▁कुम	-5635
▁जीउ	-5636
▁दाङ	-5637
▁निद	-5638
▁नुव	-5639
▁पेट	-5640
▁बिल	-5641
▁बेब	-5642
▁वेब	-5643
▁सती	-5644
▁सहर	-5645
▁सिल	-5646
▁सुथ	-5647
▁हरम	-5648
खायसो	-5649
न्दुर	-5650
न्याव	-5651
फादेर	-5652
फाहार	-5653
फोरबो	-5654
बायनो	-5655
बिसोर	-5656
बुथुर	-5657
रियाव	-5658
सारनि	-5659
ान्दा	-5660
ाबाबो	-5661
ुवारि	-5662
▁अदाल	-5663
▁अनाग	-5664
▁आखला	-5665
▁खुबै	-5666
▁खेमा	-5667
▁गब्ल	-5668
▁गोना	-5669
▁गोयै	-5670
▁जिसे	-5671
▁थाजि	-5672
▁दोमै	-5673
▁नम्ब	-5674
▁पलिअ	-5675
▁प्लट	-5676
▁फुरा	-5677
▁बरमा	-5678
▁बर्ड	-5679
▁बिखं	-5680
▁बुरि	-5681
▁ब्रि	-5682
▁मेला	-5683
▁मोनि	-5684
▁राङा	-5685
▁रावआ	-5686
▁रेडि	-5687
▁श्री	-5688
▁सहाय	-5689
▁हालम	-5690
▁हालि	-5691
ङोब्ला	-5692
फ्रानो	-5693
बायानो	-5694
बावनाय	-5695
▁आन्दो	-5696
▁उफ्ले	-5697
▁कामरु	-5698
▁खायनो	-5699
▁खृष्ट	-5700
▁जुनाद	-5701
▁दालां	-5702
▁दावखो	-5703
▁द्रइं	-5704
▁द्लाम	-5705
▁नोंखि	-5706
▁प्रफे	-5707
▁प्रेक	-5708
▁बाइजो	-5709
▁बारनि	-5710
▁बिस्क	-5711
▁बुदुं	-5712
▁बेंगल	-5713
▁मबेबा	-5714
▁माजों	-5715
▁मास्ट	-5716
▁रहेला	-5717
▁लानां	-5718
▁लुनाय	-5719
▁सिखोम	-5720
▁सेरजा	-5721
▁हामला	-5722
▁होनबा	-5723
फिन्नाय	-5724
सेयावबो	-5725
▁अनजालि	-5726
▁आखुथाइ	-5727
▁आयदानि	-5728
▁खोनायो	-5729
▁गसाइया	-5730
▁गोनोखो	-5731
▁गोरानि	-5732
▁थानानि	-5733
▁दाइनिं	-5734
▁दैख्रं	-5735
▁नांदों	-5736
▁नायथिं	-5737
▁नेनानै	-5738
▁पार्टि	-5739
▁पुराना	-5740
▁बाजिनि	-5741
▁बिमायं	-5742
▁मावबाय	-5743
▁मेगनखौ	-5744
▁लांखार	-5745
▁लानाया	-5746
▁सामलाय	-5747
▁हरखाबै	-5748
▁हाखराव	-5749
▁हाबिला	-5750
▁हामबुर	-5751
▁होनाया	-5752
▁हौवासा	-5753
ज्लायनाय	-5754
थारनांगौ	-5755
फैदोंमोन	-5756
फ्लांबाय	-5757
लनिफ्राय	-5758
स्लायनाय	-5759
▁अखानायै	-5760
▁खावनानै	-5761
▁खोमदोना	-5762
▁गोबावनि	-5763
▁नंमारगौ	-5764
▁नागिरना	-5765
▁प्रिन्ट	-5766
▁फुंखाया	-5767
▁बाजाराव	-5768
▁बायदिनो	-5769
▁बावनानै	-5770
▁बुर्लुं	-5771
▁मुंमानि	-5772
▁हमदांनो	-5773
▁खालामाखै	-5774
▁जागासिनो	-5775
▁जाबायमोन	-5776
▁दुखुथिया	-5777
▁नोजोरजों	-5778
▁फारियाया	-5779
▁बारहुंखा	-5780
▁बिदिबादि	-5781
▁बुंनायखौ	-5782
▁बुङाखिसै	-5783
▁बुन्दिया	-5784
▁महनलालनि	-5785
▁मिन्थिया	-5786
▁मोननांगौ	-5787
▁मोनोब्ला	-5788
▁लानांगोन	-5789
▁लिरनायाव	-5790
▁हायाब्ला	-5791
▁एप्लिकेसन	-5792
▁गोग्लैबाय	-5793
▁दाजाबदाया	-5794
▁दिन्थिफुं	-5795
▁नाजानायाव	-5796
▁फाहामसालि	-5797
▁बिजिरगिरि	-5798
▁बिलिफांखौ	-5799
▁बेखेवगाबा	-5800
▁मुवाफोरखौ	-5801
▁मोनसिंसिं	-5802
▁खन्थाइगिरि	-5803
▁जायगायावनो	-5804
▁नोगोरमायाव	-5805
▁बाहायनायखौ	-5806
▁बिथांमोननि	-5807
▁सांग्रांथि	-5808
▁हाबाफारिखौ	-5809
▁हाबाफारिनि	-5810
▁ट्राइबेलफोरनि	-5811
खुथु	-5812
▁जारिमिननि	-5813
gh	-5814
im	-5815
ir	-5816
ru	-5817
कर	-5818
यन	-5819
हं	-5820
▁.	-5821
▁k	-5822
उरी	-5823
ताव	-5824
दाह	-5825
पखौ	-5826
प्ट	-5827
बाल	-5828
मास	-5829
रुण	-5830
लिफ	-5831
सुल	-5832
ासे	-5833
▁26	-5834
▁बौ	-5835
आखाइ	-5836
कजों	-5837
तिया	-5838
थाखौ	-5839
पर्ट	-5840
फ्लि	-5841
बुरा	-5842
रनिं	-5843
स्वर	-5844
हैया	-5845
ित्य	-5846
ेरिक	-5847
▁(4)	-5848
▁com	-5849
▁अलख	-5850
▁इसि	-5851
▁उखु	-5852
▁गयो	-5853
▁गलि	-5854
▁जंख	-5855
▁थुर	-5856
▁देम	-5857
▁फ्ल	-5858
▁बरप	-5859
▁बिट	-5860
▁बेफ	-5861
▁बैर	-5862
▁मंग	-5863
▁लेट	-5864
▁शर्	-5865
▁साथ	-5866
▁स्व	-5867
▁हास	-5868
....।	-5869
ग्लुं	-5870
फाबाय	-5871
फैगोन	-5872
फैलाय	-5873
फोरथि	-5874
बादाव	-5875
मिटार	-5876
▁आंदि	-5877
▁एमफौ	-5878
▁एम्ब	-5879
▁कार्	-5880
▁खाम्	-5881
▁गगल्	-5882
▁गानो	-5883
▁ग्रा	-5884
▁जौखौ	-5885
▁थोनो	-5886
▁दोनै	-5887
▁धोनि	-5888
▁प्रे	-5889
▁ब्रे	-5890
▁मावा	-5891
▁राजि	-5892
▁रोहो	-5893
▁शंकर	-5894
▁साया	-5895
▁सोरा	-5896
▁स्रो	-5897
▁हटेल	-5898
▁हाथर	-5899
▁हैनो	-5900
▁होनै	-5901
टेकटिभ	-5902
थायजों	-5903
मोननाय	-5904
ाग्राफ	-5905
▁अबिना	-5906
▁अरदाब	-5907
▁आगष्ट	-5908
▁आबैया	-5909
▁आब्रा	-5910
▁खिथेर	-5911
▁खेबाव	-5912
▁गसंनो	-5913
▁गांफा	-5914
▁जिबार	-5915
▁थांखु	-5916
▁थाइनै	-5917
▁थाजिम	-5918
▁थैगोन	-5919
▁दंबाव	-5920
▁दङमोन	-5921
▁नरेना	-5922
▁नार्स	-5923
▁नोंगौ	-5924
▁फालाय	-5925
▁फिसाय	-5926
▁बारनो	-5927
▁बाराव	-5928
▁बालाब	-5929
▁बेखौल	-5930
▁बेसोर	-5931
▁मावजि	-5932
▁लाइसि	-5933
▁लुफुं	-5934
▁सानसु	-5935
▁सियाल	-5936
▁सिरां	-5937
▁सोलेर	-5938
▁हाबनो	-5939
▁हाबहै	-5940
▁हायना	-5941
▁हार्ड	-5942
नायावनो	-5943
सोमनानै	-5944
▁इन्जुर	-5945
▁एष्ट्र	-5946
▁गयथिखौ	-5947
▁गाब्रै	-5948
▁गारिया	-5949
▁जेनिबो	-5950
▁ट्रेइन	-5951
▁ड्रयिं	-5952
▁दुर्गा	-5953
▁दौदिनि	-5954
▁नायदों	-5955
▁नायफिन	-5956
▁फंनैसो	-5957
▁बिथराइ	-5958
▁बिदानि	-5959
▁बिफाना	-5960
▁बिबनां	-5961
▁बैसागु	-5962
▁मिथियै	-5963
▁राजाखौ	-5964
▁रायजित	-5965
▁लोगोनो	-5966
▁सफैबाय	-5967
▁सान्थि	-5968
▁सालाया	-5969
▁सुथुरा	-5970
▁सेरजों	-5971
▁सोमखोर	-5972
▁हांखोआ	-5973
▁हालुवा	-5974
▁हेमलेट	-5975
▁खाफालखौ	-5976
▁खाफालनि	-5977
▁गावसिनि	-5978
▁जिबख्रि	-5979
▁जौगानाय	-5980
▁नाजागोन	-5981
▁नुजानाय	-5982
▁नोंखौनो	-5983
▁फान्दाय	-5984
▁बहननानै	-5985
▁बेलश्री	-5986
▁बोजोंनि	-5987
▁बोरायखौ	-5988
▁बोलोजों	-5989
▁मिथिनाय	-5990
▁मुगैथाव	-5991
▁मोनजायो	-5992
▁रोखोमसे	-5993
▁लाइजामा	-5994
▁सोद्रोम	-5995
▁सोरजिनो	-5996
▁होनायखौ	-5997
दोंब्लाबो	-5998
।........	-5999
▁एफाग्राफ	-6000
▁खारबोनाय	-6001
▁खिन्थाहै	-6002
▁गोर्बोनि	-6003
▁जालायबाय	-6004
▁दाजाबनाय	-6005
▁ननिफ्राय	-6006
▁नागिरबाय	-6007
▁नायगिदिं	-6008
▁फारनैजों	-6009
▁बुदारुवा	-6010
▁रिंसारखौ	-6011
▁लाफानानै	-6012
▁सेवारिया	-6013
▁सैबारीया	-6014
▁हाग्रानि	-6015
ानिफ्रायनो	-6016
▁खुलुमनानै	-6017
▁थुनलाइयाव	-6018
▁फांथेनानै	-6019
▁फुदुंनानै	-6020
▁सावख्लिया	-6021
▁खालामनायखौ	-6022
▁पाब्लिकेसन	-6023
▁राइजोफोरखौ	-6024
▁समायस्रीया	-6025
▁सेंग्राफोर	-6026
▁हिन्जावफोर	-6027
▁थिउरियाफोरा	-6028
▁राजखान्थिनि	-6029
▁सेंग्राफोरा	-6030
▁सोमावसारनाय	-6031
▁गोजाननिफ्राय	-6032
▁सोमावसारनायनि	-6033
▁नोजोराव	-6034
5)	-6035
ab	-6036
op	-6037
ut	-6038
ओइ	-6039
चन	-6040
णि	-6041
मल	-6042
ुस	-6043
ेक	-6044
्ण	-6045
▁/	-6046
▁U	-6047
com	-6048
enc	-6049
ilo	-6050
quy	-6051
tic	-6052
आशा	-6053
खान	-6054
गोज	-6055
थेब	-6056
दाइ	-6057
निं	-6058
ादो	-6059
ानी	-6060
ाहो	-6061
ुरु	-6062
ोबै	-6063
्ना	-6064
▁MS	-6065
▁me	-6066
▁re	-6067
▁कौ	-6068
▁फन	-6069
▁वा	-6070
..."	-6071
खाला	-6072
गारि	-6073
त्री	-6074
थ्रा	-6075
दाबो	-6076
फारा	-6077
फैदो	-6078
बालु	-6079
माथो	-6080
मिना	-6081
मोनै	-6082
ल्दा	-6083
सारी	-6084
सिङा	-6085
हिन्	-6086
ारनो	-6087
ावार	-6088
ाहां	-6089
ेण्ड	-6090
्रिद	-6091
▁आबा	-6092
▁आमु	-6093
▁आलि	-6094
▁केन	-6095
▁खाज	-6096
▁जाइ	-6097
▁जाज	-6098
▁थोआ	-6099
▁नाख	-6100
▁फेल	-6101
▁बैथ	-6102
▁माथ	-6103
▁सुद	-6104
▁हुक	-6105
▁हुर	-6106
▁हेद	-6107
खागोन	-6108
ज्राब	-6109
थाराव	-6110
थावनि	-6111
नालाय	-6112
फबनाय	-6113
फ्राइ	-6114
बाराव	-6115
मारनो	-6116
याननि	-6117
रोखोम	-6118
लाफाद	-6119
सोगार	-6120
ालिनि	-6121
▁अनार	-6122
▁अरखौ	-6123
▁आसान	-6124
▁उदया	-6125
▁खुरि	-6126
▁गराय	-6127
▁गागि	-6128
▁गुरु	-6129
▁टेबो	-6130
▁तरुण	-6131
▁थिनो	-6132
▁थुदो	-6133
▁दाउब	-6134
▁दागि	-6135
▁दाजा	-6136
▁दुसि	-6137
▁दोहो	-6138
▁फाथै	-6139
▁बेहा	-6140
▁मार्	-6141
▁लाइट	-6142
▁लादो	-6143
▁सयथि	-6144
▁सादु	-6145
▁सायो	-6146
▁सिङा	-6147
▁सिथर	-6148
▁सिनो	-6149
▁सुनै	-6150
▁सुनो	-6151
▁सुवा	-6152
▁हाखौ	-6153
गाज्रि	-6154
फैनानै	-6155
ब्लाया	-6156
लासिनो	-6157
▁अनथाइ	-6158
▁खनथाम	-6159
▁गहेना	-6160
▁गांसो	-6161
▁जिगाब	-6162
▁थालिर	-6163
▁दोगोन	-6164
▁नारें	-6165
▁फख्रि	-6166
▁फांसे	-6167
▁फाननो	-6168
▁फानलु	-6169
▁बिदुं	-6170
▁बिनाय	-6171
▁बिफान	-6172
▁बिलिद	-6173
▁बिसान	-6174
▁बुन्द	-6175
▁बेण्ड	-6176
▁मरनिं	-6177
▁माननि	-6178
▁मोनलो	-6179
▁राखेब	-6180
▁लाइजौ	-6181
▁संस्क	-6182
▁सानखो	-6183
▁सानाव	-6184
▁सुपार	-6185
▁सोहोर	-6186
▁होम्ब	-6187
ंगासिनो	-6188
खोमानाय	-6189
नायावसो	-6190
फ्लायाव	-6191
स्लाबनो	-6192
हिन्जाव	-6193
होनायनि	-6194
ांग्रां	-6195
▁अलकेशा	-6196
▁आगोलनि	-6197
▁आथिंनि	-6198
▁आबहावा	-6199
▁आमेरिक	-6200
▁इयुननि	-6201
▁उदुराम	-6202
▁खाफाला	-6203
▁खारलां	-6204
▁गनायथि	-6205
▁गाबबाय	-6206
▁गारामा	-6207
▁गावनाय	-6208
▁गोजोन्	-6209
▁गोसोवा	-6210
▁जासेनो	-6211
▁थांहां	-6212
▁थाखोआव	-6213
▁थैनानै	-6214
▁दोन्नो	-6215
▁नोजोरा	-6216
▁प्रसेन	-6217
▁बिदाया	-6218
▁बिलिफा	-6219
▁बुजिया	-6220
▁बुरखाय	-6221
▁बैसोआव	-6222
▁मावमोन	-6223
▁मिनिनो	-6224
▁मुसुखा	-6225
▁मोखथां	-6226
▁रिंखां	-6227
▁लाखियो	-6228
▁साबाइस	-6229
▁सिथ्ला	-6230
▁हाजोआव	-6231
▁हादरखौ	-6232
▁होनलाय	-6233
▁हौवानि	-6234
▁Windows	-6235
▁अननायनि	-6236
▁आंनियाव	-6237
▁आनजादाव	-6238
▁कंग्रेस	-6239
▁खांनानै	-6240
▁खालामदो	-6241
▁खुरनानै	-6242
▁खैफोदनि	-6243
▁खोनानाय	-6244
▁गोमालां	-6245
▁जिरादखौ	-6246
▁जोंथिहा	-6247
▁थाखानाय	-6248
▁दंफांनि	-6249
▁दाजानाय	-6250
▁फंबायखौ	-6251
▁फिसाइया	-6252
▁बिथांखौ	-6253
▁बिबुंथि	-6254
▁बिसोरहा	-6255
▁बोथोराव	-6256
▁बोराइदब	-6257
▁बोसोरसे	-6258
▁माष्टार	-6259
▁मुलियाव	-6260
▁लोंग्रा	-6261
▁सालिसनि	-6262
▁सालिसाव	-6263
▁साहित्य	-6264
▁सिन्दुर	-6265
▁सुजुनाय	-6266
▁सुबुंखौ	-6267
▁हाथायाव	-6268
▁हामबुरा	-6269
▁अख्रांनि	-6270
▁अन्नायखौ	-6271
▁अबंलाउरि	-6272
▁अमब्रागं	-6273
▁आखुथायनि	-6274
▁एष्ट्राग	-6275
▁खामफ्लाय	-6276
▁गान्नानै	-6277
▁गाबख्राव	-6278
▁गाबनायखौ	-6279
▁गामाखालि	-6280
▁गैजारोङै	-6281
▁गोख्रोङै	-6282
▁जोबनायाव	-6283
▁थिनहरदों	-6284
▁दरबासिखौ	-6285
▁नेगासिनो	-6286
▁प्रफेसार	-6287
▁बाहागोखौ	-6288
▁बिजामादै	-6289
▁बिथांमोन	-6290
▁रंजालिनि	-6291
▁राजथावनि	-6292
▁लान्थाया	-6293
▁सिलिंखार	-6294
▁सोंहरबाय	-6295
▁गमामायैनो	-6296
▁गिदिंनानै	-6297
▁जारिमिनाव	-6298
▁थांगासिनो	-6299
▁नागिरब्ला	-6300
▁नायगिरनाय	-6301
▁बानजायफुं	-6302
▁बोखांनानै	-6303
▁मोनब्लानो	-6304
▁सावरायनाय	-6305
▁खैनाशान्ति	-6306
▁रायज्लायनो	-6307
▁सुबुंफोरखौ	-6308
▁ओंखारलांनाय	-6309
▁हिन्जावफोरा	-6310
▁उन्दैनिफ्राय	-6311
▁सेक्सपीयेरनि	-6312
6)	-6313
7)	-6314
oc	-6315
जय	-6316
टन	-6317
शन	-6318
▁ऋ	-6319
ers	-6320
har	-6321
ity	-6322
कुट	-6323
क्ल	-6324
गनि	-6325
जिक	-6326
टिक	-6327
टेन	-6328
थान	-6329
निक	-6330
बाइ	-6331
बेर	-6332
र्ज	-6333
सेव	-6334
हाथ	-6335
ाखो	-6336
िसा	-6337
▁7.	-6338
▁Ex	-6339
▁be	-6340
▁इट	-6341
▁कर	-6342
▁जथ	-6343
▁धर	-6344
▁मृ	-6345
▁यै	-6346
क्लि	-6347
खुसि	-6348
गथाय	-6349
जिरा	-6350
जुलि	-6351
तीया	-6352
थिरा	-6353
द्रु	-6354
न्टि	-6355
न्सि	-6356
बेसे	-6357
भाया	-6358
लासे	-6359
हागौ	-6360
हानो	-6361
हारु	-6362
िन्द	-6363
ेलखौ	-6364
ोंगो	-6365
्लास	-6366
।...	-6367
▁you	-6368
▁अंग	-6369
▁अमि	-6370
▁आखि	-6371
▁आलम	-6372
▁इले	-6373
▁खोर	-6374
▁गरद	-6375
▁गेम	-6376
▁जाप	-6377
▁थेब	-6378
▁बखि	-6379
▁भाव	-6380
▁मदन	-6381
▁लग्	-6382
▁लुन	-6383
▁शनि	-6384
▁हिउ	-6385
▁हिर	-6386
▁हुस	-6387
▁होव	-6388
उन्दै	-6389
ओंखार	-6390
थेवबो	-6391
नावबो	-6392
पिटाल	-6393
फायाव	-6394
बिलाइ	-6395
मोजां	-6396
ामोना	-6397
ारजों	-6398
ुवानि	-6399
▁your	-6400
▁अक्त	-6401
▁अभार	-6402
▁आरसा	-6403
▁आवाज	-6404
▁उथुम	-6405
▁खननै	-6406
▁खियो	-6407
▁खैला	-6408
▁डिजि	-6409
▁नाम्	-6410
▁फिन्	-6411
▁फैयै	-6412
▁बादा	-6413
▁बाबा	-6414
▁बायह	-6415
▁बेमा	-6416
▁बेरा	-6417
▁राखा	-6418
▁लाहै	-6419
▁लेफे	-6420
▁सिंह	-6421
▁सिनि	-6422
▁सुबि	-6423
खुंगुर	-6424
खोमानो	-6425
नानैसो	-6426
फार्से	-6427
मारबाय	-6428
▁आरांग	-6429
▁एप्रि	-6430
▁ऐखालि	-6431
▁ओनसोल	-6432
▁कृष्ण	-6433
▁खायदा	-6434
▁खारदै	-6435
▁खाराव	-6436
▁खुरमा	-6437
▁गेटाव	-6438
▁गोथों	-6439
▁गोमाज	-6440
▁जथुम्	-6441
▁जानजि	-6442
▁जिउवा	-6443
▁जेनेर	-6444
▁जौमोन	-6445
▁ड्राइ	-6446
▁थरथिं	-6447
▁थाइजौ	-6448
▁थारुन	-6449
▁थुंगि	-6450
▁दरलाय	-6451
▁दाथां	-6452
▁दायाव	-6453
▁दावगा	-6454
▁दुथां	-6455
▁नायनि	-6456
▁नाराय	-6457
▁फिनखौ	-6458
▁फैलाय	-6459
▁बथलखौ	-6460
▁बागान	-6461
▁बाबां	-6462
▁बिजनी	-6463
▁बोखाव	-6464
▁मोगथा	-6465
▁रमेना	-6466
▁लरेना	-6467
▁लेंहर	-6468
▁संनाय	-6469
▁साफाय	-6470
▁सुन्द	-6471
▁हमासै	-6472
▁हस्रि	-6473
▁हाथेर	-6474
कुमेन्ट	-6475
गासेयाव	-6476
ब्लालाय	-6477
ालाबानो	-6478
▁अरनानै	-6479
▁आजावनो	-6480
▁आरतिखौ	-6481
▁इयुनाव	-6482
▁खानाया	-6483
▁खुंनाय	-6484
▁खुद्रि	-6485
▁खौराङा	-6486
▁गारनाय	-6487
▁गाहामै	-6488
▁गाहाया	-6489
▁गोल्लै	-6490
▁जुलिनि	-6491
▁जोंनाय	-6492
▁जोबाखै	-6493
▁जोलैनि	-6494
▁ट्रेजे	-6495
▁थिनदों	-6496
▁थिनबाय	-6497
▁दांग्र	-6498
▁दैमाया	-6499
▁नारेंग	-6500
▁फाख्रि	-6501
▁फुख्रि	-6502
▁बरपेटा	-6503
▁बारजों	-6504
▁बिखाखौ	-6505
▁बिजनेस	-6506
▁बिरहां	-6507
▁बिलोगो	-6508
▁बिहारि	-6509
▁बेलासे	-6510
▁मोख्रा	-6511
▁मोनलों	-6512
▁मोसाया	-6513
▁रंगिना	-6514
▁सानैखौ	-6515
▁सुबुंआ	-6516
▁सुवामि	-6517
▁सोदोबआ	-6518
▁स्क्रल	-6519
▁हाइजें	-6520
▁हामगोन	-6521
▁हौवाया	-6522
फ्लानानै	-6523
रेटरीयाव	-6524
▁आखान्थि	-6525
▁आखुफोरा	-6526
▁आनारीनि	-6527
▁एम्बुवा	-6528
▁खालामखो	-6529
▁खेंख्रा	-6530
▁गाखोनाय	-6531
▁जालायखो	-6532
▁जोंरूवा	-6533
▁जोख्लोब	-6534
▁जोबनानै	-6535
▁टेबिलनि	-6536
▁थांनाया	-6537
▁थाबावनो	-6538
▁दावहारु	-6539
▁बांग्रि	-6540
▁बानाजों	-6541
▁बिहावखौ	-6542
▁बुथारनो	-6543
▁बेलस्री	-6544
▁भुगिनां	-6545
▁मुलुगखौ	-6546
▁राजाजों	-6547
▁लाबोबाय	-6548
▁सुग्लाय	-6549
▁सोरबाबा	-6550
▁हाबहैयो	-6551
▁होफैदों	-6552
ज्लायनानै	-6553
नांगौब्ला	-6554
फ्रोमखौबो	-6555
▁खेंफोरथि	-6556
▁गथायनानै	-6557
▁गोर्बोआव	-6558
▁गोसोज्लि	-6559
▁जिरायबाय	-6560
▁थाबायनाय	-6561
▁थाब्लाबो	-6562
▁दरबासिया	-6563
▁दानसोरां	-6564
▁दाबसेयाव	-6565
▁देरहासाद	-6566
▁दोन्नानै	-6567
▁प्राइभेट	-6568
▁फोजोबनाय	-6569
▁बुंबावनो	-6570
▁बेखेवगाड	-6571
▁रामनाथखौ	-6572
▁लेंहरदों	-6573
▁समबारुवा	-6574
▁सेवारिनि	-6575
▁सोरखारखौ	-6576
▁सोरखारनि	-6577
▁हाबफैनाय	-6578
▁हारिमुनि	-6579
▁हेमलेटनि	-6580
▁होम्बाना	-6581
▁खालायनानै	-6582
▁गाबज्रियो	-6583
▁थुलुंगानि	-6584
▁दाजाबनानै	-6585
▁दुब्लियाव	-6586
▁बिनहारीखौ	-6587
▁बिनानावनि	-6588
▁बिनारामनि	-6589
▁बुंलांदों	-6590
▁मन्थ्रिनि	-6591
▁सिनायथिखौ	-6592
▁सोंदोंमोन	-6593
▁होनब्लानो	-6594
▁चित्तरन्जन	-6595
▁दैदेननायाव	-6596
▁फरायसाफोरा	-6597
▁फावथिनायाव	-6598
▁सानबोलाउरि	-6599
▁सुबुंफोरनि	-6600
▁खालामनांगोन	-6601
▁जोबथारनायाव	-6602
▁पाकिस्ताननि	-6603
▁बुर्लुंबुथुर	-6604
):	-6605
-0	-6606
.,	-6607
ad	-6608
ʼ)	-6609
एस	-6610
दं	-6611
नं	-6612
बल	-6613
शि	-6614
ीज	-6615
ीम	-6616
ुप	-6617
▁*	-6618
▁=	-6619
DOS	-6620
ace	-6621
end	-6622
ght	-6623
ial	-6624
ted	-6625
खाम	-6626
टेम	-6627
डनि	-6628
थिख	-6629
बिफ	-6630
सना	-6631
सुब	-6632
ैबो	-6633
▁In	-6634
▁No	-6635
▁St	-6636
▁st	-6637
▁आह	-6638
▁चौ	-6639
▁दन	-6640
कीया	-6641
ग्रं	-6642
जाबो	-6643
जायि	-6644
त्ति	-6645
थानो	-6646
थेङा	-6647
नाङै	-6648
फाखा	-6649
फेरै	-6650
ब्रब	-6651
राया	-6652
रीया	-6653
साबो	-6654
सासे	-6655
ाखाय	-6656
िनाव	-6657
िराम	-6658
ेटिक	-6659
▁Sol	-6660
▁are	-6661
▁अंक	-6662
▁आनै	-6663
▁आबो	-6664
▁आलौ	-6665
▁काज	-6666
▁खुम	-6667
▁गाज	-6668
▁थें	-6669
▁दखर	-6670
▁दलद	-6671
▁दैख	-6672
▁धुब	-6673
▁फिथ	-6674
▁फुट	-6675
▁बटल	-6676
▁मणि	-6677
▁मिब	-6678
▁मेन	-6679
▁युम	-6680
▁सनि	-6681
▁समि	-6682
▁सिउ	-6683
▁हमस	-6684
...।"	-6685
खायसे	-6686
थानाय	-6687
फ्लाइ	-6688
मालाय	-6689
सियार	-6690
हांखो	-6691
ामिनि	-6692
िरिया	-6693
ुरीया	-6694
▁आंना	-6695
▁गारो	-6696
▁जनाय	-6697
▁जवान	-6698
▁जागि	-6699
▁जाथि	-6700
▁जादो	-6701
▁जुना	-6702
▁जौगा	-6703
▁टेक्	-6704
▁डेटा	-6705
▁थालो	-6706
▁दिना	-6707
▁दिन्	-6708
▁दैसा	-6709
▁बिबा	-6710
▁बेसो	-6711
▁माइल	-6712
▁माथा	-6713
▁माबि	-6714
▁मुजि	-6715
▁राइफ	-6716
▁लाफा	-6717
▁लोङा	-6718
▁सबाइ	-6719
▁साइट	-6720
▁सागु	-6721
▁सिगि	-6722
▁सुरथ	-6723
▁स्टे	-6724
▁हब्र	-6725
▁हरेन	-6726
▁हाखर	-6727
▁हारा	-6728
खोनानै	-6729
थानानै	-6730
फ्लाङो	-6731
बायदों	-6732
वारीनि	-6733
श्रीया	-6734
सिनानै	-6735
▁अजयखौ	-6736
▁आइजें	-6737
▁आथिङा	-6738
▁खरथें	-6739
▁गगैया	-6740
▁गब्लं	-6741
▁गामोन	-6742
▁गेटनि	-6743
▁गेबें	-6744
▁गोफोन	-6745
▁जात्र	-6746
▁थारजा	-6747
▁थिंगि	-6748
▁दाङाब	-6749
▁दिखां	-6750
▁नायदो	-6751
▁फेजेन	-6752
▁बदनाम	-6753
▁बहाथो	-6754
▁बुंङो	-6755
▁बेगखौ	-6756
▁बेनोथ	-6757
▁माउजि	-6758
▁मामाय	-6759
▁मैखोम	-6760
▁मोनहै	-6761
▁रायनो	-6762
▁लख्रा	-6763
▁लाउथि	-6764
▁लेबेल	-6765
▁सिखां	-6766
▁सोरमा	-6767
▁सोराव	-6768
▁स्लिम	-6769
▁हालेव	-6770
▁हालोद	-6771
▁हुखुम	-6772
▁होंगो	-6773
▁होलां	-6774
खोमाबाय	-6775
ज्लायनो	-6776
फुनायाव	-6777
बुंनानै	-6778
लायनाया	-6779
सारनानै	-6780
▁अबथिरा	-6781
▁आरतिनि	-6782
▁इयुनखौ	-6783
▁इसोरनि	-6784
▁खारनाय	-6785
▁खुगानि	-6786
▁गबिन्द	-6787
▁गांनाय	-6788
▁गुमैया	-6789
▁गुरलुब	-6790
▁गोसोयै	-6791
▁जालिया	-6792
▁जोंब्ल	-6793
▁थांफिन	-6794
▁थाखायल	-6795
▁थिननाय	-6796
▁थुनानै	-6797
▁दुयारी	-6798
▁धोरोमा	-6799
▁नुजायो	-6800
▁फावजों	-6801
▁फावदुर	-6802
▁फैफिनो	-6803
▁फोथायो	-6804
▁बान्दा	-6805
▁बायदों	-6806
▁बाहागि	-6807
▁बिजाथि	-6808
▁बिदाखौ	-6809
▁बुङासै	-6810
▁भारताव	-6811
▁मन्जुल	-6812
▁माइक्र	-6813
▁मानिया	-6814
▁मिथिखा	-6815
▁मिनिखै	-6816
▁मुवाखौ	-6817
▁राहाखौ	-6818
▁रिक्सा	-6819
▁सन्थाल	-6820
▁सप्ताह	-6821
▁समावबो	-6822
▁साखाथि	-6823
▁सिरियै	-6824
▁स्क्रि	-6825
▁हिस्रि	-6826
हरदोंमोन	-6827
ोमोनब्ला	-6828
▁उखुन्दै	-6829
▁ओंखामखौ	-6830
▁कन्ट्रल	-6831
▁खारलाङो	-6832
▁खोमसिया	-6833
▁गंसेयाव	-6834
▁गाबखाङो	-6835
▁गोसोआबो	-6836
▁जोब्बाय	-6837
▁थाखायबो	-6838
▁थिखादार	-6839
▁नुहरबाय	-6840
▁फरायबाय	-6841
▁फिसाफोर	-6842
▁फैनायनि	-6843
▁बायजोआव	-6844
▁बिजाबनि	-6845
▁बिजाबाव	-6846
▁बिमाजों	-6847
▁बुंजासे	-6848
▁बुंफैयो	-6849
▁मोनथिगौ	-6850
▁मोनथिनो	-6851
▁रादाबखौ	-6852
▁लानायखौ	-6853
▁लानायाव	-6854
▁लायनानै	-6855
▁लिंनानै	-6856
▁संसारखौ	-6857
▁सांग्रा	-6858
▁सानजाहा	-6859
▁सियाराव	-6860
▁सेरावनो	-6861
▁सोलोजों	-6862
▁हरबिलास	-6863
▁हालमाजि	-6864
▁होनजायो	-6865
▁होननाया	-6866
मोनब्लाबो	-6867
▁अन्नायाव	-6868
▁आनारामनि	-6869
▁उन्दुलां	-6870
▁कास्तमार	-6871
▁खान्थिनि	-6872
▁खामफ्लाइ	-6873
▁खालायनाय	-6874
▁खिन्थाया	-6875
▁खुलुमबाय	-6876
▁गालांनाय	-6877
▁गाहामैनो	-6878
▁जागायनाय	-6879
▁जाथारबाय	-6880
▁जानांदों	-6881
▁जारिमिना	-6882
▁डकुमेन्ट	-6883
▁डिटेकटिभ	-6884
▁दंब्लाबो	-6885
▁नांथारगौ	-6886
▁नेटवार्क	-6887
▁नोंसोरनो	-6888
▁फान्नानै	-6889
▁फुननांगौ	-6890
▁फोनांजाब	-6891
▁फोसाबनाय	-6892
▁बुङोब्ला	-6893
▁बेफारिया	-6894
▁बेरेखायै	-6895
▁बोहैथिनि	-6896
▁मालायजों	-6897
▁मिथिखागौ	-6898
▁रमायश्रि	-6899
▁रुवाथिया	-6900
▁रोङाखिसै	-6901
▁लाजिनानै	-6902
▁लानानैसो	-6903
▁लायाब्ला	-6904
▁साननायखौ	-6905
▁सोरजोंबा	-6906
▁होब्लाबो	-6907
▁खौरांगासे	-6908
▁जोनोमगिरि	-6909
▁तुलारामनि	-6910
▁थानायावनो	-6911
▁नांगौब्ला	-6912
▁बानायनानै	-6913
▁मोन्नायखौ	-6914
▁होमब्लानो	-6915
▁इन्जिनियार	-6916
▁खामफ्लायाव	-6917
▁तितागुरिनि	-6918
▁फिसाज्लानि	-6919
▁बाहायनायाव	-6920
▁लोगोफोरजों	-6921
▁हांखोफोरनि	-6922
▁दिन्थिनायाव	-6923
▁बिलाइस्रिया	-6924
▁रायज्लायबाय	-6925
▁हिन्जावफ्रा	-6926
▁............	-6927
▁बिथिंनिफ्राय	-6928
▁सोद्रोमाफोरा	-6929
▁सिगांनिफ्रायनो	-6930
▁अनिल	-6931
!"	-6932
BM	-6933
ha	-6934
ll	-6935
ph	-6936
इउ	-6937
एन	-6938
गम	-6939
चा	-6940
ते	-6941
प्	-6942
मह	-6943
वे	-6944
ेड	-6945
ेत	-6946
्ग	-6947
▁$	-6948
▁ँ	-6949
apt	-6950
cto	-6951
ies	-6952
ist	-6953
oun	-6954
per	-6955
एनै	-6956
कमल	-6957
जनि	-6958
दाल	-6959
नाल	-6960
पेन	-6961
फ्ट	-6962
लाल	-6963
श्य	-6964
सेन	-6965
ाखौ	-6966
ेले	-6967
▁40	-6968
▁8.	-6969
▁??	-6970
▁द्	-6971
▁नट	-6972
▁मड	-6973
▁मस	-6974
▁रय	-6975
ords	-6976
कसार	-6977
खोन्	-6978
गुबै	-6979
जिबा	-6980
ताया	-6981
दिङो	-6982
द्रा	-6983
नोबा	-6984
पार्	-6985
बिलि	-6986
मारो	-6987
मुनि	-6988
याबा	-6989
रागा	-6990
र्मे	-6991
लाफि	-6992
लाबो	-6993
श्वर	-6994
ेलनि	-6995
ेलिन	-6996
▁100	-6997
▁अना	-6998
▁इज्	-6999
▁एका	-7000
▁एरा	-7001
▁एला	-7002
▁कफि	-7003
▁खाथ	-7004
▁गवा	-7005
▁गसा	-7006
▁थेव	-7007
▁देउ	-7008
▁दोम	-7009
▁पाल	-7010
▁फुर	-7011
▁फोथ	-7012
▁फोल	-7013
▁बाङ	-7014
▁मिन	-7015
▁मुव	-7016
▁रसा	-7017
▁वाइ	-7018
▁वेर	-7019
▁संख	-7020
▁सहै	-7021
▁हयै	-7022
▁हर्	-7023
▁हस्	-7024
▁हेड	-7025
ंनानै	-7026
ओंखाम	-7027
ग्दाव	-7028
ङामोन	-7029
जाइनि	-7030
थारसै	-7031
दोंगो	-7032
दोंसो	-7033
नायबो	-7034
पार्ट	-7035
पुराव	-7036
फंबाय	-7037
फास्ट	-7038
बारनि	-7039
बावगौ	-7040
बेथेर	-7041
यालाय	-7042
सोलाय	-7043
हांमा	-7044
ाजोबो	-7045
ाहैयो	-7046
ुग्रा	-7047
्रिया	-7048
▁2009	-7049
▁कलंख	-7050
▁खानो	-7051
▁खारा	-7052
▁गलाम	-7053
▁गिरि	-7054
▁गेवा	-7055
▁ग्रे	-7056
▁जांग	-7057
▁जादब	-7058
▁जाफै	-7059
▁जिनै	-7060
▁जिरा	-7061
▁जेनो	-7062
▁झालु	-7063
▁ट्रि	-7064
▁थायै	-7065
▁थैनि	-7066
▁दरसि	-7067
▁दाथा	-7068
▁दैखर	-7069
▁नांग	-7070
▁नारा	-7071
▁नुसन	-7072
▁फिफा	-7073
▁फुवा	-7074
▁फ्ला	-7075
▁बक्स	-7076
▁बन्ध	-7077
▁बरगय	-7078
▁बाजु	-7079
▁बारन	-7080
▁बिबौ	-7081
▁बुयो	-7082
▁मिलौ	-7083
▁मेसे	-7084
▁मैला	-7085
▁राभा	-7086
▁रुमा	-7087
▁लांख	-7088
▁सेर्	-7089
▁सोला	-7090
▁हाथि	-7091
ctober	-7092
iloquy	-7093
ration	-7094
नोंसोर	-7095
पार्ति	-7096
बासिनो	-7097
सान्दि	-7098
सिनबाय	-7099
सेम्बर	-7100
्राकसन	-7101
▁इस्ला	-7102
▁कमेदि	-7103
▁कारजि	-7104
▁गेटखौ	-7105
▁गेसाव	-7106
▁गोग्ल	-7107
▁ग्रोब	-7108
▁जंखाय	-7109
▁जौसाय	-7110
▁दाउदै	-7111
▁नुजाह	-7112
▁नुथाइ	-7113
▁फान्द	-7114
▁फोरखौ	-7115
▁बाथुल	-7116
▁बियाव	-7117
▁बुरजा	-7118
▁महननि	-7119
▁राननो	-7120
▁रुमाल	-7121
▁लेन्थ	-7122
▁लोगोआ	-7123
▁वार्ड	-7124
▁सिथाब	-7125
▁सिमना	-7126
▁हरगोन	-7127
क्लियार	-7128
नायखौनो	-7129
साफोरखौ	-7130
▁अनसुमै	-7131
▁आंखौबो	-7132
▁आइदिया	-7133
▁खंख्ला	-7134
▁खुसियै	-7135
▁गान्दा	-7136
▁गुरलाब	-7137
▁जाखाङो	-7138
▁जिउवाव	-7139
▁थिखिनि	-7140
▁दहायनो	-7141
▁दानथार	-7142
▁दाहानि	-7143
▁दोनखार	-7144
▁नम्बरि	-7145
▁नायदाव	-7146
▁फाइलनि	-7147
▁फालोसे	-7148
▁बायबाय	-7149
▁बारिनि	-7150
▁बावबाय	-7151
▁बिगुमा	-7152
▁बिबादि	-7153
▁बिबारा	-7154
▁बिसुखे	-7155
▁बिस्रि	-7156
▁बुंफिन	-7157
▁बुंफोर	-7158
▁बेखौसो	-7159
▁बेनिनो	-7160
▁बोरैथो	-7161
▁मनजुखौ	-7162
▁मनिपुर	-7163
▁मुहिनि	-7164
▁मोनासै	-7165
▁मोन्थि	-7166
▁मोसानि	-7167
▁राङारि	-7168
▁लाग्रा	-7169
▁लोंदों	-7170
▁लोगोखौ	-7171
▁संग्रा	-7172
▁सफायाव	-7173
▁सान्ति	-7174
▁सिखाङो	-7175
▁सुइसाइ	-7176
▁हाबनाय	-7177
▁हाब्ला	-7178
थारबायलै	-7179
नांगौमोन	-7180
फ्लांदों	-7181
▁खारखोमा	-7182
▁खेंनानै	-7183
▁खोनादों	-7184
▁खोमोरनो	-7185
▁गिदिंबो	-7186
▁जात्राग	-7187
▁जाबोनाय	-7188
▁जाहोनाय	-7189
▁जुजिगोन	-7190
▁जोनोमनि	-7191
▁डाक्टार	-7192
▁डाक्तार	-7193
▁थांखिखौ	-7194
▁थाथोंसै	-7195
▁दर्बासि	-7196
▁देगारखौ	-7197
▁नागारनो	-7198
▁नायजाबा	-7199
▁फाननानै	-7200
▁बङाइगाव	-7201
▁बजबनानै	-7202
▁बिथिंखौ	-7203
▁बिबानाव	-7204
▁बिबारखौ	-7205
▁बिस्कुट	-7206
▁बिहावनि	-7207
▁बेखेवनो	-7208
▁बोराइखौ	-7209
▁मिथिगोन	-7210
▁मोनथिया	-7211
▁रहेलाया	-7212
▁लाखिनाय	-7213
▁लाबोगोन	-7214
▁संस्कृत	-7215
▁सरखारनि	-7216
▁सायावसो	-7217
▁सिफायनो	-7218
▁सुथुरखौ	-7219
▁सोंनाया	-7220
▁सोदोबमा	-7221
▁सोमोनां	-7222
▁सोरबाया	-7223
▁हांखोआव	-7224
▁हाग्राम	-7225
▁हानजानि	-7226
▁हेमलेटा	-7227
▁होबोदों	-7228
थ्रोदनानै	-7229
निफ्रायबो	-7230
▁अन्नायनि	-7231
▁किटसेनाव	-7232
▁गनतन्त्र	-7233
▁गुबुनारि	-7234
▁जानांबाय	-7235
▁जाब्लाबो	-7236
▁जोबनायनि	-7237
▁जोहोलावा	-7238
▁थाइलालिआ	-7239
▁देरहानाय	-7240
▁नोंसोरबो	-7241
▁नोंहालाय	-7242
▁फरायग्रा	-7243
▁फावथाइया	-7244
▁फैफिनबाय	-7245
▁बांलादेश	-7246
▁बिबायारि	-7247
▁मानिनानै	-7248
▁मावनायाव	-7249
▁मैहुरारी	-7250
▁मोसाहारि	-7251
▁रुफाथिया	-7252
▁रुवाथिखौ	-7253
▁लाइजामनि	-7254
▁लिंहरदों	-7255
▁लुबैयाखै	-7256
▁लोगोफ्रा	-7257
▁सामब्राम	-7258
▁सिखारबाय	-7259
▁सोंनायाव	-7260
▁सोमजिनाय	-7261
▁हमदोंमोन	-7262
▁हायेनारि	-7263
▁होनोब्ला	-7264
▁कर्णियाखौ	-7265
▁खिन्थाबाय	-7266
▁गावबुरानि	-7267
▁गिबियावनो	-7268
▁गोनोखोआरि	-7269
▁गोसोज्लिद	-7270
▁ग्रीमउइगा	-7271
▁जायाखैमोन	-7272
▁थुंग्रिखौ	-7273
▁दिनैसिमबो	-7274
▁देरहाग्रा	-7275
▁नोजोरनानै	-7276
▁प्रेमधरनि	-7277
▁बाथ्राजों	-7278
▁बोखारनानै	-7279
▁भ्लादिमिर	-7280
▁मिथिहोनाय	-7281
▁लांदोंमोन	-7282
▁थुनलाइगिरि	-7283
▁नाजागासिनो	-7284
▁बिलिफाङाबो	-7285
▁बुथारनायनि	-7286
▁मोनाबिलिनि	-7287
▁सेंग्राजों	-7288
▁कलेजनिफ्राय	-7289
▁खामानिफोरखौ	-7290
▁थुनफावथाइया	-7291
▁नोंथांमोननि	-7292
▁फोरोंगिरिया	-7293
▁बिखानिफ्राय	-7294
▁बुब्लियावनो	-7295
▁गोग्लैसोनानै	-7296
▁गोदोनिफ्रायनो	-7297
▁फरायग्राफोरनि	-7298
▁सोमावसारनायाव	-7299
................	-7300
ep	-7301
tem	-7302
▁मुलुगा	-7303
50	-7304
:\	-7305
eg	-7306
ev	-7307
ho	-7308
कस	-7309
थं	-7310
लन	-7311
▁+	-7312
▁u	-7313
..।	-7314
:\>	-7315
day	-7316
कास	-7317
गेन	-7318
घाट	-7319
डिस	-7320
द्ल	-7321
फान	-7322
र्ल	-7323
लिस	-7324
हाद	-7325
हेन	-7326
होन	-7327
ेरो	-7328
▁27	-7329
▁or	-7330
▁उस	-7331
▁खथ	-7332
▁जम	-7333
▁ता	-7334
▁धम	-7335
▁नल	-7336
▁फब	-7337
▁मब	-7338
▁रन	-7339
ency	-7340
गारा	-7341
जाम्	-7342
जोनि	-7343
जोबा	-7344
थाङो	-7345
थावै	-7346
नागौ	-7347
नोसो	-7348
बेखौ	-7349
मिथि	-7350
यासो	-7351
राखौ	-7352
रिष्	-7353
र्खि	-7354
लायै	-7355
सिरि	-7356
सेखौ	-7357
हाटी	-7358
हैनि	-7359
ाइली	-7360
ाथों	-7361
ीयान	-7362
ुब्र	-7363
▁?''	-7364
▁IBM	-7365
▁for	-7366
▁अनस	-7367
▁एइस	-7368
▁एखे	-7369
▁कन्	-7370
▁कमन	-7371
▁काछ	-7372
▁काल	-7373
▁खफा	-7374
▁गाल	-7375
▁ग्ल	-7376
▁चौध	-7377
▁जेल	-7378
▁डिभ	-7379
▁दरख	-7380
▁दलर	-7381
▁दाज	-7382
▁पान	-7383
▁फुद	-7384
▁बरफ	-7385
▁बिय	-7386
▁बेज	-7387
▁मेउ	-7388
▁रया	-7389
▁राब	-7390
▁लखि	-7391
▁लाफ	-7392
▁सलि	-7393
गारनो	-7394
गुरुब	-7395
झारनि	-7396
दाजों	-7397
ब्राय	-7398
ब्रुं	-7399
ब्लाउ	-7400
माननि	-7401
मोखां	-7402
रामिस	-7403
र्ल्ड	-7404
लामफा	-7405
सावनो	-7406
सैमोन	-7407
ालाङो	-7408
ेसनाव	-7409
ेस्वर	-7410
▁---"	-7411
▁mean	-7412
▁अनसि	-7413
▁अन्ज	-7414
▁आइलि	-7415
▁इसेल	-7416
▁उवाल	-7417
▁कौटि	-7418
▁खहाब	-7419
▁खुदि	-7420
▁खुनो	-7421
▁ग्रह	-7422
▁जगाय	-7423
▁जबाय	-7424
▁जागा	-7425
▁जायग	-7426
▁टर्स	-7427
▁थिफु	-7428
▁दद्र	-7429
▁दावब	-7430
▁नोम्	-7431
▁पकेट	-7432
▁पाटि	-7433
▁प्ला	-7434
▁फोरा	-7435
▁बिना	-7436
▁बुबि	-7437
▁बुयै	-7438
▁बुर्	-7439
▁भबेन	-7440
▁मान्	-7441
▁मेइन	-7442
▁मेडि	-7443
▁मैसो	-7444
▁रुबै	-7445
▁सोनो	-7446
▁सौरा	-7447
गारदों	-7448
टारनेल	-7449
थायाबो	-7450
दिन्थि	-7451
न्थानि	-7452
बाहागि	-7453
बिफाया	-7454
बिस्रि	-7455
राजानि	-7456
लाइफां	-7457
लाम्बर	-7458
वारिनि	-7459
ागौमोन	-7460
▁2008,	-7461
▁अन्जि	-7462
▁अपमान	-7463
▁आंबोथ	-7464
▁आब्रु	-7465
▁इउनिट	-7466
▁इजराइ	-7467
▁इसारा	-7468
▁उरिष्	-7469
▁औवानि	-7470
▁कमिसन	-7471
▁केम्प	-7472
▁कैलाश	-7473
▁खुनुम	-7474
▁गलाफी	-7475
▁गानहो	-7476
▁गान्ध	-7477
▁गावहा	-7478
▁गिसिब	-7479
▁गेदाइ	-7480
▁गोदोन	-7481
▁गोबाय	-7482
▁ग्लाब	-7483
▁जाइली	-7484
▁जायहा	-7485
▁जैमती	-7486
▁थोनाय	-7487
▁दंखाय	-7488
▁दन्दि	-7489
▁दाकात	-7490
▁दैफां	-7491
▁दोनहै	-7492
▁दोलोआ	-7493
▁नंदों	-7494
▁नङादा	-7495
▁नांला	-7496
▁फ्राय	-7497
▁बंफां	-7498
▁बनानै	-7499
▁बिबथै	-7500
▁बिरहा	-7501
▁बुदां	-7502
▁बेहाय	-7503
▁मेनेज	-7504
▁मोख्र	-7505
▁मोनबो	-7506
▁राखां	-7507
▁राखाउ	-7508
▁संदान	-7509
▁सभानि	-7510
▁साबगौ	-7511
▁साहाब	-7512
▁सुलाद	-7513
▁सोगोम	-7514
▁सोमखे	-7515
▁होनां	-7516
जेन्नाय	-7517
नांगौनि	-7518
नांसिगौ	-7519
नायावबो	-7520
फैनायसै	-7521
फ्लानाय	-7522
लावरिनि	-7523
वाखैमोन	-7524
ालांबाय	-7525
▁अंगुबै	-7526
▁अरुनखौ	-7527
▁आंनिनो	-7528
▁आगोलाव	-7529
▁आन्दाज	-7530
▁आफाफोर	-7531
▁आब्राम	-7532
▁आयदाया	-7533
▁उलाफाद	-7534
▁केनसेल	-7535
▁गारबाय	-7536
▁गाहेला	-7537
▁गोथौयै	-7538
▁जानोबो	-7539
▁जाल्ला	-7540
▁जाहैनो	-7541
▁जुलाफि	-7542
▁थायाखै	-7543
▁थैनोसै	-7544
▁दरबासि	-7545
▁दुइसिन	-7546
▁नागिरै	-7547
▁नायहाब	-7548
▁नीलकमल	-7549
▁फिनबाय	-7550
▁फैनाया	-7551
▁बागदाव	-7552
▁बाजैया	-7553
▁बाथुवा	-7554
▁बायहेर	-7555
▁बालानो	-7556
▁बिन्दो	-7557
▁बुंबाव	-7558
▁बुंहां	-7559
▁बेब्दि	-7560
▁बोथोरा	-7561
▁बोनाया	-7562
▁मदाराम	-7563
▁मारुति	-7564
▁मालाया	-7565
▁मुलिनि	-7566
▁मेडिया	-7567
▁मोसायै	-7568
▁मोसायो	-7569
▁युमुना	-7570
▁रंजाली	-7571
▁राखेबा	-7572
▁रोंनाय	-7573
▁लाइब्र	-7574
▁लाउदुम	-7575
▁लावखार	-7576
▁लोंखां	-7577
▁वर्ल्ड	-7578
▁संनानै	-7579
▁संसारा	-7580
▁सानथ्र	-7581
▁सानाखै	-7582
▁सुखुनि	-7583
▁सोरनाव	-7584
▁सोर्जि	-7585
▁हाखिमा	-7586
▁हान्था	-7587
▁हारावा	-7588
बोगासिनो	-7589
▁October	-7590
▁अक्सिना	-7591
▁अन्नाया	-7592
▁अपारेसन	-7593
▁आबारीनि	-7594
▁ओंखारदो	-7595
▁ओरैबादि	-7596
▁खान्थाल	-7597
▁खामग्लि	-7598
▁खायसेबा	-7599
▁गाथोनाव	-7600
▁गारियाव	-7601
▁गुगुरुब	-7602
▁गुदुङाव	-7603
▁गोनांनि	-7604
▁गोरलैयै	-7605
▁गोलोमदै	-7606
▁जाथाइया	-7607
▁जायफ्रा	-7608
▁जायामोन	-7609
▁जेनेरेल	-7610
▁जौमोननि	-7611
▁ट्रेयाव	-7612
▁थिरांथा	-7613
▁दानायनि	-7614
▁नाम्बार	-7615
▁निरामिस	-7616
▁नोंबादि	-7617
▁नोमफाया	-7618
▁परिषदनि	-7619
▁फैनायसै	-7620
▁फैयामोन	-7621
▁फोथायनो	-7622
▁फोरोंनो	-7623
▁बाग्लाय	-7624
▁बाब्राब	-7625
▁बिबोनां	-7626
▁बुंनाया	-7627
▁बोखांनो	-7628
▁मावब्ला	-7629
▁मिजिंखौ	-7630
▁मोननैनि	-7631
▁मोननैसो	-7632
▁मोनसेनि	-7633
▁मोनहाबो	-7634
▁रावनोबो	-7635
▁रेबतीया	-7636
▁लिरनाया	-7637
▁सिथारनो	-7638
▁सोंफिनो	-7639
▁सोमजियो	-7640
▁सोलायनो	-7641
▁हाथियार	-7642
▁हालामनि	-7643
▁होनथेयो	-7644
गिरिफोरनि	-7645
▁उन्दुबाय	-7646
▁खोनायाखै	-7647
▁गाबनायनि	-7648
▁गुबुनजों	-7649
▁गोब्राबै	-7650
▁गोमोनानै	-7651
▁गोरोबनाय	-7652
▁गोलैनानै	-7653
▁जाथाइयाव	-7654
▁जानानैबो	-7655
▁जानोहागौ	-7656
▁ट्रेक्टर	-7657
▁थियेटारा	-7658
▁थैब्लाबो	-7659
▁दाङाबाजि	-7660
▁दिहुनबाय	-7661
▁दिहुन्नो	-7662
▁दैखांदों	-7663
▁दौब्लाबो	-7664
▁नांनायनि	-7665
▁फोसावदों	-7666
▁बङाइगाँव	-7667
▁बान्थाखौ	-7668
▁बाबांसिन	-7669
▁बाराब्ला	-7670
▁बुरखायनो	-7671
▁मनजुलानि	-7672
▁मावफुंनो	-7673
▁मिलिटारि	-7674
▁राइजोयाव	-7675
▁रान्नानै	-7676
▁समायस्री	-7677
▁सुमिलानि	-7678
▁सोमदोननि	-7679
▁सोलोंथाय	-7680
▁हामगौमोन	-7681
▁Soliloquy	-7682
▁थांफिनबाय	-7683
▁थुलुंगाया	-7684
▁दिहुन्नाय	-7685
▁फरायनायाव	-7686
▁बरगयारीया	-7687
▁बुंलांनाय	-7688
▁बेंपार्ति	-7689
▁बेलासियाव	-7690
▁माहाजोनखौ	-7691
▁मोनजारोङै	-7692
▁लोमजानानै	-7693
▁साइकेलजों	-7694
▁साजायनानै	-7695
▁सान्नायखौ	-7696
▁सेंग्रानि	-7697
▁हाबहैनानै	-7698
▁हेफाजाबाव	-7699
▁होनब्लाबो	-7700
▁अनलायनायाव	-7701
▁खालामजानाय	-7702
▁खिन्थानानै	-7703
▁गाग्लोबनाय	-7704
▁गाम्बारिया	-7705
▁गोजांस्रिव	-7706
▁गोरोन्थिखौ	-7707
▁जाखांनायनि	-7708
▁नायबिजिरनो	-7709
▁निउक्लियार	-7710
▁फोजोबस्रां	-7711
▁बावखुंग्रि	-7712
▁मिथिमोननाय	-7713
▁खालामगासिनो	-7714
▁गुवाहाटीयाव	-7715
▁गोसोखांनानै	-7716
▁दिन्थिनायनि	-7717
▁बयनिख्रुइबो	-7718
▁बाजिनिफ्राय	-7719
▁हांख्रायनाय	-7720
▁उन्दुग्रायाव	-7721
▁नायजाबगिरिया	-7722
▁बिजिरसालियाव	-7723
▁लिरगिरिफोरनि	-7724
▁सेकस्पीयारनि	-7725
▁दैदेनगिरिफोरा	-7726
11	-7727
fi	-7728
po	-7729
ry	-7730
xt	-7731
अउ	-7732
इस	-7733
कन	-7734
खत	-7735
चर	-7736
ची	-7737
जं	-7738
ढ़	-7739
तु	-7740
दल	-7741
▁J	-7742
▁ङ	-7743
-30	-7744
ill	-7745
ine	-7746
olo	-7747
ure	-7748
आले	-7749
ङाथ	-7750
चिय	-7751
जखौ	-7752
टिन	-7753
दोब	-7754
ध्य	-7755
भुष	-7756
मोद	-7757
लथर	-7758
लुर	-7759
सन्	-7760
होआ	-7761
ादा	-7762
ीना	-7763
ुथि	-7764
ेरी	-7765
्वौ	-7766
▁अख	-7767
▁क्	-7768
▁थक	-7769
▁नक	-7770
▁पर	-7771
▁पु	-7772
▁बज	-7773
▁भग	-7774
▁भा	-7775
cell	-7776
ound	-7777
अजित	-7778
गाबा	-7779
जारि	-7780
जेनो	-7781
जोङै	-7782
ण्डि	-7783
ताखौ	-7784
तानि	-7785
थिना	-7786
नानो	-7787
फालु	-7788
बोरै	-7789
माइस	-7790
माना	-7791
रोङा	-7792
लिखौ	-7793
होमा	-7794
ागाव	-7795
ाजार	-7796
ाजोआ	-7797
ार्थ	-7798
ेस्ट	-7799
ोनाव	-7800
्लिब	-7801
▁(5)	-7802
▁--'	-7803
▁अनी	-7804
▁एनै	-7805
▁कपि	-7806
▁काउ	-7807
▁गुड	-7808
▁चीन	-7809
▁टेन	-7810
▁डिज	-7811
▁थोब	-7812
▁दहम	-7813
▁दिस	-7814
▁देद	-7815
▁नोर	-7816
▁परे	-7817
▁पेन	-7818
▁फरम	-7819
▁फरा	-7820
▁फास	-7821
▁फिट	-7822
▁फित	-7823
▁फें	-7824
▁फेन	-7825
▁बोन	-7826
▁रिट	-7827
▁लाग	-7828
▁लाल	-7829
▁सहि	-7830
▁साफ	-7831
▁सें	-7832
▁हुम	-7833
...."	-7834
ग्लां	-7835
जाथार	-7836
ज्रां	-7837
थिनाय	-7838
नियाव	-7839
पेन्ट	-7840
बालाय	-7841
ब्लाथ	-7842
ब्लिउ	-7843
मनानै	-7844
मेथाइ	-7845
म्बार	-7846
रायना	-7847
स्कुल	-7848
स्राय	-7849
ाबारी	-7850
ायारि	-7851
ावगोन	-7852
▁...।	-7853
▁will	-7854
▁अनगा	-7855
▁अराव	-7856
▁अलखद	-7857
▁आगोल	-7858
▁आजाय	-7859
▁आमथा	-7860
▁आलां	-7861
▁इज्ज	-7862
▁इनिं	-7863
▁खाजि	-7864
▁खानि	-7865
▁खारै	-7866
▁खिला	-7867
▁गरसे	-7868
▁गलाय	-7869
▁गोथा	-7870
▁गोथो	-7871
▁जब्र	-7872
▁जिखि	-7873
▁जोबा	-7874
▁थुखै	-7875
▁थुरि	-7876
▁थेला	-7877
▁दुलु	-7878
▁धुना	-7879
▁नाले	-7880
▁नेनो	-7881
▁फिल्	-7882
▁फुथि	-7883
▁फोदो	-7884
▁बाजा	-7885
▁बाटन	-7886
▁बापा	-7887
▁बिघा	-7888
▁बिथं	-7889
▁बिरि	-7890
▁बिल्	-7891
▁बोखे	-7892
▁मागि	-7893
▁मावै	-7894
▁रोङो	-7895
▁सम्फ	-7896
▁सानस	-7897
▁सुलु	-7898
▁सैनो	-7899
aptain	-7900
गारबाय	-7901
जानाया	-7902
जाब्ला	-7903
थाराखै	-7904
थावथाव	-7905
थुनलाइ	-7906
फैनाया	-7907
सानैबो	-7908
ामोनहा	-7909
▁अंखार	-7910
▁आदुंग	-7911
▁आलारि	-7912
▁इण्डि	-7913
▁इनस्ट	-7914
▁उदैनि	-7915
▁खुंनो	-7916
▁ख्लाब	-7917
▁गिदों	-7918
▁ग्रें	-7919
▁ग्रोम	-7920
▁जब्रा	-7921
▁जायनो	-7922
▁जाहां	-7923
▁जाहाज	-7924
▁जुनार	-7925
▁जोंना	-7926
▁जोबथे	-7927
▁थामजि	-7928
▁थावरि	-7929
▁दाइरि	-7930
▁दाक्ट	-7931
▁दाखोर	-7932
▁दाथाय	-7933
▁दाबोर	-7934
▁दावसा	-7935
▁दुमफे	-7936
▁दुरुं	-7937
▁दैमाल	-7938
▁नुहरो	-7939
▁बाथाव	-7940
▁बारसे	-7941
▁बिनाव	-7942
▁बिप्ल	-7943
▁बिषनि	-7944
▁बुंसो	-7945
▁बुंहर	-7946
▁बेमार	-7947
▁बोथों	-7948
▁बोबाय	-7949
▁ब्याव	-7950
▁मबाइल	-7951
▁मुङाव	-7952
▁मुब्र	-7953
▁मेसिन	-7954
▁मोबाय	-7955
▁रंजाल	-7956
▁रेबती	-7957
▁सादोर	-7958
▁सायना	-7959
▁सिलिं	-7960
▁सोनाय	-7961
▁सोरखि	-7962
▁हाथाव	-7963
▁हायार	-7964
▁हारसा	-7965
खोमादों	-7966
ग्रायाव	-7967
ग्रोदों	-7968
ङाखैमोन	-7969
बावनानै	-7970
लायग्रा	-7971
सिगौमोन	-7972
हैनांगौ	-7973
होनांगौ	-7974
▁Excell	-7975
▁अलसिया	-7976
▁आंनिया	-7977
▁आखुजों	-7978
▁आफादखौ	-7979
▁आलेजों	-7980
▁आवग्रि	-7981
▁आवाराम	-7982
▁इसेबां	-7983
▁उदयाचल	-7984
▁एरेष्ट	-7985
▁कामरुप	-7986
▁खाबुखौ	-7987
▁खुन्थि	-7988
▁खौसेथि	-7989
▁गंनानै	-7990
▁गंब्रै	-7991
▁गरसेबो	-7992
▁गलामनि	-7993
▁गाराङै	-7994
▁गावजें	-7995
▁गैयालै	-7996
▁गौहाटी	-7997
▁जाथावै	-7998
▁जाहैयो	-7999
▁जोमनाय	-8000
▁थुख्रा	-8001
▁दानथाम	-8002
▁देंखोआ	-8003
▁देरबाय	-8004
▁दैनानै	-8005
▁दौनानै	-8006
▁नुजानो	-8007
▁फारागा	-8008
▁फैसाली	-8009
▁बबावबा	-8010
▁बाजारि	-8011
▁बाटनाव	-8012
▁बादारि	-8013
▁बारदों	-8014
▁बारबाय	-8015
▁बारायो	-8016
▁बिजाबा	-8017
▁बिथाखौ	-8018
▁बिदिसो	-8019
▁बिस्ति	-8020
▁बुस्रि	-8021
▁बेनिबो	-8022
▁बोलोखौ	-8023
▁ब्रैथि	-8024
▁मावाखै	-8025
▁मासिखौ	-8026
▁राङानो	-8027
▁राहाया	-8028
▁रौनिया	-8029
▁लाजियो	-8030
▁लासैयै	-8031
▁सरकारा	-8032
▁सावनाय	-8033
▁सिंजों	-8034
▁सिन्दु	-8035
▁सिबिनो	-8036
▁सोलिनो	-8037
▁हानाया	-8038
▁हामनाय	-8039
▁हालोदै	-8040
नांसिगोन	-8041
लांनायसै	-8042
▁अननायाव	-8043
▁अनागारि	-8044
▁अरदाबाव	-8045
▁आबारीया	-8046
▁उन्दुना	-8047
▁एसेनोसै	-8048
▁कम्पानि	-8049
▁खानायाव	-8050
▁खुलुमनो	-8051
▁गाखोबाय	-8052
▁गाबोननो	-8053
▁गोदानखौ	-8054
▁गोमजोरा	-8055
▁गोमोबाय	-8056
▁जांगिला	-8057
▁जाहैबाय	-8058
▁जेरावखि	-8059
▁थैनायखौ	-8060
▁दबथायनो	-8061
▁नंथारगौ	-8062
▁निदाननि	-8063
▁नुनायाव	-8064
▁नुमारनो	-8065
▁प्रदीपा	-8066
▁प्रेमधर	-8067
▁फैनायाव	-8068
▁फैफानाय	-8069
▁फोथांना	-8070
▁बाजिसिम	-8071
▁बालन्दा	-8072
▁बाहेराव	-8073
▁बिफाङाव	-8074
▁बिरहाङा	-8075
▁बुथुमनो	-8076
▁बेफोरनो	-8077
▁बेसेननि	-8078
▁मानसिनो	-8079
▁मुलामफा	-8080
▁मेडिकेल	-8081
▁मोनजानो	-8082
▁मोननैबो	-8083
▁मोनलोङा	-8084
▁रिंसारआ	-8085
▁संबिजिर	-8086
▁सानखालि	-8087
▁सानसुमै	-8088
▁सिग्लाब	-8089
▁सिमांनि	-8090
▁सुस्रां	-8091
▁सोरमाङा	-8092
▁हांखुरै	-8093
▁हेन्देल	-8094
फेराखैमोन	-8095
▁अखाफोराव	-8096
▁अदालगुरी	-8097
▁अनजिमाया	-8098
▁खनथायारि	-8099
▁खाफालानो	-8100
▁गेलेग्रा	-8101
▁गैयाजासे	-8102
▁गोसोखाङो	-8103
▁जाजोबबाय	-8104
▁जाथारदों	-8105
▁जानायखाय	-8106
▁जानायजों	-8107
▁जानुवारि	-8108
▁जायाब्ला	-8109
▁दांग्रोम	-8110
▁दिन्थिथि	-8111
▁देंखोजों	-8112
▁देरगानाय	-8113
▁नायनायनि	-8114
▁नुहरनानै	-8115
▁पार्टिनि	-8116
▁फाहामथाय	-8117
▁फोरोंनाय	-8118
▁बिदिन्था	-8119
▁बुंफबनाय	-8120
▁माखासेया	-8121
▁मानिमुनि	-8122
▁मारिनानै	-8123
▁माहारिया	-8124
▁मिन्थिना	-8125
▁मेहेरनां	-8126
▁रिंसारनि	-8127
▁लिरनायखौ	-8128
▁लोंनांगौ	-8129
▁सन्थलाया	-8130
▁सुजुगिरि	-8131
▁हायाखैसै	-8132
▁हिनजावखौ	-8133
▁हिनजावनि	-8134
▁आवगायलाङो	-8135
▁खन्थायारि	-8136
▁खान्थिजों	-8137
▁खावलायदों	-8138
▁गेजेरावबो	-8139
▁गोरोबनानै	-8140
▁जानायबादि	-8141
▁जिबारेलिन	-8142
▁जोनोमफुरि	-8143
▁दुर्जांखौ	-8144
▁नायगिरदों	-8145
▁नारेंगुरी	-8146
▁नोंथांजों	-8147
▁प्रसेनजित	-8148
▁फाइलफोरखौ	-8149
▁बावलांबाय	-8150
▁बिहामजोखौ	-8151
▁बुंनांगोन	-8152
▁बुथारनानै	-8153
▁बुब्लियाव	-8154
▁बेखेवफाया	-8155
▁बेफोरबादि	-8156
▁मिथिहोदों	-8157
▁लागायनानै	-8158
▁सिफायनानै	-8159
▁सुशान्तनि	-8160
▁सोदोबथिया	-8161
▁Excellency	-8162
▁उजिगासेयाव	-8163
▁ओंखारबोदों	-8164
▁गोजांस्रिउ	-8165
▁डाइरेक्टरि	-8166
▁नाजाब्लाबो	-8167
▁नोंथांमोना	-8168
▁नोंनिफ्राय	-8169
▁बसुमतारिनि	-8170
▁बाथ्रायानो	-8171
▁बाहायनायनि	-8172
▁बिजाबफोरखौ	-8173
▁मोसाहारिनि	-8174
▁सानबोलावरि	-8175
▁सोदोबफोरखौ	-8176
▁होन्नानैनो	-8177
▁...........	-8178
▁इनस्ट्राकसन	-8179
▁गामिनिफ्राय	-8180
▁दावबायनायनि	-8181
▁बाहायखान्थि	-8182
▁सावरायनायनि	-8183
▁सिफिनिफ्राय	-8184
▁थुनफावथाइयाव	-8185
▁दिननिफ्रायनो	-8186
▁सेंग्राफोरनि	-8187
▁गोनोखोआरिफोरा	-8188
!!	-8189
-3	-8190
-9	-8191
/2	-8192
8)	-8193
pi	-8194
ss	-8195
um	-8196
ys	-8197
एफ	-8198
गन	-8199
थब	-8200
मी	-8201
शी	-8202
ुक	-8203
ुद	-8204
▁e	-8205
▁ण	-8206
ath	-8207
ron	-8208
एसे	-8209
खुं	-8210
खुग	-8211
जेब	-8212
दखौ	-8213
दोम	-8214
बहा	-8215
बिब	-8216
मथे	-8217
महन	-8218
यां	-8219
रिन	-8220
सिल	-8221
ामो	-8222
्दा	-8223
▁29	-8224
▁60	-8225
▁9.	-8226
▁Th	-8227
▁pl	-8228
▁टु	-8229
▁थफ	-8230
▁रग	-8231
▁रम	-8232
▁हस	-8233
खारु	-8234
खुमै	-8235
ग्ला	-8236
ङाबा	-8237
जारो	-8238
त्रि	-8239
थासे	-8240
दायै	-8241
दारा	-8242
दोलै	-8243
फाबा	-8244
फ्लं	-8245
बाना	-8246
बिनि	-8247
माबा	-8248
माहा	-8249
मोदै	-8250
सोना	-8251
स्रो	-8252
स्सा	-8253
हायि	-8254
हाला	-8255
ाइखौ	-8256
ाथाव	-8257
ान्स	-8258
ाबाव	-8259
ायनि	-8260
ासिन	-8261
िरिं	-8262
ुङाव	-8263
ेब्र	-8264
्रोद	-8265
▁(6)	-8266
▁not	-8267
▁our	-8268
▁pro	-8269
▁अमल	-8270
▁अर्	-8271
▁आउट	-8272
▁आनो	-8273
▁इंख	-8274
▁गगै	-8275
▁गुद	-8276
▁दें	-8277
▁फाम	-8278
▁फिउ	-8279
▁बरग	-8280
▁बरा	-8281
▁बहन	-8282
▁बुब	-8283
▁बेन	-8284
▁भेन	-8285
▁माध	-8286
▁मिञ	-8287
▁राण	-8288
▁रुब	-8289
▁हंख	-8290
▁हरै	-8291
▁हसि	-8292
▁हौव	-8293
ंग्लि	-8294
खुनां	-8295
ख्लें	-8296
ङालाय	-8297
थाइखौ	-8298
थारनो	-8299
दारनि	-8300
दावला	-8301
नायसो	-8302
न्दां	-8303
फुल्ल	-8304
मानसि	-8305
यायाव	-8306
राइजो	-8307
लासनि	-8308
साइनि	-8309
सिगां	-8310
सिलाय	-8311
होगोन	-8312
ाबोला	-8313
▁Date	-8314
▁अबस्	-8315
▁आसोल	-8316
▁एदाव	-8317
▁क्रि	-8318
▁खिफि	-8319
▁खेला	-8320
▁जनता	-8321
▁जबाब	-8322
▁जब्द	-8323
▁ट्रा	-8324
▁डाइन	-8325
▁थुंग	-8326
▁थोयो	-8327
▁थौदो	-8328
▁दरखौ	-8329
▁दिङा	-8330
▁देउल	-8331
▁नरेन	-8332
▁नाइट	-8333
▁नारज	-8334
▁निलि	-8335
▁नोंल	-8336
▁बारआ	-8337
▁बिसो	-8338
▁भुगि	-8339
▁मस्ट	-8340
▁मास्	-8341
▁मेनु	-8342
▁रोङि	-8343
▁लग्न	-8344
▁लिंख	-8345
▁लेदि	-8346
▁शाला	-8347
▁साखि	-8348
▁साबा	-8349
▁सायर	-8350
▁सार्	-8351
▁सासु	-8352
▁सिकि	-8353
▁सैबा	-8354
▁सोबख	-8355
....।"	-8356
ग्राखौ	-8357
दांनाय	-8358
नांनाय	-8359
फैयाखै	-8360
लासेनो	-8361
हारिमु	-8362
ामोनखौ	-8363
▁अजाया	-8364
▁अरखाव	-8365
▁आखाया	-8366
▁आफाखौ	-8367
▁आवनाय	-8368
▁इनपुट	-8369
▁इसेबो	-8370
▁एमेले	-8371
▁खामाय	-8372
▁खारनो	-8373
▁खारसन	-8374
▁खैफोर	-8375
▁खैसार	-8376
▁गगल्स	-8377
▁गसाया	-8378
▁गाननो	-8379
▁गामसा	-8380
▁गावसो	-8381
▁गिबाय	-8382
▁गुथाल	-8383
▁गुरहं	-8384
▁गैथार	-8385
▁ग्रीक	-8386
▁जावले	-8387
▁जुलाइ	-8388
▁ट्रेइ	-8389
▁थारखौ	-8390
▁थालाय	-8391
▁थैजों	-8392
▁दंनाय	-8393
▁दन्दी	-8394
▁दामोल	-8395
▁दावखा	-8396
▁दोरफो	-8397
▁द्राइ	-8398
▁नङासै	-8399
▁नाजाब	-8400
▁नायबा	-8401
▁निर्म	-8402
▁नुहरा	-8403
▁नुहुर	-8404
▁पेकेट	-8405
▁फेब्र	-8406
▁फोजों	-8407
▁फोरनि	-8408
▁बाथोन	-8409
▁बादोर	-8410
▁बिगुम	-8411
▁बिष्ण	-8412
▁बुंला	-8413
▁बेंखन	-8414
▁बेलुन	-8415
▁बेसिम	-8416
▁ब्रुं	-8417
▁भुटान	-8418
▁भुमनि	-8419
▁मानास	-8420
▁मालाइ	-8421
▁मावना	-8422
▁मोजोम	-8423
▁मोदान	-8424
▁रिंगा	-8425
▁रुमखौ	-8426
▁लहेना	-8427
▁लाफिन	-8428
▁सनानि	-8429
▁समफोर	-8430
▁सादों	-8431
▁सिखाउ	-8432
▁सिथोर	-8433
▁सिनखौ	-8434
▁सेन्ट	-8435
▁सोदेर	-8436
▁हमख्र	-8437
▁हाग्र	-8438
▁हादरा	-8439
▁हादुं	-8440
▁हामगौ	-8441
▁हालदै	-8442
▁होआखै	-8443
▁होननो	-8444
ख्रुइबो	-8445
ग्रामोन	-8446
जाबनानै	-8447
जिनांगौ	-8448
न्नायाव	-8449
साफोरनि	-8450
ालासेनो	-8451
ोनांगोन	-8452
्रायाबो	-8453
▁अक्सिन	-8454
▁अमब्रा	-8455
▁आंखौनो	-8456
▁आखाइया	-8457
▁आखुवाव	-8458
▁आरजलाइ	-8459
▁इनिंथौ	-8460
▁एप्रिल	-8461
▁कैलाशा	-8462
▁खनसेबो	-8463
▁खरथेङा	-8464
▁खांदों	-8465
▁खांनाय	-8466
▁खामहाब	-8467
▁खुंख्र	-8468
▁खुरैखौ	-8469
▁खोनाना	-8470
▁खोनाया	-8471
▁गंसेबो	-8472
▁गम्भिर	-8473
▁गामिया	-8474
▁गुस्थि	-8475
▁गेलेनो	-8476
▁गैजारो	-8477
▁गोलैयो	-8478
▁गोलोन्	-8479
▁जाबोनो	-8480
▁जाहोना	-8481
▁जिरायथ	-8482
▁जेसेखि	-8483
▁जोबगोन	-8484
▁थरायना	-8485
▁दरखङाव	-8486
▁दाबोनो	-8487
▁दाहाखौ	-8488
▁दुंबुर	-8489
▁दुरजां	-8490
▁नंगौना	-8491
▁नङागोन	-8492
▁नायगार	-8493
▁फसंनाय	-8494
▁फेन्दा	-8495
▁बदमाइस	-8496
▁बयनोबो	-8497
▁बानबुं	-8498
▁बारजां	-8499
▁बारासो	-8500
▁बावनाय	-8501
▁बावैनो	-8502
▁बियादै	-8503
▁बुध्दि	-8504
▁बुन्दा	-8505
▁बेदरखौ	-8506
▁बेसेना	-8507
▁बैसागो	-8508
▁माखौबा	-8509
▁मुवानि	-8510
▁मैयानि	-8511
▁मोनानि	-8512
▁मोनाबा	-8513
▁मोसाखौ	-8514
▁रोङाखै	-8515
▁लाजिनो	-8516
▁लान्था	-8517
▁लाफानो	-8518
▁लायनाय	-8519
▁समाजखौ	-8520
▁सिखावै	-8521
▁सिन्था	-8522
▁सुग्रि	-8523
▁सेवारि	-8524
▁सोनारो	-8525
▁सोर्गो	-8526
▁स्टाइल	-8527
▁हायिनि	-8528
ग्रोमोना	-8529
हैदोंमोन	-8530
▁अनारिया	-8531
▁आंखालाव	-8532
▁आंहालाय	-8533
▁उजिगिबि	-8534
▁उन्दुयो	-8535
▁एंगारनो	-8536
▁कन्ट्रा	-8537
▁खाजानाय	-8538
▁खावलायो	-8539
▁खिन्थाह	-8540
▁खैफोदखौ	-8541
▁खोमसिनि	-8542
▁गाबनाया	-8543
▁गिबियाव	-8544
▁गुमुरखौ	-8545
▁गोजौयाव	-8546
▁जाफैबाय	-8547
▁जालांनो	-8548
▁जाहैदों	-8549
▁जेंनानि	-8550
▁जोंखाङो	-8551
▁ट्रेन्स	-8552
▁डिजिटाल	-8553
▁थांफानो	-8554
▁थाबायनो	-8555
▁दाहायाव	-8556
▁दुखुनां	-8557
▁धोरोमखौ	-8558
▁नाथ्रोद	-8559
▁नोंसाजो	-8560
▁फंबायनि	-8561
▁फरायदों	-8562
▁फारनैखौ	-8563
▁बयजोंबो	-8564
▁बाज्रेद	-8565
▁बायजोनि	-8566
▁बाहागोआ	-8567
▁बिथायाव	-8568
▁बुख्रुब	-8569
▁बुजायनो	-8570
▁बुहुमाव	-8571
▁बेजोंनो	-8572
▁बेरफ्रु	-8573
▁बेहायनो	-8574
▁बोख्लाय	-8575
▁बोनायाव	-8576
▁मदारामा	-8577
▁मालायखौ	-8578
▁मालायनो	-8579
▁मुंमाया	-8580
▁मैहुराव	-8581
▁रिंसारा	-8582
▁लंपेन्ट	-8583
▁लामाथिं	-8584
▁लोगोफोर	-8585
▁सारनानै	-8586
▁सियालनि	-8587
▁सोमद्रि	-8588
▁हरनायनि	-8589
▁हायैयाव	-8590
▁हायैलाय	-8591
▁हारियाव	-8592
▁हुसियार	-8593
▁होखारनो	-8594
▁होफैबाय	-8595
▁आन्दासाव	-8596
▁इजराइलनि	-8597
▁एंगारनाय	-8598
▁एसेबांनो	-8599
▁खान्थिखौ	-8600
▁खोमानानै	-8601
▁गाइखेरखौ	-8602
▁गावबागाव	-8603
▁गिदिंनाय	-8604
▁जवानफोरा	-8605
▁जाखांबाय	-8606
▁जानायलाय	-8607
▁जाहोनानै	-8608
▁ट्रेजेदि	-8609
▁डिसेम्बर	-8610
▁थगायसुला	-8611
▁थांखिजों	-8612
▁थांनायसै	-8613
▁थायाब्ला	-8614
▁थुनलाइखौ	-8615
▁दावगानाय	-8616
▁दावबायनो	-8617
▁दाहालागै	-8618
▁दिल्लीनि	-8619
▁दैखांनाय	-8620
▁नांगौमोन	-8621
▁नांज्लाय	-8622
▁नांबावगौ	-8623
▁नायजाबखौ	-8624
▁नुब्लानो	-8625
▁प्रफुल्ल	-8626
▁बाजुरामा	-8627
▁बारायनाय	-8628
▁बुंथिनाय	-8629
▁मालायनाव	-8630
▁मास्थारा	-8631
▁मिनिखुसि	-8632
▁मुजुब्ला	-8633
▁मोगथाङाव	-8634
▁मोनबोनाय	-8635
▁रावफोरनि	-8636
▁लुबैनाया	-8637
▁साजायनाय	-8638
▁सिख्लासा	-8639
▁सिनायाखै	-8640
▁सोंनायनि	-8641
▁सोंनायसै	-8642
▁हज्रिखाव	-8643
▁हसिख्राव	-8644
▁हुगारबाय	-8645
▁आमेरिकानि	-8646
▁एमनिफ्राय	-8647
▁खिन्थानाय	-8648
▁गोजोन्नाय	-8649
▁जात्रागान	-8650
▁जावलियानि	-8651
▁जाहोनांगौ	-8652
▁जिल्लायाव	-8653
▁थुलुंगाखौ	-8654
▁नायजाबारि	-8655
▁नायहरब्ला	-8656
▁बिगियाननि	-8657
▁बिनहारीया	-8658
▁बिनानावखौ	-8659
▁बुंथिगिरि	-8660
▁बुंब्लाबो	-8661
▁बेबायदिनो	-8662
▁बेसेबांदि	-8663
▁महाराजाखौ	-8664
▁महाराजाया	-8665
▁माहारियाव	-8666
▁रायज्लायो	-8667
▁लेंहरनानै	-8668
▁संग्रायाव	-8669
▁सानब्लाबो	-8670
▁साफ्रोमबो	-8671
▁सिथाबनानै	-8672
▁सोरजिगिरि	-8673
▁हानायमानि	-8674
▁होननानैनो	-8675
▁होननानैबो	-8676
▁ओंखारबोनाय	-8677
▁खुदियाफोरा	-8678
▁गाम्बारिनि	-8679
▁गोजोनग्लाय	-8680
▁नार्जारीनि	-8681
▁फरायग्रानि	-8682
▁फार्सेथिङै	-8683
▁फालांगियाव	-8684
▁फोरमायथिनो	-8685
▁रामोन्दाया	-8686
▁लुबैदोंमोन	-8687
▁लोंखांनानै	-8688
▁सानहाबनानै	-8689
▁सिखोमानानै	-8690
▁सोदोबफोरनि	-8691
▁सोलायनायनि	-8692
▁हांखोफोरखौ	-8693
▁होन्नानैबो	-8694
▁गिख्रंथावना	-8695
▁फरायसाफोरनि	-8696
▁मोनलायनायखौ	-8697
▁मोनलायनायनि	-8698
▁गाग्लोबनायनि	-8699
▁हिन्जावफोरनि	-8700
▁राजखान्थियारि	-8701
▁सोमावसारनायखौ	-8702
▁लांगोनानिफ्राय	-8703
19	-8704
cc	-8705
gy	-8706
iv	-8707
la	-8708
lo	-8709
pe	-8710
खल	-8711
गद	-8712
फ्	-8713
बी	-8714
मद	-8715
रन	-8716
्भ	-8717
▁l	-8718
.00	-8719
ame	-8720
and	-8721
ere	-8722
jec	-8723
ory	-8724
ost	-8725
rom	-8726
काइ	-8727
क्य	-8728
जिन	-8729
ताल	-8730
देब	-8731
नाग	-8732
फेस	-8733
ब्ब	-8734
मिक	-8735
मुख	-8736
लाप	-8737
ाइज	-8738
ुलु	-8739
ेसे	-8740
ोरा	-8741
▁2,	-8742
▁70	-8743
▁98	-8744
▁ad	-8745
▁it	-8746
▁एख	-8747
▁गज	-8748
▁चा	-8749
▁डी	-8750
▁दस	-8751
▁फथ	-8752
▁भट	-8753
▁मम	-8754
hara	-8755
owel	-8756
very	-8757
ंग्र	-8758
आंखौ	-8759
आंहा	-8760
आयदा	-8761
आरति	-8762
आसाम	-8763
उदार	-8764
कानि	-8765
खुमा	-8766
गौबा	-8767
टारी	-8768
टिया	-8769
तिनि	-8770
थामा	-8771
दाङै	-8772
दैखौ	-8773
दैया	-8774
नामा	-8775
निनो	-8776
पुरी	-8777
फुलि	-8778
फ्रे	-8779
बराज	-8780
बिजि	-8781
बुजि	-8782
बेना	-8783
बोगौ	-8784
मस्क	-8785
माखा	-8786
माने	-8787
म्बा	-8788
यैसो	-8789
रुफा	-8790
रुवा	-8791
लदार	-8792
ल्टा	-8793
ष्टि	-8794
सनखौ	-8795
सादि	-8796
सामा	-8797
सैलै	-8798
हौवा	-8799
ाग्र	-8800
ेलाव	-8801
ोबाव	-8802
्रेल	-8803
्लिं	-8804
▁195	-8805
▁Com	-8806
▁Yes	-8807
▁अनज	-8808
▁आदि	-8809
▁आयु	-8810
▁उकि	-8811
▁उसि	-8812
▁एरख	-8813
▁एले	-8814
▁कलि	-8815
▁किल	-8816
▁क्ष	-8817
▁खनो	-8818
▁चिर	-8819
▁जीब	-8820
▁जुब	-8821
▁झार	-8822
▁टें	-8823
▁थखन	-8824
▁थाज	-8825
▁थिउ	-8826
▁थैस	-8827
▁दफा	-8828
▁दाफ	-8829
▁दिग	-8830
▁निं	-8831
▁बर्	-8832
▁बाक	-8833
▁मते	-8834
▁महि	-8835
▁मही	-8836
▁मोर	-8837
▁रजे	-8838
▁रेप	-8839
▁लेङ	-8840
▁श्व	-8841
▁सफा	-8842
▁समर	-8843
▁सरब	-8844
▁सिक	-8845
▁सिर	-8846
▁हबे	-8847
▁हेब	-8848
आनारी	-8849
गाथाम	-8850
गेजेर	-8851
गोजोन	-8852
गोमजा	-8853
ङोमोन	-8854
दावसि	-8855
दुमसि	-8856
फागोन	-8857
फारां	-8858
बिथां	-8859
भारखौ	-8860
माजों	-8861
मोननो	-8862
मोनसे	-8863
यारनि	-8864
यावसो	-8865
ल्टार	-8866
सिंनि	-8867
सियेल	-8868
सिलाइ	-8869
स्लिउ	-8870
ांनाय	-8871
ोनाङो	-8872
्लाखौ	-8873
▁2000	-8874
▁that	-8875
▁आराम	-8876
▁इनाइ	-8877
▁इन्स	-8878
▁खसाब	-8879
▁खाङो	-8880
▁खिनो	-8881
▁गादि	-8882
▁गाया	-8883
▁जालि	-8884
▁डिमा	-8885
▁थाङै	-8886
▁थालि	-8887
▁थावा	-8888
▁दरसे	-8889
▁दस्ट	-8890
▁दुइन	-8891
▁पार्	-8892
▁फाइन	-8893
▁फाखा	-8894
▁फारा	-8895
▁फिथर	-8896
▁फुनो	-8897
▁फोरो	-8898
▁बहाय	-8899
▁बारो	-8900
▁बालु	-8901
▁बुरख	-8902
▁बेसर	-8903
▁माउस	-8904
▁मागो	-8905
▁माहि	-8906
▁मिसे	-8907
▁मीना	-8908
▁मेजर	-8909
▁रानी	-8910
▁रेदि	-8911
▁लर्ड	-8912
▁लवार	-8913
▁लाकी	-8914
▁सम्प	-8915
▁साइर	-8916
▁साफि	-8917
▁सिखौ	-8918
▁सैथि	-8919
▁सोबो	-8920
▁सौवो	-8921
▁सौहै	-8922
▁हरखि	-8923
▁हैयो	-8924
कराझार	-8925
ख्लैनो	-8926
चन्द्र	-8927
ज्लायो	-8928
थायानो	-8929
नानैनो	-8930
फाग्लि	-8931
फैब्ला	-8932
बाग्रि	-8933
मस्कार	-8934
मायाबो	-8935
मुस्रि	-8936
यारामा	-8937
राजाया	-8938
लांगार	-8939
लायगोन	-8940
हैनोसै	-8941
ाग्दाउ	-8942
ाबनानै	-8943
ाहैबाय	-8944
्मायाव	-8945
▁2008.	-8946
▁words	-8947
▁अनफाव	-8948
▁आखलाव	-8949
▁आखुमा	-8950
▁आदानि	-8951
▁आरोमा	-8952
▁उदुवा	-8953
▁उल्टा	-8954
▁एरनाय	-8955
▁एसेनो	-8956
▁कनष्ट	-8957
▁खिथिर	-8958
▁खुथार	-8959
▁खेवनो	-8960
▁गायनो	-8961
▁गिदित	-8962
▁गुबुं	-8963
▁गेदेद	-8964
▁गेसेव	-8965
▁गोजोर	-8966
▁चेयार	-8967
▁जफायो	-8968
▁जरासे	-8969
▁जाखार	-8970
▁जोगोन	-8971
▁ज्राब	-8972
▁टावार	-8973
▁टेबोल	-8974
▁थाथाव	-8975
▁थादेर	-8976
▁थायसे	-8977
▁थारला	-8978
▁थिफुं	-8979
▁थुंगे	-8980
▁थुरसि	-8981
▁दबथाय	-8982
▁दसेनो	-8983
▁दाराय	-8984
▁दिननि	-8985
▁दुफुं	-8986
▁देरनो	-8987
▁नारसि	-8988
▁नेपाल	-8989
▁नोंदि	-8990
▁फिरफि	-8991
▁फिल्म	-8992
▁बादों	-8993
▁बानखौ	-8994
▁बिबां	-8995
▁बिमुं	-8996
▁बिश्व	-8997
▁बिहार	-8998
▁बुंदो	-8999
▁बेखौथ	-9000
▁बेजाय	-9001
▁बेथेर	-9002
▁बेवनो	-9003
▁बैफोर	-9004
▁बोख्ल	-9005
▁बोदों	-9006
▁ब्रां	-9007
▁ब्लां	-9008
▁मन्दि	-9009
▁माराव	-9010
▁मुकुट	-9011
▁मुलुक	-9012
▁मेलेर	-9013
▁मैखुन	-9014
▁मोनखौ	-9015
▁मोनजा	-9016
▁रमाया	-9017
▁रासाय	-9018
▁रिक्स	-9019
▁रेलवे	-9020
▁लांसु	-9021
▁लादाय	-9022
▁लासिं	-9023
▁लुफाव	-9024
▁सफ्ट्	-9025
▁सानना	-9026
▁सुबुर	-9027
▁स्राव	-9028
▁हराखै	-9029
▁हरासै	-9030
▁होखां	-9031
जानायाव	-9032
थायगिरि	-9033
थुमनानै	-9034
दिनखालि	-9035
नांनोसै	-9036
निख्रुय	-9037
फोरावबो	-9038
लांब्ला	-9039
स्रिनाय	-9040
स्लायनो	-9041
्लायानो	-9042
▁अजितनो	-9043
▁अरायथा	-9044
▁इसिङाव	-9045
▁एरैनोथ	-9046
▁कार्बि	-9047
▁खुदुमो	-9048
▁गाखोनो	-9049
▁गान्थि	-9050
▁गावदां	-9051
▁गियानि	-9052
▁गुवारै	-9053
▁गेलेयो	-9054
▁गैथारा	-9055
▁गैयैनि	-9056
▁गोथौवै	-9057
▁गोमायो	-9058
▁गोरायै	-9059
▁गोहोमा	-9060
▁जानाङो	-9061
▁जोंजों	-9062
▁डिजाइन	-9063
▁थगायनो	-9064
▁थाइलिर	-9065
▁थाङाखै	-9066
▁थुनफाव	-9067
▁दंजोबो	-9068
▁दंथारो	-9069
▁दावदाब	-9070
▁दिरिया	-9071
▁दुखुवा	-9072
▁दोनखुम	-9073
▁नागाया	-9074
▁नारायण	-9075
▁नालेया	-9076
▁नैजिबा	-9077
▁फाइलखौ	-9078
▁फायारि	-9079
▁फुलिनि	-9080
▁बरायनो	-9081
▁बादिसो	-9082
▁बानानि	-9083
▁बानाया	-9084
▁बाराखौ	-9085
▁बावहाय	-9086
▁बावाखै	-9087
▁बिखौबो	-9088
▁बुद्रै	-9089
▁बेदिनो	-9090
▁बेनोदि	-9091
▁बेसेदि	-9092
▁बोथिसे	-9093
▁महरजों	-9094
▁माग्रा	-9095
▁मावसोम	-9096
▁मुगैयो	-9097
▁मोसौखौ	-9098
▁रमायना	-9099
▁रमेननि	-9100
▁रागजों	-9101
▁रुंसार	-9102
▁रेकर्ड	-9103
▁रैखानि	-9104
▁रोंबाय	-9105
▁लक्षीम	-9106
▁लिरबाय	-9107
▁लेकसार	-9108
▁शंकरनि	-9109
▁शिबराज	-9110
▁समायखौ	-9111
▁सावसुब	-9112
▁साहाया	-9113
▁सिख्रि	-9114
▁सिबियो	-9115
▁सिमाङा	-9116
▁सिमानि	-9117
▁सिरिसे	-9118
▁सुरनाय	-9119
▁सेबखां	-9120
▁सैमाया	-9121
▁सोरमोन	-9122
▁स्लगान	-9123
▁हरावनो	-9124
▁हरिभुष	-9125
▁हर्खाब	-9126
▁हांखुर	-9127
▁हाथारा	-9128
▁हाबहां	-9129
▁हाबिलद	-9130
▁हामसिन	-9131
▁हार्सा	-9132
▁हासिगौ	-9133
▁होफिनो	-9134
▁हौवाखौ	-9135
.......।	-9136
ग्राफोरा	-9137
नोंथांनि	-9138
फिननायनि	-9139
फोरजोंनो	-9140
बावनांगौ	-9141
बिदिब्ला	-9142
मागिरिनि	-9143
लायनायनि	-9144
▁.....।"	-9145
▁Captain	-9146
▁अननायखौ	-9147
▁अन्दराव	-9148
▁आखुथाया	-9149
▁आवगायनि	-9150
▁इंराजनि	-9151
▁उथ्रिनो	-9152
▁उनथाराव	-9153
▁एक्सटेन	-9154
▁ओंथियाव	-9155
▁खोबनानै	-9156
▁खोमानां	-9157
▁गसाथिया	-9158
▁गाननाया	-9159
▁गावस्रा	-9160
▁गिबिसिन	-9161
▁गुस्लाय	-9162
▁गोमाबाय	-9163
▁गोलैदों	-9164
▁गोलैनाय	-9165
▁जाखाबाय	-9166
▁जिंगासि	-9167
▁जुजाइनि	-9168
▁थांखियै	-9169
▁थुनलाया	-9170
▁थोंजोङै	-9171
▁दंबावयो	-9172
▁दमासुवा	-9173
▁दावहाया	-9174
▁दुंब्रु	-9175
▁देरनानै	-9176
▁नाख्रेब	-9177
▁नारनानै	-9178
▁निखाउरि	-9179
▁निखावरि	-9180
▁नुहैबाय	-9181
▁नोंसोरो	-9182
▁फारियाव	-9183
▁फारिलाइ	-9184
▁फोसाबनो	-9185
▁बाइजोआव	-9186
▁बिखाजों	-9187
▁बुंग्रा	-9188
▁बेंगिरि	-9189
▁बेण्डेज	-9190
▁बेरामाव	-9191
▁मिनिटसो	-9192
▁मुगैनाय	-9193
▁मुब्रुं	-9194
▁मेडामनि	-9195
▁मेलेमनि	-9196
▁मोदाइजो	-9197
▁मोदायजो	-9198
▁मोन्नाव	-9199
▁मोसादों	-9200
▁रोंगौथि	-9201
▁लाखिगोन	-9202
▁लाखिदों	-9203
▁लोगोजों	-9204
▁सफ्टवेर	-9205
▁साननैनि	-9206
▁सोदोबाव	-9207
▁सौफैबाय	-9208
▁हाखिमनि	-9209
▁हाथर्खि	-9210
▁हायनारि	-9211
▁हासिगोन	-9212
▁होख्रां	-9213
▁होफैनाय	-9214
▁होबथानो	-9215
गिरिफोरखौ	-9216
थारनांगोन	-9217
निफ्रायसो	-9218
▁आनारामखौ	-9219
▁खन्थाइनि	-9220
▁खासिबारी	-9221
▁खुन्थिया	-9222
▁खोख्लैनो	-9223
▁गाखोहैयो	-9224
▁गाज्रिनि	-9225
▁गोनांसिन	-9226
▁ग्रीमउइग	-9227
▁जायाखैसै	-9228
▁जालांगोन	-9229
▁जालायनाय	-9230
▁थांनायखौ	-9231
▁थांफानाय	-9232
▁दोनखानाय	-9233
▁नागाफ्रा	-9234
▁नाजानानै	-9235
▁नामाब्रा	-9236
▁नायहरदों	-9237
▁नीलाम्बर	-9238
▁नुजाफैयो	-9239
▁प्रसेसिं	-9240
▁प्रेकटिस	-9241
▁फाग्लिया	-9242
▁फिसाफोरा	-9243
▁फैफिनाखै	-9244
▁बयनिखुरै	-9245
▁बारफुनाय	-9246
▁बिथिंजाय	-9247
▁बिदिनोसै	-9248
▁बुंनायनि	-9249
▁बुंनायाव	-9250
▁बुब्लिया	-9251
▁मोजांथार	-9252
▁लगायनानै	-9253
▁लाइजामाव	-9254
▁लानायमोन	-9255
▁लायाजासे	-9256
▁लायोब्ला	-9257
▁लाहारीनि	-9258
▁लिरनायनि	-9259
▁लोंनायनि	-9260
▁सानथामनि	-9261
▁साननायनि	-9262
▁सामलायनो	-9263
▁सिथलायाव	-9264
▁सोंनांगौ	-9265
▁सोरजिदों	-9266
▁हाबफैबाय	-9267
▁हाबिलाया	-9268
▁होनायमोन	-9269
▁होब्लानो	-9270
▁अनुलेखाया	-9271
▁उन्दुनानै	-9272
▁खान्थियाव	-9273
▁खालामामोन	-9274
▁खिन्थाजोब	-9275
▁गाज्रिसिन	-9276
▁गुजुस्रेम	-9277
▁थांनांगोन	-9278
▁थाइलालिखौ	-9279
▁थेवब्लाबो	-9280
▁दारेन्द्र	-9281
▁दिहुनगिरि	-9282
▁नांलायनाय	-9283
▁नागिरनाया	-9284
▁नोंथाङानो	-9285
▁फावदिन्थि	-9286
▁फैसालियाव	-9287
▁फोनांनानै	-9288
▁बांलादेशी	-9289
▁बिथांमोना	-9290
▁बिलिरनानै	-9291
▁बिहामजोनि	-9292
▁बेखेवफाखौ	-9293
▁बेनिख्रुइ	-9294
▁मिथिंगाया	-9295
▁मोखाङावनो	-9296
▁मोदोमफ्रु	-9297
▁मोनथारबाय	-9298
▁लिंहरनानै	-9299
▁लोगोफोरखौ	-9300
▁साख्रियाव	-9301
▁सानगासिनो	-9302
▁सानस्रिया	-9303
▁सिख्लाफोर	-9304
▁सोदोमस्रि	-9305
▁सोलिबोनाय	-9306
▁हाबफैनानै	-9307
▁हारसिङैनो	-9308
फ्लांदोंमोन	-9309
▁अबंलाउरिया	-9310
▁इनफरमेसनखौ	-9311
▁गेजेरजोंनो	-9312
▁गोरोन्थिनि	-9313
▁थाखोमानानै	-9314
▁दान्दिसेनि	-9315
▁दोनथुमग्रा	-9316
▁नार्जारिया	-9317
▁नोंसोरबादि	-9318
▁प्रशान्तवा	-9319
▁फावथाइयारि	-9320
▁फिसाज्लाया	-9321
▁बिलिफांजों	-9322
▁बोहैलांनाय	-9323
▁ब्रेकफास्ट	-9324
▁रावनिफ्राय	-9325
▁लाबोदोंमोन	-9326
▁लोमजानायनि	-9327
▁सिख्लाफोरा	-9328
▁सुजुग्रानि	-9329
▁सोमावसारनो	-9330
▁हाबाफारिया	-9331
▁होमब्लालाय	-9332
▁अफिसनिफ्राय	-9333
▁उन्दुलांबाय	-9334
▁ओंखारबोनानै	-9335
▁जादोंब्लाबो	-9336
▁दानस्लायनाय	-9337
▁दावबायनायाव	-9338
▁फरायखांनानै	-9339
▁फोरोंगिरिनि	-9340
▁बारानिफ्राय	-9341
▁सान्थ्रिफोर	-9342
▁सिख्लाफोरनि	-9343
▁हाबाफारिजों	-9344
▁इन्दुप्रभाया	-9345
▁बायजोनिफ्राय	-9346
▁सेंग्राफोरखौ	-9347
▁हिन्जावफोरखौ	-9348
▁मावफारियाफोरा	-9349
▁सान्थ्रिफोरखौ	-9350
▁दायनिगिरिफोरखौ	-9351
▁जिरायनायनिफ्राय	-9352
▁बिगियानगिरिफोरा	-9353
.)	-9354
/1	-9355
61	-9356
80	-9357
ak	-9358
ce	-9359
ub	-9360
अब	-9361
अल	-9362
अस	-9363
एम	-9364
एर	-9365
धन	-9366
फं	-9367
भल	-9368
षा	-9369
ोट	-9370
▁K	-9371
ard	-9372
fic	-9373
ong	-9374
orm	-9375
ous	-9376
गखौ	-9377
गुड	-9378
गुन	-9379
गुब	-9380
ङाल	-9381
दसे	-9382
पाइ	-9383
बबि	-9384
बले	-9385
बोथ	-9386
भेल	-9387
मनो	-9388
मिव	-9389
मोस	-9390
यनि	-9391
याल	-9392
रिं	-9393
रेइ	-9394
लात	-9395
लोब	-9396
शिक	-9397
सिड	-9398
सुख	-9399
स्य	-9400
हैद	-9401
ेटि	-9402
ेलि	-9403
▁28	-9404
▁31	-9405
▁]।	-9406
▁an	-9407
▁pe	-9408
▁उल	-9409
▁कस	-9410
▁कु	-9411
▁छि	-9412
▁ठा	-9413
▁तद	-9414
▁थन	-9415
▁थल	-9416
▁दद	-9417
▁धन	-9418
▁रस	-9419
▁लर	-9420
▁ल्	-9421
▁हब	-9422
ical	-9423
sion	-9424
ंखाव	-9425
इन्ट	-9426
उननि	-9427
उन्ट	-9428
क्का	-9429
खनला	-9430
खाङा	-9431
खान्	-9432
खुगु	-9433
खोना	-9434
खोला	-9435
गोथो	-9436
ग्रे	-9437
टिलि	-9438
ण्डा	-9439
त्रा	-9440
थियो	-9441
थिलि	-9442
दानो	-9443
दारि	-9444
दासो	-9445
दैनि	-9446
दौलद	-9447
नासै	-9448
निनि	-9449
न्दन	-9450
फराय	-9451
बाजा	-9452
बाथा	-9453
बिमा	-9454
बुरै	-9455
मिला	-9456
म्बि	-9457
याना	-9458
रायो	-9459
लारि	-9460
लाला	-9461
लासै	-9462
वासो	-9463
साहा	-9464
सुमा	-9465
हनाय	-9466
हाखि	-9467
ुगाव	-9468
ेजनि	-9469
ोदान	-9470
ोननि	-9471
्लाव	-9472
्लोब	-9473
▁500	-9474
▁sen	-9475
▁अलं	-9476
▁अहं	-9477
▁आनज	-9478
▁एखम	-9479
▁एरि	-9480
▁कनट	-9481
▁कमब	-9482
▁कान	-9483
▁काब	-9484
▁गनो	-9485
▁गाड	-9486
▁गोस	-9487
▁जरा	-9488
▁ताल	-9489
▁थुम	-9490
▁देग	-9491
▁देत	-9492
▁दैज	-9493
▁धनु	-9494
▁नेप	-9495
▁पाप	-9496
▁बबा	-9497
▁बस्	-9498
▁बुग	-9499
▁बृष	-9500
▁मकर	-9501
▁मुन	-9502
▁मेष	-9503
▁रिज	-9504
▁रेख	-9505
▁रोम	-9506
▁लाभ	-9507
▁लेप	-9508
▁सेन	-9509
▁स्प	-9510
▁हजम	-9511
▁हेल	-9512
achar	-9513
ology	-9514
आदाया	-9515
काइनि	-9516
कासुर	-9517
खोनाय	-9518
गानाय	-9519
थिंबो	-9520
दांखौ	-9521
दोमोन	-9522
नांला	-9523
न्साव	-9524
फिसाइ	-9525
बाजार	-9526
बेसाद	-9527
मायना	-9528
मिष्ट	-9529
राइनि	-9530
रुमाव	-9531
र्सनि	-9532
वावबो	-9533
साथाम	-9534
सिख्ल	-9535
ाजिया	-9536
ामानो	-9537
ामोगि	-9538
िसुला	-9539
ुवारी	-9540
ेलजों	-9541
्यानि	-9542
्लायो	-9543
।....	-9544
▁1980	-9545
▁अग्र	-9546
▁अवाल	-9547
▁आंखि	-9548
▁आंबा	-9549
▁आइखौ	-9550
▁आफोद	-9551
▁आबसा	-9552
▁आमथे	-9553
▁आर्ट	-9554
▁आर्य	-9555
▁इक्ल	-9556
▁एफनि	-9557
▁कालि	-9558
▁खाया	-9559
▁खिथा	-9560
▁खिलि	-9561
▁खुवा	-9562
▁गलाफ	-9563
▁गसंद	-9564
▁गस्व	-9565
▁गांग	-9566
▁गेरे	-9567
▁चाहा	-9568
▁जर्ज	-9569
▁जाखर	-9570
▁जिबि	-9571
▁जुथा	-9572
▁जेखि	-9573
▁टमेट	-9574
▁थजेन	-9575
▁थबनो	-9576
▁थांस	-9577
▁थामि	-9578
▁थिया	-9579
▁थौले	-9580
▁दाखि	-9581
▁दाबु	-9582
▁दामा	-9583
▁दिथा	-9584
▁देलै	-9585
▁दैनो	-9586
▁दोबै	-9587
▁दोरो	-9588
▁दौलद	-9589
▁नबीन	-9590
▁नायल	-9591
▁फालु	-9592
▁फासय	-9593
▁फासि	-9594
▁फिथि	-9595
▁फैला	-9596
▁फोला	-9597
▁फ्रा	-9598
▁बदलै	-9599
▁बराद	-9600
▁बाथा	-9601
▁बाहा	-9602
▁बुंख	-9603
▁बुरा	-9604
▁बेदत	-9605
▁बेले	-9606
▁बैखौ	-9607
▁बोयै	-9608
▁माइन	-9609
▁माबे	-9610
▁मारा	-9611
▁मोनज	-9612
▁राइज	-9613
▁रासि	-9614
▁रोंग	-9615
▁लाला	-9616
▁सरला	-9617
▁सहखौ	-9618
▁साथि	-9619
▁सानि	-9620
▁सोमो	-9621
▁सौवै	-9622
▁स्पि	-9623
▁हजुर	-9624
▁हरदो	-9625
▁होयि	-9626
.....।	-9627
खांगोन	-9628
ग्रोनो	-9629
जाम्बि	-9630
थारनाय	-9631
थुनानै	-9632
दबनानै	-9633
दाहानि	-9634
देरनाय	-9635
फादेरो	-9636
फामानि	-9637
फिनासै	-9638
फ्लायो	-9639
बंग्रा	-9640
लाङासै	-9641
सायानो	-9642
सायारि	-9643
सिनदों	-9644
सियारि	-9645
सेखौनो	-9646
होग्रा	-9647
ालायनो	-9648
िस्रां	-9649
ेण्डार	-9650
्रिडिस	-9651
▁अनिमा	-9652
▁आइफोर	-9653
▁आदाखौ	-9654
▁आबहाव	-9655
▁आबारि	-9656
▁आरिमु	-9657
▁आर्टि	-9658
▁इसोरा	-9659
▁उदैया	-9660
▁एरिया	-9661
▁कन्या	-9662
▁कर्कट	-9663
▁कार्ड	-9664
▁कुम्भ	-9665
▁केडार	-9666
▁गगन्द	-9667
▁गाबगु	-9668
▁गारहर	-9669
▁गेन्द	-9670
▁गेरेब	-9671
▁गोबोर	-9672
▁गोरां	-9673
▁जग्रा	-9674
▁जाग्र	-9675
▁जारां	-9676
▁जिंनि	-9677
▁जिरात	-9678
▁जुगाव	-9679
▁जौथाय	-9680
▁ट्रेन	-9681
▁थोंनै	-9682
▁थौबाय	-9683
▁दाखोन	-9684
▁दाबाव	-9685
▁दामनो	-9686
▁दावमा	-9687
▁दावसि	-9688
▁देनाय	-9689
▁दोंनै	-9690
▁दोरोद	-9691
▁धर्मे	-9692
▁नाययो	-9693
▁नायसन	-9694
▁निजोर	-9695
▁पेपार	-9696
▁प्लटा	-9697
▁फसंनो	-9698
▁फान्ड	-9699
▁फावखौ	-9700
▁फावनि	-9701
▁बादाव	-9702
▁बिफोर	-9703
▁बिरों	-9704
▁बिसाइ	-9705
▁बुनाय	-9706
▁बेंनो	-9707
▁बेलनि	-9708
▁महरथि	-9709
▁माजेन	-9710
▁माथाम	-9711
▁मानखौ	-9712
▁मामोन	-9713
▁माष्ट	-9714
▁मिथुन	-9715
▁मुंहा	-9716
▁मृगेन	-9717
▁मेथाय	-9718
▁मेलनि	-9719
▁राखाव	-9720
▁राज्य	-9721
▁रिटाय	-9722
▁रिलिफ	-9723
▁लांफै	-9724
▁लाग्र	-9725
▁लाथिख	-9726
▁लावथि	-9727
▁लिरना	-9728
▁लेङाय	-9729
▁लेबार	-9730
▁लैहोर	-9731
▁सरकार	-9732
▁सहरनि	-9733
▁सानफा	-9734
▁सामोल	-9735
▁सिदोब	-9736
▁सुदों	-9737
▁स्रोत	-9738
▁हासुं	-9739
▁हिसान	-9740
▁हैगोन	-9741
▁हैबाय	-9742
jective	-9743
खांब्ला	-9744
दोर्सोन	-9745
नायखौबो	-9746
फिन्दों	-9747
फोरालाय	-9748
फ्लाबाय	-9749
बारियाव	-9750
ब्लाथाय	-9751
मेन्टनि	-9752
ल्दाबाय	-9753
हैनायनि	-9754
्रायबाय	-9755
▁अननानै	-9756
▁आंखौसो	-9757
▁आथोननि	-9758
▁आरिखां	-9759
▁इउटिलि	-9760
▁उनदाहा	-9761
▁खननानै	-9762
▁खनाथिं	-9763
▁खलथाया	-9764
▁खाम्फा	-9765
▁खारबाय	-9766
▁खालामै	-9767
▁खुनुरु	-9768
▁खेवनाय	-9769
▁खोलाहा	-9770
▁खौसेयै	-9771
▁गानबाय	-9772
▁गाबहां	-9773
▁गामिखौ	-9774
▁गारगोन	-9775
▁गालाङो	-9776
▁गिनाया	-9777
▁गेब्ले	-9778
▁गोज्वौ	-9779
▁गोथाङै	-9780
▁गोनाङा	-9781
▁जायासै	-9782
▁जावैसो	-9783
▁जुवारि	-9784
▁जेसेनो	-9785
▁जौगानो	-9786
▁डिभाइस	-9787
▁डिस्क्	-9788
▁थांगार	-9789
▁थाखोमा	-9790
▁थानाङो	-9791
▁थानोसै	-9792
▁थाबोला	-9793
▁थालाखौ	-9794
▁थाल्ला	-9795
▁दाग्रा	-9796
▁दिहुनो	-9797
▁दैमारी	-9798
▁दैमालु	-9799
▁दोंमोन	-9800
▁नांथाव	-9801
▁फंबाया	-9802
▁फसंथान	-9803
▁फिफानि	-9804
▁फोर्बो	-9805
▁फ्रान्	-9806
▁बाउनाय	-9807
▁बावदों	-9808
▁बावलां	-9809
▁बावैसो	-9810
▁बासिया	-9811
▁बिजिरख	-9812
▁बिथिखौ	-9813
▁बिदैखौ	-9814
▁बिनिनो	-9815
▁बिमानो	-9816
▁बिलाया	-9817
▁बुबिलि	-9818
▁बुरैनि	-9819
▁बैराथी	-9820
▁महाभार	-9821
▁मिनियै	-9822
▁मुवाया	-9823
▁मैदेरा	-9824
▁रायथाइ	-9825
▁राहायै	-9826
▁लाकीया	-9827
▁लाङासै	-9828
▁लाहारी	-9829
▁सनिराम	-9830
▁सम्फथि	-9831
▁सानानै	-9832
▁साबिखौ	-9833
▁साबेसे	-9834
▁सावथुन	-9835
▁सासेखौ	-9836
▁साहाबा	-9837
▁सिंखाव	-9838
▁सिनायो	-9839
▁सिरिनि	-9840
▁सोराङा	-9841
▁सोलाया	-9842
▁हगारनो	-9843
▁हाउसाव	-9844
▁हाथरखि	-9845
▁हाथुरा	-9846
▁हानानै	-9847
▁हान्थि	-9848
▁हाब्रु	-9849
▁हासुनो	-9850
▁हैदिनि	-9851
▁होफैनो	-9852
▁होवाला	-9853
********	-9854
......।"	-9855
थारगौमोन	-9856
फादोंमोन	-9857
ब्रबनानै	-9858
याब्लाबो	-9859
▁अलकेशनि	-9860
▁आनजादनि	-9861
▁आवथायनो	-9862
▁कनष्टेब	-9863
▁खानायखौ	-9864
▁खायसेया	-9865
▁खालाराव	-9866
▁खुसिजों	-9867
▁खेरासिन	-9868
▁गस्लाखौ	-9869
▁गाब्बाय	-9870
▁गारिजों	-9871
▁गावनानै	-9872
▁गेस्रेम	-9873
▁गैयैयाव	-9874
▁गोरासिन	-9875
▁जाखादों	-9876
▁जावनानै	-9877
▁जाहोदों	-9878
▁जाहोनखौ	-9879
▁जिंगानि	-9880
▁जेंनाया	-9881
▁जोंबादि	-9882
▁जोगोनार	-9883
▁टेबुलाव	-9884
▁ट्राष्ट	-9885
▁ट्रेजिक	-9886
▁डिस्कनि	-9887
▁थगायनाय	-9888
▁थानादार	-9889
▁थाबथायो	-9890
▁दयारामा	-9891
▁दारिमिन	-9892
▁दावगानो	-9893
▁दिंग्रि	-9894
▁दिनैलाय	-9895
▁दुखुवाव	-9896
▁देरहानो	-9897
▁नंखायनो	-9898
▁नमस्कार	-9899
▁नोंदाया	-9900
▁पुलिसनो	-9901
▁फालिनाय	-9902
▁फिथाइखौ	-9903
▁फिसौफोर	-9904
▁फोसावनो	-9905
▁बरगयारी	-9906
▁बासायनो	-9907
▁बिथिंआव	-9908
▁बिफांखौ	-9909
▁बिसिजों	-9910
▁बोरसिनि	-9911
▁बोराइनि	-9912
▁बोसोरबा	-9913
▁बोहैनाय	-9914
▁ब्रिटिस	-9915
▁मन्त्री	-9916
▁मानसिहा	-9917
▁मास्थार	-9918
▁मिनिथाव	-9919
▁मोजांसो	-9920
▁मोनोमोन	-9921
▁रान्नाय	-9922
▁रिजार्भ	-9923
▁रुगुङाव	-9924
▁लाइजौवा	-9925
▁लाइनमेन	-9926
▁लाजिनां	-9927
▁लासिगोन	-9928
▁लिरग्रा	-9929
▁लोगोयाव	-9930
▁समिलाया	-9931
▁सानसेबो	-9932
▁साबुकखौ	-9933
▁सालाफोर	-9934
▁सालिसखौ	-9935
▁सिङावनो	-9936
▁सिमांखौ	-9937
▁सुइसाइद	-9938
▁सुथुरनि	-9939
▁सेकेण्ड	-9940
▁सोंब्ला	-9941
▁सोहोरनि	-9942
▁हसपिटाल	-9943
▁हागोनखौ	-9944
▁हाब्बाय	-9945
▁हार्सिं	-9946
▁हिनजावा	-9947
▁हुखुमोर	-9948
▁होन्दों	-9949
फिनदोंमोन	-9950
बावदोंमोन	-9951
▁अबंलावरि	-9952
▁आखुथायखौ	-9953
▁इंख्रिया	-9954
▁इराग्दाउ	-9955
▁उदांस्रि	-9956
▁उन्दैयाव	-9957
▁कामाख्या	-9958
▁खान्थिया	-9959
▁खिन्थाहर	-9960
▁खोथाखौनो	-9961
▁खोमसियाव	-9962
▁खोरोमदाउ	-9963
▁गब्लंजों	-9964
▁गारनांगौ	-9965
▁गारबोनाय	-9966
▁गालांदों	-9967
▁गावसोरनो	-9968
▁गोख्रैनो	-9969
▁गोख्रैयै	-9970
▁गोबांसिन	-9971
▁गोबाङानो	-9972
▁गोमानानै	-9973
▁चौधुरीया	-9974
▁जाखांनाय	-9975
▁जाखोब्रा	-9976
▁जानगाराव	-9977
▁जानजियाव	-9978
▁जालायदों	-9979
▁जासिनानै	-9980
▁थांखियाव	-9981
▁थासारिखौ	-9982
▁थैनायजों	-9983
▁दोनथुमनो	-9984
▁द्लामैनो	-9985
▁नुजाथियो	-9986
▁नुजाहैनो	-9987
▁पुलिसजों	-9988
▁फरायसुलि	-9989
▁फाथिनानै	-9990
▁फिसाइजों	-9991
▁फिसाजोया	-9992
▁फुन्नानै	-9993
▁फैब्लानो	-9994
▁बिगुमैखौ	-9995
▁बिफायाबो	-9996
▁बुंलाबाय	-9997
▁बुंहरदों	-9998
▁बुङाबानो	-9999
▁बुथारदों	-10000
▁बोसोरारि	-10001
▁बोहैथिखौ	-10002
▁मनिपुरनि	-10003
▁मावनायखौ	-10004
▁मिन्थिगौ	-10005
▁मेलेरिया	-10006
▁मोगथांनि	-10007
▁मोगामोगि	-10008
▁मोदोमजों	-10009
▁मोनजानाय	-10010
▁मोननायसै	-10011
▁मोनाखैसै	-10012
▁रंजालिखौ	-10013
▁लिरनांगौ	-10014
▁लोंनायाव	-10015
▁साननांगौ	-10016
▁सानैखौबो	-10017
▁सिखारदों	-10018
▁सोमबोरनि	-10019
▁हानायानो	-10020
▁हान्जाखौ	-10021
▁एक्सटेनसन	-10022
▁खारबोनानै	-10023
▁खालारखालि	-10024
▁गाग्लोबनो	-10025
▁गाबदोंमोन	-10026
▁जौगानायाव	-10027
▁थांब्लानो	-10028
▁थासारियाव	-10029
▁थियेटारखौ	-10030
▁दर्बासिया	-10031
▁दैथायहरनो	-10032
▁नायब्लानो	-10033
▁नेमखान्थि	-10034
▁पुलिसफोरा	-10035
▁फार्सेथिं	-10036
▁बाहेरायाव	-10037
▁बेफोरखौनो	-10038
▁बेरखांनाय	-10039
▁मन्जुलाया	-10040
▁मानसियाबो	-10041
▁मोनगासिनो	-10042
▁राजखुंगुर	-10043
▁रायलायबाय	-10044
▁रासायनारि	-10045
▁लांसुनिया	-10046
▁सरासनस्रा	-10047
▁सांग्राङा	-10048
▁साननायमोन	-10049
▁सारेण्डार	-10050
▁सिमाङावबो	-10051
▁सोदोबफ्रा	-10052
▁सोमोन्दोआ	-10053
▁हरबिलासनि	-10054
▁हाबाफोरखौ	-10055
सालिनिफ्राय	-10056
▁आसारखान्थि	-10057
▁खालामोब्ला	-10058
▁खोख्लैनानै	-10059
▁गोरोन्थिया	-10060
▁गोसोखांदों	-10061
▁जथुम्मायाव	-10062
▁जाबोदोंमोन	-10063
▁जेंनाफोरखौ	-10064
▁जोहोलावफोर	-10065
▁थानसालियाव	-10066
▁दाजाबफानाय	-10067
▁फरायगासिनो	-10068
▁फावखुंग्रि	-10069
▁बयनिखुरैबो	-10070
▁बाथ्राफोरा	-10071
▁बाथ्रायाबो	-10072
▁बारायनायाव	-10073
▁बिजिरनायखौ	-10074
▁बिदिन्थानि	-10075
▁बुङालाबानो	-10076
▁भुगिनांनाय	-10077
▁मोबायजोंबो	-10078
▁रायलायनानै	-10079
▁रायलायनाया	-10080
▁सावरायनानै	-10081
▁सोमजिहोदों	-10082
▁ओंखारलांदों	-10083
▁गंग्लायनानै	-10084
▁जानांगौब्ला	-10085
▁नोंथांमोनहा	-10086
▁बेनिफ्रायनो	-10087
▁मंगलबारखालि	-10088
▁खैनाशान्तिया	-10089
▁जायगानिफ्राय	-10090
▁फुंनिफ्रायनो	-10091
▁बबेनिफ्रायबा	-10092
▁भुटियाफोरजों	-10093
▁मुलुगनिफ्राय	-10094
▁सान्थ्रिफोरा	-10095
▁साफ्रासीफोरा	-10096
▁सुथुरनिफ्राय	-10097
▁इनफरमेसनफोरखौ	-10098
▁माइथायनिफ्राय	-10099
▁रायज्लायनायखौ	-10100
▁जादोंमोनब्लाबो	-10101
▁थुनलाइगिरिफोरा	-10102
▁Sep	-10103
tember	-10104
▁September	-10105
)-	-10106
-[	-10107
."	-10108
10	-10109
2)	-10110
54	-10111
60	-10112
Ad	-10113
ma	-10114
me	-10115
un	-10116
}:	-10117
ँइ	-10118
अह	-10119
आफ	-10120
इल	-10121
कल	-10122
टल	-10123
डर	-10124
धि	-10125
पु	-10126
बय	-10127
भी	-10128
▁<	-10129
▁v	-10130
age	-10131
ick	-10132
ide	-10133
ral	-10134
red	-10135
res	-10136
tis	-10137
txt	-10138
ंखल	-10139
अजय	-10140
अमा	-10141
उखै	-10142
कता	-10143
कले	-10144
काश	-10145
गाह	-10146
गोद	-10147
जरा	-10148
ड़ि	-10149
तार	-10150
दौल	-10151
धरा	-10152
धाम	-10153
पिं	-10154
पेट	-10155
बिर	-10156
बिल	-10157
बेथ	-10158
बेश	-10159
मथा	-10160
मला	-10161
माह	-10162
रिग	-10163
र्थ	-10164
सङो	-10165
सें	-10166
हनै	-10167
हाल	-10168
हेल	-10169
ादे	-10170
ायन	-10171
िर्	-10172
ीरा	-10173
्मण	-10174
्यो	-10175
▁45	-10176
▁Sc	-10177
▁kn	-10178
▁li	-10179
▁on	-10180
▁ro	-10181
▁wh	-10182
▁अध	-10183
▁आथ	-10184
▁इम	-10185
▁ऊँ	-10186
▁और	-10187
▁टक	-10188
▁दत	-10189
▁फल	-10190
▁बल	-10191
▁लड	-10192
▁सत	-10193
-200	-10194
enge	-10195
ited	-10196
rama	-10197
आदसा	-10198
क्षा	-10199
खानो	-10200
गिदि	-10201
गोजा	-10202
तिखौ	-10203
थेनो	-10204
दाला	-10205
दुरा	-10206
दैसा	-10207
नजों	-10208
नाला	-10209
नालै	-10210
न्दर	-10211
पजों	-10212
फिउट	-10213
फौवा	-10214
बयबो	-10215
बांग	-10216
बुढ़	-10217
बेनो	-10218
बेयो	-10219
मारी	-10220
मोसौ	-10221
यैनि	-10222
रजों	-10223
रामु	-10224
लामा	-10225
ल्दि	-10226
वाबा	-10227
शनेल	-10228
सफ्ट	-10229
सुली	-10230
सोलै	-10231
स्कट	-10232
ायखौ	-10233
ार्द	-10234
ेनाव	-10235
▁!!"	-10236
▁(7)	-10237
▁Pro	-10238
▁अरग	-10239
▁अरन	-10240
▁आकु	-10241
▁आनि	-10242
▁आमो	-10243
▁आहम	-10244
▁एडभ	-10245
▁कहि	-10246
▁किर	-10247
▁केच	-10248
▁केब	-10249
▁खिस	-10250
▁गुं	-10251
▁घर्	-10252
▁जाउ	-10253
▁जुम	-10254
▁जुल	-10255
▁जेइ	-10256
▁टार	-10257
▁डाय	-10258
▁थिस	-10259
▁दरं	-10260
▁निन	-10261
▁पसम	-10262
▁फाउ	-10263
▁फैथ	-10264
▁फोन	-10265
▁बिश	-10266
▁बुक	-10267
▁बेड	-10268
▁मास	-10269
▁याव	-10270
▁रिन	-10271
▁लमन	-10272
▁वाल	-10273
▁शची	-10274
▁शिब	-10275
▁हुख	-10276
▁हेम	-10277
▁हेर	-10278
कान्त	-10279
क्रेट	-10280
खायफा	-10281
खुरमा	-10282
खुलुम	-10283
खैफोद	-10284
गुबुन	-10285
जाइलि	-10286
जायखि	-10287
जुनार	-10288
जोंथि	-10289
तालाव	-10290
थाइगं	-10291
थारलै	-10292
थुजुग	-10293
न्थाय	-10294
न्दार	-10295
न्सनि	-10296
फेन्ट	-10297
फ्लाम	-10298
बावदा	-10299
बिबार	-10300
बेन्थ	-10301
बोआखै	-10302
ब्रुग	-10303
ब्लेद	-10304
माराव	-10305
यारिं	-10306
सियाल	-10307
सेन्स	-10308
स्लिं	-10309
ाखाङो	-10310
ादारा	-10311
ाहारी	-10312
ाहोनो	-10313
्रनिक	-10314
्लारी	-10315
▁2004	-10316
▁2007	-10317
▁trag	-10318
▁अनजु	-10319
▁अब्ल	-10320
▁अमृत	-10321
▁आथुर	-10322
▁आन्च	-10323
▁आयना	-10324
▁उजेर	-10325
▁उत्त	-10326
▁उदिस	-10327
▁उसुं	-10328
▁एनजर	-10329
▁एरसो	-10330
▁केजि	-10331
▁क्लि	-10332
▁खस्ट	-10333
▁खाथे	-10334
▁खायै	-10335
▁खारि	-10336
▁खेबस	-10337
▁गावल	-10338
▁गासि	-10339
▁गिला	-10340
▁गिहु	-10341
▁ग्रि	-10342
▁जखाय	-10343
▁जिरि	-10344
▁जुथे	-10345
▁जुवा	-10346
▁जौसे	-10347
▁टाइम	-10348
▁डाइल	-10349
▁त्रि	-10350
▁थरफा	-10351
▁थरसे	-10352
▁थाखै	-10353
▁थाबथ	-10354
▁थिखं	-10355
▁थुयै	-10356
▁थोन्	-10357
▁दंलै	-10358
▁दाखु	-10359
▁दागा	-10360
▁दाङा	-10361
▁दारै	-10362
▁दुमा	-10363
▁दोना	-10364
▁दोमो	-10365
▁नखरा	-10366
▁नसुं	-10367
▁नाला	-10368
▁निस्	-10369
▁परेश	-10370
▁पापी	-10371
▁फानज	-10372
▁फारौ	-10373
▁फुकन	-10374
▁फैखो	-10375
▁फैना	-10376
▁बनाय	-10377
▁बाया	-10378
▁बावा	-10379
▁बिभी	-10380
▁बेखि	-10381
▁बेसा	-10382
▁बोला	-10383
▁ममखौ	-10384
▁मालि	-10385
▁मुर्	-10386
▁मोले	-10387
▁रबिल	-10388
▁राइट	-10389
▁रिफि	-10390
▁रिभल	-10391
▁लिङो	-10392
▁लोरि	-10393
▁वर्क	-10394
▁ष्टे	-10395
▁सतीश	-10396
▁सन्द	-10397
▁सेम्	-10398
▁सेरै	-10399
▁सोफै	-10400
▁स्पे	-10401
▁हलाव	-10402
▁हाउस	-10403
▁होखो	-10404
▁होया	-10405
▁होवा	-10406
.....!	-10407
haract	-10408
खायाबो	-10409
खोन्दा	-10410
खोब्रा	-10411
गाँवाव	-10412
गौमानि	-10413
ग्रोनि	-10414
ग्लायो	-10415
जायाखै	-10416
जोमनाय	-10417
थांहां	-10418
थिंबाय	-10419
थ्रियै	-10420
दानिया	-10421
द्रैया	-10422
नाफुलि	-10423
नायखाय	-10424
नैसोनि	-10425
न्थाया	-10426
फबनानै	-10427
बाथ्रा	-10428
मानोथो	-10429
माब्ला	-10430
मोनजों	-10431
लाङाखै	-10432
लायारि	-10433
लोंखां	-10434
वालाखौ	-10435
साफोरा	-10436
सोमदोन	-10437
हाग्रा	-10438
हैयाखै	-10439
ाग्लाब	-10440
ान्टिक	-10441
ार्भिस	-10442
ाहोनाय	-10443
ुरियाव	-10444
▁....।	-10445
▁Inter	-10446
▁अनथाव	-10447
▁अनाली	-10448
▁अमिता	-10449
▁आगोमा	-10450
▁आदबखौ	-10451
▁आदबनि	-10452
▁आन्था	-10453
▁आबैनि	-10454
▁आर्जि	-10455
▁आर्मि	-10456
▁आलेनो	-10457
▁आसथाम	-10458
▁इंलिस	-10459
▁इज्जत	-10460
▁इसादि	-10461
▁उदखार	-10462
▁एंगोन	-10463
▁एक्सप	-10464
▁एखमबा	-10465
▁एरखां	-10466
▁एवनाय	-10467
▁कक्रा	-10468
▁कान्त	-10469
▁केसनि	-10470
▁क्रिं	-10471
▁क्लाब	-10472
▁खननाय	-10473
▁खाफ्र	-10474
▁खारदो	-10475
▁खावनो	-10476
▁खुजेब	-10477
▁ख्रुब	-10478
▁गमामा	-10479
▁गाग्ल	-10480
▁गायदे	-10481
▁गारना	-10482
▁गार्ल	-10483
▁गुरुं	-10484
▁गोबाब	-10485
▁गोसोथ	-10486
▁ग्रिद	-10487
▁ग्लास	-10488
▁चीननि	-10489
▁चेन्ट	-10490
▁जाफिन	-10491
▁जावरि	-10492
▁जिबनि	-10493
▁जुथाय	-10494
▁जौसां	-10495
▁ज्रेम	-10496
▁ज्रोम	-10497
▁टेंकि	-10498
▁ड्रेस	-10499
▁थनथ्र	-10500
▁थाथार	-10501
▁थाथेर	-10502
▁थामफै	-10503
▁थेलेब	-10504
▁थैदों	-10505
▁दखरसे	-10506
▁दख्ना	-10507
▁दाननो	-10508
▁दाबखा	-10509
▁दुलुर	-10510
▁देवना	-10511
▁नङैनि	-10512
▁निहोर	-10513
▁नेमखौ	-10514
▁नेवसि	-10515
▁नोंदा	-10516
▁नोगोद	-10517
▁नोथां	-10518
▁फंसेल	-10519
▁फागुन	-10520
▁फाथाल	-10521
▁फुंआव	-10522
▁फुवार	-10523
▁फैहां	-10524
▁बजबना	-10525
▁बमफां	-10526
▁बरुवा	-10527
▁बसुमथ	-10528
▁बह्रा	-10529
▁बिखाव	-10530
▁बिखुन	-10531
▁बुंबा	-10532
▁बुजिस	-10533
▁बुबाय	-10534
▁बृशिक	-10535
▁बैयाव	-10536
▁बैसां	-10537
▁मिबथि	-10538
▁मोनफै	-10539
▁रहमान	-10540
▁रामोन	-10541
▁रायथि	-10542
▁रिजाल	-10543
▁रेडिअ	-10544
▁लिबार	-10545
▁लोंदो	-10546
▁लोगोर	-10547
▁लोबबा	-10548
▁सरखार	-10549
▁सिजों	-10550
▁सिफुं	-10551
▁सियान	-10552
▁सिहाब	-10553
▁सोंथि	-10554
▁सोरगो	-10555
▁स्रोब	-10556
▁हब्रा	-10557
▁हसिया	-10558
▁हासिब	-10559
▁हुकुम	-10560
......।	-10561
खावनानै	-10562
जावलिया	-10563
न्दायाव	-10564
पितालाव	-10565
पेन्द्र	-10566
फोरबादि	-10567
फ्लेनाय	-10568
याखैमोन	-10569
सिननानै	-10570
ान्दारि	-10571
ालासिनो	-10572
▁अन्थाय	-10573
▁अरजाया	-10574
▁आइजोनि	-10575
▁आउटपुट	-10576
▁आन्दाय	-10577
▁इन्द्र	-10578
▁इन्सपे	-10579
▁इसिबां	-10580
▁ओंखामा	-10581
▁ओंख्रि	-10582
▁ओंथिखौ	-10583
▁कंग्रे	-10584
▁कर्टाव	-10585
▁खांबाय	-10586
▁खाजाखौ	-10587
▁खान्दा	-10588
▁खालिनि	-10589
▁खुंगुर	-10590
▁खुरिया	-10591
▁गलायाव	-10592
▁गसंनाय	-10593
▁गेटजों	-10594
▁गेबेङै	-10595
▁गोमाना	-10596
▁जानोसो	-10597
▁जाफिनो	-10598
▁जाफुङा	-10599
▁जाबजों	-10600
▁जायखार	-10601
▁जालायो	-10602
▁जालिजौ	-10603
▁जिउजों	-10604
▁जिरादा	-10605
▁जिरायो	-10606
▁जेकेटा	-10607
▁जेखौबो	-10608
▁जोंदों	-10609
▁डब्लिउ	-10610
▁ड्राइभ	-10611
▁थाङासै	-10612
▁थाङोबा	-10613
▁थाफैयो	-10614
▁थाफ्लि	-10615
▁थायासै	-10616
▁थालिया	-10617
▁थास्लि	-10618
▁थाहैनो	-10619
▁दस्टुर	-10620
▁दाहाया	-10621
▁धुबुरी	-10622
▁नागानि	-10623
▁नागारा	-10624
▁नागारै	-10625
▁नाजादो	-10626
▁नायदिं	-10627
▁नायलाय	-10628
▁नायैनो	-10629
▁निलिखत	-10630
▁नुगासे	-10631
▁प्रदेश	-10632
▁फाख्रा	-10633
▁फालाया	-10634
▁फिदिङो	-10635
▁फोजायो	-10636
▁फोलानो	-10637
▁फोलेरा	-10638
▁बाग्रा	-10639
▁बादलखौ	-10640
▁बादिया	-10641
▁बाबुनि	-10642
▁बारहां	-10643
▁बासजों	-10644
▁बासिनो	-10645
▁बिल्डि	-10646
▁बेफोरो	-10647
▁बैथालि	-10648
▁बैथाली	-10649
▁बोसोरि	-10650
▁मनजुला	-10651
▁मनबारु	-10652
▁मानबाय	-10653
▁मानिखौ	-10654
▁माबेबा	-10655
▁मारुती	-10656
▁मासिनि	-10657
▁मिज्लि	-10658
▁मिथिना	-10659
▁मुक्ति	-10660
▁मुगैया	-10661
▁मेगावा	-10662
▁मेलानि	-10663
▁मोजाङा	-10664
▁मोनथाव	-10665
▁रंजानो	-10666
▁रागाखौ	-10667
▁राजानो	-10668
▁रायनाय	-10669
▁रायफोर	-10670
▁रिपर्ट	-10671
▁रुनानै	-10672
▁रुपसिं	-10673
▁रुफाथि	-10674
▁रोजासे	-10675
▁लायदों	-10676
▁लिंहरो	-10677
▁साजाखौ	-10678
▁सानखां	-10679
▁सानाबो	-10680
▁सालिसा	-10681
▁सिनजों	-10682
▁सिरिया	-10683
▁सुबिदा	-10684
▁सैथोनि	-10685
▁सैमाखौ	-10686
▁हाबबाय	-10687
▁हायोदि	-10688
▁हावलाद	-10689
▁हैनानै	-10690
▁होयासै	-10691
▁होवाखै	-10692
फायोब्ला	-10693
फोरजोंबो	-10694
फ्लांगोन	-10695
लांनायखौ	-10696
लायोब्ला	-10697
होदोंमोन	-10698
ांगासिनो	-10699
ायाखैमोन	-10700
्लुबनानै	-10701
▁अन्जालि	-10702
▁अपारेशन	-10703
▁अबिनासा	-10704
▁असान्ति	-10705
▁आन्चलिक	-10706
▁आन्दाखौ	-10707
▁आफायाबो	-10708
▁आयनायाव	-10709
▁उन्दुदो	-10710
▁एकाउन्ट	-10711
▁कारेन्ट	-10712
▁खनसायनि	-10713
▁खामायनो	-10714
▁खायफाबा	-10715
▁खालामहै	-10716
▁खृष्टान	-10717
▁खोनाजोब	-10718
▁गन्थङाव	-10719
▁गानग्रा	-10720
▁गायदाङा	-10721
▁गावनिनो	-10722
▁गावबुढ़	-10723
▁गिलासखौ	-10724
▁गेदाइया	-10725
▁गेलेबाय	-10726
▁गोबालाय	-10727
▁गोरबोनि	-10728
▁जागोनखौ	-10729
▁जाथायाव	-10730
▁जाबायलै	-10731
▁जायफोरा	-10732
▁जालांखो	-10733
▁जाहैगोन	-10734
▁जुथायखौ	-10735
▁जुरिजेन	-10736
▁जेकेटनि	-10737
▁जेरावनो	-10738
▁जोंरुनि	-10739
▁जोंरुहा	-10740
▁थंब्लेद	-10741
▁थरथिंसे	-10742
▁थांफायो	-10743
▁थांफिनो	-10744
▁थायनैनि	-10745
▁थावरिनो	-10746
▁थिंगिनि	-10747
▁थिकखौनो	-10748
▁थिसननाय	-10749
▁थुलुंसि	-10750
▁थैजासिम	-10751
▁दरलायनि	-10752
▁दाउस्रि	-10753
▁दानसेनि	-10754
▁दालायाव	-10755
▁दावस्रि	-10756
▁देंखोखौ	-10757
▁देवाननि	-10758
▁दैखांना	-10759
▁दैमायाव	-10760
▁दोनग्रा	-10761
▁दोनथुमो	-10762
▁दोन्दों	-10763
▁नांग्रा	-10764
▁नार्सिं	-10765
▁निरन्जन	-10766
▁नैथियाव	-10767
▁नोंसाला	-10768
▁नोगोरखौ	-10769
▁नोजोरखौ	-10770
▁नोमफानि	-10771
▁फानग्रा	-10772
▁फान्जाम	-10773
▁फावगिरि	-10774
▁फावदुरा	-10775
▁फिरफिला	-10776
▁फिल्टार	-10777
▁फैफिननो	-10778
▁फोथांनो	-10779
▁फोरमाना	-10780
▁फोलेरखौ	-10781
▁बांग्रा	-10782
▁बांसिनै	-10783
▁बाजारनि	-10784
▁बाजिबाय	-10785
▁बान्दोल	-10786
▁बारासिन	-10787
▁बिजोंनो	-10788
▁बिथिंनि	-10789
▁बिफानाव	-10790
▁बिबांनि	-10791
▁बिबाराव	-10792
▁बिसम्बि	-10793
▁बुंहैयो	-10794
▁बुब्राब	-10795
▁बेंग्रा	-10796
▁बेंनानै	-10797
▁बोनायनि	-10798
▁मनजुआबो	-10799
▁माथाउरी	-10800
▁मादावनो	-10801
▁मिनिटनि	-10802
▁मिनिदों	-10803
▁मेगनाबो	-10804
▁मोखांआव	-10805
▁मोख्रेब	-10806
▁मोनसेखौ	-10807
▁मोनहोनो	-10808
▁रिंगासो	-10809
▁रुजुनाय	-10810
▁रुबैजों	-10811
▁लक्ष्मी	-10812
▁लानायसै	-10813
▁साग्रिद	-10814
▁साथामसो	-10815
▁सानफिनो	-10816
▁सानसुनि	-10817
▁सानोमोन	-10818
▁साफ्रोम	-10819
▁साबुकनि	-10820
▁सायायाव	-10821
▁सालियाव	-10822
▁सिलाइखौ	-10823
▁सुथारनो	-10824
▁सुबुरुन	-10825
▁सेरजानि	-10826
▁सोंबावो	-10827
▁सोबग्रा	-10828
▁सोराङाव	-10829
▁हगारनाय	-10830
▁हरखाबनो	-10831
▁हाइब्रि	-10832
▁हाबिलास	-10833
▁हायामोन	-10834
▁हारामजा	-10835
▁हारिजों	-10836
▁हौवाफोर	-10837
द्रायब्ला	-10838
बेनिफ्राय	-10839
लानिफ्राय	-10840
▁********	-10841
▁अखाफोरनि	-10842
▁अख्रांमा	-10843
▁अनसायनाय	-10844
▁आइजोफोरा	-10845
▁आखुफोरखौ	-10846
▁आजावनानै	-10847
▁आदुंगारि	-10848
▁आन्जादाव	-10849
▁आलाइयाबो	-10850
▁इक्लेटिक	-10851
▁इण्डियान	-10852
▁ओंखारहां	-10853
▁कार्बिआं	-10854
▁खिरखिजों	-10855
▁खुदियाया	-10856
▁गुन्दामि	-10857
▁गुन्द्रा	-10858
▁गोबांथार	-10859
▁जागायजेन	-10860
▁जाफुंगोन	-10861
▁जामारबाय	-10862
▁जालांनाय	-10863
▁जेंनाजों	-10864
▁जोंब्लाउ	-10865
▁जोंब्लाव	-10866
▁डाक्टारा	-10867
▁थांसिगोन	-10868
▁थासारिया	-10869
▁थेख्रेया	-10870
▁दासान्दै	-10871
▁दिन्थिया	-10872
▁दुंब्रुद	-10873
▁नाजानाया	-10874
▁नार्जारि	-10875
▁नुयोब्ला	-10876
▁नोंसोरहा	-10877
▁नोजोरथाव	-10878
▁फिसाफ्रा	-10879
▁फैयाखिसै	-10880
▁फोथायथाव	-10881
▁फोरमानखौ	-10882
▁बाजिनानै	-10883
▁बायोब्ला	-10884
▁बारसनानै	-10885
▁बिसनायाव	-10886
▁बुंखाबाय	-10887
▁बुंदोंदि	-10888
▁बुंहरनाय	-10889
▁बुन्दाया	-10890
▁बुब्लिनि	-10891
▁बेफारिनि	-10892
▁बैसागुनि	-10893
▁बोसोरथाम	-10894
▁माहारिखौ	-10895
▁मिथियाखै	-10896
▁मिथिसिगौ	-10897
▁मिनिखैरो	-10898
▁मुंरायनि	-10899
▁मुवाफोरा	-10900
▁मुस्रिखौ	-10901
▁मुस्रिया	-10902
▁मुस्रीमा	-10903
▁मेब्लाया	-10904
▁मोनगौमोन	-10905
▁मोनफ्लां	-10906
▁मोनामनाय	-10907
▁मोसाहारी	-10908
▁रायखांनो	-10909
▁रिंसारथि	-10910
▁लांनायनि	-10911
▁लांनायसै	-10912
▁लागासिनो	-10913
▁समबारुनि	-10914
▁साइकेलनि	-10915
▁साखाफारा	-10916
▁साख्रिनि	-10917
▁सानैनिबो	-10918
▁सानोब्ला	-10919
▁सिलारामा	-10920
▁सिस्टेमा	-10921
▁सोमबोरखौ	-10922
▁हाब्लानो	-10923
▁हारियारि	-10924
▁हैदोंमोन	-10925
▁होलांनाय	-10926
▁होवाखिसै	-10927
........।"	-10928
्लानिफ्राय	-10929
▁इस्लारिया	-10930
▁एंगारनाया	-10931
▁ककराझाराव	-10932
▁खनखांनानै	-10933
▁खुनुरोखोम	-10934
▁गाज्रिमोन	-10935
▁गिख्रंथाव	-10936
▁गोनांथिखौ	-10937
▁गौहाटीयाव	-10938
▁जान्जियाव	-10939
▁जावलियाया	-10940
▁थाइलालिनि	-10941
▁दंखायोमोन	-10942
▁दाजाबदानि	-10943
▁दाबिनायनि	-10944
▁नाजानायनि	-10945
▁नुजाथिनाय	-10946
▁नोंसोरलाय	-10947
▁फरायनायनि	-10948
▁फरायफुनाय	-10949
▁फावथिनाया	-10950
▁फैफिननानै	-10951
▁फोरोंनानै	-10952
▁फोसाबनानै	-10953
▁फोसावगिरि	-10954
▁फोसावजायो	-10955
▁बाखनायथाव	-10956
▁बारलांबाय	-10957
▁बारलाम्फा	-10958
▁बारायनानै	-10959
▁बास्रिनाय	-10960
▁बिजिरनाया	-10961
▁बिथांखिनि	-10962
▁बिलिदनानै	-10963
▁बिस्तिबार	-10964
▁बुंफिनबाय	-10965
▁बुंबावदों	-10966
▁बेसेग्राब	-10967
▁बोहैबोनाय	-10968
▁मन्जुवाबो	-10969
▁मानसिखौनो	-10970
▁मावजाग्रा	-10971
▁मिनिग्लाब	-10972
▁मोजांब्ला	-10973
▁राजाफोरनि	-10974
▁लाजिफोनां	-10975
▁लुबैनायनि	-10976
▁लोंहोनानै	-10977
▁समनिफ्राय	-10978
▁सिगांग्रो	-10979
▁सुफुंग्रा	-10980
▁सुबुंफ्रा	-10981
▁सेन्ट्रेल	-10982
▁सोदोबखौनो	-10983
▁सोदोबमाया	-10984
▁हाबसोनानै	-10985
▁हाबिलदारा	-10986
▁हारिफोरनि	-10987
▁हिंसायारि	-10988
▁अबंलावरिनि	-10989
▁आखान्थियाव	-10990
▁एंगारनायनि	-10991
▁ओंखारनायनि	-10992
▁ओंखारबोबाय	-10993
▁ओंखारलांनो	-10994
▁कामाख्यानि	-10995
▁खान्थियारि	-10996
▁खारलांनानै	-10997
▁खोनादोंमोन	-10998
▁गावथारनानै	-10999
▁गोसोखांबाय	-11000
▁जानांगौमोन	-11001
▁दावबायनाया	-11002
▁दिन्थिनाया	-11003
▁दिहुननायनि	-11004
▁दिहुन्नानै	-11005
▁दुर्जाङानो	-11006
▁दुर्जाङाबो	-11007
▁नङामोनब्ला	-11008
▁नांथाबनानै	-11009
▁नायगिरनानै	-11010
▁निर्मालिया	-11011
▁बाजिबायमोन	-11012
▁बायहेरायाव	-11013
▁बुधबारखालि	-11014
▁भ्लादिमिरा	-11015
▁मिथिस्लाबा	-11016
▁मोनफ्रामबो	-11017
▁लुबैयोब्ला	-11018
▁सिख्लाफ्रा	-11019
▁सोदोबफ्राव	-11020
▁सोमहाबनानै	-11021
▁सोरजिनायनि	-11022
▁हास्थायनाय	-11023
▁ओंखारदोंमोन	-11024
▁कम्पिउटाराव	-11025
▁खाथिनिफ्राय	-11026
▁खालामब्लानो	-11027
▁गारिनिफ्राय	-11028
▁गुदिनिफ्राय	-11029
▁जनायनिफ्राय	-11030
▁जागायजेननाय	-11031
▁दायनिगिरिखौ	-11032
▁दायनिगिरिया	-11033
▁बोथ्रोदनानै	-11034
▁मावमोनथायनि	-11035
▁मिथिंगायारि	-11036
▁रायज्लायदों	-11037
▁सावरायज्लाय	-11038
▁सोलोंसालिनि	-11039
▁गाबोननिफ्राय	-11040
▁गोग्लैदोंमोन	-11041
▁थिउरियाफोरखौ	-11042
▁पाब्लिकेसनस्	-11043
▁फावथाइगिरिनि	-11044
▁मोनफ्रोमखौबो	-11045
▁सान्थ्रिफ्रा	-11046
▁हाबाफारिफोरखौ	-11047
▁हिन्जावफोरजों	-11048
▁उन्दैनिफ्रायनो	-11049
▁हारावनि	-11050
-"	-11051
-,	-11052
1)	-11053
13	-11054
24	-11055
37	-11056
94	-11057
ia	-11058
ld	-11059
tt	-11060
उस	-11061
पक	-11062
फल	-11063
बड	-11064
बद	-11065
रत	-11066
ीं	-11067
▁0	-11068
▁ञ	-11069
--'	-11070
:।"	-11071
ant	-11072
ave	-11073
bar	-11074
ect	-11075
edy	-11076
fix	-11077
ild	-11078
ith	-11079
ome	-11080
ont	-11081
out	-11082
rac	-11083
ंला	-11084
कथा	-11085
करा	-11086
किट	-11087
खबर	-11088
खाउ	-11089
जुं	-11090
ज्ञ	-11091
थसि	-11092
थुल	-11093
थेन	-11094
दुब	-11095
देत	-11096
देव	-11097
नोम	-11098
पास	-11099
फटि	-11100
फरा	-11101
फाइ	-11102
बनो	-11103
बें	-11104
मन्	-11105
महर	-11106
मिट	-11107
लिन	-11108
लेट	-11109
ल्फ	-11110
साग	-11111
सों	-11112
हाज	-11113
हें	-11114
ाजी	-11115
िखौ	-11116
ीबा	-11117
ुङा	-11118
ेनो	-11119
ोयो	-11120
।।2	-11121
▁!'	-11122
▁-'	-11123
▁78	-11124
▁II	-11125
▁To	-11126
▁Un	-11127
▁do	-11128
▁em	-11129
▁go	-11130
▁no	-11131
▁us	-11132
▁ww	-11133
▁अव	-11134
▁आउ	-11135
▁एउ	-11136
▁खत	-11137
▁जव	-11138
▁धि	-11139
▁धु	-11140
▁भज	-11141
▁मग	-11142
▁मल	-11143
▁रब	-11144
▁लग	-11145
▁सक	-11146
▁सद	-11147
▁हथ	-11148
▁हल	-11149
...!	-11150
..।"	-11151
eleg	-11152
ment	-11153
ress	-11154
ther	-11155
ural	-11156
verb	-11157
उन्द	-11158
एनला	-11159
क्षस	-11160
खारा	-11161
ख्लो	-11162
गाबो	-11163
गुमै	-11164
गुला	-11165
जारी	-11166
जाला	-11167
त्मा	-11168
थेंक	-11169
दांग	-11170
दान्	-11171
दिसे	-11172
द्दि	-11173
नासो	-11174
न्जि	-11175
न्दी	-11176
पाति	-11177
फुफु	-11178
फोना	-11179
बाङा	-11180
बावा	-11181
बिला	-11182
मंगल	-11183
मालय	-11184
मुथि	-11185
मुरि	-11186
मोसा	-11187
रपति	-11188
रानि	-11189
रीनि	-11190
लगाव	-11191
लाजि	-11192
ल्या	-11193
वहाय	-11194
सागि	-11195
साला	-11196
सीया	-11197
सोनो	-11198
स्कि	-11199
हांग	-11200
ाजिन	-11201
ादनि	-11202
ामिल	-11203
िनेस	-11204
ुनाव	-11205
ेन्स	-11206
ेमसा	-11207
ैयाव	-11208
▁10.	-11209
▁Acc	-11210
▁Ass	-11211
▁God	-11212
▁Lim	-11213
▁You	-11214
▁www	-11215
▁अडि	-11216
▁अमर	-11217
▁अमृ	-11218
▁अरु	-11219
▁आसु	-11220
▁उर्	-11221
▁एक्	-11222
▁एखु	-11223
▁करि	-11224
▁कला	-11225
▁खरस	-11226
▁खाप	-11227
▁गें	-11228
▁गोन	-11229
▁जवा	-11230
▁टिक	-11231
▁टेप	-11232
▁डेन	-11233
▁तसर	-11234
▁थसे	-11235
▁थाग	-11236
▁दंग	-11237
▁धुप	-11238
▁नखल	-11239
▁नाब	-11240
▁निर	-11241
▁निस	-11242
▁पर्	-11243
▁पिन	-11244
▁भिट	-11245
▁भुत	-11246
▁मना	-11247
▁युव	-11248
▁लरे	-11249
▁लुं	-11250
▁लेख	-11251
▁लेर	-11252
▁लोख	-11253
▁लोङ	-11254
▁सनै	-11255
▁सां	-11256
▁साक	-11257
▁स्म	-11258
▁हमै	-11259
▁हुं	-11260
▁हेव	-11261
▁होर	-11262
ction	-11263
esday	-11264
essor	-11265
tical	-11266
ंखाङो	-11267
ंगालि	-11268
अबंनि	-11269
आन्दा	-11270
आफाया	-11271
उरिटि	-11272
खाफाल	-11273
गुलार	-11274
गोसोम	-11275
जिनाय	-11276
ज्रिं	-11277
णाक्य	-11278
थांदो	-11279
दाबाद	-11280
दामिन	-11281
देनाय	-11282
दोंना	-11283
नायथा	-11284
न्सार	-11285
फुबाय	-11286
फोरजा	-11287
फोरसो	-11288
बाथाव	-11289
बार्थ	-11290
ब्लाय	-11291
मब्लि	-11292
यानोथ	-11293
र्कनि	-11294
लाराम	-11295
वालाय	-11296
साङाव	-11297
सोरनि	-11298
सोराव	-11299
स्टिक	-11300
स्थाद	-11301
स्लां	-11302
हानाय	-11303
ानिखौ	-11304
ामिया	-11305
ामीया	-11306
ालासे	-11307
ेसननि	-11308
ोन्थि	-11309
्बीबा	-11310
▁"...	-11311
▁1987	-11312
▁1988	-11313
▁2005	-11314
▁Trag	-11315
▁king	-11316
▁plot	-11317
▁अबाव	-11318
▁अरनि	-11319
▁अरनो	-11320
▁आखलै	-11321
▁आनखि	-11322
▁आयेन	-11323
▁इंगि	-11324
▁उकिल	-11325
▁उदाय	-11326
▁एसिद	-11327
▁काली	-11328
▁कुलि	-11329
▁खोलो	-11330
▁खौनो	-11331
▁गराइ	-11332
▁गोदि	-11333
▁गोरि	-11334
▁गोरो	-11335
▁ग्रु	-11336
▁जगाज	-11337
▁जिया	-11338
▁जिला	-11339
▁जुफि	-11340
▁जेरा	-11341
▁टाइप	-11342
▁टाटा	-11343
▁ताला	-11344
▁थिलि	-11345
▁थुवा	-11346
▁दखान	-11347
▁दत्त	-11348
▁दाफै	-11349
▁दामि	-11350
▁दायल	-11351
▁देने	-11352
▁देबी	-11353
▁दैदे	-11354
▁दैयो	-11355
▁दैलो	-11356
▁दोखो	-11357
▁दोर्	-11358
▁दोहौ	-11359
▁द्रे	-11360
▁नबथि	-11361
▁नानि	-11362
▁नायथ	-11363
▁नेयो	-11364
▁नेसा	-11365
▁पान्	-11366
▁फरेइ	-11367
▁फाङा	-11368
▁फानो	-11369
▁फाफा	-11370
▁फेफे	-11371
▁फोथा	-11372
▁बकुल	-11373
▁बन्थ	-11374
▁बहरा	-11375
▁बाजौ	-11376
▁बादै	-11377
▁बिरग	-11378
▁बीरु	-11379
▁बुंज	-11380
▁बुलि	-11381
▁बृटे	-11382
▁बेबा	-11383
▁बोदल	-11384
▁ब्लक	-11385
▁मडेल	-11386
▁मनाल	-11387
▁मसला	-11388
▁माफा	-11389
▁मावफ	-11390
▁मुरि	-11391
▁मैनि	-11392
▁मोगि	-11393
▁रमान	-11394
▁राजथ	-11395
▁रायो	-11396
▁रुटि	-11397
▁रुमु	-11398
▁लाइफ	-11399
▁लुसि	-11400
▁सतिस	-11401
▁सबाय	-11402
▁समसे	-11403
▁साथा	-11404
▁सादा	-11405
▁सारा	-11406
▁सिजौ	-11407
▁सुरि	-11408
▁सुरै	-11409
▁सोबा	-11410
▁सोबै	-11411
▁हरदम	-11412
▁हेले	-11413
आरिखां	-11414
काइनिन	-11415
क्टरनि	-11416
खान्दा	-11417
खावनाय	-11418
खेनानै	-11419
गासिबो	-11420
थाइयाव	-11421
थाबनाय	-11422
थोरजों	-11423
नागिरि	-11424
नायनाय	-11425
फैयासै	-11426
बांसिन	-11427
बिख्लो	-11428
बिफाखौ	-11429
बेश्वर	-11430
ब्रामा	-11431
ब्लानि	-11432
मायानो	-11433
रमायना	-11434
रामुती	-11435
रुवाथि	-11436
लाबानो	-11437
सान्ति	-11438
सेमानि	-11439
सोगारो	-11440
हरब्ला	-11441
हामबाय	-11442
हिनजाव	-11443
हैदिनि	-11444
हैयासै	-11445
होनाया	-11446
ाखायनो	-11447
ाजोंसो	-11448
ानायखौ	-11449
ानायसै	-11450
ाबोदों	-11451
ार्कनि	-11452
ालांनो	-11453
।.....	-11454
▁अरगें	-11455
▁असिला	-11456
▁आइटेम	-11457
▁आइननि	-11458
▁आदैया	-11459
▁आबौनि	-11460
▁आलेहा	-11461
▁आसिखौ	-11462
▁उदुनि	-11463
▁उदैखौ	-11464
▁कमप्ल	-11465
▁कल्पन	-11466
▁कापखौ	-11467
▁खनसेल	-11468
▁खांनो	-11469
▁खुनसे	-11470
▁खेबनि	-11471
▁खैसिं	-11472
▁ख्रेब	-11473
▁गदाया	-11474
▁गाराव	-11475
▁गार्ड	-11476
▁गुग्र	-11477
▁गोजोम	-11478
▁ग्रेण	-11479
▁घर्ना	-11480
▁चन्दन	-11481
▁जलंगा	-11482
▁जार्ड	-11483
▁जाहाद	-11484
▁जुलुम	-11485
▁जेयाव	-11486
▁जेरबा	-11487
▁जेलाव	-11488
▁जोगार	-11489
▁जौजों	-11490
▁जौसिन	-11491
▁तामिल	-11492
▁थालिद	-11493
▁थोथोर	-11494
▁दाउथु	-11495
▁दाउमा	-11496
▁दाउसा	-11497
▁दासोम	-11498
▁दाहोन	-11499
▁दुर्ल	-11500
▁देहाय	-11501
▁दैबान	-11502
▁दोंफा	-11503
▁नंगौथ	-11504
▁नंनाय	-11505
▁नायसि	-11506
▁नोंना	-11507
▁परिषद	-11508
▁पेन्ट	-11509
▁फंबाइ	-11510
▁फरमेट	-11511
▁फादुब	-11512
▁फाफनि	-11513
▁फोजाव	-11514
▁फोरान	-11515
▁फ्राम	-11516
▁फ्रेस	-11517
▁फ्लिं	-11518
▁बकसिस	-11519
▁बबेखौ	-11520
▁बरबाद	-11521
▁बाकसा	-11522
▁बाङाइ	-11523
▁बाथाय	-11524
▁बाबाय	-11525
▁बासाव	-11526
▁बिजाव	-11527
▁बिहोम	-11528
▁बेकेट	-11529
▁बेदिं	-11530
▁बेसात	-11531
▁बैनाय	-11532
▁ब्राह	-11533
▁ब्लेक	-11534
▁भार्च	-11535
▁मददखौ	-11536
▁मार्स	-11537
▁मालिस	-11538
▁मिटिं	-11539
▁मुसुर	-11540
▁मेसेब	-11541
▁मोनना	-11542
▁मोनला	-11543
▁रनसाय	-11544
▁रमानि	-11545
▁रामचि	-11546
▁रेगां	-11547
▁रेष्ट	-11548
▁लाबोआ	-11549
▁लासखौ	-11550
▁लिरबि	-11551
▁लेदिज	-11552
▁वार्क	-11553
▁शर्मा	-11554
▁सन्मि	-11555
▁सर्मा	-11556
▁सहराव	-11557
▁साइखं	-11558
▁सानखौ	-11559
▁सानैल	-11560
▁साबिद	-11561
▁सालाम	-11562
▁सिंखौ	-11563
▁सिबनो	-11564
▁सिलाय	-11565
▁सिलिम	-11566
▁सुकुर	-11567
▁सुबाय	-11568
▁सुहाब	-11569
▁सैथोआ	-11570
▁सोरथो	-11571
▁सोलाव	-11572
▁सोलास	-11573
▁सौदाव	-11574
▁हगारो	-11575
▁हमगोन	-11576
▁हरफिन	-11577
▁हाउली	-11578
▁हाजिर	-11579
▁हाबसु	-11580
▁हाबाव	-11581
▁हामार	-11582
▁हालाम	-11583
▁हुमखि	-11584
.....।"	-11585
elegram	-11586
अन्नानै	-11587
ग्लायनो	-11588
जारिमिन	-11589
थायनानै	-11590
थारलिया	-11591
थियाहां	-11592
दामब्ले	-11593
दिंगिरि	-11594
न्नायनि	-11595
फ्रालाय	-11596
बेफोरखौ	-11597
माफोराव	-11598
मिनिनाय	-11599
लांनोसै	-11600
लांबावो	-11601
ष्टेलाव	-11602
सुशान्त	-11603
हरनायनि	-11604
ायाखिसै	-11605
ोब्लानो	-11606
▁....।"	-11607
▁Kachar	-11608
▁अनजालु	-11609
▁अनिलनि	-11610
▁अनुलेख	-11611
▁अलंबार	-11612
▁अस्थाद	-11613
▁आन्दार	-11614
▁आसिजों	-11615
▁इसोरखौ	-11616
▁उथुजुग	-11617
▁एबसुवा	-11618
▁एवनानै	-11619
▁खांसोर	-11620
▁खारसां	-11621
▁खुथारै	-11622
▁खुसिनि	-11623
▁खेबसेल	-11624
▁खोमाना	-11625
▁गथायनो	-11626
▁गनायना	-11627
▁गयथिया	-11628
▁गाण्डा	-11629
▁गाराखै	-11630
▁गासैखौ	-11631
▁गिबिनि	-11632
▁गिबिया	-11633
▁गुन्दै	-11634
▁गुस्टि	-11635
▁गेवनाय	-11636
▁गेवसार	-11637
▁गैमारा	-11638
▁गोथारै	-11639
▁गोनाङै	-11640
▁गोलैनो	-11641
▁जानोबा	-11642
▁जाफ्ला	-11643
▁जाबसिन	-11644
▁जोंफोर	-11645
▁डेस्कट	-11646
▁थांखां	-11647
▁थाखोखौ	-11648
▁थानोबो	-11649
▁थाबायो	-11650
▁थारबाय	-11651
▁थालाङो	-11652
▁थाहैयो	-11653
▁थेरनाय	-11654
▁थैब्ला	-11655
▁थोंगोर	-11656
▁दखनाखौ	-11657
▁दरजानि	-11658
▁दरलाया	-11659
▁दाकाति	-11660
▁दाथासै	-11661
▁दाबारी	-11662
▁दामदों	-11663
▁दावराय	-11664
▁दुब्रि	-11665
▁दोनखोम	-11666
▁द्राइभ	-11667
▁नलबारी	-11668
▁नागिरा	-11669
▁नुजाहै	-11670
▁नोमानै	-11671
▁पाउदार	-11672
▁प्रग्र	-11673
▁प्रदीप	-11674
▁प्रसाद	-11675
▁प्लटखौ	-11676
▁फजनानै	-11677
▁फानथाव	-11678
▁फिसिनो	-11679
▁फिस्रि	-11680
▁फेनानै	-11681
▁फैसानि	-11682
▁फोजोबो	-11683
▁फोथाया	-11684
▁फोथैनो	-11685
▁फोनाङो	-11686
▁फोरोङो	-11687
▁बयहाबो	-11688
▁बारांग	-11689
▁बावगोन	-11690
▁बिजिनि	-11691
▁बिथांआ	-11692
▁बिथिङा	-11693
▁बिनिया	-11694
▁बिफानो	-11695
▁बिमानै	-11696
▁बिहाबो	-11697
▁बुग्लि	-11698
▁बुद्दि	-11699
▁बुर्जा	-11700
▁बेदरनि	-11701
▁बेदलाव	-11702
▁बैग्रि	-11703
▁बैरागि	-11704
▁बोलोआव	-11705
▁ब्लाउज	-11706
▁महराबो	-11707
▁मादैया	-11708
▁मानियो	-11709
▁मार्का	-11710
▁मासिया	-11711
▁मासेबो	-11712
▁मुंजों	-11713
▁मुगैनो	-11714
▁मुङानो	-11715
▁मोखोना	-11716
▁मोदैनि	-11717
▁मोनजाथ	-11718
▁मोननाव	-11719
▁मोसानो	-11720
▁रजिजों	-11721
▁राहानि	-11722
▁रुपानि	-11723
▁रुपाया	-11724
▁रैमोना	-11725
▁रोदाखौ	-11726
▁लरेननि	-11727
▁लाकीखौ	-11728
▁लानजाइ	-11729
▁लाबानो	-11730
▁लाब्रा	-11731
▁लाब्ला	-11732
▁लायबाय	-11733
▁लावदाब	-11734
▁लेन्थन	-11735
▁वाइल्ड	-11736
▁समब्रा	-11737
▁सम्बार	-11738
▁सातजार	-11739
▁सानदुं	-11740
▁सानलाय	-11741
▁सान्दा	-11742
▁सिनानै	-11743
▁सिरिथा	-11744
▁सिलङाव	-11745
▁सुनिखौ	-11746
▁सुन्दर	-11747
▁सुरबाय	-11748
▁सेक्रि	-11749
▁सैमानि	-11750
▁सोंहरो	-11751
▁सोमजाय	-11752
▁सोमब्र	-11753
▁सोमहाब	-11754
▁सोलिया	-11755
▁सौनानै	-11756
▁सौफैयो	-11757
▁हालिसे	-11758
▁हिमालय	-11759
▁हुगारै	-11760
▁हेन्दि	-11761
▁होसोयो	-11762
essories	-11763
fication	-11764
ग्लुंनाय	-11765
जादोंमोन	-11766
दोंमोननो	-11767
फ्लांगार	-11768
फ्लेनानै	-11769
मागिरिया	-11770
याब्लानो	-11771
यैब्लाबो	-11772
राजाफोरा	-11773
लांनायाव	-11774
▁Limited	-11775
▁अनफावरि	-11776
▁अनाथीनि	-11777
▁अनारीया	-11778
▁अरायदिन	-11779
▁आखुखौनो	-11780
▁आथिंजों	-11781
▁आनज्राय	-11782
▁आन्दोआव	-11783
▁आबादारि	-11784
▁इण्डिया	-11785
▁उदुरामा	-11786
▁उरिष्या	-11787
▁एवस्रां	-11788
▁कमिसनार	-11789
▁कम्फिउट	-11790
▁कर्निया	-11791
▁क्लाबाव	-11792
▁खानस्रि	-11793
▁खायफाया	-11794
▁खारखाना	-11795
▁खारनानै	-11796
▁गंग्लाय	-11797
▁गम्भीरा	-11798
▁गलाफीनि	-11799
▁गानहोयो	-11800
▁गाराङाव	-11801
▁गुरब्ला	-11802
▁गेलेदों	-11803
▁गोनांखौ	-11804
▁गोमोहाब	-11805
▁गोरजिया	-11806
▁गोराजों	-11807
▁चाणाक्य	-11808
▁जब्रानि	-11809
▁जाखागोन	-11810
▁जाखानाय	-11811
▁जाजानाय	-11812
▁जाबोबाय	-11813
▁जायगाया	-11814
▁जाहोननि	-11815
▁जिनिसखौ	-11816
▁जिबौजों	-11817
▁जेननानै	-11818
▁थांग्रो	-11819
▁थाफैदों	-11820
▁दानसोरा	-11821
▁दाबिनाय	-11822
▁दाबुंसै	-11823
▁दावज्ला	-11824
▁दिनथिनो	-11825
▁दिन्दां	-11826
▁दैखांनो	-11827
▁दैज्लां	-11828
▁दैथुननि	-11829
▁दोनब्ला	-11830
▁दोहोननि	-11831
▁धोरोमाव	-11832
▁नम्बरनि	-11833
▁नांब्ला	-11834
▁नागाफोर	-11835
▁नायगोमो	-11836
▁नायजानो	-11837
▁नारेंखल	-11838
▁नार्जां	-11839
▁निदानखौ	-11840
▁नुथायाव	-11841
▁नेवसिनो	-11842
▁नोंनिनो	-11843
▁नोंनिया	-11844
▁फायारिं	-11845
▁फास्लां	-11846
▁फिथाइनि	-11847
▁फिदिंनो	-11848
▁फिसिनाय	-11849
▁फुंजानि	-11850
▁फुंबिलि	-11851
▁फुथिहां	-11852
▁फैनायखौ	-11853
▁फोजाखां	-11854
▁फोलेराव	-11855
▁बन्दाया	-11856
▁बांहोनो	-11857
▁बाग्राय	-11858
▁बाथायाव	-11859
▁बानायाव	-11860
▁बारहावा	-11861
▁बाहायथि	-11862
▁बिजिरनो	-11863
▁बिदैजों	-11864
▁बिफाजों	-11865
▁बिफोरखौ	-11866
▁बिमाइनो	-11867
▁बिरलाङो	-11868
▁बिलायाव	-11869
▁बिसारखौ	-11870
▁बिहावनो	-11871
▁बुंनोबो	-11872
▁बेफोरहा	-11873
▁बेसेनखौ	-11874
▁बेसोरनि	-11875
▁बैसोआबो	-11876
▁बोनायसै	-11877
▁बोसोरनै	-11878
▁मानोमोन	-11879
▁मान्दार	-11880
▁मिनिबाय	-11881
▁मिहिरखौ	-11882
▁मुंमाखौ	-11883
▁मुजिथाव	-11884
▁मुवाफोर	-11885
▁मेंग्लि	-11886
▁मेथाइनि	-11887
▁मेरगानि	-11888
▁मेलायाव	-11889
▁मोनथारो	-11890
▁मोननैखौ	-11891
▁मोनफैयो	-11892
▁मोनबानो	-11893
▁मोनलिया	-11894
▁मोनहैयो	-11895
▁मोनैयाव	-11896
▁मोस्रोम	-11897
▁राननानै	-11898
▁रिजाल्ट	-11899
▁रेन्जार	-11900
▁रेबग्रा	-11901
▁लाखादों	-11902
▁लाखिथों	-11903
▁लाजिथाव	-11904
▁लुबैबाय	-11905
▁वर्कश्व	-11906
▁सम्बारु	-11907
▁सानब्रै	-11908
▁सानसेनि	-11909
▁सानायनि	-11910
▁सायावबो	-11911
▁सारस्रि	-11912
▁सिफियाव	-11913
▁सेबनानै	-11914
▁सोरहाबा	-11915
▁सोलिनाय	-11916
▁सोलिबाय	-11917
▁हगारसार	-11918
▁हरनायसै	-11919
▁हांगारि	-11920
▁हांसानि	-11921
▁हाथाइनि	-11922
▁हानांगौ	-11923
▁हानायाव	-11924
▁हाब्रां	-11925
▁हालोदाव	-11926
▁हास्लाब	-11927
▁होग्रां	-11928
जानिफ्राय	-11929
थारदोंमोन	-11930
लायथारबाय	-11931
ालाबासिनो	-11932
▁आखायावनो	-11933
▁आलासिफोर	-11934
▁इनटारनेल	-11935
▁इन्जुराव	-11936
▁उपेन्द्र	-11937
▁एसेमब्लि	-11938
▁खांग्रां	-11939
▁खांनायनि	-11940
▁खायदाजों	-11941
▁खारस्लिउ	-11942
▁गनायनानै	-11943
▁गाज्रिखौ	-11944
▁गाज्रियै	-11945
▁गावरावनि	-11946
▁गासिखौबो	-11947
▁गिखांनाय	-11948
▁गेलेनाया	-11949
▁गोजोनबाय	-11950
▁गोबाङैनो	-11951
▁गोसोआवनो	-11952
▁गोहोगोरा	-11953
▁जाथायजों	-11954
▁जाथारगोन	-11955
▁जिरायदों	-11956
▁जेरबायाव	-11957
▁जोबजासिम	-11958
▁थगायसुलि	-11959
▁थांबावनो	-11960
▁थाइजाजों	-11961
▁थानायखाय	-11962
▁थिननायाव	-11963
▁थिनहरबाय	-11964
▁थिसननानै	-11965
▁थेख्रेनि	-11966
▁दाइरियाव	-11967
▁दाक्टारा	-11968
▁दाखालिसो	-11969
▁दाबसियाव	-11970
▁देमग्लाय	-11971
▁दैदेननाय	-11972
▁दोननायसै	-11973
▁दोनफैनाय	-11974
▁दोरोङारि	-11975
▁नांफैदों	-11976
▁नायनांगौ	-11977
▁नुजाफैनो	-11978
▁नोंथांनो	-11979
▁नोंसिनाव	-11980
▁फरेष्टनि	-11981
▁फिनज्राब	-11982
▁फिननायखौ	-11983
▁फिसाजोनो	-11984
▁फैफिन्नो	-11985
▁फोथैनानै	-11986
▁बरायनानै	-11987
▁बांगालनि	-11988
▁बांग्रिख	-11989
▁बाथुवानि	-11990
▁बान्थाया	-11991
▁बायनांगौ	-11992
▁बिखान्थि	-11993
▁बिगोमानि	-11994
▁बिमायाबो	-11995
▁बिलिदबाय	-11996
▁बुथारनाय	-11997
▁बुद्रैया	-11998
▁बेरायदों	-11999
▁बेलासेनि	-12000
▁ब्रह्मखौ	-12001
▁मणिपुरनि	-12002
▁मन्जुजों	-12003
▁माखासेखौ	-12004
▁मानगोनां	-12005
▁मिनिबाला	-12006
▁मुंराइनि	-12007
▁मुसाहारी	-12008
▁मोखांथिं	-12009
▁मोख्राया	-12010
▁मोनथिबाय	-12011
▁मोननायाव	-12012
▁मोनहैबाय	-12013
▁मोन्नैसो	-12014
▁रंजालीया	-12015
▁रुजुनानै	-12016
▁रोङाब्ला	-12017
▁रोजाबनाय	-12018
▁लाजिनाया	-12019
▁लावथिजों	-12020
▁लिंहरनाय	-12021
▁लुबैसुला	-12022
▁लेंहरनाय	-12023
▁लोगोफोरा	-12024
▁लोमजादों	-12025
▁साख्रिखौ	-12026
▁सानैयाबो	-12027
▁सिबस्रां	-12028
▁सुबुङारि	-12029
▁सोरांनाय	-12030
▁हरदोंमोन	-12031
▁हस्पिटाल	-12032
▁हस्रिखाव	-12033
▁हागौमानि	-12034
▁हाथाइयाव	-12035
▁हानांगोन	-12036
▁हानायसिम	-12037
▁हाबफैदों	-12038
▁हाबिलदार	-12039
▁हिनजावसा	-12040
▁होगासिनो	-12041
▁होबथानाय	-12042
▁होलांदों	-12043
▁होलांबाय	-12044
▁अनुलेखानि	-12045
▁खोनासंबाय	-12046
▁खौरांगाबा	-12047
▁गावथारनाय	-12048
▁गावबुराखौ	-12049
▁गेलेहोनाय	-12050
▁गोग्लैदों	-12051
▁गोनांब्ला	-12052
▁गोलांनानै	-12053
▁जाफुंहोनो	-12054
▁जालायनानै	-12055
▁जिंगासिनो	-12056
▁जेसेबांनो	-12057
▁जोबथारनाय	-12058
▁जौगानायनि	-12059
▁थांफिनगोन	-12060
▁थाबायनानै	-12061
▁थुंग्रिया	-12062
▁थुनलायारि	-12063
▁दंनायमानि	-12064
▁देरगानानै	-12065
▁दोहोरोमनि	-12066
▁नंखायखौनो	-12067
▁नांदोंमोन	-12068
▁नागाफोरखौ	-12069
▁नाजावनानै	-12070
▁नायनायसाय	-12071
▁नोंथाङाबो	-12072
▁पेट्रिडिस	-12073
▁फावखुंगुर	-12074
▁फावथायारि	-12075
▁फेदेरनानै	-12076
▁फोथांनानै	-12077
▁फोलावनानै	-12078
▁फोसावनानै	-12079
▁बयनिख्रुय	-12080
▁बाख्रियाव	-12081
▁बान्दोलखौ	-12082
▁बावदियाखौ	-12083
▁बिगोमाजोआ	-12084
▁बिजावजालि	-12085
▁बिथांनिनो	-12086
▁बिरलांदों	-12087
▁बुंनायमोन	-12088
▁बुथुमनानै	-12089
▁बुरखायनाय	-12090
▁बेण्डेजखौ	-12091
▁बैदिनखालि	-12092
▁बोस्रांनो	-12093
▁भुटियापार	-12094
▁मन्थ्रिया	-12095
▁मावदोंमोन	-12096
▁मावनांगोन	-12097
▁मावनायजों	-12098
▁मीनारामनि	-12099
▁मोनजायाखै	-12100
▁मोननायमोन	-12101
▁मोनफिनबाय	-12102
▁मोन्नांगौ	-12103
▁राजथान्दै	-12104
▁रेन्जारनि	-12105
▁रोंनांगोन	-12106
▁लाइब्रेरी	-12107
▁लाखिनायनि	-12108
▁लाबोफादों	-12109
▁सर्बेश्वर	-12110
▁सानजौफुनि	-12111
▁सानथ्रिनि	-12112
▁साननायजों	-12113
▁सानस्रिखौ	-12114
▁सानिफ्राय	-12115
▁सिखांनानै	-12116
▁सिनायथिया	-12117
▁सिनायमोनै	-12118
▁सुस्रांनो	-12119
▁सेंग्राखौ	-12120
▁सोदोबफोरा	-12121
▁हांखोफ्रा	-12122
.........।"	-12123
बिफानिफ्राय	-12124
।..........	-12125
▁इराग्दावखौ	-12126
▁उनावहालागै	-12127
▁ओनसोलफोराव	-12128
▁कक्राझारनि	-12129
▁कार्बिआंलं	-12130
▁खथानिफ्राय	-12131
▁खामानियाबो	-12132
▁खालामसिगोन	-12133
▁खुनुरुखुमै	-12134
▁गानहोनांगौ	-12135
▁गुस्लायनाय	-12136
▁गोसोखांलाइ	-12137
▁जायोब्लाबो	-12138
▁थुनफावथिना	-12139
▁दुखुनांथाव	-12140
▁दोहोरोमारि	-12141
▁नागिरनायखौ	-12142
▁नाजानांगोन	-12143
▁नायजाबफोरा	-12144
▁नायहाबनानै	-12145
▁नुग्रोमोना	-12146
▁फान्दायनाय	-12147
▁फुंनिफ्राय	-12148
▁फैफिन्नानै	-12149
▁फोनांनायनि	-12150
▁फोरमायथियो	-12151
▁फोसाबनायनि	-12152
▁फोसावनायनि	-12153
▁बसुमतारीखौ	-12154
▁बाथ्राफ्रा	-12155
▁बायह्रायाव	-12156
▁बाहायजानाय	-12157
▁बिबुंसारनि	-12158
▁बिरोंदामिन	-12159
▁बुंखांनानै	-12160
▁बुङाबालानो	-12161
▁बेयावहायनो	-12162
▁बेसादफोरखौ	-12163
▁मिनिस्लुयै	-12164
▁मुसाहारीनि	-12165
▁रमायश्रिया	-12166
▁राइजोफोरनो	-12167
▁शनिबारखालि	-12168
▁सान्थ्रिनि	-12169
▁सामफ्रोमबो	-12170
▁सावरायनाया	-12171
▁सिख्लायानो	-12172
▁सेबखांनानै	-12173
▁सोमोनांथाव	-12174
▁सोरजिनायाव	-12175
▁सोरनिफ्राय	-12176
▁अख्रांमायाव	-12177
▁आथिंनिफ्राय	-12178
▁कमाण्डफोरखौ	-12179
▁खालामहोनानै	-12180
▁जानांदोंमोन	-12181
▁दंमोनब्लाबो	-12182
▁नौनारिफोरखौ	-12183
▁फाहामसालिनि	-12184
▁फोरमायथिनाय	-12185
▁बादायलायनाय	-12186
▁बारांगाबारी	-12187
▁बिजिरसालिनि	-12188
▁मिनिगाग्लाब	-12189
▁रायलायनायनि	-12190
▁लुबैयाखैमोन	-12191
▁साखाथियावनो	-12192
▁साख्रियावला	-12193
▁सिख्लाफोरखौ	-12194
▁सेकस्पीयारा	-12195
▁सोदोमस्रिनि	-12196
▁सोद्रोमाफोर	-12197
▁सोरजिगिरिनि	-12198
▁सोरजिदोंमोन	-12199
▁हगारसारनानै	-12200
▁हाजोनिफ्राय	-12201
▁हेफाजाबगिरि	-12202
▁गाबज्रिनायाव	-12203
▁जोबथेसालियाव	-12204
▁थिउरियाफोरनि	-12205
▁नायग्राफोरखौ	-12206
▁फान्दायनायाव	-12207
▁फोजोबस्रांनो	-12208
▁बेफ्रुथायजों	-12209
▁मुंफ्रोमखौबो	-12210
▁रायज्लायग्रा	-12211
▁सुजुग्रायाबो	-12212
▁सेक्सपीयारनि	-12213
▁नायबिजिरनायनि	-12214
▁खौरांगिरिफोरनि	-12215
▁दावबायारिफोरनि	-12216
▁दैदेनगिरिफोरनि	-12217
▁बिग्रायारिफोरा	-12218
,2	-12219
-4	-12220
43	-12221
90	-12222
AC	-12223
AS	-12224
In	-12225
OM	-12226
av	-12227
ch	-12228
fe	-12229
of	-12230
oy	-12231
pl	-12232
},	-12233
ʼ!	-12234
ʼ?	-12235
आल	-12236
कृ	-12237
गी	-12238
ञ्	-12239
थक	-12240
थल	-12241
थी	-12242
फर	-12243
लस	-12244
हय	-12245
ाफ	-12246
ेइ	-12247
ैल	-12248
।2	-12249
▁j	-12250
▁~	-12251
▁ष	-12252
Com	-12253
anc	-12254
ese	-12255
est	-12256
gue	-12257
ire	-12258
iti	-12259
las	-12260
mon	-12261
oci	-12262
ons	-12263
ort	-12264
ser	-12265
ual	-12266
uly	-12267
yle	-12268
अभि	-12269
इला	-12270
उटर	-12271
उटि	-12272
कनो	-12273
कात	-12274
काम	-12275
खाथ	-12276
खेव	-12277
खोब	-12278
गाप	-12279
गाम	-12280
गुल	-12281
घाल	-12282
चिन	-12283
जयो	-12284
जाग	-12285
जुव	-12286
ज्य	-12287
ड़ा	-12288
डेम	-12289
थिक	-12290
दुत	-12291
ननो	-12292
निय	-12293
फर्	-12294
फिक	-12295
फोत	-12296
बखौ	-12297
बाब	-12298
बास	-12299
बिष	-12300
बिह	-12301
मेर	-12302
यदा	-12303
र्श	-12304
लिम	-12305
लेब	-12306
लेस	-12307
वाथ	-12308
सती	-12309
सनो	-12310
साह	-12311
सेट	-12312
हरु	-12313
हवा	-12314
हुन	-12315
ाजे	-12316
ाले	-12317
्मा	-12318
्लु	-12319
।..	-12320
▁-!	-12321
▁-[	-12322
▁34	-12323
▁35	-12324
▁80	-12325
▁My	-12326
▁PC	-12327
▁Pl	-12328
▁ar	-12329
▁de	-12330
▁he	-12331
▁my	-12332
▁sh	-12333
▁up	-12334
▁इछ	-12335
▁इड	-12336
▁एं	-12337
▁एद	-12338
▁गण	-12339
▁गी	-12340
▁घि	-12341
▁थख	-12342
▁धो	-12343
▁न्	-12344
▁फौ	-12345
▁बब	-12346
▁बी	-12347
▁भौ	-12348
▁रड	-12349
▁वे	-12350
▁शु	-12351
▁सी	-12352
...?	-12353
Pron	-12354
aint	-12355
eriv	-12356
ffix	-12357
ight	-12358
ious	-12359
ople	-12360
आंदि	-12361
आंनो	-12362
आथिं	-12363
आलाय	-12364
इननि	-12365
काबि	-12366
क्ता	-12367
खरखौ	-12368
खिया	-12369
खिरा	-12370
खोनो	-12371
ख्रब	-12372
गान्	-12373
गुरै	-12374
गुसु	-12375
गोथे	-12376
छानि	-12377
जाना	-12378
जाबी	-12379
जेरै	-12380
जोंल	-12381
ज्जा	-12382
टकेस	-12383
टिसि	-12384
डेमी	-12385
त्या	-12386
थाबो	-12387
थारी	-12388
थुना	-12389
थौखौ	-12390
थौदो	-12391
दबनो	-12392
दहाय	-12393
दावा	-12394
द्दा	-12395
नाथा	-12396
निखौ	-12397
निमा	-12398
न्स्	-12399
फांग	-12400
फालि	-12401
फुङो	-12402
फैखो	-12403
बाथे	-12404
बोलो	-12405
भेला	-12406
माइज	-12407
माफा	-12408
माबे	-12409
माला	-12410
मिन्	-12411
मिसन	-12412
मुवा	-12413
मेला	-12414
म्मद	-12415
राहा	-12416
रोङै	-12417
लजों	-12418
लाना	-12419
साजा	-12420
साबा	-12421
सिदे	-12422
सिला	-12423
सिसा	-12424
सुरि	-12425
सेया	-12426
सैया	-12427
हालि	-12428
ानोथ	-12429
ामखौ	-12430
ामाव	-12431
ामिद	-12432
ामिन	-12433
ालुक	-12434
ुगुर	-12435
ुम्ब	-12436
ुरनि	-12437
ेनखौ	-12438
ैलाय	-12439
्रोम	-12440
्लेब	-12441
▁(8)	-12442
▁11.	-12443
▁Hab	-12444
▁Pad	-12445
▁Rev	-12446
▁ide	-12447
▁its	-12448
▁ser	-12449
▁अखन	-12450
▁आंल	-12451
▁आली	-12452
▁कटन	-12453
▁कथा	-12454
▁काट	-12455
▁किक	-12456
▁कुब	-12457
▁खबै	-12458
▁खुल	-12459
▁खुव	-12460
▁खौऔ	-12461
▁गिस	-12462
▁जथा	-12463
▁जबा	-12464
▁जाफ	-12465
▁जेव	-12466
▁डिस	-12467
▁ताँ	-12468
▁ताम	-12469
▁थाक	-12470
▁थिम	-12471
▁थेफ	-12472
▁दले	-12473
▁दिङ	-12474
▁देन	-12475
▁दोआ	-12476
▁दौल	-12477
▁नहा	-12478
▁नान	-12479
▁नेस	-12480
▁पाइ	-12481
▁पिं	-12482
▁फल्	-12483
▁फेद	-12484
▁बाप	-12485
▁बिध	-12486
▁बेक	-12487
▁बेट	-12488
▁बोग	-12489
▁बोज	-12490
▁भाइ	-12491
▁भाद	-12492
▁भोट	-12493
▁मथन	-12494
▁माघ	-12495
▁मिल	-12496
▁रना	-12497
▁राउ	-12498
▁रिप	-12499
▁लाक	-12500
▁लाथ	-12501
▁लिस	-12502
▁लेम	-12503
▁सप्	-12504
▁साप	-12505
▁सित	-12506
▁सेल	-12507
▁हाफ	-12508
▁हिन	-12509
▁होख	-12510
▁होथ	-12511
otion	-12512
आबारी	-12513
उन्दु	-12514
क्साव	-12515
खायनि	-12516
खालाम	-12517
ख्राउ	-12518
गारां	-12519
गाहाय	-12520
गिदिर	-12521
गोबां	-12522
ग्रेब	-12523
ग्लाब	-12524
जाखां	-12525
जायखौ	-12526
जायनि	-12527
जिराय	-12528
जेन्ट	-12529
टिकेल	-12530
टियाव	-12531
डाक्त	-12532
तान्त	-12533
तिकेल	-12534
थफ्लि	-12535
थाबाय	-12536
थिंनो	-12537
थिदों	-12538
थेनाय	-12539
थेरनो	-12540
थैबाय	-12541
ददेरे	-12542
दायखौ	-12543
दावसा	-12544
दोंलै	-12545
द्दिन	-12546
धामाल	-12547
निसार	-12548
नोंखौ	-12549
न्जित	-12550
न्डेल	-12551
पात्र	-12552
प्लेट	-12553
फालां	-12554
फाहाम	-12555
फिकेट	-12556
फुंखा	-12557
फ्राथ	-12558
फ्रुं	-12559
बागान	-12560
बारखौ	-12561
बावनि	-12562
बिगुर	-12563
बेफोर	-12564
बेयाव	-12565
ब्लेम	-12566
मारजे	-12567
मिथिस	-12568
मैदेर	-12569
मोदोम	-12570
यारखौ	-12571
लाजों	-12572
लानाय	-12573
लाबोर	-12574
लेन्स	-12575
वार्ट	-12576
ष्टेल	-12577
साइया	-12578
सानदि	-12579
सुनाय	-12580
सेन्ट	-12581
सोनाय	-12582
सोरां	-12583
हरासै	-12584
हाफाय	-12585
ागासे	-12586
ाज्ला	-12587
ानोबो	-12588
ानोसै	-12589
ाहोयो	-12590
ेनिटि	-12591
ेरिका	-12592
ेशननि	-12593
ोन्दा	-12594
्ब्बो	-12595
्लाबो	-12596
्लायै	-12597
्ल्ला	-12598
▁(198	-12599
▁1000	-12600
▁1986	-12601
▁July	-12602
▁from	-12603
▁have	-12604
▁hour	-12605
▁name	-12606
▁noun	-12607
▁this	-12608
▁असिद	-12609
▁असुख	-12610
▁आथाल	-12611
▁आथें	-12612
▁आदाब	-12613
▁आफोर	-12614
▁आयथा	-12615
▁आरमि	-12616
▁आस्र	-12617
▁इंखं	-12618
▁इखान	-12619
▁ईसान	-12620
▁उखुम	-12621
▁उजिर	-12622
▁उपेन	-12623
▁उराय	-12624
▁एन्ज	-12625
▁एन्ट	-12626
▁एमबु	-12627
▁कहिध	-12628
▁कान्	-12629
▁केसा	-12630
▁क्लस	-12631
▁खराग	-12632
▁खष्ट	-12633
▁खायो	-12634
▁खिथु	-12635
▁खिरि	-12636
▁खुङो	-12637
▁ख्रि	-12638
▁गग्र	-12639
▁गवाल	-12640
▁गिजि	-12641
▁गोदौ	-12642
▁गौमा	-12643
▁ग्लब	-12644
▁जखाइ	-12645
▁जगार	-12646
▁जगोन	-12647
▁जरखा	-12648
▁जराय	-12649
▁जस्ल	-12650
▁जाखि	-12651
▁जारा	-12652
▁जिखौ	-12653
▁जिदु	-12654
▁जुथि	-12655
▁जोबथ	-12656
▁ज्रय	-12657
▁डलार	-12658
▁डाटा	-12659
▁डेनम	-12660
▁तिता	-12661
▁थाहो	-12662
▁थैखो	-12663
▁थोया	-12664
▁दंनो	-12665
▁दखरा	-12666
▁दलरै	-12667
▁दसेल	-12668
▁दागो	-12669
▁दानख	-12670
▁दानै	-12671
▁दिंग	-12672
▁दैबो	-12673
▁दोखौ	-12674
▁दौरि	-12675
▁धरणी	-12676
▁नांथ	-12677
▁नाकि	-12678
▁नायख	-12679
▁नुखो	-12680
▁नोलो	-12681
▁पष्ट	-12682
▁पेके	-12683
▁फावा	-12684
▁फिरि	-12685
▁फुलि	-12686
▁फुसब	-12687
▁फोर्	-12688
▁बरसा	-12689
▁बाखि	-12690
▁बानि	-12691
▁बार्	-12692
▁बिखि	-12693
▁बिथर	-12694
▁बिबै	-12695
▁बुगा	-12696
▁बुहु	-12697
▁बेजे	-12698
▁बेहु	-12699
▁बैयो	-12700
▁बोद्	-12701
▁बौहै	-12702
▁भबेश	-12703
▁भारि	-12704
▁मताम	-12705
▁महाम	-12706
▁मुसे	-12707
▁मेजे	-12708
▁रमिव	-12709
▁राङै	-12710
▁रुखु	-12711
▁रुबि	-12712
▁रुबु	-12713
▁रेगा	-12714
▁रेजि	-12715
▁रोमो	-12716
▁लगाय	-12717
▁लण्ड	-12718
▁लाखो	-12719
▁लागै	-12720
▁लाथा	-12721
▁लुनो	-12722
▁लुयै	-12723
▁लेवा	-12724
▁लोहो	-12725
▁सत्य	-12726
▁साइद	-12727
▁सामव	-12728
▁सास्	-12729
▁सिबै	-12730
▁सुखि	-12731
▁सुयो	-12732
▁सेनि	-12733
▁सोना	-12734
▁स्टि	-12735
▁हनाय	-12736
▁हाकि	-12737
▁हाखा	-12738
▁हाखो	-12739
▁हाथा	-12740
▁हुयो	-12741
▁होबा	-12742
....?"	-12743
अन्थाइ	-12744
इंख्रि	-12745
काबिला	-12746
खुलुमो	-12747
खोनासं	-12748
खोन्दो	-12749
गाँवनि	-12750
गामिनि	-12751
गुरिनि	-12752
गोसोखौ	-12753
थायनाय	-12754
दाखालि	-12755
द्राया	-12756
नायखौल	-12757
पाइपार	-12758
फाग्ला	-12759
फायानो	-12760
फोरनाव	-12761
फ्रासो	-12762
बादिनो	-12763
बोलाबो	-12764
माबादि	-12765
मायारि	-12766
मोनथाय	-12767
म्पान्	-12768
लाइजाम	-12769
वाखिसै	-12770
संगिना	-12771
सानराइ	-12772
सिनगोन	-12773
हांनाय	-12774
हांबाय	-12775
हैफिनो	-12776
ाबाथाय	-12777
ाबायदि	-12778
ाबालाय	-12779
ुमनानै	-12780
ुरेन्ट	-12781
्रायनो	-12782
▁Paint	-12783
▁sense	-12784
▁अजाखौ	-12785
▁अजानि	-12786
▁अनसाइ	-12787
▁अरडार	-12788
▁आंगुर	-12789
▁आखुथि	-12790
▁आग्दा	-12791
▁आदर्श	-12792
▁आदिबा	-12793
▁आबारी	-12794
▁आबौवा	-12795
▁आयाबो	-12796
▁आरोबा	-12797
▁आल्ला	-12798
▁आसिया	-12799
▁इउजार	-12800
▁इलेकट	-12801
▁उइलखौ	-12802
▁उजियो	-12803
▁उदाङै	-12804
▁उफेरा	-12805
▁कापनि	-12806
▁कापसे	-12807
▁काश्य	-12808
▁केहेर	-12809
▁क्राइ	-12810
▁खमलाय	-12811
▁खमैबो	-12812
▁खारबो	-12813
▁खावना	-12814
▁खिनाय	-12815
▁खुनाय	-12816
▁खेरेब	-12817
▁खोनाम	-12818
▁खोमोन	-12819
▁ख्रों	-12820
▁ख्लां	-12821
▁गंगना	-12822
▁गंथाम	-12823
▁गाखोम	-12824
▁गाब्र	-12825
▁गारजा	-12826
▁गाराइ	-12827
▁गाराम	-12828
▁गुफुं	-12829
▁गोग्ग	-12830
▁गोदना	-12831
▁गोबाथ	-12832
▁ग्राम	-12833
▁जखानि	-12834
▁जथायै	-12835
▁जारला	-12836
▁जिगां	-12837
▁जिथाम	-12838
▁जोंगा	-12839
▁टाइट्	-12840
▁टेलिफ	-12841
▁तिब्ब	-12842
▁थफीया	-12843
▁थबगां	-12844
▁थाजोब	-12845
▁थिनबा	-12846
▁थैहां	-12847
▁थोरफो	-12848
▁दराखौ	-12849
▁दांनो	-12850
▁दाउला	-12851
▁दादेर	-12852
▁दानथे	-12853
▁दानना	-12854
▁दिदोम	-12855
▁दिन्थ	-12856
▁देदेन	-12857
▁देलाय	-12858
▁दोनदो	-12859
▁नंबाय	-12860
▁नखरखौ	-12861
▁नाथाइ	-12862
▁नुजाद	-12863
▁नेहरु	-12864
▁नोरखो	-12865
▁पार्क	-12866
▁पिस्ट	-12867
▁प्रेछ	-12868
▁फारलं	-12869
▁फावाव	-12870
▁फिननो	-12871
▁फिराय	-12872
▁फुंबि	-12873
▁फेंखा	-12874
▁फ्रेम	-12875
▁बदमास	-12876
▁बादाम	-12877
▁बानसे	-12878
▁बायना	-12879
▁बालाय	-12880
▁बालें	-12881
▁बिकास	-12882
▁बिजिद	-12883
▁बिलित	-12884
▁बिसाल	-12885
▁बिहाउ	-12886
▁बुटिं	-12887
▁बुरला	-12888
▁बुलाय	-12889
▁बेफार	-12890
▁बेल्ट	-12891
▁बेवाइ	-12892
▁बैसुम	-12893
▁बैसोम	-12894
▁बोखां	-12895
▁ब्रास	-12896
▁ब्रीज	-12897
▁ब्रें	-12898
▁भारता	-12899
▁मददाव	-12900
▁मनजुआ	-12901
▁मामाइ	-12902
▁मासनि	-12903
▁मिथिं	-12904
▁मिलाय	-12905
▁मिलिट	-12906
▁मुफुर	-12907
▁मुम्ब	-12908
▁मुर्ख	-12909
▁मेथें	-12910
▁रजिखौ	-12911
▁राखें	-12912
▁रिस्ट	-12913
▁लटारि	-12914
▁लांदो	-12915
▁लायदो	-12916
▁लावगि	-12917
▁लिंनो	-12918
▁लिटार	-12919
▁ल्दाम	-12920
▁ष्टेज	-12921
▁ष्टेट	-12922
▁संफ्ल	-12923
▁सदबनो	-12924
▁समसिम	-12925
▁समसेर	-12926
▁समायो	-12927
▁सरजाब	-12928
▁साखोन	-12929
▁साथिं	-12930
▁साबाइ	-12931
▁साबोन	-12932
▁सालान	-12933
▁सुरनो	-12934
▁सेंसौ	-12935
▁सेमिन	-12936
▁सेमोन	-12937
▁सोंफै	-12938
▁सोदोर	-12939
▁स्टरे	-12940
▁स्पिद	-12941
▁हंख्र	-12942
▁हाजोब	-12943
▁हादान	-12944
▁हाफाय	-12945
▁हामिद	-12946
▁हालदा	-12947
▁हालिव	-12948
▁हिंसा	-12949
▁हैनाय	-12950
▁होआसै	-12951
कासुरनि	-12952
खमज्लाय	-12953
ख्रावनो	-12954
ग्रोनाय	-12955
ग्रोबाय	-12956
जाथावदि	-12957
जोबब्ला	-12958
जोहोलाव	-12959
थेबनानै	-12960
देरनानै	-12961
नायखौसो	-12962
नायनिबो	-12963
नायानोथ	-12964
नायालाय	-12965
फायोमोन	-12966
फ्लेबाय	-12967
बायनानै	-12968
बुजिबाय	-12969
बोनायनि	-12970
बोनायाव	-12971
मोन्नाय	-12972
रायनानै	-12973
लायजासे	-12974
सिदेन्ट	-12975
सिन्दों	-12976
सेयावनो	-12977
होनायाव	-12978
ालांगोन	-12979
िनांगोन	-12980
ोनांदों	-12981
।......	-12982
▁Habild	-12983
▁people	-12984
▁अजयजों	-12985
▁अननाया	-12986
▁अनिराम	-12987
▁अबंलाउ	-12988
▁आंनाबो	-12989
▁आथोनखौ	-12990
▁आदबजों	-12991
▁आनजादा	-12992
▁आलमारि	-12993
▁इमारजे	-12994
▁इलेक्ट	-12995
▁इसिंनि	-12996
▁उखैनाय	-12997
▁उजिदों	-12998
▁उथुमाय	-12999
▁उद्राय	-13000
▁उसिफाव	-13001
▁एसेयाव	-13002
▁ओजोंबो	-13003
▁ओरैहाय	-13004
▁कन्ट्र	-13005
▁खांख्र	-13006
▁खान्दि	-13007
▁खारलुं	-13008
▁खाराखै	-13009
▁खावनाय	-13010
▁खुगाखौ	-13011
▁खोथिया	-13012
▁खोनाबा	-13013
▁गंसेनि	-13014
▁गदायनि	-13015
▁गन्थङा	-13016
▁गसाइनि	-13017
▁गांथाम	-13018
▁गानदों	-13019
▁गान्धी	-13020
▁गाबजों	-13021
▁गायदां	-13022
▁गाराङा	-13023
▁गाराया	-13024
▁गार्लस	-13025
▁गाहायै	-13026
▁गिलिरै	-13027
▁गुज्रि	-13028
▁गुदुनि	-13029
▁गोजानै	-13030
▁गोबायो	-13031
▁गोबासे	-13032
▁गोरोबै	-13033
▁गोसोदि	-13034
▁गोसोसै	-13035
▁जखायसे	-13036
▁जन्त्र	-13037
▁जाखायो	-13038
▁जाग्रो	-13039
▁जादिया	-13040
▁जानाङा	-13041
▁जाबानो	-13042
▁जार्ला	-13043
▁जिब्रै	-13044
▁जुक्ति	-13045
▁जुजिनो	-13046
▁जुजियै	-13047
▁जुलिया	-13048
▁जोथोनै	-13049
▁जोनोमा	-13050
▁जोबदों	-13051
▁टाउननि	-13052
▁टेक्सि	-13053
▁डिग्री	-13054
▁थबसिया	-13055
▁थांग्र	-13056
▁थांथार	-13057
▁थागिरि	-13058
▁थायोनो	-13059
▁थावजों	-13060
▁थाहोनो	-13061
▁थुंसुं	-13062
▁थुब्रा	-13063
▁थेलाखौ	-13064
▁थैजासे	-13065
▁दंहैयो	-13066
▁दब्लाय	-13067
▁दरजाया	-13068
▁दाखिन्	-13069
▁दान्थे	-13070
▁दान्दा	-13071
▁दामानि	-13072
▁दाहुना	-13073
▁दिग्री	-13074
▁दिनैबा	-13075
▁दुखारि	-13076
▁दुखुयै	-13077
▁देब्ला	-13078
▁देरदों	-13079
▁देरनाय	-13080
▁दोनासै	-13081
▁दोमैलु	-13082
▁दोमैलो	-13083
▁दोहोनि	-13084
▁द्रयिं	-13085
▁नम्बरी	-13086
▁नसिङाव	-13087
▁नांहाब	-13088
▁नाजाया	-13089
▁नार्जि	-13090
▁नालेंख	-13091
▁निसाया	-13092
▁नुगानै	-13093
▁नुजाफै	-13094
▁नेग्रा	-13095
▁नेपालि	-13096
▁नेरखां	-13097
▁नेशनेल	-13098
▁परिषदा	-13099
▁पाक्का	-13100
▁पिंपिं	-13101
▁प्रदिप	-13102
▁फल्डार	-13103
▁फाइनाल	-13104
▁फाथ्रि	-13105
▁फान्था	-13106
▁फाल्ला	-13107
▁फिंगार	-13108
▁फिथाया	-13109
▁बक्सीं	-13110
▁बबेथिं	-13111
▁बाङाली	-13112
▁बाजुवा	-13113
▁बादिखौ	-13114
▁बारसिन	-13115
▁बारानि	-13116
▁बावगोम	-13117
▁बिजिया	-13118
▁बिजौखौ	-13119
▁बिदैया	-13120
▁बिबाङा	-13121
▁बिबाना	-13122
▁बियोदि	-13123
▁बुंलाय	-13124
▁बुरैखौ	-13125
▁बेंगली	-13126
▁बेंदों	-13127
▁बेबहार	-13128
▁बेरामा	-13129
▁बेसेथो	-13130
▁बोखाङो	-13131
▁भेनिटि	-13132
▁मनालिस	-13133
▁मन्थ्र	-13134
▁महीधरा	-13135
▁माउसनि	-13136
▁मानसिं	-13137
▁मानैखौ	-13138
▁मालदार	-13139
▁मावनां	-13140
▁मिथिला	-13141
▁मेन्दा	-13142
▁मोनथार	-13143
▁मोनफिन	-13144
▁मोनमार	-13145
▁रंजायो	-13146
▁रमेनखौ	-13147
▁रागाया	-13148
▁राणीनि	-13149
▁राननाय	-13150
▁राभानि	-13151
▁रायफोद	-13152
▁रायबाय	-13153
▁राहाबो	-13154
▁रुपनाथ	-13155
▁रोङाबो	-13156
▁रोजाबै	-13157
▁लाइटार	-13158
▁लागैनो	-13159
▁लागोनि	-13160
▁लानोसै	-13161
▁लाफांग	-13162
▁लायथां	-13163
▁लाहैयो	-13164
▁लैथोआव	-13165
▁लोंगोन	-13166
▁लोंलाय	-13167
▁संगिना	-13168
▁सफैगोन	-13169
▁समावसो	-13170
▁सरकारि	-13171
▁सरकारी	-13172
▁सरलानि	-13173
▁साजानि	-13174
▁साजाया	-13175
▁सानाया	-13176
▁सान्दु	-13177
▁सायखङा	-13178
▁सालाखौ	-13179
▁सालिया	-13180
▁सावफुं	-13181
▁सिखिरि	-13182
▁सिनायै	-13183
▁सुंथाब	-13184
▁सुखुयै	-13185
▁सुखुवा	-13186
▁सुग्रा	-13187
▁सुरहाब	-13188
▁सेरखाय	-13189
▁सोंबाव	-13190
▁सोबायो	-13191
▁सोमबाय	-13192
▁सोलायै	-13193
▁सोलियो	-13194
▁स्टेसन	-13195
▁हगारहर	-13196
▁हाबलां	-13197
▁हाबाबो	-13198
▁हायासै	-13199
▁हायैखौ	-13200
▁हायैया	-13201
▁हुफ्ले	-13202
▁हेलमेट	-13203
haracter	-13204
खांनायसै	-13205
ज्लायदों	-13206
दनिफ्राय	-13207
द्लानानै	-13208
फिननांगौ	-13209
लाबासिनो	-13210
ल्दानानै	-13211
स्लायगोन	-13212
हालागैबो	-13213
ामोनब्ला	-13214
▁अजितजों	-13215
▁अनिमानि	-13216
▁अन्नानै	-13217
▁अलकाजों	-13218
▁आंखालखौ	-13219
▁आंखालनि	-13220
▁आंनिथिं	-13221
▁आजायनाय	-13222
▁आमुखाया	-13223
▁आमेरिका	-13224
▁आवारामा	-13225
▁इरामुती	-13226
▁उन्दैनि	-13227
▁एकाडेमी	-13228
▁एम्बुखौ	-13229
▁कलंखिनि	-13230
▁कासाराव	-13231
▁क्लासाव	-13232
▁खनथामसो	-13233
▁खनसायखौ	-13234
▁खफाथिया	-13235
▁खमज्लाय	-13236
▁खरथेंनि	-13237
▁खांख्ला	-13238
▁खारबोयो	-13239
▁खालामबा	-13240
▁खावलाया	-13241
▁खिरिमिन	-13242
▁खेबसेबो	-13243
▁खोनागोन	-13244
▁खोनासङो	-13245
▁गथायनाय	-13246
▁गनायगोन	-13247
▁गाग्लाब	-13248
▁गायदेया	-13249
▁गिलाससे	-13250
▁गुबुंले	-13251
▁गुबुनसो	-13252
▁गेरेमसा	-13253
▁गोनांबो	-13254
▁गोबांनो	-13255
▁गोमसारो	-13256
▁गोमोनाय	-13257
▁गोरोबथा	-13258
▁गोहोमखौ	-13259
▁ग्रेणेड	-13260
▁जथुम्मा	-13261
▁जागोदान	-13262
▁जागोननि	-13263
▁जापाननि	-13264
▁जार्मान	-13265
▁जिख्लाब	-13266
▁जिगाबनि	-13267
▁जोंफ्रु	-13268
▁जोंहाबो	-13269
▁जोमनानै	-13270
▁जौथाइनि	-13271
▁डिमापुर	-13272
▁थाङामोन	-13273
▁थाबोदों	-13274
▁थायनैखौ	-13275
▁थायनैया	-13276
▁थारुनखौ	-13277
▁थिकादार	-13278
▁थिखानाय	-13279
▁थिननानै	-13280
▁थैजानाय	-13281
▁थैनायाव	-13282
▁दरजाजों	-13283
▁दरजायाव	-13284
▁दागाबसै	-13285
▁दानदिसे	-13286
▁दानायखौ	-13287
▁दाबियाव	-13288
▁दामब्रा	-13289
▁दिखांना	-13290
▁दिखांनो	-13291
▁दिनैजों	-13292
▁दिब्रुग	-13293
▁दिहुनना	-13294
▁देग्लाइ	-13295
▁नांलाया	-13296
▁नागिरहै	-13297
▁नायगिरि	-13298
▁नायनाया	-13299
▁नायनोबो	-13300
▁नारायणा	-13301
▁नास्राय	-13302
▁नुफैबाय	-13303
▁नुबोदों	-13304
▁नोंखौबो	-13305
▁नोंस्रा	-13306
▁नोंहाबो	-13307
▁प्रमप्ट	-13308
▁फादोरनि	-13309
▁फारागखौ	-13310
▁फालिदों	-13311
▁फैयोमोन	-13312
▁फोनांनो	-13313
▁फोरजाया	-13314
▁फ्लास्क	-13315
▁बयसियाल	-13316
▁बरायनाय	-13317
▁बागानाव	-13318
▁बायग्लि	-13319
▁बायदिसो	-13320
▁बिजिनेस	-13321
▁बिजौवाव	-13322
▁बिमायनो	-13323
▁बिहाराव	-13324
▁बेखेवथि	-13325
▁बेखौनोथ	-13326
▁बेफोराव	-13327
▁बेरायनो	-13328
▁बोखावनो	-13329
▁बोसोनखौ	-13330
▁ब्यावहा	-13331
▁भिटामिन	-13332
▁मलेनानो	-13333
▁महरफोरा	-13334
▁महात्मा	-13335
▁महाभारत	-13336
▁माबायदि	-13337
▁मावजिया	-13338
▁मावोमोन	-13339
▁मास्टार	-13340
▁मिथिदों	-13341
▁मुलुकनि	-13342
▁मेरगाया	-13343
▁मेलेमखौ	-13344
▁मोज्लाय	-13345
▁मोनसेबो	-13346
▁मोनामसु	-13347
▁मोनामोन	-13348
▁मोन्थाय	-13349
▁मोफ्लाम	-13350
▁यैलाबोर	-13351
▁रांखिनि	-13352
▁राइजोया	-13353
▁रुमावनो	-13354
▁रोंलिया	-13355
▁लंफेन्ट	-13356
▁लांनोसै	-13357
▁लांफानो	-13358
▁लांफिनो	-13359
▁लाफानाय	-13360
▁लोंब्ला	-13361
▁लोंहोनो	-13362
▁सममिथिस	-13363
▁सहैब्ला	-13364
▁साथामनि	-13365
▁सानथौनि	-13366
▁सान्थ्र	-13367
▁सामलायो	-13368
▁सावरायो	-13369
▁सिखांदो	-13370
▁सिखारनो	-13371
▁सिनायगौ	-13372
▁सिमांसो	-13373
▁सिमेन्ट	-13374
▁सिरिनाय	-13375
▁सुनांगौ	-13376
▁सुनायनो	-13377
▁सेकेन्ड	-13378
▁सेक्सपि	-13379
▁सेरजाखौ	-13380
▁सेरफांग	-13381
▁सोंलुवा	-13382
▁सोनाबनि	-13383
▁सोरजियो	-13384
▁सोरजिलु	-13385
▁सोरांनि	-13386
▁सोलोंनो	-13387
▁सौग्दाव	-13388
▁स्कुलनि	-13389
▁हरखादों	-13390
▁हरनांगौ	-13391
▁हराब्ला	-13392
▁हांफ्ला	-13393
▁हाननानै	-13394
▁हामफ्ला	-13395
▁हालामाव	-13396
▁हालोदखौ	-13397
........।	-13398
ओंखारलाङो	-13399
तान्त्रिक	-13400
दानिफ्राय	-13401
फ्रोमावबो	-13402
वारीमोनखौ	-13403
स्लायनानै	-13404
▁आखुफोरनि	-13405
▁आगाननैसो	-13406
▁आगोलावनो	-13407
▁आफादफोरा	-13408
▁आरांगानि	-13409
▁आरिस्रां	-13410
▁उलाफादाव	-13411
▁एंगोनाया	-13412
▁एदावब्ला	-13413
▁एरसोनानै	-13414
▁कनष्टेबल	-13415
▁खनसेयैनो	-13416
▁खबजबनानै	-13417
▁खाख्लारी	-13418
▁खालामहरो	-13419
▁खुंथाइखौ	-13420
▁खुम्बीबा	-13421
▁खुलुमनाय	-13422
▁खोमदोननि	-13423
▁गंग्लायो	-13424
▁गाड़ीजों	-13425
▁गान्दुखौ	-13426
▁गामिनिनो	-13427
▁गारजानाय	-13428
▁गाहाइयाव	-13429
▁गेब्लाया	-13430
▁गैजारोङि	-13431
▁गोग्लैया	-13432
▁गोजांनाय	-13433
▁गोजोनथाव	-13434
▁गोजोनथों	-13435
▁गोर्ब्बो	-13436
▁जंखायनाय	-13437
▁जाग्राया	-13438
▁जाजोबगोन	-13439
▁जायफोरखौ	-13440
▁जायामानो	-13441
▁जारलायाव	-13442
▁जालायगोन	-13443
▁जालिजौनि	-13444
▁जावख्लाब	-13445
▁जोबजानाय	-13446
▁ट्रेन्स्	-13447
▁डाक्तारा	-13448
▁थगायनानै	-13449
▁थांखिमोन	-13450
▁थानानैबो	-13451
▁थायनैजों	-13452
▁थालांदों	-13453
▁थालांनाय	-13454
▁थालांबाय	-13455
▁थिन्नानै	-13456
▁थुयोब्ला	-13457
▁थेलेफाया	-13458
▁दुंबुरुद	-13459
▁दैमारीया	-13460
▁दोनहैदों	-13461
▁दौदिनिया	-13462
▁नंदोंमोन	-13463
▁नांफैबाय	-13464
▁नाङाखिसै	-13465
▁नायगिरना	-13466
▁नायगिरनो	-13467
▁नोगोरारि	-13468
▁नोम्फानि	-13469
▁प्रदिपखौ	-13470
▁प्रब्लेम	-13471
▁फरायगिरि	-13472
▁फरायनोबो	-13473
▁फाग्लाया	-13474
▁फिसायानो	-13475
▁फुथुनानै	-13476
▁फैखांबाय	-13477
▁फोलेरारि	-13478
▁बबेयावबा	-13479
▁बांसिनसो	-13480
▁बादियैनो	-13481
▁बालाबारि	-13482
▁बावस्रोम	-13483
▁बावहायनो	-13484
▁बिगियानि	-13485
▁बिगुमैया	-13486
▁बिजिरगोन	-13487
▁बिनानावा	-13488
▁बिबादिनो	-13489
▁बिबारजों	-13490
▁बिबारिया	-13491
▁बिबुंसार	-13492
▁बिब्दिखौ	-13493
▁बिलाइजों	-13494
▁बिसोरनाव	-13495
▁बुंजोबनो	-13496
▁बुंफैदों	-13497
▁बुंहैबाय	-13498
▁बुथाराखै	-13499
▁बुदारुनि	-13500
▁बुन्दानि	-13501
▁बेखेवनाय	-13502
▁बेब्दिनो	-13503
▁बेमारिखौ	-13504
▁बेरस्रां	-13505
▁बैसोआवनो	-13506
▁बोजबनानै	-13507
▁बोदोंमोन	-13508
▁मंगलीयान	-13509
▁माष्टारा	-13510
▁मास्टारा	-13511
▁मिथिगौना	-13512
▁मिथिथारा	-13513
▁मिनिश्री	-13514
▁मिहिराबो	-13515
▁मुंराइखौ	-13516
▁मोजाङानो	-13517
▁मोदोमनाय	-13518
▁मोनदांथि	-13519
▁मोनबोदों	-13520
▁रबिबाराव	-13521
▁राइज्लाय	-13522
▁रान्दिखौ	-13523
▁रामनाथनि	-13524
▁रायजितखौ	-13525
▁रासियानि	-13526
▁राहागिरि	-13527
▁रुवाथिनि	-13528
▁लानांदों	-13529
▁लानांबाय	-13530
▁लानानैबो	-13531
▁लिबारेसन	-13532
▁लुफुंनाय	-13533
▁शचीपात्र	-13534
▁ष्टेडिया	-13535
▁समायखिरा	-13536
▁सम्पत्ति	-13537
▁साखाथिनि	-13538
▁सानथामसो	-13539
▁सानफुनाय	-13540
▁सानफ्लां	-13541
▁सान्द्रि	-13542
▁साबद्राय	-13543
▁साबुकजों	-13544
▁साब्रैसो	-13545
▁सारफ्राव	-13546
▁सिगांथिं	-13547
▁सिम्पान्	-13548
▁सिलिंनाय	-13549
▁सुथारनाय	-13550
▁सुथुरजों	-13551
▁सुमिलाखौ	-13552
▁सोनाबारि	-13553
▁सोमजिदों	-13554
▁सोरजिगिर	-13555
▁सोरनावबा	-13556
▁हमबायमोन	-13557
▁हागौब्ला	-13558
▁हाग्रामा	-13559
▁हाजारबार	-13560
▁हाथारनाय	-13561
▁हानायमोन	-13562
▁हाबाखालि	-13563
▁हाबिलाखौ	-13564
▁हामबुरनि	-13565
▁हास्थायो	-13566
▁हुसियारै	-13567
▁होनायजों	-13568
▁होनायानो	-13569
▁होसोनानै	-13570
.........!	-13571
.........।	-13572
स्लाबाखिसै	-13573
स्लाबाजासे	-13574
▁इंराजीयाव	-13575
▁उथ्रिनानै	-13576
▁उरिष्यानि	-13577
▁एक्सप्रेस	-13578
▁एसेब्लाबो	-13579
▁कल्पनाजों	-13580
▁खांदोंमोन	-13581
▁खालामनोसै	-13582
▁खालामहैयो	-13583
▁खुदुमनानै	-13584
▁खुद्रिनाय	-13585
▁खुनोरोखोम	-13586
▁खृष्टीयान	-13587
▁खोबथेनानै	-13588
▁गंफ्रोमबो	-13589
▁गम्भीरसिं	-13590
▁गस्वामीया	-13591
▁गाबगासिनो	-13592
▁गामियावनो	-13593
▁गुस्थियाव	-13594
▁गोग्लैगोन	-13595
▁गोनांथिया	-13596
▁गोमाजानाय	-13597
▁गोरलैयैनो	-13598
▁गोर्बोयाव	-13599
▁गोलोन्दां	-13600
▁जथुम्मानि	-13601
▁जाफ्लानाय	-13602
▁जासिगौमोन	-13603
▁जेब्लासिम	-13604
▁जेसेबांखि	-13605
▁जोंथियाबो	-13606
▁जोंब्लावा	-13607
▁थगायबोदों	-13608
▁थाखोमानाय	-13609
▁थागिदायाव	-13610
▁थिंगिनिया	-13611
▁थिनहरनानै	-13612
▁थिन्नायाव	-13613
▁थियेटाराव	-13614
▁दर्बासिखौ	-13615
▁दाखालामसै	-13616
▁दानसोराङा	-13617
▁दिन्थिगोन	-13618
▁देग्लायबो	-13619
▁दोनखुमानो	-13620
▁नङाब्लानो	-13621
▁नन्देश्वर	-13622
▁नबेम्बराव	-13623
▁नाजानायखौ	-13624
▁नुजाथिगोन	-13625
▁नुजाथिदों	-13626
▁नोंसोरनाव	-13627
▁प्रेमधरखौ	-13628
▁फालिनायनि	-13629
▁फुख्रियाव	-13630
▁बाखनायनाय	-13631
▁बाजियावनो	-13632
▁बाथ्रायाथ	-13633
▁बावलांनाय	-13634
▁बाहायनाया	-13635
▁बिनारामखौ	-13636
▁बिबानगिरि	-13637
▁बिरलांनाय	-13638
▁बिरलांबाय	-13639
▁बुंलांबाय	-13640
▁बुथारग्रा	-13641
▁बेंखननानै	-13642
▁बेखेवफानि	-13643
▁बेगपाइपार	-13644
▁बोखावनानै	-13645
▁बोदलानानै	-13646
▁मन्जुबाला	-13647
▁मन्जुलानि	-13648
▁माइथायसिम	-13649
▁मावगासिनो	-13650
▁मास्थारनि	-13651
▁मोनथारदों	-13652
▁मोनलोंगोन	-13653
▁रामचियारी	-13654
▁रामसियारि	-13655
▁लांगोनानि	-13656
▁लानथ्रियै	-13657
▁लामाजोंनो	-13658
▁संबिजिरनि	-13659
▁सान्नायनि	-13660
▁सायारामनि	-13661
▁सावख्लिनि	-13662
▁सिन्दुकनि	-13663
▁सियालफोरा	-13664
▁सिस्टेमखौ	-13665
▁सोमस्रिया	-13666
▁सोमावनानै	-13667
▁सोलास्लिब	-13668
▁हमलायनानै	-13669
▁हांखोखौनो	-13670
▁हाथारलिया	-13671
▁हादोरनाङै	-13672
▁हारामजादि	-13673
▁होनदोंमोन	-13674
▁होबथानानै	-13675
▁हौवाफोरनि	-13676
▁अबंलाउरिनि	-13677
▁आलुमिंगिया	-13678
▁आवग्रिनानै	-13679
▁इमारजेन्सि	-13680
▁एंगारनायखौ	-13681
▁कल्पनायाबो	-13682
▁खिन्थाहैनो	-13683
▁खोमानांनाय	-13684
▁गाबज्रिनाय	-13685
▁गाबज्रिबाय	-13686
▁गाहेलाफोरा	-13687
▁गिग्लुंनाय	-13688
▁गुवाहाटीनि	-13689
▁गोग्लैजोबो	-13690
▁गोजोननायनि	-13691
▁जांख्रिखां	-13692
▁जानगारनानै	-13693
▁जानायफोरखौ	-13694
▁जाबावनांगौ	-13695
▁जाब्रथायाव	-13696
▁जार्डारीया	-13697
▁जिरादफोरखौ	-13698
▁जुरिजेननाय	-13699
▁जौगाखांनाय	-13700
▁तुलारामाबो	-13701
▁थुनलाइयारि	-13702
▁दानसोरांखौ	-13703
▁दानसोरांनि	-13704
▁दाहोनाफ्रा	-13705
▁दिहुनजानाय	-13706
▁धर्मेन्द्र	-13707
▁नागिरनायाव	-13708
▁नायबिजिरसं	-13709
▁नारसिननानै	-13710
▁प्रेकतिकेल	-13711
▁बागदावखाङो	-13712
▁बायदिफोरखौ	-13713
▁बायदिफोराव	-13714
▁बाहागोखौनो	-13715
▁बिजाथिफोरा	-13716
▁बिबायारिया	-13717
▁बिहारिफोरा	-13718
▁बेरखांहोनो	-13719
▁बोहैलांदों	-13720
▁मन्जुमोननि	-13721
▁मावरिजाजों	-13722
▁मिथियाब्ला	-13723
▁मुसाहारीया	-13724
▁रामोन्दानि	-13725
▁रायखांनानै	-13726
▁रिंगासोयाव	-13727
▁लाजिनायजों	-13728
▁समाजखान्थि	-13729
▁साननिफ्राय	-13730
▁सानस्रियाव	-13731
▁सान्थ्रिया	-13732
▁सावगारिजों	-13733
▁सुजुग्राखौ	-13734
▁सोमजायग्रा	-13735
▁सोमजिनायनि	-13736
▁सोमोन्दोखौ	-13737
▁सोलिगासिनो	-13738
▁सोलोंथाइनि	-13739
▁हस्पितालाव	-13740
▁हाग्रामानि	-13741
▁हार्सिङैनो	-13742
..........।"	-13743
▁Accessories	-13744
▁असमियाफोरनि	-13745
▁आवरायजेननाय	-13746
▁उननिफ्रायनो	-13747
▁गोजौनिफ्राय	-13748
▁गोब्रामनानै	-13749
▁गोमोहाबनानै	-13750
▁गोसोनिफ्राय	-13751
▁थुनफावथाइखौ	-13752
▁दानिफ्रायनो	-13753
▁नागिरब्लाबो	-13754
▁नाथ्रोदनानै	-13755
▁नोंथांमोननो	-13756
▁पकेटनिफ्राय	-13757
▁फाहामसालिखौ	-13758
▁फोरोंदोंमोन	-13759
▁बानजायफुंनो	-13760
▁बिजिरसालिया	-13761
▁बिब्दिब्लाथ	-13762
▁मानसिफोरजों	-13763
▁रांखान्थिनि	-13764
▁रिंसारथिजों	-13765
▁सावरायनायखौ	-13766
▁हाग्रामायाव	-13767
▁हाबफैदोंमोन	-13768
▁हामथारबायलै	-13769
.............	-13770
▁गनतन्त्रबादि	-13771
▁जांख्रिथाइनि	-13772
▁जौगाखांनायनि	-13773
▁नायगिरदोंमोन	-13774
▁नायग्राफोरनि	-13775
▁नोगोरारिफोरा	-13776
▁फोरमायनायजों	-13777
▁बाजारनिफ्राय	-13778
▁बिबाननिफ्राय	-13779
▁बोसोरफ्रोमबो	-13780
▁मोनसेनिफ्राय	-13781
▁रायज्लायनाया	-13782
▁रिंगानिफ्राय	-13783
▁साननिफ्रायनो	-13784
▁सायनासालियाव	-13785
▁हायाखैब्लाबो	-13786
▁हास्थायनायखौ	-13787
..............	-13788
▁कास्तमारफोरखौ	-13789
▁..............	-13790
▁बिग्रायारिफोरखौ	-13791
"-	-13792
'-	-13793
-(	-13794
-7	-13795
-।	-13796
/4	-13797
0)	-13798
25	-13799
33	-13800
76	-13801
84	-13802
9)	-13803
?)	-13804
SC	-13805
WW	-13806
if	-13807
ii	-13808
ng	-13809
wo	-13810
ʼ;	-13811
अफ	-13812
आग	-13813
उद	-13814
एं	-13815
एइ	-13816
ओं	-13817
ओन	-13818
कश	-13819
टस	-13820
टु	-13821
तन	-13822
धु	-13823
नङ	-13824
पद	-13825
बत	-13826
बन	-13827
मज	-13828
मत	-13829
रग	-13830
रण	-13831
रब	-13832
लआ	-13833
शु	-13834
ह्	-13835
िय	-13836
!!!	-13837
5),	-13838
The	-13839
ary	-13840
erc	-13841
hoo	-13842
isc	-13843
ish	-13844
min	-13845
mis	-13846
odo	-13847
oot	-13848
osi	-13849
ree	-13850
ंखि	-13851
ंना	-13852
अखा	-13853
आंथ	-13854
आगै	-13855
आलि	-13856
आलु	-13857
इनड	-13858
कबि	-13859
कुत	-13860
खरा	-13861
खिर	-13862
खोल	-13863
गाड	-13864
चनि	-13865
चाइ	-13866
चिड	-13867
जाज	-13868
जिं	-13869
जिय	-13870
जुत	-13871
जुब	-13872
ताप	-13873
ताब	-13874
थाह	-13875
थुं	-13876
दला	-13877
दाज	-13878
दाद	-13879
द्द	-13880
ध्द	-13881
नडर	-13882
नान	-13883
निज	-13884
निल	-13885
पसा	-13886
फुट	-13887
फुद	-13888
फेद	-13889
बिक	-13890
बिद	-13891
बुद	-13892
बुल	-13893
बेद	-13894
भिस	-13895
मते	-13896
मिस	-13897
मीन	-13898
मुक	-13899
मेल	-13900
मेश	-13901
रार	-13902
रेक	-13903
रेम	-13904
रों	-13905
रोन	-13906
र्ण	-13907
लजि	-13908
लुन	-13909
सरि	-13910
सहर	-13911
साख	-13912
स्प	-13913
हयै	-13914
हाइ	-13915
हाख	-13916
हात	-13917
हिउ	-13918
हित	-13919
ाखर	-13920
ादै	-13921
ायण	-13922
ारन	-13923
ारै	-13924
िनी	-13925
िरे	-13926
ुगै	-13927
ेरा	-13928
ेरे	-13929
ोलै	-13930
्मि	-13931
▁03	-13932
▁::	-13933
▁An	-13934
▁CO	-13935
▁Cl	-13936
▁DI	-13937
▁He	-13938
▁La	-13939
▁am	-13940
▁as	-13941
▁sw	-13942
▁अभ	-13943
▁उत	-13944
▁उह	-13945
▁ओन	-13946
▁घट	-13947
▁घन	-13948
▁चछ	-13949
▁चु	-13950
▁चै	-13951
▁टप	-13952
▁दग	-13953
▁दह	-13954
▁दी	-13955
▁पद	-13956
▁पय	-13957
▁पस	-13958
▁बइ	-13959
▁भे	-13960
▁मट	-13961
▁रद	-13962
:...	-13963
face	-13964
form	-13965
gram	-13966
ised	-13967
ouse	-13968
pira	-13969
rive	-13970
ruel	-13971
ंगेल	-13972
आफोद	-13973
आमाइ	-13974
आवला	-13975
उदां	-13976
कलेज	-13977
काटा	-13978
काता	-13979
क्टि	-13980
क्ला	-13981
क्षे	-13982
खुनो	-13983
खुरि	-13984
खुलि	-13985
गसङो	-13986
गामि	-13987
गायो	-13988
गारो	-13989
गिया	-13990
गुलि	-13991
गोदो	-13992
गोना	-13993
गोसा	-13994
ङारी	-13995
चिटि	-13996
जननि	-13997
जामा	-13998
जिबि	-13999
जुना	-14000
जुरा	-14001
जेङा	-14002
ज्यो	-14003
ट्रे	-14004
थाबै	-14005
थाला	-14006
थौवा	-14007
दाइन	-14008
दारु	-14009
दालि	-14010
दावो	-14011
दुवा	-14012
देरो	-14013
दैलो	-14014
दोंल	-14015
नबाय	-14016
नाथि	-14017
नार्	-14018
नासि	-14019
निपा	-14020
निसो	-14021
प्लि	-14022
फाथो	-14023
फामो	-14024
फायै	-14025
फेरि	-14026
फैगौ	-14027
बबाव	-14028
बर्ड	-14029
बाजि	-14030
बाजै	-14031
बिखा	-14032
बिया	-14033
बिस्	-14034
बोरो	-14035
बोलै	-14036
भुँइ	-14037
मलेन	-14038
माथा	-14039
मालि	-14040
मासि	-14041
मुरा	-14042
मुसि	-14043
मैया	-14044
मोनि	-14045
मोनो	-14046
म्बे	-14047
रीखौ	-14048
रुबु	-14049
र्टा	-14050
र्बा	-14051
लाखि	-14052
लाङै	-14053
लेखा	-14054
लैया	-14055
समाज	-14056
समाय	-14057
साथी	-14058
सिबल	-14059
सीनि	-14060
सुथि	-14061
स्था	-14062
स्मि	-14063
स्वन	-14064
हारा	-14065
हुखा	-14066
हैलो	-14067
होना	-14068
होयै	-14069
ांसि	-14070
ाइसो	-14071
ागार	-14072
ादाय	-14073
ाबोथ	-14074
ाहार	-14075
िन्स	-14076
ियाव	-14077
िसले	-14078
ुदाम	-14079
ुलनि	-14080
ेशना	-14081
्थां	-14082
्दोन	-14083
्बां	-14084
।"--	-14085
▁!''	-14086
▁..।	-14087
▁943	-14088
▁But	-14089
▁Sys	-14090
▁all	-14091
▁can	-14092
▁him	-14093
▁inh	-14094
▁inv	-14095
▁tra	-14096
▁who	-14097
▁अगर	-14098
▁अवा	-14099
▁आइर	-14100
▁आजे	-14101
▁आथा	-14102
▁आथो	-14103
▁आद्	-14104
▁आमि	-14105
▁आवा	-14106
▁आशि	-14107
▁आसे	-14108
▁इचन	-14109
▁इछर	-14110
▁इयर	-14111
▁उइक	-14112
▁एंख	-14113
▁एखर	-14114
▁एग्	-14115
▁एना	-14116
▁एनि	-14117
▁एलब	-14118
▁केल	-14119
▁खबज	-14120
▁खरै	-14121
▁खाद	-14122
▁खेफ	-14123
▁गसर	-14124
▁गिख	-14125
▁गैथ	-14126
▁घिउ	-14127
▁चरण	-14128
▁चेन	-14129
▁जखा	-14130
▁जङा	-14131
▁जमि	-14132
▁जुव	-14133
▁जेद	-14134
▁डाब	-14135
▁तास	-14136
▁तिल	-14137
▁थुग	-14138
▁दमै	-14139
▁दरा	-14140
▁दलत	-14141
▁दलि	-14142
▁दुन	-14143
▁देश	-14144
▁दोब	-14145
▁दोल	-14146
▁धमक	-14147
▁नङि	-14148
▁नाह	-14149
▁निज	-14150
▁निय	-14151
▁नुन	-14152
▁नुस	-14153
▁नेब	-14154
▁पिर	-14155
▁पेड	-14156
▁फिद	-14157
▁फुस	-14158
▁बंग	-14159
▁बबि	-14160
▁बयो	-14161
▁बिं	-14162
▁बुट	-14163
▁मदत	-14164
▁माग	-14165
▁मिज	-14166
▁मैर	-14167
▁लहर	-14168
▁लेद	-14169
▁लेव	-14170
▁लैथ	-14171
▁लोग	-14172
▁सङै	-14173
▁सफ्	-14174
▁सभा	-14175
▁समय	-14176
▁सिस	-14177
▁सौध	-14178
▁हयत	-14179
▁हवा	-14180
▁हाह	-14181
:....	-14182
other	-14183
riend	-14184
right	-14185
ंखिया	-14186
ंख्रे	-14187
ंख्लि	-14188
ंगाया	-14189
ंगोना	-14190
अजिता	-14191
आफानि	-14192
आलेया	-14193
उरीटि	-14194
एरैनो	-14195
क्सिम	-14196
खाजों	-14197
खावनो	-14198
गाबोन	-14199
गामसा	-14200
गाहाम	-14201
गोनखि	-14202
गोनलै	-14203
ग्राफ	-14204
जाबनि	-14205
जाबाव	-14206
जारनि	-14207
जेक्ट	-14208
जोबदो	-14209
ज्रेद	-14210
ज्रेम	-14211
टिफोर	-14212
टिसखौ	-14213
ण्डनि	-14214
थारनि	-14215
थिङाव	-14216
दाउसा	-14217
दावरा	-14218
दावलि	-14219
देखोन	-14220
दोंसै	-14221
नरेना	-14222
नाइनि	-14223
नोंहा	-14224
नोगोर	-14225
नोलाय	-14226
पुलिस	-14227
फादार	-14228
फावनि	-14229
फिनदो	-14230
फिनबा	-14231
फिफटि	-14232
फुंनो	-14233
फुदों	-14234
फोरहा	-14235
फोराथ	-14236
फ्रां	-14237
बांनि	-14238
बांसा	-14239
बाथेद	-14240
बाथोर	-14241
बादां	-14242
बायलै	-14243
बार्ट	-14244
बावसो	-14245
बिजाब	-14246
बेलाव	-14247
भायाव	-14248
मेहेर	-14249
मोनबा	-14250
रामनि	-14251
रावबो	-14252
रिगदै	-14253
लांखो	-14254
लाउथि	-14255
लादें	-14256
संनाय	-14257
संसार	-14258
सिखान	-14259
सिखोन	-14260
सिजेन	-14261
सिडेन	-14262
सुजुग	-14263
सुमात	-14264
सोनाब	-14265
सोरबा	-14266
सोलों	-14267
स्पति	-14268
स्राइ	-14269
स्लिम	-14270
स्लुं	-14271
हसिया	-14272
हाबाब	-14273
ाग्रो	-14274
ानाथा	-14275
ानीया	-14276
ाबनाय	-14277
ाबावो	-14278
ार्जी	-14279
ालायो	-14280
िलारी	-14281
ुर्सि	-14282
ुवाबो	-14283
ेरिया	-14284
ेलिना	-14285
ेशनाव	-14286
्रिनि	-14287
्रेमा	-14288
्रैसो	-14289
्लिया	-14290
▁1983	-14291
▁1984	-14292
▁?...	-14293
▁Bodo	-14294
▁Comp	-14295
▁Scen	-14296
▁Tool	-14297
▁Well	-14298
▁Your	-14299
▁come	-14300
▁know	-14301
▁they	-14302
▁very	-14303
▁with	-14304
▁असित	-14305
▁अस्त	-14306
▁आइदि	-14307
▁आइदै	-14308
▁आइनो	-14309
▁आदबा	-14310
▁आदाल	-14311
▁आदुम	-14312
▁आन्थ	-14313
▁आन्स	-14314
▁आपेल	-14315
▁आफिं	-14316
▁आबां	-14317
▁आबुर	-14318
▁आयाव	-14319
▁आलफा	-14320
▁आवबा	-14321
▁इडुव	-14322
▁इनाव	-14323
▁इन्ट	-14324
▁इयार	-14325
▁इष्ट	-14326
▁उग्र	-14327
▁एयार	-14328
▁कमपा	-14329
▁काला	-14330
▁क्रम	-14331
▁क्लर	-14332
▁खदाल	-14333
▁खबसे	-14334
▁खमाय	-14335
▁खामि	-14336
▁खायख	-14337
▁खिनि	-14338
▁खिया	-14339
▁खिसे	-14340
▁खुगु	-14341
▁खेवो	-14342
▁ख्रा	-14343
▁गंगा	-14344
▁गगोन	-14345
▁गजेन	-14346
▁गबाय	-14347
▁गरमा	-14348
▁गलाप	-14349
▁गाउन	-14350
▁गायो	-14351
▁गावथ	-14352
▁गासा	-14353
▁गाहै	-14354
▁गिर्	-14355
▁गिलि	-14356
▁गुना	-14357
▁गुनि	-14358
▁गुरो	-14359
▁गोग्	-14360
▁गोफा	-14361
▁जग्र	-14362
▁जलदब	-14363
▁जाजो	-14364
▁जादु	-14365
▁जेरि	-14366
▁जोबि	-14367
▁तसरफ	-14368
▁थरनै	-14369
▁थर्स	-14370
▁थादे	-14371
▁थाम्	-14372
▁थुला	-14373
▁थोङै	-14374
▁थोलो	-14375
▁दाखा	-14376
▁दाखो	-14377
▁दाफो	-14378
▁दार्	-14379
▁दासा	-14380
▁दिया	-14381
▁दुंग	-14382
▁देद्	-14383
▁धालि	-14384
▁धाली	-14385
▁नङाथ	-14386
▁नङाम	-14387
▁नभेल	-14388
▁नाखौ	-14389
▁नाङि	-14390
▁नामै	-14391
▁नासय	-14392
▁नाहर	-14393
▁निउय	-14394
▁नेयै	-14395
▁पियन	-14396
▁पिसा	-14397
▁पुलि	-14398
▁प्ले	-14399
▁फंनै	-14400
▁फराइ	-14401
▁फाजि	-14402
▁फाथि	-14403
▁फेजे	-14404
▁फ्रे	-14405
▁बलेर	-14406
▁बाइक	-14407
▁बाइह	-14408
▁बारै	-14409
▁बिषि	-14410
▁बुहा	-14411
▁बेङा	-14412
▁बैनो	-14413
▁बोना	-14414
▁ब्ले	-14415
▁मण्ड	-14416
▁मदार	-14417
▁मल्ल	-14418
▁माखु	-14419
▁मादा	-14420
▁मायो	-14421
▁मासु	-14422
▁मासै	-14423
▁मिला	-14424
▁मुथा	-14425
▁मुरा	-14426
▁मुसि	-14427
▁मेवा	-14428
▁मैथा	-14429
▁रबिन	-14430
▁रांग	-14431
▁रायै	-14432
▁रिता	-14433
▁रिसि	-14434
▁रेगे	-14435
▁रोबै	-14436
▁रौनि	-14437
▁लंथं	-14438
▁लकेल	-14439
▁लाखा	-14440
▁लागा	-14441
▁लागे	-14442
▁लाफै	-14443
▁लिरि	-14444
▁लिलि	-14445
▁श्या	-14446
▁सलाइ	-14447
▁सावो	-14448
▁सिंआ	-14449
▁सिखो	-14450
▁सिमब	-14451
▁सुखौ	-14452
▁सुति	-14453
▁सुमु	-14454
▁सोङा	-14455
▁सोसन	-14456
▁हमथे	-14457
▁हाखन	-14458
▁हाजि	-14459
▁हाजे	-14460
▁हाफौ	-14461
sioner	-14462
ंगौमोन	-14463
उखैनाय	-14464
खनसाया	-14465
खबरदार	-14466
खाङाखै	-14467
खायनोथ	-14468
गावराव	-14469
गुरीनि	-14470
जाल्ला	-14471
जेमाखौ	-14472
थांगोन	-14473
थियाखै	-14474
थिरानो	-14475
थुमनाय	-14476
नाइयाव	-14477
नोब्ला	-14478
न्थिनि	-14479
न्दाया	-14480
न्देला	-14481
पार्टि	-14482
फेरबाय	-14483
फ्रायो	-14484
बारिनि	-14485
बारुवा	-14486
बावाखै	-14487
बोलानो	-14488
ब्रानि	-14489
ब्राया	-14490
ब्लेमा	-14491
माखासे	-14492
माबोरै	-14493
मारदों	-14494
मिन्टन	-14495
मोननाव	-14496
लानानै	-14497
लायाखै	-14498
वाब्ला	-14499
वारीखौ	-14500
ष्ट्रे	-14501
सारनाय	-14502
स्रीनि	-14503
स्लाबै	-14504
हैनाया	-14505
ांग्रि	-14506
ाखानाय	-14507
ादायदा	-14508
ादारनि	-14509
ानावनो	-14510
ाबोबाय	-14511
ायोमोन	-14512
िन्द्र	-14513
▁"....	-14514
▁...।"	-14515
▁Style	-14516
▁ideal	-14517
▁state	-14518
▁अखनबा	-14519
▁अग्रन	-14520
▁अनगोन	-14521
▁अनारु	-14522
▁अन्जु	-14523
▁अमानि	-14524
▁अरजाब	-14525
▁असुबि	-14526
▁आंखौल	-14527
▁आजिरा	-14528
▁आनज्र	-14529
▁आनन्द	-14530
▁आपुनि	-14531
▁आसामि	-14532
▁इटालि	-14533
▁इनायै	-14534
▁उनावथ	-14535
▁एखुथा	-14536
▁औवारी	-14537
▁कफिनि	-14538
▁कमिटि	-14539
▁कापाव	-14540
▁केकखौ	-14541
▁केबिन	-14542
▁खथानि	-14543
▁खाबाय	-14544
▁खामफा	-14545
▁खायला	-14546
▁खारखो	-14547
▁खालाइ	-14548
▁खावनै	-14549
▁खुरलु	-14550
▁खेंनो	-14551
▁खेमथा	-14552
▁खेराय	-14553
▁खैदां	-14554
▁खैरोम	-14555
▁खोनाय	-14556
▁खोन्थ	-14557
▁खोमथा	-14558
▁गथायो	-14559
▁गनानै	-14560
▁गनाया	-14561
▁गबोयो	-14562
▁गरदसे	-14563
▁गानाय	-14564
▁गायसं	-14565
▁गिनां	-14566
▁गुजरा	-14567
▁गेरेज	-14568
▁गेलेम	-14569
▁गोदाय	-14570
▁गोराय	-14571
▁गोलां	-14572
▁चित्र	-14573
▁चिरां	-14574
▁जाइलि	-14575
▁जागार	-14576
▁जातनि	-14577
▁जाननु	-14578
▁जाबां	-14579
▁जारें	-14580
▁जिनिद	-14581
▁जुगनि	-14582
▁जुवान	-14583
▁टास्क	-14584
▁टिकिट	-14585
▁टेकनि	-14586
▁टेनसन	-14587
▁टेम्प	-14588
▁ट्राब	-14589
▁ट्रेड	-14590
▁ठाकुर	-14591
▁तालुक	-14592
▁थफानै	-14593
▁थबस्र	-14594
▁थब्लं	-14595
▁थांबा	-14596
▁थोनहर	-14597
▁दन्दर	-14598
▁दादों	-14599
▁दायसे	-14600
▁देरगा	-14601
▁दैखरा	-14602
▁दौनाय	-14603
▁द्राम	-14604
▁नंखाइ	-14605
▁नामखौ	-14606
▁नायना	-14607
▁नोंसि	-14608
▁नोमफा	-14609
▁पण्डि	-14610
▁पावार	-14611
▁प्रसि	-14612
▁फन्दि	-14613
▁फाइखि	-14614
▁फाखाय	-14615
▁फानसे	-14616
▁फानहर	-14617
▁फाफखौ	-14618
▁फारफा	-14619
▁फेनाय	-14620
▁बटलखौ	-14621
▁बमब्र	-14622
▁बमाखौ	-14623
▁बराया	-14624
▁बर्मण	-14625
▁बाथोर	-14626
▁बाबेन	-14627
▁बार्ड	-14628
▁बाल्ब	-14629
▁बावला	-14630
▁बासिन	-14631
▁बिउटि	-14632
▁बिखुम	-14633
▁बिदाम	-14634
▁बिदों	-14635
▁बिमाल	-14636
▁बियाय	-14637
▁बियार	-14638
▁बिसना	-14639
▁बिस्व	-14640
▁बुंफब	-14641
▁बुंहै	-14642
▁बुश्व	-14643
▁बृटिस	-14644
▁बेगाव	-14645
▁बेगें	-14646
▁बेदां	-14647
▁बेनोल	-14648
▁बेवहा	-14649
▁बेहुस	-14650
▁बैष्ण	-14651
▁बोजों	-14652
▁बोफ्ल	-14653
▁बोरला	-14654
▁ब्लाव	-14655
▁भुमाव	-14656
▁मददनि	-14657
▁मन्चा	-14658
▁माजां	-14659
▁मानाव	-14660
▁मामला	-14661
▁माराम	-14662
▁मार्क	-14663
▁मावदो	-14664
▁मिटार	-14665
▁मिनथि	-14666
▁मिनिख	-14667
▁मुरदा	-14668
▁मेंनो	-14669
▁मेघाल	-14670
▁मेजेम	-14671
▁मेम्ब	-14672
▁मेवाब	-14673
▁मेसें	-14674
▁मोदाउ	-14675
▁मोनदा	-14676
▁मोरोन	-14677
▁मोहेर	-14678
▁रादाय	-14679
▁राफोत	-14680
▁राबेन	-14681
▁रावयै	-14682
▁रोंनो	-14683
▁लन्थि	-14684
▁लाइखं	-14685
▁लाइफा	-14686
▁लाखनि	-14687
▁लागाय	-14688
▁लाजिस	-14689
▁लानमी	-14690
▁लान्स	-14691
▁लिंथि	-14692
▁लैखोन	-14693
▁शुक्र	-14694
▁ष्ट्र	-14695
▁समजित	-14696
▁समजों	-14697
▁समफ्ल	-14698
▁सममथे	-14699
▁सहैनो	-14700
▁साग्ल	-14701
▁सारोन	-14702
▁सार्ट	-14703
▁सिकार	-14704
▁सिक्स	-14705
▁सिथला	-14706
▁सिददा	-14707
▁सुरखो	-14708
▁सेटखौ	-14709
▁सेरेब	-14710
▁सेहेर	-14711
▁सोंहर	-14712
▁सोरनो	-14713
▁स्कुट	-14714
▁स्टेट	-14715
▁स्रुब	-14716
▁स्रेम	-14717
▁हाइथु	-14718
▁हाखिम	-14719
▁हावरि	-14720
▁हासिल	-14721
▁हेन्द	-14722
▁हैदों	-14723
▁होबाव	-14724
▁होलाय	-14725
,000.00	-14726
ंग्रानि	-14727
क्षेत्र	-14728
खावरिनि	-14729
खुंग्री	-14730
गिरिमोन	-14731
जागोनबो	-14732
थुंग्रि	-14733
दारफोरा	-14734
नांनानै	-14735
नियालाय	-14736
न्थायाव	-14737
फिनब्ला	-14738
फुरियाव	-14739
बेफोरनि	-14740
बोनायखौ	-14741
माफोरनि	-14742
मोनहाबो	-14743
लांनाया	-14744
लायलाङो	-14745
सावगारि	-14746
सिन्नाय	-14747
हरनायखौ	-14748
हावरिया	-14749
होमब्ला	-14750
ागौमानि	-14751
ाब्लासो	-14752
ुलुन्दि	-14753
्बायारि	-14754
्रायनाय	-14755
्रायानो	-14756
्लायनाय	-14757
्लायाबो	-14758
▁10,000	-14759
▁System	-14760
▁अजयाबो	-14761
▁अबस्ये	-14762
▁अबिनास	-14763
▁अमृनडर	-14764
▁अरखिखौ	-14765
▁अर्दार	-14766
▁आंनिसो	-14767
▁आखुफोर	-14768
▁आगाननि	-14769
▁आगानसे	-14770
▁आदामोन	-14771
▁आफामोन	-14772
▁आलफानि	-14773
▁आलौनाय	-14774
▁आसामनो	-14775
▁आसियाव	-14776
▁इनाइनो	-14777
▁इस्कुल	-14778
▁उत्तरा	-14779
▁उनखालि	-14780
▁उल्थां	-14781
▁एरायनो	-14782
▁एसिटिक	-14783
▁एसिबां	-14784
▁कैलासा	-14785
▁खन्थाय	-14786
▁खांगोन	-14787
▁खाजायो	-14788
▁खायलें	-14789
▁खारदों	-14790
▁खावयां	-14791
▁खिग्रा	-14792
▁खुंथाय	-14793
▁खुसिया	-14794
▁खैनालै	-14795
▁खोथासो	-14796
▁खोनाफा	-14797
▁खोन्था	-14798
▁खोबनाय	-14799
▁खोमानो	-14800
▁गंनैखौ	-14801
▁गंनैसो	-14802
▁गनायनि	-14803
▁गनायनो	-14804
▁गब्राय	-14805
▁गसंदयो	-14806
▁गसंबाय	-14807
▁गाग्लि	-14808
▁गायदों	-14809
▁गायनाय	-14810
▁गारसोम	-14811
▁गास्नि	-14812
▁गिनाङा	-14813
▁गिबियै	-14814
▁गियाखै	-14815
▁गुदिया	-14816
▁गुलिनि	-14817
▁गुलिया	-14818
▁गेदेरा	-14819
▁गैयैखौ	-14820
▁गैल्या	-14821
▁गोजौआव	-14822
▁गोथैनि	-14823
▁गोमोना	-14824
▁गोराखौ	-14825
▁गोरोबो	-14826
▁जफानाय	-14827
▁जागोना	-14828
▁जाफुङै	-14829
▁जाफैनो	-14830
▁जायैनि	-14831
▁जायोना	-14832
▁जारौवा	-14833
▁जिउनां	-14834
▁जिबौनि	-14835
▁जिलानि	-14836
▁जुनैनो	-14837
▁जेरैनो	-14838
▁जेवारि	-14839
▁जोंखां	-14840
▁जोलानि	-14841
▁जौमोना	-14842
▁टेबोला	-14843
▁डाइनिं	-14844
▁थाखाया	-14845
▁थाखायो	-14846
▁थाखोसे	-14847
▁थादोलै	-14848
▁थान्दा	-14849
▁थार्ला	-14850
▁थाहैया	-14851
▁थिंजाय	-14852
▁थिनानै	-14853
▁थेख्रे	-14854
▁थैयाखै	-14855
▁थोननाय	-14856
▁दंफायो	-14857
▁दखानाव	-14858
▁दरनैनि	-14859
▁दहायसो	-14860
▁दांफाम	-14861
▁दाननाय	-14862
▁दानाया	-14863
▁दाबादि	-14864
▁दारिया	-14865
▁दावसिन	-14866
▁दाहारा	-14867
▁दुंखां	-14868
▁दुखुबो	-14869
▁दुगैनो	-14870
▁दुरुङा	-14871
▁दैखरनि	-14872
▁दैखौनो	-14873
▁दैथुना	-14874
▁दैसाखौ	-14875
▁दोंथाम	-14876
▁दोनहां	-14877
▁दोनाखै	-14878
▁दोलोनि	-14879
▁धोनसिं	-14880
▁नखरारि	-14881
▁नङाथाय	-14882
▁नङालाय	-14883
▁नङाहाय	-14884
▁नरेशखौ	-14885
▁नरेशनो	-14886
▁नांगोल	-14887
▁नांथाब	-14888
▁नाइदाव	-14889
▁नागाखौ	-14890
▁नाङैनो	-14891
▁नाछानि	-14892
▁नामैनो	-14893
▁नार्सा	-14894
▁नालेनि	-14895
▁निस्सय	-14896
▁नुबोला	-14897
▁नोंनोथ	-14898
▁नोंबोथ	-14899
▁नोथाङा	-14900
▁नोमाखौ	-14901
▁नोमाया	-14902
▁पिरामि	-14903
▁फबनानै	-14904
▁फालानि	-14905
▁फालिनो	-14906
▁फावथाय	-14907
▁फिथराव	-14908
▁फिसाला	-14909
▁फुजानि	-14910
▁फुजियो	-14911
▁फुलिया	-14912
▁फेस्वन	-14913
▁फैखाङो	-14914
▁फैफेरा	-14915
▁फ्रन्ट	-14916
▁बसुमात	-14917
▁बागदाउ	-14918
▁बाजिसो	-14919
▁बाटनखौ	-14920
▁बाथेनो	-14921
▁बाथौनि	-14922
▁बादिनि	-14923
▁बादिबो	-14924
▁बान्दी	-14925
▁बायलुं	-14926
▁बारगोन	-14927
▁बार्लि	-14928
▁बिग्रि	-14929
▁बिथराय	-14930
▁बिप्लब	-14931
▁बिफाङा	-14932
▁बिबौनि	-14933
▁बिरनाय	-14934
▁बिषमाव	-14935
▁बिष्णु	-14936
▁बिसिनो	-14937
▁बुंजोब	-14938
▁बुंदां	-14939
▁बुंसनो	-14940
▁बुद्रु	-14941
▁बुसाया	-14942
▁बेंकनि	-14943
▁बेंकाव	-14944
▁बेंनाय	-14945
▁बेकेटा	-14946
▁बेगरनि	-14947
▁बेन्दो	-14948
▁बेरलाव	-14949
▁बोद्ला	-14950
▁बोर्ला	-14951
▁बोहैयो	-14952
▁भार्चन	-14953
▁भुटाना	-14954
▁मंगलिय	-14955
▁महम्मद	-14956
▁महिलार	-14957
▁माबासो	-14958
▁मायाजे	-14959
▁माल्टि	-14960
▁मासेया	-14961
▁मिजिङा	-14962
▁मिरुनि	-14963
▁मिलियन	-14964
▁मिस्टि	-14965
▁मुख्लं	-14966
▁मेडामा	-14967
▁मेलाखौ	-14968
▁मैखारि	-14969
▁मोनहास	-14970
▁मोसौवा	-14971
▁रंजुलि	-14972
▁रन्जित	-14973
▁राक्षस	-14974
▁राणीया	-14975
▁रानखां	-14976
▁रामायण	-14977
▁रायखां	-14978
▁रायदों	-14979
▁रावबोथ	-14980
▁रावाबो	-14981
▁रोंगोन	-14982
▁रोंदों	-14983
▁लांगाब	-14984
▁लाइननि	-14985
▁लाइनाव	-14986
▁लानोबो	-14987
▁लाबोदो	-14988
▁लायासै	-14989
▁लासिनो	-14990
▁लाहाखि	-14991
▁लिरस्ल	-14992
▁लुबैयै	-14993
▁लोगोरि	-14994
▁शंकरखौ	-14995
▁संदान्	-14996
▁संबिजि	-14997
▁सन्देर	-14998
▁सन्मान	-14999
▁सफैदों	-15000
▁सरखारा	-15001
▁सलादें	-15002
▁सहेनखौ	-15003
▁सहेननि	-15004
▁साइखेल	-15005
▁सानैनो	-15006
▁सान्ना	-15007
▁सामलाइ	-15008
▁सारफाव	-15009
▁सारिया	-15010
▁सिंथिं	-15011
▁सिखावा	-15012
▁सिग्रि	-15013
▁सिफ्ला	-15014
▁सिलाखौ	-15015
▁सुइसखौ	-15016
▁सुनिया	-15017
▁सुबिधा	-15018
▁सेन्टि	-15019
▁सेर्जा	-15020
▁सैनानै	-15021
▁सोंगोन	-15022
▁सोलोयै	-15023
▁स्रोदै	-15024
▁हकारनि	-15025
▁हमथायो	-15026
▁हरसेखौ	-15027
▁हरसेनि	-15028
▁हाजिरा	-15029
▁हाबदों	-15030
▁हाबाथि	-15031
▁हारिहा	-15032
▁हालायै	-15033
▁हालोदा	-15034
▁हासुदै	-15035
▁होनदों	-15036
▁होनोबो	-15037
▁होबावो	-15038
▁होयाखै	-15039
▁होरलां	-15040
ractical	-15041
आन्दासाव	-15042
कल्पनाया	-15043
गारनायसै	-15044
ग्लायनाय	-15045
जायाखिसै	-15046
जायोब्ला	-15047
जोबाब्ला	-15048
थाराखिसै	-15049
दान्दिसे	-15050
नायजोंनो	-15051
फावथाइनि	-15052
फावथाइया	-15053
फुदोंमोन	-15054
फ्लायबाय	-15055
बावनायसै	-15056
बोनांदों	-15057
मारोब्ला	-15058
मेहेरसिं	-15059
[...]
