<unk>	0
<s>	0
</s>	0
।	-2.86114
,	-3.69217
ʼ	-3.82052
नि	-4.0872
-	-4.1435
नो	-4.50209
▁आरो	-4.68207
खौ	-4.69003
▁बे	-4.93805
▁"	-5.07131
बो	-5.09199
▁:	-5.11094
▁आं	-5.18847
नानै	-5.19774
▁?	-5.20294
।"	-5.4621
▁मा	-5.51226
▁!	-5.54344
जों	-5.54635
▁	-5.55815
▁(	-5.61739
▁बियो	-5.65401
▁नों	-5.71269
ाव	-5.80342
.	-5.83533
▁नाथाय	-5.86787
सो	-5.8957
याव	-5.9036
ा	-5.90824
)	-5.97553
▁बर	-5.99019
या	-6.02038
▁?"	-6.09327
▁नङा	-6.11506
▁दं	-6.11561
▁--"	-6.12922
▁एबा	-6.14709
▁जायो	-6.14775
निफ्राय	-6.16697
▁सल	-6.18209
▁बिनि	-6.18726
▁आंनि	-6.23356
▁न	-6.2439
▁मोजां	-6.25337
▁गावनि	-6.25569
▁थाखाय	-6.26202
▁मोनसे	-6.2658
▁'	-6.3011
:	-6.33306
▁-	-6.38937
▁उनाव	-6.39158
ल	-6.39549
▁लानानै	-6.39828
▁जाबाय	-6.41096
▁लोगो	-6.42244
▁गुबुन	-6.43218
▁बादि	-6.45221
▁जादों	-6.46271
▁बि	-6.46605
▁गैया	-6.48677
▁जों	-6.51531
'	-6.52431
▁दा	-6.52895
▁बायदि	-6.56377
▁बुङो	-6.59923
▁जानो	-6.60054
▁गोनां	-6.62935
▁जेरै	-6.63052
▁गोसो	-6.64795
नाय	-6.64977
▁ना	-6.65487
▁सासे	-6.66282
▁मानो	-6.66903
▁थानाय	-6.68271
मोन	-6.71082
▁जानानै	-6.72149
वा	-6.73497
▁जेबो	-6.73537
▁नोंनि	-6.75751
ब्ला	-6.76169
▁दिनै	-6.76397
▁हागौ	-6.77671
▁समाव	-6.78708
▁हा	-6.79532
▁बाथ्रा	-6.80227
ै	-6.80429
▁हाया	-6.81977
▁गाव	-6.82484
▁हाबा	-6.84218
▁बेखौ	-6.84245
▁बेनि	-6.84726
▁[	-6.85035
▁जानाय	-6.85148
▁ज	-6.85397
बाय	-6.86022
▁ग	-6.88978
▁गोदान	-6.90014
ना	-6.91771
▁आंखौ	-6.92067
▁जागोन	-6.9255
मा	-6.93325
▁खालामनो	-6.93912
थ	-6.94707
फोरखौ	-6.94716
▁दै	-6.95588
▁गथ	-6.9564
बा	-6.96751
▁फिसा	-6.97316
"	-6.98693
लाय	-6.99376
▁एसे	-7.00612
फोरा	-7.00686
▁जा	-7.00764
▁मोनो	-7.02696
▁गोबां	-7.02767
▁आदा	-7.02812
▁)	-7.04089
▁सायाव	-7.04144
ब्लाबो	-7.04516
▁थायो	-7.05772
▁होननानै	-7.07012
▁माबा	-7.07072
▁राव	-7.07905
▁गेजेराव	-7.07916
▁खर	-7.10496
▁बिखौ	-7.11525
▁रां	-7.11818
▁खालामनानै	-7.12061
वाव	-7.12674
▁बिसोर	-7.15372
▁सोर	-7.15647
आ	-7.15758
▁बुंनो	-7.16222
▁गाज्रि	-7.16478
▁स	-7.16845
▁मानसि	-7.16853
▁सा	-7.17369
यै	-7.17405
▁होन्नानै	-7.17542
;	-7.19112
▁होनो	-7.19277
▁जौ	-7.21361
▁बेफोर	-7.22485
▁जोंनि	-7.23331
▁बै	-7.23562
▁बिमा	-7.23931
दि	-7.24035
▁बाथ्राखौ	-7.25673
▁दुखु	-7.25793
ो	-7.26216
▁जाय	-7.26233
▁सम	-7.26788
▁दङ	-7.27895
दों	-7.28665
▁बुंबाय	-7.2934
▁होनानै	-7.30229
▁]	-7.3041
--	-7.30582
▁हायो	-7.32577
सै	-7.33065
▁सान	-7.33222
फोरनि	-7.38717
लै	-7.40569
▁महर	-7.41214
▁बारा	-7.41232
▁सि	-7.41626
▁नोंखौ	-7.41639
▁--	-7.41787
▁जिउ	-7.4303
▁आ	-7.43296
आव	-7.43665
▁एन	-7.44011
बादि	-7.45134
▁आफा	-7.45321
▁होनाय	-7.45339
▁नामा	-7.46052
▁दि	-7.46904
▁नवाव	-7.47405
▁दे	-7.47567
▁सिरि	-7.48868
▁अब्ला	-7.49174
▁गल	-7.49323
▁थांनानै	-7.4933
गोन	-7.50011
▁हानाय	-7.50041
▁ओंखाम	-7.50371
▁मानसिया	-7.50744
▁मोनबाय	-7.5216
फ्रा	-7.52342
▁नुनानै	-7.53128
यो	-7.53174
▁सिङाव	-7.53942
▁लोगोसे	-7.54444
▁ए	-7.54466
▁माथो	-7.54774
▁दसे	-7.55715
▁लामा	-7.55775
▁फारसे	-7.55878
▁था	-7.56214
▁होयो	-7.56542
▁सोरबा	-7.56577
▁अ	-7.56581
▁आंहा	-7.56618
▁मानोना	-7.56803
▁जाया	-7.57105
ि	-7.57258
▁बेयो	-7.57286
▁थानो	-7.57326
▁खाथियाव	-7.58181
▁गामिनि	-7.5864
▁सोदोब	-7.59047
▁गासै	-7.59262
ग्रा	-7.59287
▁थां	-7.59889
▁अल	-7.60517
▁आइ	-7.60967
▁नांगौ	-7.62009
▁बुं	-7.62999
▁सिगां	-7.63056
▁हो	-7.63525
▁बयबो	-7.63764
▁राहा	-7.64144
▁उन	-7.64906
▁जोनोम	-7.6505
▁बिब्दि	-7.65075
ं	-7.65105
▁ख	-7.65204
▁मेगन	-7.65305
दोंमोन	-7.66665
▁मोखां	-7.66708
सिम	-7.67368
▁नुनो	-7.6931
▁बुंनाय	-7.69419
▁ब	-7.70044
▁राइजो	-7.70411
खि	-7.70461
▁माखासे	-7.70793
▁मोना	-7.71327
▁हर	-7.71539
▁गुबै	-7.71841
▁मुं	-7.72577
▁गाहाय	-7.73157
खौनो	-7.73316
से	-7.73721
▁गंसे	-7.73949
▁रावबो	-7.74144
▁हिन्जाव	-7.74169
▁राजा	-7.74671
▁जि	-7.75203
▁लानो	-7.757
▁गोहो	-7.76079
▁गोरा	-7.76618
▁जाखो	-7.76729
▁नाङा	-7.76832
▁सुबुं	-7.76841
▁थांनाय	-7.76907
▁आलेया	-7.77188
र	-7.77863
▁बिसोरनि	-7.77992
▁नोंसोर	-7.78782
गासिनो	-7.78889
हा	-7.79037
नै	-7.79325
▁होबाय	-7.79484
व	-7.79567
▁गोजौ	-7.79889
▁थाङो	-7.8058
]	-7.80762
न	-7.81227
▁लासै	-7.81429
क	-7.81527
▁गोसोआव	-7.81552
▁मोननै	-7.81611
▁सानो	-7.81813
▁जोबोद	-7.82133
▁मोन	-7.82148
▁मोननाय	-7.82246
▁आखु	-7.82608
▁गासिबो	-7.82611
▁थै	-7.82868
▁खामानि	-7.83993
▁!"	-7.84834
▁र	-7.85109
▁नै	-7.85213
▁इ	-7.85339
▁गारां	-7.85584
▁थाबाय	-7.85689
▁सिं	-7.85695
▁सिख्ला	-7.85775
▁ह	-7.85841
▁आखाइ	-7.87073
▁अर	-7.87188
▁हौवा	-7.87207
▁लानाय	-7.87421
▁बेखौनो	-7.87457
फोर	-7.8958
▁मानसिनि	-7.89584
▁जादोंमोन	-7.89615
▁नोंथां	-7.90265
▁बेनो	-7.90366
रि	-7.92326
▁फै	-7.9239
▁आर	-7.92444
▁लायो	-7.92621
▁बुंदों	-7.92715
▁साहा	-7.92997
▁ला	-7.93519
▁जायगा	-7.9356
▁महाराजा	-7.93596
▁जेब्ला	-7.93709
▁मोदै	-7.93829
सि	-7.94481
▁गासैबो	-7.94701
▁फैदों	-7.95013
▁गोबाव	-7.95055
▁खालाम	-7.95067
▁सानै	-7.95225
▁थेवबो	-7.95234
▁समावनो	-7.95868
मानि	-7.96143
▁बिलाइ	-7.96363
नाव	-7.96462
▁खौरां	-7.96591
▁नङाब्ला	-7.96731
▁सिगाङाव	-7.96817
नायाव	-7.97069
▁सानसे	-7.97114
▁सुंद	-7.97389
▁सु	-7.97552
▁आबौ	-7.97576
▁थांनो	-7.98335
▁गेजेर	-7.98509
▁समाय	-7.98742
▁गिबि	-7.98773
▁बोसोर	-7.9919
▁नि	-7.99402
▁बांसिन	-7.9956
▁बार	-7.99646
▁जोंथिया	-7.99905
▁बिदि	-7.99997
▁गोसोखौ	-8.00228
▁द	-8.00357
▁दाबो	-8.00372
▁मोनगोन	-8.00672
▁मान	-8.00711
▁महरै	-8.00898
▁गेजेरजों	-8.01192
▁सेंग्रा	-8.01229
▁बेसेबा	-8.01277
▁बा	-8.01327
▁दन्दा	-8.01599
▁सेप्तेम्बर	-8.01683
▁गावखौ	-8.0174
▁बादल	-8.01985
▁दानो	-8.02052
▁फावथाइ	-8.02105
थिं	-8.02159
का	-8.02189
▁एम	-8.02707
आं	-8.02765
▁ओंखार	-8.02793
▁आखायाव	-8.02939
▁आंबो	-8.03064
▁म	-8.03236
▁बिहा	-8.03625
▁जेब्लाबो	-8.03657
▁बिखा	-8.0382
त	-8.03842
▁फैनानै	-8.04145
▁जिउनि	-8.04174
▁हांखो	-8.04184
▁खालामो	-8.04498
▁नायनानै	-8.04541
▁गोलाव	-8.04712
▁बिनानाव	-8.04847
▁फिन	-8.05056
▁खालामनाय	-8.05567
▁माबोरै	-8.06321
▁गैयै	-8.06461
▁बुंनानै	-8.06752
▁बाहागो	-8.07002
▁एसेबां	-8.07134
▁बेसे	-8.07199
▁थि	-8.07341
▁दंमोन	-8.07596
नांगौ	-8.07806
▁से	-8.07975
▁सानबाय	-8.07994
▁होदों	-8.08071
▁जानांगौ	-8.0812
द	-8.08413
▁हागोन	-8.08509
▁नोजोर	-8.08576
▁रावखौ	-8.08648
▁गावनो	-8.08976
▁गोसोनि	-8.09017
▁मोजाङै	-8.09101
▁आनारी	-8.09232
खौबो	-8.09268
▁हे	-8.10033
▁देहा	-8.10332
▁मालाय	-8.10349
▁बेनिखायनो	-8.10988
▁नायनो	-8.11039
▁बादिब्ला	-8.1118
स	-8.11478
▁फैयो	-8.12458
▁बिसि	-8.12869
▁बिफा	-8.13084
▁दमन	-8.13527
▁नोंथाङा	-8.13787
▁बिखायाव	-8.13972
▁अजया	-8.14149
▁थु	-8.14258
▁क	-8.14369
▁हारिनि	-8.14509
▁मोननो	-8.14583
▁जायगायाव	-8.151
▁लाबाय	-8.15436
▁नंगौ	-8.15546
▁मलेना	-8.15771
▁हमबाय	-8.15871
▁तुलाराम	-8.1589
▁बड़	-8.15919
▁सोमबोर	-8.16473
▁नायजाब	-8.16475
▁मोसा	-8.1706
▁खोमा	-8.17121
▁गिदिर	-8.17231
▁गाहाइ	-8.1724
▁पुलिस	-8.17447
▁बेयाव	-8.17663
▁गांसे	-8.17981
▁बिदिब्ला	-8.18115
▁हमनानै	-8.18174
▁मोसौ	-8.18393
▁उ	-8.18889
▁पि	-8.19117
▁दाय	-8.19163
▁इराग्दाव	-8.19282
▁हाज	-8.19484
▁हि	-8.1969
▁बेबादि	-8.19907
▁माबार	-8.20002
▁मिथिनो	-8.2033
ब	-8.20965
▁गोसोआ	-8.21231
▁बेनिफ्राय	-8.2157
▁ल	-8.21713
▁बोरै	-8.21947
▁आंनो	-8.21947
▁लिरनाय	-8.2196
▁लेखा	-8.21964
▁सुलुंआव	-8.2203
▁फ	-8.22212
▁मावनो	-8.22227
▁होनना	-8.22239
▁हमनो	-8.22554
▁बिदा	-8.22847
▁थ	-8.23047
▁गाहाम	-8.23286
▁थार	-8.23355
▁बाहायनाय	-8.23633
▁मोखाङाव	-8.24175
▁बिबार	-8.24312
▁मोनदों	-8.24475
थि	-8.24596
▁जोबोर	-8.25609
य	-8.25801
▁मानि	-8.26005
▁खालि	-8.26199
▁बाथ्राया	-8.26365
▁मदद	-8.26598
▁जो	-8.26686
▁दुर्जाङा	-8.26737
▁फिसाजो	-8.27162
▁बिमाया	-8.27452
▁आङो	-8.27828
▁बहा	-8.28017
▁हायाखिसै	-8.28576
▁हेंथा	-8.28956
▁आथोन	-8.29424
▁सेर	-8.29721
▁साननानै	-8.2996
▁सोङो	-8.3006
▁गोजोन	-8.30065
▁खाबु	-8.30214
▁रागा	-8.30289
▁माब्लाबा	-8.30768
▁जिंगा	-8.31001
▁मन्थ्रि	-8.31079
▁खालामदों	-8.31398
▁खालामबाय	-8.3164
▁नुयो	-8.32006
▁मिथिगौ	-8.32105
▁गोख्रों	-8.32238
▁कम्पिउटार	-8.3259
▁अराय	-8.33241
▁फा	-8.33389
ए	-8.33641
▁फंबाय	-8.33743
▁फैबाय	-8.34033
थो	-8.34248
▁शान्तिया	-8.34794
▁बेफोरखौ	-8.34883
+	-8.35062
▁इसे	-8.35172
▁सानैबो	-8.35627
▁जायाखै	-8.35705
▁दावहा	-8.35715
▁जोहोलाव	-8.35907
▁फोरमायनाय	-8.36014
▁थुनलाइ	-8.36138
▁हाबफैयो	-8.36204
▁रोखा	-8.36343
▁जाब्ला	-8.36364
ब्रा	-8.36604
▁बिजाब	-8.36786
▁सार	-8.36814
▁गामि	-8.3709
▁सान्थ्रि	-8.37372
▁हेफाजाब	-8.37653
फोराव	-8.3786
▁हारि	-8.38056
म	-8.38879
▁रुमाव	-8.38961
थाय	-8.39209
हां	-8.39435
▁आफादनि	-8.39631
▁फाव	-8.39739
▁मिनि	-8.39824
▁हायाखै	-8.40324
▁थाखो	-8.40335
▁मलेन	-8.40475
▁गोरोन्थि	-8.41046
▁नाय	-8.41059
▁ड	-8.41175
▁खोथा	-8.41358
▁जेन	-8.41612
▁थाब	-8.41706
ी	-8.41918
▁थांबाय	-8.42046
▁हां	-8.42432
▁हाग्रा	-8.42472
▁फारिया	-8.42779
...	-8.43071
सिन	-8.43137
▁खोनानानै	-8.43143
▁मिहिरा	-8.43245
▁मुवा	-8.43257
▁एस	-8.43275
▁ददेरेया	-8.43349
नों	-8.43667
▁मिथिया	-8.43685
▁सोमोन्दो	-8.43731
▁नोंनो	-8.43938
▁थांखि	-8.43941
▁मोन्नाय	-8.43991
▁उदां	-8.44144
▁आगान	-8.44166
▁गोदो	-8.44389
▁बादला	-8.444
▁बिमानि	-8.44463
▁सिखार	-8.44481
▁सावगारि	-8.44506
▁बिफां	-8.45382
▁जाथाइ	-8.45484
▁फावथाइनि	-8.45491
▁सोंबाय	-8.45782
▁खुगा	-8.45957
▁अनगायैबो	-8.46039
▁गोथौ	-8.46435
▁खोमसि	-8.46483
▁गुदि	-8.46487
▁उन्दै	-8.46547
▁थाव	-8.46549
▁फिसाज्ला	-8.46793
▁जे	-8.47008
▁ब्रह्म	-8.474
▁रोदा	-8.47444
▁...	-8.47463
।)	-8.47479
▁आफादगिरि	-8.47495
▁हादों	-8.47571
▁रंजा	-8.4777
खालि	-8.47885
ला	-8.48158
ारि	-8.48253
▁दयाराम	-8.48333
▁साजा	-8.48522
फा	-8.48596
याबो	-8.4895
▁बिथां	-8.49077
▁लामायाव	-8.49118
▁मोदोम	-8.49174
▁बेसेबां	-8.49198
▁हायै	-8.49257
▁बिलिफाङा	-8.49409
▁कल्पना	-8.49718
▁मेथाइ	-8.4978
▁अमा	-8.49812
▁दाजाबदा	-8.49827
▁रोखोमनि	-8.49852
▁बेदर	-8.50099
▁हादर	-8.50217
▁आखल	-8.50283
▁थाखायनो	-8.50536
▁खोमदोन	-8.5064
▁सोलाय	-8.51155
▁गय	-8.51462
▁आलेखौ	-8.5174
▁रैखा	-8.51846
▁गोथार	-8.51944
▁लादों	-8.51962
▁दान	-8.52096
▁जानायनि	-8.52312
▁जेराव	-8.52432
▁थागोन	-8.52491
▁खोथाखौ	-8.52608
▁बाबु	-8.52615
▁बबे	-8.52763
▁बोराय	-8.52822
▁बिब्दिनो	-8.52913
▁माव	-8.53057
▁बाइदि	-8.53945
▁बाजै	-8.53982
▁धोरोम	-8.54047
▁बां	-8.54347
▁फैनो	-8.54525
▁नोंहा	-8.54765
▁मानसिखौ	-8.54934
▁साना	-8.55151
▁सहेन	-8.55256
▁गाबोन	-8.55536
▁बबाव	-8.55859
▁नोजोरथाव	-8.55958
▁फैनाय	-8.56062
s	-8.56151
▁खाथि	-8.56198
खो	-8.56355
▁''	-8.5638
▁माइ	-8.56501
▁बेलस्रि	-8.56509
▁गम्भीर	-8.56861
▁दानिया	-8.56975
▁होमब्ला	-8.56998
▁आसाम	-8.5715
दा	-8.57245
▁ओंखारलाङो	-8.57916
▁माने	-8.57985
बे	-8.57996
▁गोजानाव	-8.58068
दे	-8.58299
▁कल्पनाया	-8.58396
ग	-8.58406
▁बिसोरखौ	-8.58491
▁आथिं	-8.5887
▁फोरमायदों	-8.59165
हाय	-8.59241
▁बेखेवफा	-8.59747
▁आनाराम	-8.5979
▁आब	-8.59852
▁जनानै	-8.59984
▁दिन	-8.6001
▁फरायसा	-8.60057
▁जै	-8.60153
▁एफा	-8.60644
▁मुंमा	-8.60796
▁मेहेरसिं	-8.60946
ानो	-8.60972
.....	-8.61188
▁गोरों	-8.61385
▁हाब	-8.61569
▁अखा	-8.61624
▁रावनि	-8.61667
नादि	-8.61739
▁थियेटार	-8.6176
▁राइजोनि	-8.61799
▁माहाजोना	-8.62325
▁बिथांनि	-8.6247
▁बिदिनो	-8.62695
▁गोग्लै	-8.62895
खाय	-8.62955
▁सान्नानै	-8.63108
▁आंगो	-8.63224
▁जाथाय	-8.63251
▁खेबसे	-8.63373
▁जिल्ला	-8.63793
▁दानाय	-8.63796
।'	-8.63853
▁बिनो	-8.63996
ट	-8.64002
/	-8.64005
▁मुङा	-8.64038
सा	-8.64211
▁माहाजोन	-8.64271
▁खि	-8.64335
▁सेराव	-8.64525
▁देनानै	-8.64708
▁बोलो	-8.64962
▁बेवहाय	-8.65088
▁आलाइस्रि	-8.65169
▁दान्दिसे	-8.65171
▁माब्ला	-8.65193
इ	-8.653
▁थांगोन	-8.65322
▁आलाइया	-8.65527
▁बिसोरो	-8.65556
▁गारि	-8.65563
▁रावाव	-8.6568
▁बिलाय	-8.65949
▁हराव	-8.66006
▁दिन्थि	-8.66615
▁हांमा	-8.66657
▁मैया	-8.66903
▁रैखाथि	-8.67534
▁खिन्था	-8.67702
▁गुमै	-8.67752
▁गेदेर	-8.67855
▁थानानै	-8.67868
जानाय	-8.68044
▁हाबनानै	-8.68092
▁जेंना	-8.68206
▁2	-8.68343
▁गाब	-8.68385
▁जिउखौ	-8.68393
▁लाजि	-8.68823
▁मोदोमाव	-8.68843
खा	-8.68936
....	-8.69045
ज	-8.69324
▁बोराया	-8.69435
▁of	-8.69564
▁दिन्थिग्रा	-8.69604
▁फारि	-8.69634
फोरजों	-8.69642
▁आफाद	-8.69648
▁फैगौ	-8.69683
▁हाबाखौ	-8.69727
▁लुबैयो	-8.69885
▁आयदा	-8.70018
▁आयै	-8.70026
ाबो	-8.70261
▁आसामनि	-8.70302
▁उदै	-8.70467
▁बिजौ	-8.70579
▁थाखोनि	-8.70629
▁हिसाबै	-8.7072
▁समनि	-8.7079
▁नायबाय	-8.70879
▁दिन्थिनाय	-8.70887
▁मुलि	-8.70976
यारि	-8.7109
▁मै	-8.71188
▁अननाय	-8.7122
▁खहा	-8.71224
▁आगै	-8.71236
▁मन्जुवा	-8.71284
=	-8.71395
▁जायखौ	-8.71493
▁नोंलाय	-8.7156
▁मालायनि	-8.71578
▁बायदिसिना	-8.71695
▁गुवाहाटी	-8.717
▁बिखाया	-8.71768
▁मिथिबाय	-8.71921
▁फराय	-8.72176
▁आय	-8.72204
▁बड	-8.72206
▁आलासि	-8.72542
▁जाग्रा	-8.7263
▁हाबाफारि	-8.729
▁गोजाम	-8.72915
▁नंखाय	-8.73119
▁अजिता	-8.7318
वारी	-8.73247
▁मानसिफ्रा	-8.73262
▁एरै	-8.73443
▁:-	-8.73818
▁मेगनाव	-8.73953
▁सोमोन्दै	-8.74166
▁बागै	-8.74178
▁होगोन	-8.74365
▁गोसोम	-8.74411
▁जोंहा	-8.74457
▁मोननानै	-8.74502
▁हाबो	-8.7463
▁आरोबाव	-8.74654
▁गामियाव	-8.74681
▁मानसिफोरा	-8.74787
नांगोन	-8.74807
▁रावजों	-8.7483
औ	-8.74834
नायनि	-8.74934
▁सैमा	-8.74935
▁फाग्ला	-8.74975
थार	-8.75019
▁साख्रि	-8.75038
▁सांग्रां	-8.75074
▁रोङा	-8.75445
▁समाजनि	-8.75495
▁हगार	-8.75621
▁टि	-8.75674
टि	-8.75788
▁आसि	-8.75835
▁5	-8.76163
▁खायसे	-8.76418
▁साफा	-8.76478
▁नुबाय	-8.76617
▁मुलुगाव	-8.76793
रा	-8.76875
ख	-8.77099
▁साननाय	-8.77343
▁आव	-8.77409
▁हाजार	-8.77445
▁गोब्राब	-8.77507
▁गाहायाव	-8.77549
▁खायफा	-8.77811
▁सान्दो	-8.77835
▁थांनोसै	-8.7789
▁बाय	-8.78061
▁10	-8.78143
▁गोजा	-8.78299
▁उनावनो	-8.78347
▁लाखिनो	-8.78384
▁दाव	-8.78605
▁गाबो	-8.78699
▁बोथोर	-8.78753
▁बारग	-8.78881
▁गुदुं	-8.78966
▁दिन्थिनो	-8.78987
▁एल	-8.78999
▁दुलाराय	-8.79001
▁साबसिन	-8.79012
▁मुंख	-8.79024
▁हाबानि	-8.79254
▁लाख	-8.79302
▁जोंथिनि	-8.79304
यानो	-8.79346
▁खा	-8.79643
▁बिफानि	-8.79695
▁प्र	-8.79714
▁लाइजामखौ	-8.79904
▁खनसे	-8.79962
▁राजानि	-8.79975
▁साइकेल	-8.8005
▁मुंनि	-8.80062
▁गैलिया	-8.80125
▁सानदों	-8.80288
▁होनांगौ	-8.80336
मानो	-8.80369
ङा	-8.80655
▁गावजों	-8.80813
▁थेलेफा	-8.80863
▁सोनानै	-8.80869
▁औ	-8.81014
▁फोरमान	-8.81016
ड	-8.81062
▁मीनाराम	-8.81133
▁बिथाङा	-8.81145
▁मेब्ला	-8.81172
▁समबारु	-8.8125
▁दासो	-8.81493
▁मोनफा	-8.81679
▁बुंनायसै	-8.81738
▁लाइजाम	-8.82038
▁खलथा	-8.82266
▁जेरावबो	-8.82305
▁सुबुंनि	-8.82414
▁मिजिं	-8.82551
▁हाजेव	-8.82593
▁गुवार	-8.8261
▁थामहिनबा	-8.82787
▁आलेनि	-8.82832
▁हाबाब	-8.82898
्	-8.82993
▁अरुना	-8.83102
▁समायना	-8.83246
▁सो	-8.83457
▁अनाथी	-8.8354
▁आबै	-8.83611
▁नु	-8.83615
▁हाजो	-8.83897
▁गोसोजों	-8.839
▁फिसाया	-8.83956
▁आबुं	-8.83986
▁खाना	-8.84097
▁ब्रा	-8.84128
▁सोम	-8.8433
▁नोंथांनि	-8.84422
▁नागा	-8.84484
▁नखर	-8.84511
▁बुंदोंमोन	-8.84512
▁थाङा	-8.84513
▁बिबान	-8.84652
▁जोंखौ	-8.84738
▁!!	-8.84827
▁आलाइस्रिया	-8.85072
▁माइथायाव	-8.8515
▁एसेबो	-8.85156
▁सिन	-8.85192
▁1.	-8.85244
▁लाबो	-8.85245
▁मिनिस्लु	-8.85332
▁दहाय	-8.85454
▁खालामगोन	-8.85572
▁आंजों	-8.85641
▁आथिखालाव	-8.8566
▁रामनाथा	-8.85726
▁इनाय	-8.85755
▁खोनानो	-8.85852
▁2008	-8.86093
▁सिमां	-8.86215
▁मुस्रि	-8.86352
▁इन्दिस्री	-8.86404
▁सासेया	-8.86431
▁रंजानाय	-8.86535
▁डि	-8.86659
▁के	-8.87107
▁खुगायाव	-8.87145
▁मन्जुनि	-8.87307
▁आनजाद	-8.87584
▁खैफोद	-8.87677
▁बावदिया	-8.8773
▁लिर	-8.87748
▁फावथिना	-8.87802
▁राय	-8.87823
▁फिथाइ	-8.87841
▁बिथा	-8.87939
▁दो	-8.88007
▁जेसेबां	-8.88078
▁मावनाय	-8.88503
▁खालामना	-8.88536
▁बावनो	-8.88989
▁सोरखौ	-8.89048
▁दोननाय	-8.89163
▁मुस्री	-8.89438
▁देरसिन	-8.89451
▁चि	-8.89519
▁माब्रै	-8.89602
जोंनो	-8.89634
▁बोहैथि	-8.89636
▁2.	-8.89864
▁गिदिं	-8.899
▁1	-8.90002
▁जायोब्ला	-8.90124
▁अनगायै	-8.90174
▁मोनहा	-8.90286
y	-8.90337
▁अजय	-8.90473
▁आदै	-8.90567
▁ब्रह्मनि	-8.90599
▁रोजा	-8.90666
▁जुनै	-8.90873
खांनानै	-8.90933
▁हाय	-8.90982
थायाव	-8.90993
▁गारनानै	-8.91265
था	-8.91372
▁स्रि	-8.9141
▁हादोरनि	-8.91434
▁खामानियाव	-8.91752
अ	-8.91791
▁नायहरो	-8.91796
▁हादरनि	-8.91866
▁दाउ	-8.91957
▁साला	-8.92085
▁जिराय	-8.92143
▁आले	-8.92215
▁बादियै	-8.92334
▁थिक	-8.92383
▁रावआव	-8.92601
▁मासे	-8.92931
▁हम	-8.92971
▁डा	-8.93087
▁नागिरदों	-8.9336
▁हरनि	-8.93449
▁गोदै	-8.9361
▁टेबिल	-8.9366
▁होमबा	-8.9378
▁जेरैबो	-8.9379
..	-8.93798
▁कलेज	-8.94105
▁मोनथाम	-8.94226
▁सिखाव	-8.94286
▁माहाजोननि	-8.94326
▁खौ	-8.94425
▁अन	-8.94426
▁बिफाया	-8.94486
▁नायो	-8.94549
▁रागाजों	-8.94569
▁साननो	-8.94592
▁हाथाइ	-8.94943
▁हिनजाव	-8.9501
पि	-8.95071
▁बबेखानि	-8.95114
▁दोन	-8.95127
▁बाहाय	-8.9513
▁गुन्दा	-8.95196
▁खनसाया	-8.9527
▁साव	-8.95302
▁समाज	-8.95384
▁नङामोन	-8.95573
▁लाङो	-8.95598
▁खाफाल	-8.95602
▁बिखानि	-8.9594
▁सानैजों	-8.95951
▁सोरखार	-8.96105
▁थांदो	-8.96188
▁रुवाथि	-8.96357
▁जोबथा	-8.965
▁जु	-8.96535
▁अदेबानि	-8.96559
▁एरैनो	-8.96571
▁थांदों	-8.96594
▁ओजों	-8.96636
▁नखरनि	-8.96862
▁समान	-8.9689
▁मख	-8.96955
▁खामानिखौ	-8.97107
▁गोथां	-8.97282
▁मुलुगनि	-8.97363
▁the	-8.97628
▁आखाइयाव	-8.97699
▁हरनो	-8.97803
▁फोरमाय	-8.97911
▁हरो	-8.97949
▁बिगुर	-8.97992
▁आफाया	-8.9805
▁दिन्थियो	-8.98131
▁मादाव	-8.98136
▁जायनि	-8.98236
▁हनै	-8.98243
▁फैगोन	-8.98248
▁हमो	-8.98251
▁दासिमबो	-8.98297
▁हारिया	-8.98317
▁देंखो	-8.98376
लाङो	-8.98422
▁गा	-8.98471
▁खोनासं	-8.98533
▁बुंगोन	-8.9861
▁लाबोनानै	-8.98683
▁बिहामजो	-8.98725
लायनानै	-8.98734
▁लांनो	-8.98933
▁सोरां	-8.9923
▁दावराव	-8.99331
▁प	-8.99361
▁Window	-8.9955
▁जोंनो	-8.99574
▁गाबा	-8.99634
▁मलेनखौ	-8.99785
▁थादों	-8.99805
▁थिङै	-8.99894
▁नोंबो	-8.99916
▁गुन्दाया	-9.00082
▁हान्जा	-9.00127
▁सोदोबनि	-9.00154
▁बिष	-9.00161
▁मन	-9.00163
▁फिसाजोखौ	-9.00399
▁सिनाय	-9.00403
▁बु	-9.00483
▁थानायाव	-9.00525
▁आइजो	-9.01044
▁मि	-9.01125
▁गले	-9.01163
▁होनायनि	-9.0124
▁जायै	-9.01261
▁थाया	-9.01707
▁अब्राम	-9.01729
▁नागिर	-9.01734
▁मोनदोंमोन	-9.01751
▁मोनब्ला	-9.01823
▁हरखाब	-9.01926
निफ्रायनो	-9.01951
▁फिसौ	-9.02066
▁मानोबा	-9.02177
▁उन्दु	-9.02207
▁खालामनायनि	-9.02236
▁हाबाया	-9.02255
▁लु	-9.02303
▁सुथुर	-9.02379
▁फिसार्च	-9.02645
▁सोलो	-9.02647
▁गुरै	-9.02653
▁दोर्सोन	-9.02699
▁गेब्ला	-9.02706
▁बानु	-9.02729
▁गोग्लैयो	-9.02824
▁हाबाय	-9.02927
▁गसंनानै	-9.02951
▁गोरोब	-9.03039
▁थासारि	-9.03098
▁अख्रां	-9.03364
मोना	-9.03383
बां	-9.03393
▁रायलाय	-9.03435
▁खन्थाइ	-9.0348
▁रांखौ	-9.03522
▁आथिखाल	-9.0357
▁बिदै	-9.03702
निख्रुइ	-9.04121
▁बोसोरनि	-9.04121
▁हु	-9.04165
▁गिदिद	-9.04226
▁होदोंमोन	-9.04234
▁फावथायाव	-9.04312
▁थाला	-9.04425
▁बोरैबा	-9.04532
▁जोला	-9.04639
▁माय	-9.04651
▁नागिरो	-9.04683
▁खालामा	-9.04702
▁थादोंमोन	-9.04776
▁हारसिं	-9.04792
▁बसुमतारी	-9.04844
▁गोथै	-9.04903
▁सानराइ	-9.05116
▁थांब्ला	-9.05725
▁अनलाइन	-9.0583
▁सोरगिदिं	-9.05845
▁सानसेखालि	-9.05887
▁हेंथायै	-9.05989
▁बिफाननि	-9.06062
▁दानि	-9.06094
▁मासि	-9.06212
▁बिबो	-9.06245
▁सोमावसारनाय	-9.06386
▁होन्ना	-9.06458
▁सेंग्राया	-9.06564
फिनो	-9.06633
▁थुनलाइनि	-9.06659
▁माहारिनि	-9.06858
▁लांबाय	-9.069
▁फज	-9.07005
▁बेखायनो	-9.07005
>	-9.07031
बि	-9.07202
▁आलाइ	-9.07221
▁आलो	-9.07527
▁आखुथाय	-9.0754
ब्लानो	-9.07581
▁गिनानै	-9.07584
▁गाबै	-9.07671
गिरि	-9.07856
▁भारत	-9.08021
▁हारिखौ	-9.08259
▁खालाय	-9.0839
नायसै	-9.08393
▁मिहिर	-9.08441
▁बिजों	-9.085
▁दिनैसिम	-9.08581
▁तितागुरि	-9.08599
▁....	-9.08644
▁लोंनाय	-9.08759
▁गन्थं	-9.08844
▁मावो	-9.08902
मोनहा	-9.08932
▁मुंखौ	-9.09069
▁खें	-9.09093
▁नं	-9.09104
▁निमाहा	-9.09147
▁रामनाथ	-9.09239
▁रुम	-9.09283
▁फट	-9.09334
▁बिदाय	-9.09372
▁माइथायनि	-9.09388
▁थुनफावथाइ	-9.09692
▁बेसेन	-9.09741
▁थाब्ला	-9.09907
▁मोननायनि	-9.10006
▁बादिनो	-9.10212
▁दुर्जां	-9.10223
होनो	-9.10288
▁मुलुग	-9.1035
▁बिलिफां	-9.10443
▁बिजिर	-9.10473
▁जाथाइनि	-9.10511
▁नांगोन	-9.10611
▁सानस्रि	-9.107
▁गिनाय	-9.10748
▁बुंहरबाय	-9.10823
▁दोंसे	-9.10828
▁जारिमिनारि	-9.10852
▁दंफां	-9.10949
▁गैयामोन	-9.1096
जासे	-9.11013
हु	-9.11103
▁गोजौवाव	-9.11106
▁रावा	-9.11159
▁होनब्ला	-9.11194
▁>	-9.11252
▁15	-9.11586
▁खानानै	-9.11732
▁थेफेना	-9.11738
▁रिंसार	-9.11758
▁सिबाय	-9.11789
लांबाय	-9.12101
ङै	-9.12287
▁मलेननि	-9.12369
▁नाजानाय	-9.1242
▁मावग्रा	-9.12437
▁फेलें	-9.12531
▁जैबोर	-9.12543
▁ककराझार	-9.12547
▁सिनायथि	-9.12699
▁सुख	-9.128
हैयो	-9.12859
▁कलेजाव	-9.12932
▁जानायाव	-9.12955
▁रमा	-9.13095
▁दाबि	-9.13227
▁खामानिया	-9.13451
▁गोनांथि	-9.13461
▁थुलुंगा	-9.13496
▁बिमाखौ	-9.13531
▁खान्थि	-9.13658
▁लामाजों	-9.13728
▁जुलि	-9.13797
▁नां	-9.13942
▁स्रां	-9.14055
▁बिनारामा	-9.14073
▁सहाय	-9.141
▁थाम	-9.14214
▁हारसिङै	-9.14276
▁मैगं	-9.14277
▁हार्सिङै	-9.14292
▁फार्से	-9.14315
▁बोनाय	-9.14324
▁अजितनि	-9.144
▁बाहागोआव	-9.14453
▁मेगननि	-9.14534
▁जायखि	-9.14609
▁हय	-9.14686
▁9	-9.14762
सोर	-9.14784
▁बान्था	-9.14904
......	-9.14931
▁खुसि	-9.14953
▁गावबा	-9.15098
▁आदाया	-9.15445
▁फोरोंगिरि	-9.15465
▁थौ	-9.1555
▁फाग्लि	-9.15844
▁गियान	-9.16131
▁मोन्नानै	-9.16139
▁बोरो	-9.16194
▁खौरांखौ	-9.16404
▁नायहरनानै	-9.16558
▁फरायनाय	-9.16616
▁आरति	-9.16755
▁दिहुन	-9.16798
है	-9.16854
▁लोंनो	-9.16959
▁फंसे	-9.16961
▁सुखु	-9.17088
▁जावलिया	-9.17159
▁इउ	-9.17227
▁गेजेरावनो	-9.17287
▁A	-9.17362
▁देहाखौ	-9.17363
▁नेम	-9.17401
▁थानायनि	-9.17443
▁गाबनाय	-9.17459
मायाव	-9.17469
▁बिथोन	-9.17511
▁सान्दों	-9.17612
▁निउ	-9.17709
▁हजों	-9.17744
▁अखाफोर	-9.17806
▁फुङाव	-9.17884
गाब	-9.18023
▁गोरलै	-9.18096
▁राइजोखौ	-9.1812
बोनाय	-9.18122
▁12	-9.18304
▁फालांगि	-9.18333
▁राइजोफोर	-9.18372
▁थाङोब्ला	-9.18478
▁आखुनि	-9.18599
▁अजयनि	-9.18678
▁गार	-9.18698
▁दैमा	-9.18798
▁होननाय	-9.18875
होनानै	-9.18889
▁बेबादिनो	-9.18902
गा	-9.18994
▁सिस्टेम	-9.19003
▁हुरा	-9.19011
▁खाफालाव	-9.19025
▁दाहोना	-9.19149
▁ओंथि	-9.19199
▁बिजि	-9.19268
बावो	-9.19526
थां	-9.19759
▁सरलाया	-9.19801
▁सोरनिबा	-9.19817
▁थांना	-9.19887
▁इराग्दावा	-9.20012
▁आंखाल	-9.20024
▁दरजा	-9.20141
▁सुजुग्राया	-9.2015
▁दां	-9.20271
▁आदब	-9.20295
▁मोनै	-9.20304
▁सोरनि	-9.20313
▁थैनाय	-9.20345
▁गुन	-9.20429
▁होब्ला	-9.20501
▁बेदि	-9.20598
▁बैसोनि	-9.20749
▁मोनाखै	-9.20799
माया	-9.20942
▁थाइलालि	-9.21272
▁सों	-9.21417
▁दाहा	-9.21494
▁बोर	-9.215
▁नांनाय	-9.21502
▁लोब्बा	-9.21594
▁हाबलाङो	-9.21625
▁जानांगोन	-9.21744
▁बेयावनो	-9.21793
▁रुपा	-9.21851
▁मटर	-9.21876
▁3.	-9.21945
th	-9.22064
▁दोननानै	-9.22298
▁लादोंमोन	-9.22376
▁फुंनि	-9.22391
▁नायहर	-9.22686
▁फैया	-9.22722
▁जयो	-9.2276
▁खालार	-9.22892
यावनो	-9.23067
▁राग	-9.23096
▁दाननि	-9.23106
बावनो	-9.23263
▁गोदोनि	-9.23283
▁एफ	-9.23301
▁ऐ	-9.23412
▁हावरिया	-9.23483
▁अपारेटिं	-9.23494
▁लाबोनो	-9.23495
▁मारजित	-9.23504
▁जखम	-9.23523
▁बोहैथिया	-9.2369
▁सै	-9.23893
▁सिंनि	-9.24
▁आफादा	-9.24025
▁गोदोना	-9.24032
फैयो	-9.24213
▁जिरायनानै	-9.24223
▁लिरनानै	-9.24272
▁बानाय	-9.24322
▁फिसाखौ	-9.24523
▁आंलाय	-9.24523
▁आयं	-9.24532
▁20	-9.24901
▁फिसाइ	-9.24989
▁हायाव	-9.24992
▁रंजालि	-9.25161
▁बाजि	-9.25234
▁नंलिया	-9.25391
▁नुनाय	-9.25406
▁जोबो	-9.25412
▁मुंदांखा	-9.25447
▁फिसानि	-9.2554
▁बबेबा	-9.25673
▁माबाफोर	-9.25811
▁असे	-9.2584
▁खानाइ	-9.26035
▁आवगाय	-9.26145
▁बिनिफ्राय	-9.26165
▁जाथाया	-9.26244
▁रोङै	-9.26332
बर	-9.26393
▁सं	-9.26403
▁दाखालि	-9.26659
▁मेगना	-9.26779
▁गाम्बारि	-9.26989
▁हरनाय	-9.27092
▁गोजान	-9.27164
▁मिरु	-9.27195
▁अन्नाय	-9.27316
▁मोन्दों	-9.27335
▁नुजा	-9.27335
▁फादोर	-9.27435
।''	-9.2759
▁गैयाब्ला	-9.27605
▁सावराय	-9.27672
▁संसाराव	-9.27763
बाबो	-9.27879
▁जिवाव	-9.27891
▁जानायखौ	-9.27919
▁लुबैनाय	-9.28005
▁नांनानै	-9.28106
▁गोबा	-9.28137
▁जोंथिखौ	-9.28145
▁बिसिखौ	-9.28385
िं	-9.28438
▁मुंराय	-9.28567
दै	-9.28582
उ	-9.28593
▁लां	-9.28673
▁बाहायनो	-9.28963
▁रासिन	-9.29195
▁हाबायाव	-9.29327
बोला	-9.29391
▁लाना	-9.2941
▁जिनाहारि	-9.29481
▁आखुवा	-9.29493
▁दाहार	-9.29497
▁फैदो	-9.29536
▁खोनाबाय	-9.29551
▁इंख्रि	-9.29566
▁फरायनो	-9.29571
▁सोंनाय	-9.29658
▁स्कुल	-9.29874
▁थैबाय	-9.29906
बनानै	-9.29933
▁जोबनाय	-9.30085
▁खुगानिफ्राय	-9.30119
हि	-9.30162
▁दैखां	-9.30212
▁माब्लाबानो	-9.30258
▁मोखाङा	-9.30326
▁सान्नाय	-9.30728
▁बिसार	-9.30758
▁सोनाब	-9.30802
▁आसारि	-9.30866
खानाय	-9.30914
ङाव	-9.3111
▁गोहोम	-9.31135
▁ओंखारनाय	-9.31208
▁रन्जन	-9.31308
▁नार्जारी	-9.31314
▁कुमार	-9.31546
▁सोलोंथाइ	-9.31554
▁खनले	-9.31557
▁सिलागां	-9.3156
▁दौनांगौ	-9.31569
▁नोंसोरनि	-9.31575
▁चन्द्र	-9.31672
▁गाननाय	-9.31703
फ्राव	-9.31811
▁खनै	-9.31891
▁लांनानै	-9.32199
राम	-9.32518
▁खार	-9.32633
▁हानजा	-9.32849
▁गोजोननाय	-9.32887
▁जानाया	-9.32943
▁थबेन	-9.33001
▁थोर	-9.33045
जायो	-9.33111
▁आंथ	-9.33266
▁बेखेव	-9.33275
▁गैयि	-9.33295
▁अरुन	-9.33302
▁आया	-9.33312
▁लों	-9.33333
▁जिबौ	-9.33427
▁नैथि	-9.33503
जानो	-9.3354
▁जिं	-9.33545
▁ओंखायनो	-9.33566
▁हाखु	-9.3357
▁माइरं	-9.33672
▁निदान	-9.3369
▁लख्राया	-9.33752
▁ओरैनो	-9.33788
▁लाबोयो	-9.33853
▁स्नि	-9.33926
▁औवा	-9.33959
▁महरा	-9.33989
▁खानाय	-9.34254
▁3	-9.3442
▁गस्ला	-9.34451
▁संसार	-9.34528
▁सानदोंमोन	-9.3456
▁लाय	-9.34625
▁बिगोमा	-9.3464
▁लाहार	-9.34767
▁आनारीया	-9.34793
▁है	-9.34888
▁फोर	-9.34895
▁बिफाखौ	-9.34896
▁अलका	-9.349
▁गोजां	-9.34931
▁गुसु	-9.34943
▁हारिमु	-9.34958
▁बान	-9.35051
▁सोदोबखौ	-9.35052
▁मोनबा	-9.35086
▁राजखान्थि	-9.35134
जि	-9.35561
जाथाव	-9.35563
▁सैथो	-9.35575
▁बारि	-9.35577
▁बो	-9.35581
▁दंबावो	-9.3559
▁नायब्ला	-9.35617
कखौ	-9.35716
▁गुफुर	-9.35809
हालागै	-9.35824
▁बिथिङाव	-9.35834
▁फैमाल	-9.35858
दो	-9.35874
▁मोनाखिसै	-9.35881
▁बुंबावो	-9.35934
▁दोनथ	-9.3604
▁गावबुराया	-9.36096
▁बन्द	-9.36102
▁राइजोआव	-9.36141
नायखौ	-9.36153
लायो	-9.36178
▁गु	-9.36373
▁रज	-9.36402
▁फोरजा	-9.3651
▁जालांबाय	-9.36516
▁मिथि	-9.36611
▁खन	-9.36652
▁बेल	-9.36664
▁दिनैनिफ्राय	-9.36727
▁जाखां	-9.36777
खाङो	-9.36779
▁डज	-9.36873
▁मोनफ्रोम	-9.37048
▁हाल	-9.37081
▁ओंखारबाय	-9.37145
▁बिनाराम	-9.37268
▁खेव	-9.37435
▁हांखोनि	-9.37557
जोबो	-9.37561
▁धोन	-9.37783
▁फोजोब	-9.37816
▁11	-9.37845
▁मेम	-9.38044
ङो	-9.38107
▁पास	-9.38119
▁खालामनायाव	-9.38165
▁थबसि	-9.38214
▁गोख्रै	-9.38319
▁गेट	-9.38405
▁फोरमायो	-9.38554
▁आमाइ	-9.38729
▁सायाराम	-9.3873
▁बिजाबखौ	-9.38992
▁सिगारेट	-9.39004
सन	-9.39486
▁रामोन्दा	-9.39538
▁फोलेर	-9.39551
फ	-9.39566
▁रजि	-9.3957
▁नोंजों	-9.39574
▁दमना	-9.39594
यैनो	-9.39638
▁मोदाइ	-9.39673
▁अरायबो	-9.39731
लु	-9.39753
वारीया	-9.39765
▁उदु	-9.39792
▁एसेल	-9.39851
▁हेलाराम	-9.39876
ग्रि	-9.3989
▁फालो	-9.39917
▁दिनैनि	-9.39928
▁सायख	-9.3994
▁गान	-9.40263
▁मुङै	-9.40307
▁आथिङाव	-9.40309
थिङै	-9.40313
▁बेरखांदों	-9.40376
▁थाद	-9.40653
▁फोथायनाय	-9.40691
▁बिलिफांनि	-9.40817
▁नाजादोंमोन	-9.40829
▁मावनानै	-9.40928
▁गोसोयाव	-9.4094
▁आखाइनि	-9.41008
▁राज	-9.41168
▁लाइफां	-9.41168
हे	-9.41521
▁ओंखारो	-9.41572
▁हरबाय	-9.41577
▁18	-9.41605
▁सिंनिफ्राय	-9.41681
हरो	-9.41686
▁बेराम	-9.41686
▁इयुन	-9.4169
▁दैयाव	-9.41783
▁उन्दुनो	-9.41812
▁खावसे	-9.4192
▁लायै	-9.41952
▁मानसिफोरखौ	-9.41973
फिसा	-9.4205
▁महरखौ	-9.42098
▁सोरजि	-9.42114
▁रान	-9.42126
▁थैनायनि	-9.42138
▁बोराइ	-9.42205
▁मोखांखौ	-9.4223
नाथाय	-9.42345
▁बोरसि	-9.42427
▁खुरै	-9.42571
▁इन्दुप्रभा	-9.42611
बोदों	-9.42629
▁हले	-9.42637
▁आलादा	-9.42643
▁सानफ्रोमबो	-9.42659
▁नुदों	-9.42721
▁होदो	-9.42831
▁सोलायनाय	-9.4296
▁4.	-9.43013
▁आगोर	-9.43172
नोसै	-9.43192
▁थारैनो	-9.43208
▁खालामनांगौ	-9.43247
▁नखराव	-9.43368
▁सिख्लाया	-9.43393
▁गथाय	-9.43432
▁नागिरनानै	-9.43453
▁ददेरे	-9.43471
▁फु	-9.43843
बाव	-9.43982
▁खेब	-9.44039
▁जारिमिन	-9.44258
बिफा	-9.44308
बोथ	-9.44321
▁हिन्जावनि	-9.44462
खराव	-9.44483
▁जोमै	-9.44519
▁जाथायखौ	-9.44625
थाव	-9.44649
▁नाजादों	-9.44684
▁अनारि	-9.44806
▁थेर	-9.44831
▁गैला	-9.44833
▁ज्राम	-9.44974
▁असमीया	-9.44985
▁दोनो	-9.45007
▁प्रेमधरा	-9.45012
▁नंला	-9.45019
लायनाय	-9.45261
▁नङाना	-9.45386
▁आरतिया	-9.45419
▁थाग्रा	-9.45441
▁थब	-9.45471
▁गाइखेर	-9.4551
जा	-9.4575
▁मोन्नै	-9.45811
▁19	-9.45829
राव	-9.46105
जागोन	-9.46202
▁माहारि	-9.46287
▁गुलि	-9.46494
े	-9.46601
▁मोनाबिलि	-9.4676
▁गोमजोर	-9.46908
▁बिस	-9.46928
▁गिलिर	-9.46978
▁राम	-9.46988
▁लाखि	-9.4704
▁ओ	-9.47114
▁जारौ	-9.47115
▁बान्दि	-9.47142
▁बोरमा	-9.47155
▁बेबायदि	-9.47174
▁हान्जाया	-9.473
▁हांगार	-9.47333
▁मोखाङै	-9.474
▁and	-9.47435
▁कमाण्ड	-9.47442
▁बुंजायो	-9.47468
▁गोमजोरै	-9.47519
▁फारियै	-9.47558
▁समा	-9.47618
गाव	-9.47636
▁रोखोम	-9.47638
▁बाथ्रायाव	-9.47723
▁ओंथिया	-9.47751
▁लाबोनाय	-9.47904
▁लासैनो	-9.48048
▁गाखो	-9.48095
▁गोर्लै	-9.48181
▁थानांगौ	-9.48182
▁जाम्बा	-9.48186
▁मोनाब्ला	-9.48245
खर	-9.48249
▁भि	-9.48267
▁उनावसो	-9.48366
▁बाराय	-9.48413
▁नाजायो	-9.48419
▁बिब	-9.48486
▁मेलेम	-9.48651
▁रावै	-9.48676
▁बायनानै	-9.48703
▁खाथिनि	-9.48747
▁जाथायनि	-9.4875
▁जोब	-9.48822
▁लायनो	-9.48837
▁साखाथियाव	-9.48845
▁लिरगिरि	-9.48866
▁मिनिनानै	-9.48992
▁लाइफांनि	-9.49075
▁बिबारि	-9.49212
दाखु	-9.49434
▁बमा	-9.49492
▁बिहोमा	-9.49576
▁राजाया	-9.49638
▁मावरिजा	-9.49728
▁गिलु	-9.49804
▁थिं	-9.49811
▁जाना	-9.49827
▁मुलाम्फा	-9.49876
▁सानफ्रामबो	-9.49894
लायबाय	-9.49932
▁जोंरुवा	-9.49944
▁बसुमतारीनि	-9.49946
▁थुंग्रि	-9.49951
▁गं	-9.50064
▁सुबुङा	-9.5011
सार	-9.5018
प	-9.50205
▁लागोन	-9.50287
▁बख	-9.50299
▁अमला	-9.50333
▁बयनि	-9.50407
▁फिसाजोनि	-9.50423
▁थाबैनो	-9.50447
▁बाव	-9.50552
▁बायजो	-9.50555
आदा	-9.50601
▁हरदों	-9.5062
▁सानजा	-9.50623
▁मावरिया	-9.50634
▁बोयो	-9.50863
▁माखौ	-9.50935
गोनां	-9.50987
▁मुगानि	-9.51136
▁गोमा	-9.5115
▁दरजाखौ	-9.51313
▁बेरखां	-9.51329
▁खम	-9.51448
▁रंफाली	-9.51645
▁गोसा	-9.51665
▁सिनायनो	-9.51669
▁गर	-9.51692
▁नागिरनाय	-9.51711
लि	-9.51824
हैबाय	-9.51895
▁काप	-9.51944
▁मैदेर	-9.52007
न्नानै	-9.52042
▁होआ	-9.52097
▁बोसोन	-9.52101
),	-9.52132
▁सोरजिनाय	-9.52191
▁सिब	-9.52293
निखुरै	-9.52375
▁बेरेखा	-9.52387
▁राफोद	-9.5243
▁डाः	-9.52436
लिया	-9.52436
▁थांदिनि	-9.52451
▁जुदा	-9.52462
▁हाथाय	-9.52468
▁लोब	-9.52483
▁गोग्लैनाय	-9.52537
▁थिग	-9.52705
नाया	-9.52709
▁अफिसाव	-9.52789
▁मिनियो	-9.52883
▁लिरगिरिया	-9.52946
▁होन्नाय	-9.52994
▁लोंनानै	-9.53066
▁थाबनो	-9.53108
▁समाजाव	-9.53146
▁आन्दाया	-9.53164
▁बानायसो	-9.53177
▁रंजालिया	-9.53186
▁थेफेन	-9.53201
▁नाङो	-9.53235
▁दावहायाव	-9.53277
▁हरा	-9.53383
▁ददेरेखौ	-9.53414
▁बोनानै	-9.53444
▁दिहुननाय	-9.53491
▁नङाबा	-9.5354
▁फोरों	-9.53555
▁फावथाइगिरि	-9.53732
▁खोथाया	-9.53745
▁हांखोखौ	-9.53766
▁लांनाय	-9.53821
▁गिलास	-9.53836
▁मानसिफोरनि	-9.53842
▁सोंनो	-9.5386
▁फावथाइखौ	-9.53871
▁थांखिनानै	-9.54001
▁गनाय	-9.54041
▁हिन्जावा	-9.54057
▁होना	-9.54082
▁समाया	-9.54106
▁ददेरेनि	-9.54254
बोयो	-9.54364
▁दाबसे	-9.54457
▁दौ	-9.54491
▁नायै	-9.54515
फानाय	-9.54518
▁सैबारी	-9.54619
▁बुथार	-9.54628
▁खावलाय	-9.54733
▁अफिसार	-9.54807
▁आखाइजों	-9.54841
▁आजाव	-9.54885
हो	-9.54949
याखै	-9.55028
▁(2)	-9.55041
▁मोब्लिब	-9.55042
▁सन्देह	-9.55044
▁संख्रि	-9.55049
▁एम्बु	-9.55072
▁(1)	-9.55076
सानजा	-9.55449
▁थियारि	-9.55614
▁महराव	-9.55624
▁अजितखौ	-9.55641
▁इंराजी	-9.55646
▁लामाखौ	-9.55748
▁बोखां	-9.55798
▁गां	-9.55942
▁खालामब्ला	-9.56153
▁बुरै	-9.56211
▁बानजाय	-9.56344
▁गाबनानै	-9.56374
▁बन	-9.56399
▁आवथाय	-9.56409
▁देग्लाय	-9.56412
रन्जन	-9.56473
▁शान्तिनि	-9.56491
फ्ला	-9.56529
▁थाय	-9.5653
▁दुखुजों	-9.56564
▁बेफोरनि	-9.56567
▁थो	-9.56905
▁थाथ	-9.56988
▁गोराया	-9.57131
▁गरम	-9.57144
▁सिमा	-9.57178
▁भ	-9.57302
▁ओंखारनानै	-9.5751
▁ट्राइबेल	-9.57606
▁सौ	-9.57718
▁कल्पनानि	-9.57749
जानानै	-9.57819
▁खु	-9.57821
▁मनजुवा	-9.57821
▁थोंजों	-9.57852
फ्राय	-9.57957
जित	-9.58055
▁खथायाव	-9.5807
▁फोथाय	-9.58101
▁दर	-9.58134
▁समानै	-9.58137
▁गेले	-9.58176
▁6	-9.58275
▁23	-9.584
▁गोगोम	-9.58421
▁गावबुरा	-9.58429
▁दैया	-9.58437
▁लुबैया	-9.58563
▁हरनानै	-9.58648
▁4	-9.58656
▁बिजिरनाय	-9.58707
खायनो	-9.58733
▁बाहायनानै	-9.58774
▁आखुखौ	-9.58924
▁बिनहारी	-9.59019
▁इस	-9.59097
हर	-9.59229
▁अफिस	-9.59263
▁बिनिखायनो	-9.59414
थों	-9.59433
सान	-9.5949
लेण्ड	-9.59532
▁जिवा	-9.59533
▁मिनिनाय	-9.59559
▁भकत	-9.5957
▁गासे	-9.59585
गौ	-9.59641
▁नाङै	-9.59795
वाबो	-9.598
▁गुन्दाखौ	-9.59951
▁गोसोखां	-9.59966
▁कासार	-9.59975
▁बिफांनि	-9.59995
▁सोलि	-9.59998
▁ट्राक	-9.60108
▁सैया	-9.60143
▁गसं	-9.60203
.......	-9.60247
दां	-9.60254
▁जाहोन	-9.60374
▁बेरखाङो	-9.60482
▁स्रें	-9.60505
▁आखाइखौ	-9.60529
▁गोमो	-9.60533
▁......	-9.60546
▁लाबोदों	-9.60592
▁नैबे	-9.6062
▁आसा	-9.60646
▁स्रोद	-9.60649
▁होग्रा	-9.60654
▁शंकरा	-9.60688
िक	-9.60702
▁जायाखिसै	-9.60721
▁नेर्सोन	-9.60742
▁आखलखौ	-9.60825
▁देरहाग्राया	-9.60833
▁इं	-9.60853
▁?'	-9.61059
▁गुर	-9.61102
▁जालां	-9.61167
▁गोबानानै	-9.61257
▁मीनारामा	-9.61351
▁प्रग्राम	-9.61371
▁क्लास	-9.61385
▁फंसेबो	-9.61398
▁उननि	-9.61437
▁गावसोर	-9.61457
▁आसामाव	-9.6153
▁फैदोंमोन	-9.61572
▁दुब	-9.6164
▁दैदेनगिरि	-9.61641
▁खुदिया	-9.61642
▁बेगर	-9.61813
▁हायोब्ला	-9.61851
▁इसिं	-9.61917
▁सोदोबथि	-9.61961
▁गेवलां	-9.61962
फुनाय	-9.61981
▁थावनि	-9.61985
▁सिलाइ	-9.62129
▁ने	-9.62219
▁नुवा	-9.6228
e	-9.62339
▁नार्जा	-9.62568
▁आन्दा	-9.6257
▁16	-9.62708
फाथै	-9.62888
▁फे	-9.62975
▁हमदों	-9.63039
▁गाबज्रि	-9.63089
जोब्बाय	-9.63146
▁लांदां	-9.63328
▁साबायखर	-9.63336
▁गरन्थ	-9.63371
▁फाफ्लियाव	-9.63383
▁महनलाला	-9.63394
▁जिरायनाय	-9.63448
लांनाय	-9.63526
▁बैसो	-9.63599
▁दिखांनानै	-9.63766
▁बेसाद	-9.63791
हायै	-9.63819
▁अलकाया	-9.63931
▁गाखोनानै	-9.63947
फायो	-9.64012
▁सुबुंसाइ	-9.64109
▁बुंब्ला	-9.64243
▁सोब	-9.64253
लांनो	-9.64268
मोनब्लाबो	-9.64268
▁बेखौबो	-9.64307
▁सुबुंफोरा	-9.64409
▁बाथौ	-9.64417
▁बामुन	-9.64469
▁मावथि	-9.64471
ाखै	-9.64515
▁पुलिसनि	-9.64537
▁खथा	-9.64702
▁नायगिर	-9.6472
▁दिन्थिनानै	-9.64731
▁आखाय	-9.64764
▁बुंना	-9.64824
▁मेगननिफ्राय	-9.64847
▁गोलै	-9.64903
▁बानजायनाय	-9.64939
▁हामा	-9.64943
▁फुन	-9.64946
हाबो	-9.64948
▁सारि	-9.65007
r	-9.65017
▁गावसोरनि	-9.65035
▁रावनिबो	-9.65114
▁आंनाव	-9.65117
ु	-9.65159
▁दार	-9.65203
▁गारनो	-9.65303
सिगोन	-9.65356
▁फैसालि	-9.65435
▁सालिस	-9.65544
▁खफ	-9.65551
▁बिगियान	-9.65611
▁ननि	-9.65671
▁बुंस	-9.65827
▁खिन्थि	-9.65886
▁आल	-9.65897
ेश्वर	-9.65909
▁गसाइ	-9.65917
▁खौसे	-9.65942
▁थिउरियाफोर	-9.65958
▁जिब	-9.65962
▁जात्रा	-9.65971
ह	-9.66128
▁जाथों	-9.66206
▁सेरजा	-9.66215
▁जाहाथे	-9.66247
▁एफाग्राब	-9.66251
▁जाउनाव	-9.66259
▁सिनेमा	-9.66263
▁निजोम	-9.66268
▁डेभिद	-9.66287
▁आफानि	-9.66288
▁दुइ	-9.66293
▁फरायसालियाव	-9.66401
▁अनिमाया	-9.6641
▁मोन्नो	-9.66425
▁हमथा	-9.66425
▁हालिया	-9.66455
▁रे	-9.66473
▁सना	-9.66566
▁लाइमोन	-9.66602
▁खाम	-9.66619
▁लेब	-9.66657
▁लांगोना	-9.66698
▁मोनजाया	-9.66826
▁आइयै	-9.66846
▁मेगनजों	-9.66858
▁बोरायनि	-9.66881
▁उन्दुग्रा	-9.66911
(	-9.6706
श	-9.67064
}	-9.67202
ष्ट	-9.67282
▁लानायनि	-9.67298
▁फाइल	-9.67344
▁मेल	-9.67457
▁जाम्बि	-9.67501
▁हमनाय	-9.67521
▁कलि	-9.67523
▁थायोब्ला	-9.67548
▁दोन्	-9.67551
▁बाला	-9.67767
t	-9.67782
जोबनो	-9.67822
▁देरहाग्रा	-9.67831
▁खालामदोंमोन	-9.67854
▁मे	-9.67859
▁मो	-9.67927
▁.........	-9.68069
थाम	-9.68128
▁दानस	-9.68133
▁जाहार	-9.6815
▁एंगार	-9.68408
▁खुगाजों	-9.68408
▁लिंहर	-9.68414
▁बोसोराव	-9.6843
▁साननाया	-9.68472
▁हिन्जावखौ	-9.68583
नङा	-9.68594
▁च	-9.68693
▁सुशान्तवा	-9.68714
▁सिलाराम	-9.68728
स्रि	-9.68793
▁देहाया	-9.68862
कनि	-9.68877
▁डिस्क	-9.68914
▁दावबाय	-9.68988
▁सालि	-9.6903
▁सानथौ	-9.69109
ed	-9.69196
▁लं	-9.69204
जाय	-9.69216
▁24	-9.69231
▁नोङो	-9.69259
▁लोङो	-9.69267
▁to	-9.69281
▁आगु	-9.69296
▁अन्थाइ	-9.69333
▁गुसुं	-9.69351
▁मोनथि	-9.69368
▁होनांगोन	-9.69369
▁बुजिबाय	-9.69374
▁होफैयो	-9.69375
▁आइजोआ	-9.69411
मार	-9.69414
▁नुवाखै	-9.69449
▁दाम	-9.69484
▁फारसेथिं	-9.69512
बेबा	-9.69559
▁एसेयावनो	-9.69616
▁हिन्जावसा	-9.69679
रे	-9.69697
▁ब्रह्मवा	-9.6981
▁सान्दोंमोन	-9.69843
▁फावथिनानि	-9.69903
▁गुबैयै	-9.69983
▁.....	-9.70014
▁नन्द	-9.70057
▁अनसाय	-9.70074
▁सायारामा	-9.70076
▁कम्पिउटारखौ	-9.70199
▁जाखांनानै	-9.70204
▁बाहायो	-9.70457
डि	-9.70555
▁बुङा	-9.70611
▁मिथिंगानि	-9.7062
▁सुजुग्रा	-9.70883
▁थानाया	-9.70916
▁अजा	-9.71032
▁लामानि	-9.71045
नंगौ	-9.71057
▁दिहुननो	-9.71059
▁गोहोखौ	-9.71176
▁नांनो	-9.71195
▁बांला	-9.71268
छा	-9.71448
▁मानसिजों	-9.71514
▁होखार	-9.71531
मोननि	-9.71538
▁जौगा	-9.71556
▁अरखि	-9.71636
▁फिसाइनि	-9.71641
▁सुर	-9.71655
▁लिरनो	-9.71767
▁नागार	-9.71882
सानराय	-9.71916
▁फुजा	-9.71971
▁गारिखौ	-9.71974
▁गंनै	-9.72113
यालाय	-9.72114
▁रोंगौ	-9.72151
▁गोरिब	-9.72217
▁गोथाव	-9.72222
▁बारनानै	-9.72275
▁मन्जु	-9.72289
▁आबुङै	-9.72367
▁ब्लद	-9.72368
▁मोसानाय	-9.7237
▁(3)	-9.72378
▁खोब	-9.72395
▁फेस्ला	-9.72405
थु	-9.72419
▁फावथाया	-9.72436
▁आग्रां	-9.72454
▁गोखा	-9.72455
▁बैसोआ	-9.72476
▁बांसिनानो	-9.72491
▁गिलुं	-9.72503
▁बिथिं	-9.72529
▁जालाङो	-9.72535
▁फैयाखै	-9.72564
▁is	-9.72596
▁फान	-9.7261
▁दोनबाय	-9.72733
▁राइजोफ्रा	-9.72766
▁you	-9.7293
▁बिहाव	-9.7306
▁दुं	-9.73089
▁होफै	-9.73099
▁दखना	-9.73158
▁उदैयाव	-9.73169
▁सिलानि	-9.73268
▁जेखौ	-9.73511
▁रादाब	-9.73516
▁हमथानो	-9.73527
एसेयाव	-9.73816
▁रा	-9.73836
▁बेदद	-9.73935
▁मिथिहो	-9.7407
▁माबादि	-9.7412
▁जाथाइखौ	-9.74141
▁निफ्राय	-9.74226
▁रौ	-9.743
थाइ	-9.74303
आइ	-9.74337
▁सानथाम	-9.7437
▁एमाव	-9.74572
▁दु	-9.74592
▁थान्दै	-9.74601
▁शान्ति	-9.74601
▁साथाम	-9.74634
▁आमाय	-9.74671
▁खोनासंनो	-9.74711
▁खालामनाया	-9.74744
▁;	-9.74752
▁गावथार	-9.74785
▁C	-9.74836
▁मोदोमनि	-9.74891
▁खोना	-9.74959
▁मोन्नायनि	-9.75031
▁लोरबां	-9.75159
▁खब	-9.75201
▁नम्बर	-9.75211
▁गेलेनाय	-9.75276
फोराबो	-9.75328
▁दुम	-9.7533
▁21	-9.75379
नाङो	-9.75385
▁ब्रै	-9.75421
रौ	-9.75476
▁कल्पनाखौ	-9.75477
▁गोलाउ	-9.75558
▁एखनब्ला	-9.75565
▁अनुलेखा	-9.75571
▁फरायो	-9.7561
▁खनसाय	-9.75622
▁मुवाफोर	-9.75644
▁गाबदों	-9.75645
▁होलाङो	-9.75655
▁दोनदों	-9.75671
▁बथल	-9.75735
▁जेंनाखौ	-9.75773
▁मुगा	-9.75815
ेन्द्र	-9.75842
▁दरखं	-9.75849
▁सुमिलाया	-9.75883
▁गोमोथाव	-9.75901
▁फैलाव	-9.75942
▁5.	-9.75946
बालानो	-9.75947
▁25	-9.75981
▁गोजोनै	-9.76061
▁थं	-9.76063
▁गाजा	-9.7608
▁समायस्री	-9.76158
▁बांगाल	-9.76163
▁बुजिनो	-9.76178
▁जोबबाय	-9.7626
▁सोरबाफोर	-9.7628
▁दिल्ली	-9.76342
▁खैफोदाव	-9.76374
▁लख्रानि	-9.76453
▁गाबनो	-9.76468
▁दंखायो	-9.76486
▁गेव	-9.76488
▁सोदोबा	-9.76573
▁दरबासि	-9.76581
▁तुलारामा	-9.76618
▁बेलासि	-9.76787
▁लैथो	-9.76836
▁थांखिया	-9.76932
▁फालि	-9.76978
▁बुङै	-9.77087
िया	-9.77111
▁जागौमोन	-9.77125
बानो	-9.77273
▁दंना	-9.7729
होयो	-9.77311
▁बिथांखि	-9.77452
▁जौमोन	-9.77467
▁कि	-9.77476
▁गाहामै	-9.77487
▁अफिसनि	-9.77549
▁मेम्बर	-9.7774
▁बेमारि	-9.77862
▁दाफोदार	-9.77906
▁जाब	-9.78223
▁मनजुलाया	-9.78282
मोनब्ला	-9.78298
▁खाथियावनो	-9.78326
▁थाखोमा	-9.78345
▁सानैनि	-9.78415
▁स्रा	-9.78458
▁देरा	-9.78533
सिं	-9.78552
ानै	-9.78564
▁ओंखारदों	-9.78603
▁कमिटि	-9.78676
ेल	-9.78681
▁भारतनि	-9.78682
▁22	-9.78696
▁13	-9.78719
▁जेकेट	-9.78741
▁खामफ्लाय	-9.78767
▁अनसुला	-9.78775
▁रुमनि	-9.78813
▁साम	-9.7882
▁थ्रोब	-9.78854
▁बयखौबो	-9.78873
▁खुलि	-9.78877
▁गिलिद	-9.78898
▁लिरदों	-9.78903
▁रथ	-9.78907
▁रोनाव	-9.7892
▁गसङो	-9.78931
▁बाथुवाया	-9.7895
▁नाजा	-9.78964
▁..	-9.78988
▁बानानै	-9.78998
▁होनायाव	-9.7901
▁फाहामसालियाव	-9.79046
▁खाजा	-9.79061
▁नुदोंमोन	-9.79151
▁फाफ	-9.79173
▁साल	-9.79177
▁गब	-9.79224
▁मुगायाव	-9.79293
▁सियाला	-9.79322
▁बाबुवा	-9.79333
▁{-	-9.79357
▁रबिबार	-9.79393
▁I	-9.79405
▁नागारनानै	-9.79473
▁सोरखारा	-9.79551
▁जुजि	-9.79569
▁खिन्थानो	-9.79673
▁हाव	-9.79756
▁लामाया	-9.79781
▁देगार	-9.79838
▁रायलायनाय	-9.79937
▁लुनानै	-9.79983
▁थैयो	-9.80002
बिफानि	-9.80048
▁देरहासार	-9.80051
▁17	-9.801
▁बुनानै	-9.8012
▁खरसा	-9.80124
▁फिननाय	-9.80126
▁बायनो	-9.80137
▁जोंथि	-9.80175
▁होयै	-9.80204
▁सानाय	-9.80239
▁रिंगा	-9.80258
▁नोमा	-9.8036
▁खोला	-9.80411
▁खोन्दो	-9.80522
▁थांलाय	-9.80525
▁लोगोआव	-9.80555
▁जारिमिनखौ	-9.80557
▁गारिनि	-9.80582
▁जिनिस	-9.80697
▁ओइ	-9.80764
जौ	-9.80824
▁कासारनि	-9.80916
▁मानसिफोर	-9.81043
▁दाब	-9.8109
▁हमना	-9.81106
▁ओरै	-9.81136
▁रावखान्थि	-9.81155
▁नुहर	-9.81214
▁सोमदोन	-9.8131
▁बिब्दिब्ला	-9.81326
▁रायज्लाय	-9.8137
▁जिबा	-9.8139
▁सिबि	-9.81399
नां	-9.8145
इं	-9.81499
▁आनारामा	-9.81538
▁दाया	-9.8157
▁बाजुराम	-9.81692
▁सेख	-9.81703
▁लाजिनाय	-9.81729
आरो	-9.81911
▁नुब्ला	-9.81913
लाम	-9.81936
▁गिज्रा	-9.81983
▁फरायसालिनि	-9.82199
▁गियो	-9.82206
▁दोहोरोम	-9.82274
▁अख्राङाव	-9.82279
मुं	-9.82282
▁रोमै	-9.82315
▁हादोरगिरि	-9.8232
▁माखन	-9.82338
▁सरखार	-9.82346
▁दिन्थिदों	-9.8235
▁उसाव	-9.82367
खांनायनि	-9.82378
सु	-9.8243
▁गोहोआ	-9.82531
▁हाजासे	-9.82548
▁जोंनानै	-9.82561
▁हायि	-9.82616
▁मोदोमखौ	-9.82726
▁हाबिला	-9.82727
.........	-9.82741
▁बिसिनायाव	-9.82754
▁हायाखैमोन	-9.82812
▁जोबनो	-9.8285
▁दर्बासि	-9.82885
▁दासिम	-9.82942
▁खनायाव	-9.82943
▁दानसे	-9.82972
▁हागौमोन	-9.83031
▁बावदियानि	-9.83038
▁उसु	-9.83068
▁हानो	-9.83086
▁एबसुनि	-9.83201
▁नागिरदोंमोन	-9.83349
▁जालाय	-9.83471
▁मन्जुखौ	-9.83484
▁बाथि	-9.83572
▁गलाय	-9.83595
▁फोसावनाय	-9.83607
▁बिथ	-9.8362
▁सिखा	-9.83666
▁राइजोफोरा	-9.83672
▁अनाथीया	-9.83785
▁बिसोरबो	-9.83797
▁सोद्रोमा	-9.83943
▁नायजाबाव	-9.83978
▁फोजोबनो	-9.8398
▁गोनांदि	-9.84008
▁सामलाय	-9.84067
▁खाव	-9.84159
सिनो	-9.84187
▁दिनैबो	-9.84214
▁बारनाय	-9.84259
▁S	-9.84286
▁सोरजों	-9.84382
▁घन्टा	-9.84388
▁थाल	-9.84396
होबाय	-9.8447
▁बहन	-9.84504
▁नङालै	-9.84737
आरि	-9.84839
▁हामो	-9.84877
▁हाखर	-9.84925
▁सेथि	-9.85035
▁गेदेमा	-9.85086
▁सावरायनाय	-9.85089
▁दाग	-9.85259
▁थिनहर	-9.85289
सान्दो	-9.85323
होनाय	-9.85366
लायखो	-9.85384
▁बिदिन्थि	-9.85395
▁बिबानखौ	-9.8545
▁फाराग	-9.85452
▁फुं	-9.85513
माखौ	-9.85527
ब्रै	-9.85568
▁सानैया	-9.85609
▁फुदुं	-9.85616
▁दैमानि	-9.85678
▁अरखिया	-9.85702
लेण्डनि	-9.85709
▁थाखा	-9.85718
▁दालाइ	-9.85731
▁बेबो	-9.85769
ust	-9.85813
▁खास्रि	-9.85831
▁बारान्दायाव	-9.85832
▁एसेग्राब	-9.85835
▁दैनि	-9.85837
▁गिथाव	-9.85847
▁बुंनायसाय	-9.85859
▁फाथो	-9.85875
▁जोङो	-9.85885
▁खै	-9.85905
▁ओंखारबोयो	-9.85907
▁मिथिंगा	-9.85908
▁नेबाय	-9.85934
▁जेसे	-9.85968
▁थानांगोन	-9.85973
▁फोथाराव	-9.85995
▁हुगारो	-9.86006
▁मोनब्रै	-9.86026
▁बेवहायनो	-9.8608
▁सिखारो	-9.86181
▁दंसै	-9.86212
▁नायहरबाय	-9.86222
▁जेनबा	-9.86231
▁मेलाव	-9.86236
▁सिमान	-9.86312
▁बाराद्राय	-9.86339
बाथाय	-9.86364
▁हायना	-9.864
▁रजिया	-9.86438
▁आलाइनि	-9.86469
▁हमथानानै	-9.86496
▁बाटन	-9.86521
ावनो	-9.86542
▁साजों	-9.8655
▁लाव	-9.86561
▁दालाय	-9.86572
▁सिबिनाय	-9.86628
▁गावबो	-9.8664
जोबनानै	-9.86666
▁लोंबाय	-9.86812
▁उजि	-9.86832
▁बुहुमनि	-9.8692
▁अन्दर	-9.86978
▁आइनि	-9.86979
▁आदार	-9.87004
▁बाथ्रानि	-9.87073
▁सुनि	-9.87084
▁जायफोर	-9.87116
▁थानायखौ	-9.87169
फ्रोमबो	-9.8719
▁केस	-9.87262
▁रेजें	-9.87361
▁नोंसोरखौ	-9.87373
▁ई	-9.87455
▁दोन्नाय	-9.8756
▁बायनाय	-9.87711
▁सियाल	-9.87737
▁खिरखि	-9.87782
▁नोंथ	-9.87901
▁गोगो	-9.87914
▁थांनायाव	-9.8792
▁रायजो	-9.88047
▁सेन्देल	-9.88102
▁खुलुम	-9.88144
▁फिसाइखौ	-9.88152
▁प्लट	-9.88225
▁मावख	-9.88243
खोमा	-9.88256
▁गे	-9.88337
▁फोरमायनो	-9.88497
▁मोगा	-9.8855
▁मोननाया	-9.8877
▁नागिरब्ला	-9.88914
▁नेरसोन	-9.89014
A	-9.8904
▁जोंबो	-9.89053
▁ओंखारबो	-9.89126
▁14	-9.89194
▁बिसोरनो	-9.89237
▁दिनैसो	-9.89276
▁बाद	-9.8928
▁बसुमतारि	-9.89332
खौसो	-9.89415
▁खायदा	-9.89433
▁सेनापति	-9.89482
▁बेखेवगास्नि	-9.89485
▁सुदेम	-9.89486
▁आच्	-9.89497
▁निस्थार	-9.89501
मोगि	-9.89522
लाइ	-9.8953
▁ऊ	-9.89542
▁दाद्रि	-9.89548
▁सानाखैमोन	-9.89551
▁त	-9.89559
▁बुंहरो	-9.89564
▁खेबनै	-9.89578
▁गोथे	-9.89609
▁दासान	-9.89616
आफा	-9.89634
▁टाउनाव	-9.89703
▁7	-9.89712
▁मथे	-9.8973
▁साननैसो	-9.89752
▁गुन्दानि	-9.89796
▁फावथाइगिरिया	-9.89833
▁मोन्नाया	-9.89849
थिया	-9.89908
▁बिसिया	-9.89909
▁हादोर	-9.89993
▁एइ	-9.90007
▁हुगारनानै	-9.9002
▁सिलाया	-9.9007
▁जाहोनाव	-9.90074
▁बुब्लियाव	-9.90092
▁बुन्दा	-9.90098
▁बेन्दों	-9.90132
▁बसुमतारीया	-9.9016
▁लाया	-9.90177
▁लांदों	-9.9031
▁गाग्लोबनाय	-9.90375
▁दावा	-9.90391
▁फारनै	-9.90461
ार	-9.90496
▁मिथिनानै	-9.90521
थौ	-9.90546
जोबबाय	-9.90574
ैनो	-9.90594
मान	-9.90647
▁देवान	-9.90763
▁एर	-9.90796
▁मेनेजार	-9.90817
▁बेंगा	-9.90881
▁थांखो	-9.90934
▁समाजा	-9.91058
▁थैया	-9.91116
▁गुदियाव	-9.91161
▁बायदियै	-9.91179
▁सालाय	-9.91206
▁थर	-9.913
▁आहार	-9.91337
▁जान्जि	-9.91421
▁सान्दुं	-9.91536
▁हुगार	-9.91553
▁राणी	-9.91583
▁मोख्रा	-9.91614
▁सिफाय	-9.91715
▁आलाइखौ	-9.91738
▁हुदा	-9.91785
ल्ड	-9.91987
▁जेना	-9.91995
▁रांजों	-9.92008
▁ध	-9.92072
▁बिलो	-9.92092
▁जाबा	-9.92119
दाहा	-9.92159
▁थैखौ	-9.92167
▁फुंखा	-9.92173
▁हरसे	-9.92205
▁सोमजिनाय	-9.92206
▁सान्नाया	-9.92207
▁लाखिनाय	-9.92234
▁संसारनि	-9.92317
▁दांनाय	-9.9233
▁कम्पिउटारा	-9.92337
▁थाइजा	-9.92373
लायनो	-9.92475
▁जौगानाय	-9.92544
▁माइनाव	-9.92544
▁नोंसिनि	-9.9259
सिङाव	-9.92635
▁आलाइस्रिखौ	-9.92673
▁सानथ्रि	-9.92705
▁फोरमायथि	-9.92796
च	-9.92812
▁मोनथाय	-9.9283
▁अफ	-9.92874
▁कलेजनि	-9.92954
▁मथर	-9.93012
▁थांफा	-9.93038
▁नेहाथारि	-9.9304
▁बास	-9.93074
फिन्नो	-9.93257
▁होम्बा	-9.93261
▁परिषद	-9.93291
▁अनसुंथाइ	-9.93291
▁लो	-9.93292
▁दुपसावफा	-9.93309
▁बैसागु	-9.93325
▁आनारीखौ	-9.93329
▁बिबुंथि	-9.93335
▁गंफा	-9.93337
▁लेंग्रा	-9.93343
▁भारा	-9.93356
▁गोबारै	-9.93361
ug	-9.9337
▁दावहानि	-9.93371
स्रां	-9.93399
▁दोननो	-9.93406
▁बुंलाङो	-9.93416
▁बुंफिनो	-9.93425
▁दामनाय	-9.93432
▁नवा	-9.9344
--"	-9.93464
▁जोमैया	-9.93478
▁जालांदों	-9.93506
▁उल्था	-9.93517
▁सुरो	-9.93597
▁सान्नो	-9.93666
▁जायगानि	-9.93696
▁नङाब्लाबो	-9.93741
▁लिरो	-9.93769
▁मोनाबिलियाव	-9.9378
▁हरबिलासा	-9.93817
▁बहाबा	-9.93819
लोंनाय	-9.93822
ाखिसै	-9.93839
▁फरायसाफोर	-9.93845
▁गिनो	-9.93855
▁सुरनानै	-9.93941
▁बिर	-9.93963
▁सुफुंनो	-9.93985
▁हौवासा	-9.94027
▁हेलारामा	-9.94028
▁मोब्लावा	-9.94034
▁नुथाय	-9.94086
▁महरनि	-9.94109
▁खालामग्रा	-9.9411
▁आवगायाव	-9.94114
▁अट	-9.94126
▁होसो	-9.94134
▁8	-9.94197
▁जान	-9.9422
नोबो	-9.94337
हाब	-9.94344
रु	-9.94392
▁बिबारनि	-9.94453
▁आफादाव	-9.94462
▁अजित	-9.94603
▁बिखाय	-9.94689
▁बेथ	-9.947
▁गोर	-9.94783
▁जोंनाव	-9.9479
▁जेकेटखौ	-9.94805
दिया	-9.94843
▁सेंग्राफोर	-9.94961
▁कक्राझार	-9.94994
▁फरायनानै	-9.95153
▁गद	-9.95365
▁मेला	-9.9547
▁सुवा	-9.95478
▁सोलायनानै	-9.95595
▁थिउरिया	-9.95629
जेन	-9.95661
▁लिरगिरिनि	-9.95811
▁अनजिमा	-9.95862
▁शंकर	-9.96018
▁थैनो	-9.96087
ता	-9.96104
▁नालाय	-9.9621
▁जिराद	-9.96236
▁नुना	-9.9627
▁दाइन	-9.96283
▁फरायग्रा	-9.96344
▁साननि	-9.96384
▁किउरि	-9.96405
▁जांख्रिथाइ	-9.9641
▁D	-9.96437
▁उन्दुनाय	-9.96446
▁सफा	-9.96467
▁ड्र	-9.96725
▁साया	-9.96752
▁गांनै	-9.9683
▁दायनिगिरि	-9.96856
▁साब	-9.96903
▁लाइन	-9.96942
▁सालाइ	-9.96944
▁आलाय	-9.9695
फिनबाय	-9.96956
▁सिगाङावनो	-9.96973
▁सोंलु	-9.96985
▁गाबख	-9.97064
▁नांलाय	-9.97179
▁नागिरनो	-9.97224
~	-9.97252
▁जथुम्मा	-9.97252
▁बिसायख	-9.97257
▁नंगुबै	-9.9726
▁मुश्री	-9.97269
▁हुजुर	-9.97276
▁बेखेवगानै	-9.97279
▁सरासनस्रायै	-9.97279
▁आनान	-9.97285
▁जायखिजाया	-9.97288
▁थागिबि	-9.97292
▁दैथुन	-9.97305
▁थिलियाव	-9.97329
▁बांद्राय	-9.97355
▁नुजागोन	-9.97384
▁राइजोफोरनि	-9.97385
बै	-9.97458
▁ख्रे	-9.97462
▁लानांगौ	-9.97493
▁बुंनांगौ	-9.97495
▁नरेशा	-9.97519
▁नायगोन	-9.97523
▁मावदों	-9.9753
▁खालामबावनो	-9.97563
▁हाला	-9.97581
▁ओहो	-9.97595
▁मोखांजों	-9.97631
▁दिल्लीयाव	-9.97692
▁लांगोनायाव	-9.97772
▁बोब्ला	-9.97777
▁सिगांआव	-9.97847
▁जाफुं	-9.97878
▁साह	-9.97884
▁सैनाय	-9.97907
▁बारियाव	-9.97929
▁थिन	-9.97941
▁नायोब्ला	-9.97967
▁गोजाव	-9.97997
▁30	-9.98052
▁बाथ्राखौनो	-9.98135
▁होनायसै	-9.98154
▁अलकाखौ	-9.98161
▁मावनायनि	-9.98301
▁नोगोर	-9.98368
▁मुंराइ	-9.98407
▁बानायनाय	-9.9845
▁बेलाय	-9.98482
▁नाजानायाव	-9.98582
जादों	-9.98594
▁नोंथांखौ	-9.9865
▁गदाय	-9.98681
नांबाय	-9.98681
▁दायखौ	-9.98692
▁बेलस्रिया	-9.98779
▁होबथा	-9.98797
▁मिथियो	-9.98898
▁एखनब	-9.98929
▁थांदोंमोन	-9.99286
▁थेफेनखौ	-9.99302
▁आखाइनिफ्राय	-9.99363
▁गाथाम	-9.99391
खिसै	-9.99411
गौमोन	-9.99439
आलाइस्रि	-9.99443
▁गाबनि	-9.99453
▁सारिनि	-9.99459
खरनि	-9.99467
▁मानै	-9.99538
▁कु	-9.99631
▁जन	-9.99648
▁मोनखो	-9.99671
▁दैदेनगिरिफोर	-9.99676
▁लोमजा	-9.99691
▁आगदा	-9.99736
▁बाथ्राफोरखौ	-9.99791
▁थिख	-9.99852
▁मारि	-9.99886
▁गान्नाय	-9.99951
▁हेमलेट	-9.99954
नोबा	-9.99969
▁मावजि	-9.99981
▁उन्दैनिफ्राय	-9.99998
जाब	-10.0001
▁मावफुं	-10.0004
▁क्र	-10.0005
▁रु	-10.0005
▁दानायाव	-10.0013
▁बिदिन्था	-10.0026
▁आखलनि	-10.0029
▁बाना	-10.003
▁दानाव	-10.0034
▁सिगांनि	-10.0036
▁फिसाफोरखौ	-10.0037
▁दस्रा	-10.0037
▁राइजोआ	-10.0044
▁गो	-10.0052
▁होनाया	-10.0052
▁हादोंमोन	-10.0053
▁गारांजों	-10.0054
▁दाजाबनाय	-10.0065
▁थामथि	-10.0068
▁-"	-10.0073
▁मेंनाय	-10.0084
▁बिसोरजों	-10.0084
▁सेनानै	-10.0085
▁बाजियाव	-10.01
▁बोखार	-10.0118
▁बिसिना	-10.0119
▁मिहिरनि	-10.0121
▁सरकार	-10.0131
▁दुंहाव	-10.0139
▁दासान्दि	-10.014
▁आद्रा	-10.014
▁पज	-10.0142
▁मेट्रिक	-10.0143
▁संगालि	-10.0144
▁थुनलायाव	-10.0144
▁लुबैदों	-10.0146
▁लोङै	-10.0149
▁हमनायसै	-10.015
▁जासुला	-10.0153
▁हान्जानि	-10.0156
▁।"	-10.0156
▁साजाय	-10.0161
▁सिथ्लायाव	-10.0163
▁दिउ	-10.0163
▁जासिगोन	-10.0164
▁इंराजि	-10.0164
▁महना	-10.0166
▁फो	-10.0168
▁मिथिनाय	-10.017
▁खिन्थायो	-10.017
▁फाहार	-10.0176
▁उदुराम	-10.0176
▁सांग्रांथि	-10.0177
▁गोजों	-10.0182
▁बेसेबांबा	-10.0182
▁देर	-10.0186
▁मोनसेया	-10.0189
▁फिफा	-10.0191
▁मादै	-10.0193
▁दावबायनाय	-10.0196
▁बागान	-10.0201
▁लारि	-10.0202
लांदों	-10.0204
साइ	-10.0204
▁गानै	-10.0207
▁फोसाबनाय	-10.021
ुदि	-10.0217
▁नाम	-10.022
ति	-10.0226
▁बबेनिफ्राय	-10.0233
▁माला	-10.0235
▁खारखोमा	-10.0241
▁मनजु	-10.0245
▁थगाय	-10.0247
▁लाइ	-10.0247
▁जाहोनो	-10.0251
▁अखानाय	-10.0256
▁बबेयाव	-10.0258
▁शान्तिखौ	-10.0261
▁नोंथांमोन	-10.0265
आंनि	-10.0266
▁The	-10.0268
▁दाजाबदाखौ	-10.0269
▁दांनानै	-10.027
▁हिन्दु	-10.0281
▁नायग्रा	-10.0285
▁हादराव	-10.0287
▁हिसाब	-10.0289
▁लेङा	-10.0291
▁बाजार	-10.0291
▁इंराज	-10.0298
▁मोननि	-10.031
ारी	-10.0312
▁खुंनाय	-10.0316
▁कमाण्डखौ	-10.0328
▁रोन	-10.0344
▁गिया	-10.0355
▁अक्टबर	-10.0363
▁मलेनजों	-10.0363
▁लाइट	-10.0364
▁गिबियाव	-10.0367
▁सानैसो	-10.0372
▁एम्फौ	-10.0375
▁दिहुन्	-10.0376
▁बिसिनि	-10.0378
▁गोसोवाव	-10.0378
▁देहायाव	-10.0383
▁माहारिया	-10.0384
▁बासि	-10.0387
▁रहेला	-10.0402
al	-10.0406
जोब	-10.0408
▁खानाइखौ	-10.0412
▁मोदोमा	-10.0418
▁.......	-10.0422
▁इनफरमेसन	-10.0456
▁।।	-10.0456
▁जाखांनाय	-10.0458
▁होन	-10.046
होदों	-10.0463
योब्ला	-10.0475
▁मोदैया	-10.0477
▁मेडाम	-10.048
▁बारस	-10.0483
▁थफी	-10.0494
▁लाइजामा	-10.05
▁हालोद	-10.0505
▁सिम	-10.0507
नोंथाङा	-10.0513
▁माना	-10.0516
▁गिनांगौ	-10.0516
▁संनाय	-10.0521
▁ट	-10.0521
▁जासे	-10.053
बियो	-10.0533
▁सुनाय	-10.054
▁हाइ	-10.0543
गोदान	-10.055
▁थालानि	-10.055
▁लुबै	-10.0553
▁फुथु	-10.0554
▁जयै	-10.0558
▁दुगा	-10.0558
▁नालिस	-10.0562
▁सोंदों	-10.0563
▁अक्ट	-10.0567
▁देवानि	-10.0568
▁गोदाव	-10.0568
▁मंगलसिं	-10.0569
▁खुन्दुं	-10.0569
▁अगेन	-10.0571
▁मनिपुर	-10.0571
▁बेखेवगासे	-10.0572
▁गैयाब्लाबो	-10.0572
▁डाइरेक्टरि	-10.0573
▁थाना	-10.0574
▁मोदैखौ	-10.0575
▁अरहे	-10.0575
▁हामफे	-10.0576
खांबाय	-10.0576
▁खबरदार	-10.0577
▁बासा	-10.0578
▁समाजारि	-10.0578
▁आइया	-10.0588
▁मिथिखा	-10.059
▁फुल	-10.0591
▁नाजाबाय	-10.0593
गथ	-10.0594
नायबादि	-10.0594
▁हटेलाव	-10.0594
▁गंस्रिनानै	-10.0597
▁बावदा	-10.0599
▁दामै	-10.0601
▁अक्सिन	-10.0601
▁फैगासिनो	-10.0602
▁मोथो	-10.0602
▁गोनांथार	-10.0605
▁खिबु	-10.0605
▁जाथोंसै	-10.0605
▁हालुवा	-10.0607
कल्पना	-10.0618
▁थामथिम	-10.0618
▁अब	-10.063
गैया	-10.0634
▁फिसाजोआ	-10.064
▁6.	-10.064
▁नुगोन	-10.0647
▁समखौ	-10.065
▁मंगल	-10.0653
▁अनिल	-10.067
जोम	-10.0672
▁बबेनि	-10.0676
▁in	-10.0676
ंनि	-10.0682
▁अरा	-10.0692
!	-10.0705
▁गुदुंजों	-10.0707
नाङा	-10.0719
▁थारै	-10.072
▁केसखौ	-10.0722
▁बेग	-10.0733
▁मोनग्रा	-10.0747
▁जानायसै	-10.0748
▁बायो	-10.0751
▁होनबा	-10.0753
▁हाबफै	-10.0755
ख्रं	-10.0767
ing	-10.0772
▁मुखुब	-10.0776
ली	-10.0788
▁सोमजि	-10.0798
राजा	-10.0802
▁दाकात	-10.0807
▁दायो	-10.0813
▁गांनाय	-10.0821
▁सावथाल	-10.083
▁हाबहै	-10.0831
▁बुङाखै	-10.0839
▁जौवा	-10.0842
▁........	-10.0844
▁बिबु	-10.085
▁आलि	-10.0852
▁बिखुं	-10.0852
▁बुजाय	-10.0852
बोबाय	-10.0853
▁बोनो	-10.0854
▁हारसिंनो	-10.0863
▁माष्टार	-10.0864
▁इन्टारनेट	-10.0866
▁हांखोआ	-10.0869
▁गासैखौ	-10.0873
▁फोलाव	-10.0876
▁सिमाङाव	-10.0878
ोहै	-10.0881
▁गावो	-10.0881
▁सेंग्राफोरा	-10.0882
▁बादा	-10.0883
▁मोजाङैनो	-10.0885
▁दाबा	-10.0887
▁लुबैनायखौ	-10.0889
▁गाराय	-10.0891
▁फैफिन	-10.0893
▁मोदैजों	-10.0897
▁फैसा	-10.0898
▁हांखोजों	-10.0907
▁सोमबोरा	-10.0909
▁दाजाब	-10.0915
लां	-10.0921
सौ	-10.0928
▁50	-10.0929
▁नोंनाव	-10.0935
................	-10.0943
▁सायावनो	-10.0943
▁मोनायाव	-10.0946
▁थब्ल	-10.0958
▁हानायनि	-10.0966
▁सुमिला	-10.0971
बिस्रि	-10.0975
▁नो	-10.0982
▁गामियारि	-10.0984
▁गेजेरनि	-10.0988
▁दुर्जांनि	-10.0994
▁बेलासे	-10.0994
▁थफ्ला	-10.0997
▁खामसालि	-10.0999
▁बारहुंखा	-10.1
▁जनाय	-10.1003
▁जथाय	-10.1008
▁मागोन	-10.1013
▁दावगा	-10.1014
▁सुथि	-10.1014
▁भ्लादिमिर	-10.1017
▁स्टार्ट	-10.1017
▁फोथायखेबस	-10.1017
नोंनि	-10.1017
▁बिखुङाव	-10.1018
▁जीउ	-10.1019
▁दानसोरां	-10.1019
▁बेलश्री	-10.102
▁लाइसि	-10.102
▁मन्स	-10.1021
▁फिसाज्लाखौ	-10.1021
▁मारुटि	-10.1021
▁थासान्दियाव	-10.1022
▁नांलिया	-10.1023
बावबाय	-10.1023
▁मोनखाङो	-10.1026
▁सावरायनो	-10.1026
▁बिमायं	-10.1029
▁थारैब्ला	-10.103
▁बुदों	-10.1033
▁ओंखारलांबाय	-10.1038
▁खुलुमो	-10.104
▁सान्थि	-10.104
▁इउनिट	-10.1041
▁नोगोराव	-10.1042
▁जेला	-10.1043
▁गुरैयै	-10.1043
गोरा	-10.1043
▁खारो	-10.1045
▁मोन्दोंमोन	-10.1047
▁जाबोदों	-10.1047
▁सेयाराव	-10.1049
▁दैदेननाय	-10.105
▁थिर	-10.1056
▁एरैबादि	-10.1056
▁खुं	-10.1058
▁मोनलायनाय	-10.106
खै	-10.1064
▁सेंग्राफ्रा	-10.1066
▁हिन्जावफोर	-10.1067
▁सोलायो	-10.107
▁भुटान	-10.107
▁बिमाय	-10.1071
▁नार्जारीया	-10.1072
▁सुजुनाय	-10.1072
▁लाहारी	-10.1073
▁बायजोयाव	-10.1073
▁गाग्लोब	-10.1085
▁ओंखारलांनाय	-10.1086
d	-10.1089
▁मानिबा	-10.1094
▁बेलायाव	-10.1096
▁बुन्दिया	-10.1098
▁फाहामथायनि	-10.1101
नांदों	-10.1102
▁सुखे	-10.1108
▁हेफाजाबै	-10.1113
▁आबाद	-10.1118
▁लाखिनानै	-10.1119
थारा	-10.1123
▁कमल	-10.1125
▁सानाव	-10.1127
▁गाननानै	-10.1128
▁आंहाबो	-10.1135
▁रावआ	-10.1142
▁दैथाय	-10.1144
▁दासि	-10.1144
थाब	-10.1151
वानो	-10.1188
▁आइन	-10.1189
▁एक	-10.1194
▁मनजुनि	-10.1195
▁बिहारि	-10.1205
▁नार्स	-10.1205
▁खामानिनि	-10.1205
▁थे	-10.1206
▁मोदाय	-10.1209
▁नोगोरनि	-10.121
▁T	-10.1214
▁जाथाव	-10.1218
▁बिबाजै	-10.1223
रनि	-10.1225
▁नायगिरनाय	-10.1229
स्ट	-10.123
▁लुनाय	-10.123
▁ट्रे	-10.1236
▁बेलखौ	-10.1237
▁फुरा	-10.124
▁आन्जाद	-10.1242
▁संनो	-10.1242
▁मह	-10.1244
▁गोसोया	-10.1244
▁नार	-10.1255
▁फैब्ला	-10.1258
▁थुबुर	-10.1271
▁फोसाव	-10.1271
▁सिख्लासा	-10.1287
▁गोम	-10.1296
▁हांखुर	-10.1299
▁दालि	-10.13
▁बटल	-10.13
▁सोल	-10.1301
माव	-10.1303
▁मुंख्लं	-10.1303
▁आखुफोरा	-10.1304
ग्रो	-10.1324
▁इसोर	-10.1335
दाब	-10.134
▁लोमजानाय	-10.1343
▁फाफि	-10.1344
▁सिफि	-10.1346
▁मिथिस	-10.1372
▁जाफुंसार	-10.138
▁माब्लाबाबो	-10.1384
गु	-10.1384
▁हायैनि	-10.139
▁बामोन	-10.1395
गासे	-10.1398
▁मावनांगौ	-10.1403
▁सिला	-10.1407
सिख्ला	-10.1413
▁..........	-10.1414
▁सावगारिया	-10.1416
लोगो	-10.1422
▁चीन	-10.1423
▁मम	-10.1428
नांदि	-10.1429
▁नखौ	-10.1429
▁रुजु	-10.1431
▁दावला	-10.1435
▁मोनजा	-10.1436
खायो	-10.1439
बिनानाव	-10.1445
▁जाम	-10.1452
▁मिनिट	-10.1457
▁पाकिस्तान	-10.1458
फाहार	-10.1458
▁s	-10.1458
▁गाय	-10.146
▁गोमानाय	-10.1463
▁गुबुननि	-10.1465
▁मुसुखा	-10.147
▁कंग्रेस	-10.1473
थारदों	-10.1475
▁आबहावा	-10.1481
माबि	-10.1484
▁सानैखौ	-10.1486
▁खारग	-10.1487
▁राभा	-10.1488
ित्य	-10.1489
▁बेखेवगाथाम	-10.1489
▁बयनिख्रुइ	-10.1489
▁उरां	-10.149
▁लाकी	-10.1491
ेन	-10.1492
▁रुवाथी	-10.1492
▁हाबबोयो	-10.1492
▁बुरजा	-10.1492
▁सोनारनानै	-10.1493
▁आसागि	-10.1494
▁सभा	-10.1496
▁हार्ट	-10.1496
▁गोमोयो	-10.1499
▁हांगारिया	-10.1499
▁हाबहैबाय	-10.1502
फाङा	-10.1502
▁स्राय	-10.1502
न्दा	-10.1504
▁दैखाङो	-10.1508
▁थेला	-10.1508
▁नायगिरो	-10.1511
▁रोखोमै	-10.1513
▁मुगै	-10.1514
▁रेन्जारा	-10.1514
हाबनानै	-10.1515
▁मावगोन	-10.1515
▁दाना	-10.1517
▁बिजिरगिरिया	-10.1517
▁पुरा	-10.1517
▁हेला	-10.1518
▁लिरदोंमोन	-10.1522
▁बुनो	-10.1527
▁सावख्लिया	-10.1527
▁गावनाय	-10.1529
▁गावरावा	-10.1531
▁आसार	-10.1537
▁बाजाराव	-10.1539
▁गारामा	-10.1539
▁जोंबाय	-10.1539
▁महाराजानि	-10.154
▁आयदाखौ	-10.1541
▁सौफै	-10.1542
▁आस	-10.1545
▁जोथोन	-10.1545
▁होयोब्ला	-10.1547
खौल	-10.155
▁बाख्नाय	-10.1556
▁गावहा	-10.1558
?	-10.156
▁दिखां	-10.1562
▁बुरैया	-10.1564
▁गोदाना	-10.1567
▁ससे	-10.1574
▁बावदियाया	-10.1578
▁बाहायदों	-10.1581
▁बाहागोखौ	-10.1587
गावनि	-10.1589
?"	-10.159
▁लाजिया	-10.1593
ेहाद	-10.1594
▁आखा	-10.1596
st	-10.1597
याखिसै	-10.1598
▁खेबाव	-10.1599
▁लानाया	-10.1599
▁फोथां	-10.1613
▁जमा	-10.1615
▁खुदियाफोर	-10.1615
▁जानायमोन	-10.1616
जोला	-10.1621
▁गोनो	-10.1625
▁फोजोबनाय	-10.1629
▁मोननायखौ	-10.1634
▁नायफिन	-10.1638
एल	-10.164
▁हांसो	-10.1642
▁फाख	-10.1653
▁बोथोराव	-10.1655
नु	-10.1657
▁हामबाय	-10.1659
▁खुदुम	-10.1662
▁सरकारनि	-10.1663
▁लोङा	-10.1672
▁नाथ	-10.1682
▁इराग्दावनि	-10.1687
▁बोहै	-10.1694
▁खुगाया	-10.1694
▁सावगारिखौ	-10.1696
▁रायखां	-10.1697
▁हामला	-10.1699
▁गंगार	-10.1702
▁बान्दा	-10.1704
▁अनिमा	-10.1715
▁खां	-10.1715
▁मु	-10.1722
ले	-10.174
▁जानोसै	-10.1743
▁हांख्रायनाय	-10.1744
मै	-10.1751
▁फाला	-10.1752
▁दुब्लि	-10.1755
क्राझार	-10.1757
▁फावथाइया	-10.1763
▁बाजु	-10.1764
▁रुगुं	-10.1764
▁खुनु	-10.1765
▁सेप्तेम्बराव	-10.1772
▁श	-10.1773
ालाय	-10.1785
▁जथाइ	-10.1786
▁नोंसो	-10.1789
▁फिसाफोर	-10.1793
फां	-10.1797
िनि	-10.181
▁दाबुं	-10.1817
▁मानिनां	-10.1818
हैनो	-10.182
▁थाखायसो	-10.1843
▁गुमुर	-10.1845
▁लानानैनो	-10.1848
▁मुजु	-10.1848
▁थाइ	-10.185
थारगोन	-10.185
▁मोगथां	-10.1853
▁अलकानि	-10.1853
▁थाबायनाय	-10.1853
सुला	-10.1857
▁साननै	-10.1862
▁क्ल	-10.1864
▁गाड़ी	-10.1871
▁साहाखौ	-10.1877
▁बराय	-10.1877
▁दैसा	-10.1879
▁मदन	-10.1882
▁मोब्लाव	-10.1886
▁फिनो	-10.189
▁गोजाननि	-10.1896
▁थिसन	-10.1896
▁उनथिं	-10.1902
▁हानि	-10.1904
▁बारायनाय	-10.1906
▁सोदोबजों	-10.1909
कि	-10.1916
▁गावस्रा	-10.1918
▁रिक्सा	-10.1921
▁मोनैनि	-10.1922
▁थोन	-10.1924
नाथ	-10.1925
▁जोंलाय	-10.193
आरसा	-10.1939
▁थाबै	-10.1952
▁उदखारि	-10.1959
▁बिबायारि	-10.1961
▁एंगारनाय	-10.1963
▁हाबनाय	-10.1969
▁मेहेर	-10.1976
फालु	-10.198
▁नबेम्बर	-10.1982
▁सेकस्पीयार	-10.1982
▁मुसाहारी	-10.1982
▁अबथिरा	-10.1982
▁बेखेवगाब्रै	-10.1983
▁अजद	-10.1983
▁खाइला	-10.1983
▁थादो	-10.1983
▁बिल्डिं	-10.1983
▁थोजासे	-10.1984
▁अनसुलि	-10.1984
▁गुसुङै	-10.1984
▁रुंसारि	-10.1985
▁रैसुमै	-10.1986
▁गोखै	-10.1987
▁बेखेवगाबा	-10.1988
▁बुंखो	-10.1989
▁देनां	-10.199
▁खेंख्रा	-10.1991
▁साइट	-10.1993
▁थाथों	-10.1993
▁जिङाव	-10.1995
▁गनायथि	-10.1995
▁ओनसोलाव	-10.1995
▁खारनाय	-10.1995
▁खेमा	-10.2001
▁हादाब	-10.2003
▁गैलामोन	-10.2007
▁लावथि	-10.2012
▁सिङा	-10.202
▁जाति	-10.2022
▁या	-10.2022
▁खोनानै	-10.2025
▁जाबावनो	-10.2025
द्राय	-10.2027
▁हरखाबै	-10.2029
▁सर	-10.2036
▁लान्थाया	-10.2038
▁ओनसोलनि	-10.2039
▁लाखियो	-10.2041
▁रुमनिफ्राय	-10.2046
▁लरेना	-10.2046
▁खावलायाव	-10.2049
▁दाजा	-10.2049
▁सुशान्त	-10.2049
▁समनिफ्रायनो	-10.205
▁नांबाय	-10.2067
▁सिमना	-10.2072
फुं	-10.2074
▁दिनाव	-10.2076
▁हिन्जावफ्रा	-10.2076
▁द्रइ	-10.2079
▁सानगोन	-10.2079
▁सानराय	-10.2087
्नानै	-10.2088
दान	-10.2093
▁खे	-10.2099
▁बावै	-10.21
▁बरमा	-10.21
▁बेफारि	-10.2104
जाया	-10.211
▁फालिनाय	-10.2111
▁खबर	-10.2117
▁गासिनो	-10.2124
▁अना	-10.2129
▁मद	-10.214
▁होख्राव	-10.2143
▁26	-10.2148
........	-10.2157
▁नारा	-10.2158
▁खुंथाइ	-10.2162
▁जोबनानै	-10.2169
▁हारा	-10.2171
▁भर	-10.2176
▁बिसोरहा	-10.2202
▁बेहाय	-10.2204
▁मोनाखैमोन	-10.2205
▁नख	-10.2208
▁थानायसै	-10.221
खुथु	-10.2214
▁फर	-10.2221
▁हिन्जावफोरा	-10.2222
▁खोमदोना	-10.2227
▁सोलोजों	-10.2227
थारबाय	-10.2232
▁बोलोजों	-10.2234
▁नाजाव	-10.2235
▁गसंनो	-10.224
▁मोनोब्ला	-10.2262
ग्राफ	-10.2264
▁लागो	-10.2268
▁एव	-10.2268
निख्रुय	-10.227
▁फन	-10.2274
▁प्रेस	-10.2276
▁गान्दु	-10.2276
▁सिथ्ला	-10.2278
ल्ला	-10.2279
जे	-10.2279
9	-10.2281
▁नायहाब	-10.2283
▁बुथुम	-10.2285
▁लिरनायाव	-10.2286
▁लख	-10.2286
...।	-10.2293
▁फाहामसालि	-10.2298
▁जेथो	-10.2303
▁आखला	-10.231
▁बिखं	-10.2321
▁नुयै	-10.2322
▁बिनाय	-10.2324
▁बिसान	-10.2332
▁सेरजों	-10.2332
▁पार्टि	-10.2343
▁बुहुम	-10.2356
▁गुस्थि	-10.2365
▁दाबिनाय	-10.2365
▁सेनो	-10.2371
▁थांनायनि	-10.2377
श्री	-10.2377
▁गारनाय	-10.2384
▁बिख्लो	-10.2384
▁फोरबो	-10.2391
▁गुरु	-10.2392
▁बेरे	-10.2393
▁दल	-10.2394
▁रिंसारखौ	-10.2395
▁जिउवा	-10.2398
हरनानै	-10.2403
▁साबुक	-10.2409
▁संग्रा	-10.241
▁बुन्दि	-10.2416
ber	-10.2419
▁हरबिलास	-10.2423
▁नागिरना	-10.2423
▁बाथा	-10.2442
▁आथिंखौ	-10.2445
फारसे	-10.2456
ओहो	-10.246
▁हाबाफारिखौ	-10.2467
▁सेयार	-10.247
▁दैखौ	-10.2484
▁सोदोबमा	-10.2486
▁खोनायो	-10.2489
▁खालायनाय	-10.2497
▁दाखालाम	-10.2498
▁हान्थु	-10.2499
▁इन्दु	-10.25
▁प्राइभे	-10.2501
बार	-10.2502
▁वेब	-10.2502
▁बोराइदब	-10.2502
▁बुङाखिसै	-10.2502
▁थाजिम	-10.2502
▁बोदोर	-10.2503
▁दाइनिं	-10.2503
▁अनजालि	-10.2503
▁रोङो	-10.2504
▁दुर्गा	-10.2504
▁हाद्रि	-10.2504
▁बुदुं	-10.2504
▁मोनसिंसिं	-10.2504
▁नंमारगौ	-10.2504
▁बिलाइनि	-10.2504
▁महनलालनि	-10.2505
▁गारिया	-10.2507
▁आइदिया	-10.2508
▁गिख्रंथाव	-10.2512
▁दुखुथिया	-10.2512
न्याव	-10.2512
▁गांफा	-10.2513
▁आगोलाव	-10.2513
▁सिथर	-10.2514
▁अभि	-10.2514
▁गोयै	-10.2514
▁नोगोरमायाव	-10.2515
▁ओंखारलां	-10.2515
▁थारजा	-10.2517
▁हमदांनो	-10.2518
▁खेंफोर	-10.2519
▁रेल	-10.2521
▁सती	-10.2522
▁उदांस्रि	-10.2523
▁सोमस्रि	-10.2527
▁ट्राइबेलफोर	-10.2528
▁जोहोलावनि	-10.2528
▁हरम	-10.2534
▁फुंखाया	-10.2535
▁नायथिं	-10.2536
नांसिगौ	-10.2538
▁बाहायनायखौ	-10.2539
▁गोहोजों	-10.2541
▁हामबुरा	-10.2544
▁खना	-10.2545
ot	-10.2549
▁गोग्लैबाय	-10.2554
▁इन	-10.2556
▁be	-10.2558
जेबो	-10.2559
▁फारनैजों	-10.256
▁बिदिबादि	-10.256
▁नोगोरमानि	-10.2562
▁मावबाय	-10.2563
ाय	-10.2564
▁खोथायाव	-10.2564
▁हायाब्ला	-10.2568
▁खारबोनाय	-10.2574
▁गोजाननिफ्राय	-10.2576
▁थांनाया	-10.2583
▁हाजोनि	-10.2586
▁सैबारीया	-10.2587
▁खावनानै	-10.2588
जै	-10.2589
▁सिख्लाखौ	-10.2592
▁मावा	-10.2592
▁नेनानै	-10.2593
▁गंसेयाव	-10.2597
▁गोरलैयै	-10.2599
▁गयथिखौ	-10.2602
▁लाफा	-10.2602
फार	-10.2606
▁गसाइया	-10.2612
▁जिसे	-10.2625
▁!!!	-10.2625
▁सोलों	-10.2626
▁बोखाव	-10.2627
आयै	-10.2627
▁माया	-10.2629
▁बावनानै	-10.2632
▁सुथुरा	-10.2636
▁धोनि	-10.2636
▁जागासिनो	-10.2636
▁नागिरबाय	-10.2642
▁फिसाइया	-10.2643
▁बिथांमोननि	-10.2647
जाबाय	-10.2649
▁सुबुंआ	-10.265
स्ला	-10.2652
फिसौ	-10.2654
▁साफ्रासी	-10.2655
▁थानानि	-10.2658
दुखु	-10.2662
द्	-10.267
▁रों	-10.2672
▁गोरान	-10.2675
▁देरगा	-10.2675
is	-10.2678
निथिं	-10.2695
▁होम	-10.2698
लांदोंमोन	-10.2707
मारनो	-10.2709
ुं	-10.2711
▁th	-10.2722
ासै	-10.2723
गिबि	-10.2739
▁आख	-10.274
▁थोनो	-10.2741
▁टाउन	-10.2741
▁बिफाना	-10.2742
▁गारो	-10.2757
▁रानि	-10.2758
▁बुरि	-10.2768
▁मिन्थि	-10.2781
▁बिमाइ	-10.2785
▁दिहुन्नाय	-10.2788
▁गोजौनि	-10.2795
▁बिजिरगिरि	-10.2798
गिरिफोरा	-10.2816
▁आबा	-10.2817
▁रादाबखौ	-10.2824
▁लेंहर	-10.2826
▁गलाफी	-10.2835
▁फरायसालि	-10.2835
▁जेल	-10.2845
▁केरानि	-10.2847
▁नोजोरजों	-10.2848
▁लोमसाव	-10.2853
त्	-10.2857
▁रायज्लायनाय	-10.2859
फेरा	-10.2862
▁बिथराइ	-10.2864
▁सिगांनो	-10.2867
▁आबैया	-10.2868
▁हुस	-10.2869
▁किटसेन	-10.2874
▁जुनाद	-10.2876
▁बाहागोनि	-10.2883
पा	-10.2892
्स	-10.2893
▁भारतारि	-10.2905
▁रोखोमसे	-10.2906
▁हाबफैनाय	-10.2907
गां	-10.291
▁दालां	-10.2913
▁सुबुंखौ	-10.2913
आंबो	-10.2914
▁जाहै	-10.2916
जां	-10.2919
▁फोसाब	-10.2922
▁खायनो	-10.2937
▁बाराव	-10.2951
▁ओंखारनो	-10.2954
▁लिभ	-10.2957
▁बाजिनि	-10.2959
▁नायदों	-10.296
▁सात	-10.296
▁मोनजायो	-10.2967
सम	-10.297
▁होवा	-10.2971
▁नोजोरा	-10.2982
▁खावलाइ	-10.299
वाखै	-10.2993
खाला	-10.2998
▁फार	-10.3001
▁बोजोंनि	-10.3011
..."	-10.3016
▁सिथार	-10.3017
▁अपारेसन	-10.3024
▁फालाय	-10.3028
▁बाजैया	-10.3032
▁आमेरिका	-10.3034
▁साब्रै	-10.3035
▁बाग्दाव	-10.3036
माथो	-10.3036
▁खालामाखै	-10.304
▁नारें	-10.3046
जोबनाय	-10.3049
▁बरपेटा	-10.3049
▁ड्रयिं	-10.305
▁आगष्ट	-10.305
▁बङाइगाव	-10.305
▁टर्स	-10.305
▁खिथेर	-10.305
▁सोमखोर	-10.3051
▁सिलिंखार	-10.3051
▁हिंसा	-10.3052
▁सिरां	-10.3052
▁कन्ट्रल	-10.3053
▁थांखु	-10.3054
▁अमब्रागं	-10.3054
▁जोंरूवा	-10.3055
▁बुदारुवा	-10.3056
▁जोंथिहा	-10.3056
▁रोहो	-10.3057
▁फंनैसो	-10.3057
▁बरुवा	-10.3057
▁(4)	-10.3058
▁खौरांगासे	-10.306
▁मुगैथाव	-10.3064
▁खननै	-10.3067
▁राजि	-10.3068
▁सेवारिया	-10.3069
▁नरेना	-10.3069
▁गाब्रै	-10.3074
P	-10.3074
▁जाबायमोन	-10.3076
▁सुद	-10.3078
▁रमेना	-10.3081
▁फांथेनानै	-10.3082
▁जोख्लोब	-10.3086
▁सिखोमा	-10.3086
▁जालायबाय	-10.3088
▁अलकेशा	-10.3088
▁थायसे	-10.3089
▁खौराङा	-10.3091
▁नाजागोन	-10.3092
▁मोसाया	-10.3093
00	-10.3094
▁अरदाब	-10.3095
▁इन्जुर	-10.3096
▁गमामायै	-10.3097
▁नोमफाया	-10.3097
▁लें	-10.31
▁सुनै	-10.3103
▁मानसियानो	-10.3104
▁फाथि	-10.3105
▁गोरबो	-10.3107
▁गानो	-10.311
▁लाफानानै	-10.3111
▁जायोमोन	-10.3111
▁थैगोन	-10.3115
▁दोनै	-10.3118
▁हाबनो	-10.312
▁खाफालनि	-10.312
▁बिहार	-10.3123
▁थुदो	-10.3126
▁गोर्बोनि	-10.313
▁खुलुमनानै	-10.313
▁होनै	-10.3133
▁फाथै	-10.3136
▁रान्	-10.3145
▁बुजि	-10.3147
फ्ले	-10.3149
▁दंब्ला	-10.3153
जोबदों	-10.3153
▁खाफाला	-10.3153
▁सालाया	-10.3155
or	-10.316
घ	-10.3161
▁जारिमिननि	-10.3161
▁थिननाय	-10.3163
▁बाहा	-10.3165
▁सोद्रोमाफोरा	-10.3166
▁आन	-10.3176
▁अन्नायाव	-10.3178
▁गोमोन	-10.3182
▁खानाया	-10.3185
are	-10.3186
▁गोरोबनाय	-10.3187
▁सिखां	-10.3191
▁खन्थाइगिरि	-10.3194
''	-10.3195
▁खोन्था	-10.3197
▁जिरादखौ	-10.3199
▁सिथाब	-10.32
▁बिट	-10.3205
▁बय	-10.3213
▁साफ्रोम	-10.3214
▁हांख्राय	-10.3216
▁बिथांखौ	-10.322
फैदों	-10.3223
▁बेखौल	-10.3228
▁सुबुंफोरखौ	-10.3231
▁सायखं	-10.3237
▁गाहाया	-10.324
▁बिबां	-10.3242
▁जालांनाय	-10.3252
▁खाब	-10.3267
▁गिदिंनानै	-10.3273
▁हाबाफारिनि	-10.3273
▁नुजानाय	-10.3276
▁गयो	-10.3279
▁खाफालखौ	-10.3282
▁गौथुम	-10.3283
▁रि	-10.3287
सिगौ	-10.3288
▁हाराव	-10.3303
▁बेंगल	-10.3304
▁आयदानि	-10.3304
▁सावनाय	-10.3305
▁दङमोन	-10.3308
▁सोरजिनो	-10.331
▁बिनहारीखौ	-10.331
वै	-10.3311
▁सादु	-10.3314
फु	-10.3323
जायै	-10.334
▁नायबिजिर	-10.3343
▁जोंनाय	-10.3346
▁सह	-10.3349
▁फोलेरनि	-10.3351
पुर	-10.3353
▁लै	-10.3355
▁बोराब	-10.3359
▁नुमार	-10.336
▁लाग्रा	-10.337
▁बिथिंखौ	-10.338
थें	-10.3383
▁मुलुक	-10.3384
▁दिना	-10.3393
▁नोंगौ	-10.3394
▁नङै	-10.3397
ग्रां	-10.3401
▁जौगाखां	-10.3402
▁राङा	-10.3403
▁हेद	-10.3417
▁सुपार	-10.3418
▁जाहो	-10.3419
▁जुग	-10.3422
▁मेगनखौ	-10.3424
दिनि	-10.3428
▁साफाय	-10.3432
▁मिथियै	-10.3434
▁थोआ	-10.3436
▁बिदाया	-10.3437
▁नायजाबा	-10.3441
▁गवा	-10.3443
▁रेस	-10.345
राज	-10.3453
▁जोलै	-10.3453
▁राइजोफोरखौ	-10.3467
स्रा	-10.3475
▁गराय	-10.3478
▁मोननांगौ	-10.3481
▁राजखान्थिनि	-10.3481
दिनै	-10.3494
▁खासि	-10.3496
▁दिखार	-10.35
▁गाबनायखौ	-10.3503
▁आप	-10.3513
▁थिनहरदों	-10.3515
▁गहेना	-10.3522
खांनाय	-10.3536
▁नांगौब्ला	-10.3538
▁खालामनायखौ	-10.3541
▁लायाखै	-10.3544
▁गोर्बो	-10.3547
फ्राम	-10.3554
▁फाहाम	-10.3556
▁दाइरि	-10.3559
▁बिखौनो	-10.3559
▁में	-10.3561
लाव	-10.3568
▁प्रसेन	-10.3582
आशा	-10.3585
ओइ	-10.3588
▁खुदै	-10.3593
▁नांदों	-10.3594
▁नायनाय	-10.3598
▁राखेब	-10.3601
▁बोरायखौ	-10.3601
▁एमफौ	-10.3602
▁सोदोमस्रि	-10.3606
▁खनथाम	-10.3607
▁दागि	-10.3607
बालु	-10.3608
▁जिगाब	-10.3616
▁आसान	-10.3618
lo	-10.3621
बादाव	-10.3626
▁दुपसाव	-10.3627
ाब्ला	-10.3627
▁बुब्लि	-10.3627
qu	-10.3628
▁स्क्र	-10.3628
गथाय	-10.3629
▁भेन	-10.3629
▁नोजोराव	-10.3629
▁मोखथां	-10.3629
▁तरुण	-10.3629
▁राजथावनि	-10.3629
▁गोख्रोङै	-10.3629
▁साबाइस	-10.363
▁डेटा	-10.363
▁पाब्लिक	-10.363
▁प्रफेसार	-10.363
▁सानबोलावरि	-10.363
▁साइखेल	-10.3631
▁अलखद	-10.3631
▁मरनिं	-10.3631
▁गामाखालि	-10.3631
▁गागि	-10.3632
▁उखुन्दै	-10.3632
▁रंगिना	-10.3632
▁सोंहरबाय	-10.3632
▁सिन्दुर	-10.3634
▁MS	-10.3634
▁लादो	-10.3635
▁गान्दा	-10.3635
▁खैला	-10.3635
▁माउस	-10.3637
▁बिदुं	-10.3637
▁अमर	-10.3637
चि	-10.3638
रेटरीयाव	-10.3638
▁थालिर	-10.3638
▁दाउब	-10.3639
▁लानांगोन	-10.364
▁गान्नानै	-10.3643
▁सोदोबआ	-10.3645
▁हुक	-10.3646
▁गिसि	-10.3648
▁गावराव	-10.3648
जुनाद	-10.3651
▁फानलु	-10.3651
▁फि	-10.3653
▁नाइ	-10.3653
▁दोगोन	-10.3653
▁जोबाखै	-10.3654
फिनगोन	-10.3654
▁खुरनानै	-10.3656
▁हाजोआव	-10.3657
▁लोंग्रा	-10.3662
▁जथ	-10.3663
▁जोहोलावा	-10.3663
▁फुट	-10.3663
▁आगोलनि	-10.3664
▁उफ्ले	-10.3664
▁सानखो	-10.3665
▁खौसेथि	-10.3667
बु	-10.3667
थोंसै	-10.3668
▁थाखोआव	-10.3671
फै	-10.3674
▁जाहोनाय	-10.3677
▁जोमनाय	-10.3682
▁थांहां	-10.3684
▁फोथायो	-10.3685
▁जिबारेलिन	-10.3685
▁गाबबाय	-10.3687
▁देरहानाय	-10.3692
▁गांसो	-10.3693
हरदों	-10.3695
▁थैनानै	-10.3697
▁सेक्सपीयेरनि	-10.3698
▁सान्ति	-10.37
▁दाबसेयाव	-10.3706
▁गोसोवा	-10.3708
▁सेरे	-10.3709
▁जारिमिनाव	-10.371
▁दरबासिया	-10.3713
रोम	-10.3714
▁खुथार	-10.3718
फिन	-10.3723
▁गेटाव	-10.3723
▁दाजानाय	-10.3724
▁समबारुवा	-10.3726
▁बिबौ	-10.373
बारी	-10.3732
▁बेजों	-10.3734
▁खालामदो	-10.3736
▁रहेलाया	-10.3742
▁जोबनायाव	-10.3742
▁हास्थाय	-10.3747
4.	-10.3748
थिंजाय	-10.3751
ation	-10.3764
हांमा	-10.3764
बोगासिनो	-10.3769
▁मुलियाव	-10.3769
▁सायो	-10.3769
रो	-10.3771
▁गानहो	-10.3773
▁लायाब्ला	-10.3785
▁बाहागोआ	-10.3787
▁गाइ	-10.3788
▁जासेनो	-10.3789
हाया	-10.3791
▁साजायनाय	-10.3805
▁बाजा	-10.3805
▁दैमाया	-10.3807
खाबाय	-10.3814
राय	-10.3818
▁थुनफावथाइयाव	-10.3822
▁दुखुखौ	-10.3824
▁रायज्लायनो	-10.3829
▁फाननो	-10.3833
▁मिनिनो	-10.3836
▁सिंह	-10.3838
हैदों	-10.3839
▁हाग्रामा	-10.3839
▁लाबोबाय	-10.3841
▁बथलखौ	-10.3843
▁हिर	-10.3846
▁बाबा	-10.3863
गार	-10.3865
▁अनो	-10.3875
▁असमिया	-10.3885
▁मोनहै	-10.3886
▁आरि	-10.3886
▁खांनानै	-10.3889
नांगौब्ला	-10.3894
हैगोन	-10.3897
▁आलु	-10.3904
▁बेद	-10.3905
उन	-10.3912
ायनानै	-10.3924
▁य	-10.3932
▁दाथ	-10.3936
▁मावनायाव	-10.3941
▁सालिसनि	-10.3949
on	-10.3949
▁अन्नायखौ	-10.3956
▁बेहा	-10.3957
▁थायोमोन	-10.3959
▁होफैदों	-10.3973
▁............	-10.3978
▁गैजारोङै	-10.3988
थारनांगौ	-10.3993
▁दागाब	-10.401
नालाय	-10.4018
▁होनायखौ	-10.4034
ष	-10.4037
▁बुथारनो	-10.4037
▁मुंमानि	-10.404
▁मुलुगखौ	-10.4041
▁हारसा	-10.4041
▁सुफुं	-10.4044
मालाय	-10.4044
▁मोनब्लानो	-10.4048
▁जागायनाय	-10.4059
▁एबसु	-10.4059
▁खोनानाय	-10.4069
सियाव	-10.407
▁जाहोना	-10.4072
ङि	-10.4075
▁सिनायथिखौ	-10.4075
▁बेलस्री	-10.4076
▁फरेष्ट	-10.4077
▁मावब्ला	-10.4081
▁कामाख्या	-10.4087
▁चित्त	-10.409
न्स	-10.4097
नाइ	-10.4102
▁मावफारिया	-10.4117
▁दाहो	-10.4118
▁फिसाय	-10.4118
▁दन	-10.4119
▁गगै	-10.4127
▁महन	-10.4128
▁बिफान	-10.4142
▁मेव	-10.4143
▁सियार	-10.4144
▁मोसाहारी	-10.4147
सल	-10.4149
▁डाक्टार	-10.415
▁बारजों	-10.415
▁सोरबाया	-10.4156
खादों	-10.4157
▁रंजालिनि	-10.4164
▁जौगाखांनाय	-10.4166
▁थाखानाय	-10.4174
आखाइ	-10.4175
▁बिनाव	-10.4182
▁बारनो	-10.4183
▁O	-10.4185
▁एप्लिकेसन	-10.4195
▁हाग्रानि	-10.4198
▁a	-10.4198
▁बिगुमा	-10.42
उन्दै	-10.4202
▁आलासिफोर	-10.4205
▁टेबुल	-10.4209
▁गोरोबथा	-10.4212
▁सानबोलाउरि	-10.4212
थेवबो	-10.4213
▁थिखादार	-10.4215
▁जिबख्रि	-10.4221
▁बुंनायखौ	-10.4224
एस	-10.4224
▁दंफांनि	-10.4224
हैनाय	-10.4238
▁बुंलांदों	-10.4242
▁गाबज्रियो	-10.4243
▁थिनदों	-10.4244
▁हांखोफोर	-10.4244
▁जौखौ	-10.4244
▁एप्रिल	-10.4245
▁देरहासाद	-10.4245
▁बुर्लुंबुथुर	-10.4245
▁बाबांसिन	-10.4245
▁बङाइगाँव	-10.4245
▁लावखार	-10.4245
▁बाज्ल	-10.4245
▁फेन्दा	-10.4245
▁थाइजौ	-10.4246
▁अख्रांनि	-10.4246
▁लेफे	-10.4246
▁दुथां	-10.4247
▁मोगथाङा	-10.4247
▁मोखांनि	-10.4247
▁हाइजें	-10.4247
▁दांग्रोम	-10.4248
▁सुवामि	-10.4248
▁नेवसि	-10.4248
जोंसो	-10.4248
▁नायदो	-10.4248
▁खारदै	-10.4249
▁हमासै	-10.4249
▁सबाइ	-10.4249
▁हामगोन	-10.4249
▁बिजनी	-10.4249
▁गोथों	-10.425
▁अनागारि	-10.425
▁दुयारी	-10.4251
▁आथिङा	-10.4251
▁हरेन	-10.4251
▁बिरहां	-10.4252
▁लेंहरदों	-10.4253
▁आवाज	-10.4254
▁फाख्रि	-10.4256
▁बांग्रि	-10.4258
▁ऋ	-10.4258
▁मिथिंगाया	-10.4258
▁थियेटारा	-10.4259
▁बिलाइस्रिया	-10.4259
▁टा	-10.4259
▁आखान्थि	-10.426
▁बुंङो	-10.4261
्रा	-10.4261
▁होम्बाना	-10.4261
▁खालामखो	-10.4262
▁फान्नानै	-10.4262
दोंगो	-10.4262
▁थिनबाय	-10.4264
▁खालामनांगोन	-10.4264
▁खुरमा	-10.4264
▁इयुनाव	-10.4265
▁जालायखो	-10.4265
▁जोबथारनायाव	-10.4265
▁दुगै	-10.4266
▁थिरांथा	-10.4266
▁एक्स	-10.4269
▁बिलोगो	-10.4269
नाङै	-10.4269
निफ्राइ	-10.4271
▁बोखा	-10.4275
▁जानजि	-10.4275
पुट	-10.4277
▁गोबावनि	-10.4277
▁खियो	-10.4277
▁बावहाय	-10.4277
▁दुब्लियाव	-10.4279
▁गंब्रै	-10.4283
नोथ	-10.4287
▁जुथाय	-10.4288
▁हाबहैयो	-10.429
▁मोनथिगौ	-10.4292
▁जिरायबाय	-10.4292
▁जुनार	-10.4298
▁दाथां	-10.4298
▁इन्जिनियार	-10.4302
▁27	-10.4305
▁बिथिंनिफ्राय	-10.4307
▁रसा	-10.4307
▁बानाजों	-10.4307
▁गालां	-10.4309
▁फैफिनो	-10.4311
▁खुसियै	-10.4313
▁मुगैनाय	-10.4314
▁जाथि	-10.4317
▁सोंदोंमोन	-10.432
▁बेलासियाव	-10.4322
▁आरसा	-10.4322
▁दाजाबनानै	-10.4326
▁नैजि	-10.4326
▁सुरथ	-10.4328
▁दों	-10.4337
▁लिं	-10.4339
▁फिनखौ	-10.434
▁जौनि	-10.4343
▁फंबायखौ	-10.4345
▁थाबावनो	-10.4347
▁ननिफ्राय	-10.4347
▁खाराव	-10.4349
नायजों	-10.4357
▁आनै	-10.4358
▁दावबायारिफोर	-10.4373
▁डाइन	-10.4378
▁फैयै	-10.4381
▁सानफा	-10.4383
▁लानायखौ	-10.4395
▁सिउ	-10.4397
जम	-10.4398
▁एराय	-10.4402
▁खामानिफोरखौ	-10.4406
फिननो	-10.4411
..........	-10.4415
▁फांसे	-10.4415
▁रान्दि	-10.442
▁फुंनिफ्राय	-10.4423
▁w	-10.4423
▁हाब्ला	-10.4424
फेर	-10.4429
▁जोलैनि	-10.443
▁राहाखौ	-10.4432
▁बेगखौ	-10.4444
▁गलि	-10.445
केल	-10.445
ग्रोयो	-10.4454
▁सेवारिनि	-10.4456
खायसो	-10.4458
▁खोमोर	-10.4469
▁सिरियै	-10.4475
▁बुंबावनो	-10.4479
▁सोबा	-10.4481
▁बोसोरबा	-10.4486
▁सानहाब	-10.4488
▁/	-10.4491
ाइ	-10.4503
▁हेमलेटनि	-10.4503
▁सुबुंफोरनि	-10.4505
▁सौग्राव	-10.4509
▁जुवा	-10.4513
o	-10.4515
▁होनलाय	-10.4517
▁नागाफोर	-10.452
▁जोनोमगिरि	-10.4521
▁मोनलाय	-10.4525
▁मुलुगा	-10.4532
▁फोरोंनाय	-10.4537
▁P	-10.4541
लांनानै	-10.4543
सं	-10.455
ियाव	-10.4555
▁रोजाब	-10.4556
सिनि	-10.4557
▁जनो	-10.4558
▁खारा	-10.4562
▁डे	-10.4562
▁मानिया	-10.4562
▁आंनियाव	-10.4566
▁बाहायनायाव	-10.4567
▁आरतिखौ	-10.457
▁लोगोफ्रा	-10.4574
▁सुनो	-10.4575
बाब	-10.4575
▁इयुनखौ	-10.4589
▁मुवाखौ	-10.4589
▁दिनैनो	-10.459
▁गोमोहाब	-10.4614
▁फावजों	-10.4615
▁नोंदा	-10.4616
▁H	-10.4617
▁आथिंनि	-10.4618
▁हैनो	-10.4618
खोमायो	-10.4621
▁आंसो	-10.4623
▁हामबुर	-10.4629
▁बोथोरा	-10.4636
▁आंनिफ्राय	-10.4641
▁गला	-10.4642
▁होनब्लानो	-10.465
▁साग्लोब	-10.4652
,000	-10.4655
▁नरेश	-10.4658
फैदोंमोन	-10.4666
▁सिखारबाय	-10.4667
▁स्ल	-10.4669
जासिम	-10.4669
▁मोनि	-10.468
▁गुमैया	-10.4686
▁रबि	-10.4693
▁जर	-10.4693
▁लाम	-10.4695
▁फुजि	-10.4696
▁मिन्थिया	-10.4697
▁बेंक	-10.4699
▁सोलोंथाय	-10.471
फुर	-10.4713
▁फालांगिरि	-10.4713
▁हिउ	-10.4713
▁आगसि	-10.4716
▁आयदाया	-10.4723
▁बिनारामनि	-10.4724
▁होनोब्ला	-10.4726
▁जारिमिना	-10.4729
सोमोन	-10.4732
फैलाय	-10.4738
▁अबंलावरि	-10.4741
▁प्लेट	-10.4741
थिनि	-10.4742
▁हारिमुनि	-10.4743
▁सानजौफु	-10.4746
▁फोजोबस्रां	-10.4747
▁थुनफावथाइया	-10.4748
▁सोद्रोमाफोर	-10.4766
▁आग्रा	-10.4767
दुम	-10.4772
भि	-10.4779
▁थिनो	-10.4779
▁बिगुमै	-10.4781
▁खान	-10.4782
▁हमस	-10.4782
▁थाब्लाबो	-10.4786
▁गलाम	-10.4792
देर	-10.4798
फैबाय	-10.4801
▁हालमाजि	-10.4805
▁बावनाय	-10.4807
▁खाम्फा	-10.4809
मोजां	-10.481
▁लोगोआ	-10.4811
▁बिबारा	-10.4811
▁बायदों	-10.4823
▁बैसागि	-10.4825
▁मामाय	-10.4826
▁थांनांगौ	-10.4827
नायसाय	-10.4828
▁बुङोब्ला	-10.4831
▁थायनै	-10.4832
▁बोस्रां	-10.4833
▁खोल	-10.4838
▁लाउथि	-10.4843
▁फोरा	-10.4847
▁होननाया	-10.4847
▁सिख्लाफोर	-10.4855
DOS	-10.4855
▁सुथुरखौ	-10.4856
फार्से	-10.4857
▁हेमलेटा	-10.4859
▁गोग्लैसो	-10.4861
▁लेबेल	-10.4863
▁अमल	-10.4865
▁बेराय	-10.4868
▁कामरुप	-10.4869
▁माउजि	-10.4869
▁थुलुंगानि	-10.487
▁बिग्रायारिफोर	-10.4876
▁रंजाली	-10.4882
▁फोरखौ	-10.4885
मो	-10.4885
ौ	-10.4894
▁*	-10.4901
▁युमुना	-10.4901
▁Soli	-10.4901
▁माइक्र	-10.4901
▁खामफ्लाइ	-10.4901
▁अदालगुरी	-10.4901
▁मेरगा	-10.4901
▁थेलेब	-10.4901
▁गबिन्द	-10.4901
▁प्रिन्ट	-10.4902
▁हायेनारि	-10.4903
▁जानांदों	-10.4903
▁डिटेकटिभ	-10.4903
▁रोङाखिसै	-10.4903
▁मैखोम	-10.4903
▁गेबें	-10.4903
▁जापान	-10.4903
▁होंगो	-10.4904
▁होनजायो	-10.4904
▁गोजोन्नाय	-10.4904
▁गाबखाङो	-10.4906
▁गोफोन	-10.4906
▁गुरलुब	-10.4906
▁हिस्रि	-10.4907
▁हौवाया	-10.4907
▁खारलाङो	-10.4907
बुंनानै	-10.4908
▁स्लिम	-10.4909
▁बाथ्राजों	-10.4911
▁सानजाहा	-10.4912
▁बुङासै	-10.4915
▁बायजोआव	-10.4916
▁नम्बरि	-10.4918
▁जानांबाय	-10.4918
▁बहाथो	-10.4919
▁बुंफैयो	-10.4919
▁फिथर	-10.492
▁बान्दोल	-10.4921
▁बेरेखायै	-10.4921
▁रायज्लायबाय	-10.4921
▁खुलुमबाय	-10.4922
▁बुंथिगिरि	-10.4923
▁नुजायो	-10.4923
▁सिथला	-10.4924
▁फिट	-10.4925
▁लांफा	-10.4925
▁जालिया	-10.4926
▁रुफाथिया	-10.493
▁दलद	-10.493
▁रोंनाय	-10.4931
▁थाइलालिआ	-10.4934
▁लोंदों	-10.4943
▁बालाबारि	-10.4944
▁जंखाय	-10.4945
▁आब्रा	-10.4949
▁जागाय	-10.495
▁बापा	-10.4951
▁सिगांनिफ्रायनो	-10.4952
▁आलारि	-10.4953
▁लिंनानै	-10.4959
▁हाखिमा	-10.4963
▁फरायबाय	-10.4964
▁बेसोर	-10.4966
ंनानै	-10.4966
▁ब्र	-10.4974
▁फसंनाय	-10.4978
बिफाया	-10.4982
िर	-10.4983
▁नुहरबाय	-10.4984
▁द्	-10.4988
▁मैला	-10.4988
▁गामोन	-10.499
▁लोगोफोर	-10.4999
▁जाथ	-10.5004
▁जोब्बाय	-10.5004
▁दिननिफ्राय	-10.5013
▁देरगानाय	-10.5013
ate	-10.5014
▁खैफोदनि	-10.5015
▁हारावा	-10.5017
▁फाननानै	-10.5024
▁फोथार	-10.5025
▁जिनै	-10.5027
▁सोंनायाव	-10.5037
▁बुंथि	-10.5039
▁गिदों	-10.5041
▁बुयो	-10.5045
▁लोंखां	-10.5045
▁खैना	-10.5048
▁गोमोर	-10.5049
▁थाहै	-10.5051
▁साबा	-10.5055
▁दायाव	-10.5061
▁देंखोआ	-10.5062
▁100	-10.5063
न्दी	-10.5064
▁रुमा	-10.5064
खायसे	-10.5065
▁सिन्था	-10.5067
▁लरेन	-10.5068
▁अबंलाउरि	-10.5071
er	-10.5073
▁खिन्थाबाय	-10.5074
▁थें	-10.5076
▁सन	-10.5078
▁का	-10.5081
लिक	-10.5081
▁ट्रेइन	-10.5082
▁फ्रि	-10.5082
▁दावसि	-10.5083
▁खोमसिया	-10.5085
▁सोंनाया	-10.5085
▁शिब	-10.5087
▁मनजुखौ	-10.5094
▁सुरनाय	-10.5102
▁ओंखामखौ	-10.5102
▁बिना	-10.5102
▁संसारा	-10.5104
बायदि	-10.5113
▁लांगोन	-10.5117
▁अन्नाया	-10.5125
▁गिदिंनाय	-10.5127
▁मोनथिनो	-10.5133
▁माबि	-10.5135
▁इसोरनि	-10.5143
▁बेनोथ	-10.5144
▁थास	-10.5152
▁=	-10.5162
खौलाय	-10.5163
▁सेबखां	-10.5164
▁सोदोबफोरखौ	-10.5168
▁धोरोमा	-10.5169
यावबो	-10.517
खु	-10.5174
दार	-10.5176
▁बावबाय	-10.5176
▁नुजाथि	-10.5177
हैनानै	-10.5178
▁थुलुंगाया	-10.5179
at	-10.5184
▁फोथायनो	-10.5188
▁फोनांजाब	-10.519
▁अननायाव	-10.5191
▁संसारखौ	-10.5197
▁बोनाया	-10.5218
▁दोम	-10.522
▁लाजिनानै	-10.5225
▁थुंग्रिखौ	-10.5227
▁मेथाय	-10.5227
▁सौरा	-10.5228
▁मिथिमोन	-10.5228
थिखौ	-10.5236
स्लाब	-10.5245
नांसिगोन	-10.525
▁लगाय	-10.5255
▁गोसोयै	-10.5258
▁भुटियाफोर	-10.5259
▁बुंग्रा	-10.5262
▁थायै	-10.5274
▁बिखाखौ	-10.5282
▁थालाय	-10.5283
▁जाबोनाय	-10.5294
▁जायाखैमोन	-10.5301
ोब्ला	-10.5309
▁गाबख्राव	-10.5316
▁दावखा	-10.5318
▁दावगानाय	-10.5324
रासे	-10.5326
जन	-10.5335
▁रायदाव	-10.5336
▁मालायजों	-10.5339
इउ	-10.5341
▁सेवारि	-10.5347
▁बेमार	-10.535
▁थाबथा	-10.5351
लायाव	-10.5353
▁एष्ट्राग	-10.5359
▁नायबा	-10.5359
फानानै	-10.5363
▁लिरनाया	-10.5375
▁उन्दैयाव	-10.5376
▁थुन	-10.5384
▁W	-10.539
▁फां	-10.5394
▁हास	-10.54
▁गेटनि	-10.5403
▁जब्रा	-10.5421
▁साय	-10.5431
▁बियाव	-10.5433
ायाव	-10.5433
▁होबोदों	-10.5437
▁सफैबाय	-10.5441
▁थानायावनो	-10.5441
▁लिंहरदों	-10.5443
▁अलकेश	-10.545
▁साननायखौ	-10.545
0	-10.5453
▁दारि	-10.5453
▁अनजिमाया	-10.5456
फाव	-10.5467
▁बेखेवनो	-10.5472
जार	-10.5473
▁मंगलबार	-10.5474
▁टेबोल	-10.5491
ेन्ट	-10.55
▁खंख्ला	-10.5506
▁बुरखाय	-10.5507
▁गोसोआबो	-10.551
मथे	-10.5512
▁राहाया	-10.5513
रागा	-10.5515
ीया	-10.5515
▁बाथ	-10.5519
▁ऐखालि	-10.5519
▁आन्दो	-10.5521
▁दोहोन	-10.5522
▁हक	-10.5524
▁लान्था	-10.553
फेराखै	-10.5532
साय	-10.5536
▁खेराइ	-10.555
▁खान्थिनि	-10.5551
बेथेर	-10.5561
▁दैखर	-10.5564
1.	-10.5567
▁फरायग्राफोरनि	-10.5568
गोमजा	-10.557
▁मैसो	-10.5571
▁कार	-10.5572
▁नाम्बार	-10.5575
▁मिथिगोन	-10.5581
▁कारजि	-10.5582
▁सोरमाङा	-10.5583
हौवा	-10.5583
n	-10.5584
बुं	-10.5585
▁बिबारखौ	-10.5588
▁रेन्जार	-10.5591
नांनाय	-10.5597
▁साखा	-10.56
▁तितागुरिनि	-10.56
ः	-10.5601
▁दलर	-10.5602
▁अनसुमै	-10.5603
▁उरिष्या	-10.5603
▁कौटि	-10.5603
▁लेन्थन	-10.5603
▁शर्मा	-10.5603
▁नीलकमल	-10.5603
▁हाथियार	-10.5603
▁निउक्लियार	-10.5603
▁2009	-10.5603
▁वार्ड	-10.5603
▁गुरलाब	-10.5603
▁सामब्राम	-10.5603
▁केम्प	-10.5603
▁ग्रोब	-10.5604
▁बंफां	-10.5604
▁नुजाफै	-10.5604
▁नांला	-10.5604
▁हुसियार	-10.5604
▁जेनेरेल	-10.5605
▁$	-10.5605
▁चेयार	-10.5605
एनै	-10.5605
▁भबेन	-10.5605
▁कन	-10.5606
▁सेरावनो	-10.5607
▁खारलां	-10.5607
▁एखे	-10.5607
▁गोलोमदै	-10.5608
▁संस्कृत	-10.5608
▁राङारि	-10.5608
केनसेल	-10.5609
▁थुनलाइगिरि	-10.5609
▁कफि	-10.561
▁गोनोखोआरि	-10.5611
▁आगर	-10.5611
▁मेउ	-10.5614
▁गेसाव	-10.5614
▁जुजिगोन	-10.5614
▁बिस्कुट	-10.5615
▁हान्था	-10.5615
▁जौसाय	-10.5616
▁गेलेग्रा	-10.5616
▁दुइसिन	-10.5617
▁कमेदि	-10.5617
▁दरसि	-10.5618
▁नायजाबगिरिया	-10.5618
▁बिलिर	-10.5618
▁अमब्रा	-10.5618
▁थाथोंसै	-10.5618
▁खोनादों	-10.5619
day	-10.5621
▁ग्रीमउइगा	-10.5625
▁थुंगि	-10.5627
▁बोरैथो	-10.5628
▁जाखाङो	-10.5632
▁हं	-10.5632
▁आबारीया	-10.5632
▁सिखाङो	-10.5632
▁गाथोनाव	-10.5633
▁मोन्नायखौ	-10.5634
▁उइल	-10.5634
▁नौनारिफोर	-10.5635
▁रेबतीया	-10.5636
▁बरगयारीया	-10.5636
▁डकुमेन्ट	-10.5642
▁फैफिनबाय	-10.5642
▁थामजि	-10.5643
▁लाबोगोन	-10.5643
▁गोदोनिफ्रायनो	-10.5644
▁ँ	-10.5644
▁कर्णियाखौ	-10.5648
▁बुजिया	-10.5649
जैमती	-10.5653
▁दफा	-10.5655
▁दद्र	-10.5655
▁हमदोंमोन	-10.5657
▁घ	-10.5658
▁सोमो	-10.5659
खान्थियारि	-10.5663
▁गायसन	-10.5665
▁बायबाय	-10.5666
▁R	-10.5668
टा	-10.5669
बावनांगौ	-10.5673
▁नोंहालाय	-10.5679
6.	-10.5683
▁फालोसे	-10.5685
▁एरा	-10.5686
▁पलि	-10.5686
▁जाथारबाय	-10.5689
▁गेवा	-10.5689
▁फारागा	-10.5692
▁हालाय	-10.5693
▁आबारि	-10.5693
▁छ	-10.5697
▁गोब्राबै	-10.5697
▁प्रेमधरनि	-10.5698
▁लांदोंमोन	-10.5701
▁7.	-10.5703
▁हरगोन	-10.5703
▁बखि	-10.5709
▁बिदानि	-10.5709
▁लख्रा	-10.5709
▁मनजुलानि	-10.571
▁दंब्लाबो	-10.5711
▁बुथारनायनि	-10.5712
▁बस	-10.5715
▁बाजिनिफ्राय	-10.5717
▁मोनासै	-10.5718
▁अनथाइ	-10.572
▁दैखांनाय	-10.5726
▁खोमोरनो	-10.5731
▁आखुथाइ	-10.5732
▁मुहिनि	-10.5736
यारी	-10.5739
▁सौहै	-10.574
▁अख्रांमा	-10.5745
ने	-10.5748
ँ	-10.5748
ज्राब	-10.5752
▁मोसायै	-10.5752
▁दुर	-10.576
▁खैफोर	-10.576
▁सासेनि	-10.5767
▁महननि	-10.5773
▁बिबानाव	-10.5778
▁गाम्बारिया	-10.5779
▁हयै	-10.5788
▁बेरा	-10.5792
▁जाव	-10.5797
▁सोराव	-10.5803
▁बिसाइ	-10.5804
ब्लासो	-10.5805
▁हासु	-10.5807
▁नुनायाव	-10.5824
सारा	-10.5828
▁थांखिखौ	-10.5828
▁खिथा	-10.5828
▁जिउवाव	-10.5829
▁सिफायनो	-10.5831
▁खालामै	-10.5836
3.	-10.5836
▁हेब	-10.5837
री	-10.5849
▁साइकेलजों	-10.5853
सां	-10.5857
▁अलसिया	-10.5858
▁बिजामादै	-10.586
▁बुंलांनाय	-10.5864
▁नागारनो	-10.5866
▁बिबाय	-10.5872
▁बिसना	-10.5875
▁बोराइखौ	-10.5891
ण	-10.5892
▁वर्	-10.5893
▁लासैयै	-10.5894
▁गि	-10.5895
न्थि	-10.5896
▁नोंथांमोननि	-10.5897
▁मैहुरारी	-10.5897
▁दाख	-10.5917
सिंआव	-10.5919
▁बिन्दो	-10.592
▁हेफाजाबाव	-10.5922
▁फैलाय	-10.5925
▁अनी	-10.5925
7.	-10.5926
▁अनलायनाय	-10.5952
▁फसं	-10.5957
our	-10.5972
खान्थि	-10.5972
फैनो	-10.5977
▁बिहावनि	-10.598
▁वाइ	-10.598
...........	-10.598
▁फैनाया	-10.5981
▁गिरि	-10.5984
▁जाद	-10.5985
▁दोलोआ	-10.5987
▁रिंसारा	-10.599
▁थाबोला	-10.5991
▁जवानफोर	-10.5994
▁फाइलनि	-10.6
▁थायाखै	-10.6009
▁सान्नायखौ	-10.6035
▁बारबाय	-10.6043
▁मुरा	-10.6045
▁बिमाजों	-10.6053
▁खुन	-10.6056
▁आवराय	-10.6058
▁जय	-10.6059
▁गावबुरानि	-10.606
▁गोरोन्थिखौ	-10.6071
थानि	-10.6071
▁लग्न	-10.6075
बेनि	-10.6076
▁8.	-10.6081
▁बिलिफाङाबो	-10.6085
▁सेब	-10.6085
▁जागा	-10.6087
आबौ	-10.6092
▁हटेल	-10.6094
▁मोन्दां	-10.6099
हैब्ला	-10.6099
▁दैखांदों	-10.6101
▁गाइखेरखौ	-10.6107
हरबाय	-10.6112
▁सेंग्राजों	-10.6114
हाबा	-10.6131
▁मुंमाया	-10.6134
▁साख	-10.6135
गाज्रि	-10.6138
▁फैनायनि	-10.614
▁अह	-10.614
मि	-10.6146
▁जानायखाय	-10.6167
▁फारा	-10.6168
इस	-10.6176
▁हानजानि	-10.6179
▁भुम	-10.6179
▁फुख्रि	-10.6186
▁गारा	-10.6186
▁अक्त	-10.6186
▁सान्थ्रिफोर	-10.6188
▁प्रदिप	-10.619
8.	-10.6191
▁बोख्लाय	-10.6194
▁मोनथिया	-10.6194
ओंखाम	-10.6194
▁फावदुर	-10.6206
▁थिखिनि	-10.6218
थाङो	-10.622
बनाय	-10.6225
▁बिन	-10.6228
▁लि	-10.6231
▁खुगानि	-10.6243
▁सुस्रां	-10.6252
▁मालाया	-10.626
▁बेदरखौ	-10.6261
▁नायनि	-10.6261
वाखैमोन	-10.6265
▁आंना	-10.6276
▁फिदिं	-10.6279
▁बिथांमोन	-10.6284
▁नांजाब	-10.6286
▁दाहानि	-10.6286
▁डाक्तार	-10.6286
▁हाखिम	-10.6287
▁फोला	-10.629
▁समफोर	-10.629
▁गारहर	-10.6292
▁सागु	-10.6293
▁जं	-10.6297
ख्रेब	-10.6297
▁बेंखन	-10.6298
▁बदनाम	-10.6298
ननि	-10.6298
▁थुख्रा	-10.63
▁सयथि	-10.6302
-[	-10.6303
▁जात	-10.6303
▁बिजनेस	-10.6307
com	-10.631
▁सोनो	-10.6313
दौलद	-10.6314
▁सानथ्र	-10.6321
▁कमन	-10.6321
▁मदाराम	-10.6329
▁सोद्रोम	-10.633
▁??	-10.633
▁जाथाइया	-10.6332
▁जाल्ला	-10.6335
▁...........	-10.6336
ar	-10.6337
▁अनगा	-10.6344
खौथ	-10.6347
▁दैमारी	-10.6349
▁सुलु	-10.635
▁दाङाबाजि	-10.6353
▁खरथें	-10.6353
▁दाला	-10.6353
cto	-10.6353
▁थुनलाया	-10.6355
▁आइजें	-10.6356
▁दरलाय	-10.6356
▁बिजाबनि	-10.6358
\	-10.6358
▁इजराइल	-10.6358
▁उलाफाद	-10.6358
▁गुगुरुब	-10.6358
▁जांगिला	-10.6358
▁बिरहाङा	-10.6358
▁मुलामफा	-10.6358
▁बेंपार्ति	-10.6358
▁बोथ्रोद	-10.6358
▁मबाइल	-10.6358
▁बदमाइस	-10.6358
▁mean	-10.6358
▁रोङि	-10.6358
▁अपमान	-10.6358
▁जाइली	-10.6358
▁निरामिस	-10.6358
▁राखाउ	-10.6358
▁जात्रागान	-10.6358
▁बायहेरा	-10.6359
▁सोमखे	-10.6359
▁अभार	-10.636
▁दावब	-10.636
▁मारुति	-10.636
▁बालन्दा	-10.636
▁गेदाइ	-10.636
▁IBM	-10.636
▁जुलाफि	-10.636
▁अंगुबै	-10.6361
▁होनथेयो	-10.6361
▁दाउदै	-10.6361
▁बुंफबनाय	-10.6361
▁जानोहागौ	-10.6361
▁हार्सा	-10.6361
थे	-10.6361
▁साबगौ	-10.6362
▁दन्दि	-10.6362
▁नुथाइ	-10.6362
▁सोंफिनो	-10.6362
▁तुला	-10.6363
▁बोथिसे	-10.6363
▁बिबुंसार	-10.6364
▁नांथाब	-10.6364
▁दोनथुमग्रा	-10.6366
▁सोमजियो	-10.6367
▁आब्राम	-10.6367
▁सानाखै	-10.6368
▁खेला	-10.6369
द्ला	-10.6369
▁हामगौमोन	-10.6369
▁फोसावदों	-10.6369
▁खान्थाल	-10.6369
▁साहाब	-10.6369
▁एइस	-10.637
▁बानजायफुं	-10.637
▁ओंखारदो	-10.637
▁ओरैबादि	-10.6371
▁धुना	-10.6371
▁बिजिरसालियाव	-10.6372
▁जाथारदों	-10.6373
▁कमिसनार	-10.6373
▁ग्लाब	-10.6373
▁आइलि	-10.6373
▁बिहामजोखौ	-10.6373
▁निखावरि	-10.6374
▁दावहारु	-10.6375
▁ब्रैथि	-10.6377
▁थांफिनबाय	-10.6378
▁बिलिद	-10.6379
▁दामोन	-10.6379
▁गसाया	-10.638
▁लिरगिरिफोरनि	-10.6381
▁बाहागि	-10.6382
▁हालामनि	-10.6383
▁खालामजानाय	-10.6384
▁दौब्ला	-10.6386
▁थैनोसै	-10.6386
दाव	-10.6387
▁खोनायाखै	-10.6389
ान	-10.639
▁उनदाहा	-10.639
▁बिग्रायारि	-10.639
▁सोलोंसालि	-10.6395
▁हब्रा	-10.6396
▁एरसो	-10.6397
▁लाजियो	-10.6397
▁रुप	-10.6398
▁गाखोनाय	-10.6398
▁राखेबा	-10.6398
रायना	-10.64
▁गोथो	-10.6402
▁बादारि	-10.6402
▁बुयै	-10.6403
▁दिहुनबाय	-10.6403
▁बुंहां	-10.6405
▁रिंसारआ	-10.6406
▁जाहैबाय	-10.6407
▁मीना	-10.6408
re	-10.6411
▁गिसिब	-10.6412
▁फैयामोन	-10.6412
▁उन्दुबाय	-10.6413
▁दिहुनगिरि	-10.6414
▁सोंथि	-10.6415
▁खानो	-10.6416
▁---"	-10.6418
▁खालामगासिनो	-10.6419
▁मोसायो	-10.6421
▁गयथि	-10.6421
▁दिङा	-10.6421
▁दरा	-10.6422
▁सिगि	-10.6429
लाबानो	-10.6431
▁स्क्रिन	-10.6432
▁बारसे	-10.6435
▁सहि	-10.6438
▁गारबाय	-10.644
▁आलां	-10.6441
ोलो	-10.6443
▁जबाय	-10.6444
▁हाखौ	-10.6445
िकेल	-10.6446
▁आफाफोर	-10.6449
▁फैनायसै	-10.645
▁आजायनाय	-10.6453
▁मिलिटारि	-10.6463
▁सरकारा	-10.6464
▁जाखांबाय	-10.6465
▁खैसार	-10.6468
▁बरफ	-10.6468
बिलाइ	-10.647
▁सोमाव	-10.6471
▁सोरनाव	-10.6473
▁नङादा	-10.6476
▁देरनानै	-10.6482
▁?''	-10.6483
▁बुरखायनो	-10.6483
▁बुंथिनाय	-10.6485
▁बेखेवफाखौ	-10.6486
▁40	-10.6486
लाइफां	-10.6487
▁बाब	-10.649
▁जायहा	-10.649
▁राखां	-10.6491
▁जाब्लाबो	-10.6499
...।"	-10.6504
▁नायबिजिरनो	-10.6504
न्द्रा	-10.6504
▁गोमोनानै	-10.6511
▁बादायलायनाय	-10.6514
▁सिथारनो	-10.6514
▁फ्राय	-10.652
▁गोरानि	-10.6524
▁फरायनायाव	-10.6525
▁जाहैनो	-10.6529
▁मोनामनाय	-10.6531
▁आन्दास	-10.6534
▁आंखालाव	-10.6535
▁थैब्लाबो	-10.6538
▁बुंनाया	-10.6542
...."	-10.6542
सायाव	-10.6543
▁रावनिफ्राय	-10.6554
▁गुवाहाटीयाव	-10.6557
फारिया	-10.656
▁नट	-10.6565
▁मावफुंनो	-10.6566
▁सायावसो	-10.6571
▁थिन्नाय	-10.6577
▁सांग्राङ	-10.6579
▁गामिनिफ्राय	-10.6581
▁फिनबाय	-10.6582
बोनानै	-10.6582
▁खान्थिजों	-10.6583
▁दोलो	-10.6584
▁खुलुमनो	-10.6584
▁सुला	-10.6585
जाग्रा	-10.6587
▁सुफुंनाय	-10.6588
▁गोसोखांनानै	-10.6593
▁मना	-10.6595
▁श्री	-10.6599
▁लाइजामनि	-10.66
▁बेखेवगा	-10.6611
खागोन	-10.6616
▁ब्रेक	-10.6616
▁जेनो	-10.6631
▁फेल	-10.6631
▁हार्ड	-10.6634
▁गाबनाया	-10.6635
▁मोनलोङा	-10.6638
▁de	-10.6638
सेयावबो	-10.6642
▁प्रम	-10.6646
▁होनब्लाबो	-10.6653
फ्लांबाय	-10.6654
▁लानानैसो	-10.6658
):	-10.6662
ननानै	-10.6673
▁बिरि	-10.6677
▁जेनि	-10.669
▁दायनि	-10.6693
▁फोरोंनो	-10.6697
जेननाय	-10.6697
▁नागिरनाया	-10.6699
▁जम	-10.6701
▁हांखोफोरखौ	-10.6702
▁लाउ	-10.671
मोसा	-10.6711
▁लाइजौ	-10.6711
▁बिनहारीया	-10.6712
▁अजाया	-10.6721
ावखुंग्रि	-10.6733
दम	-10.6734
▁जाफुङा	-10.6734
▁बेज	-10.6737
▁खिन्थानानै	-10.674
▁थाहैनाय	-10.6742
▁तुलारामनि	-10.6749
▁बालानो	-10.6751
आखु	-10.6757
▁फैनायाव	-10.6761
▁जायाब्ला	-10.6762
▁आन्दाज	-10.6769
▁बान्थाखौ	-10.677
▁बेव	-10.6771
▁खाला	-10.6791
फि	-10.6797
▁+	-10.6802
▁सैमाया	-10.6802
▁देरहा	-10.6805
▁गामिया	-10.6812
सोल	-10.6813
▁इण्ड	-10.6817
▁---	-10.6817
▁फिसि	-10.6823
▁गुदु	-10.6826
▁ट्रेक्टर	-10.683
▁b	-10.6834
खोना	-10.6841
▁नेनो	-10.6842
फाखा	-10.6843
खां	-10.6854
▁लाउदुम	-10.6856
▁जाल	-10.6857
▁राइजोयाव	-10.6863
▁गै	-10.6868
▁ओंखारबोदों	-10.6871
गिरिया	-10.6875
▁बेब्दि	-10.6877
▁मार	-10.6878
▁फोथांना	-10.6884
थाराखै	-10.6885
▁हिनजावसा	-10.6891
▁बुंबा	-10.6895
▁काल	-10.6903
▁उन्दुना	-10.6908
के	-10.6909
फानो	-10.6913
▁जाला	-10.6918
नायनिफ्राय	-10.6919
▁मिन्थिना	-10.6924
▁बेंनाय	-10.6931
गर	-10.6931
बायमोन	-10.6941
फंबाय	-10.6945
हांखो	-10.6951
ाखैसै	-10.6952
▁जगाय	-10.6953
▁जुथुम	-10.6955
▁खाबुखौ	-10.6958
मारा	-10.6961
▁लाखोमा	-10.6963
▁जोह	-10.697
▁फख्रि	-10.6972
▁जाहोनखौ	-10.6974
▁उदैया	-10.6977
▁फास	-10.699
▁थैनायखौ	-10.6991
▁एरनाय	-10.6992
रुफा	-10.6993
बंग्रा	-10.6998
लांगोन	-10.7
▁थों	-10.7001
▁बाथुल	-10.7005
▁हामनाय	-10.7007
▁जोंरु	-10.7008
▁अबं	-10.7009
बावनाय	-10.7009
▁फेदेर	-10.7021
डा	-10.7022
▁गुबुनारि	-10.7037
▁बुदां	-10.7038
▁जाफै	-10.7039
▁मेइन	-10.7042
▁एरखां	-10.7044
न्ड	-10.7046
▁नांथारगौ	-10.7046
▁बिबनां	-10.7047
ओ	-10.7048
▁आलुमिंगि	-10.7052
▁नोंसोरबो	-10.7053
▁खुंख्रा	-10.7057
▁जोर	-10.7065
सासे	-10.7066
जोबगोन	-10.7068
▁दिरिया	-10.707
▁जालायनाय	-10.7072
▁सानसु	-10.7073
बाहागि	-10.7074
नायखाय	-10.7078
ion	-10.708
▁जायामोन	-10.7082
▁फंबाया	-10.7084
▁बन्ध	-10.7087
▁नोंसोरनो	-10.709
▁नांनायनि	-10.7093
▁--'	-10.7098
नीया	-10.7098
▁सुखुनि	-10.7106
▁बिथाखौ	-10.7113
लासेनो	-10.7113
▁सैबा	-10.7113
▁मास्टार	-10.7117
▁कैलाश	-10.7124
▁गंस्रि	-10.7124
D	-10.7125
दावसि	-10.713
▁बारायो	-10.7131
मेथाइ	-10.7132
अउ	-10.7133
▁बुनाय	-10.7138
▁रान्नाय	-10.7138
बिदिब्ला	-10.7139
▁ब्लाउ	-10.7143
▁आवाराम	-10.7145
फोरनिफ्राय	-10.7153
▁जानगार	-10.7155
▁बारदों	-10.7155
▁गेम	-10.7159
▁मिथिखागौ	-10.7164
▁सप्ताह	-10.7164
▁नुहुर	-10.7166
▁बाजारि	-10.7167
▁रुंसार	-10.7168
▁हौ	-10.7169
▁दानथार	-10.7169
▁आबारीनि	-10.717
ंगिना	-10.7171
लाम्फा	-10.7172
▁मणिपुर	-10.7172
▁Excellency	-10.7174
▁इनिंथौ	-10.7174
▁स्टाइल	-10.7174
ill	-10.7174
▁दाक्टार	-10.7174
▁गोजांस्रिउ	-10.7174
▁सावसुब	-10.7174
▁एरेष्ट	-10.7175
▁मानिमुनि	-10.7175
▁मोबायजों	-10.7175
▁जानुवारि	-10.7175
▁सानसुमै	-10.7175
▁खन्थायारि	-10.7176
▁चौधुरी	-10.7176
▁सादोर	-10.7176
▁सानस	-10.7176
▁गाराङै	-10.7176
▁बाहायखान्थि	-10.7176
▁मोदोमफ्रु	-10.7176
▁दुरुं	-10.7176
▁उजिगासेयाव	-10.7176
▁खरथेङा	-10.7176
▁बोखे	-10.7176
▁थुरसि	-10.7176
सिया	-10.7177
▁सम्फथि	-10.7177
▁अपारेशन	-10.7177
▁ट्रेजेदि	-10.7177
ख्लाब	-10.7177
▁दखान	-10.7177
▁खिथिर	-10.7178
▁जोनोमफुरि	-10.7178
▁सिख्रि	-10.7178
▁गावजें	-10.7178
▁संबिजिर	-10.7178
▁खासिबारी	-10.7178
▁आमथा	-10.7178
▁दाखोर	-10.7179
▁खिला	-10.7179
▁रयाथि	-10.7179
▁ग्रें	-10.718
▁आवगायलाङो	-10.718
▁आब्रुथि	-10.718
▁बावलांबाय	-10.7181
▁नायगिरदों	-10.7182
▁फुकन	-10.7183
लथर	-10.7183
▁लाहै	-10.7183
सानैबो	-10.7184
▁उदयाचल	-10.7185
▁जारला	-10.7185
▁भुगिनांनाय	-10.7185
▁लाइनमेन	-10.7186
▁सन्थलाया	-10.7186
▁बाहेराव	-10.7186
▁नायगार	-10.7186
▁लोंनांगौ	-10.7186
▁गोबाङा	-10.7188
▁(5)	-10.7188
▁खोलाहा	-10.7188
▁नंथारगौ	-10.7189
▁नोंबादि	-10.719
▁साद	-10.7192
▁रांखान्थि	-10.7192
▁प्रदीपा	-10.7193
▁फरायखां	-10.7193
▁पाटिल	-10.7194
▁दिन्थिथि	-10.7195
▁दिनथि	-10.7195
▁फोदो	-10.7197
▁लागायनानै	-10.7197
▁खावलायदों	-10.7197
▁नायदाव	-10.72
▁थौदो	-10.72
डिजिटाल	-10.72
▁दमासुवा	-10.7201
▁गोजोनग्लाय	-10.7201
▁नुहरो	-10.7202
▁देरबाय	-10.7204
▁दावसा	-10.7205
▁दैमालु	-10.7205
▁जाजोबबाय	-10.7205
▁वेर	-10.7206
▁गोमोबाय	-10.7206
▁गिबाय	-10.7207
▁गोब्राम	-10.7208
▁बुंनांगोन	-10.7208
▁थावरि	-10.7209
▁ग्रोम	-10.721
▁थोयो	-10.7211
▁बुब्लिया	-10.7211
▁गाखोबाय	-10.7211
▁ङ	-10.7213
▁थांफिन	-10.7214
फे	-10.7214
▁गोदना	-10.7215
▁फिसाज्लाया	-10.7215
▁आयना	-10.7216
▁नाजाब्लाबो	-10.7217
▁ख्लाब	-10.7219
▁एसेनोसै	-10.722
▁मुङाव	-10.7221
▁अखाफोराव	-10.7221
▁गोसोखाङो	-10.7222
▁बुधबार	-10.7224
▁कैलाशा	-10.7225
▁जाहैयो	-10.7228
▁थुरि	-10.7228
गेन	-10.723
▁गरसेबो	-10.7231
फ्लानानै	-10.7231
▁रायज्लायो	-10.7234
▁हाबाफारिया	-10.7234
▁माइथायनिफ्राय	-10.7237
▁सानखालि	-10.7237
▁दुसि	-10.7239
▁उन्दुयो	-10.7241
▁माखौबा	-10.7243
▁थाङै	-10.7243
▁हायाखैसै	-10.7244
▁नांलायनाय	-10.7245
▁फाइलफोरखौ	-10.7247
▁थक	-10.7248
▁जोंना	-10.7248
ry	-10.725
जोमनाय	-10.7251
▁लिरग्रा	-10.7252
▁गैयाजासे	-10.7253
▁खारै	-10.7254
▁दबथायनो	-10.7254
▁जाहाज	-10.7255
▁अबंलाउरिया	-10.7255
▁बबावबा	-10.7257
▁बाथाव	-10.7258
▁सोदोबथिया	-10.7258
▁f	-10.7258
▁बाख्रि	-10.7258
▁थैजों	-10.7262
▁थिसननाय	-10.7263
▁सोंनांगौ	-10.7265
▁बिजाबा	-10.7267
ज्रां	-10.7271
हरनाय	-10.7272
▁मावाखै	-10.7273
▁मोसाहारिनि	-10.7278
▁गोजांनाय	-10.7279
▁बोसोरसे	-10.7279
▁बोबाय	-10.728
ीनि	-10.7282
▁सानस्रिया	-10.7288
फ्लाङो	-10.7293
▁थायाब्ला	-10.7302
▁दावखो	-10.7303
▁उदुवा	-10.7304
▁सोमोन्दोआ	-10.7309
▁हुगारबाय	-10.7312
▁अरायथा	-10.7316
ब्रे	-10.7316
▁ट्रेजि	-10.7319
▁बाजुरामा	-10.7319
▁जिरायथ	-10.7321
रियाव	-10.7322
▁गोमजोरा	-10.7326
▁सान्दा	-10.7329
▁मावै	-10.7331
गान	-10.7333
▁लिरनायखौ	-10.7335
▁खुवा	-10.7341
बोथों	-10.7342
▁सिकार	-10.7349
▁खाफालानो	-10.7351
▁आखुवाव	-10.7355
▁बायदिनो	-10.7356
लांनायनि	-10.7357
▁खुंनो	-10.7359
▁मोनजानो	-10.7359
▁गलामनि	-10.7364
▁बहाय	-10.7368
▁रामोन्दाया	-10.7372
▁लुबैनाया	-10.7372
▁बाजिसिम	-10.7379
▁गंनानै	-10.7383
▁गुद	-10.7385
▁बुथुमनो	-10.7388
▁आवग्रि	-10.739
माय	-10.74
▁देंखोजों	-10.7401
▁गुमुरखौ	-10.741
▁बेफोरबादि	-10.741
▁हरै	-10.7412
▁खमलाय	-10.7413
▁गैथारा	-10.7414
▁आखाया	-10.742
फोरनो	-10.742
▁मोनबोनाय	-10.7423
▁पार्टिनि	-10.7427
▁मुवाया	-10.743
▁बुजा	-10.7435
w	-10.744
▁You	-10.7462
▁बिल	-10.7464
2.	-10.7468
▁जरा	-10.7469
▁हानाया	-10.7471
▁लाइजामाव	-10.7482
▁जानायबादि	-10.7482
▁दाथाय	-10.7484
▁गोलैनाय	-10.7484
▁सान्थ्रिफोरखौ	-10.7486
▁झ	-10.7491
▁नेटवार्क	-10.7491
ङाखै	-10.7501
▁हायैयाव	-10.7506
▁दावबायनो	-10.7509
▁बेसेना	-10.7514
▁198	-10.7518
▁राङानो	-10.7522
▁गेलेनो	-10.7533
▁मावना	-10.7538
▁केक	-10.7539
▁नुजाथिनाय	-10.754
▁हारियाव	-10.7546
▁बसुमतारिनि	-10.7549
▁बुङाबा	-10.7552
▁बानाया	-10.7552
▁दोनहै	-10.7552
▁समावबो	-10.7562
▁मोननैनि	-10.7562
जोंबो	-10.7567
ग्रोमोना	-10.7571
▁सावरायनायनि	-10.7572
▁जिल्लायाव	-10.7573
▁मोसानि	-10.7573
▁दिन्थिनायनि	-10.7574
▁अस	-10.7575
▁खांनाय	-10.7578
▁सिख्लाफोरा	-10.7584
▁बिदिसो	-10.7598
▁दरखौ	-10.7598
▁गैयालै	-10.7601
▁खारनो	-10.7602
गोसो	-10.7609
▁गुदुङ	-10.7611
▁हुर	-10.7621
टाव	-10.7628
ेस्वर	-10.7628
▁जाहैदों	-10.7632
▁G	-10.7633
नांगौमोन	-10.7634
▁मासिखौ	-10.7634
▁दुर्जांखौ	-10.7638
आनो	-10.7643
▁सर्मा	-10.7649
▁गोसार	-10.765
▁खोमसियाव	-10.765
▁हाथारा	-10.7651
▁एनै	-10.7655
▁माखासेया	-10.7658
▁दंथारो	-10.7663
ेटिक	-10.7664
▁फरायदों	-10.7674
▁खौरांगिरिफोर	-10.7674
▁खुन्थिया	-10.7684
नाथा	-10.7695
▁जुथा	-10.7695
▁रिंखां	-10.7701
▁बाग्लाय	-10.7706
▁हाथर	-10.7718
▁खौरांगिरि	-10.7719
▁कमा	-10.7723
▁हिनजावखौ	-10.7726
▁गामसा	-10.7737
▁महाराजाया	-10.7745
दिन	-10.7745
ल्दा	-10.7749
ir	-10.7753
▁खिन्थानाय	-10.7754
▁लायनाय	-10.7757
गारबोनाय	-10.7762
म्भ	-10.7764
लुं	-10.7773
▁दानायनि	-10.7778
▁दिन्थिया	-10.7779
▁नेर	-10.7779
▁फालांगिया	-10.7784
महन	-10.7786
▁फैना	-10.7789
▁दाहाखौ	-10.7791
▁खान्थिखौ	-10.7793
▁दरसे	-10.7797
खे	-10.7798
▁दरबा	-10.7802
▁एसि	-10.7803
हिन्जाव	-10.7813
सालियाव	-10.7817
N	-10.782
▁रुमखौ	-10.7824
▁गरसे	-10.7827
▁बिथि	-10.783
▁रय	-10.7839
▁लुन	-10.784
▁गोजांस्रिव	-10.784
▁प्रशान्त	-10.7845
▁नोंथांजों	-10.7847
फिननाय	-10.785
▁हौवाफोर	-10.7858
▁सिंजों	-10.7861
▁सोलेर	-10.7865
p	-10.7869
▁आखुमा	-10.7874
▁नांब्ला	-10.7881
ये	-10.7884
▁गोलोम	-10.789
▁रायजित	-10.7894
▁दोहो	-10.7897
▁मुहि	-10.7898
▁फाहामथाय	-10.79
▁मोदाइजो	-10.7905
थारो	-10.7905
सब	-10.7907
हाव	-10.791
▁बोलोखौ	-10.7921
S	-10.7924
भ	-10.7937
▁गुथाल	-10.7938
▁खान्थिया	-10.7953
▁जिखि	-10.7955
▁मिनिटसो	-10.7967
▁रिंसारथि	-10.7968
▁लाजोब	-10.7972
▁जुजिनाय	-10.7974
▁खांदों	-10.7983
▁मोदायजो	-10.7988
▁हेन्देल	-10.7989
खाया	-10.7992
▁स्ट	-10.7996
हायि	-10.7996
▁नांगौमोन	-10.8004
▁बेला	-10.8004
▁बन्दा	-10.8009
▁सिनखौ	-10.8012
▁फानग्रा	-10.8016
▁थेव	-10.8018
▁कास्तमार	-10.8023
गुल	-10.8023
▁गाथोन	-10.8029
..............	-10.8032
बहा	-10.8032
▁थानादार	-10.8033
▁बाल	-10.8033
▁अंक	-10.8034
▁ग्रीमउइग	-10.8035
▁दानथाम	-10.8044
▁बियादै	-10.8045
फ्रामबो	-10.8046
▁कृष्ण	-10.8046
▁सोबख	-10.805
▁एसिद	-10.805
▁फेजेन	-10.8054
▁रोङाखै	-10.8054
▁मेनु	-10.8056
ुड	-10.8057
▁सुथार	-10.8059
मागिरि	-10.806
▁होआखै	-10.806
▁रेडि	-10.8063
▁डिसेम्बर	-10.8064
▁हर्खाब	-10.8064
▁थुंगे	-10.8064
▁नाथ्रोद	-10.8064
▁थोंजोङै	-10.8064
▁बारहावा	-10.8064
▁गुरहं	-10.8064
▁ग्रीक	-10.8064
▁दरखङाव	-10.8064
▁जावले	-10.8064
▁बयजोंबो	-10.8064
▁साइर	-10.8064
▁इनपुट	-10.8064
▁थगायसुला	-10.8065
▁जब्द	-10.8065
▁नांबावगौ	-10.8065
▁दोनखुमा	-10.8065
▁सेर्जा	-10.8065
▁आरजलाइ	-10.8065
▁खामहाब	-10.8065
▁सोनारो	-10.8065
▁बाथोन	-10.8066
▁निखाउरि	-10.8066
▁नेपाल	-10.8066
▁बेसेननि	-10.8066
▁लंपेन्ट	-10.8067
▁बाज्रेद	-10.8067
▁जुलाइ	-10.8067
▁इज्जत	-10.8067
निराम	-10.8068
▁(6)	-10.8068
▁खान्दि	-10.8068
▁सिनायाखै	-10.8069
▁बुध्दि	-10.8069
▁आउट	-10.8069
▁खिफि	-10.8069
▁आबु	-10.8069
▁बारजां	-10.8069
▁सिथोर	-10.8069
▁अन्जिमा	-10.807
▁बेलुन	-10.807
▁दामोल	-10.8071
▁हायेन	-10.8071
▁हामगौ	-10.8071
▁एमेले	-10.8071
▁फार्सेथिङै	-10.8071
▁राजखान्थियारि	-10.8072
▁जाहोनांगौ	-10.8072
▁एरिया	-10.8072
▁लहेना	-10.8072
▁फित	-10.8072
▁ले	-10.8072
▁हिसान	-10.8073
▁स्टेसन	-10.8073
▁नाइट	-10.8075
▁हाथर्खि	-10.8075
▁गम्भ	-10.8075
▁मोन्नाव	-10.8075
▁सिखाउ	-10.8075
▁जेसेखि	-10.8075
▁आसोल	-10.8075
▁मस्ट	-10.8076
बावगोन	-10.8076
▁इसिङाव	-10.8076
▁ब्लक	-10.8076
▁दंबावयो	-10.8076
▁बुंजोब	-10.8077
▁नालेया	-10.8077
▁खनखां	-10.8077
▁सुग्रि	-10.8078
▁मास	-10.8078
▁जीब	-10.808
▁बादोर	-10.808
▁हालदै	-10.8081
▁गोलैयो	-10.8081
▁सम्बारु	-10.8081
▁सुइसाइद	-10.8082
▁गराइ	-10.8082
▁मानास	-10.8082
▁खोनाना	-10.8082
▁शाला	-10.8083
▁सासु	-10.8084
▁सन्मान	-10.8084
▁मैहुराव	-10.8086
▁फैफिनाखै	-10.8087
▁मास्थारा	-10.8087
▁फिल्म	-10.8088
▁सर्ब	-10.809
▁दाउस्रि	-10.8091
▁बाउनाय	-10.8094
▁बोसोरनै	-10.8095
▁रमायना	-10.8097
▁एवस्रां	-10.8097
▁जागायजेननाय	-10.8097
▁ब्रुं	-10.8098
▁रोंगौथि	-10.8098
▁सोंनायसै	-10.8098
▁खावलायो	-10.8099
▁गुन्द्रा	-10.8099
▁मदारामा	-10.8099
▁लुबैदोंमोन	-10.81
▁लुफुंनाय	-10.8101
▁होफैबाय	-10.8101
▁जानाङो	-10.8102
▁ओंख्रि	-10.8106
▁जौथाय	-10.8107
यासै	-10.8107
▁जाबो	-10.811
ाल	-10.811
▁फुवा	-10.8111
▁खैनाशान्तिया	-10.8114
दं	-10.8114
र्थ	-10.8115
▁फोथै	-10.8117
▁नार्जारिया	-10.8118
▁ण	-10.8119
▁ज्राब	-10.8119
▁हज्रि	-10.812
▁नोंथांमोनहा	-10.812
▁मावफारियाफोरा	-10.812
▁संग्रायाव	-10.8122
▁मेसिन	-10.8123
▁रादाय	-10.8123
▁जोंखाङो	-10.8124
▁सोरजिदों	-10.8127
▁दाहालागै	-10.8128
▁नुजाथियो	-10.8129
▁शनिबार	-10.8132
▁बिथांमोना	-10.8135
▁बेसेबांदि	-10.8136
▁अफिसनिफ्राय	-10.8138
▁आफोद	-10.8138
▁मुगैयो	-10.8142
▁लोंखांनानै	-10.8144
▁लामाथिं	-10.815
दाया	-10.8153
सिनबाय	-10.8156
▁सानहाबनानै	-10.8157
▁अनारिया	-10.8161
▁दानस्लायनाय	-10.8164
▁साननांगौ	-10.8166
बजबनानै	-10.8168
▁सायनासालि	-10.8169
▁माहारियाव	-10.817
ावबो	-10.8173
▁मालायनाव	-10.8173
▁सोमावसारनो	-10.8176
▁बेफ्रु	-10.8178
थाया	-10.818
▁हानायमानि	-10.8185
▁देलाय	-10.8186
▁सिमाङा	-10.8191
अर	-10.8193
not	-10.8194
▁इसोरा	-10.8197
▁जाबोनो	-10.8199
▁खुलुमनाय	-10.8201
▁हादरा	-10.8202
▁दाहायाव	-10.8203
▁सिनायो	-10.8203
बावदों	-10.8203
▁गोमायो	-10.8203
▁माइथाय	-10.8205
▁खेवनाय	-10.8206
▁सावख्लि	-10.8207
▁खल	-10.8207
▁बिजाथि	-10.821
▁लायोब्ला	-10.8212
▁राखाव	-10.8222
▁बिगियानगिरिफोर	-10.8223
▁थांनायसै	-10.8226
▁जोबगोन	-10.8234
▁भुमनि	-10.8235
▁खान्थियाव	-10.8237
▁बेरला	-10.8238
▁h	-10.824
▁मोजांनि	-10.8241
▁लांफै	-10.8245
▁मानोथ	-10.8246
▁दख	-10.8247
▁आनारामखौ	-10.8248
▁बाइ	-10.825
▁मोनलायनायखौ	-10.8254
▁केजि	-10.8254
▁मोनाबा	-10.8258
▁लाफानो	-10.8259
▁खाङो	-10.8263
बाद	-10.8264
▁बोनायाव	-10.8265
▁बुंनायाव	-10.8273
▁रायनाय	-10.8279
▁नायनायनि	-10.8281
▁लेदि	-10.8281
▁बिरलां	-10.8285
▁फोथा	-10.8287
▁धोरोमखौ	-10.8296
▁सिमांनि	-10.8299
▁बेखेवनाय	-10.8301
▁ओंथियाव	-10.8306
▁इनफरमेसनफोर	-10.8308
दोरफो	-10.831
▁आखुथाया	-10.8311
▁बुजायनो	-10.8312
▁आंहालाय	-10.8313
▁थाबाव	-10.8316
▁थगायनाय	-10.8316
C	-10.8327
▁होननो	-10.8329
▁हराखै	-10.8331
स्लाय	-10.8332
▁सुजुगिरि	-10.8333
थारला	-10.8334
▁गावथारनाय	-10.8339
▁होलांनाय	-10.8341
मेट	-10.8355
▁बादों	-10.836
▁नुब्लानो	-10.8366
▁दुखुवाव	-10.8367
▁नाया	-10.8367
▁मोनलायनायनि	-10.8369
▁दैमु	-10.837
▁होफैनाय	-10.837
▁वा	-10.837
▁गोरायै	-10.8372
▁रजे	-10.8377
▁देरनाय	-10.8379
▁जानांगौब्ला	-10.8382
▁हार	-10.8383
ामोन	-10.8385
▁सानब्लाबो	-10.8388
▁फिसाफ्रा	-10.839
▁होखारनो	-10.839
▁फांथे	-10.8394
थारनाय	-10.8394
▁होथे	-10.8402
▁E	-10.8402
▁फाइलखौ	-10.8415
▁हाम	-10.8416
▁थैनि	-10.8419
▁फिसाफोरा	-10.8421
30	-10.8429
बोदोंमोन	-10.8433
▁खुरैखौ	-10.8434
जागासिनो	-10.8438
▁जाजोब	-10.8447
▁खान्दा	-10.8448
▁फैसाली	-10.8449
▁अरखाव	-10.8454
▁खाया	-10.8456
▁ओंखारबोनाय	-10.8464
▁बाब्राब	-10.8466
खल	-10.8469
▁जौसे	-10.848
▁उदैनि	-10.8482
▁सोरखि	-10.8483
▁दावहाया	-10.849
▁c	-10.8492
▁फोलेरा	-10.8498
▁बेनिख्रुइ	-10.8503
फरा	-10.8505
▁बावाखै	-10.8508
▁आखाइया	-10.8514
▁संदान	-10.8515
सानै	-10.8525
▁सेंग्राफोरनि	-10.8526
▁दुखुवा	-10.8529
▁मुस्रिया	-10.8534
▁नारसिन	-10.8541
▁थासारिया	-10.8543
▁दिल्लीनि	-10.855
▁ष्टे	-10.8552
▁फरा	-10.8561
▁नाजानाया	-10.8562
▁थुलुंगाखौ	-10.8563
▁आला	-10.8564
▁जिरात	-10.8569
▁बुस्रि	-10.857
हारिमु	-10.8571
▁जादो	-10.8572
▁बायजोनि	-10.8573
▁29	-10.8585
▁बाथ्रायानो	-10.8591
▁बिथिंजाय	-10.8592
फुनायाव	-10.8594
बावनायसै	-10.8596
▁गुना	-10.8598
▁आंनिया	-10.8598
▁सादों	-10.8599
सामा	-10.8599
▁मिस	-10.862
▁माल	-10.8621
▁हाबाफोरखौ	-10.8622
▁गोल्लै	-10.8626
▁थाफा	-10.863
स्री	-10.8631
▁बोहैलां	-10.8638
र्ट	-10.8639
▁जग्रा	-10.8641
▁हरदो	-10.8643
वनो	-10.8646
▁ओंखारलांनो	-10.8647
▁बिजाबफोर	-10.8658
▁हिन्जावफोरखौ	-10.866
▁सरला	-10.866
▁समाजखौ	-10.8667
सोम	-10.8672
▁बोखो	-10.8679
थिख	-10.868
▁गोरोन्थिया	-10.8682
▁नायजा	-10.8684
▁सब	-10.8685
ङ	-10.8689
▁सोमावसार	-10.8694
▁थारखौ	-10.8699
▁थाइलालिखौ	-10.8711
▁मोनफिन	-10.8713
▁खैफोदखौ	-10.8716
▁ओनसोलफोर	-10.8716
▁खानि	-10.8718
▁सोगोम	-10.8724
▁झालु	-10.8727
....।	-10.873
▁दुंखां	-10.8738
ङारि	-10.874
▁M	-10.8745
थावना	-10.8747
इन	-10.8749
▁मोसाहारि	-10.8751
▁नायहरदों	-10.8752
सुलि	-10.8753
▁महा	-10.8754
▁एरख	-10.8756
लिं	-10.8768
▁गैयैयाव	-10.8769
ept	-10.877
▁नङासै	-10.8772
ाथ	-10.8777
▁for	-10.8779
▁सिनि	-10.8782
मास	-10.8782
थोर	-10.8795
▁नखरा	-10.8808
नेल	-10.8808
गारबाय	-10.8809
लासिनो	-10.8814
▁व	-10.8814
▁लखि	-10.8817
▁मानबाय	-10.8825
▁हगारनाय	-10.8825
हैदो	-10.8829
▁पेकेट	-10.8832
▁दोंनै	-10.8832
साया	-10.8838
लायदों	-10.8838
▁कर्ट	-10.8839
▁रग	-10.8841
▁सुइस	-10.8842
▁रौनिया	-10.8844
▁नार्जारि	-10.8848
▁मानसिहा	-10.8852
कराझार	-10.8856
▁रुमाल	-10.8858
▁बिबोनां	-10.8863
▁हिन्जावफोरनि	-10.8863
▁सोला	-10.8868
मुस्रि	-10.887
▁थालो	-10.887
▁60	-10.8874
▁बैफोर	-10.8876
ज्लाय	-10.8879
▁गोबाय	-10.8881
▁पार	-10.8887
▁मालाइ	-10.8888
▁बैसोआव	-10.89
बाथा	-10.89
▁जार्मान	-10.8906
▁मेडिया	-10.8908
रनानै	-10.891
▁अनसि	-10.8911
▁हाबिलाया	-10.8911
थावा	-10.8912
▁जोबा	-10.8913
▁रस	-10.8926
▁मैना	-10.8927
▁रुब	-10.8933
▁दाखोन	-10.8937
▁दाखु	-10.8943
मिटार	-10.8945
▁जाथावै	-10.8947
▁बिबथै	-10.8951
▁बुबिलि	-10.8954
▁मोनदांथि	-10.8955
▁थैस	-10.8958
दावला	-10.8961
▁जावलियानि	-10.8962
▁साहाया	-10.8964
▁दख्ना	-10.8966
▁लाजिनो	-10.8969
▁द्लाम	-10.8972
आनारी	-10.8973
I	-10.8979
▁मत	-10.898
▁मोसौखौ	-10.898
▁पेपार	-10.8984
फाख	-10.8986
जुनार	-10.8991
आलाइ	-10.8991
गन्द	-10.8993
गालांनाय	-10.8994
▁आरांगा	-10.8995
फारां	-10.8996
▁गसंनाय	-10.8998
दुमसि	-10.8998
खनला	-10.8999
आयदा	-10.8999
▁ढ	-10.9002
न्च	-10.9002
▁लागै	-10.9004
▁खनथाय	-10.9005
आंहा	-10.9009
सिलाइ	-10.901
▁नारायण	-10.901
▁दमासु	-10.901
माने	-10.9015
▁बुद्रै	-10.9016
▁लिरना	-10.9019
▁बुदारु	-10.9025
▁खुद्रि	-10.9027
▁रेलवे	-10.9029
▁टाइम	-10.9032
▁मते	-10.9032
▁दैखांना	-10.9033
▁थाङाखै	-10.9034
▁लादाय	-10.9034
▁बिघा	-10.9036
हनाय	-10.9038
▁मडेल	-10.904
▁Captain	-10.904
▁अन्जालि	-10.904
▁अमृत	-10.904
▁उल्टा	-10.904
▁एक्सटेनसन	-10.904
▁गान्धी	-10.904
▁फिरफिला	-10.904
▁महिलारी	-10.904
▁रहमान	-10.904
▁राजखुंगुर	-10.904
▁लांसुनिया	-10.904
▁फावदिन्थिनाय	-10.904
▁लक्ष्मी	-10.904
▁थाइलिर	-10.904
▁इंखं	-10.904
▁सफ्टवेर	-10.904
▁अनजालु	-10.904
▁ब्रेकफास्ट	-10.904
▁बैथाली	-10.904
▁हाथुरा	-10.904
▁नबीन	-10.904
▁मैखुन	-10.904
▁प्रसेसिं	-10.904
▁प्रेकटिस	-10.904
▁बेण्डेज	-10.904
▁आरिमु	-10.9041
▁मेजर	-10.9041
▁words	-10.9041
▁लेकसार	-10.9041
▁मुब्रुं	-10.9041
▁फायारिं	-10.9041
▁देउल	-10.9041
▁बानबुंथि	-10.9041
▁कम्पानी	-10.9041
▁गेसेव	-10.9041
▁बयनिखुरै	-10.9041
▁उनथाराव	-10.9042
▁2000	-10.9042
▁गोथाङै	-10.9042
▁लांखार	-10.9042
▁स्लगान	-10.9042
▁दैबाना	-10.9043
▁बेंगिरि	-10.9043
▁ब्लां	-10.9043
▁रेप	-10.9043
▁खसाब	-10.9043
▁दुफुं	-10.9043
▁थिउ	-10.9043
▁गायदाङा	-10.9044
▁गिदित	-10.9044
▁गान्थि	-10.9044
▁सोलिबोनाय	-10.9044
▁बाइजोआव	-10.9044
▁सौवो	-10.9044
▁लर्ड	-10.9045
फिननानै	-10.9045
▁आथुर	-10.9045
▁मालदार	-10.9045
▁गानस्लाय	-10.9045
▁बेदत	-10.9046
▁थखन	-10.9046
▁गाखोहैयो	-10.9046
▁इनाइ	-10.9046
▁थिफुं	-10.9047
▁बिश्व	-10.9047
▁उथुमाय	-10.9047
▁अहं	-10.9047
▁मोनथारबाय	-10.9048
▁आलफा	-10.9048
▁आयु	-10.9048
▁थुलुंसि	-10.9048
▁नीलाम्बर	-10.9048
▁मेलेरिया	-10.9048
▁Yes	-10.9048
▁बकसिस	-10.9048
▁जुजाइनि	-10.9048
▁नुहैबाय	-10.9048
▁फाल्ला	-10.9048
▁मुकुट	-10.9048
▁बुंदो	-10.9048
▁हाब्रु	-10.9048
▁मिसेस	-10.9049
▁गरद	-10.9049
▁गसाथिया	-10.9049
गोमा	-10.905
▁फारिलाइ	-10.9051
▁हामसिन	-10.9051
▁दोनखानाय	-10.9052
▁नुजाफैयो	-10.9052
▁रुजुनाय	-10.9053
▁प्रशान्तवा	-10.9054
▁जार्ला	-10.9054
▁सुजु	-10.9054
▁गाराइ	-10.9055
▁थाइनै	-10.9055
मोनखौ	-10.9056
▁लाइजौवा	-10.9056
▁लाखिदों	-10.9056
▁बासाय	-10.9056
▁सानना	-10.9057
▁नैजिबा	-10.9058
▁सैथि	-10.9058
▁रोंबाय	-10.9058
▁खुदुमो	-10.9059
▁थुनलाइगिरिफोरा	-10.9059
▁गेलेयो	-10.906
▁हासिगौ	-10.906
▁थानाङो	-10.9061
▁गाननाया	-10.9061
▁बेसर	-10.9061
राइ	-10.9062
▁बाहेरायाव	-10.9062
▁रानी	-10.9062
▁हाराम	-10.9064
▁सौफैबाय	-10.9066
▁सामोल	-10.9067
▁हेड	-10.9067
▁हजुर	-10.9067
▁थाखै	-10.9068
ound	-10.907
▁सिबियो	-10.907
▁नंदों	-10.9071
▁होफिनो	-10.9071
▁जालांगोन	-10.9072
▁गोलैदों	-10.9072
▁जाखाबाय	-10.9073
▁लाखिगोन	-10.9075
▁बक्स	-10.9077
▁हाउसाव	-10.9077
▁जफायो	-10.9078
▁किल	-10.908
▁उन्दुलांबाय	-10.908
▁हासिगोन	-10.908
▁सोराङा	-10.908
▁ड्रेस	-10.9081
▁थांनांगोन	-10.9082
▁गावदां	-10.9083
▁गोबाङै	-10.9084
▁हबे	-10.9084
▁हरासै	-10.9084
▁इण्डिया	-10.9086
▁अन्थाय	-10.9087
▁नागारा	-10.9089
▁फोनांनानै	-10.909
▁सोंखारिनाय	-10.9092
▁मार्स	-10.9092
▁स्राव	-10.9094
▁गंथाम	-10.9095
▁मन्जुलाया	-10.9096
▁जिरादा	-10.9098
▁नेसा	-10.9098
▁दौलद	-10.9098
▁दौदिनि	-10.9099
▁टेबुलाव	-10.9101
k	-10.9104
▁मिबथि	-10.9105
आदसा	-10.9106
▁नागाफ्रा	-10.9106
▁द्लामै	-10.9111
▁ब्रां	-10.9111
▁नामाब्रा	-10.9113
▁रासायन	-10.9114
▁उथ्रिनो	-10.9115
▁मागो	-10.9115
लेर	-10.9116
▁गोख्रैयै	-10.9116
▁ख्रुब	-10.912
▁बिलिरनानै	-10.912
डब्लिउ	-10.912
▁थारला	-10.912
▁फासि	-10.912
▁लिरबाय	-10.912
आदाया	-10.9121
मागिरिनि	-10.9122
▁खालामामोन	-10.9122
▁जिबि	-10.9123
▁खुन्थि	-10.9123
▁खोख्लैनो	-10.9124
▁अबिनासा	-10.9124
▁बोहैनाय	-10.9124
▁खननाय	-10.9125
सिलाय	-10.9125
▁लाबोदोंमोन	-10.9126
▁रमेननि	-10.9127
▁नाव	-10.9127
म्बर	-10.9127
लाप	-10.9133
▁बेरखांनाय	-10.9133
.00	-10.9134
▁दारै	-10.9135
▁जायाखैसै	-10.9135
▁दंजोबो	-10.9138
▁गादि	-10.914
▁लिभार	-10.914
▁फुलिनि	-10.9142
▁साबिखौ	-10.9143
▁मोसादों	-10.9145
▁होमब्लालाय	-10.9148
▁बिमुं	-10.9149
नोंथांनि	-10.9149
▁हरखि	-10.915
▁रोगा	-10.9151
▁आबसा	-10.9151
ेट	-10.9156
▁गासा	-10.9159
▁लोरबांथि	-10.9163
▁बेथेर	-10.9164
▁गोमाबाय	-10.9165
▁हाबफैबाय	-10.9165
▁अन्दराव	-10.9167
▁सहरनि	-10.9168
आबो	-10.9168
▁जाहोनानै	-10.9174
▁फुर	-10.9175
▁नामै	-10.9178
▁सिरिसे	-10.9179
▁माजेन	-10.9181
▁फाग्लिया	-10.9181
▁नाख्रेब	-10.9182
▁आंखौबो	-10.9187
▁मिजिंथि	-10.9189
फोरानो	-10.9191
▁हास्थायनाय	-10.9194
▁ओंखारलांदों	-10.9195
ख्लि	-10.9197
▁फथ	-10.9197
▁सफ्ट	-10.9197
▁गोनांसिन	-10.9201
▁रुगुङा	-10.9203
▁साखि	-10.9205
▁गेदे	-10.9208
▁राइट	-10.9208
▁जोहोलावफोर	-10.9211
▁मैदेरा	-10.9212
▁थांस	-10.9214
▁खारदो	-10.9215
।...	-10.9216
▁थौबाय	-10.9217
▁जाहां	-10.9218
▁रायजा	-10.9218
▁बेनोदि	-10.922
▁ग्रह	-10.9221
▁.....।"	-10.9222
▁बारो	-10.9222
▁गाज्रिसिन	-10.9223
▁गायनो	-10.9225
▁आराम	-10.9237
▁दुमा	-10.9239
▁जोम	-10.9239
▁फोसाबनो	-10.9239
▁सान्थ्रिफोरा	-10.9241
▁सहखौ	-10.9243
▁बावा	-10.9244
▁नोंसोरहा	-10.9245
▁जानायजों	-10.9246
▁माहि	-10.9246
▁दावमा	-10.9248
▁बाथ्राफोरा	-10.9253
▁सिलिम	-10.9254
▁महाराजाखौ	-10.9255
▁दावदाब	-10.9255
▁लाभ	-10.9256
▁नाजानानै	-10.9258
बाथेद	-10.9259
िखौ	-10.9259
▁साफि	-10.926
▁नोंसोरो	-10.926
▁बोदों	-10.9262
खांब्ला	-10.9272
्रब	-10.928
▁गिदिंबाय	-10.928
▁दालायाव	-10.9283
▁आइजोफोरा	-10.9288
रोन	-10.9294
▁गिनाया	-10.9295
▁लानायमोन	-10.9295
▁थगायनो	-10.9303
▁गंफ्रोम	-10.9303
▁सुग्लाय	-10.9304
▁जेंनाया	-10.9306
फोरालाय	-10.9309
ेत	-10.9311
▁माराव	-10.9313
▁लोंनायाव	-10.9316
▁अजितनो	-10.9322
▁फिसाइजों	-10.9324
▁हैयो	-10.9325
▁सानगासिनो	-10.9332
▁बाउ	-10.9341
▁फसंनो	-10.9346
▁खुसिजों	-10.9354
▁खावलायनाय	-10.9355
▁हैबाय	-10.9356
▁बिसो	-10.9361
रामा	-10.9361
▁लाखा	-10.9362
▁देरनो	-10.9365
▁फारियाव	-10.9368
▁जिर	-10.9376
▁गदाया	-10.9377
▁जागि	-10.9383
▁थावा	-10.9384
▁साननैनि	-10.9395
2	-10.9397
▁गोहोमा	-10.9405
▁उन्दुनानै	-10.9406
दला	-10.9409
▁प्लटा	-10.9411
▁साथा	-10.9412
▁सोमजिहो	-10.9415
▁लोमजानायनि	-10.9415
▁गोबांसिन	-10.942
▁गोबाख्रब	-10.942
▁गंसेबो	-10.9421
याब्ला	-10.9426
▁मोनाम	-10.9428
▁होनायमोन	-10.943
▁बिदिनोसै	-10.943
▁इनस्ट्राकसन	-10.9432
▁साख्रिखौ	-10.9435
▁फसंथान	-10.9437
▁सिस्टेमा	-10.9438
▁अनसायनाय	-10.9441
▁दाग्रा	-10.9447
▁सालाफोर	-10.945
▁बैसागो	-10.9454
▁अननानै	-10.9456
▁आखलाव	-10.9457
▁फोरनि	-10.9457
▁बानानि	-10.946
खोमाबाय	-10.946
▁बबा	-10.9461
▁बाग्रा	-10.9465
▁जाखादों	-10.9466
▁गोनाङा	-10.9467
गो	-10.9469
सेन्ट्रे	-10.9474
▁बिफोर	-10.9474
▁गावसोरनो	-10.9476
▁हिनजावा	-10.9477
▁खलथाया	-10.9478
हरा	-10.9482
▁गियानि	-10.9483
खोमानाय	-10.9488
▁आह	-10.9488
▁फेन	-10.9492
बिब्दि	-10.9494
▁गाखोनो	-10.9499
▁थांखियाव	-10.9499
▁दान्दा	-10.95
▁सोलिनाय	-10.9512
▁पाप	-10.9513
▁खो	-10.9515
▁मोनोमोन	-10.9517
▁दुमफे	-10.9519
लायलांबाय	-10.9524
▁फिसौफोर	-10.9524
▁गारिजों	-10.9528
▁मालायखौ	-10.9529
ख्रा	-10.9534
दाय	-10.9535
▁मोनदां	-10.9535
▁खेवनो	-10.9539
▁सालिसखौ	-10.9539
▁जेंनानि	-10.9539
▁खुरिया	-10.9542
▁रमाया	-10.9542
▁थसे	-10.9544
भा	-10.9545
▁भुटिया	-10.9546
8	-10.9552
फिनदों	-10.9557
▁बाग्राय	-10.9558
▁नागिरहै	-10.956
▁सोरमोन	-10.9561
▁जावलियाया	-10.9561
▁साहाबा	-10.9563
स्रोम	-10.9568
▁बिबानगिरिफोर	-10.9568
बाला	-10.9568
▁सोंब्ला	-10.9572
▁मैयानि	-10.9582
बाथ	-10.9588
es	-10.959
▁फार्सेथिं	-10.9593
▁सेन	-10.9594
▁लाहारि	-10.9596
लवार	-10.9597
▁सें	-10.9599
▁सनानि	-10.96
▁रेक	-10.9601
▁बुरा	-10.9601
▁फैखो	-10.9605
▁सुजुग्रानि	-10.9608
▁हाबसो	-10.9612
ग्रं	-10.9616
निक	-10.9617
▁थेख्रे	-10.9617
▁मोननायाव	-10.9618
▁बाजिबाय	-10.9618
▁गावसो	-10.9625
▁सोबो	-10.9635
▁गगल्स	-10.9638
▁फिउ	-10.9642
दब	-10.9645
लौ	-10.9647
▁आफाखौ	-10.9652
se	-10.9654
▁दैनानै	-10.9655
▁थाबायनो	-10.9661
▁फुनो	-10.9663
ve	-10.9664
▁थियेटारखौ	-10.9673
▁जायगानिफ्राय	-10.9678
▁बालु	-10.9687
बेर	-10.9687
▁उकिल	-10.9688
▁जिनिसखौ	-10.9689
नानि	-10.9694
▁मावजा	-10.9695
▁नायलाय	-10.9696
▁नायगिदिं	-10.9706
▁स्र	-10.9707
▁जालायदों	-10.9708
▁होबथानाय	-10.9724
ग्रायाव	-10.9727
▁साबेसे	-10.9733
▁195	-10.9745
▁ब्राय	-10.9751
▁बिखाजों	-10.9758
▁फरायगा	-10.9758
▁फिसाजोया	-10.9761
जो	-10.977
▁लायफिन	-10.9774
▁नंनाय	-10.9785
▁दिथा	-10.9785
ग्रोम	-10.9787
फिसाइ	-10.9789
डार	-10.979
जादब	-10.9797
▁आथिंजों	-10.9798
▁फुलि	-10.98
▁सोदोबाव	-10.9802
▁बाथुवा	-10.9804
बिमा	-10.9807
▁मनजुला	-10.9813
▁फैला	-10.9827
▁सारा	-10.9827
रिया	-10.9832
▁रेबती	-10.9835
थावथाव	-10.9836
▁ब्ल	-10.9838
▁खाजि	-10.984
आंखौ	-10.984
▁देनाय	-10.9846
▁दैदेन	-10.9847
▁जादोंब्लाबो	-10.9848
▁साननिफ्राय	-10.9852
▁सोफै	-10.9864
थुनलाइ	-10.9865
नखौ	-10.9865
▁बेसिम	-10.9867
▁बुंहरदों	-10.9871
▁दाबोनो	-10.9871
▁उखैनाय	-10.9876
▁नोमफा	-10.9882
▁नेगासिन	-10.9884
16	-10.9885
▁बासिया	-10.9886
दाङै	-10.9888
▁सोरजिगिरि	-10.9889
▁मोनफ्राम	-10.9889
▁उवाल	-10.9891
▁बिथं	-10.9891
▁असम	-10.9892
▁दामा	-10.9892
▁उखै	-10.9899
▁अननायखौ	-10.9904
▁थारुन	-10.992
▁हरफिन	-10.9924
▁दोरो	-10.9926
नांला	-10.9929
▁सेंग्रानि	-10.9938
▁खोमसिनि	-10.994
▁आवगायनि	-10.994
▁लाथा	-10.9943
होनायनि	-10.9944
मारबाय	-10.9946
▁लुनो	-10.9946
▁बिसुखे	-10.9947
▁मोनजारोङै	-10.995
▁जल	-10.9954
▁खारबाय	-10.9958
▁{	-10.9961
बाजा	-10.9962
गय	-10.9965
▁गुस्लायनाय	-10.9972
▁हांगारि	-10.9981
▁भट	-10.9982
▁सुलुं	-10.9986
▁हगारनो	-10.9987
▁देंखोखौ	-10.9988
▁नागाया	-10.9994
▁फावथिनाया	-10.9995
▁मोजाङा	-10.9996
▁संराजा	-10.9998
▁भुट	-11.0001
m	-11.0001
गोनलै	-11.0004
▁नोम्फा	-11.001
▁ha	-11.0012
▁बल	-11.0013
▁आखि	-11.0017
▁बिप्लब	-11.0022
▁नंखायखौ	-11.0023
बिसोर	-11.0024
▁ओंथिखौ	-11.0035
▁गमामा	-11.0037
आरति	-11.0038
▁काम	-11.0038
▁अनखां	-11.0044
नामा	-11.0048
ch	-11.0049
मोदै	-11.0049
बोरै	-11.005
▁फावगिरि	-11.0056
गोजा	-11.0058
▁सावरायज्लाय	-11.006
▁मोजांथार	-11.006
▁हाउस	-11.0062
एफ	-11.0063
▁मिनिदों	-11.0065
▁साखाथि	-11.0069
▁बरगयारी	-11.007
▁माजों	-11.007
▁सिमांखौ	-11.0072
G	-11.0075
▁पकेट	-11.0075
▁जिरादफोर	-11.0077
खुगु	-11.0077
गोथो	-11.0078
▁मीन	-11.0079
▁रुफाथि	-11.0079
दोर्सोन	-11.0079
▁मावनायखौ	-11.0088
दौ	-11.0089
▁200	-11.0091
▁दबथाय	-11.0092
▁मास्थार	-11.0093
▁इंख्रिया	-11.0095
▁मन्जुला	-11.0095
▁लोगोफोरखौ	-11.0096
बबि	-11.0097
▁फुंबिलि	-11.0098
▁गोमसार	-11.0098
▁हाबिलदार	-11.0101
▁थिंगिनि	-11.0101
▁दैख	-11.0105
▁होन्दों	-11.0109
▁गज	-11.011
▁नोंसाजो	-11.0111
▁राज्य	-11.0113
▁बर्ड	-11.0114
▁सरासनस्रा	-11.0114
▁माग्रा	-11.0114
▁लाला	-11.0117
▁नांग्रा	-11.0118
▁सिग्लाब	-11.012
▁मृ	-11.0121
<	-11.0122
▁इक्लेटिक	-11.0122
▁राइफल	-11.0122
▁रिजार्भ	-11.0122
▁सारेण्डार	-11.0122
▁दस्टुर	-11.0122
▁इराग्दाउ	-11.0122
▁थनथ्र	-11.0122
▁हुखुमोर	-11.0122
▁मारुती	-11.0122
▁खुनुरुखुम	-11.0122
▁जोगोनार	-11.0122
▁अग्रन	-11.0122
▁फिल्टार	-11.0122
▁धर्मेन्द्र	-11.0122
▁बह्रा	-11.0122
▁खुंगुर	-11.0122
▁बिष्णु	-11.0122
▁ट्राष्ट	-11.0122
▁दुलुर	-11.0122
▁ग्लास	-11.0122
▁पाक्का	-11.0122
▁बैराथी	-11.0122
▁बुङालाबानो	-11.0123
▁मन्त्री	-11.0123
▁होयि	-11.0123
▁लुबैसुला	-11.0123
भोट	-11.0123
▁डील	-11.0123
▁सौवै	-11.0123
▁मिन्थिगौ	-11.0123
▁आसारखान्थि	-11.0123
बिब्दिब्ला	-11.0123
▁मोगामोगि	-11.0123
▁दखरसे	-11.0124
▁गाब्बाय	-11.0124
▁बोला	-11.0124
▁दाब्राय	-11.0124
▁सिदोब	-11.0124
▁थौले	-11.0124
▁दुंब्रुद	-11.0124
▁नायदिं	-11.0125
▁नेमखान्थि	-11.0125
▁फाख्रा	-11.0125
▁आर्य	-11.0125
▁नमस्कार	-11.0126
▁लैहोर	-11.0126
▁एनजर	-11.0126
▁गोज्वौ	-11.0126
▁गेस्रेम	-11.0126
▁सावथुन	-11.0126
▁बोहैबोनाय	-11.0126
▁बारलाम्फा	-11.0126
▁फावखुंग्रि	-11.0127
▁बदलै	-11.0127
▁कार्ड	-11.0127
▁चाहा	-11.0127
▁निर्मालिया	-11.0128
▁गस्वामी	-11.0128
▁जर्ज	-11.0128
▁बस्था	-11.0129
▁दाबखा	-11.0129
▁जोनोमनि	-11.0129
▁दिंग्रि	-11.0129
▁लिङो	-11.0129
▁रिता	-11.013
▁जोंब्लाउ	-11.013
▁सोमजिहोदों	-11.013
▁हरावनो	-11.013
▁टमेट	-11.0131
▁थरथिंसे	-11.0131
▁रिलिफ	-11.0131
▁थाबथायो	-11.0131
▁खोरोमदाउ	-11.0131
▁गौहाटीयाव	-11.0131
▁गुन्दामि	-11.0132
▁इसादि	-11.0132
▁हाथरखि	-11.0132
▁बुंहरनाय	-11.0133
▁थाल्ला	-11.0134
▁जुवारि	-11.0134
▁मिनिथाव	-11.0134
▁समिलाया	-11.0135
▁गाबगु	-11.0135
▁बेफ्रुथाय	-11.0136
▁खनाथिं	-11.0136
▁फारौ	-11.0136
▁सरबत	-11.0136
▁गालांदों	-11.0136
▁थानसालियाव	-11.0137
▁पियन	-11.0137
▁खन्थाइनि	-11.0138
▁आबारी	-11.0138
▁सनिराम	-11.0138
▁सिबस्रां	-11.0139
▁लेट	-11.0139
▁सुफुंग्रा	-11.0139
▁अवाल	-11.0139
▁लासिगोन	-11.014
▁बीरु	-11.014
▁बुथारदों	-11.0141
▁थामफै	-11.0141
▁पापी	-11.0142
▁दोनफैनाय	-11.0143
▁सुबिदा	-11.0145
▁जोंरुहा	-11.0145
▁गारनांगौ	-11.0146
▁दर्जा	-11.0146
▁बाटा	-11.0146
▁बुंखाबाय	-11.0146
▁जाहोदों	-11.0146
▁गोसोखांदों	-11.0146
▁बैथालि	-11.0147
▁गाबहां	-11.0147
▁पेन	-11.0148
▁जाफैबाय	-11.0148
▁निलिख	-11.0148
▁मुथु	-11.0151
▁बाथरुम	-11.0151
▁फोसावगिरि	-11.0152
▁गब्लंजों	-11.0152
▁सोबग्रा	-11.0153
▁माइल	-11.0153
▁गेलेहोनाय	-11.0154
▁आरिखां	-11.0156
▁लोंनायनि	-11.0157
ाब्लानो	-11.0157
▁लुसि	-11.0158
▁लाङासै	-11.0158
काइनिन	-11.0158
▁हलाव	-11.0158
▁हैदिनि	-11.0159
▁31	-11.0162
▁सोहोरनि	-11.0164
▁खोख्लैनानै	-11.0164
▁बावदों	-11.0165
▁रुवा	-11.0165
▁28	-11.0166
▁खबसे	-11.0166
▁दैथायहरनो	-11.0166
हाबनाय	-11.0167
▁मोनाखैसै	-11.0167
▁जाखर	-11.0167
▁कर्टाव	-11.0168
▁गंग्लायनानै	-11.0168
▁जासिनानै	-11.0169
▁जथुम	-11.0169
▁जानगाराव	-11.0169
▁जाबोदोंमोन	-11.0171
▁गारगोन	-11.0171
---	-11.0171
्ला	-11.0174
द्रायब्ला	-11.0176
▁लाइफाङा	-11.0177
▁खारबोनानै	-11.0178
▁बादै	-11.0178
▁मोन्नांगौ	-11.0179
▁गोरासिन	-11.0179
ाद	-11.0182
▁इंलिस	-11.0185
हाला	-11.0185
▁फोथायथाव	-11.0186
▁राजाफोर	-11.0186
▁नोंस्रा	-11.0187
▁थांफिनो	-11.0187
▁दाहोनाफ्रा	-11.0187
▁बिबाना	-11.0189
▁समबार	-11.0193
▁गार्ल	-11.0196
▁लिंहै	-11.0197
▁दोनथुमनो	-11.0197
▁नुजाहैनो	-11.0197
▁मिथिस्लाबा	-11.0198
▁नाययो	-11.0198
▁सान्थ्रिफ्रा	-11.0199
▁बागदाव	-11.0201
▁दें	-11.0202
अलंबार	-11.0203
▁घरि	-11.0204
▁दिहुनो	-11.0204
▁सायर	-11.0206
▁लिरनांगौ	-11.0211
▁खृष्टान	-11.0215
▁नायल	-11.0216
▁जावनानै	-11.0216
▁जुगाव	-11.0216
▁गाबदोंमोन	-11.0218
कास	-11.0219
▁मोनजानाय	-11.0221
▁बोयै	-11.0221
देखोन	-11.0222
▁महरथि	-11.0224
्रियै	-11.0225
▁मिनियै	-11.0228
▁हांखोफ्रा	-11.023
▁थिखं	-11.0231
बावखो	-11.0231
▁जेरा	-11.0231
▁रायलायनाया	-11.0231
▁रोजाबनाय	-11.0231
▁मोनगासिनो	-11.0236
▁हैगोन	-11.0236
▁आइफोर	-11.0236
▁फंबायनि	-11.0237
▁बिहामजोनि	-11.0237
▁बुक	-11.0238
▁हार्सिं	-11.024
▁दोरोद	-11.0241
▁साननायमोन	-11.0241
▁लेंहरनाय	-11.0242
▁खारबो	-11.0242
▁देवना	-11.0242
▁गौमा	-11.0247
▁हौवाखौ	-11.0249
▁मोनबो	-11.0249
▁गयारी	-11.025
▁बेंनो	-11.025
▁साथामसो	-11.0254
▁इय	-11.0255
▁पु	-11.0256
▁फान्दायनाय	-11.0256
▁दाजाबफानाय	-11.0258
▁बरा	-11.0259
▁गारना	-11.026
▁re	-11.0261
▁सुदों	-11.0267
▁दिन्थिफुंनाय	-11.0268
▁बजबना	-11.0269
▁गोसोखांबाय	-11.0272
▁मानसिनो	-11.0272
▁सुथारनो	-11.0275
▁70	-11.0276
▁सान्	-11.0276
▁बिगुमैखौ	-11.028
▁सोदोबफ्रा	-11.0285
▁हाब्बाय	-11.0287
▁देरहानो	-11.029
▁बोथि	-11.0291
▁सेव	-11.0292
▁सिखारदों	-11.0294
▁फाखाय	-11.0294
लं	-11.0295
मोनसे	-11.0296
ीखौ	-11.0296
▁खोनाया	-11.0296
▁एवनाय	-11.0298
फिन्	-11.03
▁जेकेटा	-11.0301
▁सोलियो	-11.0303
▁सालियाव	-11.0305
▁खालाराव	-11.0307
▁मोननायसै	-11.0311
xt	-11.0312
▁मोसाहारिया	-11.0315
दांनाय	-11.0317
कार	-11.0318
▁रायज्लायनायखौ	-11.0319
▁नोंदाया	-11.0322
▁साबुकखौ	-11.0323
▁बादाव	-11.0323
▁सिलारामा	-11.0324
▁खायसेया	-11.0327
▁He	-11.0328
हैनोसै	-11.0331
▁उननिफ्राय	-11.0332
▁बान्दो	-11.0333
▁थाफैनाय	-11.0334
▁फाखा	-11.0335
▁फोरमायथिनाय	-11.0339
▁लेम	-11.034
▁दाङा	-11.034
▁देलै	-11.034
िटि	-11.0343
▁सुबुंफ्रा	-11.0345
▁आखुफोर	-11.0345
▁सोरजिनायाव	-11.0351
दु	-11.0353
▁खालामोब्ला	-11.0354
▁जायासै	-11.0355
....।"	-11.0355
▁जिया	-11.0356
▁दाजाबफा	-11.0363
ृष	-11.0364
▁गिबिया	-11.0367
सोलाय	-11.0368
▁थासारियाव	-11.0369
▁दस	-11.0371
▁हानायानो	-11.0371
▁गोमानानै	-11.0371
▁ददेरेमोन	-11.0373
▁जौसिन	-11.0373
▁मारा	-11.0376
▁मिजिङा	-11.0379
▁नङागोन	-11.0379
फैनानै	-11.038
▁नुजाथिदों	-11.0381
▁फोनां	-11.0383
▁फोजों	-11.0385
▁नोंनिफ्राय	-11.0386
▁फोसावनो	-11.0389
▁साथ	-11.0392
▁गाग्लोबनो	-11.0392
▁सुन	-11.0392
▁मालायनो	-11.0394
▁दावगानो	-11.0395
▁गोरां	-11.0396
जेन्नाय	-11.0401
▁दिन्थिनाया	-11.0406
थारनांगोन	-11.0408
▁थानोसै	-11.0409
▁बुंबाव	-11.0418
▁मोगथांनि	-11.0422
न्त	-11.0424
▁फाननाय	-11.0426
▁सोरांनाय	-11.0428
▁यै	-11.0431
याखैमोन	-11.0431
▁ओंखामा	-11.0443
▁रुजुन	-11.0451
बाल	-11.0454
गाया	-11.0457
▁नायगंना	-11.046
▁फरायसालिमा	-11.0478
▁..............	-11.0481
▁नुयोब्ला	-11.0481
▁आबो	-11.0483
▁फ्ल	-11.0485
▁मेब्लाया	-11.0486
▁बायोब्ला	-11.049
▁सिख्लाफोरनि	-11.0497
▁हालेव	-11.0504
▁लाजिथाव	-11.0508
देरनाय	-11.0508
पाल	-11.0509
▁एवखां	-11.052
▁गाबोननिफ्राय	-11.0525
▁दामनो	-11.0525
▁नोगोरखौ	-11.0525
▁आखुफोरखौ	-11.0527
▁जोबस्रांनाय	-11.0536
▁सालिसा	-11.0538
▁लाबोफा	-11.054
▁फैब्लानो	-11.0546
▁जोबस्रां	-11.0551
▁लांखा	-11.0569
▁गोनाङ	-11.0572
▁हमलाय	-11.0575
▁आगाननै	-11.0579
▁दाबसि	-11.058
्य	-11.0585
▁दाबाव	-11.0586
▁बुंजा	-11.0587
गिरिनि	-11.0588
▁खाजाखौ	-11.0589
▁ट्र	-11.0591
▁जायगाया	-11.0591
▁होवाखै	-11.0598
▁फोरमानखौ	-11.0601
▁रान्दिखौ	-11.0604
▁बुथारनाय	-11.0606
▁गान्दुखौ	-11.0611
an	-11.0614
थुर	-11.0615
फब	-11.0632
▁सुबुंफोर	-11.0637
छ	-11.0638
ालासेनो	-11.0642
बेखौ	-11.0644
मैया	-11.0647
▁धोरोमाव	-11.0648
▁लाहैनाय	-11.0656
▁सोनाय	-11.0661
▁जोंबादि	-11.0665
नोंथां	-11.067
लिअ	-11.0672
▁खेबखां	-11.0673
जिया	-11.0673
▁प्रेक	-11.068
पास	-11.0682
▁सोमजाय	-11.0683
▁गोख्रैनो	-11.0687
▁सिलाइखौ	-11.0692
म्	-11.0697
ानोथ	-11.0698
▁बिलाया	-11.0708
गाहाय	-11.071
▁बैयाव	-11.071
▁गालाङो	-11.0712
▁मोन्थि	-11.0712
▁ग्रा	-11.0712
▁खहाब	-11.0712
▁फोजा	-11.0714
▁आनज्राय	-11.0715
▁उस	-11.0717
▁लाब्ला	-11.072
▁उदैखौ	-11.0722
▁कम्पिउटाराव	-11.0728
▁खनसायनि	-11.0733
▁ओंखारदोंमोन	-11.0733
▁मेवा	-11.0734
▁बांलादेशी	-11.0739
▁थिया	-11.0741
थियाव	-11.0743
▁डिस्कनि	-11.0744
▁माहारिखौ	-11.0746
hat	-11.0747
▁सेट	-11.0749
थाइनि	-11.0751
▁गाबज्रिनाय	-11.0757
▁बुब्लिखौ	-11.0764
▁हारिजों	-11.0764
▁मेलनि	-11.077
ries	-11.0772
▁खांबाय	-11.0773
▁दावबायनाया	-11.0774
▁गामिखौ	-11.0775
▁जालांखो	-11.0779
▁हमदोंसै	-11.0781
▁मोनमार	-11.0783
▁दिनैलाय	-11.0784
▁जाथायाव	-11.0791
सुं	-11.0791
▁मोनहैनाय	-11.0799
▁कम	-11.08
गारा	-11.08
थावै	-11.08
▁mo	-11.0803
▁नेमखौ	-11.0804
▁थांनायखौ	-11.0805
▁जिबनि	-11.0806
▁सोदोबफोरा	-11.081
▁पुलिसजों	-11.0812
▁हामजा	-11.0813
मोनबा	-11.0819
बायानो	-11.0831
▁आनजादा	-11.0834
खार	-11.0836
in	-11.0847
▁मोनला	-11.0848
▁मावफा	-11.0853
▁बुंबावदों	-11.0861
रग	-11.0863
▁500	-11.0864
▁दावराय	-11.0865
▁आग्दा	-11.0867
▁मोदान	-11.0871
▁दाखि	-11.0876
▁माथाम	-11.0878
▁दिननि	-11.0878
लाखार	-11.0888
▁दावबायारि	-11.0911
▁बोहैथिखौ	-11.0914
▁लेप	-11.0921
▁गुबुनारिफोर	-11.0921
ारा	-11.0927
▁फिथाइखौ	-11.0927
▁नांज्लाय	-11.0929
ख्ला	-11.0936
ब्लाथाय	-11.0936
▁बुद	-11.0942
▁थांग्रो	-11.0944
लामा	-11.0947
..।	-11.0951
▁मुगैया	-11.0957
▁बनाय	-11.0959
बिबार	-11.0959
▁दोर	-11.096
▁हालो	-11.0961
▁बुलाय	-11.0961
साव	-11.0961
▁होया	-11.0967
▁दोमै	-11.0967
▁थांबा	-11.0968
्ट	-11.097
▁लाफिन	-11.0979
▁लुबैयोब्ला	-11.098
▁आइखौ	-11.0983
▁खुबै	-11.0986
▁आन्था	-11.099
हनै	-11.1003
▁थोनाय	-11.1005
▁माहारियार	-11.101
▁कम्पानि	-11.1012
फोरनाव	-11.103
थेर	-11.1034
▁आदबखौ	-11.1036
▁होखां	-11.1037
▁लायबाय	-11.1042
मनानै	-11.1044
▁रमेन	-11.1046
▁बद	-11.1049
▁मावमोनथाय	-11.1051
▁हमजा	-11.1052
▁मानखौ	-11.1057
.....!	-11.1059
▁खाइ	-11.1063
▁मोदोमनाय	-11.1073
▁होख्रां	-11.1073
सिगां	-11.1078
▁45	-11.1078
फारि	-11.1085
▁ब्लाउज	-11.1095
▁गोसोज्लिद	-11.1095
बान	-11.1099
▁बिबा	-11.1102
▁गम	-11.1103
▁जुम	-11.1103
▁बुरैखौ	-11.1105
▁Pa	-11.1112
▁पाट	-11.1115
▁जेरबा	-11.1124
साल	-11.1125
खुमा	-11.1125
5.	-11.1131
▁रोम	-11.1133
▁टक	-11.1133
▁बैसां	-11.1134
▁हाबिलास	-11.1138
मोखां	-11.1138
▁थान	-11.1142
▁मुस्रिखौ	-11.1144
▁जोगार	-11.1145
ारनि	-11.1145
▁लायदों	-11.115
▁दोनखोमा	-11.1153
▁लाहा	-11.1155
बिनि	-11.1159
टक	-11.1161
▁गन	-11.1168
▁हाथेर	-11.117
▁गेजेरजोंनो	-11.1171
राजाया	-11.1174
▁रमान	-11.1177
▁नोंसाला	-11.1178
▁खुर	-11.1182
▁आलौ	-11.1185
▁बाइक	-11.1188
ब्रुं	-11.119
ालासिनो	-11.1192
ग्र	-11.1193
साहा	-11.1196
▁नोंल	-11.1203
▁प्रसा	-11.121
▁St	-11.1212
घाट	-11.1214
▁नङामोनब्ला	-11.122
रोङा	-11.1221
▁नुफै	-11.1222
........।"	-11.1223
▁पार्	-11.1226
द्रा	-11.1229
▁अबिनास	-11.123
ब्र	-11.1232
▁जानाङा	-11.1232
फ्लाबाय	-11.1241
▁उर	-11.1242
▁फब	-11.1243
▁आरज	-11.1243
दैसा	-11.1248
कन्या	-11.1248
▁खेबस	-11.1249
▁गोरोन्थिनि	-11.1249
3	-11.1252
फाग्लि	-11.1253
▁गुजुस्रेम	-11.1253
अह	-11.1261
▁नोंथाङानो	-11.1262
▁जोंब्लाव	-11.1262
O	-11.1265
▁दौदिनिया	-11.1268
▁गोमाना	-11.1271
दुं	-11.1276
▁दागा	-11.1276
▁आन्दाय	-11.1278
▁बृश	-11.1278
▁नौनारि	-11.128
▁लोंब्ला	-11.128
▁सानोमोन	-11.1281
फैनाय	-11.1282
▁बुरैनि	-11.1284
▁मारु	-11.1286
▁राइ	-11.1287
▁सोहोर	-11.1287
थाइगं	-11.1287
▁ड्राइभ	-11.1288
बेन्थ	-11.1289
▁अख्रा	-11.1289
F	-11.129
लोंखां	-11.129
जाइलि	-11.1291
▁दहम	-11.1291
जावलिया	-11.1292
सोमदोन	-11.1292
गोथे	-11.1292
जाल्ला	-11.1294
हैद	-11.1296
बयबो	-11.1297
बावदा	-11.1303
▁इण्डियान	-11.1305
▁परेश	-11.1306
▁मिथिना	-11.1306
▁फाफ्लि	-11.1306
▁क्लाब	-11.1307
▁उदिस	-11.1307
सफ्ट	-11.1308
▁बं	-11.1309
▁प्रदीप	-11.1311
जायखि	-11.1311
▁नोंना	-11.1313
खान्दा	-11.1313
▁खाजानाय	-11.1315
▁साइख	-11.1315
▁नायसन	-11.1315
▁हाथाव	-11.1315
▁जोबथारनाय	-11.1317
खायफा	-11.1318
▁अनार	-11.1318
▁बेसेनखौ	-11.132
▁नोगो	-11.1322
गारदों	-11.1326
कर	-11.1327
▁गनायना	-11.1329
▁रोंग	-11.133
▁पाब्लिकेसन	-11.1332
ष्टेल	-11.1332
▁काछार	-11.1333
▁कलंख	-11.1335
▁डिजाइन	-11.1335
▁(7)	-11.1335
▁आदुंगारि	-11.1335
▁जालिजौ	-11.1335
▁देमग्लाय	-11.1335
▁बसुमथारि	-11.1335
▁मुंफ्रोमखौ	-11.1335
▁हाइब्रिड	-11.1335
▁बिभीसन	-11.1335
▁भावथिना	-11.1335
फिफटि	-11.1335
▁घर्ना	-11.1335
▁धुबुरी	-11.1335
▁बास्रिनाय	-11.1335
▁बिसम्बि	-11.1335
▁फल्डार	-11.1335
▁फोरोङो	-11.1335
▁थंब्लेद	-11.1335
▁एकाउन्ट	-11.1335
▁दासान्दै	-11.1335
▁फिदिङो	-11.1335
▁निहोर	-11.1335
▁ब्लेक	-11.1335
▁कसारी	-11.1335
▁बावयैसो	-11.1335
ick	-11.1335
▁जलंगा	-11.1335
▁चेन्टार	-11.1335
▁बमफां	-11.1335
▁हुकुम	-11.1335
▁साखाफारा	-11.1335
▁इनटारने	-11.1335
▁इरामुती	-11.1335
▁हावलाद	-11.1335
▁माथाउरी	-11.1335
▁खुजेब	-11.1335
▁गोरजिया	-11.1336
▁पाब्लिकेसनस्	-11.1336
▁रिपर्ट	-11.1336
▁सिलङाव	-11.1336
▁दाबाश्री	-11.1336
▁लिबारे	-11.1336
▁दैज्लां	-11.1336
▁ग्लब	-11.1336
▁नाजादो	-11.1336
▁दुखारि	-11.1336
▁बाखनायथाव	-11.1337
▁गेबे	-11.1337
▁गिहु	-11.1337
▁हस्रिखाव	-11.1337
▁उन्दुदो	-11.1337
▁गायदां	-11.1337
▁फादुब	-11.1337
▁नायबिजिरसं	-11.1337
▁आइटेम	-11.1337
नाफुलि	-11.1337
▁मिथिसिगौ	-11.1337
सालिया	-11.1337
▁इउजार	-11.1338
▁साग्रिद	-11.1338
▁रुपसिं	-11.1338
▁थल	-11.1338
दामब्ले	-11.1338
▁रेबग्रा	-11.1339
▁फोसावजायो	-11.1339
▁रेडिअ	-11.1339
▁गायदे	-11.1339
▁एदाव	-11.1339
▁नलबारी	-11.1339
▁मुक्ति	-11.1339
▁बुब्राब	-11.1339
▁साबिद	-11.134
▁आर्जि	-11.134
▁लांदो	-11.134
▁लिरस्लाय	-11.134
▁खौरांगाबा	-11.134
▁प्रदेश	-11.134
▁2007	-11.134
▁गिखांनाय	-11.134
▁गुस्टि	-11.1341
▁फोनाङो	-11.1341
▁दावस्रि	-11.1341
▁गन्थङाव	-11.1342
▁थरफा	-11.1342
▁सोराङाव	-11.1342
▁दोनथुमो	-11.1342
▁नार्सिं	-11.1343
सिरि	-11.1343
▁अनथाव	-11.1343
▁सोंबावो	-11.1343
▁मामला	-11.1343
▁आबादारि	-11.1343
▁ताल	-11.1343
▁मिनिखैरो	-11.1343
▁हारामजादि	-11.1343
फारा	-11.1343
▁गोसोथोनाय	-11.1343
▁ज्रोम	-11.1343
▁सुथुरनि	-11.1344
▁इस्लारिया	-11.1344
▁फोजायो	-11.1344
▁नुबोला	-11.1345
▁हारिफोर	-11.1345
▁डिमापुर	-11.1345
▁उजेर	-11.1345
▁अरन	-11.1346
▁जुता	-11.1346
▁केच	-11.1346
▁स्रोब	-11.1347
▁असान्ति	-11.1348
▁खिनाय	-11.1348
▁सहराव	-11.1349
▁नांथाव	-11.1349
▁दोन्दों	-11.1349
▁ग्रिद	-11.1351
▁रेख	-11.1351
▁दानथे	-11.1351
▁लोंदो	-11.1351
▁बाजिबायमोन	-11.1351
▁जामारबाय	-11.1352
▁थाइस्रि	-11.1352
▁जाफुंगोन	-11.1352
▁रायज्लायदों	-11.1353
▁खस्ट	-11.1354
▁निरन्जन	-11.1354
▁क्रिं	-11.1354
▁दोमो	-11.1355
▁मामाइ	-11.1355
▁मेन	-11.1356
▁U	-11.1356
▁खुनुरोखोम	-11.1357
▁रमायश्रिया	-11.1357
▁थांसिगोन	-11.1357
▁गानग्रा	-11.1358
हुखा	-11.1358
▁होवाखिसै	-11.1359
▁वाल	-11.1359
▁रुबैजों	-11.1359
▁दरं	-11.136
▁बुंफिनबाय	-11.136
▁सिफुं	-11.1361
बेयो	-11.1361
▁फैयाखिसै	-11.1362
▁ज्रेम	-11.1362
▁सियान	-11.1363
▁खानस्रि	-11.1364
▁बारलांबाय	-11.1366
▁कन्ट्राक्टर	-11.1366
▁दैलो	-11.1367
▁होन्नानैनो	-11.1367
▁थेख्रेया	-11.1368
ब्रैसो	-11.1369
▁देबी	-11.1369
▁हाबिलदारा	-11.1369
▁बिब्दियै	-11.1369
▁होयासै	-11.137
▁गोबाब	-11.1371
▁थालिया	-11.1371
2005	-11.1372
▁गाड	-11.1372
▁अनारीया	-11.1373
▁जाहैगोन	-11.1373
▁ताला	-11.1373
▁रायज्लायग्रा	-11.1373
ान्त्रि	-11.1374
▁थाफैयो	-11.1374
▁एबसुवा	-11.1374
▁मोनखौ	-11.1374
▁होखो	-11.1374
▁बिहाउ	-11.1374
▁सोदोबफ्राव	-11.1375
▁बुंहैयो	-11.1375
▁थांफायो	-11.1375
▁खोनादोंमोन	-11.1376
▁सुजुग	-11.1377
▁बेखेवथि	-11.1378
▁हस्रि	-11.1378
▁फान्दायनायाव	-11.138
▁जरासे	-11.138
▁मुजि	-11.138
▁सोमहाबनानै	-11.138
▁ओंखारबोबाय	-11.1381
▁मनजुआबो	-11.1381
▁बाहायजानाय	-11.1381
▁दंखायोमोन	-11.1383
▁अरजाया	-11.1384
▁गेलेबाय	-11.1385
▁जुब	-11.1386
▁लिंहरो	-11.1387
▁लोंहोनानै	-11.1387
बेसे	-11.1389
▁बोसोरथाम	-11.1389
▁सानफिनो	-11.139
▁गानबाय	-11.1392
▁गाबज्रिनायाव	-11.1392
▁आरमि	-11.1394
▁डाक्टारा	-11.1394
▁थायासै	-11.1398
▁फैहां	-11.1398
▁थाङासै	-11.1401
▁सिरिथा	-11.1402
▁बेंग्रा	-11.1403
▁नोंसिनाव	-11.1403
▁थिकखौनो	-11.1403
▁दायनिगिरिफोर	-11.1404
▁जंखायनाय	-11.1404
▁बेनिनो	-11.1405
▁बांग्रा	-11.1406
▁खोलो	-11.1407
▁थैजा	-11.1407
▁B	-11.1408
▁गोग्लैदोंमोन	-11.1409
▁सालाम	-11.1409
▁थैदों	-11.1411
▁जाफिनो	-11.1412
▁दायनिगिरिया	-11.1413
▁भा	-11.1414
▁डेस्क	-11.1415
min	-11.1415
▁मिनिस्लुयै	-11.1415
▁हंला	-11.1416
▁एंगारनाया	-11.1417
▁लांनायसै	-11.1418
▁सानोब्ला	-11.1419
▁बुरखायनाय	-11.1419
▁फावदुरा	-11.1422
▁जिरायो	-11.1425
▁सुन्दर	-11.143
रमिव	-11.1431
▁थायनैजों	-11.1432
▁बुबाय	-11.1432
▁बुसा	-11.1433
▁खारलांनानै	-11.1433
▁खोमोन	-11.1433
▁फिसिनाय	-11.1433
▁गोबांथार	-11.1435
▁नुहरा	-11.1437
▁रिंगासो	-11.144
फैगोन	-11.144
▁जाबोबाय	-11.1441
▁मिथियाखै	-11.1441
▁बाग्दावनाय	-11.1442
▁सोखा	-11.1443
▁खामायनो	-11.1446
▁नांजा	-11.1446
▁हैदोंमोन	-11.1447
▁ब्रे	-11.1449
▁!!"	-11.1451
▁दुंग्रा	-11.1453
▁फालाया	-11.1453
▁जाखानाय	-11.1454
▁एखमब	-11.1454
▁थाथेर	-11.1456
▁जिला	-11.1459
▁थुनफावथिना	-11.1459
▁हालोदाव	-11.1462
▁सुग्रा	-11.1463
▁थायबा	-11.1464
▁बेसादफोरखौ	-11.1464
▁लानथ	-11.1467
▁बासजों	-11.1467
▁मोरोन	-11.147
ब्लालाय	-11.1472
▁बारहां	-11.1473
फ्रु	-11.1475
▁ठ	-11.1476
थायारि	-11.1479
▁फावखौ	-11.148
▁हाबबाय	-11.1481
▁बिजिरनाया	-11.1482
▁दिदोम	-11.1482
▁डाक्तारा	-11.1484
▁फान्दाय	-11.1485
गारि	-11.1486
▁कमाण्डफोरखौ	-11.1487
माराव	-11.1488
लाइन	-11.1489
▁आयथा	-11.1491
सेग्राब	-11.1491
▁जिरि	-11.1495
▁मोनहोनो	-11.1498
▁निन	-11.1498
▁नुगासे	-11.1499
▁नैथियाव	-11.1503
▁आन्दार	-11.1504
▁मेडि	-11.1504
ोना	-11.1505
▁थालांनाय	-11.1506
ब्रब	-11.1506
आर	-11.1508
▁हांसा	-11.151
▁बंस	-11.151
▁बुंदोंदि	-11.1515
▁लिंख	-11.1518
▁फोलानो	-11.1519
▁रायथि	-11.1521
▁टाट	-11.1525
▁होलांदों	-11.1526
▁बोजब	-11.1529
▁दाहाया	-11.1529
ाण्डा	-11.1529
गाथाम	-11.1529
▁थायनैनि	-11.153
▁बादिया	-11.1532
▁नोमफानि	-11.1533
▁लानायसै	-11.1533
▁लाजिनाया	-11.1535
मेन्ट	-11.1537
▁गलायाव	-11.1549
▁दैमारि	-11.1554
▁सिखिरि	-11.1554
▁फैथ	-11.1556
▁दाद	-11.1558
▁बिमादै	-11.156
▁फानहर	-11.1563
▁लुबैबाय	-11.1568
ेष	-11.1569
▁जानांगौमोन	-11.1578
▁उन्दुलां	-11.1579
ग्रोन	-11.1581
साङाव	-11.1584
▁राननाय	-11.1587
▁गारिनिफ्राय	-11.1592
▁इन्दि	-11.1594
▁बेंनानै	-11.1595
▁गनायनानै	-11.1598
▁गोग्लैदों	-11.1598
▁नोंसोरलाय	-11.16
▁रायो	-11.1602
▁नुवाब्ला	-11.1604
▁जानांनाय	-11.1605
▁बारसिन	-11.1606
गारो	-11.1607
▁फरायनाया	-11.1608
▁दैमायाव	-11.1609
▁नायबिजिरनाय	-11.1609
रां	-11.1611
▁नुनायखाय	-11.1618
▁खांनो	-11.1628
▁हारिफोरनि	-11.1631
▁आनजादनि	-11.1636
▁सोलिया	-11.1641
▁जालायनानै	-11.1645
▁कान्त	-11.165
▁आदैया	-11.165
▁सिनायथिया	-11.1657
▁बिफाङा	-11.1658
▁होबा	-11.1659
गाब्रै	-11.1664
▁हायोदि	-11.1666
▁गोथौव	-11.1666
▁कामाख्यानि	-11.1668
सानि	-11.1668
▁बादिसो	-11.1669
लों	-11.167
en	-11.1671
▁मोजांब्ला	-11.1672
शन	-11.1677
गास्नि	-11.1685
▁बुब्लिनि	-11.1685
▁थायनैखौ	-11.1693
▁सोङा	-11.1693
▁दखरा	-11.1693
▁बाग	-11.1697
▁फैफिननो	-11.1703
ालाव	-11.1708
▁मानसिफोरजों	-11.1716
लन	-11.1716
▁नङैनि	-11.1718
▁मोनफै	-11.1719
▁जाइ	-11.172
रिनि	-11.1721
फिन्नाय	-11.1744
बागान	-11.1744
11	-11.1746
▁खुंथाय	-11.175
राजानि	-11.1759
▁आम	-11.1759
येल	-11.1759
▁आन्दाखौ	-11.176
मोनै	-11.176
स्	-11.1762
ख्लां	-11.1764
▁ट्रेन्स	-11.1766
▁गेलेदों	-11.1766
...!	-11.177
थी	-11.1775
▁बारासिन	-11.1776
▁बिदां	-11.1776
▁जवा	-11.1778
्रिटिस	-11.178
▁बेफ्रुनाय	-11.1786
थुम	-11.1786
▁हामथार	-11.1786
▁रोङाब्ला	-11.1793
▁गोलोमनाय	-11.18
▁मिनिटनि	-11.1801
▁जिरायफा	-11.1801
▁दावखाया	-11.1804
▁लिरनायनि	-11.1804
▁सैथोआ	-11.1807
लांब्ला	-11.181
▁मुंसे	-11.1813
▁माखा	-11.1816
▁दबा	-11.1817
ग्रोदों	-11.1821
▁बेमा	-11.1821
▁रोमो	-11.1826
▁खावनो	-11.1832
दाङा	-11.184
▁बेफोरो	-11.1843
लानि	-11.185
▁दिन्थिफुं	-11.1851
▁सोमबोरखौ	-11.1851
▁खावनाय	-11.1858
जोंथि	-11.186
▁बिरलांदों	-11.1866
▁बाजारनि	-11.187
फर्म	-11.187
▁गोलैनो	-11.187
▁खिन्थाहै	-11.187
▁मिथिथारा	-11.1871
दिं	-11.1877
▁रानखां	-11.1877
▁रिं	-11.1881
▁मेलानि	-11.1887
▁बिरलांनाय	-11.1888
▁बिबादि	-11.1889
▁सादा	-11.1898
▁लोगोखौ	-11.1901
▁रंजाफुनाय	-11.1918
▁फैफिन्नाय	-11.1921
ख्रुइ	-11.1923
▁बाहायजा	-11.1923
▁बिबाराव	-11.1924
▁मासिया	-11.1932
▁दाननाय	-11.1934
▁केसनि	-11.1935
▁जुन	-11.194
मसा	-11.1941
▁आमि	-11.1942
▁फोरमाना	-11.1942
▁समसेर	-11.1942
▁फान्ड	-11.1948
यनाय	-11.1949
▁N	-11.1951
▁जेंनाफोर	-11.1954
▁बारब्ला	-11.1954
▁फिननायखौ	-11.1955
▁खुदुमनाय	-11.1957
ाइज	-11.1958
▁खामाय	-11.1964
-30	-11.1964
▁गोदोनाय	-11.1966
▁सुनिखौ	-11.1968
▁खामग्लि	-11.1971
▁दखनाखौ	-11.1984
लायाखै	-11.1988
▁जेकेटनि	-11.1992
लायग्रा	-11.1999
▁मोनलों	-11.2002
▁जें	-11.2005
ुलार	-11.2017
▁गोमोरलां	-11.2019
फ्लां	-11.2025
▁मोनगौमोन	-11.2041
▁जाबायलै	-11.2041
▁मोनथारो	-11.2041
▁go	-11.2043
▁मोले	-11.2043
▁मन्जुवाबो	-11.2045
▁थानायखाय	-11.2045
▁जोंफोर	-11.2047
वासो	-11.2049
▁जाथायजों	-11.205
▁मुंजों	-11.2053
रै	-11.2055
▁दामानि	-11.2055
दुर	-11.206
▁रुफा	-11.2063
▁बिथिंनि	-11.2066
▁जोंजों	-11.2078
हरनो	-11.208
▁फावथाय	-11.2082
खागौ	-11.2082
▁थाफैदों	-11.2086
बास	-11.2087
लनि	-11.2087
गे	-11.2092
▁फैबा	-11.2094
▁जुरि	-11.2096
▁सुरहाब	-11.2112
▁बारन	-11.2117
नजों	-11.2123
ard	-11.2126
▁दोंमोन	-11.2129
▁थाथाव	-11.2132
▁साथि	-11.2134
▁सुयो	-11.2143
हसि	-11.2149
▁टिक	-11.215
ेरासिन	-11.2153
▁बिजाथिफोर	-11.2153
▁लाफानाय	-11.2155
▁बाहायथि	-11.2158
▁थुनलाइया	-11.2163
▁बुख्रुब	-11.2166
▁गाज्रियै	-11.2173
सोमनानै	-11.2178
▁बामोना	-11.2178
लायजासे	-11.2184
▁थायनैया	-11.2191
le	-11.2194
▁नुसन	-11.2195
▁गंग्लाय	-11.2198
▁पुर	-11.2198
थारलै	-11.2199
साजा	-11.22
▁दाउखा	-11.2209
नायावनो	-11.221
▁हनाय	-11.2214
ुल	-11.2227
▁जिप	-11.2229
▁हाउ	-11.2243
▁गेरेब	-11.2245
▁दासोम	-11.2249
▁सिगांग्रो	-11.225
▁नायग्राफोर	-11.2263
▁दामि	-11.2266
पाति	-11.2275
▁खेर	-11.2285
▁हायामोन	-11.2286
▁लांनायनि	-11.2287
▁जथा	-11.2287
▁दंलै	-11.2289
▁समनिफ्राय	-11.2294
ight	-11.2295
▁साफ्रासीफोर	-11.2302
हैयाखै	-11.2306
▁फावाव	-11.2308
▁मोनानि	-11.2308
▁इसि	-11.2309
▁बिला	-11.231
▁खेबनि	-11.2311
▁खाल	-11.2317
हैदोंमोन	-11.2322
/2	-11.2326
▁नायजाबफोरा	-11.2326
मानसि	-11.234
▁सैथोनि	-11.2342
▁थाहैनो	-11.2343
ीयाव	-11.2358
▁सोलोंनाय	-11.2365
▁गावलायनाय	-11.2366
▁खिलि	-11.2371
▁जौजों	-11.2375
वार	-11.2379
लांनायसै	-11.2392
▁स्व	-11.2396
नाजों	-11.2399
der	-11.2404
▁दानख	-11.2406
▁ओनसोल	-11.241
▁जाहैनाय	-11.2425
▁गाला	-11.2425
िथुन	-11.2427
▁रेग	-11.2438
ज्ला	-11.244
▁साख्रियावला	-11.2442
▁उसुं	-11.2448
▁टेक्सि	-11.2452
▁हरफा	-11.2454
▁खत	-11.2455
▁फागुन	-11.2456
▁हसिख्राव	-11.2459
▁मुंरायनि	-11.246
▁नोंफा	-11.2462
▁फेर	-11.2463
लायथारबाय	-11.2469
▁दाननो	-11.2476
▁गनतन्त्रबाद	-11.2485
▁नारेंगुरी	-11.2486
▁ओंखारनायनि	-11.2487
दानो	-11.2494
▁जिरायदों	-11.2494
▁महाभारत	-11.2495
▁गोफा	-11.2498
▁रुटि	-11.2501
▁सिलि	-11.2501
▁बाराखौ	-11.2502
▁सोलाया	-11.2503
▁कार्बिआंलं	-11.2503
▁क्ष	-11.2507
▁मोननायमोन	-11.2511
▁खेराय	-11.2514
▁बाइजो	-11.252
▁खोख्लै	-11.2526
.........!	-11.2528
0,000	-11.253
फिन्दों	-11.253
चन	-11.2535
--'	-11.2535
▁टाइप	-11.2536
▁जखा	-11.2537
▁उन्दुहै	-11.2537
▁थिनहै	-11.2539
▁सोरहा	-11.2542
▁जाथार	-11.2543
▁लाइब्रेरी	-11.2544
▁सेक्सपीयेर	-11.2548
श्	-11.2548
▁मिञा	-11.2551
नबारु	-11.2555
▁उदाय	-11.2556
▁मिला	-11.2556
▁मोन्	-11.2561
▁no	-11.2566
बुरै	-11.2571
ेफे	-11.2571
▁बाथाय	-11.2571
हाग्रा	-11.2572
▁98	-11.2573
▁लेवा	-11.2575
▁रागाया	-11.2583
▁बैनाय	-11.2585
फैखो	-11.2589
लाल	-11.259
म्बा	-11.259
▁बिजिनि	-11.2596
▁सावरायनाया	-11.2597
▁लिंहरनाय	-11.26
▁गंनैखौ	-11.2601
▁बाथे	-11.2602
▁मागि	-11.2607
▁गेरे	-11.2607
▁गोजोर	-11.2608
▁नक	-11.2608
▁गाउन	-11.2615
ख्रि	-11.2617
▁अनारु	-11.2617
▁गेलेनाया	-11.2619
खरा	-11.2621
गुबुन	-11.2624
▁कर्णिया	-11.2624
दसे	-11.2625
▁लायाजासे	-11.2625
मोसौ	-11.2626
▁बुजिस	-11.263
▁मोनना	-11.2633
रुवाथि	-11.2634
▁खाफ्रा	-11.2636
गेजेर	-11.2642
आसाम	-11.2642
▁बुंफिन	-11.2649
▁लुफाव	-11.2652
▁गावनानै	-11.2654
▁बमब्राय	-11.2656
▁जांख्रिखांनाय	-11.2657
▁जासि	-11.2657
▁2004	-11.266
▁थाङाब्ला	-11.2663
िंनि	-11.2664
▁मन्दिर	-11.2665
एनला	-11.2668
बावनानै	-11.2668
▁महनलाल	-11.2668
Y	-11.2668
▁1980	-11.267
दुब	-11.267
▁फिथा	-11.267
V	-11.2671
अबंनि	-11.2671
रमायना	-11.2672
आन्दास	-11.2672
बिख्लो	-11.2673
आरिखां	-11.2673
गासिबो	-11.2673
▁जादु	-11.2674
थांदो	-11.2675
▁मासिनि	-11.2677
गोसोम	-11.2677
गैयै	-11.2678
एम	-11.2679
हाजार	-11.2679
अन्नानै	-11.268
▁असिला	-11.2681
▁सुम	-11.2681
▁10.	-11.2682
▁आसु	-11.2683
वारिनि	-11.2683
▁खिन्थाया	-11.2685
मिनिनाय	-11.2686
▁लाइफ	-11.2686
थांहां	-11.2691
▁मंग	-11.2693
▁No	-11.2693
sh	-11.2694
▁हगारसार	-11.2696
फोरजा	-11.2697
पेन	-11.27
▁बिजिरसालिनि	-11.2704
मासु	-11.2706
▁हाजिर	-11.2707
खोला	-11.2707
▁दुखुनांथाव	-11.2708
▁जुलुम	-11.2709
▁दाथा	-11.271
▁सोमोनां	-11.2711
बड	-11.2711
▁मोख्रेब	-11.2711
▁बोदला	-11.2712
▁बिथिङा	-11.2712
▁गाराङा	-11.2714
▁मिनिखैर	-11.2714
▁रेन्ज	-11.2716
▁खाख्लारी	-11.2716
▁हिमालय	-11.2716
sense	-11.2716
▁Limited	-11.2716
▁एक्सप्रेस	-11.2716
▁ग्रेणेड	-11.2716
▁चाणाक्य	-11.2716
▁तामिल	-11.2716
▁थागिदा	-11.2716
▁दत्त	-11.2716
▁दानसोराङा	-11.2716
▁दावथ्रोद	-11.2716
▁दोहौ	-11.2716
▁फावखुंगुर	-11.2716
▁बारांगाबारी	-11.2716
▁बिजावजालि	-11.2716
▁बिरोंदामिन	-11.2716
▁बृटेइन	-11.2716
▁मिनिगाग्लाब	-11.2716
▁युव	-11.2716
▁राइफेल	-11.2716
▁रामसियारि	-11.2716
▁वर्कश्वप	-11.2716
▁सन्मिलन	-11.2716
▁सांग्रेमा	-11.2716
▁सुबिधा	-11.2716
▁सेक्रिफाइस	-11.2716
▁हस्पिटाल	-11.2716
▁हस्पित	-11.2716
▁गंगना	-11.2716
▁जार्डारी	-11.2716
▁बैरागि	-11.2716
▁लानजाइ	-11.2716
Acce	-11.2716
▁जोबथेसालियाव	-11.2716
▁God	-11.2716
▁do	-11.2716
चन्दन	-11.2716
▁चिलाराम	-11.2716
▁टिकिट	-11.2716
▁फास्लां	-11.2716
टिस	-11.2716
▁फिथोब	-11.2716
▁सोलास्लिब	-11.2716
▁मोन्थोर	-11.2716
▁बाकसा	-11.2716
▁गासिखौबो	-11.2716
▁फ्रेस	-11.2716
▁आवरायजेननाय	-11.2716
▁उपेन्द्र	-11.2716
▁नारेंखल	-11.2716
▁निज्रा	-11.2716
▁दानदिसे	-11.2717
▁अरगें	-11.2717
▁नील	-11.2717
▁धुप	-11.2717
▁दुब्रि	-11.2717
▁खारखाना	-11.2717
ालि	-11.2717
▁थगायसुलि	-11.2717
▁बिगोमाजोआ	-11.2717
▁सोमोनांथाव	-11.2717
▁फेंखा	-11.2717
▁मालिस	-11.2717
▁थोथोर	-11.2717
▁टेप	-11.2717
रपति	-11.2717
▁थालिद	-11.2717
▁डलार	-11.2717
▁मसला	-11.2717
राजाफोरा	-11.2717
▁खोबथे	-11.2717
▁बकुल	-11.2718
▁फुथिहां	-11.2718
▁गुन्दै	-11.2718
▁समष्टि	-11.2718
▁रोंलिया	-11.2718
▁जोबजासिम	-11.2718
फुफु	-11.2718
▁बिखुनजो	-11.2718
▁रिजाल्ट	-11.2718
▁खारसां	-11.2718
▁प्लास्टिक	-11.2718
▁बुद्दि	-11.2718
▁दंनायमानि	-11.2718
▁लमन	-11.2718
▁अनफावरि	-11.2718
▁खैसिं	-11.2719
▁टप	-11.2719
▁हुमखि	-11.2719
▁थोंगोर	-11.2719
▁डाटा	-11.2719
▁मान्दार	-11.2719
▁कर्निया	-11.2719
▁सौथु	-11.2719
▁आगरवाला	-11.2719
▁मिनिबाला	-11.272
▁रोंनांगोन	-11.272
▁फानथाव	-11.272
▁खायख	-11.272
▁लाखिथों	-11.272
▁भुत	-11.272
▁रामोनदा	-11.2721
▁गोसोखांलाइ	-11.2721
▁हामफ्ला	-11.2721
▁नांफैदों	-11.2721
▁उथुजुग	-11.2721
▁कम्फिउटार	-11.2721
▁ञ	-11.2721
न्दाया	-11.2721
▁पेट्रिडिस	-11.2721
▁मन्च	-11.2721
▁खोमानांनाय	-11.2722
▁फंबाइ	-11.2722
▁पाउदार	-11.2722
▁जाहाद	-11.2722
▁बैदिनखालि	-11.2722
▁दाउथु	-11.2723
▁बिरलाङो	-11.2723
▁दावज्ला	-11.2723
▁गब्लं	-11.2723
▁फावसाय	-11.2723
▁गुग्रुब	-11.2723
▁हाउली	-11.2723
▁साजाखौ	-11.2723
गाप	-11.2723
▁मोनजायाखै	-11.2723
▁लाखादों	-11.2723
▁गाराङाव	-11.2723
▁दाथासै	-11.2724
▁थुनलायारि	-11.2724
▁हाब्रां	-11.2724
▁सानदुं	-11.2724
▁बुलि	-11.2724
▁ष्टेसन	-11.2724
▁नाजानांगोन	-11.2724
▁दिन्दां	-11.2724
▁साइखं	-11.2724
▁गोलांनानै	-11.2725
▁बुर्जा	-11.2725
▁देव	-11.2725
टिक	-11.2725
▁लाबोफादों	-11.2725
बेश	-11.2726
▁खारस्लिउ	-11.2726
▁जाबसिन	-11.2726
▁बीर	-11.2726
▁नायनायसाय	-11.2726
▁इयार	-11.2726
▁सोंहरो	-11.2726
▁देने	-11.2727
▁बुग्लि	-11.2727
▁गाराखै	-11.2727
▁लानांदों	-11.2728
▁रेगां	-11.2728
▁गमथा	-11.2728
▁आन्दोआव	-11.2728
▁रुमु	-11.2728
▁फ्लिं	-11.2729
▁काली	-11.2729
▁लुबैयाखैमोन	-11.2729
▁बेदलाव	-11.2729
▁हाबफैदों	-11.273
▁थरथिं	-11.273
▁गोहोगोरा	-11.273
▁बायह्रायाव	-11.273
▁बिरग	-11.2731
▁तास	-11.2731
▁कुलि	-11.2731
▁कास्तमारफोरखौ	-11.2732
▁बिबाङा	-11.2733
▁गानहोयो	-11.2733
▁बाजौ	-11.2733
▁जारां	-11.2733
▁सोनाबारि	-11.2734
▁गोजोम	-11.2734
▁खालामसिगोन	-11.2734
▁खांग्रां	-11.2735
▁मिटिं	-11.2735
▁इमार	-11.2736
▁सेक्सपीयारनि	-11.2736
▁जाखागोन	-11.2736
थफ्लि	-11.2736
▁सान्नैसो	-11.2736
▁नेशन	-11.2736
▁मानगोनां	-11.2736
▁द्राइभार	-11.2737
▁मार्का	-11.2737
▁होसोयो	-11.2737
▁फोरमायथियो	-11.2737
▁गोमालांनाय	-11.2737
▁हेफाजाबगिरि	-11.2737
▁बेरायदों	-11.2738
▁सौफैयो	-11.2738
▁उजियो	-11.2738
▁गम्भीरसिं	-11.2738
▁थांफिनगोन	-11.2739
▁बिलाइस्रि	-11.2739
▁दाबुंसै	-11.274
नायथा	-11.274
▁www	-11.2741
▁दरनै	-11.2741
▁बिलिदबाय	-11.2741
▁नेयो	-11.2741
▁लोमजादों	-11.2741
▁मोनलिया	-11.2743
very	-11.2744
▁फावथायारि	-11.2744
▁गोदि	-11.2744
▁नेग्रा	-11.2745
▁बुंखा	-11.2745
▁मेरेज	-11.2746
▁रुगि	-11.2746
▁फोनांनायनि	-11.2747
▁हालोदा	-11.2747
▁रैमोना	-11.2748
▁स्पिद	-11.2748
▁बुंफोरनाय	-11.2748
▁भज	-11.2748
ध्य	-11.2748
▁मोनफिनबाय	-11.2749
▁मेलेन	-11.275
▁जानांदोंमोन	-11.275
▁जेरबायाव	-11.275
▁महीधरा	-11.2751
▁बेयावहायनो	-11.2751
▁बुङाबाला	-11.2752
▁मावमोनथायनि	-11.2753
▁बाखनायनाय	-11.2753
च्	-11.2753
▁बावगोमा	-11.2754
▁दामदों	-11.2754
▁मावनांगोन	-11.2754
▁दोखो	-11.2754
854	-11.2755
▁फुंजानि	-11.2755
ाबा	-11.2755
▁us	-11.2755
▁बुद्रैया	-11.2756
▁बायनांगौ	-11.2756
▁दब्लाय	-11.2756
▁क्लाबाव	-11.2757
▁मोनफैयो	-11.2757
▁बादलखौ	-11.2757
▁थांबावनो	-11.2757
▁खारखो	-11.2758
वारि	-11.2759
▁बिखान्थि	-11.2759
▁फागा	-11.276
▁थाफ्लि	-11.2761
▁थुंग्रिया	-11.2761
▁80	-11.2761
▁दुंबुरु	-11.2761
▁आलेहा	-11.2761
▁नङि	-11.2763
▁गिग्लुं	-11.2763
▁बाख्रियाव	-11.2763
▁बैग्रि	-11.2763
▁खालामहोनानै	-11.2764
▁हास्थायो	-11.2764
▁भारि	-11.2764
▁सानब्रै	-11.2765
▁सुरबाय	-11.2765
▁रायथाइ	-11.2765
▁सोरजिदोंमोन	-11.2765
me	-11.2766
▁हुगारै	-11.2766
▁मोनहैबाय	-11.2767
▁मुरि	-11.2767
▁गारजानाय	-11.2768
उनाव	-11.2768
▁रंजालीया	-11.2769
▁रेगा	-11.2769
▁उथ्रिनानै	-11.2771
▁लुबैयै	-11.2771
आफाया	-11.2771
▁दरलाया	-11.2772
▁थुब्रा	-11.2772
▁सोलिबाय	-11.2772
▁हगारसारनानै	-11.2773
मागिरिया	-11.2773
▁औवारी	-11.2773
▁थाहैयो	-11.2773
▁होलांबाय	-11.2774
▁हमगोन	-11.2774
सालिनि	-11.2774
▁एंगोनाया	-11.2775
▁जाथारगोन	-11.2775
▁लुबैयाखै	-11.2776
▁थालाङो	-11.2776
▁देबनाग	-11.2777
▁गुरब्ला	-11.2777
▁सुरै	-11.2777
▁जाफुंहोनो	-11.2777
▁बुंखांनानै	-11.2778
▁थैनाया	-11.2778
बाथाव	-11.2782
▁गारसोम	-11.2784
लाङासै	-11.2785
▁नाछा	-11.2785
▁थैखो	-11.2786
▁नार्भ	-11.2786
▁बेकेट	-11.2789
▁गानहोनांगौ	-11.2789
▁बोल्दा	-11.2789
▁थोरसि	-11.2789
▁बोनायसै	-11.2791
▁दामब्रा	-11.2792
▁जाफेराखै	-11.2792
▁रिंसारथिजों	-11.2792
▁असिद	-11.2793
▁जोमनानै	-11.2793
▁बिश	-11.2799
▁फोथैनानै	-11.28
▁सुहाबनाय	-11.28
▁जबा	-11.2802
फैनायसै	-11.2803
साइया	-11.2804
आब	-11.2804
▁नारसिननानै	-11.2804
▁गोर्बोयाव	-11.2807
▁दौरि	-11.2808
फोरबादि	-11.2809
▁सुफुंथि	-11.2809
▁नायनांगौ	-11.2809
▁ख्रेब	-11.2812
▁थिननायाव	-11.2812
▁नांदोंमोन	-11.2813
▁थगायबोदों	-11.2813
▁टेनसन	-11.2814
▁बारखो	-11.2815
▁बावगोन	-11.2817
▁साब्रैसो	-11.2817
▁रड	-11.282
▁खोनासंबाय	-11.2821
▁मादैया	-11.2821
▁जोंब्लावा	-11.2821
▁हरनायसै	-11.2822
▁दाउमा	-11.2823
▁हाबलांनाय	-11.2823
▁34	-11.2829
▁थिनबा	-11.283
▁बिजौवाव	-11.283
▁मावदोंमोन	-11.2835
▁आइजोनि	-11.2835
▁लांखारनाय	-11.2836
▁देत	-11.2836
▁दोनब्ला	-11.2837
▁हगारो	-11.2837
▁रुपाया	-11.2837
▁Inter	-11.2838
▁सिनायमोन	-11.2838
▁बेरामा	-11.2838
▁बायहो	-11.2838
▁फिथाया	-11.2841
▁फोरान	-11.2843
▁सिगांथिं	-11.2845
▁हेव	-11.2845
▁समब्रा	-11.2847
▁मास्टारा	-11.2849
▁बिबै	-11.2851
▁लाबानो	-11.2852
▁देम	-11.2852
▁हाबाथिलि	-11.2853
▁फोनांनो	-11.2853
▁हानांगोन	-11.2854
▁बाजारनिफ्राय	-11.2855
▁सानथामसो	-11.2856
▁नांथ	-11.2856
▁नायबिजिरनायनि	-11.2858
▁मानियो	-11.2858
▁जेद	-11.2861
देनाय	-11.2863
▁हरनांगौ	-11.2864
▁नेयै	-11.2866
▁रमेनखौ	-11.2867
la	-11.2869
▁मेगावाट	-11.2871
......।"	-11.2874
▁रायज्लायनाया	-11.2874
▁मावफुंनाय	-11.2876
▁नांहाब	-11.2877
▁नाजावनानै	-11.2879
▁बेदिं	-11.288
▁गोमोनाय	-11.2881
▁बावलांनाय	-11.2882
▁दोहोननि	-11.2883
▁खोर	-11.2887
▁खुनाय	-11.2887
▁आद	-11.2887
▁फारनैयाव	-11.2889
मिनि	-11.2891
▁फोसावनानै	-11.2891
▁नायग्राफोरखौ	-11.2896
▁सोरजिगिरिनि	-11.2897
▁बाथुवानि	-11.2899
▁मोननाव	-11.2901
▁नुथायाव	-11.2902
बेफोरखौ	-11.2903
▁मालायफोर	-11.2903
▁मन्जुजों	-11.2905
▁मिथिला	-11.2907
▁मिनिबाय	-11.2907
▁काज	-11.2908
▁उथ्रि	-11.2913
▁गथायनाय	-11.2917
▁फिज	-11.2918
▁आखलै	-11.2919
▁बान्थाया	-11.2919
▁हाइथा	-11.2924
▁गोजोनबाय	-11.2925
▁फोलेराव	-11.2926
▁फिदिंनो	-11.2927
मु	-11.2928
▁फोरोंदोंमोन	-11.2929
▁बरायनानै	-11.2931
▁थाइजाजों	-11.2935
▁दानफाय	-11.2936
▁मोनैयाव	-11.2937
▁लेबार	-11.2938
▁मुलिफोरखौ	-11.2939
▁बयनिख्रुय	-11.2939
थसि	-11.2943
▁थारुनखौ	-11.2948
▁सिखारनाय	-11.2948
▁रोंदों	-11.2949
▁दाखा	-11.2952
▁राइज्लाय	-11.2952
▁टु	-11.2952
▁बेन्स	-11.2955
सैलै	-11.2956
▁मोनहो	-11.2957
▁फेसा	-11.2961
▁खामला	-11.2961
▁बालाय	-11.2964
▁आफोर	-11.2968
▁ट्रेन	-11.2968
▁लिंनो	-11.2968
खानि	-11.2969
ंगा	-11.2972
▁लागा	-11.2974
▁थफीया	-11.2977
▁बैसोआवनो	-11.2979
▁बिजिरनो	-11.298
▁रंजानो	-11.298
ce	-11.298
▁pl	-11.2983
▁हरदोंमोन	-11.2984
▁फासय	-11.2984
▁V	-11.2984
▁काट	-11.2987
▁गोगोमै	-11.2988
▁जोंदों	-11.2988
▁जोबदों	-11.299
▁बिसोरनाव	-11.2994
▁नाजायाखै	-11.2997
▁रायजितखौ	-11.2999
▁थुवा	-11.3
▁सेल	-11.3001
▁बेफोरहा	-11.3003
▁लोगोयाव	-11.3003
नंनाया	-11.3004
▁थांफानाय	-11.3006
▁बाहायग्रा	-11.3008
▁हाथ	-11.301
गाड	-11.3011
▁सौनानै	-11.3011
▁बिमाइनो	-11.3014
▁थैब्ला	-11.3016
▁होखा	-11.3018
▁खांदोंमोन	-11.3018
▁खारस	-11.3021
▁मोनहैयो	-11.3022
▁सुबु	-11.3024
▁थिनहरबाय	-11.3025
▁दिखांना	-11.3025
▁बाबाय	-11.3028
▁खोनाब्ला	-11.303
▁नुबोदों	-11.3032
▁हास्लाब	-11.3034
▁दोनथुमनाय	-11.3035
▁सानग्रा	-11.3036
▁दरजाया	-11.3038
▁सोलोंनो	-11.3039
▁धर	-11.304
सी	-11.304
▁नागाफोरखौ	-11.3047
नावबो	-11.305
▁प्रदिपखौ	-11.3051
समब्रि	-11.3051
▁लखब	-11.3052
▁हाले	-11.3052
▁सानजौफुनि	-11.3053
खायै	-11.3056
▁पर	-11.306
..।"	-11.306
▁सानाबो	-11.3064
▁गायसननाय	-11.3067
▁सानफ्लां	-11.3068
▁थारबाय	-11.3068
▁फरेष्टनि	-11.3071
▁हुखा	-11.3081
▁देगारजों	-11.3082
▁बोख	-11.3082
▁थालांदों	-11.3087
▁साबि	-11.3094
▁जुलिया	-11.3094
▁सफ	-11.3098
▁रेन्जारनि	-11.3098
न्थाइ	-11.31
हैदिनि	-11.3101
▁जाफ्लानाय	-11.3102
▁बिदैजों	-11.3105
्री	-11.3107
▁मुगैनो	-11.3108
रखा	-11.3108
▁आबौवा	-11.3108
▁सानैल	-11.3109
बफुं	-11.3109
सोराव	-11.3112
▁अहा	-11.3112
▁बाथ्राफ्रा	-11.3112
▁हागौमानि	-11.3113
▁खारनानै	-11.3118
rd	-11.3121
▁डिभाइस	-11.3127
▁रुबु	-11.3127
▁दैयो	-11.3128
.....।"	-11.3131
▁लोगोजों	-11.3133
▁नाजाया	-11.3134
▁फाहामसालिनि	-11.3135
▁बुङाब्ला	-11.3136
▁मुंमाखौ	-11.314
sso	-11.3141
▁गरमा	-11.3144
▁मावनां	-11.3147
▁दैथुना	-11.3148
▁नागिरनायाव	-11.3152
▁जारि	-11.3154
▁खालामबा	-11.3156
▁बिबाननिफ्राय	-11.316
▁बुंनायमोन	-11.3167
▁खनो	-11.3169
▁बानायाव	-11.3171
▁सिलाय	-11.318
▁लोंहो	-11.3183
▁थामि	-11.3185
▁खमैब	-11.3185
▁....।"	-11.3189
▁मोननैखौ	-11.3191
▁जाब्रथाय	-11.3195
्दार	-11.3195
▁रायदों	-11.3196
▁बोरला	-11.32
थाबनाय	-11.3201
ब्बाय	-11.3204
▁साइकेलनि	-11.3205
▁जाफा	-11.3205
रिन	-11.3206
."	-11.321
▁फजनानै	-11.3219
िंगार	-11.3223
▁थोननाय	-11.3226
▁नोगोरमा	-11.3231
10	-11.3235
▁लिंलां	-11.3236
▁नागिरा	-11.3238
▁खांनायनि	-11.3241
न्ट	-11.3243
▁बिहावनो	-11.3245
▁साकर	-11.3245
▁बाया	-11.3246
।।2	-11.3253
सिबां	-11.3256
▁आइननि	-11.3259
कल	-11.3259
▁आखुथि	-11.3259
बिफाखौ	-11.326
:...	-11.3261
गौबा	-11.3261
▁महराबो	-11.3264
▁फैनायखौ	-11.3268
▁महरफोरा	-11.3272
दाहानि	-11.3273
▁नायगिदिंहै	-11.3275
▁फाग्लाया	-11.3275
▁नागिरनायखौ	-11.3281
▁मुंराइखौ	-11.3283
▁खनसायखौ	-11.3284
▁होननानैनो	-11.3285
▁फैसानि	-11.3293
nt	-11.3293
▁सुथुरजों	-11.3294
.........।"	-11.3299
▁हमै	-11.3301
दर	-11.3303
▁रोंखा	-11.3308
▁बिखि	-11.331
खाना	-11.3312
▁साख्रिनि	-11.3312
वाब्ला	-11.3314
मिद	-11.3314
दोंमोनब्लाबो	-11.3316
▁कक्राझारनि	-11.3318
लेन्स	-11.332
▁टाइट	-11.332
खोन्दा	-11.3321
▁बिरबो	-11.3322
..........।"	-11.3322
▁हेर	-11.3322
मेन	-11.3324
खांदों	-11.3327
लाखौ	-11.333
▁मोनफ्लां	-11.3333
लाङाखै	-11.3339
थारसै	-11.3341
खरखौ	-11.3345
माबा	-11.3346
▁दुंनाय	-11.3346
ख्रुब	-11.3347
रखौ	-11.335
▁निस्	-11.335
▁दिहुनना	-11.3358
सिन्दों	-11.3358
E	-11.3362
▁खुनुमथ	-11.3362
▁मावनायजों	-11.3363
▁बोहैलांदों	-11.3367
▁मिलाय	-11.3371
▁नुबा	-11.3372
▁जब्रानि	-11.3379
▁थेख्रेनि	-11.3381
जासिगोन	-11.3383
▁साखाथियावनो	-11.3384
▁बेनिफ्रायनो	-11.3385
▁दुर्जाङानो	-11.3387
बाङा	-11.3388
▁मैथा	-11.3388
▁साननायनि	-11.3391
की	-11.3396
▁जौगानायनि	-11.34
ास	-11.34
▁होलां	-11.3404
▁सुबाय	-11.3407
▁कर्क	-11.3409
▁थेब	-11.3412
▁सायखङा	-11.3421
गद	-11.3428
▁फोसावनायनि	-11.3432
▁नायफै	-11.3432
▁Ma	-11.3438
हायनो	-11.344
खिरा	-11.3442
▁फ्राम	-11.3443
▁pro	-11.3444
▁गुबुनफ्रा	-11.3444
▁दंहैयो	-11.3449
▁मेड	-11.3454
▁सिनायनाय	-11.3456
▁फावै	-11.3457
▁आग	-11.3468
▁बेमारिखौ	-11.3475
▁बुजायनाय	-11.3477
▁फरायगिरि	-11.3479
▁फाफनि	-11.348
थ्रि	-11.348
▁माफा	-11.348
▁सिख्लायानो	-11.3483
▁थेलेफाया	-11.3501
ग्रोनानै	-11.3502
▁खरि	-11.3504
▁हालदा	-11.3506
ैयाव	-11.3512
कटन	-11.3515
10,000	-11.3515
▁समायो	-11.3516
▁ओंखारब्ला	-11.3519
जुवा	-11.352
▁थाखोखौ	-11.3522
▁आन्जादखौ	-11.3522
▁सौनाय	-11.3526
▁निसाया	-11.3527
होदोंमोन	-11.3527
▁गेवलांनाय	-11.3528
त्रि	-11.353
el	-11.3532
▁खन्थाइमा	-11.3535
▁साथामनि	-11.3538
▁दाबारी	-11.3538
िभ	-11.3542
▁लास	-11.3552
लाब	-11.3553
▁सालिया	-11.356
सेमानि	-11.3562
▁जाग्राया	-11.3567
▁मिहिरखौ	-11.3575
▁बिनारामखौ	-11.3577
▁बन्थ	-11.3579
जेन्स	-11.3579
▁जानायफोरखौ	-11.358
▁एरखांनाय	-11.3581
▁खोनाबा	-11.3581
सोलै	-11.3582
▁सौसि	-11.3583
▁गार्ड	-11.3584
ंखौ	-11.3586
▁सोर्जि	-11.3587
▁जिन	-11.3588
▁धन	-11.3592
▁मामोन	-11.3596
▁नागिरबा	-11.3598
▁होखारहर	-11.3601
▁फैखादों	-11.3601
र्कट	-11.3612
तु	-11.3613
▁लोगोरि	-11.3615
▁सानायनि	-11.3618
▁मोनसिन	-11.3618
हिनजाव	-11.3626
▁बेसो	-11.3627
मोनलै	-11.3628
▁चे	-11.3632
▁फैफा	-11.3632
▁दाउसा	-11.3633
होगोन	-11.3639
▁गुम	-11.3639
▁खारलांनाय	-11.3649
्र	-11.3654
▁आफामोन	-11.367
स्र	-11.3674
▁बांहो	-11.3675
▁ति	-11.3677
1	-11.3679
▁जाहोननि	-11.3685
फैगौ	-11.3686
▁दाहारा	-11.369
▁हान	-11.3691
............	-11.3693
ोर्बोआव	-11.3699
खांदोंमोन	-11.3712
बारियाव	-11.3716
नी	-11.3717
▁खावना	-11.372
सिख्लाफोर	-11.3721
डाइल	-11.3722
▁जौमोना	-11.3727
▁Not	-11.373
a	-11.3731
▁हाखा	-11.3731
mber	-11.3737
▁आवा	-11.3738
▁थोंनै	-11.3749
▁नुगा	-11.375
▁लोरि	-11.3756
▁जाफिन	-11.3764
one	-11.3771
▁गोबानाय	-11.3771
▁नायगिरना	-11.3772
▁फालिदों	-11.3777
थारसिगोन	-11.3777
▁पाल	-11.378
▁खरस	-11.3784
ख्रब	-11.3785
बनि	-11.3786
▁मोनलायो	-11.379
िटिनि	-11.3792
▁दुबफ	-11.3793
बासो	-11.3795
हैथां	-11.3797
▁खावलायखौ	-11.3798
▁देरदों	-11.3799
पारा	-11.3799
जु	-11.3802
▁राइजोया	-11.3802
▁सानानै	-11.3813
हैबावनो	-11.3815
▁मोजांसो	-11.3816
धर	-11.3827
▁ट्रेइनफोर	-11.3828
▁बायना	-11.3829
स्टि	-11.3831
बाथ्रा	-11.3831
▁लाल	-11.3834
थ्रा	-11.3834
▁दोनथुम	-11.3835
▁गास	-11.3838
हाखि	-11.3839
▁हाबसु	-11.385
अमा	-11.3851
▁दन्द	-11.3853
▁गनाया	-11.3854
▁बुग	-11.3855
▁"...	-11.3858
ग्राम	-11.386
▁गोनांब्ला	-11.3861
▁जिरा	-11.3884
▁सिरिनाय	-11.3886
▁मिथिं	-11.3886
▁सोर्गो	-11.3891
▁बुंखानाय	-11.3893
▁सानलाय	-11.3896
▁फ्रा	-11.39
▁नेह	-11.3909
us	-11.3911
▁फोजोबो	-11.3914
▁केडारफोर	-11.3915
▁गोजौनिफ्राय	-11.3921
▁आसिखौ	-11.3921
▁साजाया	-11.3925
▁गलादार	-11.3926
▁आयदाफोर	-11.3927
ह्	-11.3932
▁भुगि	-11.3933
▁आंखालखौ	-11.3944
▁दोआ	-11.3945
▁दाजाबदाफोर	-11.3948
नोंसोर	-11.395
सुथि	-11.395
▁लोगोफोरा	-11.3953
▁बुंला	-11.3956
▁बोसोरसो	-11.3957
िकेट	-11.3959
ग्रोनांगोन	-11.3962
▁दाइरिया	-11.3966
दोंसै	-11.3968
90	-11.3969
ांख्ला	-11.3971
▁साननायाव	-11.3974
▁सोमोन्दोखौ	-11.3976
▁हाखो	-11.3987
▁बिबारजों	-11.399
▁आथा	-11.399
सिनदों	-11.3991
स्नि	-11.3993
i	-11.3993
थै	-11.3993
टारि	-11.3996
▁आंबा	-11.3997
▁सोंहै	-11.3999
रेदि	-11.4006
रुवा	-11.4007
ेमथा	-11.401
▁लुबैनायनि	-11.4016
लायगोन	-11.4016
बना	-11.4017
▁जिंगासि	-11.4018
▁हानांगौ	-11.403
पद	-11.4031
शान्ति	-11.4032
ine	-11.4034
▁फेद	-11.4036
▁गोबालाय	-11.404
▁सिखांदो	-11.4042
▁नाजानायखौ	-11.4047
▁गावल	-11.4048
▁L	-11.4049
▁भारता	-11.405
।..........	-11.4051
▁मैहुर	-11.4052
▁थिलि	-11.4052
मेला	-11.4053
ity	-11.4057
रेट	-11.4058
0.	-11.4059
▁थाबा	-11.4061
बिथां	-11.4062
बेफोर	-11.4072
▁अनलायनाया	-11.4072
▁सोमजिदों	-11.4076
▁थिखा	-11.4077
▁गेलेम	-11.4082
▁फावा	-11.4097
मोनो	-11.4098
▁बेसात	-11.4098
▁रायलायदों	-11.4099
बेनिफ्राय	-11.41
▁हासुं	-11.4102
▁बरसा	-11.4103
▁आर्मि	-11.4107
जेनो	-11.4107
मोनजों	-11.4108
रण	-11.4111
▁दद	-11.4116
बाइ	-11.4119
▁गोबाख्र	-11.4121
▁कान	-11.4127
लानाय	-11.4128
▁बिनानावा	-11.4134
र्ग	-11.4134
▁गोराजों	-11.4135
▁निजोरा	-11.4138
सुनाय	-11.4138
▁मिथिब्ला	-11.4138
...?	-11.414
▁गैजारोङि	-11.4141
मलेन	-11.4143
▁आलमारि	-11.4143
गिदिं	-11.4143
▁एसेमब्लि	-11.4143
▁टेंकि	-11.4144
▁गुदिया	-11.4145
▁एले	-11.4145
▁सोरनिफ्राय	-11.4146
▁पसम	-11.4146
▁बुगा	-11.4147
रिग	-11.4149
▁मोस्रोम	-11.4151
....?"	-11.4153
▁गग्र	-11.4154
▁थख	-11.4158
▁मादा	-11.4158
▁गोग्गा	-11.4159
▁जुरिजेन	-11.416
▁देन	-11.4161
लासे	-11.4163
थर	-11.4167
लायोब्ला	-11.4168
▁लान्स	-11.4169
▁सालाखौ	-11.4169
ाया	-11.4174
खायनोथ	-11.4175
िष्ट	-11.4176
▁बुंलाय	-11.4178
▁गफ	-11.4181
▁बाङाइ	-11.4189
▁थाबायो	-11.4189
▁टावारफोर	-11.4191
जिबा	-11.4191
▁अक्सि	-11.4192
▁मुलिया	-11.4196
▁फान्जामुथि	-11.4199
▁ख्रब	-11.42
एन	-11.4201
जेरै	-11.4202
ोन	-11.4202
▁आसामि	-11.4208
▁सन्थला	-11.421
▁गैयामोनब्ला	-11.4211
वन	-11.4214
▁11.	-11.4215
केट	-11.4216
▁कारेन्ट	-11.4216
▁me	-11.4217
▁अखाया	-11.4219
फेन	-11.4223
▁सोमहाब	-11.4224
▁आफादफोरा	-11.4227
▁खैनाशान्ति	-11.4229
man	-11.4231
▁हरिभुषन	-11.4232
खाफाल	-11.4237
▁दैखरा	-11.4238
▁उदखार	-11.4241
▁हज्रिखाव	-11.4243
मोदोम	-11.4244
▁बिबानगिरि	-11.4244
बायदों	-11.4245
कान्त	-11.4246
▁हासिब	-11.4248
▁फिस	-11.425
▁नायगोमो	-11.4252
▁सुखुवा	-11.4252
▁हैनाय	-11.4252
12	-11.4253
▁लुफुं	-11.4254
ेछ	-11.4254
▁बिबुं	-11.4256
मारो	-11.4257
▁पार्ट	-11.4258
▁गयति	-11.4258
▁जानोसो	-11.426
▁साइद	-11.4261
AS	-11.4262
▁दानना	-11.4264
▁जागौ	-11.4265
▁फार्	-11.4266
स्लाबाखिसै	-11.4268
▁बबेखौ	-11.427
B	-11.427
▁बरायनाय	-11.427
▁li	-11.4272
बले	-11.4273
L	-11.4273
ऐ	-11.4273
खमज्लाय	-11.4273
पुरी	-11.4273
दाउसा	-11.4273
H	-11.4273
हाफाय	-11.4274
रिक्सा	-11.4275
बुजिबाय	-11.4276
खोनासं	-11.4276
मिथिस	-11.4276
इंख्रि	-11.4276
दावरा	-11.4276
ओंखारलाङो	-11.4276
खुलुमो	-11.4277
अन्थाइ	-11.4277
सानराइ	-11.4278
गोबां	-11.4279
थौदो	-11.4279
मुरि	-11.428
जाल	-11.428
फुंखा	-11.4281
शी	-11.4283
बारि	-11.4286
दानिया	-11.4286
▁असमियाफोरनि	-11.4286
थैबाय	-11.4287
▁गैमारा	-11.4288
गारां	-11.4289
▁जुथे	-11.4291
▁मनजुआ	-11.4291
▁1987	-11.4293
▁उइक	-11.4295
▁सिन्दुक	-11.4295
▁जायखार	-11.4297
बादां	-11.4297
▁खफाथि	-11.4298
int	-11.4298
आबारी	-11.4298
▁मग	-11.4298
▁दास	-11.43
▁आइना	-11.4301
▁सिखावा	-11.4301
▁हासुदै	-11.4302
खाउरि	-11.4302
▁बोद्	-11.4303
▁सोरजिगिर	-11.4303
▁मिनथि	-11.4304
▁सुंथाब	-11.4304
▁मेन्दा	-11.4306
बारखालि	-11.4306
▁दिन्थ	-11.4307
▁II	-11.4307
▁नायथ	-11.4308
▁संफ्ल	-11.4309
▁सान्थ्र	-11.431
▁सन्दे	-11.4312
▁फैफिनब्ला	-11.4312
दाखालि	-11.4313
▁लाग्रो	-11.4313
गामिनि	-11.4313
▁गाब्र	-11.4313
▁फान्था	-11.4314
▁लेङाय	-11.4314
▁गेब्ले	-11.4315
ख्लोब	-11.4316
▁सोना	-11.4316
▁सेंग्राखौ	-11.4316
▁फोर्बो	-11.4316
▁खोमाना	-11.4317
▁गन्थङा	-11.4317
ुंग्राय	-11.4318
चियेशन	-11.4318
%	-11.4318
▁Jul	-11.4318
▁बक्सीं	-11.4318
▁शचीपात्र	-11.4318
▁people	-11.4319
▁इन्सपेक्टर	-11.4319
▁एकाडेमी	-11.4319
▁काश्यप	-11.4319
▁जुक्ति	-11.4319
▁ठाकुर	-11.4319
▁डेनमार्क	-11.4319
▁दिब्रुगर	-11.4319
▁द्रयिं	-11.4319
▁पारमिट	-11.4319
▁पिंपिं	-11.4319
▁प्रब्लेम	-11.4319
▁फेब्रुवारि	-11.4319
▁बेगपाइपार	-11.4319
▁मेगाजिन	-11.4319
▁यैलाबोर	-11.4319
▁लाफांगे	-11.4319
▁सेरफांगुरि	-11.4319
▁हुखुम	-11.4319
▁ज्रय	-11.4319
▁तिब्बत	-11.4319
▁नोंसाज्ला	-11.4319
▁बामब्लेमा	-11.4319
▁महात्मा	-11.4319
▁लाइसारी	-11.4319
Prono	-11.4319
▁बयसियाल	-11.4319
▁भिटामिन	-11.4319
▁सेमिनार	-11.4319
▁महम्मद	-11.4319
▁दाबोरसे	-11.4319
▁state	-11.4319
▁गोलोमस्राव	-11.4319
▁गोलोन्दां	-11.4319
▁मुम्बाइ	-11.4319
ious	-11.4319
▁(8)	-11.4319
▁दाहुना	-11.4319
▁दिग्री	-11.4319
▁आदर्श	-11.4319
▁खिरिमिन	-11.4319
▁धरणी	-11.4319
▁लण्डन	-11.4319
tive	-11.4319
▁फाइनाल	-11.4319
▁गुज्रि	-11.4319
▁मेसें	-11.4319
▁उखुम	-11.4319
▁ल्दाम	-11.4319
▁जगाजग	-11.4319
▁खोनासङो	-11.4319
▁तिता	-11.4319
▁नोथाङा	-11.4319
▁टेलिफ	-11.4319
▁स्टरेज	-11.4319
▁दान्थे	-11.4319
▁थोरफो	-11.4319
▁लंफेन्ट	-11.4319
▁ष्टेशन	-11.4319
▁रेबति	-11.4319
▁लटारी	-11.4319
▁गुबुंले	-11.4319
▁मंगलीयान	-11.4319
▁मेजेम	-11.4319
▁ष्टेडियाम	-11.4319
▁ब्यावहा	-11.4319
फुङो	-11.4319
▁हाद्रिबाला	-11.4319
▁Pad	-11.4319
▁जिख्लाबसे	-11.4319
▁गोबोरखि	-11.4319
▁बाङाली	-11.4319
▁पाब्लिकेशन	-11.4319
▁बिजिनेस	-11.4319
▁मिलियन	-11.4319
▁राबेन	-11.4319
▁डिग्री	-11.4319
▁सदबनो	-11.4319
▁मोनामसु	-11.4319
▁आथिमंगल	-11.4319
▁पर्दा	-11.4319
▁सिददा	-11.4319
AC	-11.4319
▁फ्रान्स	-11.4319
▁बोद्ला	-11.432
▁रैमोन	-11.432
▁मेनेजमेन्ट	-11.432
▁असुख	-11.432
▁कलंखिनि	-11.432
▁थुंसुं	-11.432
▁बिलित	-11.432
▁साख्रिवाला	-11.432
▁मायाजे	-11.432
▁जाननु	-11.432
▁इसिबां	-11.432
▁मेथें	-11.432
▁बुटिं	-11.432
▁खराग	-11.4321
▁एखुथा	-11.4321
▁धमक	-11.4321
▁साबाइख	-11.4321
▁बेहुस	-11.4321
▁थबगां	-11.4321
▁उसुन्दा	-11.4321
बोलो	-11.4321
▁साबित्री	-11.4321
▁दिंग्राय	-11.4321
▁बुरला	-11.4321
▁समाजखान्थि	-11.4322
▁लोहो	-11.4322
▁आमुखाया	-11.4322
▁उपेन	-11.4322
लादार	-11.4322
▁ग्रुप	-11.4322
▁लटारि	-11.4322
▁गांथाम	-11.4323
▁सातजार्ला	-11.4323
▁फुसब	-11.4323
▁लांथिया	-11.4323
▁लावगि	-11.4323
▁p	-11.4324
▁नांगोल	-11.4324
▁उसिफाव	-11.4324
▁थोबसे	-11.4324
▁नरकासुर	-11.4324
▁खुम्बीबा	-11.4324
▁प्रमप्ट	-11.4324
▁खृष्टीयान	-11.4324
▁जोथ्रोद	-11.4324
▁सम्पत्ति	-11.4324
▁मुर्ख	-11.4324
▁आपुनि	-11.4325
▁राक्षस	-11.4325
▁सान्द्रि	-11.4325
▁noun	-11.4325
▁नार्जि	-11.4325
▁बिसालथि	-11.4325
▁बदमास	-11.4325
▁राखें	-11.4325
▁सौग्दाव	-11.4325
▁नारजारी	-11.4325
▁up	-11.4325
▁बेरस्रां	-11.4325
▁दोनदो	-11.4325
▁हाथारलिया	-11.4325
▁my	-11.4325
▁आपेल	-11.4325
▁आदिबा	-11.4325
▁नांफैबाय	-11.4325
▁खाराखै	-11.4325
▁बानेश्वर	-11.4325
▁खोथिया	-11.4325
▁खुङो	-11.4325
▁मोनलोंगोन	-11.4326
▁its	-11.4326
▁बुथाराखै	-11.4326
▁नालेंखर	-11.4326
▁रोजाबगिरि	-11.4326
▁नुगानै	-11.4326
▁सिनायगौ	-11.4326
▁बेरखांहोनो	-11.4327
▁बायग्लि	-11.4327
▁बेखेवगाद	-11.4327
▁लायथां	-11.4327
▁एरखे	-11.4327
▁फाइखि	-11.4327
▁माइथायसिम	-11.4327
▁नास्राय	-11.4327
▁आसल	-11.4328
▁स्कट	-11.4328
▁सिलिं	-11.4328
▁छि	-11.4328
▁बालें	-11.4328
▁हामथारबायलै	-11.4329
▁मंगलदै	-11.4329
▁खुनोरोखोम	-11.4329
▁1984	-11.433
▁आली	-11.433
▁नेपालि	-11.433
▁बोखाङो	-11.433
▁राङै	-11.433
▁बिजिरसालिया	-11.433
▁गंग्लायो	-11.4331
▁नम्बरी	-11.4331
▁अगर	-11.4331
▁माउरिया	-11.4331
▁नोगोरारिफोरा	-11.4331
▁सिलिंनाय	-11.4332
▁बेबहार	-11.4332
▁गोग्लैजोबो	-11.4332
▁जुरिजेननाय	-11.4332
▁हाख	-11.4332
▁गीता	-11.4332
▁name	-11.4332
▁ख्रों	-11.4332
▁बोनथुमना	-11.4332
▁इखान	-11.4332
▁गरदसे	-11.4332
▁जुनिया	-11.4333
▁नुजाथिगोन	-11.4333
▁हालामाव	-11.4333
▁जिगां	-11.4333
▁खारबोयो	-11.4333
▁गोमसारो	-11.4333
▁साखोन	-11.4333
▁बावस्रोम	-11.4333
▁लानांबाय	-11.4333
▁मुफुर	-11.4334
▁नेता	-11.4334
▁खारलुं	-11.4334
▁सिहाब	-11.4334
डियास	-11.4335
▁सफैगोन	-11.4335
▁पष्ट	-11.4335
▁मन्जुमोननि	-11.4335
▁रिस्ट	-11.4335
वारीमोनखौ	-11.4335
▁लाइटार	-11.4336
▁हरखादों	-11.4336
▁केबिन	-11.4336
▁नुफैबाय	-11.4336
▁थोङै	-11.4336
▁बुंफैदों	-11.4336
▁सन्थलि	-11.4336
▁माहारी	-11.4337
▁दोनहैदों	-11.4337
▁खुरु	-11.4337
▁बावलिया	-11.4337
▁मिनिखुसियै	-11.4337
राणी	-11.4338
▁दिहुनजानाय	-11.4338
▁गाहेलाफोरा	-11.4338
▁लायदो	-11.4338
▁दोंथाम	-11.4338
▁उजिदों	-11.4339
▁बेब	-11.4339
▁सेंग्रि	-11.4339
▁दाखालामसै	-11.4339
▁आल्ला	-11.434
▁जिब्रै	-11.434
▁आथाल	-11.434
▁PC	-11.434
▁खुद्रिनाय	-11.4341
▁आरिस्रां	-11.4341
▁...।	-11.4341
▁गोमाजानाय	-11.4342
▁सिन्दुकनि	-11.4342
▁खमाय	-11.4342
▁रिस	-11.4342
▁बिरलांबाय	-11.4342
▁खौऔ	-11.4342
▁दागाबसै	-11.4343
▁खफाथिया	-11.4343
आफोद	-11.4343
▁जाफ्लाय	-11.4343
▁जिथाम	-11.4344
▁सबाय	-11.4344
▁रायफोरनाय	-11.4345
▁दालान	-11.4345
▁आंगुर	-11.4346
▁मोनथारदों	-11.4346
▁दलरै	-11.4347
▁फैखांबाय	-11.4347
▁ब्रें	-11.4347
लासै	-11.4347
▁आर्ट	-11.4347
▁जाजोबगोन	-11.4349
▁खोनागोन	-11.4349
▁सुथारनाय	-11.4351
▁बुथारग्रा	-11.4352
▁फिस्रि	-11.4352
▁सफै	-11.4352
▁मोनज्लायनाय	-11.4353
▁दन्दराव	-11.4353
▁बेल्ट	-11.4353
▁खालामहरो	-11.4353
▁सहैनो	-11.4353
▁गनायगोन	-11.4353
▁अरडार	-11.4354
▁लांफिनो	-11.4354
▁जाखायो	-11.4355
▁बुंफोर	-11.4355
▁खबजबनानै	-11.4355
▁हाबफैदोंमोन	-11.4355
▁बानसे	-11.4356
▁फांनै	-11.4356
▁फुथिया	-11.4356
▁मिज	-11.4356
▁जागोदान	-11.4357
▁खबाम	-11.4357
▁सामलायनाय	-11.4357
▁सिनथाय	-11.4357
▁जासिगौमोन	-11.4357
▁नाङाखिसै	-11.4357
▁खालामहैयो	-11.4358
▁जालायगोन	-11.4358
सिगौमोन	-11.4358
▁घन्टासे	-11.4359
▁सोरजियो	-11.4359
▁सेरखाय	-11.436
▁गानदों	-11.436
▁सालान	-11.4361
▁जगार	-11.4361
▁दब	-11.4361
केन	-11.4361
ग्राफिक	-11.4361
▁बुंहैबाय	-11.4361
▁थाबोदों	-11.4361
▁थिंगिनिया	-11.4362
▁फर्स	-11.4362
▁दुरुङा	-11.4362
▁फारफा	-11.4362
am	-11.4362
▁देवबार	-11.4363
▁नाकि	-11.4363
▁गोजोनथों	-11.4363
▁हादान	-11.4363
▁हाफाय	-11.4364
▁लोंगोन	-11.4364
▁जादिया	-11.4364
▁सत्य	-11.4365
▁जासिनाय	-11.4366
▁गोमाजा	-11.4366
▁लाहैयो	-11.4366
▁केसा	-11.4367
▁रांखावरि	-11.4367
▁ब्रास	-11.4368
▁नारायणा	-11.4369
▁आलुमिंगिया	-11.4369
▁सामलायो	-11.4369
▁मोनबोदों	-11.4371
▁सुति	-11.4371
▁होथाव	-11.4371
▁ख्रि	-11.4371
▁नायगिरदोंमोन	-11.4372
▁रांखिनि	-11.4372
▁मजा	-11.4372
▁दैमारीया	-11.4373
▁बुंलांबाय	-11.4373
▁होआसै	-11.4375
▁बिजिरगोन	-11.4376
▁फेस्	-11.4376
▁गुजुनाय	-11.4376
▁हुयो	-11.4376
▁थरनै	-11.4377
▁दाउला	-11.4377
जाथावदि	-11.4377
▁दाननै	-11.4378
▁जाथारनाय	-11.4378
▁बेथन	-11.4378
▁कथा	-11.4379
▁लैथोआव	-11.4379
▁आवारामा	-11.438
▁ष	-11.438
▁बिया	-11.4381
▁hour	-11.4381
▁जोंगा	-11.4382
▁un	-11.4382
▁गाबज्रिबाय	-11.4383
▁गोबायो	-11.4383
▁थालांबाय	-11.4383
▁प्रेमधरखौ	-11.4384
दाइन	-11.4386
▁बिथांनिनो	-11.4386
▁सोमद्रिया	-11.4386
▁दाबु	-11.4388
▁बेंदों	-11.4389
अब्ला	-11.4389
▁दानस्रि	-11.4389
▁नाथाइ	-11.4392
▁हब्रानाय	-11.4393
▁सुखुयै	-11.4393
▁दहमै	-11.4395
▁आरांगायाव	-11.4395
▁थाहोनो	-11.4397
▁ष्टेट	-11.4397
▁नंदोंमोन	-11.4398
▁बियार	-11.4398
[	-11.4399
▁गिलिरै	-11.4402
▁खनथामसो	-11.4402
▁बिगुमैया	-11.4402
▁बिबायारिया	-11.4403
▁रासियानि	-11.4404
सिबल	-11.4407
▁दिन्थिगोन	-11.4408
▁जाबोला	-11.4408
▁सिमेन्ट	-11.4408
टारने	-11.4409
दहाय	-11.441
▁गोग्लैगोन	-11.441
▁हाननानै	-11.441
▁थैहां	-11.4411
▁गुफुं	-11.4414
▁-!	-11.4415
▁दानब्ला	-11.4415
:....	-11.4415
▁ट्रेड	-11.4415
▁होनदों	-11.4416
▁जेव	-11.4416
▁बिग्राय	-11.4417
▁नसिङाव	-11.4417
▁भुमाव	-11.4417
▁रमानि	-11.4417
▁सामव	-11.4419
मिला	-11.4419
▁थानांदों	-11.442
▁फरायसालिफोर	-11.4421
स्रो	-11.4421
▁हुफ्ले	-11.4421
▁बेंकाव	-11.4423
▁रंजायो	-11.4424
▁मुला	-11.4426
▁खोनायोब्ला	-11.4428
▁फराम	-11.4429
साफोरखौ	-11.443
▁माबायदि	-11.443
▁गोब्रामनानै	-11.4431
▁रमाय	-11.4432
▁अन्नानै	-11.4433
▁आथि	-11.4433
▁...............	-11.4434
▁बाल्ब	-11.4434
▁चक	-11.4436
▁मुसे	-11.4436
▁लिरथाइ	-11.4437
▁नायनाया	-11.4437
▁लाखो	-11.4439
▁बुसाया	-11.444
▁लाफै	-11.444
▁लांनोसै	-11.4441
▁गांनैसो	-11.4441
▁सोंलुवा	-11.4442
▁सोमावनानै	-11.4442
▁बेंखननानै	-11.4443
▁द्रेस	-11.4448
▁निम	-11.4448
▁खन्नाय	-11.4448
माबे	-11.4449
▁थाफानाय	-11.445
▁लाबोफिन	-11.4452
▁रिफिनाय	-11.4455
बेथ	-11.4457
▁लोंहोनो	-11.4459
▁मिनिस्रां	-11.4459
▁नोंसोरनाव	-11.4459
गोसोखौ	-11.4459
▁गोरोबो	-11.4459
▁बानान	-11.4461
▁बोहैथिमोन	-11.4463
▁दले	-11.4464
▁थोया	-11.4464
▁बुलायनाय	-11.4464
सहेन	-11.4466
साइनि	-11.4466
▁बेफार	-11.4467
▁पेस	-11.4468
▁दोर्फ	-11.4469
▁नखरखौ	-11.447
▁खेराइसालि	-11.447
▁खमलायनाय	-11.4471
▁बिबादिनो	-11.4472
माफा	-11.4472
▁रिग	-11.4473
▁बोदोंमोन	-11.4473
▁सोमबाय	-11.4474
रोखा	-11.4475
▁बाहाया	-11.4476
▁रायबाय	-11.448
▁हास्थायनायखौ	-11.448
▁उत्तर	-11.4482
नोंहा	-11.4483
▁गाराया	-11.4485
▁उदाया	-11.4486
▁बिखाव	-11.4488
▁मोजाङानो	-11.4489
▁दारिया	-11.449
▁गोख्रोंसिन	-11.449
▁थिंजाय	-11.4491
▁मेम्बरखौ	-11.4492
▁थाबायनानै	-11.4494
▁गोरोबहो	-11.4496
▁इंराजीयाव	-11.4497
▁जोबजानाय	-11.4499
▁निउबिल	-11.4502
▁मेद	-11.4502
▁खोबनाय	-11.4502
▁जाथायफोरखौ	-11.4504
▁नुजाहै	-11.4506
▁नांलाया	-11.4506
सिंनिफ्राय	-11.4506
▁सावरायज्लायनाय	-11.4507
▁नोमाया	-11.4507
▁थाबायग्रा	-11.4509
▁खावलाया	-11.4509
▁नागारनाय	-11.4511
▁प्रग्रामफोरखौ	-11.4512
बारुद	-11.4512
▁हाबहैब्ला	-11.4515
▁मोजोम	-11.4519
▁इलेक्ट्र	-11.4521
▁बें	-11.4522
▁दौनाय	-11.4524
▁जेनथ	-11.4526
▁थाखोसे	-11.4529
▁हाबाखालि	-11.453
▁सारफ्राव	-11.4532
▁बिजिया	-11.4536
▁साखाथिनि	-11.4537
▁सोबायो	-11.4539
▁सानफुनाय	-11.4542
बायग्रा	-11.4543
▁खोथाफोरखौ	-11.4545
ज्रिं	-11.4546
▁come	-11.4546
▁आंनाबो	-11.4546
खारि	-11.4548
▁बैसागिया	-11.4548
▁थगायनानै	-11.4548
ेरखां	-11.4548
▁शाल	-11.455
.)	-11.455
▁जानांनायनि	-11.4551
▁गादब	-11.4552
गाबो	-11.4552
▁मिथियाब्ला	-11.4554
▁फुस	-11.4555
▁मिथिगौना	-11.4555
▁गोजांदों	-11.4556
प्रभु	-11.4557
▁आदायालाय	-11.4559
▁खायो	-11.456
▁सिबिनायाव	-11.4565
▁थांखिमोन	-11.4565
थाइखौ	-11.4571
▁आइजोफोर	-11.4572
▁हाथाइनि	-11.4574
▁थिननानै	-11.4575
▁होबो	-11.4575
रीनि	-11.4578
▁होसोनानै	-11.4578
ंबाय	-11.458
▁ब्रह्मआ	-11.4582
▁सरलानि	-11.4583
▁हमा	-11.4585
▁सुनिया	-11.4586
▁बिबनांखौ	-11.4587
▁गोजानै	-11.4589
▁सुस्रांनाय	-11.4589
बिजिरख	-11.459
▁आलौनाय	-11.459
वाखिसै	-11.4593
▁होनजा	-11.4596
▁गोनांथिया	-11.4598
▁दावबायारिफोरा	-11.4601
▁br	-11.4603
▁बोरसिया	-11.4603
ङैनो	-11.4606
▁खुनसे	-11.4607
▁गोजांनाया	-11.4614
▁लानोसै	-11.4615
▁इनायै	-11.4616
▁हाथाया	-11.4621
▁फुंजा	-11.4622
fe	-11.4624
लाद	-11.4625
▁थिम	-11.4626
▁सेन्देला	-11.4628
▁उजिर	-11.4631
▁लाजिनायजों	-11.4633
इनाय	-11.4635
िन	-11.4637
थक	-11.4643
▁गोर्बोआ	-11.4643
▁अप	-11.4645
▁गाखोफिन	-11.4646
बेल	-11.4647
-2	-11.4649
▁हमबायमोन	-11.4651
▁एंगारनायखौ	-11.4651
▁नोंनिया	-11.4654
▁अंखार	-11.4654
▁दिन्थियाखै	-11.4656
▁बायदिफोराव	-11.466
▁नार्सा	-11.4661
थं	-11.4662
स्टार	-11.4662
थावगौ	-11.4662
▁दुगैनाय	-11.4663
▁हाबलां	-11.4664
▁दोहोनि	-11.4665
▁दोंफ	-11.4667
▁ब्रैजि	-11.4667
▁हुदाया	-11.467
▁उथ्रिनाय	-11.4671
गुरु	-11.4672
▁रांखान्थिनि	-11.4674
▁खौरांफोरखौ	-11.4675
ङाब्ला	-11.4678
▁आवनाय	-11.4678
लड	-11.4681
▁स्	-11.4683
▁मेडामा	-11.4685
▁बिदैया	-11.4687
▁बैयो	-11.4688
▁who	-11.4691
साला	-11.4698
▁आदबजों	-11.4702
▁राणीया	-11.4703
▁फिसासिन	-11.4704
▁फरायसुलिफोर	-11.4706
दासो	-11.4707
▁थिना	-11.4711
▁तुलारामाबो	-11.4713
▁गाया	-11.4718
▁प्रग्रामा	-11.4719
.............	-11.4719
▁थानांनाय	-11.472
▁नभेल	-11.4722
▁खालिनि	-11.4725
बिदि	-11.4725
▁फैयोमोन	-11.4726
ाइस्	-11.4728
▁फिथाइनि	-11.4729
इला	-11.4731
▁दंग	-11.4738
▁होथ	-11.4741
▁सिखारनो	-11.4741
▁रान्दिया	-11.4742
फ्लायो	-11.4744
▁नोंथांनो	-11.4745
▁आसिया	-11.4747
▁थावनियाव	-11.4747
ग्लि	-11.475
▁खामनाय	-11.4751
▁खिन्थाजोब	-11.4756
▁खुसिया	-11.4758
▁खेवो	-11.4758
▁बाननानै	-11.4761
▁रना	-11.4761
▁लासे	-11.4761
▁अंग	-11.4762
▁बिख्लोखौ	-11.4762
▁थागिरि	-11.4766
▁माथा	-11.4767
▁गारजा	-11.4772
▁फल	-11.4778
ाब	-11.4778
▁हायैया	-11.4779
▁जोमाव	-11.4782
▁अननाया	-11.4782
▁थोनहर	-11.4784
▁सेक	-11.4786
▁जोनोमा	-11.4787
तार	-11.4793
ेथेर	-11.4793
▁नोंथांमोननो	-11.4794
▁बाजियावनो	-11.4795
▁सैनानै	-11.4799
▁रै	-11.48
▁सोंखारिदों	-11.4801
▁सुखि	-11.4807
ुराम	-11.4813
▁खोरोम	-11.4814
▁सोमावसारग्राफोर	-11.4815
▁आदानाव	-11.4815
▁नंबाय	-11.4816
▁बैखौ	-11.4818
जायखौ	-11.4821
▁एमबु	-11.4821
▁आदबा	-11.4822
▁निख्रुइ	-11.4823
▁d	-11.4823
▁हाजारबा	-11.4824
त्र	-11.4825
▁बिलाइफोरखौ	-11.4825
▁थांगार	-11.4827
▁बुथुमनाय	-11.4832
▁दांब्ला	-11.4834
▁थुनफावथाइगिरि	-11.4835
▁होग्रो	-11.4835
▁थिनहरदोंमोन	-11.4837
▁बुंथारदों	-11.484
▁दुखुयै	-11.484
▁बुंफादेर	-11.4845
▁टाउननि	-11.4847
▁सान्थ्रिया	-11.4848
▁अजयजों	-11.4849
▁गायनाय	-11.4849
रुखु	-11.4852
▁खेंखाय	-11.4857
▁गुजु	-11.4861
▁थियेटाराव	-11.4863
वाला	-11.4863
▁हौवाफोरनि	-11.4863
▁रंफालीया	-11.4864
जिरा	-11.4866
सिना	-11.4867
रुबु	-11.4871
▁बानायनो	-11.488
सिल	-11.4885
▁दाहाजों	-11.4886
▁ता	-11.4886
स्लि	-11.4886
जायोब्ला	-11.4891
▁मिल	-11.4892
ोरसोन	-11.4896
जानि	-11.4897
▁नुस	-11.4897
▁मोनखादों	-11.4902
▁सुबुंसा	-11.4907
▁सोहै	-11.4909
जयो	-11.4912
▁रद	-11.4912
▁जगोन	-11.4913
।2	-11.4917
T	-11.4919
मुसुरनाय	-11.4921
▁राजानो	-11.4921
▁दावथु	-11.4922
ब्लि	-11.4924
यहाबो	-11.4925
▁लागोनि	-11.4926
▁मानैया	-11.4931
▁बोसोरब्रै	-11.4931
फैयासै	-11.4932
▁दिग	-11.4933
▁उजिनाय	-11.4935
▁खालामनोसै	-11.4937
▁सोमजिखां	-11.4953
▁मोनलायनाया	-11.4958
...............	-11.4963
▁सुयै	-11.4963
▁हानायमोन	-11.4963
▁बाजिनाय	-11.4964
▁मोनखांदों	-11.4966
▁लिरगिरिफोर	-11.4966
वारीनि	-11.4967
भु	-11.4968
▁जामारदों	-11.4974
▁हरसेखौ	-11.4978
▁-'	-11.4979
▁आसारिया	-11.4984
▁रुपानि	-11.4991
▁सानाया	-11.4993
▁सानबा	-11.4995
▁भेट	-11.5001
लांसिगोन	-11.5002
▁दिन्थिना	-11.5006
▁गारखो	-11.5007
▁सय	-11.5009
▁हायासै	-11.5009
▁थोलायनाय	-11.5009
थायनि	-11.5014
फ्लांगोन	-11.5017
▁होखारनाय	-11.502
▁गोग्लैया	-11.502
फ्लं	-11.5021
50	-11.5026
▁लग	-11.503
▁खुन्था	-11.503
▁मेलेमा	-11.5032
▁अनजु	-11.5037
मोनथाय	-11.5039
▁मावोमोन	-11.5039
▁नामखौ	-11.504
▁जाखांफै	-11.5041
▁मावनाया	-11.5043
▁नाला	-11.5043
थारगौमोन	-11.5043
▁ससेयाव	-11.5043
▁गोथैसालि	-11.5044
नायखौनो	-11.5044
▁फरायनायखौ	-11.5045
▁अजाखौ	-11.5048
▁सिंखौ	-11.5048
▁साहस	-11.505
▁मुंराया	-11.5053
▁गैयैखाय	-11.506
मोन्थाय	-11.5065
ायनि	-11.5066
c	-11.5068
▁मोसौवा	-11.5074
▁मर	-11.5078
▁बिबारिया	-11.5086
गारनो	-11.5088
▁थैजानाय	-11.5091
▁खुनो	-11.5096
जानाया	-11.5096
ʼ?	-11.5096
▁बाहायनाया	-11.5097
▁मेलाखौ	-11.5099
▁फैयोब्ला	-11.51
▁गोसोसै	-11.5102
यालासिनो	-11.5104
▁मिथिजा	-11.5109
खानानै	-11.5112
▁लांफानो	-11.5113
▁सफैदों	-11.5113
em	-11.5115
▁सानखां	-11.5117
▁सुनांगौ	-11.512
हैयासै	-11.512
▁जाग्रो	-11.5123
▁गुवाहाटीनि	-11.5125
▁जिरायहै	-11.5125
▁हायैखौ	-11.5126
▁खारबोदों	-11.5131
हांफ्ला	-11.5131
▁फरायब्ला	-11.5132
फ्रोमावबो	-11.5138
ुलाद	-11.5142
▁थावजों	-11.5143
जाम	-11.515
▁भार्चन	-11.5153
▁सोमावसारदों	-11.5157
सिंनि	-11.5157
ोरा	-11.5158
▁गावसोरखौ	-11.5158
▁मिलि	-11.516
▁आदाखौ	-11.5163
▁नेबाव	-11.5165
▁गायो	-11.5179
▁रायै	-11.5182
▁लामाजोंनो	-11.519
▁लांगोनानि	-11.519
▁दसेल	-11.5191
▁g	-11.5192
▁खिन्थाहैनो	-11.5194
▁फिद	-11.5201
▁मोन्नायाव	-11.5206
▁कालि	-11.5208
▁35	-11.5208
▁बुर	-11.521
▁नहा	-11.521
ut	-11.5215
▁सार्क	-11.5218
बिला	-11.5219
▁गोसोदि	-11.5225
▁थुलुंगाजों	-11.5229
▁आबौमोननि	-11.5235
▁लाइटखौ	-11.524
▁इछ	-11.5241
▁खालामोमोन	-11.5245
▁रबिन	-11.525
▁खमाव	-11.5251
▁दाबादि	-11.5251
▁बिलाइफोर	-11.5255
ic	-11.5263
▁मानोमोन	-11.527
मनि	-11.5271
नायाबो	-11.5279
▁एसेनो	-11.5286
▁सिरिनि	-11.5289
▁आथोनखौ	-11.529
▁जेर	-11.529
ain	-11.5292
सुरी	-11.5302
िभार	-11.5303
सालि	-11.5307
▁बियाय	-11.5308
▁थांखां	-11.5309
▁t	-11.5311
▁फैफिन्न	-11.5314
▁गेदेरा	-11.5315
▁हरनाया	-11.5323
▁मासु	-11.5335
ंगली	-11.5335
सेनि	-11.5337
▁मावफारियाफोर	-11.5339
▁फरायजोब	-11.5345
▁जराय	-11.5346
▁फेनाय	-11.5349
▁होन्नाया	-11.5354
▁गबाय	-11.5355
▁लाइजामजों	-11.5357
▁सिगारेटखौ	-11.5359
▁थाफायो	-11.5359
वेल	-11.536
▁गोबावसै	-11.5361
ुथुर	-11.5362
हरबावो	-11.5364
▁बेखि	-11.5367
▁बावला	-11.5371
▁रन्	-11.5378
मिटारसो	-11.5383
19	-11.5387
रत	-11.5387
▁गाना	-11.539
▁फोरोंजा	-11.5392
▁रायहर	-11.5395
▁खाथे	-11.54
लायै	-11.5403
▁अब्रामा	-11.5404
▁खारदों	-11.5409
▁दानै	-11.5412
▁खिया	-11.5414
▁जोहोलावजो	-11.5421
फायाव	-11.5428
▁थैलांनाय	-11.543
र्ज्य	-11.5436
▁बारसोम	-11.5437
ail	-11.5439
ration	-11.5441
▁Kachar	-11.5444
▁कासारखौ	-11.5453
ाब्लाबो	-11.5458
ें	-11.546
▁नरेन	-11.546
दोंब्लाबो	-11.5461
▁ओंखारलाय	-11.5463
▁मिनिग्लाब	-11.5466
▁दंफायो	-11.5468
▁जिरायफिन	-11.5469
प्र	-11.5474
▁द्रा	-11.5474
om	-11.5475
▁बिरनाय	-11.5484
▁अरनाय	-11.5485
थारखो	-11.5486
▁बोस्लाय	-11.5493
▁बोसोरनिफ्राय	-11.5495
▁सति	-11.5499
▁निसा	-11.5501
▁फैमार	-11.5511
मनो	-11.5517
▁दाखिन्था	-11.5518
▁सोंखारि	-11.5518
▁कापनि	-11.552
▁नोथां	-11.5522
▁36	-11.5525
दावा	-11.5526
▁हान्थि	-11.5528
▁खालामखांनाय	-11.5532
▁अफिसा	-11.5535
जोबासै	-11.5543
खाङा	-11.555
▁लाहैदों	-11.5555
▁थाफै	-11.5555
सैया	-11.5556
थारै	-11.5557
बारिनि	-11.556
▁ट्रेन्स्	-11.5564
माफोराव	-11.5565
▁जिल्लाया	-11.5571
▁बिग	-11.5574
ंग्रा	-11.5575
▁रामोन्दानि	-11.5578
▁लान्दा	-11.5582
दाबो	-11.5583
थामसो	-11.559
▁हागौब्ला	-11.5596
▁नायगिरि	-11.5597
▁सिया	-11.5603
▁दारिमिन	-11.5605
▁जोबहै	-11.561
▁गाग्लाब	-11.5611
यनानै	-11.5612
नायमोन	-11.5612
▁हेफाजाबजों	-11.5623
▁बोबो	-11.5629
▁लानायानो	-11.563
▁खुरि	-11.5642
थायनानै	-11.5648
▁m	-11.5651
दोलै	-11.5657
्रुम	-11.5658
ग्रामोन	-11.566
सेर	-11.5665
नाबो	-11.5668
खादोंमोन	-11.5668
▁मेथाया	-11.567
ौरां	-11.5674
▁अरखा	-11.5678
ies	-11.5681
।....	-11.5685
▁खालामाब्ला	-11.5686
▁टाइ	-11.5688
▁सान्ना	-11.5693
▁थिस	-11.5696
tt	-11.5704
▁n	-11.5707
▁वार्क	-11.5715
अजय	-11.5718
दिनखालि	-11.5725
▁दाहोनाफोर	-11.5728
▁बाखि	-11.5731
▁बुथारना	-11.5734
▁लांनाया	-11.5737
▁सिंआ	-11.5744
▁नांना	-11.5746
▁दानाया	-11.5746
दावदै	-11.5747
▁राजथान्दै	-11.5748
जानायाव	-11.5748
▁बेजे	-11.5755
देन	-11.5759
▁बेफोराव	-11.5763
ृ	-11.5779
▁दोल	-11.5788
▁बायदिफोर	-11.5791
37	-11.5793
▁नायहरनाय	-11.5793
जेङा	-11.5797
▁खदाल	-11.5797
▁जेब्लासिम	-11.5798
▁अबस्	-11.5809
▁सलि	-11.5809
टिं	-11.581
ियेल	-11.5811
▁आखायावनो	-11.5817
▁थेफ	-11.5817
▁Th	-11.5825
▁थिखां	-11.5829
▁बारलां	-11.5829
▁स्कुलनि	-11.5831
्राङाव	-11.5844
▁सान्नायनि	-11.5846
▁उन्दुलांनो	-11.5849
राहा	-11.585
थारनो	-11.5853
▁खारसन	-11.5859
▁सोदोबफोर	-11.586
▁उह	-11.5867
ter	-11.587
चिया	-11.5871
माल	-11.5874
खैफोद	-11.5874
टिभ	-11.5878
मिक	-11.5883
u	-11.5883
▁लेद	-11.5887
▁सौफैनाय	-11.5889
▁जेङा	-11.589
खुरै	-11.5896
▁दोनहर	-11.5903
▁बुख	-11.5905
िट	-11.5908
सियेल	-11.5908
▁थालां	-11.5915
▁बबेथिं	-11.5915
▁सोरगो	-11.5917
▁मानसिं	-11.5918
ाउण्ड	-11.592
दारि	-11.592
R	-11.5921
योमोन	-11.5921
दायखौ	-11.5927
▁लोंखा	-11.593
▁बिमानो	-11.5931
सुखे	-11.5932
▁आसथाम	-11.5936
नांनोसै	-11.5946
कलेज	-11.5948
▁आखुथाइफोर	-11.595
खावरि	-11.5951
▁थाइसे	-11.5955
▁बाजे	-11.5956
दावसा	-11.596
▁ओंखाराखै	-11.5961
▁हाबलाय	-11.5974
अजित	-11.5975
▁मंगलिय	-11.5979
▁कमाण्डफोर	-11.5984
गानै	-11.5994
बाजार	-11.5998
▁लायहो	-11.6
▁हल	-11.6001
सारि	-11.6002
▁थाहैया	-11.6007
बिखा	-11.601
▁सोमब्र	-11.6011
▁नालेनि	-11.6013
लांनोसै	-11.6016
▁मेसेब	-11.6017
▁देग्लाइ	-11.6024
▁आलम	-11.6024
▁बाहेरा	-11.6025
होआ	-11.6027
▁फुजिनाय	-11.6028
▁सिम्पान्जी	-11.6029
▁गुदुङा	-11.6032
▁फरेइन	-11.6032
▁रोजासे	-11.6032
▁रावफोर	-11.6033
▁मुथासे	-11.6037
▁साबद्राय	-11.6037
▁इंगि	-11.604
न्दारि	-11.6043
▁फोसावग्रा	-11.6046
▁आयेन	-11.6047
▁दोनस्लाय	-11.605
सेल	-11.6054
▁दायसे	-11.6058
▁एउ	-11.6065
प्लेट	-11.6065
लांनांगोन	-11.6066
▁जायि	-11.6067
▁करि	-11.6068
▁फेस	-11.6069
▁कहिधन	-11.6069
उखैनाय	-11.6069
▁सन्थाल	-11.6072
बिजाब	-11.6072
▁टेबोला	-11.6073
र्टा	-11.6076
▁लाबोआ	-11.6076
▁खिनि	-11.6079
▁दामसि	-11.6081
▁सिकिउर	-11.6088
▁थाइनैया	-11.6089
खुरि	-11.6089
बिन	-11.6092
▁बुन्था	-11.61
▁भे	-11.6102
.......।	-11.6103
थोन	-11.6108
रंजा	-11.6108
▁लेर	-11.6108
........!	-11.6109
▁दोबै	-11.6112
▁त्रि	-11.6115
▁कड	-11.6116
▁लाब्रा	-11.6117
▁थिरां	-11.612
थानो	-11.6121
▁कमाण्डा	-11.6121
▁खोम	-11.6121
लें	-11.6121
▁पुलि	-11.6123
▁मिनिख	-11.6124
▁गांज	-11.6125
▁हगारहर	-11.6125
▁गेरेज	-11.6126
▁बिथाया	-11.6132
लथा	-11.6138
▁मेग	-11.6141
▁फानो	-11.6143
सुली	-11.6145
मैदेर	-11.6149
गुन	-11.6154
फुल	-11.6154
नाथि	-11.616
फर	-11.616
खुरमा	-11.6164
▁डिजिट	-11.6164
▁मावसोम	-11.6164
गिदिर	-11.6164
▁टावार	-11.6167
सिखान	-11.6168
रुमाव	-11.6168
▁खामायनाय	-11.617
दानि	-11.617
गोदो	-11.617
W	-11.617
▁हमख्र	-11.617
बालाय	-11.6171
▁गुस्लाय	-11.6171
▁आरोमा	-11.6172
▁दाफै	-11.6173
▁रेकर्ड	-11.6176
▁बम	-11.6176
face	-11.6179
फावथाइनि	-11.618
थानाय	-11.618
▁सानथाया	-11.618
होमब्ला	-11.6182
सिखोन	-11.6182
▁हाखन	-11.6183
मे	-11.6183
ज्रेम	-11.6184
सन्मान	-11.6184
ऋ	-11.6184
दैलो	-11.6184
खबरदार	-11.6185
The	-11.6185
थुंग्रि	-11.6185
दान्दिसे	-11.6185
मेहेरसिं	-11.6185
गोरों	-11.6185
गाहाम	-11.6185
दाकात	-11.6185
लोङै	-11.6185
गसङो	-11.6186
गामसा	-11.6186
लाउथि	-11.6186
▁हाबदों	-11.6186
झार	-11.6186
फाग्ला	-11.6187
माखासे	-11.6187
बेलासे	-11.6187
बर्ड	-11.6187
फादार	-11.6187
▁बिथराय	-11.6187
जुब	-11.6187
ओन	-11.6188
मुसि	-11.6188
बिष	-11.6188
लाया	-11.6188
▁देद्	-11.6188
सुशान्तवा	-11.6189
गोखा	-11.619
▁हाफौ	-11.619
▁गिख	-11.619
नरेना	-11.6191
आमाइ	-11.6191
ser	-11.6191
फुट	-11.6191
उदां	-11.6192
▁बोर्ला	-11.6192
गाबोन	-11.6192
▁गाफै	-11.6193
▁दम	-11.6193
हिउ	-11.6193
▁बिख	-11.6194
फेद	-11.6195
खाइ	-11.6197
........।	-11.6198
▁परम	-11.6199
▁फेंफ	-11.62
▁आमथेखा	-11.62
▁गुलिया	-11.62
▁दतमा	-11.62
▁फोथाया	-11.6201
राइजोफोरा	-11.6201
▁थानसालि	-11.6201
▁मार्क	-11.6202
गुलि	-11.6202
▁गेन्द्रि	-11.6203
बाथोर	-11.6203
एरैनो	-11.6203
▁फन्दि	-11.6204
माबोरै	-11.6204
लांनायखौ	-11.6206
▁थिकादार	-11.6206
फ्रुं	-11.6206
बावाखै	-11.6207
▁समफ्ल	-11.6207
▁मिनिखुसि	-11.6207
▁असित	-11.6208
▁प्रफुल्ल	-11.6208
खनसाया	-11.6209
हाबाब	-11.6209
ेन्स	-11.621
बबाव	-11.621
▁दायनिगिर	-11.6211
▁सासेखौ	-11.6213
सोनाब	-11.6214
▁दोमैलो	-11.6214
▁समिला	-11.6215
अजिता	-11.6216
▁गसंना	-11.6216
▁लिंथिया	-11.6217
▁फंनै	-11.6217
▁रिड	-11.6219
84	-11.622
स्लु	-11.6222
▁गियाखै	-11.6224
hoo	-11.6224
▁मेनेज	-11.6224
▁हेन्द	-11.6225
▁कन्	-11.6226
evenge	-11.6227
▁बेंथा	-11.6227
▁मुरदा	-11.6227
▁ब्राह्म	-11.6227
cruel	-11.6228
▁9435	-11.6228
▁Bodo	-11.6228
▁System	-11.6228
▁with	-11.6228
▁अखनबा	-11.6228
▁अनसुंथाय	-11.6228
▁अमृनडर	-11.6228
▁अस्ताद	-11.6228
▁आन्सलिक	-11.6228
▁इडुवार्ड	-11.6228
▁काउन्सिल	-11.6228
▁धालिगाव	-11.6228
▁निउयर्क	-11.6228
▁पिरामिड	-11.6228
▁फेब्रुवारी	-11.6228
▁फोर्दान	-11.6228
▁बसुमथारी	-11.6228
▁बाइह्रायाव	-11.6228
▁बैष्ण	-11.6228
▁मेघालय	-11.6228
▁मेलेमजिबि	-11.6228
▁राफोत	-11.6228
▁रामायण	-11.6228
▁रिभलभार	-11.6228
▁लैखोन	-11.6228
▁सदबांसा	-11.6228
▁सिमबलिक	-11.6228
▁Well	-11.6228
▁देन्था	-11.6228
▁भौमिक	-11.6228
▁मिनिमाइज	-11.6228
▁स्कुटार	-11.6228
▁इन्टारचिटि	-11.6228
▁दाबोराब	-11.6228
▁माधुवा	-11.6228
▁लोमस्राव	-11.6228
▁होरलां	-11.6228
▁आशिफ	-11.6228
▁चछमा	-11.6228
▁Habildar	-11.6228
▁telegram	-11.6228
▁काजलगाव	-11.6228
▁खायलें	-11.6228
▁रिटायार्ड	-11.6228
▁रेष्टुरेन्ट	-11.6228
▁कलकाटा	-11.6228
▁जमिदार	-11.6228
▁भ्राम	-11.6228
काइदा	-11.6228
▁जारें	-11.6228
▁नबथिसुना	-11.6228
▁फ्रन्ट	-11.6228
▁बानाइसो	-11.6228
▁उथुमाइ	-11.6228
▁एकसिदेन्ट	-11.6228
▁Style	-11.6228
▁बोगदा	-11.6228
▁गैल्या	-11.6228
▁जयमती	-11.6228
▁लाइखं	-11.6228
▁सागुलुन्दि	-11.6228
▁सारियालि	-11.6228
▁him	-11.6228
▁टिउटर	-11.6228
▁मुख्लं	-11.6228
▁आग्राङारी	-11.6228
▁केहेरलाल	-11.6228
▁बेरायग्लां	-11.6228
▁सरसती	-11.6228
▁बालाबगासे	-11.6228
▁मधु	-11.6228
ii	-11.6228
▁ideal	-11.6228
▁But	-11.6228
▁पानबाजार	-11.6228
▁रेबगन	-11.6228
▁मुरदाबाद	-11.6228
▁हार्डवेर	-11.6228
▁Scene	-11.6228
▁खेफथ	-11.6228
▁बाबाजी	-11.6228
▁बोख्लाइ	-11.6228
▁रैमाली	-11.6228
▁फ्रान्च	-11.6228
▁हादुंगोरा	-11.6228
▁इटाली	-11.6228
▁लाजिगुसु	-11.6228
▁टंला	-11.6228
▁दुर्ल्लाइ	-11.6228
▁जलदब	-11.6228
▁घिउ	-11.6228
▁बर्जन	-11.6228
▁आफिं	-11.6228
▁कमबक्ता	-11.6228
▁सिरियास	-11.6228
▁बुश्व	-11.6228
▁दौस्रेम	-11.6228
▁गैथारला	-11.6228
▁दांफाम	-11.6228
▁बुंलांबावो	-11.6228
▁राजखुंग्रि	-11.6228
▁साखथिख	-11.6228
▁सेकेण्डारी	-11.6228
▁लहराय	-11.6228
▁सुटकेस	-11.6228
▁केन्सार	-11.6228
▁गाग्लेम	-11.6228
▁मेहेरसिङा	-11.6228
▁दायलग	-11.6228
▁उन्दुग्लां	-11.6228
▁जुरिफिनबाय	-11.6228
▁माल्टि	-11.6228
▁साइन्स	-11.6228
▁नायख्लें	-11.6228
▁बोगथाब	-11.6228
शिक्षा	-11.6229
▁दुइनम्बरि	-11.6229
▁फाथ्रिंगि	-11.6229
▁थालोजाब	-11.6229
▁हकारनि	-11.6229
▁सानथावा	-11.6229
▁नंखाइ	-11.6229
▁एग्दाव	-11.6229
▁स्रोत	-11.6229
▁थावगुबै	-11.6229
▁आधा	-11.6229
▁गलाघाट	-11.6229
▁लंथं	-11.6229
▁मोदाउखा	-11.6229
▁स्रुब	-11.6229
▁मिस्टि	-11.6229
▁घुस	-11.6229
▁सोङाखिसै	-11.6229
▁बेगें	-11.6229
जोबथेसालिनिफ्राय	-11.6229
▁नाइदाव	-11.6229
▁मिथिरोङा	-11.623
▁बार्लि	-11.623
ues	-11.623
▁मैखारि	-11.623
सुखारु	-11.623
▁लिलि	-11.623
▁फोलाना	-11.623
▁रिंखाङो	-11.623
▁खैरोम	-11.623
धोत	-11.623
▁चिरां	-11.623
▁स्टेन्द	-11.623
▁जिनिद	-11.623
▁देमुख	-11.623
▁माइफ्रि	-11.623
िरि	-11.6231
▁बौदा	-11.6231
▁हाइथु	-11.6231
▁बाग्दावखाङो	-11.6231
▁थानदै	-11.6231
▁हाकिम	-11.6231
▁नेहात	-11.6231
▁लिरथुम	-11.6231
▁बोहैबोयो	-11.6231
▁1983	-11.6231
खोब	-11.6231
▁एयार	-11.6231
▁सारन्थाइ	-11.6231
▁मिसिल	-11.6231
▁बाख्नायथाव	-11.6231
मांसि	-11.6231
फाथो	-11.6231
▁एसेयैब्लाबो	-11.6231
▁गोमोरलाङो	-11.6232
▁लाबोआखै	-11.6232
▁थर्स	-11.6232
▁खायला	-11.6232
ँइ	-11.6232
▁हकारा	-11.6232
▁खुन्दायाव	-11.6232
▁दिहुनगिबि	-11.6232
▁सरास	-11.6232
▁खण्ड	-11.6232
▁जायख्लं	-11.6232
▁गारनांदों	-11.6232
▁1974	-11.6232
▁रोबै	-11.6233
▁बिलाताव	-11.6233
▁बागदाउ	-11.6233
▁सिनायखायो	-11.6233
▁बोहैलाङो	-11.6233
▁गसंदयो	-11.6233
▁जेवारि	-11.6233
▁दिस	-11.6233
▁मोनस्नि	-11.6234
▁सोरजिलांनाय	-11.6234
▁बिल्डिङाव	-11.6234
▁बिस्व	-11.6234
▁बैश्य	-11.6234
थांगोन	-11.6235
▁सेहेरा	-11.6235
▁गोराजोआ	-11.6235
▁खानसिसा	-11.6235
▁बर्मण	-11.6235
▁बिस्कुत	-11.6235
▁बेवहा	-11.6235
▁मल्ल	-11.6235
▁गिर्जा	-11.6235
▁देरबोबाय	-11.6235
▁बारायहोयो	-11.6235
▁मिज्लिउ	-11.6235
▁(?)	-11.6235
▁जगदार	-11.6235
▁लानजाय	-11.6235
▁थार्ला	-11.6235
▁इस्कुल	-11.6235
▁गायदों	-11.6236
▁फान्नाय	-11.6236
▁खुरलु	-11.6236
▁सोदोरमा	-11.6236
▁जाफुङै	-11.6236
▁हमथे	-11.6237
▁मिन्थिस	-11.6237
▁गिनाङा	-11.6237
▁सेरथे	-11.6237
▁माइनारा	-11.6237
▁spe	-11.6237
▁खाता	-11.6237
▁लाबोदो	-11.6237
नेक्सट	-11.6238
▁आगसिथिं	-11.6238
▁रांखाउरि	-11.6238
▁दोनाखै	-11.6238
▁गसंफैयो	-11.6238
▁मुल	-11.6238
▁सिबियारि	-11.6238
▁दुगैस्रां	-11.6239
▁श्व	-11.6239
▁थेंगोना	-11.6239
▁सामलाइ	-11.6239
▁खारदिं	-11.6239
▁बान्दी	-11.6239
▁मेंग्लिनाय	-11.624
▁होननांगोन	-11.624
▁दामोनसै	-11.624
दाउ	-11.624
▁जांख्ला	-11.624
▁क्रम	-11.624
▁एलबाम	-11.624
▁रुबै	-11.6241
▁घन	-11.6241
▁बिषमाव	-11.6241
▁दोनलांदों	-11.6241
▁दलत	-11.6241
▁सोमजिहोयो	-11.6241
▁फैफेरा	-11.6241
▁भरत	-11.6242
▁गाखोहैबाय	-11.6242
▁फरायसुला	-11.6242
▁खोनाफा	-11.6242
▁लोंजोबो	-11.6242
▁दोनखादोंमोन	-11.6243
▁फुथि	-11.6243
▁मोन्दांथि	-11.6243
▁खुमब्रा	-11.6243
▁जिरायदो	-11.6243
▁खारनांगोन	-11.6243
▁हाफ	-11.6243
▁खामफा	-11.6243
▁टाका	-11.6244
▁जुरिबाय	-11.6244
▁किरिरिं	-11.6244
▁नादायदा	-11.6244
▁रोङाबोला	-11.6244
▁गोरोबलायो	-11.6244
▁उन्दुलाङो	-11.6245
▁एरसन	-11.6245
▁प्रफुल्लवा	-11.6245
▁फुजियो	-11.6245
▁खाखानाय	-11.6245
▁लकेल	-11.6245
ग्रोबाय	-11.6245
▁गंगा	-11.6246
मोननाय	-11.6246
▁बांहोयो	-11.6246
ाइनारि	-11.6246
▁क्लर	-11.6246
▁रमान्टि	-11.6246
▁आबुर	-11.6247
▁बुंफैबाय	-11.6247
▁रंजाखाङो	-11.6247
▁रोंगोन	-11.6248
▁उनफारसे	-11.6248
▁ओंखाराखिसै	-11.6248
▁दोनफिनो	-11.6248
▁लासिं	-11.6248
▁थुंग्री	-11.6248
▁थांथोंसै	-11.6248
▁नासय	-11.6248
▁मावदो	-11.6248
▁मेन्दां	-11.6249
हैनांगौ	-11.6249
ियेट	-11.6249
▁गोख्रैसिन	-11.6249
▁गोमालांबाय	-11.6249
हयै	-11.6249
▁आद्	-11.6249
▁खोख्लैनाय	-11.625
▁गोजांस्रिवो	-11.625
▁अरुनमोना	-11.625
▁गवालपारा	-11.6251
▁कैलासा	-11.6251
▁बुङाहां	-11.6251
▁खिन्थाहरो	-11.6252
▁काजि	-11.6252
▁खांगोन	-11.6252
▁लक्षीमपुराव	-11.6252
▁जुजाय	-11.6253
▁फाजि	-11.6253
▁सरा	-11.6253
▁लाबोनांगोन	-11.6253
▁गैथ	-11.6253
▁दुखारु	-11.6254
▁मेराय	-11.6254
▁all	-11.6254
▁खुंग्रा	-11.6254
▁हाबावगोन	-11.6254
▁दोनजानाय	-11.6254
हाराव	-11.6254
▁बुंस्लाब	-11.6254
▁पिसास	-11.6254
▁खावनै	-11.6255
▁मिनिग्लाबो	-11.6255
▁फ्रिजनि	-11.6255
▁हख्राव	-11.6255
▁अमिताभा	-11.6255
▁मोनदांबाय	-11.6256
▁लिरजानाय	-11.6256
▁जोमग्रा	-11.6256
हाज	-11.6256
▁अरुणा	-11.6257
▁दोनहैयो	-11.6257
▁सुरखो	-11.6257
▁होफैनायसै	-11.6258
▁गसंद	-11.6258
▁तदबि	-11.6258
▁होआखैमोन	-11.6259
▁गेरेजाव	-11.6259
▁सफैब्ला	-11.6259
▁स्टेजाव	-11.6259
▁फानसे	-11.6259
▁पावार	-11.6259
▁आमुखाखौ	-11.6259
▁वाक	-11.626
▁बुथारजानाय	-11.626
▁दिन्थिगासे	-11.6261
▁सावरायो	-11.6261
▁गाग्लोबथाय	-11.6261
▁स्रेम	-11.6261
▁बिगाबा	-11.6261
▁फैसान्दि	-11.6261
▁फोथायसुला	-11.6261
▁लाखाबाय	-11.6261
▁फैखाङो	-11.6262
▁देवानीया	-11.6262
▁थादोलै	-11.6262
▁मोनसिगोन	-11.6262
▁कल	-11.6262
▁नुग्रोन	-11.6263
▁सक	-11.6263
▁हाबलांबाय	-11.6263
▁दोनहां	-11.6263
▁खावयां	-11.6263
▁दावसिन	-11.6263
▁खालामगौमोन	-11.6263
▁जेरिना	-11.6264
▁फाइकी	-11.6264
▁होसिगोन	-11.6264
▁सोंथाइ	-11.6264
▁बुंदां	-11.6265
सय	-11.6265
▁होनाङा	-11.6265
▁रोसि	-11.6265
ओं	-11.6265
▁बोहैयो	-11.6265
▁सामु	-11.6267
▁हमथायो	-11.6267
▁ओंखारलांनायसै	-11.6268
▁थादेरनाय	-11.6268
▁खुलुमदों	-11.6268
▁फोथायथि	-11.6268
वारीनियाव	-11.6268
▁हुगारदों	-11.6268
▁गोमोदै	-11.6268
▁होयाखै	-11.6269
▁मन्थ्री	-11.6269
▁खालायनांगौ	-11.6269
▁घटना	-11.627
▁em	-11.627
▁कारबार	-11.627
▁दामग्रा	-11.6271
▁बोना	-11.6271
▁नोमानैया	-11.6272
▁खारलांबाय	-11.6272
▁i	-11.6272
▁खायदायै	-11.6272
▁थादे	-11.6272
▁गनतन्त्र	-11.6273
▁बुंफ्रु	-11.6273
▁मुसाहारिया	-11.6273
▁गलाब	-11.6274
▁मोनामनाया	-11.6275
▁गाले	-11.6275
▁मोनजायै	-11.6276
▁गेलेगोन	-11.6277
▁सिगांङाव	-11.6278
▁थोंसे	-11.6278
▁खाजायो	-11.6279
▁ओंखारलांब्ला	-11.6279
▁....।	-11.6279
▁गोराय	-11.628
▁जाफैदों	-11.628
▁बाथोर	-11.6281
त्व	-11.6281
▁कबि	-11.6284
▁लुबैग्रा	-11.6284
▁फबनाय	-11.6284
▁जाहोदोंमोन	-11.6285
▁एखर	-11.6285
▁लायासै	-11.6285
▁उल्थां	-11.6286
▁नागिरगासिनो	-11.6286
▁देश	-11.6286
स्वामी	-11.6287
▁लोमजाब्ला	-11.6287
▁बुहा	-11.6287
▁अमिताया	-11.6288
▁आइदै	-11.6288
▁हाजिरा	-11.6288
▁गजेन	-11.6289
▁हैनायसै	-11.6289
▁गानफ्रा	-11.629
▁सोंगोन	-11.629
▁गारफा	-11.629
▁माबेयाव	-11.629
▁सान्दुङा	-11.629
▁खारि	-11.6291
▁मोनजागोन	-11.6292
▁खारनाया	-11.6292
▁जिल्लाफोराव	-11.6293
▁मोनलाङो	-11.6293
▁मुसि	-11.6294
यला	-11.6295
▁थिनदोंमोन	-11.6295
▁सान्नायसै	-11.6295
▁बोसोरनैसो	-11.6296
▁जाथिया	-11.6298
▁मिलौनाय	-11.6298
▁होखानाय	-11.6298
▁रं	-11.6298
▁समहालागै	-11.6299
▁फाग्लिबादि	-11.6299
▁मोनथाव	-11.6299
▁कारजिया	-11.6299
▁धोरोमारि	-11.63
▁सौसिनानै	-11.6301
कल्पनाया	-11.6301
▁फोन	-11.6301
▁नायना	-11.6301
एं	-11.6301
▁सावरायदों	-11.6302
▁tragic	-11.6302
▁रायलायगोन	-11.6302
▁जाइलि	-11.6303
▁गुरो	-11.6303
▁सरखाय	-11.6305
▁थाहैबाय	-11.6307
▁डाय	-11.6308
▁लांखोमा	-11.6309
▁जावैसोखौ	-11.6309
▁जेन्नाय	-11.631
▁सिबिग्रा	-11.631
▁बन्दक	-11.6311
▁नारसिन्नाय	-11.6311
▁सिनायलायनाय	-11.6311
▁रिंखा	-11.6311
▁दाउल	-11.6312
र्द	-11.6312
▁बब	-11.6313
▁लाजिफोनां	-11.6313
▁अनगोन	-11.6313
▁हादोंमोनब्लाबो	-11.6314
▁जखानि	-11.6314
लिसे	-11.6314
▁खुगु	-11.6315
▁शुक्रबार	-11.6315
▁जागोनना	-11.6315
▁दाखथार	-11.6315
▁एमब्रा	-11.6316
▁सौबाय	-11.6317
▁जोबि	-11.6318
▁फरायथि	-11.6318
थाराखिसै	-11.6319
▁गथायो	-11.6321
▁बुंलाबाय	-11.6321
ाली	-11.6322
▁गावस्रानाय	-11.6323
▁खालामहोनो	-11.6324
▁जिथायाव	-11.6324
▁मिथिजोब	-11.6325
▁थिखादारा	-11.6327
▁फावगिरिफोरा	-11.6327
▁बुजियाखै	-11.6327
▁मोसानांगौ	-11.6328
▁बिषि	-11.6328
▁बेरनाय	-11.6329
▁फान्दायनानै	-11.633
1968	-11.633
जायि	-11.633
▁आलासिफ्रा	-11.6331
▁फरायगोन	-11.6333
माथा	-11.6333
▁आबां	-11.6334
▁ख्रा	-11.6334
▁दुंखावनाय	-11.6334
▁सौग्रावथाय	-11.6335
▁खिग्रा	-11.6335
▁जाजानो	-11.6336
▁हमख्रब	-11.6336
▁बेखौलाय	-11.6336
▁आगानसे	-11.6337
▁कापनै	-11.6337
▁मोनलायदों	-11.6338
▁सङै	-11.6338
▁गानाय	-11.6338
▁नांफा	-11.6339
▁पेड	-11.6339
▁देद्ला	-11.6339
▁माधब	-11.634
▁गयस्रि	-11.6341
▁बारहुंखाया	-11.6341
▁गिदिंबायनानै	-11.6341
▁गुरजे	-11.6342
▁बिहामजोआ	-11.6342
▁नुजाबाय	-11.6344
गुरिनि	-11.6346
▁बेनार	-11.6348
▁आदत	-11.6348
▁मेक्सिम	-11.635
▁देवानिया	-11.635
▁बथलसे	-11.6352
▁दावगानाया	-11.6353
▁लासिनो	-11.6355
▁साग्लोबना	-11.6357
टिसखौ	-11.6358
▁सानखादों	-11.6358
▁बुथारनायाव	-11.6358
थिस्लाबाजासे	-11.636
▁मालिक	-11.6362
▁थाबायनांगौ	-11.6365
▁बरादा	-11.6366
▁मावथाय	-11.6368
▁दिल्लीनिफ्राय	-11.6369
▁सावो	-11.6369
बावदोंमोन	-11.6372
▁हरजानाय	-11.6372
▁सिंथिं	-11.6373
▁हैदों	-11.6373
▁सन्थालीया	-11.6374
▁माथोब्रा	-11.6374
▁एम्ब	-11.6374
▁95	-11.6375
▁दङो	-11.6377
थिंख्लि	-11.6377
▁कला	-11.6378
▁दिल्लीया	-11.6378
▁गोजांनायाव	-11.6379
बायो	-11.6379
▁साबिया	-11.6379
▁दोनदोंमोन	-11.6381
▁खाख्र	-11.6381
▁बोख्लायनानै	-11.6381
▁दोनखारलां	-11.6381
▁गोब्राबसिन	-11.6381
▁लागे	-11.6381
▁नागिराखै	-11.6382
▁जामारो	-11.6383
जुनादफोरा	-11.6386
▁47	-11.6386
▁मोन्नायसै	-11.6386
▁माजां	-11.6388
▁नुथायफोरा	-11.6389
▁होगार	-11.639
▁बबि	-11.6391
▁रंजादों	-11.6392
▁बिसोरनावनो	-11.6392
▁जाफ	-11.6394
▁कक्राझाराव	-11.6395
ेब्रे	-11.6395
▁गाराद	-11.6396
िस	-11.6396
कु	-11.6396
▁हायियाव	-11.6398
दें	-11.64
▁बुंथिनानै	-11.64
▁गोरानजों	-11.6401
▁दिहुनगा	-11.6401
▁जथुमनाय	-11.6402
▁दागो	-11.6403
▁!''	-11.6405
बोरो	-11.6409
▁लागाय	-11.6413
▁दिनथिनाय	-11.6414
▁जाथ्रा	-11.6414
▁आनजादखौ	-11.6415
▁दिहुनथाय	-11.642
▁गंनैसो	-11.642
▁मेदब	-11.6423
थ्रेद	-11.6423
▁नाइनानै	-11.6424
▁हगारबाय	-11.6426
▁दैनो	-11.6426
▁फेसन	-11.6427
▁जङा	-11.6427
▁बाखनाय	-11.6428
▁bo	-11.6429
▁जोलैया	-11.6429
आथिं	-11.6431
्लुब	-11.6432
▁थांहोनाय	-11.6434
▁गगल्सा	-11.6435
▁ओंखारगोन	-11.6435
▁साननायसै	-11.6436
▁मोनदांथिया	-11.6436
▁दिन्थिबाय	-11.6437
र्ड	-11.6444
▁बारगोन	-11.6446
▁जोख्लाय	-11.6447
▁करम	-11.6448
▁दैदेननो	-11.645
▁सलाइ	-11.6453
▁बादोंमोन	-11.6457
▁इन्टारने	-11.6458
▁थोनाया	-11.6459
▁बुंगासिनो	-11.646
▁know	-11.6462
▁औवारि	-11.6462
▁मोनस्रि	-11.6462
▁सोरजिथाय	-11.6463
▁रायज्लायनायाव	-11.6464
▁जौथायाव	-11.6465
▁आफामोनखौ	-11.6466
▁सिल	-11.6466
▁जोंरुखौ	-11.6468
▁पाहार	-11.6469
▁नायनायाव	-11.6472
▁जुथुमनाय	-11.6472
▁मोन्नैयाव	-11.6472
ख्लिब	-11.6473
▁गोथैबारि	-11.6473
▁बराया	-11.6474
▁...."	-11.6475
▁हाबहैनाय	-11.6476
सेयावनो	-11.648
▁ओंखारना	-11.6481
▁दैथायनाय	-11.6483
▁अरजा	-11.6484
▁दंफैयो	-11.6484
▁मोनथिनाय	-11.6485
▁लाब्लानो	-11.6486
▁सोलायबाय	-11.6488
होलां	-11.6489
▁मोन्नैया	-11.6489
▁दाजाबदेर	-11.6491
▁सुथे	-11.6491
▁होग्रां	-11.6493
बोखो	-11.6493
▁जांख्रिथाइयाव	-11.6494
▁बुजायनानै	-11.6495
▁मोदोमारि	-11.6496
लायनाया	-11.6499
▁बिथांमोनखौ	-11.65
▁रुवाथिनि	-11.6501
▁गोथौसिन	-11.6501
▁राजाफ्रा	-11.6503
▁दावथाय	-11.6504
▁थाखोमाबाय	-11.6504
नोंखौ	-11.6505
▁लिंनाय	-11.6511
▁गोसोखांथि	-11.6511
▁फैनायमोन	-11.6513
▁जिलानि	-11.6515
▁फेजेननो	-11.6516
जायाखै	-11.6516
▁बेलायावबो	-11.6516
▁नरह	-11.6517
फादेरो	-11.652
▁खाथ	-11.6524
▁गोलैबाय	-11.6525
▁बाथुवाखौ	-11.6525
▁रुमे	-11.6525
▁सानथिं	-11.6527
मिष्टार	-11.6527
हानाय	-11.6527
▁मासेया	-11.6528
खान्दाय	-11.6533
▁हाजि	-11.6535
▁हौवाफ्रा	-11.654
▁फोजोबना	-11.6543
लजि	-11.6543
बेफोरनि	-11.6543
▁मिथिनायाव	-11.6545
▁F	-11.6545
▁फानहै	-11.6546
▁रुटिन	-11.655
▁नुथार	-11.6551
▁थाखि	-11.6553
खन	-11.6554
आंथ	-11.6556
▁सिखाराखै	-11.6557
सोनानै	-11.6558
▁आसे	-11.6559
वावबो	-11.6561
आन	-11.6564
▁फोरमाया	-11.6566
▁Brit	-11.6571
▁मेलेमजों	-11.6577
▁हरनांगोन	-11.6578
op	-11.658
▁e	-11.6581
▁नागिरग्रा	-11.6583
▁गाराव	-11.6584
▁बेले	-11.6584
▁मेंनायजों	-11.6587
▁मुसु	-11.6588
▁नायज्लाय	-11.6588
▁दासा	-11.6589
▁नरेशनो	-11.659
ष्टार	-11.6591
▁अस्थाद	-11.6592
▁माइखौ	-11.6593
▁थैयाब्ला	-11.6596
▁उद्राय	-11.6596
▁लिरगिरिफोरा	-11.6596
▁हायैखाय	-11.6599
▁बेनिखाय	-11.6599
▁बिमानै	-11.66
▁फानजोब	-11.6606
▁सनखां	-11.6606
▁बयो	-11.6607
▁हारिमुवा	-11.6608
▁रबिल	-11.6614
▁नुथाया	-11.6617
▁बुंनायबादि	-11.6617
1963	-11.6619
▁थांथार	-11.6623
▁रोंनो	-11.6624
▁फोथांनाय	-11.6625
▁आंग्रां	-11.6626
▁दैसाखौ	-11.6627
खिनिखौ	-11.6628
फिनदोंमोन	-11.6628
िदिं	-11.6628
▁गोदौ	-11.6631
▁मिनिटसोनि	-11.6632
रन	-11.6634
▁बाख्नायनाय	-11.6636
▁माइथाइ	-11.6637
▁नोंनोथ	-11.6637
▁सैथा	-11.6638
▁थाफादेर	-11.6639
▁थारथि	-11.664
▁उनथिंजाय	-11.6642
निफ्रायसो	-11.6643
▁गोसोआवनो	-11.6645
▁साथामबो	-11.6648
▁गरज	-11.6649
▁आंनोलाय	-11.6651
▁हथ	-11.6656
बाराव	-11.6658
मारोब्ला	-11.6661
जोबनोसै	-11.6662
▁बारहो	-11.6663
vid	-11.6663
▁2,	-11.6665
▁सानथ्रिफोर	-11.6668
लांदिनि	-11.6668
ुलुस	-11.6672
▁सर्माखौ	-11.6673
घर	-11.6673
▁सरलाखौ	-11.6675
▁गोसायाव	-11.6675
▁जांख्रिथाय	-11.6679
▁सुबुंथि	-11.668
▁खालामनायमोन	-11.6681
▁हुनाय	-11.6683
▁खिन्थायाखै	-11.6689
▁मुन	-11.669
▁दिखांबाय	-11.6695
▁सामाज	-11.6696
▁ge	-11.6708
नर्थ	-11.6712
▁दंबावोमोन	-11.6714
▁बोहाब	-11.6714
500	-11.6718
गल	-11.672
▁गिबिफोरा	-11.6721
जागौमोन	-11.6724
▁स्प	-11.6725
स्राइ	-11.6726
▁बिजामादैनि	-11.6729
▁नोंथांमोनखौ	-11.6731
।............	-11.6733
पाव	-11.6735
▁सोरजिनानै	-11.6735
▁शंकरखौ	-11.6737
▁केडार	-11.6742
▁अबंनि	-11.6743
▁गिनां	-11.6746
▁खुग्लु	-11.6749
मुवा	-11.675
▁दैखरनि	-11.6751
▁हरबाव	-11.6752
▁मागा	-11.6755
▁गबथ	-11.6759
▁लाबाव	-11.676
▁बेंकनि	-11.676
▁जाफैनाय	-11.6761
▁गोबाबाय	-11.6767
▁रम	-11.6768
फैयाखै	-11.6772
▁बरदा	-11.6772
फ्लांदों	-11.6773
आप	-11.6775
▁बेक	-11.6778
▁साथामा	-11.6779
▁एवनो	-11.6779
▁लायोमोन	-11.6781
▁राजाफोरा	-11.6783
▁सिगार	-11.6783
▁गुफु	-11.6788
▁उन्दुनायाव	-11.6792
▁मल	-11.6797
▁मिथिखानाय	-11.6799
▁डाक	-11.68
बेनो	-11.6806
द्लाब	-11.6806
▁मिनिनाया	-11.6806
▁नाजावा	-11.6809
हैनायनि	-11.681
▁मुगाया	-11.6822
▁राइजोआनो	-11.6825
▁बेमारिया	-11.6831
▁भारतारिफोर	-11.6833
▁होसोबो	-11.6836
▁बाबुनो	-11.6841
▁खाथिर	-11.6841
पटल	-11.6843
▁धुब	-11.6847
▁जेखाय	-11.6848
▁भल	-11.6848
▁उलथा	-11.6852
▁बहानिफ्राय	-11.6855
ंनाय	-11.6856
जागोनबो	-11.6858
ेमाखौ	-11.6859
▁जुगनि	-11.6859
▁जालमा	-11.6864
नास्री	-11.687
▁नर	-11.6874
भिल	-11.6874
▁गाहै	-11.6874
▁फिफाया	-11.6877
▁बेदां	-11.6878
▁दला	-11.6884
▁दाखो	-11.6884
▁लिरा	-11.6887
▁फिसायखौ	-11.6888
ग्रु	-11.6888
▁बारथारबाय	-11.689
▁सालथे	-11.6891
▁खालामफैनाय	-11.6893
याथ	-11.6895
▁खालामखा	-11.6897
▁जासिन	-11.6903
बिर	-11.6904
▁नागाजों	-11.6904
तिनि	-11.6905
▁जाफुंसारदों	-11.6905
▁बिजिरथि	-11.6912
▁बारलांनाय	-11.6912
खावनाय	-11.6913
▁बोजों	-11.6927
▁सुइ	-11.6931
▁केरानिखौ	-11.6933
▁हालि	-11.6933
डिअ	-11.6934
▁गाबखांदों	-11.6938
▁बन्दर	-11.6938
▁सोलायहो	-11.694
▁गगोन	-11.694
सेया	-11.6944
▁स्टे	-11.6946
▁गाबनायाव	-11.6948
▁खोथासो	-11.6951
▁स्वर	-11.6953
माराखै	-11.6953
जोमफोरखौ	-11.6955
▁मोनथारा	-11.6957
▁गारसो	-11.6958
दाइ	-11.6958
▁खामसालिनि	-11.6959
▁दोनलां	-11.6964
▁सुं	-11.6967
सिङा	-11.6968
▁...!	-11.697
▁सुना	-11.697
▁होबावो	-11.6977
▁एसेयाव	-11.6979
न्थर	-11.698
▁फाखो	-11.698
▁गगा	-11.6991
▁बुंहै	-11.6992
▁सोबनाय	-11.6995
फिननायनि	-11.6996
▁हवा	-11.7015
▁इन्टारनेटनि	-11.7015
ंखा	-11.7019
्लाप	-11.702
▁खोनासंनानै	-11.7022
▁सिफायनाय	-11.7027
लाबायो	-11.7027
▁जथाइखौ	-11.7032
▁गोहोमाव	-11.7033
ासो	-11.7034
टार	-11.7036
▁होनबानो	-11.7036
ख्रां	-11.704
▁खुरखा	-11.7041
जोबनायसै	-11.7046
▁आलासिफोरा	-11.7052
कम्बल	-11.7053
▁कनष्टेबल	-11.7054
▁सानब्ला	-11.7061
▁बुंसो	-11.7062
थिर	-11.7067
▁दन्दाया	-11.7073
l	-11.7079
▁लोंनाया	-11.7079
▁उखैजा	-11.7084
▁खालामग्रो	-11.7087
तिस	-11.7089
▁गावनाव	-11.7092
यनो	-11.7105
▁फिन्	-11.7105
ब्रु	-11.7107
▁होथारबाय	-11.711
▁दैमुफोर	-11.7111
▁दावरा	-11.7114
▁नाङैनो	-11.7121
▁गाबख्रावनाय	-11.7123
ेलखौ	-11.7125
▁थैयाखै	-11.7126
▁आदाब	-11.7132
▁बिफांफोर	-11.7133
▁देग्लायनो	-11.7133
बिसि	-11.7135
▁देब	-11.7138
▁खारफा	-11.714
▁थांफिननो	-11.7141
पार	-11.7141
▁मावथिफोर	-11.7146
▁सायारामखौ	-11.7152
▁लाइननि	-11.7157
▁बक	-11.7159
गारदोंमोन	-11.7167
▁टेकनिक	-11.7169
▁सावथालफोर	-11.7172
जोबाखै	-11.7172
▁आजिर	-11.7173
▁खिन्थाहर	-11.7176
हार	-11.7179
लहानि	-11.718
▁जाखार	-11.718
▁कट	-11.7184
ess	-11.7185
▁चु	-11.7187
▁बुजिनाय	-11.7191
अरुप	-11.7199
▁बिदाम	-11.7199
▁फिरि	-11.72
▁राइज	-11.72
▁हुख	-11.7201
▁थाइलालिया	-11.7204
आफानि	-11.7205
▁बायदोंमोन	-11.7206
▁थबेना	-11.7209
दोत	-11.721
▁नायबाव	-11.7214
▁बसुमतारिया	-11.7214
▁नोगोरारि	-11.7215
ित	-11.7216
ue	-11.7217
▁मोदाइखौ	-11.7221
खावनो	-11.7226
▁गौथुमफोर	-11.7235
जाम्बि	-11.7235
सिख्रा	-11.7242
गरम	-11.7243
▁गुन्दाजों	-11.7244
▁बुट	-11.7246
▁बिलिरनाय	-11.7246
▁मोनसेयानो	-11.7247
▁फुंखाखौ	-11.725
▁टन	-11.7255
खोल	-11.7256
▁गनक	-11.7257
▁गाद	-11.7258
ष्टेम	-11.7269
▁ser	-11.7275
▁डलि	-11.7276
▁खाथिथार	-11.7276
न्दि	-11.7281
सोरनि	-11.7286
▁हुम	-11.7289
▁खोनासंग्रा	-11.7292
थिक	-11.7299
▁जिग	-11.7307
▁नङालाय	-11.7308
▁जोंखां	-11.7312
▁फोरबोआ	-11.7318
▁नुथायखौ	-11.7318
▁दोना	-11.7319
थिलि	-11.7323
राजाफोरनि	-11.7325
ंगनबाद	-11.7326
▁हरनायखौ	-11.7327
▁अरना	-11.7328
▁एफाग्रा	-11.7329
▁जायगाफोर	-11.7333
फुंनाय	-11.7338
▁फैसाखौ	-11.7343
▁खालामफिन	-11.7343
▁उनफिन	-11.7345
लात	-11.7346
हराखैमोन	-11.7348
▁75	-11.7349
▁जाबाव	-11.735
प्लि	-11.7354
▁सेरेब	-11.7359
M	-11.7362
▁बेलासिनि	-11.7368
राक	-11.7368
▁खिन्थाफै	-11.7368
गला	-11.7371
▁बिनिया	-11.7372
▁सानथि	-11.7379
▁बी	-11.738
▁गोथारथि	-11.7382
▁लिंना	-11.7394
ʼ!	-11.7396
un	-11.7398
सिन्नाय	-11.74
▁खरै	-11.7402
▁गैयैखौ	-11.7404
and	-11.7405
▁बिखुमजो	-11.7409
▁लैथोमा	-11.7409
▁गुब	-11.7409
▁फेदेरदों	-11.7413
▁फोरोंगिरिफोर	-11.7416
पाट	-11.7418
▁सानखा	-11.7419
▁लिंबो	-11.7419
▁सिखो	-11.7421
▁खुस्रा	-11.7424
▁बोज	-11.7429
नेश	-11.7434
▁लेखायाव	-11.7434
▁खथानि	-11.7437
▁बोसोनथि	-11.7438
▁जिखौ	-11.7438
▁लालस	-11.7444
▁जुथि	-11.7444
▁he	-11.7444
▁हरबा	-11.7449
▁फिसाजोजों	-11.745
▁दादों	-11.7451
ंनायनि	-11.7452
▁फैफिननाय	-11.7454
▁अनजिमाखौ	-11.7456
▁फैफिन्ना	-11.7458
र्च	-11.7463
▁गावथ	-11.7465
▁समायनाय	-11.747
ेलि	-11.747
▁बिब्दियाव	-11.7471
▁गोलैना	-11.7477
▁रावफोरखौ	-11.7481
जानायनि	-11.7482
▁डिस्कखौ	-11.7489
▁टाया	-11.7498
▁...।"	-11.7499
ायनो	-11.75
▁लिरहरदों	-11.75
▁बोरायाबो	-11.7502
▁फराया	-11.7504
▁आहमफोर	-11.7504
याम	-11.751
▁और	-11.751
रोङै	-11.7514
▁होखांनाय	-11.7518
ग्राया	-11.7519
▁खबाय	-11.752
▁बुंखादों	-11.7522
▁साग्रा	-11.7524
▁थावखौ	-11.7533
फिननांगोन	-11.754
▁"....	-11.7545
फादोंमोन	-11.7545
▁गियानखौ	-11.7552
▁बाथौनि	-11.7552
▁जाथारै	-11.7556
▁इसिंनि	-11.7557
ble	-11.7557
x	-11.7561
▁प्लेन	-11.7566
ध	-11.7566
सिनगोन	-11.7567
लुब	-11.7573
▁खाफालावनो	-11.7574
▁बिलां	-11.7575
▁थैबा	-11.7577
▁बिदों	-11.7577
▁प्रग्रामनि	-11.7581
▁लाङा	-11.7589
जुत	-11.7595
▁सोंहो	-11.76
▁बान्दिया	-11.7602
▁सोदोबथिखौ	-11.7603
cal	-11.7605
▁गोनांफोरा	-11.7607
▁फानजारि	-11.7611
ट्	-11.7611
खेबथाम	-11.7618
▁हौवाफोरा	-11.7619
▁नंनाया	-11.7622
ave	-11.7626
▁थिन्	-11.7626
▁बेङा	-11.7627
5)	-11.763
▁कनष्टेबलफोर	-11.7632
▁90	-11.7635
▁बेफोरजों	-11.7635
पुलिसफोरा	-11.7638
▁गाज्रिखौ	-11.7638
स्ल	-11.764
▁सायावबो	-11.7647
मुरा	-11.7654
▁बाग्दावखां	-11.7655
▁समावसो	-11.7657
▁बाह	-11.7668
▁फ्लां	-11.7669
ंफैयो	-11.7679
मन	-11.7685
आल	-11.7688
▁मेनेजारा	-11.7688
▁खेंनो	-11.7689
▁मलेनानो	-11.7691
▁बावलाय	-11.7692
▁हिन्जावसो	-11.7695
5	-11.7701
▁खनदों	-11.7711
▁खाथा	-11.7712
986	-11.7713
▁ओं	-11.7714
▁बिहरदों	-11.7716
ent	-11.772
▁फैनांगौ	-11.7728
▁ट्रिप	-11.7729
▁मेथाइजों	-11.7729
जोबा	-11.773
▁बायदिफोरा	-11.7731
▁सिनाया	-11.7735
▁लाङाखै	-11.7736
▁बिसारा	-11.7736
फ्रासो	-11.7736
▁लाब	-11.7739
▁आलुफोर	-11.7741
▁सानदो	-11.7745
▁बांनाय	-11.7752
नाथार	-11.7756
लैस्रो	-11.7762
▁सेवलां	-11.7765
ब्रां	-11.7772
▁बिब्दिखौ	-11.7776
▁फिसाला	-11.7778
सिरा	-11.7781
▁मुदा	-11.7782
▁ग्र	-11.7782
ेशन	-11.7795
स्राब	-11.7795
▁लांनायखौ	-11.7802
ेरनो	-11.7802
फेराखैमोन	-11.7803
फ्लांदोंमोन	-11.7804
माइनाव	-11.7804
▁आवगायलां	-11.7806
▁मददगिरि	-11.7807
▁होला	-11.7814
▁जोबस्लाब	-11.7815
▁Ho	-11.7817
▁फैदेर	-11.7826
▁लाखांनाय	-11.7832
▁प्रग्रामफोर	-11.7834
▁होखादों	-11.7836
▁हांखोनिफ्राय	-11.7836
▁थैहाब	-11.7838
बोखादों	-11.7839
▁सोंनायखौ	-11.7841
▁गोबाख्रबना	-11.7842
▁लांफायो	-11.7843
▁जाजानाय	-11.7846
नैसो	-11.7847
लांनांगौ	-11.7851
िटिक	-11.7856
र्दार	-11.7866
▁हुगारनाय	-11.7872
▁बावना	-11.7873
▁सांग्रा	-11.788
▁जिनाय	-11.7882
▁थोवा	-11.7889
▁समय	-11.7894
नांदोंमोन	-11.7894
▁सुखां	-11.7895
▁गोबाना	-11.7903
▁हास्लाबा	-11.7918
▁केर	-11.7919
्मु	-11.792
▁थानायमोन	-11.7926
ज्लायनो	-11.7937
▁जायालासे	-11.7937
▁फाम	-11.7938
▁मोनसिं	-11.7938
जाला	-11.7942
▁बेरामनि	-11.7948
गुद	-11.7956
▁थांब्रब	-11.7957
ग्रोदो	-11.796
त्ति	-11.7962
मद	-11.7962
याखैसै	-11.7962
लुनाय	-11.7968
▁मेस	-11.7969
▁(198	-11.7971
▁गोजो	-11.7975
▁प्रेमधर	-11.7977
्सनि	-11.798
▁खुथु	-11.7982
▁लांफिन	-11.7986
▁नायाखै	-11.7986
▁बेसादफोर	-11.7987
▁मिलौ	-11.799
मिसा	-11.7991
▁दाननिफ्राय	-11.7991
age	-11.7999
▁नागिरोब्ला	-11.8001
▁बिजन	-11.8004
कता	-11.8009
▁गोदोनानि	-11.8013
ts	-11.8014
▁बेदरनि	-11.8015
▁नारि	-11.8016
▁जदो	-11.8017
▁फाइ	-11.8021
h	-11.8022
थेनाय	-11.8027
नोलाय	-11.8028
रुम	-11.8028
tic	-11.803
▁थुम	-11.803
▁जुनादा	-11.8041
ification	-11.8044
▁गौ	-11.8051
▁ब्रीज	-11.8056
सान्ति	-11.8065
ग्राफोरखौ	-11.8065
▁खेवना	-11.8066
▁गाज्रिनि	-11.8069
▁रुस	-11.8074
▁लोदो	-11.8074
▁साजानि	-11.8074
▁जामार	-11.8075
char	-11.8083
▁ब्रह्मा	-11.8084
▁सार्ट	-11.8086
▁अनदों	-11.8088
▁खाबाय	-11.809
सायावनो	-11.8091
▁सुहाब	-11.8093
▁थादेर	-11.8102
▁गिबिनि	-11.8103
▁फोजाव	-11.8105
▁हौवाजों	-11.8106
ग्रोनांगौ	-11.8107
ंगालि	-11.811
▁जानायनिफ्राय	-11.8111
हैफिनबाय	-11.8111
▁थुल	-11.8112
▁थांला	-11.8112
बोनांदों	-11.8113
▁गोमादों	-11.8121
▁लोगोफोरनि	-11.8122
दाखौ	-11.8123
जें	-11.8125
▁रुजुनना	-11.8125
▁क्लार्क	-11.8127
▁जाब्र	-11.8131
▁उन्दैनि	-11.8137
▁खिना	-11.8145
▁सानफिन	-11.8147
गै	-11.815
▁खन्थाइखौ	-11.8151
▁ओंखारनायखौ	-11.8154
▁बिसारनि	-11.8155
क्ष	-11.8155
▁गारब्ला	-11.8155
▁जागार	-11.8155
खैमोन	-11.8158
▁देब्लाब	-11.8158
▁जांख्रि	-11.8159
▁हादत	-11.8162
▁बृ	-11.8163
▁नोंनियाव	-11.8164
लाङाखिसै	-11.8175
▁आजा	-11.8177
▁लेंबो	-11.8177
▁रामचियारी	-11.8178
▁सुब	-11.8179
मुलि	-11.8181
ण्ड	-11.8184
▁इलेकट्र	-11.8186
▁दाराय	-11.8187
▁सिखोन	-11.8187
ग्रोनाय	-11.8192
ब्ले	-11.8192
ते	-11.8198
▁बायदिब्ला	-11.8201
▁बिथाङानो	-11.8203
▁होनदोंमोन	-11.8205
▁हगारदों	-11.8205
▁मोनहां	-11.821
बांनि	-11.8214
rom	-11.8214
▁सिबनाय	-11.8219
▁फोजोन	-11.8219
4)	-11.8219
▁जागोना	-11.8221
▁जखाइ	-11.8221
▁कल्पनामोन	-11.8221
खावा	-11.8221
होखो	-11.8223
द्रु	-11.8223
..........।	-11.8225
▁थफा	-11.8226
ेल्ल	-11.8227
लाबाय	-11.8227
▁होखोमा	-11.8227
गानि	-11.8235
▁आबौनि	-11.8237
गुरि	-11.824
देब	-11.8241
हैया	-11.8242
▁दाहारखौ	-11.8243
गखौ	-11.8243
▁दादेर	-11.8246
नागा	-11.8249
माफोरनि	-11.825
▁नुजादों	-11.825
▁नारसिन्न	-11.825
▁can	-11.8253
▁आगोल	-11.8257
भार	-11.8259
सेन्स	-11.8263
▁बावजोब	-11.8263
▁होनबाय	-11.8265
▁कुर	-11.8266
▁खेरा	-11.8266
▁बागा	-11.8271
▁आउ	-11.8271
ावसो	-11.8274
▁मोखा	-11.8275
जादोंमोन	-11.8282
▁आन्द	-11.8285
मेगन	-11.8288
▁गाहेला	-11.8288
फिननांगौ	-11.8289
▁बेकार	-11.8293
▁सोंना	-11.8295
▁रामा	-11.8296
हाद	-11.8298
आलेया	-11.8298
▁डाइ	-11.8301
खिथा	-11.8303
नेक	-11.8307
▁मुख	-11.831
▁आहम	-11.8311
ड़ा	-11.8312
▁मोनजाथारा	-11.8316
नार	-11.8317
जना	-11.8319
▁गोमोना	-11.8326
पखौ	-11.8326
खोमसि	-11.8327
▁नाजानो	-11.8328
ख्लाय	-11.8336
ग्ला	-11.8336
▁दाउफोर	-11.8347
▁अजाय	-11.8347
▁जिरायना	-11.8348
ग्लाब	-11.8348
▁जोबगौ	-11.8349
फेरदों	-11.8349
ोरखौ	-11.8351
बोयाखै	-11.8352
▁Cl	-11.8353
▁मुसाहारि	-11.8355
▁बले	-11.8357
फ्रायनो	-11.8357
ty	-11.8361
▁दाब्ला	-11.8362
जुलि	-11.8364
▁नाजाबाव	-11.8368
▁नोगोरफोर	-11.837
▁सख	-11.837
माइ	-11.8373
▁गेस	-11.8375
▁सानखौ	-11.8375
नन्द	-11.8375
▁जायाबाला	-11.8379
▁थिनानै	-11.838
▁बारायाव	-11.838
ेंक	-11.8381
तिक	-11.8382
्न	-11.8383
▁उदि	-11.8387
▁सेसा	-11.8389
यन	-11.8391
यावसो	-11.8392
▁मोनस्लाब	-11.8393
▁दिया	-11.8396
▁सिथारनाय	-11.84
▁गुवाहाटि	-11.84
▁मोगन	-11.8405
र्टस	-11.8406
खोब्रा	-11.8422
▁सान्थौ	-11.8426
▁सन्थाली	-11.8426
▁मोनजोब	-11.8426
बिहामजो	-11.8427
जेननायनिफ्राय	-11.8428
▁बराद	-11.8429
हावरिया	-11.8431
स्थ	-11.8433
स्वा	-11.8433
सत्य	-11.8437
▁जागायजेन	-11.8441
.......!	-11.8444
ment	-11.8447
द्रि	-11.8448
ly	-11.8449
▁बंग	-11.8451
▁हालिवग्राफोर	-11.8452
▁नायथा	-11.8452
▁हेलमेट	-11.8454
▁रमायश्रि	-11.8455
बिब्दिनो	-11.8456
सोरबा	-11.8458
न्दर	-11.8462
▁नाजाना	-11.8464
▁दोनखार	-11.8465
▁आकुसि	-11.8466
▁मोनामोन	-11.8468
▁फोजाखां	-11.8468
▁खन्थाय	-11.8468
स्क	-11.8473
साइट	-11.8478
▁साबखां	-11.848
▁सुरफा	-11.8481
▁मोनग्रो	-11.8481
▁दन्दर	-11.8482
गुमै	-11.8484
▁गोसारल्दा	-11.8485
▁थद	-11.849
▁!...	-11.849
लाजि	-11.8492
बोआखै	-11.8496
▁गसंहै	-11.8497
▁जन्त्र	-11.8499
▁!'	-11.8501
चल	-11.8503
ैलाय	-11.8505
▁एंगोना	-11.8507
आगै	-11.8507
होनांगौ	-11.8508
▁दुंबुर	-11.8508
▁बिस्तिबार	-11.8508
▁अन्जु	-11.8509
▁दानस्लाय	-11.8509
गारासै	-11.851
▁सोंफै	-11.851
नार्स	-11.8511
▁मन्थ्र	-11.8512
▁मावहै	-11.8513
स्राय	-11.8514
साबबाय	-11.8515
▁मिजिंक	-11.8515
हारिनि	-11.8515
खनसाय	-11.8516
▁इज	-11.8518
्रि	-11.8518
▁फुवार	-11.8519
▁लाथ्र	-11.8523
▁बाहेर	-11.8525
▁दिङाया	-11.8525
लेखा	-11.8526
▁इन्टारनेटा	-11.853
ज्रो	-11.8531
▁फिथाय	-11.8533
भेज	-11.8534
फोरमान	-11.8534
▁थाफाव	-11.8535
▁खमज्लाय	-11.8535
▁जहै	-11.8536
दौलत	-11.854
मिडिया	-11.854
इलियट	-11.854
line	-11.854
फेले	-11.8541
गुदु	-11.8541
वेर	-11.8542
▁देदगा	-11.8543
जुलियेट	-11.8543
झ	-11.8544
बिफं	-11.8544
खावयां	-11.8544
U	-11.8544
www	-11.8544
▁सिनायथिनि	-11.8545
अरडार	-11.8545
गोजोनथों	-11.8545
बैथालि	-11.8545
कृष्ण	-11.8545
नंथारगौ	-11.8545
कमेदि	-11.8545
बिस्कुट	-11.8545
सावथाल	-11.8546
फोनांदोंमोन	-11.8546
बारहुंखा	-11.8546
हामफे	-11.8546
ऊ	-11.8546
बिखुं	-11.8546
गोबारै	-11.8546
जोहोलाव	-11.8546
अनथाइ	-11.8546
अरजाया	-11.8546
गाम्बारि	-11.8546
बिलिफां	-11.8546
▁अनसायनाया	-11.8546
फैमाल	-11.8546
जाहार	-11.8547
साफोरा	-11.8547
गुरै	-11.8547
मते	-11.8547
महाराजा	-11.8547
बिबौ	-11.8547
जाम्बा	-11.8547
दाखार	-11.8547
खामानिखौ	-11.8547
खुलि	-11.8548
ज्राव	-11.8548
गेदेर	-11.8549
2003	-11.8549
अभि	-11.8549
▁सानस्रिनि	-11.8549
हारसिं	-11.8549
एसेबां	-11.8549
बेनिखायनो	-11.8549
म्बार	-11.855
फाख्रि	-11.855
जासुला	-11.855
▁स्टेज	-11.8552
▁द्राइभ	-11.8552
▁गिसिखा	-11.8552
माबाफोर	-11.8553
स्रोद	-11.8553
▁नायगिदि	-11.8554
ख्रिं	-11.8554
हाबदों	-11.8554
▁स्रो	-11.8555
र्त्त	-11.8555
फास्ट	-11.8555
गस्ला	-11.8556
▁बैसाग	-11.8556
जाथाया	-11.8557
▁खिरफिन	-11.8557
माष्टार	-11.8557
▁लक्षीमपुर	-11.8558
▁गिजि	-11.8559
▁कैलास	-11.8559
एसे	-11.8559
देगार	-11.856
▁थिनाय	-11.8561
▁बाहागोफोरा	-11.8561
बेसेबा	-11.8561
▁po	-11.8561
▁बिसाना	-11.8562
▁संकर	-11.8562
▁हबगा	-11.8563
▁आनन्द	-11.8563
हामै	-11.8563
▁गसाथि	-11.8565
बेदर	-11.8565
▁सेवालि	-11.8565
लाइजामखौ	-11.8566
▁गावबुढ़ा	-11.8566
▁लाइटा	-11.8567
वबो	-11.8568
बादल	-11.8568
▁थासान्दि	-11.8568
साथामसो	-11.8569
▁नोरखो	-11.8574
▁फिर	-11.8574
▁अनारी	-11.8575
▁सोलायदों	-11.8575
ture	-11.8576
लांखार	-11.8576
▁उरसो	-11.8578
सियान	-11.8578
अबे	-11.8578
▁सेक्सपिय	-11.8578
थ्ला	-11.8578
2008	-11.8579
▁फराइ	-11.8579
ू	-11.858
▁नुफेराखै	-11.8582
▁गोर्ब्बो	-11.8582
▁बुंखांना	-11.8583
ायजामा	-11.8583
▁नांथे	-11.8583
▁साबायख	-11.8584
▁लिस्ट	-11.8584
▁गोद्	-11.8584
दमना	-11.8584
}:	-11.8585
▁लाफिनदो	-11.8586
▁सेकेन्ड	-11.8586
lect	-11.8586
मी	-11.8587
▁wa	-11.8588
▁लिटार	-11.8588
▁लक्षी	-11.8588
ak	-11.8588
▁सेकेण्ड	-11.8588
▁मुजिथाव	-11.8588
dverb	-11.8588
cial	-11.8588
बाजाराव	-11.8588
▁सावरायगिरि	-11.8589
▁बृहस्पतिबार	-11.8589
▁दोनखादों	-11.8589
▁भंगि	-11.8589
▁भाइजान	-11.8589
▁रहस्य	-11.8589
▁हुख्रेम	-11.8589
Adjective	-11.8589
_	-11.8589
owel	-11.8589
क्रराझार	-11.8589
ज्लित	-11.8589
▁Play	-11.8589
▁आदुंगारी	-11.8589
▁आनदाज	-11.8589
▁इचननुपी	-11.8589
▁इन्द्रप्रभा	-11.8589
▁इमफ	-11.8589
▁कनसार्ट	-11.8589
▁कमफिटिसन	-11.8589
▁खाख्लुबना	-11.8589
▁खापसारा	-11.8589
▁गोलोन्दाङा	-11.8589
▁घाब्राय	-11.8589
▁ट्रेजेडि	-11.8589
▁ट्रेन्सपर्ट	-11.8589
▁ढालिगाँव	-11.8589
▁नाइटिंगेल	-11.8589
▁नेटवर्क	-11.8589
▁नोमबाजै	-11.8589
▁पन्जिका	-11.8589
▁पलेनियास	-11.8589
▁पारलियामेन्ट	-11.8589
▁पेकेजेज	-11.8589
▁पेन्चन	-11.8589
▁प्रिन्सिपाल	-11.8589
▁फिफ्टि	-11.8589
▁बीरस्रन	-11.8589
▁बेंगुरा	-11.8589
▁बेण्डपार्टि	-11.8589
▁बेन्देज	-11.8589
▁महकुमानि	-11.8589
▁मैरालिखौ	-11.8589
▁राजउलाफाद	-11.8589
▁शशांक	-11.8589
▁शिबसागर	-11.8589
▁श्वाहरु	-11.8589
▁समाजतन्त्रबाद	-11.8589
▁सम्बुधन	-11.8589
▁सित्रांफा	-11.8589
▁सिसटेम	-11.8589
▁सेन्डेल	-11.8589
▁स्भेटलेना	-11.8589
▁हेडक्लार्क	-11.8589
▁हेमब्रम	-11.8589
▁हेल्पारफोर	-11.8589
field	-11.8589
▁एड्रेस	-11.8589
▁खेंस्लायै	-11.8589
▁गेरियट	-11.8589
▁गोहैलो	-11.8589
▁डिंग्रि	-11.8589
▁थरफनिफ्राय	-11.8589
▁दमयन्ती	-11.8589
▁बांसायारि	-11.8589
▁मुसलिम	-11.8589
▁लक्ष्मि	-11.8589
▁लेजिसलेट	-11.8589
▁होलोखो	-11.8589
▁drama	-11.8589
▁oh	-11.8589
▁आथोफ	-11.8589
▁कनट्र	-11.8589
▁जिंगादासि	-11.8589
▁धान्दा	-11.8589
▁फार्निसार	-11.8589
▁हागादै	-11.8589
▁well	-11.8589
▁उषा	-11.8589
▁खन्नै	-11.8589
▁पिस्टल	-11.8589
▁बुफाय	-11.8589
▁friend	-11.8589
▁आजेखान्थि	-11.8589
▁कमिउनि	-11.8589
▁आलमिरा	-11.8589
▁ट्राबल	-11.8589
▁दुलुत	-11.8589
▁पइन्ट	-11.8589
▁उदयासल	-11.8589
▁कृष्णचन्द्र	-11.8589
▁जाराफाग्ला	-11.8589
▁लेहेम	-11.8589
▁वेसिस	-11.8589
▁*********	-11.8589
▁तालुकदार	-11.8589
▁रिटायार	-11.8589
▁बेंबोगौ	-11.8589
▁दुवरा	-11.8589
▁देबदारु	-11.8589
▁मेनाजार	-11.8589
▁हुसेइन	-11.8589
▁Law	-11.8589
▁माहाराजा	-11.8589
▁दाख्लाम	-11.8589
▁बस्ति	-11.8589
▁भगबान	-11.8589
▁आंगिक	-11.8589
▁टेन्दार	-11.8589
▁माद्राछा	-11.8589
्लोम	-11.8589
▁धमन्द	-11.8589
▁बटाम	-11.8589
▁फ्लुर	-11.8589
▁हाथासीया	-11.8589
▁इनजुर	-11.8589
▁सम्पति	-11.8589
▁सोलोंदो	-11.8589
इज्जोत	-11.8589
▁ट्रिगार	-11.8589
▁कलिकाता	-11.8589
▁फुलमुथि	-11.8589
न्टिमिटार	-11.8589
▁सुबुरुन	-11.8589
▁पेश	-11.8589
▁गुजुस्रोम	-11.8589
▁धनबोर	-11.8589
▁पेइन्ट	-11.8589
▁सानसुथिर	-11.8589
▁Tragedy	-11.8589
▁अखन्दा	-11.8589
▁उइनड	-11.8589
▁माथावरि	-11.8589
▁गायागौमानि	-11.8589
▁नंद्राया	-11.8589
▁मोनामब्रुं	-11.8589
▁हामजायि	-11.8589
▁जाउलिया	-11.8589
▁सयतान	-11.8589
▁Now	-11.8589
▁गुर्लाब	-11.8589
▁सुवामी	-11.8589
▁गाम्बारी	-11.8589
▁हज्रिख्राव	-11.8589
▁जानुवारी	-11.8589
▁खुनुमोथ	-11.8589
▁सिलागा	-11.8589
ax	-11.8589
▁दामब्रि	-11.8589
▁सेरियास	-11.8589
▁स्वान	-11.8589
▁बेरफ्रुजानानै	-11.8589
▁गुरब्ले	-11.8589
▁बसन्त	-11.8589
▁कसुगाव	-11.8589
ual	-11.8589
▁अन्नाइ	-11.8589
▁दाफोथाय	-11.8589
vel	-11.8589
▁बुलेट	-11.8589
▁बावलांदो	-11.8589
बख्ल	-11.8589
▁मेम्बार	-11.8589
▁फायसे	-11.859
▁करप	-11.859
▁बायग्रेब	-11.859
▁नयाराम	-11.859
nes	-11.859
▁बाक्सु	-11.859
two	-11.859
▁फायखारि	-11.859
▁मुंफ्रामखौ	-11.859
▁2006	-11.859
▁बेलाश्री	-11.859
▁मिलौहाब	-11.859
▁रिनदाव	-11.859
▁मान्दालि	-11.859
▁बेन्दोङाव	-11.859
▁मेसेङाव	-11.859
निप्राय	-11.859
▁गायज्राब	-11.859
▁बोर्दोन	-11.859
▁सुबुरुनथाइ	-11.859
▁थैसाम	-11.859
▁एकशन	-11.859
▁नंजोबा	-11.859
▁बालन्दी	-11.859
▁सिफाइ	-11.859
▁बेडिं	-11.859
▁रिंहाब	-11.859
▁दौवो	-11.859
▁बेराफारसे	-11.859
other	-11.859
▁भान्दारि	-11.859
▁दुद्रु	-11.859
▁दैसारी	-11.859
▁हंख्रत	-11.859
नीति	-11.859
▁बिरखां	-11.859
▁गोरेस्वर	-11.859
▁नार्सिन	-11.859
▁फानदाय	-11.859
▁दैदेनलांनो	-11.859
▁लासिंसिं	-11.859
▁खम्बल	-11.8591
▁इउटिलिटिफोर	-11.8591
▁मयदा	-11.8591
▁CD	-11.8591
ple	-11.8591
▁सुनसिनि	-11.8591
▁एडभकेट	-11.8591
▁दिन्थियि	-11.8591
▁उराङा	-11.8591
ness	-11.8591
▁खेंसालिया	-11.8591
▁दुमासु	-11.8591
▁गुदाम	-11.8591
▁बिलाती	-11.8591
घात	-11.8591
▁खेबज्रां	-11.8591
▁हमफ्लां	-11.8591
▁एकथेब	-11.8591
मुक	-11.8591
▁गियाति	-11.8591
ुकुर	-11.8591
▁we	-11.8592
▁एना	-11.8592
▁पाइप	-11.8592
▁सास्ति	-11.8592
▁थाइब्रै	-11.8592
▁हिन्दि	-11.8592
▁दालुबै	-11.8592
▁बोहैग्लायो	-11.8592
▁नोमबै	-11.8592
▁दुबगां	-11.8592
▁रिंखांफैयो	-11.8592
▁हुस्लिम	-11.8592
▁हादुंग्रा	-11.8592
▁बिल्दिं	-11.8592
▁फोलाउ	-11.8592
▁आब्दुल	-11.8592
▁गिलुबालु	-11.8592
▁ग्रद	-11.8592
▁फुदला	-11.8592
▁खिन्थिगासे	-11.8592
▁बसुमातारी	-11.8593
▁कालिदास	-11.8593
मलेना	-11.8593
Program	-11.8593
▁लाबोना	-11.8593
▁सिबिसुला	-11.8593
▁बबेवहाय	-11.8593
▁डिपु	-11.8593
▁शिव	-11.8593
▁खोनासङा	-11.8593
▁दुफां	-11.8593
▁फाथ्रा	-11.8593
▁सेरेफ	-11.8593
▁there	-11.8593
फुथारदोंमोन	-11.8593
बेरखाय	-11.8593
▁बुंफिननायसै	-11.8593
▁मुगु	-11.8593
▁सख्ल	-11.8594
▁(9)	-11.8594
▁लेथ्रा	-11.8594
▁हैद	-11.8594
▁असुर	-11.8594
▁हाथायजाब	-11.8594
▁बोख्लाब	-11.8594
फात	-11.8594
▁खन्थायगिरि	-11.8594
▁मोन्दा	-11.8594
▁आमोखिया	-11.8594
▁टास्कबार	-11.8594
▁अबदान	-11.8594
▁खालामहैदो	-11.8594
▁बनजार	-11.8594
▁एन्टार	-11.8594
▁आइबल	-11.8594
मानसिया	-11.8594
▁रिहार	-11.8594
▁लिंलाङो	-11.8594
▁लागाम	-11.8594
▁थांनांनोसै	-11.8594
▁द्रे	-11.8594
▁फ्राद	-11.8594
▁हामारगोन	-11.8594
▁तसरफखा	-11.8595
▁लांजाबाय	-11.8595
▁रुमफारसे	-11.8595
▁होसारनानै	-11.8595
हादर	-11.8595
▁नार्जारीखौ	-11.8595
▁आलारी	-11.8595
टलनि	-11.8595
▁हाबफैफिनो	-11.8595
▁थांफिनासै	-11.8595
[...]
