<unk>	0
<s>	0
</s>	0
।	-2.90161
,	-3.7345
ʼ	-3.86355
नि	-3.99409
-	-4.17955
नो	-4.45642
खौ	-4.59007
▁आरो	-4.72436
▁बे	-4.93999
बो	-5.01662
▁"	-5.1113
नानै	-5.15271
▁:	-5.15417
▁आं	-5.21466
▁?	-5.24214
▁	-5.4281
जों	-5.47188
।"	-5.49912
▁मा	-5.52342
ा	-5.56616
या	-5.57094
▁!	-5.58093
▁(	-5.6531
▁बियो	-5.69753
ाव	-5.71429
▁नों	-5.74434
सो	-5.77267
याव	-5.79609
.	-5.89301
▁नाथाय	-5.91133
)	-6.00185
▁बर	-6.02757
निफ्राय	-6.07197
ल	-6.09873
ना	-6.12071
▁दं	-6.13087
▁?"	-6.13392
▁नङा	-6.14039
▁--"	-6.17266
▁जायो	-6.18303
▁एबा	-6.18769
▁सल	-6.22228
▁बिनि	-6.2267
▁न	-6.25922
▁मोजां	-6.26849
▁आंनि	-6.2798
▁गावनि	-6.29875
▁मोनसे	-6.30187
▁थाखाय	-6.30333
मोन	-6.3134
नाय	-6.31604
▁'	-6.34474
:	-6.36903
▁बि	-6.41128
▁-	-6.42488
▁उनाव	-6.43336
▁लानानै	-6.43984
▁लोगो	-6.44033
▁जाबाय	-6.44491
ब्ला	-6.44952
बा	-6.45397
बाय	-6.45618
▁गुबुन	-6.46397
▁बादि	-6.48407
▁दा	-6.49111
▁जादों	-6.5009
▁जों	-6.51909
▁गैया	-6.52276
वा	-6.53868
'	-6.54098
▁बायदि	-6.5759
▁जानो	-6.63043
▁बुङो	-6.63461
लाय	-6.64203
▁गोनां	-6.66004
मा	-6.66444
▁जेरै	-6.66744
▁ना	-6.67517
दों	-6.67593
▁गोसो	-6.67812
थ	-6.68196
▁मानो	-6.68979
▁सासे	-6.68986
▁थानाय	-6.70453
ै	-6.72078
▁हा	-6.72345
▁जानानै	-6.76623
▁जेबो	-6.77203
फोरा	-6.78136
▁नोंनि	-6.78551
▁गाव	-6.79389
▁दिनै	-6.80056
▁हागौ	-6.804
▁बाथ्रा	-6.80803
फोरखौ	-6.8203
▁समाव	-6.82041
▁जा	-6.8346
न	-6.84698
▁हाया	-6.85692
आ	-6.86324
▁हाबा	-6.87058
▁जानाय	-6.88312
▁बेखौ	-6.88663
▁[	-6.89377
▁बेनि	-6.905
▁ज	-6.91255
▁जागोन	-6.93697
▁दै	-6.93877
▁गोदान	-6.94351
▁ग	-6.94794
र	-6.95055
▁आंखौ	-6.96394
दि	-6.97966
▁खालामनो	-6.98383
▁फिसा	-6.98585
▁गथ	-6.99193
"	-6.99197
यै	-6.9938
ब्लाबो	-7.01434
▁एसे	-7.02138
▁आदा	-7.0222
▁सा	-7.05019
▁मोनो	-7.05631
▁राव	-7.06024
▁गोबां	-7.06457
▁सायाव	-7.06747
ं	-7.07363
गोन	-7.07377
▁)	-7.08114
▁थायो	-7.0866
वाव	-7.0881
सै	-7.09799
▁होननानै	-7.11142
▁माबा	-7.11378
▁गेजेराव	-7.12144
▁खर	-7.12809
▁रां	-7.13684
लै	-7.14206
▁बिखौ	-7.15283
▁गाज्रि	-7.15739
ग्रा	-7.15758
▁खालामनानै	-7.16495
▁मानसि	-7.16685
▁बिसोर	-7.17353
▁सोर	-7.18177
▁सान	-7.18412
फोरनि	-7.18938
▁जौ	-7.20176
▁बुंनो	-7.20305
स	-7.20656
▁होन्नानै	-7.20724
हा	-7.21181
▁होनो	-7.22386
▁सि	-7.22596
;	-7.22953
▁बै	-7.23882
द	-7.2396
▁सम	-7.24468
▁बिमा	-7.24543
ब	-7.24758
▁स	-7.24892
म	-7.25157
▁बेफोर	-7.26151
ो	-7.27007
से	-7.27376
▁जोंनि	-7.27913
यो	-7.27943
ला	-7.2854
▁जाय	-7.29008
▁दुखु	-7.29659
▁बाथ्राखौ	-7.29699
सि	-7.29778
क	-7.30105
▁आ	-7.30262
ि	-7.30441
फोर	-7.31189
फ्रा	-7.31365
▁दङ	-7.3162
--	-7.31647
▁बुंबाय	-7.33281
आव	-7.34024
▁होनानै	-7.34294
▁]	-7.34759
▁हायो	-7.35233
बादि	-7.355
▁बुं	-7.36213
▁हो	-7.37212
▁दे	-7.38801
▁था	-7.38828
▁बारा	-7.41465
▁थां	-7.41611
▁ए	-7.42379
▁दि	-7.43489
▁अ	-7.44001
▁महर	-7.44313
▁एन	-7.44892
▁जिउ	-7.4556
्	-7.45569
दोंमोन	-7.45859
खि	-7.45895
▁--	-7.45933
▁नोंखौ	-7.46035
▁आफा	-7.47204
▁होनाय	-7.47224
▁सिरि	-7.47497
▁नामा	-7.49226
▁नवाव	-7.50169
रि	-7.51259
▁मोन	-7.51417
त	-7.52785
▁गल	-7.53031
▁अब्ला	-7.5351
▁थांनानै	-7.53849
▁हानाय	-7.54312
▁मोनबाय	-7.54584
▁ओंखाम	-7.54741
▁मानसिया	-7.55179
▁लामा	-7.56409
▁जाया	-7.57281
▁नुनानै	-7.57585
▁लोगोसे	-7.57884
▁आइ	-7.58043
▁सिङाव	-7.58084
▁माथो	-7.58247
▁फारसे	-7.58817
▁सोदोब	-7.59768
▁आंहा	-7.59798
▁होयो	-7.59882
खौनो	-7.5999
▁दसे	-7.59995
▁सोरबा	-7.60522
▁हर	-7.60729
थि	-7.60762
▁जि	-7.60891
▁मानोना	-7.61459
▁थानो	-7.61553
खा	-7.61661
▁गामिनि	-7.61754
फा	-7.61892
▁बेयो	-7.61907
▁खाथियाव	-7.62416
▁सिगां	-7.62626
▁अल	-7.63179
▁नांगौ	-7.63551
सिम	-7.63687
▁थै	-7.63999
▁गासै	-7.64162
य	-7.64655
▁बिब्दि	-7.65229
▁जोनोम	-7.66213
▁मोखां	-7.66823
गासिनो	-7.6762
▁ला	-7.67698
▁उन	-7.68044
▁बयबो	-7.68148
▁राहा	-7.6828
▁मोना	-7.69249
▁ख	-7.69253
▁मेगन	-7.6937
दा	-7.69698
व	-7.6972
नांगौ	-7.70121
नायाव	-7.70821
▁फै	-7.70821
नै	-7.70843
▁खालाम	-7.71567
▁इ	-7.72306
नाव	-7.72499
▁राइजो	-7.73375
▁नुनो	-7.73522
ग	-7.73679
▁बुंनाय	-7.73719
▁गुबै	-7.74846
▁मुं	-7.74944
▁माखासे	-7.74988
▁राजा	-7.75039
दो	-7.75402
ख	-7.75651
▁सु	-7.75901
▁हिन्जाव	-7.7622
▁नाङा	-7.76444
▁सिं	-7.76581
का	-7.76597
▁थाबाय	-7.76659
थिं	-7.76829
▁गाहाय	-7.77465
▁गंसे	-7.77969
▁गोहो	-7.78006
▁गोरा	-7.78337
▁जाखो	-7.78517
▁लानो	-7.7869
▁रावबो	-7.78694
▁बा	-7.78834
▁थांनाय	-7.7924
▁सुबुं	-7.79561
▁नोंसोर	-7.80644
▁मोननै	-7.80962
ट	-7.81037
▁बिसोरनि	-7.81365
▁आलेया	-7.81581
▁र	-7.82148
▁होबाय	-7.82187
▁अर	-7.82274
▁खामानि	-7.82924
▁गोजौ	-7.83142
▁थाङो	-7.83536
▁गोसोआव	-7.83694
खो	-7.84248
ज	-7.84376
▁मोननाय	-7.84665
]	-7.85092
जा	-7.8516
सा	-7.85212
▁लासै	-7.85688
▁आखु	-7.85864
▁सानो	-7.86352
▁जोबोद	-7.86483
▁ह	-7.8667
▁बार	-7.86807
▁गासिबो	-7.86952
▁नोंथां	-7.87271
▁ब	-7.87557
▁हौवा	-7.87572
▁नै	-7.87953
▁!"	-7.88328
▁सिख्ला	-7.89403
▁गारां	-7.89895
मानि	-7.9073
▁आखाइ	-7.90804
▁लानाय	-7.90877
ब्रा	-7.91387
▁ओंखार	-7.92038
ी	-7.92225
▁बेखौनो	-7.92244
▁आर	-7.92694
▁गोबाव	-7.92768
▁जायगा	-7.9329
▁नि	-7.9341
▁उ	-7.93541
रा	-7.93786
▁जादोंमोन	-7.93835
▁जो	-7.93933
▁द	-7.94298
▁मानसिनि	-7.9457
▁से	-7.94979
आं	-7.95335
▁साहा	-7.95527
था	-7.95819
▁म	-7.96132
▁लायो	-7.96355
▁बुंदों	-7.96479
▁थि	-7.96672
▁बेनो	-7.96744
▁फैदों	-7.97168
▁महाराजा	-7.97433
▁मोदै	-7.97878
▁जेब्ला	-7.97966
▁बिलाइ	-7.98179
▁थु	-7.98299
▁गासैबो	-7.98312
▁सानसे	-7.98765
▁आबौ	-7.98893
▁सानै	-7.99156
▁थेवबो	-7.99581
▁बिदि	-7.99733
▁गिबि	-7.99767
थार	-8.00442
▁समावनो	-8.00613
▁खौरां	-8.00717
खौबो	-8.00758
▁सिगाङाव	-8.01036
▁समाय	-8.01194
▁नङाब्ला	-8.01231
▁मान	-8.0172
▁सेंग्रा	-8.01728
▁सुंद	-8.02124
▁गेजेर	-8.0232
▁बोसोर	-8.02355
▁गोलाव	-8.02768
▁थांनो	-8.03203
▁दन्दा	-8.03347
▁हे	-8.03401
▁फिन	-8.03645
▁बांसिन	-8.0391
सिन	-8.03945
▁क	-8.03951
▁आखायाव	-8.04003
▁मोनगोन	-8.04062
▁गोसोखौ	-8.04288
▁जोंथिया	-8.04341
गा	-8.04361
▁सेप्तेम्बर	-8.04641
▁फावथाइ	-8.0465
हां	-8.0472
▁एम	-8.04727
▁दाबो	-8.04786
▁हांखो	-8.04961
इ	-8.05163
▁महरै	-8.05249
▁फा	-8.05301
▁बादल	-8.05308
▁गेजेरजों	-8.05417
▁बेसेबा	-8.05648
▁बाहागो	-8.06083
▁मोसा	-8.06483
▁गैयै	-8.06622
▁गावखौ	-8.06645
▁बिखा	-8.06876
▁दानो	-8.0722
थाय	-8.07285
▁बिहा	-8.07608
▁बिसि	-8.07749
▁जेब्लाबो	-8.08109
लि	-8.08239
▁खालामनाय	-8.08421
▁बिनानाव	-8.08498
▁खालामो	-8.08654
▁फैनानै	-8.08741
▁जिउनि	-8.08927
▁नायनानै	-8.09003
▁आंबो	-8.09052
▁माबोरै	-8.09698
▁खोमा	-8.09699
▁जानांगौ	-8.09871
▁बेसे	-8.09877
▁नोजोर	-8.10029
▁एसेबां	-8.11489
▁बुंनानै	-8.11495
▁मालाय	-8.11534
▁हागोन	-8.11778
▁दंमोन	-8.11839
▁आनारी	-8.11968
▁सानबाय	-8.12509
▁होदों	-8.12565
▁रावखौ	-8.13063
▁नोंथाङा	-8.13134
▁मोजाङै	-8.1332
थो	-8.13454
▁देहा	-8.13592
▁गावनो	-8.14026
▁गोसोनि	-8.14349
▁मलेना	-8.14984
▁दाय	-8.15249
▁बेनिखायनो	-8.15285
▁बादिब्ला	-8.15372
▁नायनो	-8.15628
▁बिफा	-8.15702
▁नंगौ	-8.15854
ड	-8.16455
▁हि	-8.16504
बि	-8.16529
▁थार	-8.16744
▁फैयो	-8.16854
▁लाबाय	-8.17074
▁जे	-8.17414
▁बिखायाव	-8.17479
ङा	-8.17538
▁गांसे	-8.17677
▁दमन	-8.17813
▁पुलिस	-8.17823
▁ल	-8.18114
▁लेखा	-8.18318
▁नायजाब	-8.18465
ए	-8.18507
▁अजया	-8.18536
▁माव	-8.18966
▁हारिनि	-8.19107
▁मोसौ	-8.19212
है	-8.1922
▁जायगायाव	-8.19543
▁मोननो	-8.19557
दे	-8.19607
▁गिदिर	-8.19614
▁पि	-8.19823
▁बेबादि	-8.1986
▁तुलाराम	-8.19951
▁बेयाव	-8.19999
प	-8.20216
▁हमबाय	-8.20225
▁बड़	-8.20257
▁नाय	-8.20362
▁लिरनाय	-8.20573
▁सोमबोर	-8.20688
▁हाज	-8.20811
फोराव	-8.21396
▁गाहाइ	-8.21582
s	-8.22313
▁बिदिब्ला	-8.2251
▁हमनानै	-8.22694
▁बिबार	-8.22725
▁इराग्दाव	-8.23246
▁माबार	-8.23463
▁बिदा	-8.24246
▁खालि	-8.24677
▁मिथिनो	-8.24744
▁होनना	-8.24757
बे	-8.24818
▁गोजोन	-8.24916
खाय	-8.25232
याबो	-8.25394
▁गोसोआ	-8.25485
▁फिसाजो	-8.26086
▁बोरै	-8.26212
▁बेनिफ्राय	-8.26353
▁सुलुंआव	-8.26374
▁मानि	-8.26877
▁मोनदों	-8.26997
▁मावनो	-8.27043
▁आथोन	-8.27092
▁हमनो	-8.27277
▁गाहाम	-8.27436
▁बाहायनाय	-8.27846
▁मिनि	-8.28369
▁मोखाङाव	-8.28509
▁खाबु	-8.28514
▁जोबोर	-8.28537
▁मदद	-8.28792
▁आंनो	-8.29047
▁सेर	-8.29079
उ	-8.30179
▁फ	-8.3024
▁जिंगा	-8.3039
▁रंजा	-8.30607
▁दुर्जाङा	-8.30928
▁बहा	-8.3118
▁बाथ्राया	-8.31241
▁हेंथा	-8.31305
▁सार	-8.31373
नाया	-8.31831
▁आङो	-8.32183
▁बिमाया	-8.32324
नों	-8.32612
▁हायाखिसै	-8.3293
▁थाखो	-8.33224
▁नु	-8.3341
▁रागा	-8.33714
▁जोहोलाव	-8.33829
▁मिथिगौ	-8.3416
▁नुयो	-8.34173
हो	-8.34395
▁सोङो	-8.34397
▁मन्थ्रि	-8.34402
▁थ	-8.34439
▁हारि	-8.34519
▁बिजाब	-8.34583
▁साननानै	-8.34707
ारि	-8.3472
...	-8.34787
जि	-8.34936
▁माब्लाबा	-8.34959
▁फैबाय	-8.35126
टि	-8.35415
▁फोरमायनाय	-8.35506
▁खालामबाय	-8.35565
ानो	-8.35618
▁खालामदों	-8.35841
▁कम्पिउटार	-8.36082
यारि	-8.36365
▁गोख्रों	-8.36605
▁गामि	-8.36888
▁थुनलाइ	-8.3695
जानाय	-8.37307
▁फंबाय	-8.37342
▁अराय	-8.37583
▁हाब	-8.37808
▁गोदो	-8.38291
▁गाब	-8.38338
▁जायाखै	-8.386
▁इसे	-8.38622
▁सिखार	-8.38748
▁जाब्ला	-8.38909
▁हाबफैयो	-8.39091
▁शान्तिया	-8.39181
▁हां	-8.39314
+	-8.394
नांगोन	-8.39437
▁दावहा	-8.39639
▁बेफोरखौ	-8.39948
▁जेन	-8.40027
▁...	-8.40069
▁सानैबो	-8.40089
▁मुवा	-8.40584
▁रोखा	-8.40678
नायनि	-8.40693
▁मलेन	-8.40728
▁उन्दै	-8.41016
▁फाव	-8.41273
▁अमा	-8.41275
▁खोथा	-8.41304
▁सान्थ्रि	-8.41403
▁गोरोन्थि	-8.41431
▁हेफाजाब	-8.41908
▁थाव	-8.42299
फ	-8.42471
अ	-8.4286
▁सोलाय	-8.43103
▁मिथिया	-8.43113
▁हाग्रा	-8.4319
फोरजों	-8.4322
▁रुमाव	-8.43313
हाय	-8.43366
▁ड	-8.43595
खालि	-8.43753
▁दान	-8.43755
▁बिफां	-8.43971
▁बां	-8.44076
▁आफादनि	-8.44238
▁फारिया	-8.44248
▁हायाखै	-8.44624
▁मोन्नाय	-8.44731
▁मेथाइ	-8.44832
▁ददेरेया	-8.44979
▁गुदि	-8.45129
▁थांबाय	-8.45214
▁आगान	-8.45514
▁जाथाइ	-8.45548
▁सोमोन्दो	-8.46026
▁बु	-8.4619
यानो	-8.46222
▁एस	-8.46458
▁मोदोम	-8.46652
▁ब्रह्म	-8.46863
▁थांखि	-8.471
▁रोदा	-8.47341
▁बेदर	-8.47465
▁खि	-8.47472
▁खोनानानै	-8.47579
▁थाब	-8.4762
▁मिहिरा	-8.47622
▁उदां	-8.48229
▁साजा	-8.48266
▁गोथौ	-8.484
▁सावगारि	-8.48564
▁हादों	-8.48791
▁बादला	-8.48887
ह	-8.49265
▁गोग्लै	-8.49531
▁फिसाज्ला	-8.49634
▁बिमानि	-8.49805
▁बाबु	-8.49832
▁खुगा	-8.49844
▁कल्पना	-8.5005
▁नोंनो	-8.50055
▁सोंबाय	-8.50147
▁फावथाइनि	-8.50184
▁आखल	-8.50421
▁अनगायैबो	-8.50428
▁खोमसि	-8.50446
▁हम	-8.5063
▁आफादगिरि	-8.50891
▁बिलिफाङा	-8.5108
▁हादर	-8.51202
▁जु	-8.5138
▁धोरोम	-8.52423
े	-8.5258
▁दयाराम	-8.52673
▁हायै	-8.52839
▁दाजाबदा	-8.52916
▁बिथां	-8.53276
▁बोराय	-8.53376
▁बेसेबां	-8.53495
▁लामायाव	-8.53591
▁खिन्था	-8.53615
▁लिर	-8.53863
▁प्र	-8.53979
▁थाखायनो	-8.5406
▁रोखोमनि	-8.54297
▁रैखा	-8.54342
▁माइ	-8.54382
▁गोथार	-8.54603
▁खोमदोन	-8.54925
▁लु	-8.55015
▁राय	-8.55122
▁बाय	-8.55218
▁साना	-8.55332
▁थागोन	-8.55712
▁बबे	-8.55746
▁दिन्थि	-8.55902
▁गय	-8.5598
▁गा	-8.56049
।)	-8.5615
▁आलेखौ	-8.56174
▁लादों	-8.56434
▁जेराव	-8.56703
▁आसाम	-8.56747
▁फैनाय	-8.56782
▁खोथाखौ	-8.57106
▁खाथि	-8.57326
▁बिब्दिनो	-8.57684
▁जानायनि	-8.57866
▁दिन	-8.58127
▁बाजै	-8.58166
▁बाइदि	-8.58293
▁गाबोन	-8.58313
/	-8.58725
▁जै	-8.58869
▁नोंहा	-8.5898
▁लाबो	-8.59228
▁नां	-8.59526
▁सहेन	-8.59542
....	-8.5973
▁फरायसा	-8.59763
सु	-8.59822
▁फैनो	-8.59842
▁मानसिखौ	-8.59904
▁बबाव	-8.60152
▁लाजि	-8.60232
▁गोरों	-8.60247
▁नोजोरथाव	-8.60286
▁आब	-8.60586
▁एफा	-8.60587
▁बेलस्रि	-8.60704
▁''	-8.60712
.....	-8.60806
▁गम्भीर	-8.61207
▁होमब्ला	-8.61283
▁दानिया	-8.61455
▁जिल्ला	-8.61691
▁आथिं	-8.61862
▁खा	-8.62101
▁आनाराम	-8.62173
▁ओंखारलाङो	-8.62269
▁मुंमा	-8.62295
▁माने	-8.62401
▁गोजानाव	-8.62431
बाव	-8.62621
▁कल्पनाया	-8.62934
▁माहाजोन	-8.63057
▁बिसोरखौ	-8.63372
▁फोरमायदों	-8.63529
वारी	-8.63881
▁सो	-8.6392
▁गुवाहाटी	-8.63926
▁अखा	-8.64087
▁बेखेवफा	-8.6409
▁खेबसे	-8.64277
▁थियेटार	-8.64346
▁जनानै	-8.64442
▁2	-8.65089
▁जाथाय	-8.65096
▁मेहेरसिं	-8.65289
▁बिनो	-8.65498
▁लां	-8.65516
▁बोलो	-8.65796
▁आंगो	-8.66064
▁हगार	-8.66245
▁दानाय	-8.66265
▁बिलाय	-8.66535
▁माहाजोना	-8.66735
▁राइजोनि	-8.66741
▁गारि	-8.66984
▁बिथांनि	-8.66985
y	-8.67044
।'	-8.67132
नादि	-8.67138
▁बिदिनो	-8.67277
▁रावनि	-8.6737
▁फराय	-8.67438
▁सान्नानै	-8.67503
▁जिउखौ	-8.6751
▁बोराया	-8.68071
गिरि	-8.68207
▁साव	-8.68347
▁मुङा	-8.68382
▁आव	-8.68511
▁नंखाय	-8.68567
▁गुमै	-8.68642
▁थांगोन	-8.68817
▁सेराव	-8.68821
▁मैया	-8.68916
लु	-8.68999
▁आलाइस्रि	-8.69127
हर	-8.69177
▁बेवहाय	-8.69304
▁देनानै	-8.69464
▁बिजौ	-8.69483
नायसै	-8.69509
▁दान्दिसे	-8.6951
ाबो	-8.69524
▁आगै	-8.69588
▁आयदा	-8.6974
▁बिसोरो	-8.69812
▁सों	-8.69935
▁आलाइया	-8.69973
▁रावाव	-8.70223
▁दिन्थिनाय	-8.70252
▁माब्ला	-8.70286
▁हराव	-8.70411
▁अन	-8.70673
▁मै	-8.70699
▁हांमा	-8.71037
▁फारि	-8.7108
बां	-8.71643
▁रैखाथि	-8.71854
▁जेंना	-8.71974
▁गेदेर	-8.72128
▁उदै	-8.72258
▁दोन	-8.72397
▁मुलि	-8.72407
▁डि	-8.72466
▁अननाय	-8.72468
लाङो	-8.72521
लांबाय	-8.7256
▁हाबनानै	-8.72652
▁थानानै	-8.72759
▁बायदिसिना	-8.72788
▁आय	-8.72825
▁आफाद	-8.72906
▁गोजाम	-8.73087
▁मोदोमाव	-8.73244
▁टि	-8.73333
औ	-8.73436
▁बारग	-8.73528
▁सं	-8.73588
▁दाव	-8.73802
▁आसामनि	-8.73804
▁of	-8.73896
▁मि	-8.73942
▁दिन्थिग्रा	-8.73988
▁फैगौ	-8.74074
हु	-8.74116
▁लुबैयो	-8.74214
▁खहा	-8.74336
▁सोम	-8.74377
▁के	-8.74405
▁रंजानाय	-8.74481
▁आयै	-8.74496
निफ्रायनो	-8.74573
▁आसि	-8.74803
▁जाग्रा	-8.74853
▁हाबाखौ	-8.74904
▁हाजार	-8.75057
▁हिसाबै	-8.75069
▁मालायनि	-8.75152
▁नायबाय	-8.75312
नोसै	-8.75459
▁आलासि	-8.75473
▁थाखोनि	-8.75481
▁मन्जुवा	-8.75552
मानो	-8.75575
=	-8.75729
▁5	-8.75781
▁उन्दु	-8.75798
▁हाजो	-8.76034
▁हाबाफारि	-8.76149
▁साख्रि	-8.76212
▁बिथाङा	-8.76213
▁मिथिबाय	-8.76279
▁जायखौ	-8.76364
▁जिराय	-8.76396
▁समनि	-8.76479
▁बिखाया	-8.76551
▁बड	-8.76581
▁नोंलाय	-8.76765
▁रोङा	-8.76951
थायाव	-8.76953
▁सांग्रां	-8.77209
▁खार	-8.77346
▁गिदिं	-8.77407
▁एरै	-8.77493
▁अजिता	-8.77531
▁नुबाय	-8.77627
▁मानसिफ्रा	-8.77673
▁गुदुं	-8.78098
▁10	-8.78281
▁मेगनाव	-8.78371
▁सोमोन्दै	-8.78507
▁हाबो	-8.78514
▁बागै	-8.78528
▁जोंहा	-8.78645
▁साफा	-8.78719
▁बाहाय	-8.78832
स्रि	-8.78856
▁हु	-8.78864
▁होगोन	-8.7891
▁खोनासं	-8.78912
▁गोसोम	-8.78913
▁रावजों	-8.78931
▁चि	-8.78982
▁:-	-8.79031
दै	-8.79107
▁फाग्ला	-8.79114
▁गामियाव	-8.7912
▁सैमा	-8.79229
सार	-8.79336
▁मानसिफोरा	-8.79337
▁मोननानै	-8.79356
पि	-8.79362
▁गोब्राब	-8.795
▁आरोबाव	-8.79553
▁लाख	-8.79622
▁गैलिया	-8.79697
▁बोथोर	-8.7976
▁सान्दो	-8.79775
..	-8.79895
▁एल	-8.7991
▁मुंख	-8.79984
▁समाजनि	-8.80018
▁गोजा	-8.8014
▁डा	-8.80153
जोंनो	-8.80227
▁होनांगौ	-8.8028
▁नखर	-8.80451
▁खायसे	-8.80604
▁फिथाइ	-8.81078
▁मुलुगाव	-8.81154
▁गु	-8.81464
▁गाबो	-8.81588
▁साननाय	-8.81762
▁गाहायाव	-8.81944
▁सिन	-8.81956
थां	-8.81989
मोना	-8.82052
▁खायफा	-8.82153
▁थांनोसै	-8.82292
▁मोनफा	-8.82509
▁लाखिनो	-8.83107
▁आनजाद	-8.83246
▁दुलाराय	-8.83342
▁साबसिन	-8.83357
▁खनसे	-8.83358
▁थाङा	-8.83405
▁दिन्थिनो	-8.83629
▁फावथिना	-8.83752
फिनो	-8.83816
▁जोंथिनि	-8.8387
गु	-8.84057
▁साइकेल	-8.84133
▁उनावनो	-8.84136
बावो	-8.84161
▁लाइजामखौ	-8.8437
▁समबारु	-8.84382
▁गुवार	-8.84443
▁बिफानि	-8.84564
▁ब्रा	-8.84598
▁लाइजाम	-8.84692
▁नागा	-8.84903
▁सानदों	-8.84926
▁आलेनि	-8.84946
लायो	-8.85029
▁थेलेफा	-8.85051
▁मुंनि	-8.85093
▁राजानि	-8.8512
ु	-8.8516
▁दासो	-8.85186
▁दाउ	-8.85221
▁औ	-8.85268
▁फोरमान	-8.85308
▁हाबानि	-8.85325
▁सोनानै	-8.85357
▁फोरमाय	-8.85363
▁मीनाराम	-8.85397
▁मेब्ला	-8.85443
▁गोरोब	-8.85483
रे	-8.85514
सन	-8.85578
▁गावजों	-8.85587
▁आबुं	-8.85898
▁हाजेव	-8.85899
▁सिनाय	-8.85902
▁!!	-8.85957
▁इनाय	-8.85974
यावनो	-8.86019
e	-8.86032
▁बिगुर	-8.86064
▁बुंनायसै	-8.86182
▁बिबान	-8.86345
▁बिजिर	-8.86356
▁खाना	-8.86445
▁खलथा	-8.86476
▁बुंदोंमोन	-8.86484
▁आलाइस्रिया	-8.86493
▁मासि	-8.86615
▁जेरावबो	-8.86746
▁दो	-8.86882
▁नोंथांनि	-8.87008
▁थामहिनबा	-8.87128
▁मिजिं	-8.87136
▁खौ	-8.87137
▁इन्दिस्री	-8.87139
▁माइथायाव	-8.87198
▁सुबुंनि	-8.87336
▁मोनहा	-8.87432
▁अरुना	-8.87488
▁हाबाब	-8.87598
▁अनाथी	-8.87729
▁आबै	-8.87795
▁समायना	-8.87811
▁खैफोद	-8.87881
खांनानै	-8.88142
▁दहाय	-8.88517
ङै	-8.88547
▁आंजों	-8.88598
▁गोसोजों	-8.88625
बावनो	-8.88657
▁बावदिया	-8.88666
गाब	-8.88733
▁सिमां	-8.88984
▁गुन्दा	-8.89237
▁फिसाया	-8.89501
मोनहा	-8.89541
▁दोननाय	-8.89554
▁रायलाय	-8.89584
▁मिनिस्लु	-8.89658
ले	-8.897
▁हाथाइ	-8.89943
▁खालामगोन	-8.90008
▁आथिखालाव	-8.90028
हि	-8.9006
▁एसेबो	-8.90119
▁रामनाथा	-8.90135
▁मे	-8.90373
▁मुस्रि	-8.90407
▁2008	-8.90441
▁प	-8.90467
▁खोनानो	-8.90475
▁1.	-8.90495
▁जोंखौ	-8.90712
▁अजय	-8.90738
▁साला	-8.90929
▁लाय	-8.91179
▁समाज	-8.91273
▁रुवाथि	-8.91277
▁रोजा	-8.91283
▁थांदो	-8.91309
▁खुगायाव	-8.91546
फ्ला	-8.9156
▁लों	-8.91686
नायखौ	-8.91712
▁मावनाय	-8.91747
▁कलेज	-8.91804
▁मन्जुनि	-8.91924
थाव	-8.91973
▁खालामना	-8.92025
▁सासेया	-8.9213
▁बोहैथि	-8.92224
▁जेसेबां	-8.92416
सोर	-8.92533
▁नायहरो	-8.92543
▁बिथा	-8.92661
फै	-8.9273
▁हाय	-8.92946
▁आले	-8.93256
▁मुस्री	-8.93777
▁देरसिन	-8.93803
▁बावनो	-8.93901
ब्लानो	-8.93951
▁माब्रै	-8.93985
▁सोरखौ	-8.94167
▁2.	-8.94252
▁अनगायै	-8.94449
बोनाय	-8.94673
▁जोबथा	-8.94688
गौ	-8.94707
▁खु	-8.94903
▁आदै	-8.94949
▁जायोब्ला	-8.94981
▁गोदै	-8.95169
▁खाफाल	-8.95184
▁1	-8.95212
▁जुनै	-8.95249
▁मोनथाम	-8.95256
▁ब्रह्मनि	-8.95355
बु	-8.95516
▁मासे	-8.95564
गाव	-8.95672
▁गारनानै	-8.95716
▁स्रि	-8.95722
▁थिक	-8.95776
जायो	-8.95835
▁हादोरनि	-8.95851
हैयो	-8.96119
▁खामानियाव	-8.96273
दां	-8.96294
▁फालांगि	-8.9647
▁टेबिल	-8.96583
▁हादरनि	-8.96585
▁जायै	-8.96687
फैयो	-8.96718
▁दां	-8.96757
राम	-8.96769
▁बादियै	-8.96881
▁रावआव	-8.97017
ङो	-8.97054
▁नायो	-8.97187
▁बिहामजो	-8.97309
▁ने	-8.97629
▁हारिया	-8.97678
▁थाया	-8.97723
▁नागिरदों	-8.97736
▁एरैनो	-8.97768
▁सुथुर	-8.97833
▁नङामोन	-8.97988
▁होमबा	-8.98123
▁ओजों	-8.98272
खां	-8.98461
▁सिखाव	-8.98615
फु	-8.98698
▁हरो	-8.98753
▁हिनजाव	-8.98875
▁रागाजों	-8.98973
▁जेरैबो	-8.9898
▁माहाजोननि	-8.99076
▁सानैजों	-8.99129
▁साननो	-8.99164
गो	-8.99221
▁गार	-8.99335
▁बिफाया	-8.99364
▁नायहर	-8.99382
▁बबेखानि	-8.99432
▁थाला	-8.99491
▁हरनि	-8.99518
▁दावराव	-8.99625
▁खनसाया	-8.99654
▁मख	-8.9968
▁लाङो	-9.00053
......	-9.00237
▁मन	-9.00359
▁बो	-9.00369
▁हान्जा	-9.00373
▁आखाइयाव	-9.00448
▁सावराय	-9.00577
माया	-9.00889
▁अदेबानि	-9.00895
▁गोथां	-9.00905
▁बिखानि	-9.00953
निख्रुइ	-9.0096
▁माय	-9.01048
▁नागिर	-9.01068
▁सोरखार	-9.01118
▁देंखो	-9.01158
▁थांदों	-9.01231
ङाव	-9.0125
▁खन्थाइ	-9.01326
▁the	-9.01587
▁समान	-9.01613
▁नखरनि	-9.01646
▁खामानिखौ	-9.01959
▁दिहुन	-9.02006
▁खालाय	-9.02046
▁मुलुगनि	-9.02081
▁आखुथाय	-9.0219
▁बिष	-9.02429
▁दिन्थियो	-9.02493
▁मावग्रा	-9.02577
▁हनै	-9.02579
▁फिसौ	-9.02592
▁गाबा	-9.02602
मि	-9.02603
▁हमो	-9.02606
▁मादाव	-9.02613
▁दासिमबो	-9.02676
▁फैगोन	-9.02744
▁बुंगोन	-9.02828
होनो	-9.02903
▁हरनो	-9.03043
▁नं	-9.03123
▁आफाया	-9.0316
▁सै	-9.03171
▁गोथै	-9.03232
नां	-9.03276
▁लाबोनानै	-9.03288
▁सोरां	-9.03504
▁गियान	-9.03606
▁खें	-9.03751
▁जायनि	-9.03838
▁Window	-9.03892
राव	-9.03906
▁....	-9.04021
▁गाखो	-9.04176
▁जोंनो	-9.04182
▁लांनो	-9.04263
▁थादों	-9.04298
▁थिङै	-9.04307
▁सानस्रि	-9.0439
▁मलेनखौ	-9.04419
फिन	-9.04436
▁सोलो	-9.04439
▁खालामा	-9.04476
▁गुन्दाया	-9.04634
▁मोनदोंमोन	-9.0498
▁थानायाव	-9.04985
जोबो	-9.05005
▁फिसाजोखौ	-9.05076
▁आथिखाल	-9.05103
▁अख्रां	-9.05112
थों	-9.05154
▁आइजो	-9.05327
▁मोनब्ला	-9.05461
▁A	-9.05467
लायनाय	-9.05493
▁सोदोबनि	-9.05562
▁गले	-9.05628
गार	-9.05669
खु	-9.05676
ष्ट	-9.06049
▁बाव	-9.06092
▁अब्राम	-9.06183
▁सोमावसारनाय	-9.06214
▁हाबाया	-9.06253
▁इउ	-9.06273
लां	-9.06336
जासे	-9.06432
▁लांबाय	-9.06571
▁हरखाब	-9.06599
▁थांब्ला	-9.06643
▁गोरलै	-9.06661
▁सिनायथि	-9.06667
▁जुलि	-9.0667
▁तितागुरि	-9.06701
ता	-9.0671
▁जोब	-9.06798
▁होनायनि	-9.06857
▁नोंबो	-9.06882
▁फिसार्च	-9.06993
▁गुरै	-9.07018
▁बानु	-9.07033
▁दोर्सोन	-9.07042
▁सानराइ	-9.07045
▁गेब्ला	-9.07067
▁जोला	-9.07076
▁गोग्लैयो	-9.07195
▁थासारि	-9.07219
▁खालामनायनि	-9.07244
▁मानोबा	-9.07263
▁हाबाय	-9.07275
▁है	-9.07315
▁रांखौ	-9.07402
▁गसंनानै	-9.07424
▁बसुमतारी	-9.07843
▁बिदै	-9.07948
▁मिहिर	-9.08006
होनानै	-9.08043
हे	-9.08086
▁गोदोना	-9.08103
▁खन	-9.08181
जो	-9.08186
▁भारत	-9.08376
▁दुर्जां	-9.08391
▁गिदिद	-9.08567
श	-9.0859
▁बाजि	-9.08605
▁फावथायाव	-9.08657
▁सुख	-9.08671
▁सहाय	-9.08715
बर	-9.08747
ली	-9.08758
▁होदोंमोन	-9.08791
▁नागिरो	-9.08992
▁हारसिं	-9.09016
▁बोरैबा	-9.09063
▁बोसोरनि	-9.09123
▁15	-9.09163
▁थुनफावथाइ	-9.09226
▁थादोंमोन	-9.0929
लायनानै	-9.09322
▁गिनाय	-9.09361
खानाय	-9.0953
▁लामाजों	-9.09548
▁आलाइ	-9.09604
खाङो	-9.09743
द्	-9.10016
▁गन्थं	-9.10168
▁अनलाइन	-9.10171
▁सोरगिदिं	-9.10181
▁सानसेखालि	-9.10235
▁होन्ना	-9.10355
बोला	-9.10362
▁हेंथायै	-9.10371
▁बिफाननि	-9.10543
मार	-9.10608
खोमा	-9.10763
▁थौ	-9.10942
▁थाम	-9.11137
▁बेखायनो	-9.11147
▁फज	-9.11317
▁रामनाथ	-9.11327
>	-9.1136
▁सेंग्राया	-9.11376
▁थुनलाइनि	-9.11505
▁माहारिनि	-9.11518
▁थो	-9.11582
▁आलो	-9.1186
r	-9.1202
▁गाबै	-9.12081
▁बिबो	-9.1216
▁थेफेना	-9.12192
▁गिनानै	-9.12234
▁दाबि	-9.12343
▁रुम	-9.12361
▁रे	-9.12885
▁सिबाय	-9.12916
▁लाखि	-9.1294
▁हारिखौ	-9.13018
▁थाब्ला	-9.13028
▁फे	-9.13042
▁मावो	-9.13065
▁लोंनाय	-9.13077
▁दिनैसिम	-9.13251
▁निमाहा	-9.13489
▁बिजों	-9.13514
▁फट	-9.13664
▁माइथायनि	-9.13784
थे	-9.13797
▁मुंखौ	-9.13863
▁बिदाय	-9.13895
▁बेसेन	-9.13948
▁अखाफोर	-9.14011
▁फु	-9.14094
▁मुलुग	-9.14164
थु	-9.14168
▁रावा	-9.14168
िं	-9.14181
t	-9.14523
हरो	-9.14527
▁नांगोन	-9.14532
▁खान्थि	-9.14542
▁फार्से	-9.1459
▁बिलिफां	-9.14648
▁दानि	-9.14675
▁9	-9.14752
th	-9.14858
▁खाव	-9.14865
▁रान	-9.14896
नु	-9.14979
▁दंफां	-9.15135
▁ककराझार	-9.15156
▁बुंहरबाय	-9.15168
▁दोंसे	-9.15174
▁जारिमिनारि	-9.15205
▁मोननायनि	-9.1524
▁12	-9.15276
▁हय	-9.15306
▁सुखु	-9.1536
फिसा	-9.15403
▁होनब्ला	-9.15405
बोदों	-9.15425
▁जाथाइनि	-9.1544
▁गोजौवाव	-9.15464
▁जायखि	-9.15574
लिया	-9.15589
▁>	-9.15606
▁खाफालाव	-9.1563
▁बिनारामा	-9.15632
▁थुलुंगा	-9.15687
▁स्रां	-9.15722
फ्राव	-9.15787
▁रिंसार	-9.159
▁गैयामोन	-9.15978
▁बिजि	-9.16181
▁दैखां	-9.16191
रु	-9.16193
▁दाहोना	-9.16233
▁खानानै	-9.1632
▁बोर	-9.16355
▁फाग्लि	-9.16494
▁दाहार	-9.16567
सान	-9.16609
▁बादिनो	-9.16626
ग्रि	-9.16712
▁दाहा	-9.16739
जोब	-9.16771
▁रमा	-9.16776
▁फेलें	-9.16868
▁जैबोर	-9.16886
ग्रो	-9.1692
▁खामानिया	-9.1699
▁नाजानाय	-9.17081
▁मोनै	-9.17142
▁मिथि	-9.17161
▁नुजा	-9.17248
▁मलेननि	-9.17305
▁कलेजाव	-9.17309
▁गान	-9.17505
लायबाय	-9.17758
▁बेखेव	-9.17762
▁जानायाव	-9.17774
▁नुनाय	-9.17819
▁गोनांथि	-9.17861
▁फंसे	-9.17942
▁दौ	-9.18303
▁आवगाय	-9.18427
▁हारसिङै	-9.18612
▁मटर	-9.18613
▁मैगं	-9.18617
▁हार्सिङै	-9.18634
▁नेम	-9.18645
बानो	-9.18664
▁बाहागोआव	-9.18826
▁बोनाय	-9.18836
लांनाय	-9.1893
▁बिमाखौ	-9.18943
▁बान्था	-9.18972
▁अजितनि	-9.19008
▁खुसि	-9.19096
▁आदाया	-9.19337
▁गोबा	-9.19356
मायाव	-9.19359
▁राइजोफोर	-9.19397
▁फोरोंगिरि	-9.19398
बाबो	-9.19446
थाम	-9.19576
▁गावबा	-9.19592
▁गुन	-9.19694
▁मेगननि	-9.19764
ति	-9.20127
▁निउ	-9.2016
▁फोर	-9.20208
▁बिथोन	-9.20427
▁रोङै	-9.20433
▁20	-9.2049
▁बोरो	-9.20538
▁बैसो	-9.20554
▁मोन्नानै	-9.20607
▁आरति	-9.20821
▁खौरांखौ	-9.21062
▁नायहरनानै	-9.21117
▁जावलिया	-9.21131
▁फैया	-9.2115
लाइ	-9.21211
▁नांनाय	-9.21252
▁ओंखारनाय	-9.21382
▁बिर	-9.21405
▁सोरनि	-9.21582
▁बानाय	-9.21626
▁इराग्दावा	-9.21834
▁लोंनो	-9.21934
▁जाखां	-9.21937
▁खालार	-9.22009
▁सान्दों	-9.22009
बनानै	-9.22012
▁देहाखौ	-9.22021
▁आदब	-9.22095
▁हजों	-9.22119
▁फुङाव	-9.22213
▁गाबनाय	-9.22236
▁खाम	-9.22242
▁फरायनाय	-9.22281
▁दैमा	-9.22416
▁सौ	-9.22448
▁दाखालि	-9.22586
▁गेजेरावनो	-9.22626
▁आंखाल	-9.22702
▁होननाय	-9.22982
▁थाङोब्ला	-9.22988
▁राइजोखौ	-9.23055
थिङै	-9.23108
▁ओंथि	-9.23261
▁सिस्टेम	-9.23266
▁मोनाखै	-9.233
यैनो	-9.23301
▁अजयनि	-9.23317
▁हुरा	-9.23521
▁हरनाय	-9.23548
सिं	-9.23622
▁गाबज्रि	-9.23663
▁बेबादिनो	-9.2368
▁बान	-9.23683
▁आखुनि	-9.23856
स्रा	-9.23935
▁रुपा	-9.23978
▁स्कुल	-9.24066
▁बारि	-9.2408
▁हावरिया	-9.24085
▁दरजा	-9.24142
▁सरलाया	-9.24156
▁सान्नाय	-9.24169
▁सोरनिबा	-9.24245
▁18	-9.24398
।''	-9.24431
फुं	-9.24523
▁खानाइ	-9.24586
▁थैनाय	-9.24641
▁सुजुग्राया	-9.24646
▁थांना	-9.24867
▁खेब	-9.25022
▁थानायनि	-9.25066
▁मुंराय	-9.25204
▁फोजोब	-9.25287
▁बेदि	-9.25294
▁रंजालि	-9.2533
▁थाइलालि	-9.25331
▁जयो	-9.25349
डि	-9.2548
▁राग	-9.2554
िक	-9.25736
▁फिसाइ	-9.25851
▁सोंनाय	-9.25869
▁लोब्बा	-9.25936
▁बैसोनि	-9.25943
▁हाबलाङो	-9.2596
जानो	-9.26007
▁आयं	-9.26097
▁जानांगोन	-9.26187
▁3.	-9.26325
▁नाजा	-9.26696
▁होब्ला	-9.26712
▁बेयावनो	-9.26808
▁जारिमिन	-9.26881
▁लादोंमोन	-9.26904
▁दोननानै	-9.26915
▁फुंनि	-9.26976
▁जोबनाय	-9.27125
जाय	-9.27236
▁बिसार	-9.27442
▁नार्जारी	-9.27455
▁गोजान	-9.27479
▁एफ	-9.27643
▁अपारेटिं	-9.27835
याखै	-9.27836
▁मारजित	-9.27839
▁जखम	-9.27859
▁ऐ	-9.27867
▁रासिन	-9.27881
फि	-9.27897
▁मिरु	-9.27924
▁बिनाराम	-9.27948
बोयो	-9.28227
▁बोहैथिया	-9.28302
▁दाननि	-9.28324
▁आफादा	-9.28358
▁गोदोनि	-9.28368
बार	-9.28388
▁सिंनि	-9.28518
▁जोबो	-9.28569
जाथाव	-9.28576
▁लाबोनो	-9.28743
▁जिरायनानै	-9.28804
▁गोजां	-9.28988
▁लिरनानै	-9.29054
खै	-9.29208
▁अरुन	-9.29221
▁राजखान्थि	-9.29307
▁धोन	-9.29441
▁नंलिया	-9.29716
▁गोर्लै	-9.29786
▁मुंदांखा	-9.29787
▁थोर	-9.2979
▁खावसे	-9.29882
ाखै	-9.29952
▁हानजा	-9.29961
▁बबेबा	-9.30142
▁नोंसोरनि	-9.30149
बोथ	-9.30154
▁हायाव	-9.30223
▁असे	-9.30235
▁फिसाखौ	-9.30242
▁11	-9.30314
▁माबाफोर	-9.3042
▁थैबाय	-9.30661
▁मेगना	-9.3067
▁जाथाया	-9.308
▁बुथार	-9.30891
थिया	-9.31027
▁गाम्बारि	-9.31176
▁लाना	-9.31192
▁बिनिफ्राय	-9.31235
▁3	-9.31262
▁गोसोखां	-9.3138
▁डज	-9.31467
▁अन्नाय	-9.31526
▁आंलाय	-9.31527
कखौ	-9.31563
▁मोन्दों	-9.31637
▁दंबावो	-9.31665
फुनाय	-9.31753
▁मोखाङा	-9.31765
▁फादोर	-9.31777
▁गस्ला	-9.31785
▁ओंखायनो	-9.31814
▁कुमार	-9.31923
▁लुबैनाय	-9.31976
▁गाननाय	-9.31982
▁फोरों	-9.32
च	-9.32048
▁संसाराव	-9.32103
▁जिवाव	-9.32279
▁आल	-9.32505
▁गैयाब्ला	-9.32514
▁जोंथिखौ	-9.32587
▁फिसानि	-9.32603
▁आखुवा	-9.32806
▁नांनानै	-9.33003
▁सानदोंमोन	-9.33004
खर	-9.3301
▁नागार	-9.33134
▁गोहोम	-9.3316
▁गं	-9.33162
थारा	-9.33191
▁सायाराम	-9.33201
.......	-9.33319
▁माहारि	-9.33367
मु	-9.33425
▁बिसिखौ	-9.33438
▁गोजोननाय	-9.3348
▁फालो	-9.33556
▁जानायखौ	-9.33572
▁इंख्रि	-9.33689
▁मो	-9.33695
▁आनारीया	-9.33706
▁बाहायनो	-9.33771
▁जिबौ	-9.33812
▁गेट	-9.33813
▁जिनाहारि	-9.33823
▁बिगोमा	-9.33866
▁हाखु	-9.33966
▁खोनाबाय	-9.33968
▁फरायनो	-9.34011
▁गसं	-9.34014
▁फैदो	-9.34046
भ	-9.3407
▁मोदाइ	-9.34079
▁फोरजा	-9.34127
▁रन्जन	-9.34151
▁जालांबाय	-9.34172
▁फोथाय	-9.3424
▁हाबायाव	-9.34349
▁खोना	-9.34361
▁ओरैनो	-9.34401
▁फोथायनाय	-9.34403
▁खुगानिफ्राय	-9.34534
▁सोलायनाय	-9.34745
▁बिस	-9.34747
▁गां	-9.34809
▁सुर	-9.3486
▁माब्लाबानो	-9.3492
▁सोनाब	-9.35003
▁सोरजि	-9.35006
▁आसारि	-9.35073
थाइ	-9.35279
▁सैथो	-9.3534
▁जिं	-9.3547
राय	-9.35514
लांनो	-9.35532
▁रामोन्दा	-9.35654
▁गैयि	-9.3566
▁गोख्रै	-9.35709
स्रां	-9.35726
न्दा	-9.35772
▁चन्द्र	-9.35882
▁सोलोंथाइ	-9.35894
▁खनले	-9.35897
▁सिलागां	-9.35905
▁दौनांगौ	-9.35933
▁गोमा	-9.36174
▁भि	-9.36258
▁खनै	-9.3628
▁इयुन	-9.36349
▁फान	-9.36519
▁खानाय	-9.36566
▁राज	-9.36588
▁गि	-9.36636
▁दुब	-9.36779
▁बेराम	-9.3682
▁थब	-9.36828
▁बोराइ	-9.36965
जे	-9.37044
जौ	-9.37174
▁गर	-9.37244
▁लांनानै	-9.37248
▁रज	-9.37287
▁अलका	-9.37291
▁थबेन	-9.37319
▁गुसु	-9.37614
▁रजि	-9.37691
▁जानाया	-9.37699
▁नैथि	-9.37905
बिफा	-9.37917
▁काप	-9.3799
▁माइरं	-9.38013
▁निदान	-9.38031
▁मोनबा	-9.3804
▁औवा	-9.38076
▁लख्राया	-9.38156
▁बाराय	-9.38163
▁आजाव	-9.38168
▁लाबोयो	-9.38204
▁फोरमायो	-9.38236
▁मु	-9.38324
मोनब्ला	-9.38488
al	-9.38567
▁संसार	-9.38571
▁हारिमु	-9.38658
▁स्नि	-9.38688
▁महरा	-9.38817
▁लायै	-9.39011
▁रों	-9.39141
▁आया	-9.39192
नांबाय	-9.39365
▁लाहार	-9.39462
▁आंथ	-9.39536
▁बिफाखौ	-9.39701
▁मावनानै	-9.39933
▁सोदोबखौ	-9.39983
▁भ	-9.40062
▁खम	-9.40104
▁बिथिङाव	-9.4017
▁गुफुर	-9.40196
▁बन्द	-9.402
▁फैमाल	-9.40203
▁मोनाखिसै	-9.40223
▁बुंबावो	-9.40296
▁गथाय	-9.40299
▁दोनथ	-9.40314
जित	-9.40326
▁नायब्ला	-9.40363
▁लाबोनाय	-9.4041
▁थिं	-9.40503
▁राइजोआव	-9.40529
▁गावबुराया	-9.40559
फानाय	-9.40684
लाम	-9.40755
हालागै	-9.4081
▁लांनाय	-9.40844
थाब	-9.40938
▁मोनफ्रोम	-9.4098
हाबो	-9.41003
यालाय	-9.41004
▁खेव	-9.41193
▁गेले	-9.41206
▁दु	-9.41258
आइ	-9.41388
▁खुरै	-9.41409
▁दिनैनिफ्राय	-9.41442
▁ओंखारबाय	-9.41669
▁मोन्नै	-9.41682
माव	-9.41713
हैबाय	-9.41974
▁हाल	-9.42035
▁दाम	-9.42111
▁ददेरे	-9.42126
होनाय	-9.42223
रो	-9.42268
हाब	-9.42413
निखुरै	-9.42423
देर	-9.42428
▁मेम	-9.42484
▁पास	-9.42497
▁थबसि	-9.42609
▁आगोर	-9.42633
▁खालामनायाव	-9.42664
▁गुर	-9.42742
▁फैफिन	-9.42764
▁डिस्क	-9.42783
मोननि	-9.4283
▁हांखोनि	-9.42864
▁सायख	-9.42899
▁आमाइ	-9.42964
▁समा	-9.43004
▁सिगारेट	-9.43191
▁गो	-9.43432
▁रा	-9.43453
▁उन्दुनो	-9.43498
वारीया	-9.43734
▁बिजाबखौ	-9.43835
▁नार	-9.43876
सिगोन	-9.43884
▁रि	-9.43974
▁उदु	-9.44033
▁दमना	-9.44157
▁हेलाराम	-9.44169
▁खां	-9.44173
(	-9.44191
▁मोनाबिलि	-9.44275
▁अरायबो	-9.4429
▁फोलेर	-9.44345
▁बिहोमा	-9.44631
▁6	-9.44639
▁आथिङाव	-9.44646
▁मुङै	-9.44652
▁जाम्बा	-9.44701
▁बेरखांदों	-9.44749
▁बेल	-9.44811
▁एसेल	-9.44914
▁बानायसो	-9.45026
▁थाद	-9.45062
o	-9.45068
▁होदो	-9.45166
▁बान्दि	-9.45219
▁गाइखेर	-9.45235
▁नाजादोंमोन	-9.45241
▁लाइफां	-9.45283
▁बिलिफांनि	-9.45343
▁ओंखारो	-9.4545
▁खालामनांगौ	-9.45505
▁ओ	-9.45511
थारबाय	-9.45549
▁नोंजों	-9.45682
▁सोब	-9.45721
▁4	-9.45807
▁सानजा	-9.45869
खे	-9.46068
▁रावै	-9.4609
▁गोसोयाव	-9.46166
▁गोसा	-9.46235
जागोन	-9.46239
आदा	-9.46274
▁आखाइनि	-9.46377
▁सिंनिफ्राय	-9.46419
▁19	-9.46422
▁हरबाय	-9.46458
▁मानसिफोरखौ	-9.46488
जोब्बाय	-9.46515
गोनां	-9.46531
▁बोरसि	-9.46559
▁जोमै	-9.46685
▁नाजादों	-9.46779
▁गुलि	-9.46844
▁थैनायनि	-9.4687
▁देग्लाय	-9.46941
▁मावरिजा	-9.46941
▁दर	-9.46941
▁इन्दुप्रभा	-9.46949
फायो	-9.46951
▁आलादा	-9.46982
▁सानफ्रोमबो	-9.46999
▁बिब	-9.47007
▁हले	-9.47011
▁दैयाव	-9.47034
मो	-9.47037
▁7	-9.47086
▁लिंहर	-9.47117
▁नुदों	-9.47141
▁गोमो	-9.47168
▁बेबायदि	-9.47248
▁महरखौ	-9.47275
▁रोखोम	-9.47285
नाथाय	-9.4729
▁4.	-9.47429
लेण्ड	-9.47448
▁मोखांखौ	-9.47458
मान	-9.47527
▁थारैनो	-9.47595
▁हिन्जावनि	-9.4768
9	-9.47792
▁दिनैनि	-9.47796
▁नखराव	-9.478
▁हमथा	-9.47813
▁नागिरनानै	-9.47889
▁ध	-9.48048
▁गैला	-9.48056
जाब	-9.48078
i	-9.48313
▁सिख्लाया	-9.48339
▁थेर	-9.48389
▁सोलि	-9.4839
दार	-9.48495
्नानै	-9.48495
▁आवथाय	-9.48598
▁लायनो	-9.48722
▁गोमजोर	-9.48778
▁होन्नाय	-9.48788
▁होआ	-9.48864
▁बेरखां	-9.4896
▁नंला	-9.49001
▁अनारि	-9.49025
▁जाथायखौ	-9.49281
▁ज्राम	-9.49308
▁राफोद	-9.49309
▁असमीया	-9.49327
▁जारौ	-9.49399
▁प्रेमधरा	-9.49416
▁जालां	-9.4947
▁सोदोबथि	-9.49492
▁दोनो	-9.49524
▁बोरमा	-9.4957
होयो	-9.49623
जेन	-9.49715
▁खथा	-9.49738
▁जालाय	-9.49891
▁गावसोर	-9.49921
▁आरतिया	-9.49933
▁सोरजिनाय	-9.49968
▁थानांगौ	-9.49975
खराव	-9.50002
▁नाइ	-9.50024
▁थाग्रा	-9.50068
▁C	-9.50144
▁थुंग्रि	-9.50211
▁राम	-9.50258
ed	-9.50292
▁कमाण्ड	-9.505
▁बाला	-9.50546
▁अनसाय	-9.50559
),	-9.50623
▁नुहर	-9.50643
मे	-9.5082
▁जाब	-9.51028
▁गिलिर	-9.51305
▁गनाय	-9.51418
▁बख	-9.51478
▁फुन	-9.51529
▁हांगार	-9.51674
ेल	-9.51729
▁नेर्सोन	-9.51732
▁मोखाङै	-9.51733
▁मावरिया	-9.51749
▁and	-9.51794
▁गिलास	-9.51807
▁साम	-9.51843
▁गोमजोरै	-9.5187
▁बुंजायो	-9.51872
▁फारियै	-9.51939
▁आसा	-9.51941
▁इसिं	-9.51952
▁बमा	-9.52025
▁हान्जाया	-9.52035
▁गोलै	-9.52179
▁ओंथिया	-9.52328
▁नाङै	-9.52423
▁लिरगिरि	-9.52587
▁बायजो	-9.52667
▁हरदों	-9.5268
▁नाजायो	-9.52723
▁मेलेम	-9.52847
▁मोनाब्ला	-9.52868
▁बयनि	-9.52883
▁लासैनो	-9.52985
नांदों	-9.53008
▁बाथ्रायाव	-9.53027
▁साखाथियाव	-9.53086
▁च	-9.53093
d	-9.53136
▁नङाना	-9.53176
▁प्रग्राम	-9.53223
▁बायनानै	-9.53339
▁मोनथि	-9.53414
▁बिबारि	-9.53428
▁फावथाइगिरि	-9.53613
▁लाइफांनि	-9.53659
▁उनावसो	-9.53682
▁जाथायनि	-9.53686
▁मिनिनानै	-9.53766
▁खाथिनि	-9.53822
दाखु	-9.53827
▁मैदेर	-9.5383
▁इंराजी	-9.53944
▁बिजिरनाय	-9.53968
▁फाइल	-9.53973
▁बिनहारी	-9.54007
▁बोखां	-9.54024
▁गिलु	-9.54167
नङा	-9.54185
▁मुलाम्फा	-9.54219
▁सानफ्रामबो	-9.54237
▁अफिसार	-9.54277
▁जोंरुवा	-9.54317
▁अमला	-9.54416
▁थाय	-9.54434
▁थे	-9.54435
▁सुबुङा	-9.54459
कि	-9.5457
▁लुबैया	-9.54604
▁बसुमतारीनि	-9.54629
▁होन	-9.54649
फोराबो	-9.54727
▁हरा	-9.54769
द्राय	-9.54789
वाबो	-9.5479
▁लाव	-9.54797
▁थाबैनो	-9.54823
▁लागोन	-9.54898
▁राजाया	-9.55018
नाइ	-9.55189
▁बोयो	-9.55267
▁दिहुननाय	-9.5538
▁खावलाय	-9.55427
ेश्वर	-9.55431
▁जिवा	-9.55436
▁सेरजा	-9.55499
▁बानजाय	-9.5562
▁मुगानि	-9.5565
दु	-9.5568
▁लोब	-9.55702
▁फिसाजोनि	-9.5581
▁दरजाखौ	-9.55811
▁रंफाली	-9.55829
▁एंगार	-9.56084
▁नागिरनाय	-9.56116
जोबनो	-9.56194
▁बोसोन	-9.56332
सानजा	-9.56387
▁दैदेनगिरि	-9.56388
▁दाबसे	-9.56448
▁होना	-9.56455
थौ	-9.56565
▁सिनायनो	-9.56579
▁जाना	-9.56602
▁मिनिनाय	-9.56611
▁बाथौ	-9.56655
गे	-9.56736
▁बेरेखा	-9.56743
▁खोन्दो	-9.56753
▁डाः	-9.5677
▁थांदिनि	-9.56815
▁भकत	-9.56818
▁नायगिर	-9.56823
▁जुदा	-9.56895
▁थियारि	-9.56895
▁सिब	-9.56939
बुं	-9.57012
▁होफै	-9.57034
▁थिग	-9.57054
▁अफिसाव	-9.57124
▁गोग्लैनाय	-9.57302
▁मिनियो	-9.57309
▁सालि	-9.57391
▁थेफेन	-9.57391
▁नाङो	-9.57422
▁लिरगिरिया	-9.57465
▁हाथाय	-9.57499
▁समाजाव	-9.57543
▁गासे	-9.57643
▁बन	-9.57677
▁थाबनो	-9.57682
▁आन्दाया	-9.57683
▁बेगर	-9.57751
फ्राय	-9.57764
▁दावहायाव	-9.57771
▁रंजालिया	-9.57774
▁लोंनानै	-9.57872
▁ददेरेखौ	-9.57954
▁रायज्लाय	-9.57968
▁जिरायनाय	-9.58013
▁बोनानै	-9.58018
▁थिनहर	-9.58191
▁16	-9.58233
▁त	-9.58433
▁मन्जु	-9.58457
▁बुरै	-9.5846
▁हिन्जावा	-9.58461
▁सिमा	-9.58471
▁थांखिनानै	-9.5852
ब्रै	-9.58525
▁दावगा	-9.58561
▁सर	-9.58582
▁गावथार	-9.58617
▁खोथाया	-9.58636
▁मानसिफोरनि	-9.58689
▁हांखोखौ	-9.58691
▁आखाय	-9.58761
▁कासार	-9.58779
▁दार	-9.5878
▁सैबारी	-9.58814
▁फावथाइखौ	-9.58874
▁देरहाग्रा	-9.5888
रन्जन	-9.58892
▁रु	-9.58899
.........	-9.58933
▁ददेरेनि	-9.58934
▁देर	-9.58967
▁फालि	-9.59016
▁नङाबा	-9.59031
▁समाया	-9.59153
▁नुवा	-9.59291
▁थावनि	-9.59334
ार	-9.59338
▁आखाइजों	-9.59346
▁मोब्लिब	-9.59379
▁(1)	-9.59379
▁(2)	-9.59379
▁एम्बु	-9.59385
▁संख्रि	-9.59387
▁सन्देह	-9.59389
▁क्लास	-9.59404
सं	-9.59441
▁नायै	-9.59456
▁सोंनो	-9.59503
▁बांला	-9.59624
जु	-9.59764
▁मोनजा	-9.59859
हायै	-9.59969
▁महराव	-9.60027
▁गरम	-9.60036
▁अजितखौ	-9.60075
▁सैया	-9.60155
▁इं	-9.60157
or	-9.60259
लायनो	-9.60397
▁बुंब्ला	-9.60436
a	-9.6045
▁गेवलां	-9.60534
छा	-9.60551
जानानै	-9.60752
ावनो	-9.60881
▁लाइ	-9.60923
कनि	-9.60923
खायो	-9.60976
िया	-9.61052
खांबाय	-9.61054
▁माखौ	-9.61128
▁शान्तिनि	-9.61155
▁लामाखौ	-9.61164
ौ	-9.61205
▁दुखुजों	-9.61244
▁गाबनानै	-9.61358
आफा	-9.61409
नाङो	-9.61409
▁खालामब्ला	-9.61516
▁ट्राइबेल	-9.61566
▁जाम्बि	-9.61705
फिनबाय	-9.61821
▁बेंगा	-9.61853
▁सना	-9.61936
▁बामुन	-9.62067
▁ट्राक	-9.62102
▁जुजि	-9.6215
▁सुबुंसाइ	-9.62155
▁खुलुम	-9.62162
▁मनजुवा	-9.6218
▁थोंजों	-9.62234
▁23	-9.62257
ष	-9.62388
▁होग्रा	-9.62399
▁समानै	-9.62426
▁गावबुरा	-9.62453
▁ओंखारनानै	-9.62502
▁गोराया	-9.62516
▁खथायाव	-9.6252
▁खब	-9.62524
गौमोन	-9.62547
साइ	-9.62681
▁गोर्बो	-9.62797
▁गोगोम	-9.62803
▁कल्पनानि	-9.62849
▁दुं	-9.62893
दाव	-9.62918
▁दैया	-9.62929
▁उजि	-9.6323
▁बिनिखायनो	-9.63349
▁बाहायनानै	-9.63405
▁कलि	-9.63474
▁......	-9.63503
▁फैसालि	-9.63554
▁सालाय	-9.63559
लायखो	-9.63669
▁आखुखौ	-9.63757
▁अफिस	-9.63798
▁हिन्जावसा	-9.6392
▁हरनानै	-9.6397
लांदों	-9.63985
▁फारनै	-9.63986
▁उननि	-9.64069
न्द	-9.64073
▁थाथ	-9.64482
फेर	-9.6458
▁गुन्दाखौ	-9.64789
▁बेरखाङो	-9.64823
▁बुंना	-9.64836
▁एफाग्राब	-9.64844
▁स्रें	-9.64844
▁खिन्थि	-9.64878
▁सानथौ	-9.64904
▁बांगाल	-9.64921
▁सुजुग्रा	-9.64961
▁जाहोन	-9.64995
▁जायाखिसै	-9.65027
▁नैबे	-9.65039
▁स्रोद	-9.65062
ये	-9.65065
▁लाबोदों	-9.65089
▁शंकरा	-9.65105
▁दुइ	-9.65122
▁आन्दा	-9.6519
▁दानसे	-9.65257
▁रौ	-9.65292
▁बेफोरनि	-9.65352
▁बिफांनि	-9.65355
▁लं	-9.65358
▁देरहाग्राया	-9.6539
▁?'	-9.65398
▁आखाइखौ	-9.65557
▁फैदोंमोन	-9.65585
खौसो	-9.65658
खाबाय	-9.65658
▁आखलखौ	-9.65661
फ्ले	-9.65708
▁गोबानानै	-9.65765
▁मोन्नो	-9.65796
▁मीनारामा	-9.65835
▁दावबाय	-9.65837
▁फंसेबो	-9.65896
▁आसामाव	-9.65918
▁गलाय	-9.65968
टा	-9.66032
▁सारि	-9.66046
▁एर	-9.6606
▁कु	-9.66091
▁बथल	-9.66296
▁हायोब्ला	-9.66364
▁.....	-9.66391
▁दखना	-9.6641
▁सिलाइ	-9.66443
▁खुदिया	-9.66534
▁जौगा	-9.66584
▁बेसाद	-9.66894
रौ	-9.66909
▁रायलायनाय	-9.66927
▁साब	-9.66949
▁8	-9.67097
▁बेलासि	-9.67243
फाथै	-9.67248
▁लाइमोन	-9.67258
▁थाखोमा	-9.67347
▁खौसे	-9.67367
▁खोब	-9.67368
!	-9.67409
}	-9.6748
▁श	-9.67635
▁बिहाव	-9.6764
▁दरखं	-9.67659
▁थान्दै	-9.67659
▁नार्जा	-9.67661
▁खफ	-9.67663
▁साबायखर	-9.6767
▁जात्रा	-9.6768
▁लांदां	-9.67694
▁गोरिब	-9.67699
▁गरन्थ	-9.67702
▁फाफ्लियाव	-9.67736
▁महनलाला	-9.6775
▁जिब	-9.6775
▁बेदद	-9.67766
▁हमदों	-9.67788
▁सुशान्तवा	-9.67838
▁अरखि	-9.67889
▁फुजा	-9.67976
▁नोमा	-9.67979
▁मावथि	-9.67993
▁दिखांनानै	-9.68163
खायनो	-9.68251
▁बिगियान	-9.68352
▁जाहार	-9.68436
▁अलकाया	-9.68468
▁बाहायो	-9.68557
▁दोन्	-9.686
▁बुजि	-9.6861
जोबबाय	-9.68615
▁हामा	-9.68645
▁24	-9.68733
▁गाखोनानै	-9.68746
▁जिनिस	-9.68857
▁सुबुंफोरा	-9.6897
पा	-9.69036
▁थांफा	-9.69068
▁बुंस	-9.69107
▁बहन	-9.69198
▁सालिस	-9.69368
▁मेगननिफ्राय	-9.69372
0	-9.69436
▁दिन्थिनानै	-9.69452
▁बानजायनाय	-9.6954
▁रावनिबो	-9.69675
▁गावसोरनि	-9.69888
▁थायोब्ला	-9.69951
फां	-9.69968
थारदों	-9.69977
▁साथाम	-9.70032
▁आंनाव	-9.70064
▁गारनो	-9.70094
▁गसाइ	-9.70129
मुं	-9.70131
नंगौ	-9.70139
▁पुलिसनि	-9.70175
▁बेखौबो	-9.70229
▁सिबि	-9.70263
मै	-9.70302
दिया	-9.70395
n	-9.70552
▁लेब	-9.70571
▁जाहाथे	-9.70579
▁सिनेमा	-9.70582
▁जाउनाव	-9.70602
▁बिथिं	-9.70605
ज्लाय	-9.70609
▁रायजो	-9.70615
▁जाथों	-9.70617
▁निजोम	-9.70618
सिनो	-9.70659
▁डेभिद	-9.7074
▁रोंगौ	-9.70756
▁उन्दुग्रा	-9.70778
▁फरायसालियाव	-9.70791
▁हालिया	-9.70801
▁हाबहै	-9.70812
▁लांगोना	-9.70831
▁अनिमाया	-9.7085
▁रोनाव	-9.70866
साव	-9.70872
ैनो	-9.70888
▁लो	-9.70943
▁मोदाय	-9.70944
नाङा	-9.70954
▁थं	-9.71027
▁सिबिनाय	-9.71028
साय	-9.71205
▁गेव	-9.71236
▁शान्ति	-9.71244
▁मारि	-9.71278
▁13	-9.71283
▁मेगनजों	-9.71289
▁थिउरियाफोर	-9.71341
▁मोसानाय	-9.71343
▁आइयै	-9.71354
▁मिथिंगा	-9.71383
▁दुगै	-9.71444
▁बुङा	-9.71452
▁आइजोआ	-9.71465
▁.........	-9.7161
▁मोनजाया	-9.71789
▁S	-9.71797
▁बोरायनि	-9.71898
▁नन्द	-9.71943
बेबा	-9.71967
▁अजा	-9.7208
▁खारखोमा	-9.72082
बै	-9.72221
▁हमनाय	-9.72455
▁दानस	-9.7248
▁खालामदोंमोन	-9.72529
▁..	-9.72642
▁बोसोराव	-9.72665
▁खुगाजों	-9.72782
▁साननाया	-9.72884
▁सौफै	-9.72977
▁सिलाराम	-9.72981
▁मेल	-9.73018
▁आफानि	-9.73042
▁लानायनि	-9.73044
▁फारसेथिं	-9.73176
री	-9.73215
लोंनाय	-9.73361
▁सानथाम	-9.73433
▁देवान	-9.73464
▁नम्बर	-9.73526
स्ट	-9.73572
▁दाफोदार	-9.73587
▁to	-9.73588
▁नोङो	-9.73598
▁लोङो	-9.736
▁कमिटि	-9.73623
▁गंनै	-9.7365
▁दंखायो	-9.73651
▁अन्थाइ	-9.73678
▁सोमदोन	-9.73699
▁गुसुं	-9.73726
▁हिन्जावखौ	-9.73752
▁आगु	-9.73756
▁दुम	-9.73772
▁नुवाखै	-9.73775
▁देरा	-9.7379
▁होफैयो	-9.73802
▁होनांगोन	-9.73826
▁बुजिबाय	-9.73829
▁खाजा	-9.73843
मोनब्लाबो	-9.73863
▁एसेयावनो	-9.73867
▁मनजुलाया	-9.73879
▁बासि	-9.73989
न्नानै	-9.74092
दान	-9.74151
▁सान्दोंमोन	-9.74236
▁ब्रह्मवा	-9.74254
▁सामलाय	-9.74263
▁ओंखारबो	-9.74292
▁फरायो	-9.74353
▁होखार	-9.74377
▁इस	-9.74387
बाथाय	-9.74399
▁गुबैयै	-9.7444
दाब	-9.74457
▁सायारामा	-9.74486
▁कि	-9.74498
▁देहाया	-9.7451
▁एइ	-9.74584
दाहा	-9.74699
▁रादाब	-9.74766
▁जाखांनानै	-9.74807
▁गाय	-9.7488
▁निफ्राय	-9.74887
▁कम्पिउटारखौ	-9.75005
▁लिं	-9.75059
▁लैथो	-9.75059
▁मुगै	-9.75065
▁फावथिनानि	-9.75074
एसेयाव	-9.7516
▁खे	-9.75305
ल्ला	-9.7545
▁मिथिंगानि	-9.75508
▁दिहुननो	-9.76002
खौल	-9.76017
▁दरबासि	-9.76147
बावबाय	-9.76202
सानराय	-9.7626
ेन्ट	-9.76335
▁अन्दर	-9.76371
ेन	-9.76388
▁थानाया	-9.76408
▁गोहोखौ	-9.76442
▁फिसाइनि	-9.76449
▁25	-9.76466
▁बारनाय	-9.76497
▁मानसिजों	-9.76517
▁गोथाव	-9.7655
जोबनानै	-9.76617
▁मिथिहो	-9.76677
▁(3)	-9.76688
▁खामफ्लाय	-9.76698
▁आबुङै	-9.76702
▁का	-9.76709
▁ब्लद	-9.76715
▁अनसुला	-9.76739
▁फेस्ला	-9.76757
▁फावथाया	-9.76782
▁गारिखौ	-9.76786
▁आग्रां	-9.76791
▁खुलि	-9.76809
▁बुङै	-9.76834
▁गिलुं	-9.76837
▁बांसिनानो	-9.76846
▁17	-9.76855
▁गोखा	-9.76876
▁you	-9.76877
▁बिथांखि	-9.76888
▁क्र	-9.76914
▁बैसोआ	-9.76979
▁22	-9.76988
▁जालाङो	-9.77002
▁फैयाखै	-9.77003
▁is	-9.77072
▁राइजोफ्रा	-9.77201
▁नांनो	-9.77222
▁गियो	-9.77233
▁दोनबाय	-9.77289
सौ	-9.77296
गासे	-9.77335
द्ला	-9.77399
▁बारनानै	-9.77401
▁लाजिनाय	-9.77417
▁लिरनो	-9.77483
▁उदैयाव	-9.77617
▁सिफाय	-9.77636
▁सेथि	-9.77715
▁हुगार	-9.77784
▁गब	-9.77819
▁सिलानि	-9.77827
खिसै	-9.77884
▁थांलाय	-9.77909
माखौ	-9.77936
▁लामानि	-9.7796
▁स्रा	-9.78066
▁गे	-9.78069
▁मेम्बर	-9.7815
▁सानैनि	-9.78193
▁हाखर	-9.78241
▁हमथानो	-9.78255
ेन्द्र	-9.78315
थारगोन	-9.78319
▁21	-9.78323
▁ननि	-9.78398
▁बिलो	-9.78408
▁बायनाय	-9.78564
▁साल	-9.78665
▁आमाय	-9.78848
▁एमाव	-9.79059
▁जाथाइखौ	-9.79062
▁हुदा	-9.79065
▁खै	-9.79139
▁;	-9.79139
हैनो	-9.7918
▁हायना	-9.79239
▁थाइजा	-9.79318
▁5.	-9.79373
▁माबादि	-9.79422
▁सोद्रोमा	-9.7944
बालानो	-9.79444
▁लोरबां	-9.79475
▁खालामनाया	-9.79487
न्स	-9.79494
▁देगार	-9.79526
▁खनसाय	-9.79542
▁I	-9.79585
▁हाबफै	-9.79592
फैदों	-9.79595
▁देरहासार	-9.796
▁आदार	-9.7966
▁बाथि	-9.79684
खादों	-9.79719
▁गेलेनाय	-9.79827
▁खोनासंनो	-9.7983
इं	-9.79867
▁जोंथि	-9.79874
▁गोलाउ	-9.79888
▁एखनब्ला	-9.7989
▁फुदुं	-9.79893
▁बाटन	-9.7991
▁अनुलेखा	-9.79913
▁खिरखि	-9.79928
▁दाब	-9.7993
▁समायस्री	-9.79936
▁बिदिन्थि	-9.79938
▁रेजें	-9.79953
▁लाखिनाय	-9.79978
▁ब्रै	-9.79985
▁मुगा	-9.80011
▁गेदेमा	-9.80013
▁होलाङो	-9.80071
▁दोनदों	-9.80081
▁आगदा	-9.80095
▁गोमोथाव	-9.80101
▁जागौमोन	-9.80187
▁गाबदों	-9.80217
▁दिल्ली	-9.80226
▁मोदोमनि	-9.80247
▁जेखौ	-9.80274
▁बोहै	-9.8029
▁सुमिलाया	-9.80334
फिन्नो	-9.80371
▁कल्पनाखौ	-9.80377
▁ओइ	-9.8038
▁फैलाव	-9.80385
▁जेंनाखौ	-9.80393
▁मोन्नायनि	-9.80441
▁गोजोनै	-9.80474
▁गाजा	-9.80557
▁रावखान्थि	-9.80627
▁खैफोदाव	-9.80735
........	-9.80771
▁सोलों	-9.80866
▁14	-9.80892
▁जोबबाय	-9.80943
st	-9.81001
▁लख्रानि	-9.81021
फाव	-9.81026
▁तुलारामा	-9.81131
--"	-9.81184
▁बुजिनो	-9.81213
on	-9.81329
▁सोरबाफोर	-9.81439
▁गाहामै	-9.81595
▁सोदोबा	-9.81686
▁मोनथाय	-9.81716
जादों	-9.81797
▁बेमारि	-9.81836
▁थांखिया	-9.81921
योब्ला	-9.81946
▁फोसावनाय	-9.8202
▁अफिसनि	-9.82106
आरि	-9.82108
▁थाखा	-9.82178
स्	-9.82265
जाया	-9.82494
ेट	-9.82531
▁मुवाफोर	-9.82608
▁सियाल	-9.82652
▁जेकेट	-9.82663
▁जाफुं	-9.82708
▁फिननाय	-9.82708
▁गाबनो	-9.82783
▁जायफोर	-9.82863
▁रिंगा	-9.82887
▁केस	-9.82897
▁थर	-9.83041
▁बय	-9.83061
▁घन्टा	-9.83074
▁{-	-9.83194
▁गिज्रा	-9.83194
▁थ्रोब	-9.83194
▁दर्बासि	-9.83194
▁गिलिद	-9.83195
ल्ड	-9.83211
▁नेरसोन	-9.83213
▁आहार	-9.8322
▁बयखौबो	-9.83234
▁ई	-9.83235
नायबादि	-9.83249
▁गसङो	-9.83265
▁बाथुवाया	-9.83311
▁खरसा	-9.83349
▁फुं	-9.83385
▁फाहामसालियाव	-9.83412
▁ओंखारदों	-9.83413
▁माइनाव	-9.83438
▁फाथो	-9.8344
▁लिरदों	-9.83466
▁खोला	-9.83476
▁नुब्ला	-9.8348
▁रुमनि	-9.8359
▁जौमोन	-9.83603
▁सोमजि	-9.83613
▁रबिबार	-9.83626
▁भारतनि	-9.83653
▁मुगायाव	-9.83671
▁रथ	-9.83711
▁नुदोंमोन	-9.83712
▁सियाला	-9.83756
▁हाव	-9.8378
▁फोलाव	-9.83783
▁फोसाव	-9.83785
▁बाबुवा	-9.83791
फेरा	-9.83805
▁खाथियावनो	-9.83814
▁लाइन	-9.83847
▁दिन्थिदों	-9.8386
..........	-9.83879
▁सिम	-9.83906
▁होनायाव	-9.84006
▁में	-9.84021
▁सोरखारा	-9.8407
▁जिबा	-9.84076
▁गोर	-9.84094
▁क्ल	-9.841
▁नागारनानै	-9.84149
▁सफा	-9.84154
▁लांदों	-9.84275
▁सानाय	-9.84324
बोबाय	-9.84343
▁बिथ	-9.84385
▁बानानै	-9.84439
▁सिखा	-9.84453
▁लामाया	-9.8461
▁थैयो	-9.8462
▁ओरै	-9.84704
▁होयै	-9.85175
▁लोगोआव	-9.85183
बिफानि	-9.8524
▁लुनानै	-9.8528
▁जान	-9.85318
▁खिन्थानो	-9.85418
▁बुनानै	-9.85452
▁बिब्दिब्ला	-9.85456
▁जारिमिनखौ	-9.85474
▁आनारामा	-9.85576
▁लाया	-9.85589
▁दैथुन	-9.85627
▁कासारनि	-9.8563
▁राणी	-9.85746
▁बायनो	-9.85792
▁गारिनि	-9.85814
▁सेन्देल	-9.85892
▁दासिम	-9.85949
2	-9.85993
▁बाजुराम	-9.86025
▁थाल	-9.86068
▁बिखाय	-9.86084
A	-9.86158
▁दंना	-9.86301
आरो	-9.86335
▁बसुमतारि	-9.86449
जोम	-9.86461
सान्दो	-9.86468
▁साजाय	-9.86499
ब्र	-9.86512
▁हिसाब	-9.86547
▁सान्दुं	-9.86614
▁दोहोरोम	-9.86615
▁नेहाथारि	-9.86615
▁अख्राङाव	-9.86621
▁मथर	-9.86642
▁रोमै	-9.86647
▁हादोरगिरि	-9.86653
▁हाबिला	-9.86719
▁गोजाव	-9.86729
▁उसाव	-9.86751
▁बेन्दों	-9.86756
▁बोखार	-9.86764
▁सरखार	-9.86797
▁हायि	-9.86829
▁थिन	-9.86868
▁हाजासे	-9.86923
▁दालाइ	-9.86924
▁दासान	-9.86941
होबाय	-9.86981
▁माखन	-9.87012
▁मानसिफोर	-9.87093
फे	-9.87156
फोरनो	-9.87173
▁गोहोआ	-9.87185
▁मिथिखा	-9.87204
▁फरायसालिनि	-9.87213
▁बिसिनायाव	-9.87227
▁मोननाया	-9.8728
▁हमना	-9.87337
▁मोन्नाया	-9.87438
▁हायाखैमोन	-9.87441
▁खनायाव	-9.87443
▁दाजाब	-9.87555
▁फो	-9.87599
▁एबसुनि	-9.87656
▁मोदोमखौ	-9.87752
▁नागिरदोंमोन	-9.87778
▁सेख	-9.87791
▁उसु	-9.87893
▁लुबै	-9.87952
▁फुंखा	-9.88018
▁बावदियानि	-9.88079
▁राइजोफोरा	-9.88113
▁मन्जुखौ	-9.88181
▁जोबनो	-9.88207
▁अफ	-9.88224
्स	-9.88296
▁फाफ	-9.88318
खांनायनि	-9.88448
▁नायजाबाव	-9.88471
▁अनाथीया	-9.88536
गां	-9.8855
▁दालाय	-9.88684
▁फोजोबनो	-9.8879
3	-9.88846
▁हागौमोन	-9.88947
▁गोनांदि	-9.88968
ाखिसै	-9.88978
हैनाय	-9.89023
▁हामो	-9.89044
▁सान्नाया	-9.89049
लेण्डनि	-9.89226
▁सोरजों	-9.89376
▁जोंनानै	-9.89466
▁जान्जि	-9.89493
▁अलकाखौ	-9.89512
▁गदाय	-9.89526
▁बिसोरबो	-9.89595
▁मुजु	-9.89654
▁फाराग	-9.89763
गोरा	-9.8981
▁उन्दुनाय	-9.89906
▁बेराय	-9.89924
▁नङालै	-9.89985
▁बिबानखौ	-9.90096
▁एम्फौ	-9.90153
▁बारान्दायाव	-9.90154
▁मोख्रा	-9.90159
ust	-9.90163
▁एसेग्राब	-9.90171
▁सावरायनाय	-9.90188
▁मोगा	-9.90207
▁खास्रि	-9.90207
▁बुजाय	-9.90215
▁दंसै	-9.90219
▁गिथाव	-9.90226
▁बाराद्राय	-9.90239
▁जोङो	-9.90243
▁बुंनायसाय	-9.90246
▁ओंखारबोयो	-9.90306
▁हुगारो	-9.9031
▁in	-9.90326
▁दाइन	-9.90331
ने	-9.90332
▁फुथु	-9.90358
▁फोथाराव	-9.90359
▁अरखिया	-9.90406
▁हानो	-9.90431
▁मोनब्रै	-9.90437
▁थानांगोन	-9.9045
▁बायदियै	-9.90453
▁जेसे	-9.90468
▁सेंग्राफोर	-9.90472
▁जेनबा	-9.90477
▁सिखारो	-9.90485
▁नेबाय	-9.90546
▁गावबो	-9.90557
▁दिनैबो	-9.90604
▁मेलाव	-9.90612
▁ड्र	-9.9063
▁दैमानि	-9.90672
▁हाइ	-9.90678
सम	-9.90708
▁बेवहायनो	-9.90836
▁.......	-9.90878
▁नायहरबाय	-9.90961
जां	-9.90998
जार	-9.91036
▁सानैया	-9.91038
▁रजिया	-9.9106
▁हमथानानै	-9.91072
▁आलाय	-9.91086
▁दाग	-9.91163
जोंसो	-9.91229
▁दामनाय	-9.9123
▁होबथा	-9.91256
▁आलाइनि	-9.91267
▁सिमान	-9.91273
▁होसो	-9.91301
▁सन	-9.91308
स्लाब	-9.91336
▁लोंबाय	-9.91407
▁खुदुम	-9.91575
▁मावख	-9.91578
▁बाद	-9.91646
▁बुहुमनि	-9.91665
▁दाया	-9.91826
▁दोन्नाय	-9.91991
▁साया	-9.92106
▁साजों	-9.92107
▁एक	-9.92172
▁माहारिया	-9.92278
▁गोगो	-9.92317
भि	-9.92394
▁थांनायाव	-9.92414
▁जन	-9.92508
▁हरसे	-9.92546
रां	-9.92562
▁फिसाइखौ	-9.92722
is	-9.9277
▁लें	-9.928
▁नोंसोरखौ	-9.92835
▁नोंथ	-9.92855
▁प्लट	-9.92859
▁जोंबो	-9.93015
▁नागिरब्ला	-9.93032
▁बाजार	-9.93119
1	-9.93175
सिङाव	-9.93293
▁हादोर	-9.93424
▁नोंथांमोन	-9.93426
▁समाजा	-9.93443
▁थामथि	-9.93449
▁दुब्लि	-9.93518
▁फोरमायनो	-9.93536
▁गांनै	-9.93579
▁D	-9.93595
▁बिसोरनो	-9.93624
▁इन्टारनेट	-9.93649
▁लोमजानाय	-9.93727
▁खायदा	-9.93729
▁बास	-9.93809
मोगि	-9.93821
▁थैया	-9.93822
▁सेनापति	-9.93823
▁सुदेम	-9.93824
▁किउरि	-9.93825
▁बिदिन्था	-9.93825
▁बेखेवगास्नि	-9.93827
▁आच्	-9.93836
▁बुन्दा	-9.9386
▁ऊ	-9.93886
▁निस्थार	-9.93893
▁सानाखैमोन	-9.9391
▁खेबनै	-9.93913
▁दाद्रि	-9.93913
ब्रे	-9.93937
▁बुंहरो	-9.93964
▁गोथे	-9.93969
▁भा	-9.94003
ाइ	-9.94033
▁टाउनाव	-9.9408
▁साननैसो	-9.94094
▁थैनो	-9.941
▁मथे	-9.94131
▁जेना	-9.94154
▁जालांदों	-9.94155
▁गानहो	-9.94273
ङाखै	-9.94309
ारी	-9.94351
▁बादा	-9.9437
▁सुनाय	-9.94385
▁फावथाइगिरिया	-9.94412
▁जाहोनाव	-9.94425
▁बुब्लियाव	-9.94441
▁हुगारनानै	-9.94507
▁सिलाया	-9.94515
रिया	-9.94556
फार	-9.94612
▁दिनैसो	-9.94622
▁आइनि	-9.94663
खांनाय	-9.94734
▁उल्था	-9.94736
▁मादै	-9.94799
▁फैसा	-9.94801
▁जांख्रिथाइ	-9.94867
▁बसुमतारीया	-9.94881
फ्रोमबो	-9.94885
▁खामसालि	-9.94973
न्थि	-9.9499
▁गाग्लोबनाय	-9.94994
खार	-9.95025
▁थानायखौ	-9.95058
▁मिथिनानै	-9.95086
▁गाग्लोब	-9.95202
▁गुन्दानि	-9.95277
▁30	-9.95315
▁कक्राझार	-9.95462
▁गला	-9.95465
▁नोगोर	-9.95537
▁मेला	-9.95611
▁बिसिया	-9.95659
घ	-9.9569
▁गिया	-9.95696
▁मिथियो	-9.95753
फ्राम	-9.9576
▁मेनेजार	-9.95808
▁दिहुन्	-9.95821
▁गुदियाव	-9.95847
▁जाबा	-9.95968
▁सुनि	-9.9599
▁दायनिगिरि	-9.96036
▁फिफा	-9.96043
u	-9.96058
▁बुहुम	-9.96068
ख्रं	-9.96111
▁T	-9.9613
▁रुजु	-9.96145
▁गाराय	-9.96168
▁दावा	-9.9617
▁थाहै	-9.96246
▁फोरमायथि	-9.9626
▁थांखो	-9.96286
▁दाजाबनाय	-9.96325
▁हाला	-9.96371
▁आलाइखौ	-9.96404
▁ट	-9.96495
▁थिउरिया	-9.96645
▁दांनाय	-9.96721
▁रहेला	-9.96825
▁सानथ्रि	-9.96845
▁कम्पिउटारा	-9.96857
नांनाय	-9.96938
ग्राफ	-9.96941
▁लोङा	-9.96987
▁संसारनि	-9.97043
▁आलि	-9.97048
▁अब	-9.97119
रनि	-9.97156
ाय	-9.97162
▁दैनि	-9.97183
जन	-9.97185
आलाइस्रि	-9.972
फुर	-9.97211
▁नोंसिनि	-9.97373
▁खुं	-9.97413
▁आलाइस्रिखौ	-9.97449
▁सोमजिनाय	-9.97494
▁होम्बा	-9.97494
00	-9.97497
▁जौगानाय	-9.9753
▁बबेनि	-9.97547
▁लेङा	-9.9761
▁अनसुंथाइ	-9.97633
▁परिषद	-9.97633
ug	-9.97636
▁रांजों	-9.97637
ing	-9.97649
▁दस्रा	-9.97664
▁दुपसावफा	-9.97665
▁बैसागु	-9.97666
▁भारा	-9.97673
▁बिबुंथि	-9.97697
▁गोबारै	-9.97705
▁लेंग्रा	-9.97716
▁बटल	-9.97726
▁गंफा	-9.97727
राजा	-9.97787
▁माष्टार	-9.97806
▁गिनांगौ	-9.97838
▁बुंलाङो	-9.9786
▁बुंफिनो	-9.97864
▁नवा	-9.97869
▁।"	-9.97876
▁गान्नाय	-9.97918
▁लिरो	-9.97937
▁सुरो	-9.97959
▁रोन	-9.97997
▁गोमोर	-9.98022
▁आबाद	-9.98027
▁नाजाव	-9.98063
▁अजित	-9.9809
▁अट	-9.98145
▁हरबिलासा	-9.98183
▁जोमैया	-9.98197
माय	-9.98208
▁मोनाबिलियाव	-9.98237
बारी	-9.98253
▁नुथाय	-9.98276
▁सान्नो	-9.98288
राज	-9.98302
हैदों	-9.98336
▁मोब्लावा	-9.9834
खाया	-9.98404
▁बहाबा	-9.98429
▁s	-9.98452
▁हेलारामा	-9.98464
▁आनारीखौ	-9.98494
▁कलेजनि	-9.98517
▁सुफुंनो	-9.98518
▁आवगायाव	-9.9852
▁गोनांथार	-9.98563
▁खालामग्रा	-9.98608
▁बाथ्रानि	-9.98626
▁जाम	-9.98716
▁सुरनानै	-9.98731
▁दावहानि	-9.988
ot	-9.98831
▁हिन्जावफोर	-9.98877
▁गद	-9.9888
▁थिसन	-9.98899
▁नङाब्लाबो	-9.98906
▁नुना	-9.9893
▁आफादाव	-9.98988
▁दोनहै	-9.98997
▁थोन	-9.99015
▁हौवासा	-9.9902
▁थगाय	-9.99066
▁जेकेटखौ	-9.99266
▁दोननो	-9.9928
रोम	-9.99304
▁मोनलायनाय	-9.99353
▁सौहै	-9.99362
▁जोंनाव	-9.99362
▁अनजिमा	-9.99395
▁बिसिना	-9.99431
सुला	-9.99458
▁बेथ	-9.99524
▁फरायग्रा	-9.99599
मोनखौ	-9.99624
आंनि	-9.9964
▁गिनो	-9.99704
▁लोमजा	-9.99727
▁लाफा	-9.99789
▁फरायनानै	-9.99792
▁गाबख	-9.99817
▁साह	-9.99825
▁बराय	-9.99831
▁थैखौ	-9.99924
▁जिराद	-9.99927
▁सुवा	-10.0009
▁शंकर	-10.0013
▁जायगानि	-10.0031
▁खुंनाय	-10.0035
▁जाफुंसार	-10.0036
▁बाना	-10.0037
▁सोलायनानै	-10.0045
▁नांलाय	-10.0051
▁लिरगिरिनि	-10.0052
▁बिबारनि	-10.0053
फिनगोन	-10.0056
▁मिनिट	-10.0061
▁मानै	-10.0075
▁बिबाजै	-10.0075
▁मोनसेया	-10.0078
▁नोंनाव	-10.0084
▁a	-10.0084
▁आनान	-10.01
▁सालाइ	-10.0105
?"	-10.0114
▁मोनखो	-10.0117
▁लाइसि	-10.0122
▁जाव	-10.0124
▁सिथ्ला	-10.0126
▁बानायनाय	-10.0135
गोदान	-10.0143
▁ख्रे	-10.0143
▁सोंलु	-10.015
▁गोमानाय	-10.0152
फोरनिफ्राय	-10.0157
▁गावस्रा	-10.0159
▁महरनि	-10.0159
~	-10.0159
▁मुंख्लं	-10.0159
▁हिन्दु	-10.0159
▁बिसायख	-10.0159
▁हुजुर	-10.0159
▁जथुम्मा	-10.0159
▁नंगुबै	-10.016
▁मुश्री	-10.016
▁इउनिट	-10.0161
▁एखनब	-10.0161
▁जायखिजाया	-10.0162
ननि	-10.0162
▁सरासनस्रायै	-10.0163
▁बेखेवगानै	-10.0163
▁चीन	-10.0163
▁बांद्राय	-10.0163
▁थागिबि	-10.0164
▁दुगा	-10.0164
सिनि	-10.0166
▁बिखुं	-10.0166
▁मुंराइ	-10.0167
▁दाकात	-10.017
▁थिलियाव	-10.0171
▁खालामबावनो	-10.0173
▁गाथाम	-10.0177
▁नालाय	-10.0181
▁नुजागोन	-10.0183
▁थाइ	-10.0184
▁अना	-10.0186
▁नरेशा	-10.0189
▁ओहो	-10.0197
▁बिबु	-10.0199
सिगौ	-10.0205
▁फुल	-10.0206
▁लानांगौ	-10.0206
▁जाहो	-10.0207
▁नागिरनो	-10.0208
?	-10.0208
▁दिल्लीयाव	-10.021
▁नायगोन	-10.0213
▁बुंनांगौ	-10.0213
▁लांगोनायाव	-10.0217
re	-10.0218
दिनि	-10.022
▁मावदों	-10.0221
▁सिगाङावनो	-10.0222
▁नालिस	-10.0227
पुर	-10.0227
▁जासे	-10.0228
▁सिगांआव	-10.0231
▁बोब्ला	-10.0238
▁नायोब्ला	-10.0243
▁फरायसाफोर	-10.0246
▁मोखांजों	-10.0246
त्	-10.0246
▁बारियाव	-10.0247
▁राइजोफोरनि	-10.0249
▁सिथाब	-10.0271
▁थाना	-10.028
्ट	-10.0285
▁भर	-10.0289
▁होनायसै	-10.0291
▁नाजानायाव	-10.0292
▁आसार	-10.0295
▁सैनाय	-10.0295
▁।।	-10.0311
सिया	-10.0312
ग्रां	-10.0317
नोथ	-10.0323
खरनि	-10.0326
▁मावनायनि	-10.033
▁मिथिनाय	-10.0334
▁सरकार	-10.0339
▁सिथार	-10.0347
हरदों	-10.0358
▁राइजोआ	-10.0368
▁गासैखौ	-10.0369
थुम	-10.0369
▁बुथुम	-10.0371
▁बेलस्रिया	-10.0373
▁थेफेनखौ	-10.0375
▁मावफुं	-10.0387
▁हेमलेट	-10.0395
▁आखाइनिफ्राय	-10.0395
गैया	-10.0404
▁सिगांनि	-10.0406
▁थांदोंमोन	-10.0408
▁सिमना	-10.0409
▁दायखौ	-10.0428
▁सारिनि	-10.043
▁अनिल	-10.0433
▁बाथ्राफोरखौ	-10.0437
इन	-10.0452
ध	-10.0462
▁नोंथांखौ	-10.0463
▁फोथां	-10.0464
▁बाथ्राखौनो	-10.0476
▁उन्दैनिफ्राय	-10.0487
कल्पना	-10.0488
▁मावजि	-10.0496
8	-10.0496
थै	-10.05
▁बेफारि	-10.0504
▁दानाव	-10.0505
▁नार्स	-10.0507
याखिसै	-10.051
▁दानायाव	-10.0511
▁फिसाफोरखौ	-10.0511
▁फोजोबनाय	-10.0514
▁-"	-10.0517
▁गारांजों	-10.0518
▁थिख	-10.0524
नोंथाङा	-10.0528
▁बाजियाव	-10.053
▁मेंनाय	-10.0537
▁इंराज	-10.0556
ङ	-10.0557
m	-10.0561
▁बिसोरजों	-10.0561
▁सोंदों	-10.057
▁........	-10.057
▁गाड़ी	-10.0572
▁हालुवा	-10.0572
▁मेट्रिक	-10.0572
▁दुंहाव	-10.0572
▁अक्टबर	-10.0573
▁अनिमा	-10.0573
▁थुनलायाव	-10.0575
नाथ	-10.0575
▁लुबैदों	-10.0576
▁मनजु	-10.0576
▁सभा	-10.0577
▁संगालि	-10.0578
▁खिबु	-10.0578
▁दासान्दि	-10.0579
▁आद्रा	-10.0579
▁होनाया	-10.0584
▁इंराजि	-10.0584
▁लोङै	-10.0584
▁पज	-10.0584
▁जासुला	-10.059
▁जौवा	-10.0591
▁हमनायसै	-10.0591
▁आखलनि	-10.0598
▁खिन्थायो	-10.0604
नायजों	-10.0604
▁जाथोंसै	-10.0604
▁दिउ	-10.0606
▁जासिगोन	-10.0608
▁सिथ्लायाव	-10.0609
▁नोगोराव	-10.061
▁नायग्रा	-10.0611
द्रा	-10.0611
▁फाहार	-10.0612
▁बासा	-10.0612
▁दावबायनाय	-10.0617
▁महना	-10.0618
▁सांग्रांथि	-10.062
▁फोसाबनाय	-10.062
▁नुयै	-10.0623
▁नाम	-10.0624
▁सेनानै	-10.0631
▁उदुराम	-10.0631
▁आइया	-10.0631
▁मिहिरनि	-10.0632
दिनै	-10.0636
फब	-10.0638
▁घ	-10.0641
▁बेसेबांबा	-10.0645
▁बागान	-10.0645
▁गानै	-10.0646
▁लारि	-10.0647
▁माला	-10.0649
▁गोजों	-10.0654
▁The	-10.0656
▁मावनांगौ	-10.0656
▁दैदेनगिरिफोर	-10.0658
ation	-10.0662
▁मिन्थि	-10.0668
▁हान्जानि	-10.0675
▁खबर	-10.0678
▁बबेनिफ्राय	-10.0679
वै	-10.0691
▁दैदेननाय	-10.0704
▁गाबनि	-10.0704
▁हांख्राय	-10.0707
▁बामोन	-10.071
▁बबेयाव	-10.0712
▁शान्तिखौ	-10.0717
▁अखानाय	-10.0718
4	-10.0733
▁हादराव	-10.0733
▁जाहोनो	-10.0736
▁सिख्लासा	-10.074
▁खुदियाफोर	-10.0741
लाव	-10.0742
थें	-10.0744
गथ	-10.0751
▁दाजाबदाखौ	-10.0758
▁दांनानै	-10.0759
▁ले	-10.0769
▁थिननाय	-10.0772
▁मोननि	-10.0784
▁लाइट	-10.0785
▁कमाण्डखौ	-10.0787
▁हादोंमोन	-10.079
▁नायफिन	-10.0802
▁खना	-10.0811
▁सुथि	-10.0813
▁साननि	-10.0815
होदों	-10.0817
▁एव	-10.082
▁इनफरमेसन	-10.0821
▁मलेनजों	-10.0822
▁सानैसो	-10.0824
▁गोसोवाव	-10.0826
▁दिनाव	-10.0829
▁दाहो	-10.083
▁मनजुनि	-10.0833
▁मोदोमा	-10.084
▁जथाइ	-10.084
▁50	-10.0851
▁बेग	-10.0851
▁देहायाव	-10.0857
जोला	-10.0857
खोमायो	-10.0862
l	-10.0867
▁लाइजामा	-10.0877
▁फालिनाय	-10.0883
▁गोम	-10.0887
▁खानाइखौ	-10.0889
▁रावआ	-10.0891
▁हालोद	-10.0901
▁जाखांनाय	-10.0903
चि	-10.0905
▁गिबियाव	-10.0908
▁थफी	-10.0912
▁जुनाद	-10.0919
▁हाबफैनाय	-10.0923
▁मेडाम	-10.0925
▁संनाय	-10.0927
▁कमल	-10.093
स्क	-10.0937
▁बेहाय	-10.0948
जोबनाय	-10.0954
लोगो	-10.0957
▁मिथिस	-10.0957
आबौ	-10.0958
▁दाबा	-10.097
▁मागोन	-10.0974
▁आलु	-10.0974
▁देवानि	-10.0979
▁बारस	-10.0988
जाबाय	-10.0991
▁थारै	-10.0995
बियो	-10.0998
▁अक्ट	-10.1001
▁मेहेर	-10.1002
▁खुन्दुं	-10.1002
▁गुस्थि	-10.1002
▁मंगलसिं	-10.1003
▁गोदाव	-10.1003
▁हास्थाय	-10.1004
▁मनिपुर	-10.1004
▁थफ्ला	-10.1005
▁बाजा	-10.1005
▁अगेन	-10.1005
▁बेलाय	-10.1006
▁सिमाङाव	-10.1006
▁मुसुखा	-10.1006
▁बान्दा	-10.1006
▁खुंथाइ	-10.1007
▁डाइरेक्टरि	-10.1007
▁बेखेवगासे	-10.1008
▁बायो	-10.101
▁हामफे	-10.101
▁सिफि	-10.1012
▁खबरदार	-10.1012
▁अरहे	-10.1013
▁रोखोमसे	-10.1016
▁समाजारि	-10.1016
▁जयै	-10.1019
▁गामियारि	-10.1019
▁प्रेस	-10.102
▁सायखं	-10.102
▁आवराय	-10.1026
ङि	-10.1026
5	-10.1029
▁हटेलाव	-10.103
म्	-10.1036
▁गैयाब्लाबो	-10.1037
▁मोथो	-10.1038
▁गंस्रिनानै	-10.104
▁मोदैया	-10.104
com	-10.1042
हरनानै	-10.1047
▁उनथिं	-10.1049
▁बावदा	-10.105
▁नाजाबाय	-10.1051
▁नुगोन	-10.1051
▁जानोसै	-10.1052
▁दामै	-10.1053
▁फैगासिनो	-10.1053
ासै	-10.106
▁गारामा	-10.1068
▁हेला	-10.107
▁नायगिरनाय	-10.1082
▁थामथिम	-10.1082
ग्ला	-10.1088
▁6.	-10.1089
▁सुजुनाय	-10.1093
▁फिसाजोआ	-10.1095
▁मोदैखौ	-10.1098
▁बिसिनि	-10.1099
▁मोनग्रा	-10.1104
▁आखा	-10.1112
▁रायखां	-10.1122
▁थालानि	-10.1124
▁मंगल	-10.1136
फ्लां	-10.114
▁गगै	-10.115
▁गुदुंजों	-10.1162
▁सिखां	-10.1163
▁जुग	-10.1176
▁केसखौ	-10.1181
▁गावो	-10.1199
▁सोदोबमा	-10.1204
▁नुजानाय	-10.1211
▁दालि	-10.1213
स्ला	-10.1215
▁इन	-10.1218
ण	-10.1224
▁सावथाल	-10.1229
सिख्ला	-10.1235
▁होनबा	-10.124
▁फुजि	-10.1245
lo	-10.1247
▁फैब्ला	-10.1247
▁बें	-10.1249
▁जाहै	-10.126
▁जानायसै	-10.126
▁मुखुब	-10.1266
▁केरानि	-10.1267
▁दैसा	-10.1274
▁पार्टि	-10.1282
गर	-10.1286
▁थिर	-10.1293
▁बुङाखै	-10.1294
▁बाख्नाय	-10.1298
▁खारनाय	-10.1308
▁दायो	-10.1314
▁फि	-10.1314
नोंनि	-10.132
▁थब्ल	-10.1322
▁अरा	-10.1325
▁बिसोरहा	-10.1327
▁गांनाय	-10.1327
▁दैथाय	-10.1328
▁नङै	-10.1328
▁हारसिंनो	-10.133
▁जाजोब	-10.1333
▁लुबैनायखौ	-10.1339
▁जथाय	-10.1348
▁सेंग्राफोरा	-10.1353
▁मोदैजों	-10.1362
▁जनाय	-10.1363
▁अक्सिन	-10.1373
▁समखौ	-10.1377
▁हांखोजों	-10.1378
▁सोमबोरा	-10.1383
कु	-10.1386
▁सुमिला	-10.139
▁हाबनाय	-10.14
निथिं	-10.14
P	-10.1403
ज्ला	-10.1404
▁मोजाङैनो	-10.141
▁सौग्राव	-10.141
▁बारहुंखा	-10.1419
हरनाय	-10.1421
▁बिनाय	-10.1433
▁जाथि	-10.1433
लांनानै	-10.1437
आखु	-10.1438
▁बोनो	-10.1438
▁बेलासे	-10.144
▁खोन्था	-10.1444
▁भ्लादिमिर	-10.1451
▁स्टार्ट	-10.1451
▁थुबुर	-10.1451
▁बिखुङाव	-10.1451
▁पाकिस्तान	-10.1451
▁फोथायखेबस	-10.1451
▁जीउ	-10.1451
▁दानसोरां	-10.1452
▁बेलश्री	-10.1452
▁मारुटि	-10.1452
▁होख्राव	-10.1455
▁नांलिया	-10.1456
▁गंगार	-10.1456
▁थासान्दियाव	-10.1457
▁मन्स	-10.1458
जोबदों	-10.1459
▁जाथाव	-10.1459
▁उदखारि	-10.146
मालाय	-10.1462
▁बिमायं	-10.1463
केल	-10.1464
▁मोनखाङो	-10.1467
▁थारैब्ला	-10.1468
न्याव	-10.1473
▁सान्थि	-10.1473
▁खुलुमो	-10.1475
▁मोनायाव	-10.1477
▁बिमाय	-10.1478
फेराखै	-10.1478
▁गुरैयै	-10.1479
▁ओंखारलांबाय	-10.1481
▁गारनाय	-10.1481
▁खारो	-10.1483
▁सुखे	-10.1484
▁सेयाराव	-10.1485
▁दाना	-10.1488
▁फालांगिरि	-10.1491
▁जाबोदों	-10.1492
▁जाबावनो	-10.1494
▁एरैबादि	-10.1495
न्द्रा	-10.1498
▁मोन्दोंमोन	-10.1498
▁बुदों	-10.1499
▁लाहारी	-10.15
▁सोलायो	-10.1503
▁बुंखो	-10.1507
▁बिहारि	-10.1508
▁बेलायाव	-10.1511
▁सेंग्राफ्रा	-10.1512
▁हांखोआ	-10.1516
▁बोखाव	-10.1517
माथो	-10.1517
नोबा	-10.1519
▁बायजोयाव	-10.1519
▁भुटान	-10.1522
▁दुर्जांनि	-10.1524
▁फिसाज्लाखौ	-10.1524
फिननो	-10.1528
▁ओंखारलांनाय	-10.1529
▁हेफाजाबै	-10.1534
▁सानाव	-10.1536
▁दिखां	-10.1544
▁फाहामथायनि	-10.1546
▁बुन्दिया	-10.1546
▁नार्जारीया	-10.1549
स्र	-10.1559
▁बिलिर	-10.1559
▁सोलोंथाय	-10.1575
▁मानिबा	-10.1586
थारो	-10.159
▁नायहाब	-10.1604
▁गाननानै	-10.1608
▁लाखिनानै	-10.1613
▁बारायनाय	-10.1616
▁गेजेरनि	-10.1616
▁ट्रे	-10.1621
▁जेला	-10.1622
सोम	-10.1623
▁गुरु	-10.163
▁फाला	-10.1631
▁फुरा	-10.1641
फाङा	-10.1643
बावदों	-10.1649
▁हांखुर	-10.1659
सायाव	-10.166
▁सोदोबजों	-10.1662
▁बिजिरगिरि	-10.1663
दर	-10.1667
एल	-10.1668
▁कम	-10.1676
▁इसोर	-10.1676
फैनाय	-10.1676
▁नोगोरनि	-10.1679
हाबनानै	-10.168
▁सावरायनो	-10.1682
▁आन्जाद	-10.1682
न्थ	-10.1685
▁आंहाबो	-10.1694
▁बाहा	-10.1702
▁बेलखौ	-10.1705
▁दासि	-10.1709
स्री	-10.171
वानो	-10.1711
8.	-10.1717
▁खोथायाव	-10.1726
▁रेल	-10.1728
▁मोनलाय	-10.1731
▁हानायनि	-10.1732
सल	-10.1735
▁साफाय	-10.1741
्रा	-10.1742
▁सायावनो	-10.1742
जोबगोन	-10.1748
▁लुनाय	-10.176
▁सिला	-10.1767
▁फाफि	-10.1769
▁हांख्रायनाय	-10.177
▁आखुफोरा	-10.1774
▁रायज्लायनाय	-10.179
▁खोमोर	-10.1803
▁रिक्सा	-10.1808
▁गावनाय	-10.181
▁सानैखौ	-10.1815
▁दाजा	-10.182
▁लांफा	-10.1822
दुम	-10.1824
न्ड	-10.1828
▁दाबुं	-10.1836
ालाय	-10.1838
▁बिजामादै	-10.1838
▁आइन	-10.1842
▁दाइरि	-10.1842
▁लेंहर	-10.1843
▁गोदाना	-10.1843
▁जागाय	-10.1849
बावनाय	-10.1849
▁हरबिलास	-10.1855
▁सुं	-10.1856
रामा	-10.186
▁मम	-10.1869
▁माब्लाबाबो	-10.187
बनाय	-10.1871
▁मद	-10.1872
बिनानाव	-10.1878
▁दिखार	-10.188
फारसे	-10.188
▁फिसाफोर	-10.1881
▁डाक्टार	-10.1882
▁दावला	-10.1886
▁सुला	-10.1892
▁कंग्रेस	-10.1893
▁आबहावा	-10.1895
नांदि	-10.1903
दुखु	-10.1909
जुनाद	-10.1915
निख्रुय	-10.1916
फाहार	-10.1917
▁दाखालाम	-10.1919
क्राझार	-10.1919
▁..........	-10.192
▁रुगुं	-10.1922
▁लोमसाव	-10.1922
▁राभा	-10.1923
ित्य	-10.1923
▁बेखेवगाथाम	-10.1923
▁हान्थु	-10.1924
▁बयनिख्रुइ	-10.1924
▁बुरजा	-10.1924
▁खावलाइ	-10.1925
▁बिखं	-10.1926
▁रुवाथी	-10.1926
▁जोथोन	-10.1927
▁लाकी	-10.1927
▁आसागि	-10.1928
▁हाबबोयो	-10.1928
▁उरां	-10.1928
▁किटसेन	-10.1934
▁पलि	-10.1934
▁प्लेट	-10.1935
▁हार्ट	-10.1935
▁नायगिरो	-10.1935
▁खालामाखै	-10.1936
▁गोमोयो	-10.1936
ास	-10.1937
▁संनो	-10.1939
▁रान्	-10.1939
▁पुरा	-10.194
▁लानाया	-10.194
▁आस	-10.1941
▁स्राय	-10.1943
▁सोनारनानै	-10.1943
▁सोल	-10.1947
▁हायैनि	-10.1947
▁रोखोमै	-10.1947
▁हांगारिया	-10.1949
▁सावगारिया	-10.1951
▁दैखाङो	-10.1951
▁हाबहैबाय	-10.1953
▁थेला	-10.1954
▁हामबाय	-10.1957
▁रेन्जारा	-10.1958
▁खामानिनि	-10.1958
ेहाद	-10.1959
▁ससे	-10.1963
▁मह	-10.1964
▁सुपार	-10.1964
▁मार	-10.1968
▁गावरावा	-10.197
दब	-10.1971
▁बिजिरगिरिया	-10.1971
▁सावख्लिया	-10.1975
▁लिरदोंमोन	-10.1979
▁नारा	-10.1982
▁खारग	-10.1982
▁बाजाराव	-10.1982
▁मावगोन	-10.1986
खौलाय	-10.1987
माबि	-10.1987
▁थादो	-10.1991
फिननाय	-10.1994
दला	-10.1998
▁संग्रा	-10.2009
गावनि	-10.201
▁गोरबो	-10.2012
▁धोनि	-10.2018
र्ट	-10.2023
▁बुरैया	-10.2025
▁गोहोजों	-10.2031
▁होयोब्ला	-10.2033
राइ	-10.2033
वाखै	-10.2037
▁बाहायदों	-10.2038
▁नायबिजिर	-10.2044
▁आयदाखौ	-10.2045
▁सानराय	-10.2047
लांदोंमोन	-10.2054
▁आन	-10.2054
दाय	-10.2057
▁खेबाव	-10.2057
के	-10.2063
▁जोंबाय	-10.2067
▁बोथोराव	-10.2073
श्री	-10.2077
▁जोमनाय	-10.2086
▁बावदियाया	-10.2087
ख्ल	-10.2094
▁खारलां	-10.2104
▁बाथा	-10.211
▁लाजिया	-10.2115
▁हांसो	-10.2116
▁गराय	-10.2118
▁गोसोया	-10.2127
▁नाथ	-10.2128
▁सरकारनि	-10.213
▁गावहा	-10.2133
▁बाहागोखौ	-10.2135
लों	-10.2143
▁फरायसालि	-10.2144
गै	-10.2149
▁माना	-10.2157
...........	-10.2161
▁बेरे	-10.2172
▁गोनो	-10.2173
p	-10.2175
▁सावगारिखौ	-10.2185
▁महाराजानि	-10.2186
▁बाग्दाव	-10.2186
▁साग्लोब	-10.2188
स्लाय	-10.2194
▁मोननायखौ	-10.2208
▁खुगाया	-10.2214
c	-10.2219
सुं	-10.2219
▁फाथि	-10.2221
▁जानायमोन	-10.2227
▁बुरखाय	-10.2229
▁थाबायनाय	-10.2231
▁फोसाब	-10.2233
▁सेप्तेम्बराव	-10.2237
ve	-10.224
प्र	-10.2244
▁देरगा	-10.2249
▁फाख	-10.225
▁आरि	-10.225
▁हारा	-10.225
खन	-10.225
▁मोगथां	-10.2251
▁मानिनां	-10.2252
▁फाहामसालि	-10.2257
4.	-10.2271
▁गुमुर	-10.2274
िस	-10.2276
▁इराग्दावनि	-10.2281
▁साननै	-10.2283
▁फार	-10.2293
▁बाजु	-10.2298
मारनो	-10.2301
साया	-10.2303
▁बुनो	-10.232
थारनाय	-10.2322
▁मोब्लाव	-10.2325
ाल	-10.2329
▁फां	-10.2336
▁अलकानि	-10.2349
की	-10.2351
▁फिनो	-10.2351
हाबा	-10.2363
गिबि	-10.2366
आरसा	-10.2373
▁ओंखारलां	-10.2376
नांगौब्ला	-10.2378
▁बिबायारि	-10.238
▁थाबै	-10.238
▁खाब	-10.2389
▁नागिरबाय	-10.2391
▁सुशान्त	-10.2396
▁गोजाननि	-10.24
▁बेंक	-10.2402
▁एंगारनाय	-10.2403
▁w	-10.2405
▁य	-10.2409
थारै	-10.2411
नांसिगौ	-10.2412
उन	-10.2414
▁c	-10.2416
qu	-10.2416
▁एमफौ	-10.2416
▁नबेम्बर	-10.2416
▁अबथिरा	-10.2416
▁इन्जुर	-10.2416
▁चित्त	-10.2416
▁बिल्डिं	-10.2416
▁सेकस्पीयार	-10.2416
▁मुसाहारी	-10.2416
▁मुलुक	-10.2416
▁नारें	-10.2416
▁बिथराइ	-10.2417
▁द्रइ	-10.2417
▁बेखेवगाब्रै	-10.2417
▁खेंख्रा	-10.2417
▁जोख्लोब	-10.2417
▁प्रसेन	-10.2417
▁अनसुलि	-10.2418
▁ट्रेइन	-10.2418
▁गोखै	-10.2418
▁गुसुङै	-10.2419
▁अजद	-10.242
▁थोजासे	-10.242
▁रैसुमै	-10.242
▁रुंसारि	-10.242
▁खाइला	-10.242
▁खुदै	-10.2422
▁f	-10.2423
▁नैजि	-10.2425
▁बेखेवगाबा	-10.2429
▁साइट	-10.2429
▁!!!	-10.2433
▁जिङाव	-10.2433
▁आमेरिका	-10.2434
▁देनां	-10.2435
▁गनायथि	-10.2436
▁थाथों	-10.2436
▁ओनसोलाव	-10.2437
▁हादाब	-10.2437
▁खेमा	-10.2437
थाया	-10.2439
▁जेथो	-10.244
▁हामला	-10.2447
▁फांसे	-10.2447
................	-10.2449
ber	-10.2452
▁बिसान	-10.2454
▁लि	-10.2454
▁मोनैनि	-10.2454
▁जमा	-10.2455
▁गैलामोन	-10.2455
▁लावथि	-10.246
गिरिफोरा	-10.2462
▁हरखाबै	-10.2464
थारनांगौ	-10.2465
▁जाति	-10.2465
▁साहाखौ	-10.2465
▁सिङा	-10.2469
▁फन	-10.2469
▁एराय	-10.247
सोमोन	-10.2473
▁खुनु	-10.2475
▁खोनानै	-10.2477
▁26	-10.2478
▁ओनसोलनि	-10.2483
▁लान्थाया	-10.2483
▁लाखियो	-10.2485
▁गासिनो	-10.2487
▁रुमनिफ्राय	-10.2489
▁लरेना	-10.249
▁खावलायाव	-10.2491
▁मदन	-10.2494
▁समनिफ्रायनो	-10.2495
जै	-10.2499
▁नखौ	-10.25
▁बिट	-10.25
▁हिन्जावफ्रा	-10.2503
▁खौसेथि	-10.2509
▁थाखायसो	-10.2516
▁जाला	-10.2531
▁मावा	-10.2532
▁अभि	-10.2535
▁मोनहै	-10.2535
खाला	-10.2537
▁गाइ	-10.254
▁बावै	-10.2553
रै	-10.2579
▁जोंलाय	-10.2581
बाद	-10.2592
सुलि	-10.2596
बायो	-10.2596
▁सानगोन	-10.2597
▁नांबाय	-10.2601
▁सात	-10.2608
▁दन	-10.2609
▁मोनाखैमोन	-10.2623
▁सुफुं	-10.2623
खोना	-10.2634
▁बरमा	-10.2637
िर	-10.264
थोंसै	-10.2655
▁सोलोजों	-10.2665
▁जं	-10.267
▁लागो	-10.267
▁सिखोमा	-10.2671
▁हाराव	-10.268
क्	-10.268
▁नोंसो	-10.2682
▁साफ्रासी	-10.2682
▁जोबनानै	-10.2687
▁बोलोजों	-10.2687
▁नख	-10.2689
▁फावथाइया	-10.2692
▁खोमदोना	-10.2693
▁लख	-10.27
ग्रोयो	-10.2701
▁फर	-10.2702
▁गान्दु	-10.2706
1.	-10.2712
▁टाउन	-10.2714
▁हिन्जावफोरा	-10.2717
खुथु	-10.272
ख्रा	-10.2722
टार	-10.2725
...।	-10.2736
▁गसंनो	-10.2738
▁थानायसै	-10.2742
▁बोराब	-10.2743
▁लिरनायाव	-10.2751
▁फरेष्ट	-10.276
▁आखला	-10.2762
▁नुमार	-10.2767
▁लायाखै	-10.2775
▁आख	-10.2777
▁थांनांगौ	-10.2785
▁फोजोबस्रां	-10.2786
▁P	-10.2796
▁फोरबो	-10.2797
▁मोनोब्ला	-10.2798
▁लाहै	-10.28
▁बिख्लो	-10.2804
▁होवा	-10.2808
▁दिहुन्नाय	-10.2811
बायमोन	-10.2814
▁सेरजों	-10.2818
er	-10.2822
▁साबुक	-10.2831
▁बुन्दि	-10.2835
▁जिउवा	-10.2837
▁फोलेरनि	-10.284
्य	-10.2842
खान्थि	-10.2843
▁दाबिनाय	-10.2845
▁गुबुननि	-10.2847
▁रिंसारखौ	-10.285
▁मोनि	-10.2854
..."	-10.2856
▁बोखा	-10.2856
▁खानाया	-10.2857
▁नागिरना	-10.2877
▁बिमाइ	-10.2888
ओहो	-10.2894
▁नायनाय	-10.2899
यारी	-10.2903
▁फाहाम	-10.2905
▁R	-10.2906
▁सेयार	-10.2907
▁बाख्रि	-10.2908
▁द्	-10.291
फिन्नाय	-10.2914
▁लिभ	-10.2915
फैलाय	-10.2918
▁खोनायो	-10.2919
▁गारहर	-10.2919
जायै	-10.2925
▁नागिरहै	-10.2928
बिसोर	-10.2928
▁बिना	-10.2934
▁इन्दु	-10.2935
▁नोगोरमानि	-10.2935
नायनिफ्राय	-10.2935
▁प्राइभे	-10.2936
▁गिख्रंथाव	-10.2936
▁हालमाजि	-10.2936
▁नंमारगौ	-10.2936
▁मोनसिंसिं	-10.2936
▁बोदोर	-10.2936
▁रोङो	-10.2936
▁अनजालि	-10.2936
▁बुङाखिसै	-10.2937
▁बेलस्री	-10.2937
▁मोसाहारी	-10.2937
▁दुर्गा	-10.2937
▁be	-10.2937
▁थाजिम	-10.2937
▁बुदुं	-10.2937
▁बोराइदब	-10.2937
▁वेब	-10.2937
▁खाफालखौ	-10.2938
▁गहेना	-10.2938
▁दाइनिं	-10.2938
▁अपारेसन	-10.294
▁हाद्रि	-10.294
▁उफ्ले	-10.2942
▁सती	-10.2943
▁सोमस्रि	-10.2943
▁सिथर	-10.2944
▁उदांस्रि	-10.2945
िनि	-10.2945
▁आइदिया	-10.2945
▁आगोलाव	-10.2946
ीया	-10.2947
▁गांफा	-10.2948
▁गालां	-10.295
▁आथिंखौ	-10.2951
्र	-10.2952
▁हमदांनो	-10.2953
▁दुखुथिया	-10.2954
▁दल	-10.2955
▁नोगोरमायाव	-10.2956
▁गोयै	-10.2959
▁हाबाफारिखौ	-10.2961
▁टा	-10.2962
▁महनलालनि	-10.2963
ar	-10.2966
▁लानांगोन	-10.2967
▁खेंफोर	-10.2967
▁मोनजायो	-10.297
▁डे	-10.297
▁नायथिं	-10.2971
▁सादु	-10.2977
▁थारजा	-10.298
▁बिथांमोन	-10.2982
हाया	-10.2984
▁खालायनाय	-10.2991
▁हामबुरा	-10.2992
▁आवाज	-10.2993
▁फुंखाया	-10.2994
▁बिदिबादि	-10.3001
▁मोननांगौ	-10.3008
▁टे	-10.3017
▁फारनैजों	-10.3018
▁गोजाननिफ्राय	-10.3021
▁इयुनाव	-10.3021
ेत	-10.3024
▁बाहायनायखौ	-10.3026
▁थांनाया	-10.303
▁गोग्लैबाय	-10.3031
▁गयथिखौ	-10.3034
▁खारबोनाय	-10.3037
▁गोरोबथा	-10.3037
▁ट्राइबेलफोर	-10.3038
▁जिसे	-10.3038
▁हरम	-10.304
▁सैबारीया	-10.3052
थिखौ	-10.3056
▁गोरलैयै	-10.3058
at	-10.3061
▁गसाइया	-10.3064
▁मावबाय	-10.3066
▁लाउ	-10.3068
▁जुवा	-10.3079
▁नांदों	-10.308
फिसौ	-10.3083
▁जागासिनो	-10.3086
▁देरहानाय	-10.3088
▁सेनो	-10.3095
▁बिथांमोननि	-10.3098
▁बुरि	-10.3098
▁दों	-10.3102
▁थांनायनि	-10.3112
▁असमिया	-10.3113
▁गौथुम	-10.3115
थिनि	-10.3115
▁गारिया	-10.3116
▁सुबुंआ	-10.3118
▁खावनानै	-10.3118
▁सुथुरा	-10.312
▁फिसाइया	-10.3124
फिननानै	-10.3126
▁गंसेयाव	-10.3126
▁हायाब्ला	-10.313
▁गारो	-10.3131
▁लानानैनो	-10.3135
पुट	-10.314
जेबो	-10.3144
फालु	-10.3152
▁नेनानै	-10.3153
▁गांसो	-10.3153
▁रेस	-10.3155
▁थानानि	-10.3156
▁सिख्लाखौ	-10.3159
▁बावनानै	-10.3164
''	-10.3169
▁अनो	-10.3171
▁फालाय	-10.3173
▁गोरान	-10.3178
आयै	-10.318
▁या	-10.318
▁जोहोलावनि	-10.3187
▁बिलाइनि	-10.3215
ंनि	-10.3216
▁बेव	-10.3219
▁जाफै	-10.3222
▁जेल	-10.3235
▁हाजोनि	-10.3237
ण्ड	-10.3238
▁आप	-10.3245
▁गलाफी	-10.3254
बिस्रि	-10.327
ख्रि	-10.3271
▁रादाबखौ	-10.3271
हरबाय	-10.3273
7.	-10.3277
▁रानि	-10.3284
▁आबैया	-10.3286
▁मिन्थिया	-10.3289
▁खायनो	-10.3304
▁W	-10.3308
▁दैमु	-10.3312
▁गवा	-10.3319
▁नोजोरजों	-10.3324
▁भारतारि	-10.3328
मारा	-10.333
▁थोनो	-10.3333
▁साफ्रोम	-10.3339
सी	-10.3343
▁दंब्ला	-10.3352
▁सेबखां	-10.3357
▁सेरे	-10.3359
लाबाय	-10.3365
▁नुजाफै	-10.3376
▁कार	-10.3378
▁आबा	-10.3378
▁दालां	-10.3394
थिंजाय	-10.3397
▁बुनाय	-10.3404
▁दैखर	-10.3418
दिं	-10.3421
▁बाराव	-10.3423
▁th	-10.3425
▁फोथै	-10.3428
▁बोख्लाय	-10.3431
▁दैखौ	-10.3434
खागोन	-10.3437
▁बिफाना	-10.3438
आखाइ	-10.3445
▁थाबथा	-10.3445
फैदोंमोन	-10.3448
▁सुबुंखौ	-10.3449
▁नायदों	-10.3449
▁होम	-10.3449
▁मोन्	-10.345
याखैमोन	-10.345
▁बेंखन	-10.3453
खुमा	-10.3456
▁साब्रै	-10.347
सानै	-10.3472
▁नोजोरा	-10.3476
▁बोजोंनि	-10.3477
मोसा	-10.3478
▁मोन्दां	-10.3479
▁खंख्ला	-10.3484
▁गोल्लै	-10.3484
▁ड्रयिं	-10.3484
▁बङाइगाव	-10.3484
▁बरपेटा	-10.3484
▁सोमखोर	-10.3484
▁हिंसा	-10.3484
▁सिलिंखार	-10.3484
▁टर्स	-10.3484
▁माउजि	-10.3484
ायनानै	-10.3484
▁आगसि	-10.3484
▁आगष्ट	-10.3484
▁जिबख्रि	-10.3484
▁खिथेर	-10.3485
▁सोदोमस्रि	-10.3486
▁बरुवा	-10.3486
▁खाम्फा	-10.3486
▁कन्ट्रल	-10.3488
▁अमब्रागं	-10.3488
▁खौरांगासे	-10.349
▁जोंरूवा	-10.349
▁सोलेर	-10.3491
▁खौराङा	-10.3491
▁(4)	-10.3491
▁बुदारुवा	-10.3492
▁फंनैसो	-10.3492
▁रोहो	-10.3492
▁अरदाब	-10.3493
▁हारसा	-10.3494
▁लगाय	-10.3494
▁सिरां	-10.3495
▁मुगैथाव	-10.3496
▁जोंथिहा	-10.3497
▁खननै	-10.35
▁थायसे	-10.35
▁अनथाइ	-10.3501
▁गाबज्रियो	-10.3505
▁थांखु	-10.3505
▁जिगाब	-10.3507
▁राजि	-10.3508
फैनो	-10.3509
श्	-10.3509
▁जालांनाय	-10.351
▁गाब्रै	-10.351
▁मिथियै	-10.3513
▁रमेना	-10.3514
▁सेवारिया	-10.3514
▁जुनार	-10.3514
▁हानि	-10.3517
▁हिउ	-10.3518
▁नरेना	-10.352
▁बुंजा	-10.3523
▁अलकेशा	-10.3531
▁खन्थाइगिरि	-10.3531
▁गमामायै	-10.3533
▁गोजौनि	-10.3533
आंबो	-10.3533
▁बेंगल	-10.3534
▁इन्जिनियार	-10.3534
▁थुदो	-10.3537
▁फांथेनानै	-10.3537
▁नाजागोन	-10.354
▁नोमफाया	-10.3542
▁लै	-10.3543
▁सावनाय	-10.3546
▁सुनै	-10.3552
▁जालायबाय	-10.3556
▁बाजैया	-10.3558
▁दोनै	-10.3566
▁लाफानानै	-10.3571
▁बाजिनि	-10.3571
▁फाथै	-10.3576
▁बिबां	-10.3577
▁खाफाला	-10.3579
▁सिगांनो	-10.3579
▁महा	-10.358
▁खासि	-10.3581
बावगोन	-10.3588
सारा	-10.3593
▁लाग्रा	-10.3597
▁होनै	-10.3599
2.	-10.36
जाग्रा	-10.36
le	-10.3601
▁सोद्रोमाफोरा	-10.3602
▁खुलुमनानै	-10.3605
▁हाग्रामा	-10.3606
are	-10.3608
▁अन्नायाव	-10.3609
▁थैगोन	-10.3612
▁गोग्लैसो	-10.3613
▁बाहागोनि	-10.3614
▁नोंगौ	-10.3615
▁रबि	-10.3616
बाब	-10.3628
▁बिहार	-10.3631
गान	-10.3639
▁जिरादखौ	-10.365
लं	-10.3653
गोसो	-10.3656
▁खाफालनि	-10.3671
हैगोन	-10.3672
थोर	-10.3674
▁ओंखारनो	-10.3675
▁सुबुंफोरखौ	-10.3685
▁गोरोबनाय	-10.3686
▁थालाय	-10.3686
▁गोमोन	-10.3692
▁गलि	-10.3694
इस	-10.3702
ग्लि	-10.3704
▁सालाया	-10.3704
▁गाहाया	-10.3704
▁फसं	-10.3709
▁दागाब	-10.372
▁गानो	-10.3727
▁बिथांखौ	-10.373
▁लरेन	-10.3731
▁जारिमिननि	-10.3732
▁सेब	-10.3733
जम	-10.3738
▁फेदेर	-10.3738
▁गयो	-10.3741
▁नायजाबा	-10.3747
▁हुस	-10.3748
नालाय	-10.375
ाखैसै	-10.3753
▁मोसाया	-10.3755
दिन	-10.3756
लौ	-10.3768
▁गिदिंनानै	-10.3769
our	-10.3776
खौथ	-10.3776
▁जौगाखांनाय	-10.3776
▁मानसियानो	-10.3788
▁बिनहारीखौ	-10.3793
नांसिगोन	-10.3796
▁राङा	-10.38
▁सोरजिनो	-10.3808
▁जौगाखां	-10.3812
h	-10.3815
▁बेखौल	-10.3824
थाराखै	-10.3825
,000	-10.3827
ब्लि	-10.3829
▁हाबाफारिनि	-10.3833
▁थुन	-10.3834
▁दाला	-10.3836
▁जाबायमोन	-10.3839
▁बिथिंखौ	-10.3845
▁बेसोर	-10.3846
▁गोर्बोनि	-10.3848
▁बिफान	-10.3857
सां	-10.3858
▁खान	-10.386
थानि	-10.3863
फैबाय	-10.3863
▁दङमोन	-10.387
▁जब्रा	-10.388
गोमा	-10.388
▁सानजौफु	-10.3885
▁जोलै	-10.389
▁आयदानि	-10.3896
▁फिसि	-10.3902
फिन्	-10.391
▁स्ल	-10.3916
ल्दा	-10.3917
▁बिगुमै	-10.3925
▁गायसन	-10.3925
▁थांफिन	-10.3925
लायदों	-10.3927
▁होनलाय	-10.3954
दाया	-10.3955
▁जायोमोन	-10.3965
▁O	-10.3966
▁नुजाथि	-10.3968
▁गाबनायखौ	-10.3972
▁राइजोफोरखौ	-10.3973
▁बैसागि	-10.3976
6.	-10.3981
▁अबंलाउरि	-10.3983
▁थिनहरदों	-10.3984
लिक	-10.3985
लिं	-10.3986
नायसाय	-10.3987
ियाव	-10.3989
ेस्वर	-10.3994
▁हेद	-10.3995
▁हामबुर	-10.4003
▁सुद	-10.4012
▁हं	-10.4013
आशा	-10.4017
गाज्रि	-10.402
▁बुब्लि	-10.402
मोजां	-10.4021
ओइ	-10.4022
▁बिदाया	-10.4022
▁गै	-10.4024
▁राखेब	-10.4024
बोगासिनो	-10.4027
▁मेगनखौ	-10.4027
▁राजखान्थिनि	-10.4028
थारला	-10.4031
▁नांगौब्ला	-10.4033
▁खनथाम	-10.4035
▁दिना	-10.4036
▁दागि	-10.4044
▁M	-10.4048
3.	-10.4055
▁गावराव	-10.4057
▁दुपसाव	-10.4059
k	-10.4059
▁स्क्र	-10.4061
▁पाब्लिक	-10.4063
▁तरुण	-10.4063
▁एष्ट्राग	-10.4063
▁गोख्रोङै	-10.4063
▁प्रफेसार	-10.4063
▁मोखथां	-10.4063
▁गागि	-10.4063
▁गामाखालि	-10.4063
▁मरनिं	-10.4064
▁राजथावनि	-10.4064
▁माउस	-10.4064
▁मैहुरारी	-10.4064
▁साबाइस	-10.4064
▁साइखेल	-10.4064
▁अलखद	-10.4064
▁डेटा	-10.4064
▁सानबोलावरि	-10.4064
▁गैजारोङै	-10.4065
▁उखुन्दै	-10.4065
▁जिबारेलिन	-10.4065
▁हिर	-10.4065
▁फख्रि	-10.4066
▁रंगिना	-10.4066
रेटरीयाव	-10.4067
▁फेन्दा	-10.4067
▁सिन्दुर	-10.4068
▁टेबोल	-10.4068
▁बोस्रां	-10.4068
▁MS	-10.4068
▁सोंहरबाय	-10.4068
▁गान्दा	-10.4071
▁थालिर	-10.4072
▁अमर	-10.4072
▁सयथि	-10.4073
▁हाबनो	-10.4074
गारदों	-10.4075
▁बिबौ	-10.4075
▁बिदुं	-10.4076
▁खैला	-10.4076
▁मानिया	-10.4077
हैदो	-10.4078
▁फानलु	-10.4078
अर	-10.408
▁आसान	-10.4081
▁जोबाखै	-10.4082
गथाय	-10.4086
▁सान्ति	-10.4087
डा	-10.4092
बादाव	-10.4092
▁गान्नानै	-10.4092
रियाव	-10.4094
▁नांज्लाय	-10.4096
▁जोहोलावा	-10.4096
▁दाउब	-10.4097
▁रुजुन	-10.4097
▁हाजोआव	-10.4098
▁हुक	-10.4098
▁थोआ	-10.4098
▁फोथायो	-10.41
▁दोगोन	-10.4104
▁खालामनायखौ	-10.4105
▁लोंग्रा	-10.4106
बालु	-10.4106
▁आगोलनि	-10.4106
▁खुरनानै	-10.4109
▁नोजोराव	-10.4109
▁खो	-10.4115
▁थाखोआव	-10.4116
▁नांथारगौ	-10.4117
▁जोम	-10.412
▁लादो	-10.4121
▁सिउ	-10.4124
▁श्री	-10.4127
▁बोरायखौ	-10.4135
▁सेक्सपीयेरनि	-10.414
बिलाइ	-10.4146
▁जय	-10.4147
▁थांहां	-10.4149
▁जागायनाय	-10.4149
▁रोंनाय	-10.4152
▁दाबसेयाव	-10.4153
▁फोरा	-10.4153
▁सानखो	-10.4157
▁सोदोबआ	-10.4159
ग्र	-10.4169
▁समबारुवा	-10.417
▁फुट	-10.4172
▁गेटाव	-10.4172
▁जारिमिनाव	-10.4173
फोरानो	-10.4178
▁दरबासिया	-10.4178
▁गाबबाय	-10.4183
▁H	-10.4184
▁जोबनायाव	-10.4187
▁रहेलाया	-10.419
▁दाजानाय	-10.4205
am	-10.421
क्स	-10.4212
▁जाहोनाय	-10.4216
▁आग्रा	-10.4229
▁देरहा	-10.4231
▁मुलियाव	-10.4233
नाङै	-10.4233
▁बखि	-10.4235
▁लायाब्ला	-10.4238
▁जासेनो	-10.4243
▁खालामदो	-10.4245
5.	-10.4247
▁गोसोवा	-10.4252
वार	-10.4255
▁बाहागोआ	-10.4255
लुं	-10.4257
▁थाखानाय	-10.4265
▁सह	-10.4266
▁सायो	-10.4273
▁साजायनाय	-10.4273
ग्रे	-10.4275
्रि	-10.4277
▁थुनफावथाइयाव	-10.428
थी	-10.4284
es	-10.4287
गं	-10.4293
▁जगाय	-10.4295
▁दैमाया	-10.4296
हांमा	-10.4297
▁गलाम	-10.4302
▁............	-10.4316
▁लांफै	-10.4323
▁मुलुगा	-10.4325
▁जर	-10.4328
▁फोनां	-10.433
▁बथलखौ	-10.4331
▁रायज्लायनो	-10.4334
भा	-10.4335
▁/	-10.4341
खायसो	-10.4341
▁लाबोबाय	-10.4347
ion	-10.435
न्दि	-10.4354
▁मावनायाव	-10.4366
▁गिसि	-10.4372
en	-10.4376
▁जोंनाय	-10.438
▁बुंग्रा	-10.4381
जिया	-10.4389
▁लाम	-10.439
▁थैनानै	-10.4396
▁फाननो	-10.4396
▁जंखाय	-10.4396
▁नोंदा	-10.4411
▁लख्रा	-10.4419
▁खांनानै	-10.4422
▁अन्नायखौ	-10.4424
▁होफैदों	-10.4428
एस	-10.443
▁बाबा	-10.4436
▁सालिसनि	-10.4452
▁बिखौनो	-10.446
▁मिनिनो	-10.4465
▁एबसु	-10.447
कार	-10.4478
▁हौवाया	-10.4479
गारो	-10.4485
▁बुजा	-10.4493
▁नांजाब	-10.4496
▁कामाख्या	-10.4497
▁जाहोना	-10.4504
फानो	-10.4507
▁फिसाय	-10.4509
ुं	-10.451
▁महन	-10.4511
▁हास	-10.4515
▁मुलुगखौ	-10.4518
▁हाब्ला	-10.4523
▁साबा	-10.4526
▁हाम	-10.4531
▁सिंह	-10.4534
▁फांथे	-10.4539
▁पा	-10.455
▁हासु	-10.4551
▁खुथार	-10.4561
▁थायोमोन	-10.4564
▁मोनब्लानो	-10.4565
▁एरनाय	-10.457
याब्ला	-10.4574
स्रो	-10.4579
▁दुखुखौ	-10.4582
खानानै	-10.4585
▁सियार	-10.4585
▁दाथ	-10.4588
अन	-10.459
▁खोनानाय	-10.459
▁b	-10.459
............	-10.4591
निफ्राइ	-10.4593
▁सिनायथिखौ	-10.46
थेर	-10.4601
जासिम	-10.4606
▁फोला	-10.4607
ब्लासो	-10.4611
▁थियेटारा	-10.4614
▁सोला	-10.4618
▁बिनाव	-10.4624
लांनायनि	-10.4625
▁अलकेश	-10.4626
▁बिगुमा	-10.463
ँ	-10.4631
w	-10.4633
फार्से	-10.4635
उन्दै	-10.4635
▁सानबोलाउरि	-10.4639
▁थिखादार	-10.4639
▁हटेल	-10.464
▁टेबुल	-10.4641
▁मुंमानि	-10.4646
थेवबो	-10.4647
▁दोनखोमा	-10.4649
लायाव	-10.4653
▁बेखेवगा	-10.4654
▁बाब	-10.4659
▁माया	-10.466
▁बुथारनो	-10.466
ब्ले	-10.4662
ख्ला	-10.4664
▁एप्लिकेसन	-10.4672
▁रंजालिनि	-10.4673
▁बुंलांदों	-10.4674
▁बाज्ल	-10.4678
▁प्रिन्ट	-10.4678
▁नेवसि	-10.4679
▁एप्रिल	-10.4679
▁बङाइगाँव	-10.4679
▁देरहासाद	-10.4679
▁बिजनेस	-10.4679
▁बुर्लुंबुथुर	-10.4679
▁बाबांसिन	-10.4679
▁बिन्दो	-10.4679
▁लग्न	-10.4679
▁हाइजें	-10.4679
▁थुंगि	-10.4679
▁अनागारि	-10.4679
ate	-10.4679
▁लेफे	-10.468
▁दुयारी	-10.468
▁दांग्रोम	-10.468
▁फुख्रि	-10.468
▁थाइजौ	-10.468
▁अक्त	-10.468
▁लावखार	-10.468
▁मोगथाङा	-10.4681
▁बिजनी	-10.4682
▁सुवामि	-10.4683
▁सबाइ	-10.4683
▁थिनदों	-10.4683
▁दुथां	-10.4683
▁आथिङा	-10.4684
▁जानजि	-10.4684
फ्लाङो	-10.4685
▁हमासै	-10.4686
▁ऐखालि	-10.4686
▁बदनाम	-10.4686
▁नाम्बार	-10.4687
▁खारदै	-10.4687
▁दावहारु	-10.4687
▁एक्स	-10.4687
▁आखान्थि	-10.4688
▁हामगोन	-10.4688
▁बावहाय	-10.4688
▁गोथों	-10.4689
▁हरेन	-10.4692
हरा	-10.4692
▁ऋ	-10.4692
ाब्ला	-10.4693
▁फाख्रि	-10.4694
▁बांग्रि	-10.4695
▁जोबथारनायाव	-10.4696
▁बिरहां	-10.4696
▁लेंहरदों	-10.4697
▁डाइन	-10.4699
▁बिलाइस्रिया	-10.47
▁फान्नानै	-10.4702
▁बारजों	-10.4703
▁बिलोगो	-10.4706
▁बुंङो	-10.4707
▁थिरांथा	-10.4708
▁थिनबाय	-10.471
▁जुथाय	-10.4711
▁खुरमा	-10.4712
▁नायदो	-10.4713
▁जालायखो	-10.4715
▁खालामनांगोन	-10.4715
▁होम्बाना	-10.4715
▁सोरबाया	-10.4716
▁गंब्रै	-10.4727
▁खियो	-10.4731
▁दुब्लियाव	-10.4732
▁मावफारिया	-10.4732
▁दंफांनि	-10.4736
▁मोनथिगौ	-10.4736
▁खालामखो	-10.4739
▁होनायखौ	-10.4744
▁बिथिंनिफ्राय	-10.4748
▁हाबहैयो	-10.4749
▁खुसियै	-10.475
▁फारा	-10.4751
▁बानाजों	-10.4751
▁रुमा	-10.4751
▁मावब्ला	-10.4752
▁लिरग्रा	-10.476
ंनानै	-10.4762
▁दाथां	-10.4763
▁फैफिनो	-10.4763
▁जिरायबाय	-10.4766
▁27	-10.4766
▁थें	-10.4767
g	-10.4768
▁बेहा	-10.477
▁स्	-10.4772
..............	-10.4775
▁रसा	-10.4775
बावनांगौ	-10.4779
▁बेलासियाव	-10.4781
▁आरसा	-10.4785
▁दाजाबनानै	-10.4787
▁सोंदोंमोन	-10.4789
▁आलासिफोर	-10.479
▁बुंनायखौ	-10.4793
▁बुंबावनो	-10.4794
▁दरा	-10.4795
दोंगो	-10.4795
ग्ल	-10.4795
▁अख्रांनि	-10.4795
▁मुगैनाय	-10.4797
▁आनै	-10.4804
र्ग	-10.4805
▁थाबावनो	-10.4806
दम	-10.4807
थावा	-10.4808
▁जाथारबाय	-10.481
▁जाबो	-10.4817
▁फैयै	-10.4826
▁बेद	-10.483
▁दावबायारिफोर	-10.4832
▁G	-10.4833
▁खामानिफोरखौ	-10.4836
▁हाग्रानि	-10.4837
फानानै	-10.4841
▁सुरनाय	-10.4846
नी	-10.4854
▁सुरथ	-10.4857
▁बाल	-10.4858
▁खोल	-10.4865
▁खुवा	-10.4866
▁सानफा	-10.4866
▁फुंनिफ्राय	-10.4872
▁खाराव	-10.4875
बंग्रा	-10.4876
▁फंबायखौ	-10.4881
▁लिरनाया	-10.4884
▁जोलैनि	-10.4885
6	-10.4889
▁सुबुंफोरनि	-10.489
▁बेगखौ	-10.4892
बाथा	-10.4899
▁सोबा	-10.4899
▁सेवारिनि	-10.49
▁नट	-10.49
▁दैदेन	-10.4919
बायदि	-10.4925
▁जोनोमगिरि	-10.493
▁लानायखौ	-10.4942
▁बिन	-10.4955
जेननाय	-10.4956
▁सिरियै	-10.496
▁हेमलेटनि	-10.497
▁फिनखौ	-10.4972
▁राहाखौ	-10.4973
▁फोरोंनाय	-10.4974
▁बारनो	-10.4986
▁ननिफ्राय	-10.4991
▁रायदाव	-10.5003
▁रान्दि	-10.5005
▁जम	-10.5008
▁बाहायनायाव	-10.5012
▁हैनो	-10.5021
▁जनो	-10.5048
▁आरतिखौ	-10.5049
▁भेन	-10.5058
▁बावनाय	-10.5063
लामा	-10.5063
▁मेव	-10.5069
छ	-10.5073
▁थायनै	-10.5078
▁इयुनखौ	-10.5079
▁फावजों	-10.508
▁सानहाब	-10.5083
▁बोसोरबा	-10.5088
▁बोथोरा	-10.5092
▁फोथार	-10.5093
▁रेन्जार	-10.5093
▁रोजाब	-10.51
0.	-10.51
▁लोगोफ्रा	-10.5103
ce	-10.5108
▁जौखौ	-10.511
▁बिबारा	-10.5115
▁फ्रि	-10.5116
हाव	-10.5116
▁हांखोफोर	-10.5119
▁गोबावनि	-10.513
भार	-10.5132
▁होनब्लानो	-10.5132
▁जारिमिना	-10.5135
▁हेब	-10.5138
▁बिदानि	-10.515
▁नागाफोर	-10.515
▁हिनजावसा	-10.5151
▁अबंलावरि	-10.5153
▁सौरा	-10.5159
▁मुवाखौ	-10.5164
▁मोनाम	-10.5167
▁इण्ड	-10.5167
▁मुरा	-10.5168
▁नरेश	-10.517
▁अनगा	-10.517
ोलो	-10.5171
मेट	-10.5175
▁आंनियाव	-10.5182
▁जुथुम	-10.5189
▁व	-10.5191
▁हामथार	-10.5192
▁फोरखौ	-10.5199
लासेनो	-10.5209
▁मोखांनि	-10.5209
▁खुन	-10.5218
यावबो	-10.5219
▁गुमैया	-10.522
▁लोगोफोर	-10.522
▁आथिंनि	-10.5225
▁छ	-10.5237
लांगोन	-10.5239
▁हारिमुनि	-10.5246
▁जोंरु	-10.5246
▁साय	-10.5249
S	-10.5251
▁होनोब्ला	-10.5252
▁गोमोहाब	-10.5255
▁सिखारबाय	-10.5271
▁गंस्रि	-10.5281
▁लाउथि	-10.5283
मानसि	-10.5286
यनाय	-10.5287
DOS	-10.5288
▁अमल	-10.529
हिन्जाव	-10.529
▁मामाय	-10.5292
ान	-10.5292
▁आलुमिंगि	-10.5295
▁थाब्लाबो	-10.5297
▁कामरुप	-10.5299
▁फावदुर	-10.53
▁लेबेल	-10.5301
फ्लांबाय	-10.5303
नांगौमोन	-10.5303
▁थुनफावथाइया	-10.5303
▁बिनारामनि	-10.5305
▁झ	-10.5306
▁रंजाली	-10.5306
रुफा	-10.5309
▁हेमलेटा	-10.5316
▁de	-10.5319
▁बायदों	-10.5319
इउ	-10.5321
▁100	-10.5321
▁सोद्रोमाफोर	-10.5321
सालि	-10.5328
रागा	-10.5329
▁फैनाया	-10.5333
ः	-10.5333
▁Soli	-10.5335
▁*	-10.5335
▁अदालगुरी	-10.5335
▁डकुमेन्ट	-10.5335
▁युमुना	-10.5335
▁खामफ्लाइ	-10.5335
▁गबिन्द	-10.5335
▁माइक्र	-10.5335
▁मैखोम	-10.5335
▁दाङाबाजि	-10.5335
▁सोरमाङा	-10.5335
▁मेरगा	-10.5335
▁अंक	-10.5335
▁मिबथि	-10.5335
▁गोजोन्नाय	-10.5335
▁थेलेब	-10.5335
▁फोनांजाब	-10.5336
▁स्क्रिन	-10.5336
▁आजायनाय	-10.5337
▁जापान	-10.5337
▁हायेनारि	-10.5337
▁थिखिनि	-10.5337
▁बाथुल	-10.5337
▁डिटेकटिभ	-10.5337
▁आइजें	-10.5338
▁होंगो	-10.5338
हांखो	-10.5338
▁रोङाखिसै	-10.5338
▁गेबें	-10.534
▁बुंथि	-10.534
▁गोफोन	-10.534
▁गुरलुब	-10.5341
▁बाग्लाय	-10.5341
▁फिथर	-10.5341
▁होनजायो	-10.5341
▁सिथला	-10.5343
▁अलसिया	-10.5344
▁जाहाज	-10.5344
▁खारलाङो	-10.5344
▁गाबखाङो	-10.5345
▁बापा	-10.5345
▁स्लिम	-10.5347
▁खरथें	-10.5348
▁बर्ड	-10.535
▁बुंथिगिरि	-10.535
▁आगर	-10.5351
▁हिस्रि	-10.5351
▁जानांदों	-10.5351
▁होखां	-10.5352
▁नम्बरि	-10.5352
▁बान्दोल	-10.5353
▁बायजोआव	-10.5353
▁बुङासै	-10.5355
▁सानजाहा	-10.5357
▁खेला	-10.5359
▁बेरेखायै	-10.5359
खायसे	-10.536
▁बहाथो	-10.5363
▁दलद	-10.5363
▁बुंफैयो	-10.5365
▁सिगांनिफ्रायनो	-10.5369
▁बिग्रायारिफोर	-10.5371
▁बालाबारि	-10.5372
▁बाहागि	-10.5374
▁रुफाथिया	-10.5374
▁नुजायो	-10.5374
▁फिट	-10.5374
▁गोब्राम	-10.5374
▁खुलुमबाय	-10.5374
▁जानांबाय	-10.5376
▁रायज्लायबाय	-10.5376
▁सुथुरखौ	-10.5377
▁थाइलालिआ	-10.5377
▁जालिया	-10.5379
▁जाल्ला	-10.5382
▁सागु	-10.5383
▁लोंदों	-10.5383
▁हामनाय	-10.539
▁हमस	-10.539
न्त	-10.5392
▁हाखिमा	-10.5393
▁आलारि	-10.5398
▁थुलुंगानि	-10.5399
▁सिख्लाफोर	-10.5404
▁मिथिमोन	-10.5406
▁लोगोआ	-10.5411
▁प्ल	-10.5413
▁मिथिंगाया	-10.5417
▁आब्रा	-10.5421
▁दफा	-10.5424
▁बोसोरसे	-10.5424
▁जिनै	-10.5428
▁फसंनाय	-10.5429
सासे	-10.5431
थ्रा	-10.5432
▁फरायबाय	-10.5437
▁आयदाया	-10.5438
▁बाथ्राजों	-10.5445
बुंनानै	-10.5446
▁जालायनाय	-10.5448
▁बुङोब्ला	-10.5449
▁होननाया	-10.545
▁बाजारि	-10.5457
बासो	-10.5459
▁लिंनानै	-10.5461
▁हारावा	-10.5465
▁मैला	-10.5465
▁जोब्बाय	-10.5468
▁गामोन	-10.5475
▁मिथिखागौ	-10.5475
▁सोमाव	-10.5483
बिफाया	-10.5487
▁नुहरबाय	-10.5488
▁सोंनायाव	-10.5489
▁खारा	-10.549
▁...........	-10.5491
▁आन्दो	-10.5494
▁गारा	-10.5507
▁जोर	-10.5508
▁जाखांबाय	-10.5512
रग	-10.5515
▁खैना	-10.5523
▁फाननानै	-10.5525
सोल	-10.5526
▁दिननिफ्राय	-10.5529
▁बुयो	-10.5536
▁अखाफोराव	-10.5536
...."	-10.5537
▁थिनो	-10.5541
▁सोंनाया	-10.5544
▁मैसो	-10.5545
▁मनजुखौ	-10.5546
▁सोदोबफोरखौ	-10.5548
▁संसारा	-10.5549
▁बावबाय	-10.5552
▁थों	-10.5552
▁अन्नाया	-10.5553
थर	-10.5555
▁बाथ	-10.5557
▁थोनाय	-10.5557
▁दावसि	-10.5559
▁लोंखां	-10.5559
▁देरगानाय	-10.5561
▁लांगोन	-10.5561
ानै	-10.5563
बिमा	-10.5599
▁=	-10.5601
▁इसोरनि	-10.5609
▁खैफोदनि	-10.561
▁धोरोमा	-10.5618
▁सुनो	-10.562
▁गिदिंनाय	-10.5623
▁खोमसिया	-10.5626
▁बेरा	-10.5627
▁अननायाव	-10.5634
ोब्ला	-10.5639
▁खिन्थाबाय	-10.564
▁बेनोथ	-10.5645
▁बोनाया	-10.5648
▁देंखोआ	-10.5649
म्बा	-10.5651
▁मोनथिनो	-10.566
▁संसारखौ	-10.5665
▁जाबोनाय	-10.5672
▁थुलुंगाया	-10.5674
डार	-10.57
▁गैथारा	-10.57
▁थुंग्रिखौ	-10.5703
▁जथ	-10.5706
▁थायै	-10.5708
▁ओंखामखौ	-10.5711
▁थास	-10.5722
▁जाथ	-10.5728
▁मंगलबार	-10.573
मी	-10.573
▁सोमो	-10.5731
▁फोथायनो	-10.5731
तु	-10.5737
▁भुटियाफोर	-10.5739
▁देरनाय	-10.5742
सिरि	-10.5746
▁लाजिनानै	-10.5747
▁अनलायनाय	-10.5753
▁सेवारि	-10.5758
▁जायाखैमोन	-10.5759
▁बाइ	-10.5763
▁जौनि	-10.5765
हैनानै	-10.5779
▁लाबोफा	-10.578
▁गोसोयै	-10.5784
साल	-10.5786
▁बिसना	-10.5794
▁दावखा	-10.5803
▁दोम	-10.5804
▁सफैबाय	-10.5811
▁मेथाय	-10.5812
वाखैमोन	-10.5826
▁गाबख्राव	-10.5826
▁आंनिफ्राय	-10.5826
फिनदों	-10.5827
▁माबि	-10.5835
▁मालायजों	-10.5835
▁बिल	-10.5848
रासे	-10.5854
▁सानसु	-10.5854
▁दिनैनो	-10.5858
ir	-10.5867
▁बिखाखौ	-10.5885
▁गाखोनाय	-10.5888
▁कन	-10.589
होन	-10.5892
▁नारसिन	-10.5895
▁होबोदों	-10.5901
▁बेंनाय	-10.5901
▁दोहोन	-10.5904
▁उन्दैयाव	-10.5908
cto	-10.5911
▁खिथा	-10.5912
▁दारि	-10.5916
▁फिदिं	-10.5917
▁लिंहरदों	-10.5929
▁थानायावनो	-10.5931
▁बाउ	-10.5931
▁सुस्रां	-10.5933
▁सोमावसार	-10.5935
▁रय	-10.5937
se	-10.5938
▁लान्था	-10.5941
▁गोरानि	-10.5944
ख्रुब	-10.595
दं	-10.5954
▁हक	-10.5956
▁साखा	-10.5959
ननानै	-10.5961
▁गेटनि	-10.5963
गुरि	-10.5966
▁खाला	-10.5968
▁साननायखौ	-10.597
त्र	-10.5974
ख्रेब	-10.5975
▁दायाव	-10.5975
I	-10.5978
ामोन	-10.5982
▁नार्जारि	-10.5985
▁फैलाय	-10.5989
ज्राब	-10.5991
C	-10.5991
▁शिब	-10.5993
ओंखाम	-10.5993
हौवा	-10.5994
▁नायबा	-10.5995
लाइफां	-10.5995
▁कन्	-10.5996
▁खेराइ	-10.5996
थाङो	-10.5996
मोखां	-10.5997
बेथेर	-10.5998
▁कारजि	-10.6
फंबाय	-10.6003
▁??	-10.6004
क्ष	-10.6005
नोंसोर	-10.601
दौ	-10.6011
▁दावगानाय	-10.6012
फिसाइ	-10.6015
▁फरायग्राफोरनि	-10.6021
▁अनजिमाया	-10.6022
▁कास्तमार	-10.6025
फाखा	-10.6027
▁गोसोआबो	-10.6031
गोमजा	-10.6035
▁अनसुमै	-10.6037
▁उरिष्या	-10.6037
▁कौटि	-10.6037
▁नीलकमल	-10.6037
▁शर्मा	-10.6037
▁वर्	-10.6037
▁लेन्थन	-10.6037
केनसेल	-10.6037
▁हाथियार	-10.6037
▁जार्मान	-10.6037
▁ग्रोब	-10.6037
▁गोनोखोआरि	-10.6037
▁निउक्लियार	-10.6037
▁वार्ड	-10.6037
▁2009	-10.6037
▁बंफां	-10.6037
▁लाउदुम	-10.6037
day	-10.6038
▁चेयार	-10.6038
▁भबेन	-10.6038
▁गुरलाब	-10.6038
▁गोलोमदै	-10.6038
▁सामब्राम	-10.6038
▁बिबथै	-10.6038
▁बन्ध	-10.6039
▁$	-10.6039
▁जवानफोर	-10.6039
▁नायजाबगिरिया	-10.604
▁जाफुङा	-10.604
▁जेनेरेल	-10.604
▁ट्रेक्टर	-10.6041
▁हुसियार	-10.6041
▁अमब्रा	-10.6042
▁थुख्रा	-10.6042
▁बियादै	-10.6042
▁संस्कृत	-10.6042
▁रोङाखै	-10.6043
ख्लाब	-10.6044
▁राङारि	-10.6044
▁नायदाव	-10.6045
▁थुनलाइगिरि	-10.6045
▁दाउदै	-10.6046
▁आयना	-10.6046
▁उइल	-10.6047
▁बिसुखे	-10.6048
▁गेसाव	-10.6048
▁हांगारि	-10.6048
▁दिरिया	-10.6048
▁फैसाली	-10.6048
▁कृष्ण	-10.6049
▁बिस्कुट	-10.6049
▁कमेदि	-10.6049
▁कफि	-10.6049
एनै	-10.605
▁मोनदां	-10.605
▁दुइसिन	-10.6052
ब्रु	-10.6053
▁दलर	-10.6054
▁गोदोनिफ्रायनो	-10.6054
▁जौसाय	-10.6055
▁एखे	-10.6056
▁नुहुर	-10.6056
▁थाथोंसै	-10.6058
▁दरसि	-10.6058
▁खिला	-10.6058
▁मेउ	-10.6059
▁जुजिगोन	-10.606
▁अख्रांमा	-10.6062
▁खोनादों	-10.6063
▁गेलेग्रा	-10.6063
▁नुथाइ	-10.6063
▁नांला	-10.6063
▁हान्था	-10.6065
▁मिथिगोन	-10.6065
बेर	-10.6066
▁गाथोनाव	-10.6067
▁ग्रीमउइगा	-10.6068
▁बोरैथो	-10.6068
▁दानथार	-10.607
▁थामजि	-10.607
▁सिखाङो	-10.6073
▁बाब्राब	-10.6078
▁आबारीया	-10.6078
▁वाइ	-10.6079
▁बरगयारीया	-10.6079
▁मेसिन	-10.6081
मेन्ट	-10.6083
▁खनखां	-10.6083
▁जाखाङो	-10.6086
▁कर्णियाखौ	-10.6088
▁ँ	-10.6088
▁रेबतीया	-10.6089
▁उवाल	-10.609
▁नौनारिफोर	-10.6092
▁गिदों	-10.6096
▁बेखेवनो	-10.6099
▁दुसि	-10.6101
▁फैफिनबाय	-10.6101
▁लाबोगोन	-10.6102
▁खान्थिनि	-10.6103
र्म	-10.6104
▁सान्	-10.6113
▁40	-10.6113
▁आबारि	-10.6123
▁सेरावनो	-10.6123
जैमती	-10.6129
न्दर	-10.6129
▁हमदोंमोन	-10.6131
▁दानथाम	-10.6133
▁गोब्राबै	-10.6135
▁फालोसे	-10.6136
▁नोंहालाय	-10.6138
▁दद्र	-10.6138
▁फारागा	-10.6143
▁आखुथाइ	-10.6147
▁जागा	-10.6153
▁थाहैनाय	-10.6158
सेयावबो	-10.6163
▁बादायलायनाय	-10.6163
▁बुजिया	-10.6164
▁पार्	-10.6165
▁बायबाय	-10.6165
▁गेवा	-10.6166
▁बिबारखौ	-10.6167
▁तितागुरिनि	-10.617
▁बुथारनायनि	-10.6173
▁ब्रेक	-10.6179
▁7.	-10.6183
▁नांजा	-10.6183
▁लांदोंमोन	-10.6184
▁मुहिनि	-10.6187
▁बाजिनिफ्राय	-10.6187
▁सारा	-10.6189
▁नेर	-10.619
in	-10.6191
▁मोन्नायखौ	-10.6203
▁बिबाय	-10.6206
▁मोनासै	-10.6206
▁एरा	-10.6208
▁बिसाइ	-10.6209
▁हरगोन	-10.621
▁दंब्लाबो	-10.6211
▁माइल	-10.6214
▁मनजुलानि	-10.6217
▁जिंगासि	-10.6218
मथे	-10.6223
▁राहाया	-10.6224
▁खोमोरनो	-10.6225
▁मोसायै	-10.6226
▁खैफोर	-10.6231
बोदोंमोन	-10.6232
▁बिबानाव	-10.6238
▁महननि	-10.624
▁प्रेमधरनि	-10.6242
▁जिउवाव	-10.6244
गी	-10.6249
▁सोंथि	-10.6249
▁हयै	-10.6251
▁दैखांनाय	-10.6254
▁जुजिनाय	-10.6265
▁गाम्बारिया	-10.627
▁जवा	-10.6279
▁आम	-10.6284
ग्रोम	-10.6284
▁बुंलांनाय	-10.6286
▁नुनायाव	-10.6287
▁साइकेलजों	-10.6289
▁बियाव	-10.6307
गिरिया	-10.631
▁सिफायनो	-10.6311
▁मना	-10.6311
थारनांगोन	-10.6313
▁आंसो	-10.6314
▁खालामै	-10.6325
▁अनी	-10.6327
▁जात	-10.6348
▁मीना	-10.6351
▁पाप	-10.6351
▁गोलैनाय	-10.6357
▁लासैयै	-10.6358
▁थांखिखौ	-10.6369
लेर	-10.6369
▁होफैनाय	-10.6375
▁रिंसारा	-10.6377
▁हेफाजाबाव	-10.6378
रायना	-10.6381
▁सोराव	-10.6384
▁नाव	-10.6386
▁थाबोला	-10.6387
▁फास	-10.6389
फ्रि	-10.6393
▁बोराइखौ	-10.6398
▁दावखो	-10.64
▁बेमार	-10.6408
▁फोथा	-10.641
▁केम्प	-10.641
▁नोंथांमोननि	-10.6418
▁दावब	-10.6428
▁स्व	-10.6434
▁बारबाय	-10.6449
▁काल	-10.645
फारि	-10.6452
▁नागारनो	-10.647
▁रायनाय	-10.6474
▁दोलोआ	-10.6476
▁जासि	-10.6478
▁गिरि	-10.6483
▁बारसोम	-10.6491
▁जोंना	-10.6499
थियाव	-10.6502
लाबानो	-10.651
▁बिहावनि	-10.6514
ब्रब	-10.6519
थिख	-10.653
गय	-10.6534
▁हालाय	-10.6535
▁बिरलां	-10.6537
▁गावबुरानि	-10.6539
▁मनजुला	-10.6541
▁थाफा	-10.6544
▁एसि	-10.6548
▁थायाखै	-10.6548
▁बिमाजों	-10.6549
▁सान्नायखौ	-10.6555
...।"	-10.6559
ख्लाय	-10.6563
▁साख	-10.6563
▁8.	-10.6565
▁दैखांदों	-10.6571
▁भुम	-10.6578
▁फाइलनि	-10.6584
▁गाइखेरखौ	-10.6586
▁एरखां	-10.6589
▁जानायखाय	-10.6592
▁मास	-10.6594
▁बिलिफाङाबो	-10.66
▁खल	-10.66
▁सर्मा	-10.6602
खांदों	-10.6603
▁बाग्राय	-10.6612
लाङाखै	-10.6614
▁प्रदिप	-10.6618
▁सेंग्राजों	-10.662
नाथा	-10.6624
▁सिन्था	-10.6625
▁संदान	-10.6627
▁गोरोन्थिखौ	-10.6634
▁लाखोमा	-10.6637
नीया	-10.6638
▁खुर	-10.664
▁अह	-10.6645
▁बस	-10.6654
▁---	-10.6658
▁198	-10.6661
▁फब	-10.6669
▁जाद	-10.6673
▁दुर	-10.6676
▁बद	-10.6695
▁मोनथिया	-10.6698
▁गगल्स	-10.6702
▁सान्थ्रिफोर	-10.6704
▁डाक्तार	-10.6721
गेन	-10.6723
▁हाखिम	-10.6726
D	-10.6728
▁लायनाय	-10.6738
▁मोदायजो	-10.6739
▁मोनफिन	-10.6743
फारिया	-10.6745
▁हानजानि	-10.6746
-[	-10.6746
हरनो	-10.6746
▁दाख	-10.6747
दौलद	-10.6747
बाहागि	-10.6747
▁गरसे	-10.675
▁बानजायफुं	-10.675
▁बिग्रायारि	-10.6751
▁मदाराम	-10.6752
▁सोद्रोम	-10.6753
यासै	-10.6754
▁खांनाय	-10.6755
▁जायाब्ला	-10.6756
▁मेडि	-10.6764
▁कर्ट	-10.6764
▁सानथ्र	-10.6769
खान्थियारि	-10.677
▁दैमारी	-10.677
▁हज्रि	-10.6776
▁दामोन	-10.6778
दुं	-10.6779
▁थुनलाया	-10.6782
▁गोजांस्रिव	-10.6784
▁दरलाय	-10.6788
कराझार	-10.6789
▁बिलिद	-10.679
\	-10.6792
▁अंगुबै	-10.6792
▁अन्जिमा	-10.6792
▁इजराइल	-10.6792
▁उलाफाद	-10.6792
▁कमिसनार	-10.6792
▁गुगुरुब	-10.6792
▁जांगिला	-10.6792
▁बेंपार्ति	-10.6792
▁बेब्दि	-10.6792
▁बोथ्रोद	-10.6792
▁मुलामफा	-10.6792
▁होनथेयो	-10.6792
▁जुलाफि	-10.6792
▁बिरहाङा	-10.6792
▁बुंफबनाय	-10.6792
▁मबाइल	-10.6792
▁जानोहागौ	-10.6792
▁बदमाइस	-10.6792
▁mean	-10.6792
आलाइ	-10.6792
▁कम्पानि	-10.6792
▁हालामनि	-10.6792
▁रोङि	-10.6792
▁बायहेरा	-10.6792
▁गेदाइ	-10.6792
▁अपमान	-10.6792
▁राखाउ	-10.6792
▁मारुति	-10.6793
▁जाइली	-10.6793
ज्रां	-10.6793
▁जात्रागान	-10.6793
▁निरामिस	-10.6793
▁बालन्दा	-10.6793
▁हेन्देल	-10.6793
▁हार्सा	-10.6793
बजबनानै	-10.6793
▁थानादार	-10.6793
▁गोदना	-10.6793
▁मोनलोङा	-10.6793
▁मोनजारोङै	-10.6794
▁IBM	-10.6795
▁कमन	-10.6795
▁निखावरि	-10.6795
▁बागदाव	-10.6795
▁साबगौ	-10.6796
▁बिबुंसार	-10.6796
▁बोथिसे	-10.6797
▁मेइन	-10.6797
▁सोमखे	-10.6797
▁दोनथुमग्रा	-10.6798
▁बिबोनां	-10.6798
▁मिलिटारि	-10.6798
▁अभार	-10.6799
▁मेनु	-10.6799
▁तुला	-10.6799
▁दन्दि	-10.6801
▁खान्थाल	-10.6802
▁सोंफिनो	-10.6802
▁हार्ड	-10.6803
▁सान्दा	-10.6804
▁बिजिरसालियाव	-10.6805
▁हब्रा	-10.6806
▁आब्राम	-10.6806
▁मालाया	-10.6806
▁सुलु	-10.6806
▁ओरैबादि	-10.6807
▁सोमजियो	-10.6808
▁हामगौमोन	-10.6808
▁गसाया	-10.6808
▁फैनायनि	-10.6808
▁सानाखै	-10.6812
▁गामसा	-10.6812
▁जाथारदों	-10.6813
▁गिसिब	-10.6814
▁बुदां	-10.6817
▁ग्लाब	-10.6818
▁दरसे	-10.6818
▁ब्रैथि	-10.6818
▁धुना	-10.6818
▁एइस	-10.6819
▁आफोद	-10.682
▁नांथाब	-10.682
▁फोसावदों	-10.6821
▁जाथावै	-10.6821
▁खुन्थिया	-10.6821
▁उनदाहा	-10.6823
न्दी	-10.6824
▁गोथो	-10.6827
▁बादारि	-10.683
▁थांफिनबाय	-10.683
▁मुंमाया	-10.6835
▁खालामजानाय	-10.6837
▁सम्बारु	-10.684
▁एरसो	-10.6843
▁खोनायाखै	-10.6843
▁सोलोंसालि	-10.6844
▁राखेबा	-10.6844
▁थैनोसै	-10.6844
▁थावरि	-10.6845
▁---"	-10.6847
▁लाजियो	-10.6848
▁लिरगिरिफोरनि	-10.685
▁दिहुनगिरि	-10.6851
▁ओंखारदो	-10.6852
▁रिंसारआ	-10.6852
▁दिङा	-10.6858
▁आइलि	-10.6859
र्थ	-10.686
▁जाहैबाय	-10.6861
▁थैजा	-10.6861
▁साहाब	-10.6862
▁बेदरखौ	-10.6863
ंगा	-10.6864
मिटार	-10.6864
▁सिगि	-10.6864
▁सहि	-10.6865
▁गयथि	-10.6868
▁हाथर	-10.6868
ग्रोमोना	-10.6869
▁फैयामोन	-10.6874
▁समफोर	-10.6874
▁दाहानि	-10.6875
▁दिहुनबाय	-10.6876
▁जिर	-10.6876
▁बुयै	-10.6876
▁बिहामजोखौ	-10.6877
▁खुगानि	-10.6879
▁बुंहां	-10.6882
▁लखि	-10.6883
▁खालामगासिनो	-10.6883
▁आलां	-10.6888
▁मोसायो	-10.6889
▁रिंसारथि	-10.6897
▁खैसार	-10.6899
▁उन्दुबाय	-10.69
▁सरकारा	-10.6903
थारसै	-10.6905
हैदोंमोन	-10.6911
▁बारसे	-10.6912
▁गारबाय	-10.6913
बावनायसै	-10.6914
▁?''	-10.6916
▁रिंखां	-10.6921
▁फैनायसै	-10.6922
▁बेखेवफाखौ	-10.6927
▁फ्राय	-10.6929
▁राखां	-10.6931
▁बुंथिनाय	-10.6932
▁फोजों	-10.6935
▁नागारा	-10.6941
▁सोरनाव	-10.6943
▁बन्दा	-10.6949
सब	-10.6954
▁बेफ्रु	-10.6954
फैदो	-10.6955
खोमाबाय	-10.6957
▁दोलो	-10.6957
▁आफाफोर	-10.6961
▁फैला	-10.6962
▁देरनानै	-10.6969
नखौ	-10.6971
सिनबाय	-10.6974
▁आंखालाव	-10.6975
▁फरायनायाव	-10.6976
▁सोनो	-10.698
▁बुरखायनो	-10.6981
▁खानो	-10.6982
▁नायबिजिरनो	-10.6984
▁जाथाइया	-10.6984
▁आखि	-10.6989
▁गोमोनानै	-10.6991
सालियाव	-10.6994
थुर	-10.6997
ुल	-10.6998
दांनाय	-10.7002
बेनि	-10.701
्न	-10.7011
▁मोनामनाय	-10.7012
नोंथां	-10.7014
▁राइ	-10.7015
▁जायहा	-10.7016
▁जाल	-10.7017
▁मावफुंनो	-10.7018
▁बरफ	-10.702
▁खाङो	-10.702
▁थैब्लाबो	-10.7021
▁भट	-10.7024
▁सिथारनो	-10.7025
▁जाहैनो	-10.7027
▁सुफुंनाय	-10.7029
फ्लानानै	-10.7032
▁गुवाहाटीयाव	-10.7033
▁जबाय	-10.7034
▁बुंबा	-10.7036
▁वा	-10.7036
▁खान्थिजों	-10.7038
दाउ	-10.7039
ch	-10.704
▁गामिनिफ्राय	-10.7047
▁जादो	-10.7052
▁नायनि	-10.7056
▁गाबनाया	-10.7062
▁हास्थायनाय	-10.707
▁होलांनाय	-10.7071
▁बुंनाया	-10.7073
▁सांग्राङ	-10.7074
▁कमा	-10.7081
जोमनाय	-10.7087
बिला	-10.709
हैब्ला	-10.71
▁गोसोखांनानै	-10.7101
थायारि	-10.7107
▁रायजा	-10.7109
):	-10.7113
▁जाब्लाबो	-10.7118
▁बिजाबफोर	-10.7122
▁रांखान्थि	-10.7124
▁बेला	-10.7136
▁खुलुमनो	-10.7137
▁होनब्लाबो	-10.7137
▁नागिरनाया	-10.7142
▁बिजाबनि	-10.7144
▁रावनिफ्राय	-10.7144
▁फिनबाय	-10.7149
▁हांखोफोरखौ	-10.7153
दावसि	-10.7154
▁पु	-10.7164
▁मिस	-10.7171
▁लादाय	-10.7173
नार	-10.7174
▁नङादा	-10.7175
▁खिन्थानाय	-10.7176
▁लाइजामनि	-10.7181
खांब्ला	-10.7191
▁सायावसो	-10.7193
▁लाइजौ	-10.7194
▁अजाया	-10.7204
▁भे	-10.7205
▁फ्ल	-10.721
▁आन्दाज	-10.7211
गारा	-10.7218
▁बिरि	-10.7223
▁फंबाया	-10.7228
▁बिनहारीया	-10.723
▁+	-10.724
▁गुदु	-10.7241
▁आन्दास	-10.7248
आंहा	-10.725
▁आला	-10.7258
▁ओनसोल	-10.7261
▁बान्थाखौ	-10.7261
▁फैनायाव	-10.7264
▁रान्नाय	-10.7265
▁फोरोंनो	-10.7269
्दार	-10.7275
▁जौथाय	-10.7278
▁जरा	-10.7278
▁सुजु	-10.7278
▁उन्दुना	-10.7291
▁थिन्नाय	-10.7291
टिस	-10.7295
शन	-10.7296
आबो	-10.7298
▁बालानो	-10.7298
▁देलाय	-10.7299
▁खिन्थानानै	-10.7305
▁सासेनि	-10.7307
▁फरा	-10.7309
▁ति	-10.7309
▁सैमाया	-10.7312
▁बोला	-10.7322
फ्रु	-10.7329
▁ओंखारबोदों	-10.7334
खोमानाय	-10.7348
▁मिन्थिना	-10.7355
गाय	-10.736
होनायनि	-10.7369
▁गुबुनारि	-10.737
बहा	-10.7374
▁फरायखां	-10.7378
स्टि	-10.7388
▁सानस्रिया	-10.74
▁जाहोनखौ	-10.7402
▁राइजोयाव	-10.7403
N	-10.741
▁बारायो	-10.7415
▁गामिया	-10.7424
▁फोथांना	-10.7427
▁अबं	-10.7432
नायावनो	-10.7432
▁उखै	-10.7436
ry	-10.7441
▁लानानैसो	-10.7442
▁थारुन	-10.7443
▁ब्ल	-10.7449
बाल	-10.7452
▁बेज	-10.7464
र्द	-10.7469
▁बिबनां	-10.7472
▁खुंख्रा	-10.7474
▁तुलारामनि	-10.7478
▁थैनायखौ	-10.7479
गुर	-10.7481
दुर	-10.7483
गिर	-10.7484
▁दबथाय	-10.7492
र्ज	-10.7493
ओ	-10.7494
ग्रोन	-10.7497
▁थाबाव	-10.7502
▁ब्लाउ	-10.7514
▁जागि	-10.7514
▁सावख्लि	-10.7517
▁गुदुङ	-10.7522
▁हाथारा	-10.7526
▁--'	-10.7529
▁बिथि	-10.7529
मुस्रि	-10.753
▁उदैया	-10.7533
▁फेजेन	-10.7534
▁कैलाश	-10.7556
▁लांखार	-10.7557
ic	-10.7558
▁जेनो	-10.7561
शान्ति	-10.7564
लाब	-10.7564
थुनलाइ	-10.7565
आरति	-10.7565
न्द्र	-10.7566
मेथाइ	-10.7568
▁फेल	-10.7568
▁आवाराम	-10.7569
गुबै	-10.757
▁ब्र	-10.7573
बिदिब्ला	-10.7574
▁दायनि	-10.7575
▁गेम	-10.7576
▁जानगार	-10.7577
▁मास्टार	-10.7586
अउ	-10.7588
▁रुप	-10.7593
▁प्रशान्त	-10.7597
▁खाबुखौ	-10.7597
▁सप्ताह	-10.7601
▁रुंसार	-10.7602
▁बिथाखौ	-10.7603
लाम्फा	-10.7604
ंगिना	-10.7604
▁हौवाफोर	-10.7604
▁मणिपुर	-10.7605
▁हौ	-10.7606
▁संबिजिर	-10.7609
▁Excellency	-10.7609
▁इनिंथौ	-10.7609
▁जानुवारि	-10.7609
▁दाक्टार	-10.7609
▁सम्फथि	-10.7609
▁स्टाइल	-10.7609
▁इनस्ट्राकसन	-10.7609
▁उजिगासेयाव	-10.7609
▁एरेष्ट	-10.7609
▁गोजांस्रिउ	-10.7609
▁बुबिलि	-10.7609
▁आब्रुथि	-10.7609
▁सायनासालि	-10.7609
▁सावसुब	-10.7609
▁ग्रें	-10.7609
▁चौधुरी	-10.7609
▁थुरसि	-10.7609
▁बुधबार	-10.7609
▁मानिमुनि	-10.7609
ill	-10.7609
▁मोबायजों	-10.7609
▁गोजोनग्लाय	-10.7609
▁पाटिल	-10.7609
▁फुकन	-10.7609
▁मागि	-10.7609
▁लाइनमेन	-10.7609
▁खासिबारी	-10.7609
▁सानसुमै	-10.7609
▁खिथिर	-10.761
▁खन्थायारि	-10.761
▁दख्ना	-10.761
▁सादोर	-10.761
▁दुरुं	-10.761
▁एवस्रां	-10.761
▁गाराङै	-10.761
▁दस	-10.761
▁लाफिन	-10.761
▁दिनथि	-10.7611
▁मोदोमफ्रु	-10.7611
▁खरथेङा	-10.7611
▁बाहायखान्थि	-10.7611
▁अपारेशन	-10.7611
▁ट्रेजेदि	-10.7611
▁जोनोमफुरि	-10.7611
▁You	-10.7612
▁आमथा	-10.7613
▁बक्स	-10.7615
▁दाखोर	-10.7615
▁बोखे	-10.7615
▁पेपार	-10.7615
▁दखान	-10.7615
▁रयाथि	-10.7616
▁गावजें	-10.7616
▁दैमालु	-10.7617
▁आवगायलाङो	-10.7617
▁दोंनै	-10.7617
▁आवग्रि	-10.7617
▁उदयाचल	-10.7619
▁सिख्रि	-10.762
▁ट्रेजि	-10.762
▁बिप्लब	-10.762
▁बाहेराव	-10.7622
▁जारला	-10.7622
▁(5)	-10.7622
▁गोबाङा	-10.7623
▁सैबा	-10.7623
▁बुस्रि	-10.7623
▁नंथारगौ	-10.7623
▁सिकार	-10.7625
▁इन्दि	-10.7626
▁बावलांबाय	-10.7627
▁दोमै	-10.7627
▁खोलाहा	-10.7628
▁लागै	-10.7628
▁सुलुं	-10.7628
▁मोनथारबाय	-10.7629
▁भुगिनांनाय	-10.7629
▁खाजि	-10.7629
▁E	-10.7629
▁नायगिरदों	-10.7631
▁रायज्लायो	-10.7632
▁फोदो	-10.7633
▁प्रदीपा	-10.7635
कर	-10.7635
▁दमासुवा	-10.7636
▁सुजुगिरि	-10.7637
▁सन्थलाया	-10.7637
▁लोंनांगौ	-10.7637
लथर	-10.7638
▁B	-10.7638
▁सफ्ट	-10.7638
▁फानग्रा	-10.764
▁नायगार	-10.764
▁लागायनानै	-10.764
▁होथे	-10.7641
▁उन्दुलां	-10.7641
▁मिजिंथि	-10.7642
▁बिथं	-10.7644
▁थोयो	-10.7645
▁नुहरो	-10.7646
▁बोसोरनै	-10.7647
▁फाइलफोरखौ	-10.7647
डिजिटाल	-10.7649
▁दंथारो	-10.7649
▁मुङाव	-10.765
▁खावलायदों	-10.7653
▁थौदो	-10.7653
▁गुस्लायनाय	-10.7654
▁दिन्थिथि	-10.7654
▁अरायथा	-10.7655
▁साफि	-10.7655
जेन्नाय	-10.7656
थाइगं	-10.7658
▁नांनायनि	-10.7659
▁ग्रोम	-10.766
▁देरबाय	-10.766
▁उन्दुयो	-10.766
ावखुंग्रि	-10.766
▁ख्लाब	-10.7661
▁कैलाशा	-10.7661
▁मोन्थि	-10.7663
▁माइथायनिफ्राय	-10.7664
▁आबारीनि	-10.7665
▁गोमोबाय	-10.7666
सानैबो	-10.7668
▁ग्र	-10.7669
▁नाजाब्लाबो	-10.7669
▁जाजोबबाय	-10.7669
▁वेर	-10.7671
▁सोबख	-10.7671
▁मावाखै	-10.7675
▁दावसा	-10.7675
▁फेन	-10.7676
▁गोसोखाङो	-10.7676
▁एसेनोसै	-10.7677
▁बुंनांगोन	-10.7678
▁बुब्लिया	-10.7681
▁नोंसोरबो	-10.7681
▁गरसेबो	-10.7683
▁संराजा	-10.7686
▁गोमाजा	-10.7687
▁सानखालि	-10.7687
▁बल	-10.7688
▁जाहैयो	-10.7688
▁गैयाजासे	-10.7692
▁जायामोन	-10.7692
▁सें	-10.7692
▁सुखुनि	-10.7693
▁घरि	-10.7696
▁गाखोबाय	-10.7697
▁थुरि	-10.7698
▁ङ	-10.77
▁खारै	-10.7701
xt	-10.7703
▁नांलायनाय	-10.7705
▁हायाखैसै	-10.7705
▁बहाय	-10.7706
▁दौब्ला	-10.7707
▁थक	-10.7709
▁बारदों	-10.7709
▁थाङै	-10.7711
▁बाथाव	-10.7712
▁सुग्लाय	-10.7714
ग्रं	-10.7718
▁सानस	-10.7722
▁माखौबा	-10.7725
▁गिबाय	-10.7727
▁साद	-10.7728
▁बोखो	-10.7728
▁दबथायनो	-10.7728
▁बुंदो	-10.773
▁अबंलाउरिया	-10.7731
▁सोंनांगौ	-10.7732
▁थिसननाय	-10.7734
▁एसिद	-10.7735
▁मोसाहारिनि	-10.7742
▁उदुवा	-10.7743
▁बबावबा	-10.7748
▁गोमजोरा	-10.775
▁नोंबादि	-10.7751
▁नायजा	-10.7752
▁जांख्रिखांनाय	-10.7754
▁बाजुरामा	-10.7757
खल	-10.7761
▁उथ्रि	-10.7762
लासे	-10.7764
▁सोदोबथिया	-10.7768
▁थायाब्ला	-10.7774
▁जाहां	-10.7775
▁हुगारबाय	-10.7781
▁नेसा	-10.7781
▁आखुवाव	-10.7785
▁गोजांनाय	-10.7787
▁रोगा	-10.7788
▁मावना	-10.779
▁हमजा	-10.7799
हैनांगौ	-10.7802
न्नाय	-10.7804
▁खाफालानो	-10.7805
▁फिसाज्लाया	-10.7808
ीनि	-10.7811
▁खारबो	-10.7811
▁सेन	-10.782
▁सोरखि	-10.7822
▁खमलाय	-10.7825
▁बोबाय	-10.7829
ख्रां	-10.7833
फोरनाव	-10.7838
हाग्रा	-10.784
फरा	-10.7845
▁थिउ	-10.7846
▁लुबैनाया	-10.7851
▁मावै	-10.7854
▁गुमुरखौ	-10.7855
▁गलामनि	-10.7856
▁सोदोबाव	-10.7857
▁देंखोजों	-10.7858
▁बिजाथि	-10.7859
▁नेनो	-10.7866
▁रुमाल	-10.7869
▁खुंनो	-10.7872
▁गंनानै	-10.7874
▁दें	-10.7876
नांला	-10.7878
▁रुजुनाय	-10.7878
निराम	-10.7878
▁बेफोरबादि	-10.7882
▁लाइजामाव	-10.7883
▁नेटवार्क	-10.7884
▁28	-10.7884
▁गोसार	-10.7885
▁रामोन्दाया	-10.7886
महन	-10.7888
▁सुन	-10.7889
▁मोनबोनाय	-10.7893
▁बिजाबा	-10.7897
▁सोमजिहो	-10.79
▁आखाया	-10.7902
▁थैजों	-10.7906
▁हरै	-10.7909
▁बुथुमनो	-10.7913
▁दाथाय	-10.7918
ेटिक	-10.7921
▁रस	-10.7925
▁नुजाथिनाय	-10.7926
▁सान्थ्रिफोरखौ	-10.7933
▁दुंखां	-10.794
▁एवनाय	-10.794
▁गुद	-10.7942
खनला	-10.7942
▁नोंसोरनो	-10.7942
▁हरफिन	-10.795
▁हाबाफारिया	-10.7951
▁हाखौ	-10.7952
▁पार्टिनि	-10.7952
▁बान्दो	-10.7953
सोमनानै	-10.7954
▁जानायबादि	-10.7959
▁दावबायनो	-10.797
्ला	-10.7974
▁लिरनायखौ	-10.7974
फुनायाव	-10.7974
an	-10.798
येल	-10.798
▁जग्रा	-10.7986
म्भ	-10.7987
▁मोनबो	-10.7989
▁हायैयाव	-10.7997
▁राङानो	-10.7999
▁बाजिसिम	-10.8
▁बुंजोब	-10.8005
▁खाजानाय	-10.801
▁मोनजानो	-10.8017
▁फुर	-10.8019
रोन	-10.8028
▁दरबा	-10.8036
▁केक	-10.8039
▁हानाया	-10.8046
स्रोम	-10.8048
▁हारियाव	-10.8049
▁जिल्लायाव	-10.805
▁बसुमतारिनि	-10.8068
▁सावरायनायनि	-10.8069
▁गेलेनो	-10.8071
▁सर्ब	-10.8075
▁बानाया	-10.8076
▁बुङाबा	-10.8076
गोजा	-10.8076
होगोन	-10.8081
▁खौरांगिरि	-10.8083
▁सिख्लाफोरा	-10.8086
▁प्रम	-10.8092
▁साथि	-10.8095
▁फरायदों	-10.8112
▁खौरांगिरिफोर	-10.8116
▁सोमोन्दोआ	-10.8117
न्च	-10.8124
▁दिन्थिया	-10.8126
▁बिदिसो	-10.8128
आनो	-10.8131
▁दरखौ	-10.8132
▁हैनाय	-10.8135
▁खोमसियाव	-10.8135
थाइनि	-10.8136
▁ददेरेमोन	-10.8137
हैयाखै	-10.814
▁नायगिदिं	-10.8141
▁एनै	-10.8143
▁जाहैदों	-10.8147
फैनानै	-10.815
▁मुवाया	-10.8151
रिनि	-10.8155
▁जुथा	-10.816
फारां	-10.8161
10	-10.8163
▁60	-10.8167
▁फुलि	-10.8174
▁दुर्जांखौ	-10.8178
nd	-10.8185
▁गैयालै	-10.8185
▁आखुमा	-10.8186
▁बेसेना	-10.8192
टक	-10.8205
सिलाय	-10.8205
▁हालेव	-10.8211
ग्रोदों	-10.8212
▁नाया	-10.8212
▁माल	-10.8212
▁मेवा	-10.8218
लासै	-10.8221
ध्य	-10.8226
गुल	-10.8227
नायखाय	-10.8229
ोन	-10.8234
▁हिनजावखौ	-10.8236
▁नोमफा	-10.8239
ब्लालाय	-10.824
▁दिन्थिनायनि	-10.8265
▁बुंबाव	-10.8267
इट	-10.8279
मारबाय	-10.8285
30	-10.8287
ra	-10.8296
▁खान्थिखौ	-10.8304
▁गोलोम	-10.8309
▁दोहो	-10.831
▁दाहाखौ	-10.8313
▁मुहि	-10.8315
▁फाहामथाय	-10.8316
हैनोसै	-10.8316
▁रुमखौ	-10.8319
साहा	-10.833
▁रायजित	-10.8331
▁स्र	-10.8331
▁खान्थिया	-10.8335
▁मासिखौ	-10.8338
▁सोरजिगिरि	-10.834
▁जुरि	-10.8346
स्लि	-10.8349
▁जाथार	-10.8354
▁मारा	-10.8374
▁बुंफिन	-10.8376
लाप	-10.8381
▁मोदाइजो	-10.8383
▁बं	-10.8387
तार	-10.8387
▁बुद	-10.8388
▁d	-10.8393
▁गुथाल	-10.8393
▁फोजा	-10.8393
▁गौ	-10.8393
-2	-10.8397
▁जल	-10.8398
▁मिनिटसो	-10.84
▁गलादार	-10.8402
▁जिखि	-10.8405
▁नोंथांजों	-10.8407
▁लाथा	-10.8408
खाङा	-10.8412
▁माखासेया	-10.8414
▁खान्दा	-10.842
फ्लांदों	-10.8421
▁रेबती	-10.8432
▁चे	-10.8434
▁थेव	-10.8452
hat	-10.8452
▁साखाथि	-10.8452
लें	-10.8452
▁लाजोब	-10.8453
G	-10.8453
▁गोसोज्लिद	-10.8454
जुनार	-10.8454
▁नारेंगुरी	-10.8455
मागिरि	-10.8455
हारिमु	-10.8455
टाव	-10.8455
▁गेदे	-10.8457
11	-10.8458
▁ग्रीमउइग	-10.8459
▁नरेन	-10.8459
मोदै	-10.8459
▁महाराजाया	-10.846
▁गाथोन	-10.8461
▁सोनाय	-10.8463
हायि	-10.8463
ाइज	-10.8465
दावला	-10.8467
बाथ्रा	-10.8476
ाप	-10.8479
▁हामगौ	-10.8481
▁खारनो	-10.8484
▁दानायनि	-10.8484
नजों	-10.8485
▁होआखै	-10.849
▁बोलोखौ	-10.8491
▁नेपाल	-10.8492
▁डिसेम्बर	-10.8498
▁पेकेट	-10.8498
▁थोंजोङै	-10.8498
▁दरखङाव	-10.8498
▁फिल्म	-10.8498
▁बुध्दि	-10.8498
▁हर्खाब	-10.8498
▁गुरहं	-10.8498
▁ग्रीक	-10.8498
▁थुंगे	-10.8498
▁हसिख्राव	-10.8498
▁नाथ्रोद	-10.8498
▁बाज्रेद	-10.8498
▁सेर्जा	-10.8498
▁बादोर	-10.8498
▁(6)	-10.8498
▁दंबावयो	-10.8498
▁बारहावा	-10.8498
▁फसंथान	-10.8498
दोरफो	-10.8498
▁नालेया	-10.8499
▁इनपुट	-10.8499
▁नांबावगौ	-10.8499
▁आरजलाइ	-10.8499
▁बयजोंबो	-10.8499
▁बेलुन	-10.8499
▁स्टेसन	-10.8499
फ्लि	-10.8499
▁सोर्गो	-10.8499
▁थगायसुला	-10.8499
▁जब्द	-10.8499
---	-10.8499
ाथ	-10.85
▁एरख	-10.85
▁आउट	-10.85
▁बैसागो	-10.85
▁मोदान	-10.8501
▁दोनखुमा	-10.8501
▁रेडि	-10.8501
▁इज्जत	-10.8501
▁रेलवे	-10.8501
▁गुन्द्रा	-10.8501
▁हायेन	-10.8501
▁लंपेन्ट	-10.8501
▁निखाउरि	-10.8501
▁जावले	-10.8501
▁आसथाम	-10.8501
▁बेसर	-10.8502
▁बाथोन	-10.8502
▁खामहाब	-10.8502
▁खांदों	-10.8502
▁अन्थाय	-10.8502
▁फित	-10.8503
▁उदिस	-10.8503
▁जिरात	-10.8503
▁सोनारो	-10.8503
▁फार्सेथिङै	-10.8503
▁सिंजों	-10.8505
▁मोन्नाव	-10.8505
▁राइज्लाय	-10.8505
▁सिनायाखै	-10.8505
▁एमेले	-10.8505
▁मिञा	-10.8505
▁लहेना	-10.8506
▁दामोल	-10.8506
▁साइर	-10.8506
▁खान्दि	-10.8506
▁बारजां	-10.8508
▁खिफि	-10.8508
▁हालदै	-10.8508
▁जुलाइ	-10.8508
▁गम्भ	-10.8508
▁दाउस्रि	-10.8509
▁हाथर्खि	-10.8509
▁आसोल	-10.851
घाट	-10.851
▁सिथोर	-10.851
▁मस्ट	-10.851
▁राजखान्थियारि	-10.851
▁इसिङाव	-10.8511
▁हराखै	-10.8511
▁सिखाउ	-10.8512
▁जाहोनांगौ	-10.8512
▁जेसेखि	-10.8513
▁फैफिनाखै	-10.8513
▁बुंहरनाय	-10.8513
▁हिसान	-10.8514
▁शनिबार	-10.8514
▁एरिया	-10.8515
▁नाख्रेब	-10.8515
फ्रामबो	-10.8515
▁थालो	-10.8517
▁शाला	-10.8519
▁नोंसाला	-10.8519
▁गराइ	-10.8519
▁सन्मान	-10.852
▁जीब	-10.852
▁ब्लक	-10.8521
▁सुग्रि	-10.8521
▁मैहुराव	-10.8523
हनाय	-10.8523
▁मानास	-10.8523
▁गोलैयो	-10.8525
▁ओंख्रि	-10.8525
▁रुवा	-10.8526
▁नाइट	-10.8527
▁बिथिंजाय	-10.8529
▁सुइसाइद	-10.853
▁मास्थारा	-10.853
▁ब्रुं	-10.8531
▁खावलायो	-10.8532
बावनानै	-10.8533
▁लेम	-10.8534
ेरासिन	-10.8534
▁रोंगौथि	-10.8535
▁सोरजिदों	-10.8536
▁आबु	-10.8537
▁रमायना	-10.8538
▁खेराय	-10.8539
▁मते	-10.854
▁जानाङो	-10.8541
▁गोजोर	-10.8542
▁लेट	-10.8543
▁मदारामा	-10.8545
▁लुफुंनाय	-10.8545
▁बाउनाय	-10.8551
गौबा	-10.8551
▁सिनायो	-10.8552
▁सोंनायसै	-10.8554
▁लुबैदोंमोन	-10.8554
▁नुजाथियो	-10.8556
▁ज्राब	-10.8556
▁खैनाशान्तिया	-10.8557
▁फुवा	-10.8558
▁दानस्लायनाय	-10.8558
▁मावफारियाफोरा	-10.8559
▁बाहायग्रा	-10.856
ेशन	-10.856
▁जागायजेननाय	-10.8563
us	-10.8563
▁दाहालागै	-10.8564
▁होफैबाय	-10.8566
सान्दि	-10.8567
▁नांब्ला	-10.8569
▁फावगिरि	-10.8569
▁मालायनाव	-10.857
▁संग्रायाव	-10.857
▁खाफ्रा	-10.8571
▁नोंथांमोनहा	-10.8573
▁रादाय	-10.8575
▁अफिसनिफ्राय	-10.8579
▁सासु	-10.8582
▁जोंखाङो	-10.8586
▁लोंखांनानै	-10.8588
▁खोनाना	-10.8588
▁गोमोरलां	-10.8588
▁हामजा	-10.8589
▁समावबो	-10.8591
▁ण	-10.8591
वाला	-10.8591
▁नार्जारिया	-10.8593
▁ब्लाउज	-10.8594
▁बेसेबांदि	-10.8595
▁सिनखौ	-10.8596
▁सानहाबनानै	-10.8597
▁जिरायथ	-10.86
▁हगारहर	-10.8602
▁re	-10.8604
▁मुगैयो	-10.8606
▁हानायमानि	-10.8608
बना	-10.8608
▁अस	-10.861
▁सिमाङा	-10.861
▁साननांगौ	-10.8613
▁लामाथिं	-10.8614
▁बिथांमोना	-10.8615
▁नांगौमोन	-10.8617
▁बेसेननि	-10.8618
▁थगायनाय	-10.8618
थावथाव	-10.862
▁केजि	-10.8621
बोरै	-10.8633
▁बाइक	-10.8635
▁बावदों	-10.8644
▁सोमावसारनो	-10.8649
▁इसोरा	-10.865
▁अनारिया	-10.8651
▁फोलेरा	-10.8653
▁माहारियाव	-10.8653
▁गोमायो	-10.8655
गारबोनाय	-10.8658
▁मोननैनि	-10.8659
हाबनाय	-10.866
not	-10.8662
▁खेवनाय	-10.8667
▁लेदि	-10.867
▁दाहायाव	-10.8672
▁खुलुमनाय	-10.8681
▁बिगियानगिरिफोर	-10.8682
▁माइथाय	-10.8684
▁राखाव	-10.8692
▁उखैनाय	-10.8693
▁खान्थियाव	-10.8696
दैसा	-10.87
▁भुमनि	-10.8705
▁लायोब्ला	-10.8707
सारि	-10.871
▁मोसानि	-10.8714
▁जाबोनो	-10.8715
▁मालाइ	-10.8716
▁सोफै	-10.8716
▁गन	-10.8719
सेन्स	-10.8722
▁ओनसोलफोर	-10.8727
▁थांनायसै	-10.8735
▁बोनायाव	-10.8736
▁जाफैबाय	-10.8736
▁हादरा	-10.8738
▁जोबगोन	-10.8741
▁गावथारनाय	-10.8744
▁हगारनाय	-10.8745
▁बेरला	-10.8746
▁लोंब्ला	-10.8746
▁मोनलायनायखौ	-10.8747
▁जोबा	-10.8747
▁ओंथियाव	-10.8748
▁बुंनायाव	-10.8749
मास	-10.875
▁बादों	-10.8754
▁बावाखै	-10.8758
▁जौसे	-10.8772
▁नक	-10.8773
▁साखि	-10.8774
▁लाहा	-10.8775
गिरिनि	-10.8779
.00	-10.8783
▁लाफानो	-10.8786
▁आनज्राय	-10.8792
▁दोर	-10.8797
▁सेव	-10.8799
▁बुजायनो	-10.8806
▁दुखुवाव	-10.8807
बेखौ	-10.8807
▁सब	-10.881
▁रो	-10.8812
▁सुथार	-10.8812
▁लाभ	-10.8813
▁बेखेवनाय	-10.8813
▁जानांगौब्ला	-10.8814
▁किल	-10.8814
▁आनारामखौ	-10.8817
▁गम	-10.8818
▁रजे	-10.882
▁नायनायनि	-10.8821
▁लाखा	-10.8827
▁आखुथाया	-10.8843
▁29	-10.8844
▁होन्दों	-10.8845
▁आंहालाय	-10.885
▁नुब्लानो	-10.8851
▁गोरायै	-10.8855
▁मोनाबा	-10.8856
▁अरखाव	-10.8862
ङारि	-10.8862
▁होखारनो	-10.8863
▁सानब्लाबो	-10.8864
▁हुर	-10.8866
ख्र	-10.8868
b	-10.8874
▁दबा	-10.8876
गन्द	-10.8885
▁गुना	-10.8889
▁गिदिंबाय	-10.8894
▁इनफरमेसनफोर	-10.8896
▁धोरोमखौ	-10.8899
▁फिसाफोरा	-10.8899
▁सिमांनि	-10.8912
▁मोनजानाय	-10.8914
▁फिसाफ्रा	-10.8922
▁195	-10.8924
▁लुन	-10.8926
▁होननो	-10.8937
▁मोनलायनायनि	-10.8939
▁खुरैखौ	-10.8944
▁सादों	-10.8945
▁ओंखारबोनाय	-10.8951
हारि	-10.8955
बोथों	-10.896
▁फाइलखौ	-10.897
▁बाग्रा	-10.897
ept	-10.8974
▁बेनिख्रुइ	-10.8975
याम	-10.8996
▁सोंखारि	-10.9007
▁टाइम	-10.9011
▁नखरा	-10.9021
▁दास	-10.9026
फाख	-10.9027
▁सुइ	-10.903
रला	-10.903
▁हाथाव	-10.9037
लासिनो	-10.9037
▁दुखुवा	-10.904
नाबो	-10.9043
▁बासाय	-10.9046
▁दिल्लीनि	-10.9048
▁नाजानाया	-10.9051
▁सरला	-10.906
▁थुलुंगाखौ	-10.9077
वारि	-10.9083
▁थासारिया	-10.91
▁मुस्रिया	-10.9101
▁सेंग्राफोरनि	-10.9106
▁खाया	-10.9111
▁हाराम	-10.9111
▁अनसि	-10.9116
▁हार	-10.9118
▁हाबाफोरखौ	-10.912
▁दाखु	-10.9125
▁दावहाया	-10.9126
▁मोसाहारि	-10.913
min	-10.9142
▁अहा	-10.9146
▁हिन्जावफोरखौ	-10.9149
▁बायजोनि	-10.9151
▁उदैनि	-10.9154
em	-10.9156
गानै	-10.9157
▁ब्रे	-10.9158
▁ग्रा	-10.9165
it	-10.9168
....।	-10.9168
बायानो	-10.9172
▁झालु	-10.9173
▁रेक	-10.9175
यन	-10.9181
▁बिजाथिफोर	-10.9184
बिब्दि	-10.9188
▁सोगोम	-10.9193
थावना	-10.9194
▁फथ	-10.9195
▁थाइलालिखौ	-10.9196
▁रौनिया	-10.9201
▁मुगैया	-10.9204
बिबार	-10.9215
▁मानबाय	-10.9218
▁हरदो	-10.9233
▁समाजखौ	-10.9237
जं	-10.9239
▁ओंखारलांनो	-10.9241
सिगौमोन	-10.9245
▁बाथ्रायानो	-10.9245
▁आखाइया	-10.925
जी	-10.9252
▁फरायगा	-10.9255
बारि	-10.9256
सामा	-10.9258
▁नायहरदों	-10.9258
आंखौ	-10.927
▁खैफोदखौ	-10.9271
▁पार	-10.9274
▁V	-10.9276
▁रग	-10.9278
▁ष्टे	-10.9283
▁आंना	-10.9284
▁मिथिजा	-10.9295
...!	-10.93
▁He	-10.9301
▁दिन्थिफुं	-10.9303
▁रिं	-10.9304
▁दिथा	-10.9304
ब्रैसो	-10.9305
▁हिन्जावफोरनि	-10.9312
▁खानि	-10.9321
.....!	-10.9328
बान	-10.9329
मिनि	-10.934
▁दाखा	-10.9341
रंजा	-10.9343
▁गैयैयाव	-10.9345
▁मावमोनथाय	-10.935
▁मागो	-10.9354
▁थाथाव	-10.936
▁बैसोआव	-10.9368
▁खिन्थाहै	-10.9372
वासो	-10.9378
ब्रि	-10.938
▁मोनदांथि	-10.9382
O	-10.9384
आनारी	-10.939
रोङा	-10.9392
▁आन्दाय	-10.9405
▁मैना	-10.9411
जुवा	-10.9412
▁गोरोन्थिया	-10.9413
▁द्लाम	-10.9416
होआ	-10.9417
▁जेरबा	-10.9418
ter	-10.942
गिदिं	-10.9421
▁आरांगा	-10.9422
लांब्ला	-10.9422
ut	-10.9423
ओंखार	-10.9429
▁बैफोर	-10.9429
आयदा	-10.943
आसाम	-10.943
खैफोद	-10.9431
▁नारायण	-10.9434
▁बुद्रै	-10.9435
ष्टि	-10.9438
▁हाबिलाया	-10.9438
फाग्लि	-10.9439
▁खुन्थि	-10.944
दुमसि	-10.9443
▁दमासु	-10.9443
▁थाइनै	-10.9446
▁for	-10.9449
र्ड	-10.9449
ound	-10.9453
बिथां	-10.9454
▁बुदारु	-10.9455
▁गोबाख्रब	-10.9456
▁खुद्रि	-10.9456
▁दाखोन	-10.9457
फ्र	-10.946
दाङै	-10.9463
▁मानसिहा	-10.9467
▁बिघा	-10.9467
सिलाइ	-10.9469
▁रुब	-10.947
▁प्रेक	-10.947
▁थारखौ	-10.9471
▁नोंसाजो	-10.9474
▁मडेल	-10.9474
owel	-10.9474
▁देउल	-10.9474
▁Captain	-10.9474
▁अमृत	-10.9474
▁उल्टा	-10.9474
▁एक्सटेनसन	-10.9474
▁गान्धी	-10.9474
▁फिरफिला	-10.9474
▁बानबुंथि	-10.9474
▁बेण्डेज	-10.9474
▁महिलारी	-10.9474
▁रहमान	-10.9474
▁राजखुंगुर	-10.9474
▁लक्ष्मी	-10.9474
▁लांसुनिया	-10.9474
▁अनजालु	-10.9474
▁थाइलिर	-10.9474
▁नबीन	-10.9474
▁मैखुन	-10.9474
▁अन्जालि	-10.9474
▁इंखं	-10.9474
▁फावदिन्थिनाय	-10.9474
▁कम्पानी	-10.9474
▁बैथाली	-10.9474
▁मेजर	-10.9474
सेन्ट्रे	-10.9474
▁गुजुस्रेम	-10.9474
▁फायारिं	-10.9474
▁मन्दिर	-10.9474
▁आन्था	-10.9474
▁हाथुरा	-10.9474
▁रासायन	-10.9474
▁ब्रेकफास्ट	-10.9474
▁सफ्टवेर	-10.9474
▁हजुर	-10.9474
डब्लिउ	-10.9474
▁प्रेकटिस	-10.9474
▁उथुमाय	-10.9474
▁उनथाराव	-10.9474
▁प्रसेसिं	-10.9474
▁ड्रेस	-10.9475
▁गायदाङा	-10.9475
▁स्लगान	-10.9475
▁लेकसार	-10.9475
▁सौवो	-10.9475
▁words	-10.9475
▁रुगुङा	-10.9475
▁मालदार	-10.9475
▁टाइप	-10.9476
माने	-10.9476
▁मुब्रुं	-10.9476
▁गेसेव	-10.9476
▁गानस्लाय	-10.9477
▁दैबाना	-10.9477
▁बयनिखुरै	-10.9477
▁आरिमु	-10.9477
▁लर्ड	-10.9477
▁2000	-10.9477
▁ब्लां	-10.9477
▁गिदित	-10.9478
▁खसाब	-10.9478
▁दौदिनि	-10.9478
▁दुफुं	-10.9479
लायै	-10.9479
▁गोथाङै	-10.9479
▁थाङाखै	-10.948
▁बाइजोआव	-10.948
▁दख	-10.948
▁सोलिबोनाय	-10.948
▁राइट	-10.948
▁लेप	-10.9481
▁सुन्दर	-10.9481
साथी	-10.9481
▁Yes	-10.9482
▁थुलुंसि	-10.9482
▁नीलाम्बर	-10.9482
▁मुकुट	-10.9482
▁मेलेरिया	-10.9482
▁जुजाइनि	-10.9482
▁उकिल	-10.9482
▁बकसिस	-10.9482
▁बेंगिरि	-10.9483
▁फैना	-10.9483
▁आथुर	-10.9483
▁फारिलाइ	-10.9484
▁बिश्व	-10.9484
▁बेदत	-10.9485
▁फाल्ला	-10.9485
▁लिभार	-10.9485
▁गान्थि	-10.9485
▁मेडिया	-10.9485
▁नुहैबाय	-10.9485
▁दावदाब	-10.9485
▁मिसेस	-10.9486
▁अहं	-10.9486
▁गाखोहैयो	-10.9486
▁गाराइ	-10.9487
▁सामोल	-10.9487
▁दानथे	-10.9487
▁थखन	-10.9488
▁हामसिन	-10.9488
▁आयु	-10.9488
▁गसाथिया	-10.9489
▁रेप	-10.9491
▁हाब्रु	-10.9491
▁जार्ला	-10.9491
▁प्रशान्तवा	-10.9492
▁लाइजौवा	-10.9493
▁गालाङो	-10.9493
▁मुथु	-10.9493
▁इनाइ	-10.9494
▁इण्डिया	-10.9494
▁खुदुमो	-10.9494
▁दोनखानाय	-10.9495
▁नुजाफैयो	-10.9495
▁थुनलाइगिरिफोरा	-10.9499
▁थिफुं	-10.9499
▁आलफा	-10.95
▁थानाङो	-10.9502
▁गरद	-10.9503
▁बायदिनो	-10.9503
▁बाहेरायाव	-10.9503
▁लायाजासे	-10.9504
▁सुइस	-10.9504
▁हासिगौ	-10.9505
▁नङासै	-10.9506
▁गेलेयो	-10.9507
▁रं	-10.9507
▁नैजिबा	-10.9509
▁सोबग्रा	-10.9509
▁सैथि	-10.951
▁रानी	-10.951
▁हाउसाव	-10.9512
▁मार्स	-10.9515
▁जाखाबाय	-10.9516
▁सिबियो	-10.9516
▁जावलियानि	-10.9517
▁जफायो	-10.9519
▁जाखादों	-10.952
▁थाखै	-10.9521
दावसा	-10.9521
▁सति	-10.9524
▁होफिनो	-10.9527
▁गोलैदों	-10.9527
▁हेड	-10.9528
▁जालांगोन	-10.9528
▁सौफैबाय	-10.9529
▁हासिगोन	-10.953
▁उन्दुलांबाय	-10.953
▁स्राव	-10.953
▁नागाफ्रा	-10.953
▁हबे	-10.9532
▁बिमुं	-10.9532
▁लाखिदों	-10.9533
▁दौलद	-10.9533
▁द्लामै	-10.9534
▁नंदों	-10.9535
▁गोबाङै	-10.9535
▁हरासै	-10.9535
▁टेबुलाव	-10.9539
▁लाखिगोन	-10.954
▁ख्रुब	-10.9541
▁आराम	-10.9541
▁मन्जुलाया	-10.9544
▁ब्रां	-10.9546
▁जरासे	-10.9546
▁अबिनासा	-10.9547
▁रोंबाय	-10.9549
▁ओंखारलांदों	-10.9549
▁गंथाम	-10.9551
▁हाबलां	-10.9553
▁सोराङा	-10.9553
▁रुफा	-10.9553
▁थांनांगोन	-10.9553
▁दान्दा	-10.9554
▁बेरखांनाय	-10.9554
▁खाइ	-10.9554
▁गावदां	-10.9558
▁खोख्लैनो	-10.9558
न्टि	-10.9559
▁गोख्रैयै	-10.9561
▁सोंखारिनाय	-10.9565
▁70	-10.9567
गारबाय	-10.9569
▁98	-10.9569
▁फोनांनानै	-10.9572
▁थसे	-10.9573
▁दारै	-10.9574
▁गोबाय	-10.9578
▁स्ट	-10.9578
▁जिरादा	-10.9578
बाथ	-10.9579
▁गसंनाय	-10.958
▁दोरोद	-10.9582
▁अन्दराव	-10.9586
▁थल	-10.9587
फारा	-10.9589
▁रमेननि	-10.9593
▁लिरना	-10.9593
▁नामाब्रा	-10.9594
▁फैखो	-10.9594
▁बालु	-10.9595
▁गाननाया	-10.9597
▁मोनलों	-10.9599
ायाव	-10.96
fe	-10.96
▁थांग्रो	-10.9602
▁गादि	-10.9603
▁बिलिरनानै	-10.9604
▁लोरबांथि	-10.9605
टिं	-10.9606
आदसा	-10.9606
▁जायाखैसै	-10.9607
▁खालामामोन	-10.9607
ur	-10.9609
▁जिबि	-10.9612
▁लाबोदोंमोन	-10.9612
▁दाउसा	-10.9613
न्जा	-10.9613
▁नामै	-10.9614
▁उथ्रिनो	-10.9614
▁बावा	-10.9615
ख्लि	-10.9615
▁साबिखौ	-10.9616
आदाया	-10.9622
▁गाज्रिसिन	-10.9622
▁दावमा	-10.9623
▁ग्रह	-10.9623
▁दंजोबो	-10.9624
▁होमब्लालाय	-10.9626
मागिरिनि	-10.9628
▁आबसा	-10.9633
▁गासा	-10.9634
▁खालामखा	-10.9637
▁गोमाबाय	-10.9638
16	-10.9638
▁निम	-10.9641
▁हरखि	-10.9642
▁नोंसोरो	-10.9645
▁जाहोनानै	-10.9647
दारि	-10.9647
▁नोंसोरहा	-10.965
▁बारो	-10.9651
▁जाखार	-10.9651
▁थैस	-10.9652
-30	-10.9652
▁लिरबाय	-10.9652
▁बेथेर	-10.9655
▁मोसौखौ	-10.9655
▁फासि	-10.9656
▁थिखां	-10.9656
▁माजेन	-10.9659
ब्बाय	-10.9661
▁आह	-10.9663
▁गेरे	-10.9664
▁.....।"	-10.9665
▁साहाया	-10.9667
▁मैदेरा	-10.9668
▁दुमा	-10.9668
▁फुलिनि	-10.9668
▁थारला	-10.9672
नोंथांनि	-10.9674
▁गोबांसिन	-10.9676
▁सानगासिनो	-10.9679
हार	-10.9682
▁थौबाय	-10.9684
▁लाजिनो	-10.9688
▁सहखौ	-10.969
▁बोहैलां	-10.9691
▁फान्दायनाय	-10.9697
▁बारन	-10.9697
▁गंफ्रोम	-10.9698
▁फाखा	-10.97
▁मोसादों	-10.9704
▁सिरिसे	-10.9704
▁बोहैनाय	-10.9705
▁फाग्लिया	-10.9707
▁हाबफैबाय	-10.9708
▁बेनोदि	-10.9711
▁सिलिम	-10.9716
▁गोनांसिन	-10.9718
▁जानांनाय	-10.9719
देरनाय	-10.9719
▁फोसाबनो	-10.9723
▁मावजा	-10.9724
्ति	-10.9727
▁सायर	-10.9732
▁सान्थ्रिफोरा	-10.9734
▁गदाया	-10.9738
▁जोहोलावफोर	-10.9738
▁दालायाव	-10.9739
▁खननाय	-10.974
शी	-10.974
▁आइजोफोरा	-10.9741
सिख्लाफोर	-10.9741
गाया	-10.9742
कास	-10.975
▁सहरनि	-10.9754
स्थ	-10.9762
▁बिदिनोसै	-10.9765
▁मिथियाखै	-10.9771
▁लोंनायाव	-10.9772
▁फिसाइजों	-10.978
▁मुजि	-10.9786
थिलि	-10.9786
▁गिनाया	-10.9788
▁थगायनो	-10.9788
▁माहि	-10.9789
▁खारदो	-10.9791
चन	-10.9792
▁अजितनो	-10.9793
लन	-10.9794
▁खुसिजों	-10.9801
19	-10.9805
▁प्लटा	-10.9811
▁बुथारदों	-10.9811
▁साख्रिखौ	-10.9823
la	-10.9824
गोनलै	-10.9826
...?	-10.9826
▁हमलाय	-10.9827
▁फिसिनाय	-10.983
▁h	-10.983
▁नाजानानै	-10.9835
▁फारियाव	-10.9837
▁बोदों	-10.9838
...............	-10.9845
▁मोजांथार	-10.9848
▁लाहारि	-10.9848
▁नायगिरि	-10.9851
▁मत	-10.9853
▁हैयो	-10.9853
▁खावलायनाय	-10.9866
▁लानायमोन	-10.9869
▁माराव	-10.9871
गारनो	-10.9872
▁साननैनि	-10.9873
▁गायनो	-10.9874
▁माजों	-10.9881
सोलाय	-10.9885
▁आखलाव	-10.9886
▁ha	-10.9886
▁नंनाय	-10.9888
▁फार्सेथिं	-10.989
थावै	-10.9893
ग्लां	-10.9894
▁हाबसो	-10.9897
▁जोबस्रांनाय	-10.9902
▁खोर	-10.9902
▁लांखा	-10.9908
▁हैबाय	-10.9909
▁भुटिया	-10.991
▁सिस्टेमा	-10.9914
▁मोरोन	-10.9916
▁हिनजावा	-10.9921
▁महाराजाखौ	-10.9923
▁नायसन	-10.9924
▁सालाफोर	-10.9925
▁जेंनाया	-10.9927
▁थिलि	-10.9931
▁सोंहै	-10.9932
्रब	-10.9932
▁खेबखां	-10.9932
▁नायलाय	-10.9938
▁बाथ्राफोरा	-10.9939
बाथेद	-10.9939
▁फिउ	-10.9942
▁फसंनो	-10.9944
op	-10.9945
▁देरनो	-10.9946
▁गोसोखांदों	-10.9947
▁जंखायनाय	-10.9956
र्स	-10.996
▁जानायजों	-10.9964
द्रायब्ला	-10.9965
▁अनसायनाय	-10.9971
▁उर	-10.9978
▁बानानि	-10.9979
लायग्रा	-10.9981
▁साथा	-10.9981
▁गोहोमा	-10.999
▁गावसोरनो	-10.9991
▁फिसौफोर	-10.9993
▁नोगोरमा	-10.9998
▁मोननायाव	-11
▁गिबिया	-11.0004
▁थांखियाव	-11.0004
िटि	-11.0004
▁खारबाय	-11.0006
न्नो	-11.0008
▁सालिसखौ	-11.0008
▁लोमजानायनि	-11.0009
मुवा	-11.0011
▁उन्दुनानै	-11.0012
स्लाबा	-11.0015
▁दुमफे	-11.0019
▁बबा	-11.002
▁बिबानगिरिफोर	-11.0025
▁खलथाया	-11.0028
▁कर्क	-11.0037
▁सानना	-11.0039
▁खेवनो	-11.0044
▁गारिजों	-11.005
▁गियानि	-11.0051
ह्	-11.0052
▁अननानै	-11.0053
▁सोलिनाय	-11.0055
▁थेख्रे	-11.0061
▁रमाया	-11.0072
▁बिबाना	-11.0078
गोथो	-11.0079
▁धु	-11.008
▁मीन	-11.0081
▁गंसेबो	-11.0084
▁दामि	-11.0088
▁प्रेमधर	-11.0089
▁होनायमोन	-11.009
▁जावलियाया	-11.0091
▁आमि	-11.0103
▁दाङा	-11.0106
▁थावा	-11.0115
▁साबेसे	-11.0137
▁जुन	-11.0139
▁समबार	-11.0141
▁होबथानाय	-11.015
▁साहाबा	-11.015
▁हाथ	-11.015
म्बर	-11.0152
▁जाफा	-11.0157
▁बुथारनाय	-11.017
वो	-11.0172
▁सानब्रै	-11.0174
▁थियेटारखौ	-11.0175
▁गोनाङा	-11.0176
▁दाग्रा	-11.0176
बाजा	-11.0177
▁बाथुवा	-11.0179
ुथुर	-11.018
फं	-11.0181
▁ट्र	-11.0183
▁जालायदों	-11.0183
▁आथिंजों	-11.0187
▁सुजुग्रानि	-11.019
▁ठ	-11.0197
▁बुरा	-11.0198
रण	-11.02
▁सोङा	-11.0208
▁जायगानिफ्राय	-11.0208
▁सनानि	-11.0209
प्ल	-11.0209
▁ब्राय	-11.0209
पार	-11.021
▁जेंनानि	-11.0211
▁बाजिबाय	-11.0214
▁मोनफ्राम	-11.0216
▁फान्दाय	-11.0219
एम	-11.0225
▁सोंब्ला	-11.0232
बाला	-11.0235
▁जिनिसखौ	-11.0235
थ्रि	-11.0236
▁नांग्रा	-11.0242
▁लायफिन	-11.0248
फोरालाय	-11.0259
▁सेट	-11.0264
▁खुरिया	-11.0266
▁सोबो	-11.0266
▁दोरो	-11.0267
▁मालायखौ	-11.0273
▁बिखाजों	-11.0275
▁मोनोमोन	-11.0282
▁गाखोनो	-11.0284
▁मैयानि	-11.0287
मैया	-11.0288
▁बुख्रुब	-11.029
▁आंखौबो	-11.0292
मोनबा	-11.0295
थोन	-11.0295
▁बिफोर	-11.0298
▁खेर	-11.03
▁सोरमोन	-11.0303
▁जादोंब्लाबो	-11.0306
▁फुनो	-11.031
थं	-11.031
गोना	-11.032
लायलांबाय	-11.0323
▁हाखा	-11.0327
▁बुंहरदों	-11.0347
▁आलौ	-11.0358
▁होलां	-11.036
स्त	-11.0367
▁जथुम	-11.0374
▁आग	-11.0386
गुरी	-11.0389
मोनसे	-11.039
▁खावनाय	-11.039
▁भुट	-11.0393
▁मोनमार	-11.0397
▁31	-11.0398
▁आंनिया	-11.0399
▁हरफा	-11.0399
हैयासै	-11.04
▁बिसो	-11.0411
▁बासिया	-11.0413
▁थैनि	-11.0422
▁गज	-11.0423
▁नोम्फा	-11.0423
▁सावरायज्लाय	-11.0428
▁असम	-11.0429
▁मोजाङा	-11.0429
▁फोरनि	-11.0436
▁200	-11.0445
ड़	-11.0451
▁खहाब	-11.0451
▁गाद	-11.0462
▁फिसाजोया	-11.0464
त्रि	-11.0465
▁गमामा	-11.0468
▁थान	-11.0468
▁अंग	-11.0472
▁आबारी	-11.0473
देन	-11.0474
रखा	-11.0475
▁हाउस	-11.0481
▁गावसो	-11.0484
▁मिथिस्लाबा	-11.0487
▁दाजाबफा	-11.0489
▁बरगयारी	-11.049
▁ओंखामा	-11.0494
▁आफाखौ	-11.0494
▁सिग्लाब	-11.0496
▁अननायखौ	-11.0499
▁रुफाथि	-11.0502
फैयासै	-11.0504
सुखे	-11.0504
▁क्ष	-11.0504
▁ओंथिखौ	-11.0505
▁नंखायखौ	-11.0507
▁पकेट	-11.0507
रुवा	-11.0509
▁लाला	-11.051
एफ	-11.051
V	-11.051
▁बेसिम	-11.0511
दोर्सोन	-11.0513
सैलै	-11.0514
बुरै	-11.0515
ानोथ	-11.0515
▁साबि	-11.0516
दोंमोनब्लाबो	-11.0516
▁थिंगिनि	-11.0516
▁मास्थार	-11.0517
▁सन्थला	-11.0517
▁बिला	-11.0518
अजय	-11.0519
खुगु	-11.052
▁समसेर	-11.0522
▁फुंबिलि	-11.0523
▁हाबिलदार	-11.0525
▁गोमसार	-11.0533
▁मन्जुला	-11.0533
सिगां	-11.0534
▁टेक्सि	-11.0537
▁दान्	-11.0543
दाङा	-11.0546
▁राजाफोर	-11.0547
▁सरासनस्रा	-11.0547
मुरि	-11.0547
बिब्दिब्ला	-11.055
▁राज्य	-11.055
Y	-11.055
▁बाइजो	-11.0551
▁होया	-11.0551
▁ड्राइभ	-11.0555
<	-11.0556
▁आग्दा	-11.0556
▁रिजार्भ	-11.0556
▁इक्लेटिक	-11.0556
▁इराग्दाउ	-11.0556
▁थुनफावथिना	-11.0556
▁दस्टुर	-11.0556
▁धर्मेन्द्र	-11.0556
▁निर्मालिया	-11.0556
▁बमब्राय	-11.0556
▁बह्रा	-11.0556
▁बैराथी	-11.0556
▁महाभारत	-11.0556
▁मारुती	-11.0556
▁रामचियारी	-11.0556
▁लाइब्रेरी	-11.0556
▁सारेण्डार	-11.0556
▁जोगोनार	-11.0556
▁हुखुमोर	-11.0556
▁खुनुरुखुम	-11.0556
▁राइफल	-11.0556
▁लैहोर	-11.0556
▁सावथुन	-11.0556
▁आर्मि	-11.0556
▁निजोरा	-11.0556
▁दिंग्रि	-11.0556
▁फिल्टार	-11.0556
▁उइक	-11.0556
▁ग्लास	-11.0556
▁डील	-11.0556
काइनिन	-11.0556
▁थनथ्र	-11.0556
▁होयि	-11.0556
▁एनजर	-11.0556
▁अग्रन	-11.0556
▁दाब्राय	-11.0556
▁जुलुम	-11.0556
▁बिष्णु	-11.0556
▁हार्सिं	-11.0556
▁गोज्वौ	-11.0556
▁गेस्रेम	-11.0556
▁दुलुर	-11.0556
▁पाक्का	-11.0556
▁ट्राष्ट	-11.0556
▁खुंगुर	-11.0557
▁टमेट	-11.0557
▁एखमब	-11.0557
▁बुङालाबानो	-11.0557
▁आसारखान्थि	-11.0557
▁निलिख	-11.0557
▁सिखिरि	-11.0557
▁लाजिफोनां	-11.0557
▁लुबैसुला	-11.0557
ue	-11.0557
▁मोगामोगि	-11.0557
▁मन्त्री	-11.0558
▁खृष्टान	-11.0558
ष्टेल	-11.0558
▁मृ	-11.0558
▁अवाल	-11.0558
▁दखरसे	-11.0558
▁गाब्बाय	-11.0558
▁नेमखान्थि	-11.0558
भोट	-11.0558
▁कार्ड	-11.0558
▁सौवै	-11.0559
▁देंखोखौ	-11.0559
▁खानस्रि	-11.0559
▁लिङो	-11.0559
▁गैजारोङि	-11.0559
▁बेवाइ	-11.0559
▁हासिब	-11.0559
▁मिन्थिगौ	-11.056
▁St	-11.056
▁नायदिं	-11.056
▁नमस्कार	-11.056
▁सिबस्रां	-11.056
▁जोंब्लाउ	-11.056
▁फावखुंग्रि	-11.056
अलंबार	-11.0561
▁बारलाम्फा	-11.0561
▁गस्वामी	-11.0561
▁बस्था	-11.0561
▁थरथिंसे	-11.0561
▁नायगोमो	-11.0561
▁लेबार	-11.0561
▁चाहा	-11.0562
▁दुंब्रुद	-11.0562
▁रिता	-11.0562
▁गाउन	-11.0562
▁लाइफाङा	-11.0563
▁सिदोब	-11.0563
▁बोदला	-11.0563
▁बेफ्रुथाय	-11.0563
▁pro	-11.0563
▁पसम	-11.0564
▁फाख्रा	-11.0564
▁आर्य	-11.0564
▁बोहैबोनाय	-11.0564
▁हाथरखि	-11.0565
▁खोरोमदाउ	-11.0565
▁आबो	-11.0565
▁थामफै	-11.0565
▁थौले	-11.0566
▁रिलिफ	-11.0566
▁इसादि	-11.0566
▁गौहाटीयाव	-11.0566
▁इंलिस	-11.0566
▁सनिराम	-11.0567
▁खनाथिं	-11.0568
▁बदलै	-11.0568
▁जर्ज	-11.057
▁जुवारि	-11.057
▁सरबत	-11.057
▁हाब्बाय	-11.057
▁लेङाय	-11.057
▁थाबथायो	-11.057
▁दाबोनो	-11.0571
▁बैसां	-11.0571
▁फारौ	-11.0571
▁थुखै	-11.0572
▁लान्स	-11.0573
▁थानसालियाव	-11.0573
▁बाटा	-11.0573
un	-11.0573
▁सुफुंग्रा	-11.0573
▁मिनिदों	-11.0574
▁दाबखा	-11.0574
▁सोमजिहोदों	-11.0574
▁उद्राय	-11.0575
देखोन	-11.0576
▁बैथालि	-11.0576
▁दखरा	-11.0576
▁गुन्दामि	-11.0576
▁बीरु	-11.0577
▁समिलाया	-11.0577
▁पापी	-11.0577
▁गाबगु	-11.0577
▁गाबज्रिनाय	-11.0578
▁थाल्ला	-11.058
▁मिनिथाव	-11.058
▁लासिगोन	-11.058
▁दाबसि	-11.0581
▁बाथरुम	-11.0581
▁सुबिदा	-11.0582
।...	-11.0583
▁फान्ड	-11.0583
▁गयारी	-11.0585
▁नायल	-11.0585
▁खबसे	-11.0586
▁फोसावगिरि	-11.0586
▁हाबिलास	-11.0586
सालिया	-11.0587
िथुन	-11.0589
▁पियन	-11.0589
▁गब्लंजों	-11.0589
▁सोलियो	-11.059
▁45	-11.059
▁मेसेब	-11.0591
▁गालांदों	-11.0591
▁जोंरुहा	-11.0592
▁गारनांगौ	-11.0592
लवार	-11.0593
▁पेन	-11.0593
▁हलाव	-11.0594
▁आरिखां	-11.0594
▁लेवा	-11.0595
गारि	-11.0595
▁थिखं	-11.0596
▁गेलेहोनाय	-11.0597
▁नागाया	-11.0597
▁नायगंना	-11.0597
▁दोनफैनाय	-11.0599
▁दाहोनाफ्रा	-11.0601
▁जानगाराव	-11.0602
▁खोख्लैनानै	-11.0603
▁जाहोदों	-11.0603
▁गाबहां	-11.0603
▁दैथायहरनो	-11.0605
▁देनाय	-11.0605
▁लाङासै	-11.0605
▁गार्ल	-11.0606
▁मावनायखौ	-11.0607
▁कर्टाव	-11.0608
▁हैदिनि	-11.0608
▁हासुं	-11.0609
▁सिमांखौ	-11.061
▁दिहुनो	-11.0612
▁लिरनांगौ	-11.0613
▁गंग्लायनानै	-11.0616
खाइ	-11.0618
▁आगाननै	-11.0618
▁जाखर	-11.0619
▁दर्जा	-11.0619
▁जिरादफोर	-11.062
▁दाननै	-11.062
▁मोनाखैसै	-11.062
▁जोबस्रां	-11.0621
▁माखा	-11.0621
▁बाथाय	-11.0625
▁लोरि	-11.0625
▁लाब्ला	-11.0626
▁आवगायनि	-11.0627
▁थांफिनो	-11.0628
▁बोजब	-11.063
▁हान	-11.0631
▁अनारु	-11.0632
▁जाबोदोंमोन	-11.0632
▁बादै	-11.0637
▁खारबोनानै	-11.0637
ग्राम	-11.0638
▁सोलोंनाय	-11.0638
बबि	-11.0638
▁दोनथुमनो	-11.0639
▁नुजाहैनो	-11.0639
▁लुसि	-11.0639
▁गारगोन	-11.0643
▁गोरासिन	-11.0644
▁जासिनानै	-11.0644
▁सेक	-11.0645
▁बोयै	-11.0645
जुलि	-11.0647
▁फोथायथाव	-11.0647
▁मोजोम	-11.0649
िंनि	-11.065
▁सोहोरनि	-11.0651
▁बुंखाबाय	-11.0652
▁सान्थ्रिफ्रा	-11.0652
▁इंख्रिया	-11.0653
▁गौमा	-11.0654
▁थामि	-11.0654
▁जेरा	-11.0658
सिनदों	-11.0659
▁मोन्नांगौ	-11.066
▁बजबना	-11.0663
▁रायलायनाया	-11.068
▁पाट	-11.0681
▁नाययो	-11.0682
▁खोमसिनि	-11.0683
फुल	-11.0686
फर	-11.0687
▁जुगाव	-11.069
▁हांखोफ्रा	-11.0695
▁होखो	-11.0697
▁फाखाय	-11.0697
▁लिंहै	-11.0699
▁हरावनो	-11.0702
▁गोसोखांबाय	-11.0703
▁साननिफ्राय	-11.0704
▁सुथारनो	-11.0705
▁बोद्ला	-11.0706
▁थाबायनो	-11.0706
▁गाबदोंमोन	-11.0708
▁साथामसो	-11.0709
▁मिनियै	-11.0709
▁दैख	-11.071
ंनाय	-11.0712
▁देवना	-11.0712
▁हैगोन	-11.0713
▁दाजाबफानाय	-11.0714
ंग्रा	-11.0714
▁हगारनो	-11.0717
▁गोनाङ	-11.0717
▁मोनगासिनो	-11.0718
बावदोंमोन	-11.0718
▁..............	-11.0719
▁लोगोफोरखौ	-11.0721
▁गनतन्त्रबाद	-11.0722
▁जौसिन	-11.0724
निक	-11.0724
▁रोजाबनाय	-11.0728
▁दामा	-11.0729
▁साननायमोन	-11.0733
▁लोंनायनि	-11.0734
▁सुबुंफ्रा	-11.0735
▁जावनानै	-11.0738
▁सिखारदों	-11.0742
▁सुजुग	-11.0742
▁नुजाथिदों	-11.0742
▁महरथि	-11.0745
▁दैनानै	-11.075
me	-11.0751
ब्लाथाय	-11.0757
▁बिगुमैखौ	-11.0759
▁नोंस्रा	-11.076
▁दिन्थिफुंनाय	-11.0764
▁सालियाव	-11.0764
▁जेकेटा	-11.0768
▁बुक	-11.0769
▁सोदोबफ्रा	-11.077
....।"	-11.0771
▁फावथिनाया	-11.0773
▁खालाराव	-11.0775
▁मोसाहारिया	-11.0776
ग्रोनाय	-11.0777
▁आइफोर	-11.0779
फिननायनि	-11.0781
यला	-11.0783
▁दोन्दों	-11.0783
▁देत	-11.0783
▁साबुकखौ	-11.0784
▁लेंहरनाय	-11.0784
▁देरहानो	-11.0784
▁बादाव	-11.0785
▁सोरजिनायाव	-11.0786
▁गोरां	-11.0789
▁थांस	-11.0789
▁लाजिथाव	-11.0789
▁सिलारामा	-11.079
लायथारबाय	-11.0792
▁जाइ	-11.08
▁pl	-11.0801
▁अनखां	-11.0807
खाना	-11.0809
▁नायबाव	-11.0811
हाला	-11.0813
▁हानायानो	-11.0813
▁बोथि	-11.0814
▁रायज्लायनायखौ	-11.0815
गाहाय	-11.0815
▁जें	-11.0822
▁उननिफ्राय	-11.0822
▁थासारियाव	-11.0826
▁नोंदाया	-11.0827
▁बेरायहै	-11.0829
ाण्डा	-11.0829
हैदिनि	-11.0829
▁मोननायसै	-11.083
▁हमदोंसै	-11.0832
▁खन्थाइनि	-11.0832
▁खुबै	-11.0833
अल	-11.0835
▁मारु	-11.0836
▁गोबाख्र	-11.0837
▁खुरु	-11.0843
▁जोगार	-11.0847
▁मिजिङा	-11.0857
▁बाहायथि	-11.0862
▁बेखि	-11.0867
थ्ला	-11.0871
▁बुंखा	-11.0879
▁खोनाया	-11.0879
▁देलै	-11.088
▁जायासै	-11.088
▁खालामोब्ला	-11.0883
▁पाल	-11.0885
▁गोमानानै	-11.0888
▁सोरांनाय	-11.089
▁थानोसै	-11.0895
▁बरा	-11.0897
▁बेंनो	-11.0898
der	-11.0899
▁सुदों	-11.0902
▁टक	-11.0908
▁खायसेया	-11.0913
▁फरायनाया	-11.0916
▁बिहामजोनि	-11.0918
▁फरायसालिमा	-11.0919
गोर	-11.0919
▁गाग्लोबनो	-11.0921
▁वाल	-11.0922
▁खांबाय	-11.0928
▁गावलायनाय	-11.0929
▁बायोब्ला	-11.0931
▁मोगथांनि	-11.0938
मोनथाय	-11.0942
▁आवनाय	-11.0949
इला	-11.095
▁निन	-11.0951
▁बुंलाबाय	-11.0951
▁गुम	-11.0954
▁बांहो	-11.0956
थ्र	-11.0957
▁दैखांना	-11.0958
▁फोसावनो	-11.0965
मिक	-11.0967
▁उथ्रिनाय	-11.0968
फिन्दों	-11.0973
बाङा	-11.0975
▁नायबिजिरनाय	-11.0979
▁नुयोब्ला	-11.0981
▁जादु	-11.0982
▁फैब्लानो	-11.0985
▁आखुफोरखौ	-11.099
▁थाफैनाय	-11.0992
▁फोरमायथिनाय	-11.0996
▁रान्दिखौ	-11.0999
▁होवाखै	-11.1001
मुक	-11.1003
▁धोरोमाव	-11.1004
बेन्थ	-11.1004
िन	-11.1005
▁बुंलाय	-11.1005
लाखार	-11.1006
▁गारना	-11.1006
▁गाबोननिफ्राय	-11.1007
▁नोगोरखौ	-11.1011
्री	-11.1014
▁बुग	-11.1017
▁सिख्लाफोरनि	-11.1017
मनानै	-11.1023
▁एवखां	-11.1025
राया	-11.1025
लाइन	-11.1031
▁फाननाय	-11.1033
▁सेंग्रानि	-11.1035
▁फंबायनि	-11.1037
▁जालांखो	-11.104
▁मोनहैनाय	-11.1044
▁लाहैनाय	-11.1049
▁फोरमानखौ	-11.1053
▁आसल	-11.1054
ries	-11.1054
▁गान्दुखौ	-11.1055
दसे	-11.1059
्रिटिस	-11.1061
▁दिन्थिनाया	-11.1065
▁दावगानो	-11.1073
केट	-11.1073
नामा	-11.1074
▁जिन	-11.1074
▁खनथाय	-11.1076
फिनदोंमोन	-11.1077
▁मेब्लाया	-11.1081
▁दाउखा	-11.1085
पास	-11.1086
▁हनाय	-11.1096
▁हौवाखौ	-11.1098
ङैनो	-11.1103
▁मालायनो	-11.1105
बाइ	-11.1106
टिभ	-11.1108
▁खाजाखौ	-11.1119
दोलै	-11.1126
▁नङागोन	-11.1127
▁गंग्लाय	-11.1133
घर	-11.1135
▁बनाय	-11.1141
▁सोमोनां	-11.1143
▁बांलादेशी	-11.1143
▁ताल	-11.1144
▁गुबुनारिफोर	-11.1144
▁1980	-11.1146
▁हालो	-11.1151
▁जाथायाव	-11.1156
▁साथ	-11.1159
▁उस	-11.1162
▁सिलाइखौ	-11.1163
र्च	-11.1164
र्ल्ल	-11.1174
▁दाखि	-11.1175
▁लुनो	-11.1181
▁कम्पिउटाराव	-11.1184
▁बुब्लिखौ	-11.1186
▁दाबाव	-11.119
▁बिरलांनाय	-11.1197
▁अप	-11.12
थाबनाय	-11.12
▁दामनो	-11.1203
▁जोंबादि	-11.1205
म्बार	-11.1209
▁बिलाया	-11.1211
▁ओंखारदोंमोन	-11.122
खरा	-11.122
▁मोनफै	-11.1221
▁हारिजों	-11.1229
▁गोख्रैनो	-11.1231
मारी	-11.1231
लाजि	-11.1233
▁आखुफोर	-11.1233
▁गाफै	-11.1234
▁यै	-11.1238
▁लास	-11.1239
▁जानांगौमोन	-11.1239
▁आनजादा	-11.1247
▁खनसायनि	-11.1247
▁मोनसिन	-11.1248
▁खिनाय	-11.1249
्रेद	-11.1251
▁सिनि	-11.1255
गन	-11.1256
▁लान्दा	-11.1263
▁रुपाया	-11.1272
▁उदैखौ	-11.1276
लाङासै	-11.1284
▁मेलनि	-11.1287
▁अरन	-11.1288
▁दावबायारि	-11.1291
▁सालिसा	-11.1291
हुखा	-11.1295
.............	-11.1296
▁ब्रि	-11.1301
▁सोर्जि	-11.1302
▁माग्रा	-11.1305
▁p	-11.1308
▁रोमो	-11.131
फोरबादि	-11.1314
▁मेन	-11.1317
....?"	-11.1319
जें	-11.133
स्ल	-11.1332
▁लाबोफिन	-11.1335
▁होख्रां	-11.1336
▁नेमखौ	-11.1338
▁हालोदा	-11.1338
▁जिबनि	-11.1343
▁सोदोबफोरा	-11.1344
▁लिंहरनाय	-11.1345
▁बुंबावदों	-11.1348
▁पुलिसजों	-11.1353
▁सोमजाय	-11.1356
खावरि	-11.1358
बें	-11.136
▁आरज	-11.1376
▁सुब	-11.1377
थेब	-11.1378
il	-11.1381
गुन	-11.1392
▁माहारिखौ	-11.1396
बिनि	-11.1396
जिनाय	-11.1397
sh	-11.1399
▁दन्द	-11.1406
▁रायथि	-11.1406
मेन	-11.1408
▁500	-11.1409
..।	-11.1416
▁टु	-11.1421
▁प्रसा	-11.1422
पाल	-11.1424
अह	-11.1425
▁बैयाव	-11.1427
▁दावबायनाया	-11.1427
▁पुर	-11.1428
▁थालां	-11.1429
भु	-11.143
▁लुबैयोब्ला	-11.1439
▁गामिखौ	-11.1441
▁जथा	-11.1451
▁अरजा	-11.1452
पारा	-11.1453
▁थांबा	-11.1457
सिल	-11.146
नांदोंमोन	-11.1469
▁बोहैथिखौ	-11.1479
खाउरि	-11.1482
▁रमेन	-11.1485
्मी	-11.1486
▁माथाम	-11.1494
थामसो	-11.1497
▁मावफा	-11.1499
▁सिलि	-11.15
▁बादलखौ	-11.1502
फादेरो	-11.1506
▁जाफिन	-11.1509
राहा	-11.1516
▁जायगाया	-11.1522
नावबो	-11.1526
▁आदबखौ	-11.1532
▁डिस्कनि	-11.1538
▁दावराय	-11.1541
▁दिनैलाय	-11.1541
थारलै	-11.1543
▁लिंलां	-11.155
▁बुरैखौ	-11.1554
▁एले	-11.1557
▁नुफै	-11.1557
▁दाद	-11.156
सेर	-11.1563
▁जिया	-11.1568
▁अंखार	-11.1572
▁मोनला	-11.158
लानि	-11.1582
▁फिथाइखौ	-11.1585
▁मिथिना	-11.1586
▁हाथेर	-11.1588
खागौ	-11.159
▁देव	-11.1591
▁उन्दुदो	-11.1592
▁दाननाय	-11.1592
▁इय	-11.1593
लायजासे	-11.1596
▁नुहरा	-11.1601
▁नोंफा	-11.1602
▁नोंनिफ्राय	-11.1605
हनै	-11.1613
▁लायबाय	-11.1621
▁जोनोमनि	-11.1624
▁बुसा	-11.1632
▁काम	-11.1632
ब्रुं	-11.1638
▁U	-11.164
▁खामाय	-11.1644
▁थांनायखौ	-11.1648
ृष	-11.165
▁सानफ्लां	-11.1651
▁mo	-11.1654
E	-11.1654
▁जानाङा	-11.1655
▁बाखनाय	-11.1656
राजाया	-11.1663
▁सोहोर	-11.1663
फैगौ	-11.1667
▁नौनारि	-11.1673
▁खरि	-11.1674
▁लायदों	-11.1675
ालाव	-11.1675
बावखो	-11.1678
▁अबिनास	-11.1679
मलेन	-11.1684
जिर	-11.1685
▁लुफाव	-11.1687
लांनायसै	-11.1688
▁मुस्रिखौ	-11.169
ग्रु	-11.1693
▁मुसाहारि	-11.1693
▁जोंब्लाव	-11.1693
▁नङामोनब्ला	-11.1694
50	-11.1701
न्ट	-11.171
लाल	-11.171
मोसौ	-11.1713
▁नोगो	-11.1714
र्ब	-11.1719
▁दहम	-11.1721
जाइलि	-11.1723
M	-11.1723
F	-11.1723
B	-11.1724
▁थिया	-11.1725
सोमदोन	-11.1725
ऐ	-11.1725
H	-11.1725
कलेज	-11.1725
जावलिया	-11.1725
▁बृश	-11.1725
गुबुन	-11.1725
लोंखां	-11.1726
बयबो	-11.1727
........।"	-11.1728
▁परेश	-11.1729
▁प्रदीप	-11.173
▁अख्रा	-11.1731
रुवाथि	-11.1731
गोथे	-11.1734
▁क्लाब	-11.1735
▁मावथिफोर	-11.1735
▁फावथाय	-11.1737
सफ्ट	-11.1737
खुरमा	-11.1738
▁जोबथारनाय	-11.1739
▁गेरेज	-11.1739
डाइल	-11.1739
▁फाफ्लि	-11.1739
खुर	-11.174
▁गोबानाय	-11.1741
जाल्ला	-11.1741
▁दिननि	-11.1741
▁इण्डियान	-11.1746
खान्दा	-11.175
▁जुरिजेन	-11.1751
▁खेबस	-11.1753
▁मैहुर	-11.1754
▁उदखार	-11.1756
फेन	-11.1758
थांहां	-11.1759
▁काछार	-11.176
▁पाब्लिकेसन	-11.1761
▁बुर	-11.1761
गोदो	-11.1763
▁मानखौ	-11.1763
▁साइख	-11.1765
जायखि	-11.1765
▁बिस्तिबार	-11.1768
▁डिजाइन	-11.1768
▁दौदिनिया	-11.1768
▁कलंख	-11.1769
ू	-11.1769
%	-11.1769
दामब्ले	-11.1769
▁(7)	-11.1769
▁2007	-11.1769
▁आदुंगारि	-11.1769
▁कार्बिआंलं	-11.1769
▁घर्ना	-11.1769
▁चेन्टार	-11.1769
▁टेनसन	-11.1769
▁थंब्लेद	-11.1769
▁दासान्दै	-11.1769
▁देमग्लाय	-11.1769
▁धुबुरी	-11.1769
▁प्रदेश	-11.1769
▁फल्डार	-11.1769
▁फिदिङो	-11.1769
▁बिभीसन	-11.1769
▁भावथिना	-11.1769
▁माथाउरी	-11.1769
▁हाइब्रिड	-11.1769
▁खुजेब	-11.1769
▁फोरोङो	-11.1769
▁बसुमथारि	-11.1769
▁मुक्ति	-11.1769
▁मेगावाट	-11.1769
▁हुकुम	-11.1769
▁जालिजौ	-11.1769
▁बुन्था	-11.1769
▁मुंफ्रोमखौ	-11.1769
▁हावलाद	-11.1769
▁दैज्लां	-11.1769
▁हारामजादि	-11.1769
▁बिसम्बि	-11.1769
▁बुब्राब	-11.1769
▁ज्रोम	-11.1769
▁साग्रिद	-11.1769
▁ब्लेक	-11.1769
फिफटि	-11.1769
▁बास्रिनाय	-11.1769
▁खुनुरोखोम	-11.1769
▁सिलङाव	-11.1769
▁कसारी	-11.1769
▁भुटियापारा	-11.1769
▁एकाउन्ट	-11.1769
▁साख्रियावला	-11.1769
▁बावयैसो	-11.1769
▁ग्रिद	-11.1769
▁साखाफारा	-11.1769
▁इनटारने	-11.177
evenge	-11.177
▁जलंगा	-11.177
▁बमफां	-11.177
▁निहोर	-11.177
▁इरामुती	-11.177
ick	-11.177
▁2004	-11.177
▁गैमारा	-11.177
▁दुखारि	-11.177
▁रिपर्ट	-11.177
▁डेस्क	-11.177
▁मिनथि	-11.177
▁बेसात	-11.177
▁दाबाश्री	-11.177
▁गोरजिया	-11.177
▁Pa	-11.177
▁कारेन्ट	-11.1771
▁बाखनायथाव	-11.1771
▁मोस्रोम	-11.1771
▁हस्रिखाव	-11.1771
▁आइटेम	-11.1771
▁मामला	-11.1771
▁गेबे	-11.1771
▁दतमा	-11.1771
▁गुस्टि	-11.1772
▁लिबारे	-11.1772
▁दिदोम	-11.1772
▁साइद	-11.1772
▁गोसोथोनाय	-11.1772
▁फोनाङो	-11.1772
▁नलबारी	-11.1772
▁पाब्लिकेसनस्	-11.1772
ख्रु	-11.1772
▁गिखांनाय	-11.1772
▁लमन	-11.1772
▁आर्जि	-11.1772
▁फादुब	-11.1772
रमिव	-11.1772
▁सहराव	-11.1772
▁हासुदै	-11.1773
▁फेंफ	-11.1773
▁मिथिसिगौ	-11.1773
▁गन्थङाव	-11.1773
▁नार्सिं	-11.1773
▁स्रोब	-11.1773
▁रेडिअ	-11.1773
▁लिंथिया	-11.1773
▁रेबग्रा	-11.1773
/2	-11.1773
▁नायबिजिरसं	-11.1773
▁इउजार	-11.1773
▁गोग्गा	-11.1774
▁फान्जामुथि	-11.1774
▁रुपसिं	-11.1774
▁खौरांगाबा	-11.1774
▁थाइस्रि	-11.1774
▁फोसावजायो	-11.1774
▁इसिबां	-11.1774
▁असान्ति	-11.1774
▁गायदां	-11.1775
▁दोनथुमो	-11.1775
▁नोंसिनाव	-11.1775
▁सोराङाव	-11.1775
▁मिनिखैरो	-11.1775
▁ग्लब	-11.1776
▁लिरस्लाय	-11.1777
नाफुलि	-11.1777
▁हज्रिखाव	-11.1777
▁देबी	-11.1778
▁साबिद	-11.1778
▁थाफ्लि	-11.1778
▁आबादारि	-11.1778
▁गिहु	-11.1779
▁एदाव	-11.1779
▁डिमापुर	-11.1779
▁उजेर	-11.1779
▁दोनलां	-11.178
सेग्राब	-11.178
▁टेंकि	-11.1781
▁गायदे	-11.1781
ight	-11.1782
▁छि	-11.1783
▁इस्लारिया	-11.1783
बावदा	-11.1783
▁गयति	-11.1784
▁फोजायो	-11.1784
▁मोनथारो	-11.1784
▁जुथे	-11.1785
▁खाथे	-11.1785
▁फुवार	-11.1785
▁अनथाव	-11.1786
▁जुता	-11.1787
▁दावस्रि	-11.1787
▁दासोम	-11.1789
▁थरफा	-11.1789
▁नाजादो	-11.1789
▁खस्ट	-11.1789
▁नुबोला	-11.179
▁सोंबावो	-11.179
▁नांथाव	-11.179
▁क्रिं	-11.179
▁दोमो	-11.179
ख्लां	-11.1791
▁निरन्जन	-11.1791
▁थाइसे	-11.1792
▁बुरैनि	-11.1793
▁बाजिबायमोन	-11.1794
▁हंला	-11.1794
▁सियान	-11.1794
▁होवाखिसै	-11.1795
▁मोनगौमोन	-11.1795
▁रुबैजों	-11.1796
▁निस्	-11.1797
▁ज्रेम	-11.1797
▁जामारबाय	-11.1798
▁अनार	-11.1798
▁दैलो	-11.1798
ज्लायनानै	-11.18
▁जाफेराखै	-11.18
▁रेख	-11.1802
▁फैयाखिसै	-11.1802
▁जाफुंगोन	-11.1803
▁जुब	-11.1804
▁थांसिगोन	-11.1804
साङाव	-11.1805
▁सफ	-11.1806
▁कान्त	-11.1806
▁गाड	-11.1807
▁रायज्लायग्रा	-11.1808
▁दुंग्रा	-11.1808
▁मामाइ	-11.1809
▁हस्रि	-11.1811
▁मुसे	-11.1811
▁अनारीया	-11.1812
▁सिहाब	-11.1813
▁रायज्लायदों	-11.1813
▁होयासै	-11.1813
▁सोदोबफ्राव	-11.1814
▁लिंहरो	-11.1814
▁लांदो	-11.1814
नबारु	-11.1815
आल	-11.1815
▁एबसुवा	-11.1815
▁हाबिलदारा	-11.1816
▁कन्ट्राक्टर	-11.1816
▁फान्दायनायाव	-11.1817
▁दरं	-11.1817
▁ट्रेन	-11.1818
▁सोमहाबनानै	-11.1818
▁ताला	-11.1819
खायफा	-11.1819
▁बेसेनखौ	-11.1819
▁लोंदो	-11.1819
बले	-11.1819
▁थेख्रेया	-11.182
जोबा	-11.182
▁थालिया	-11.1821
▁थाथेर	-11.1821
▁सिफुं	-11.1821
▁मनजुआबो	-11.1821
▁बुंफिनबाय	-11.1822
आर	-11.1823
▁सानोमोन	-11.1823
▁रमायश्रिया	-11.1823
▁लानथ	-11.1824
▁बारलांबाय	-11.1825
▁गानग्रा	-11.1828
▁बाहायजानाय	-11.1828
बेसे	-11.183
▁लोंहोनानै	-11.1832
▁थिकखौनो	-11.1832
▁थाफैयो	-11.1833
▁बिहाउ	-11.1834
▁बुंहैयो	-11.1835
▁जाहैगोन	-11.1835
▁थांफायो	-11.1835
▁बेखेवथि	-11.1837
▁गोबाब	-11.1839
▁खोनादोंमोन	-11.1839
▁रोजासे	-11.184
▁गाबज्रिनायाव	-11.1841
नेल	-11.1844
▁मिथिथारा	-11.1844
▁फावदुरा	-11.1847
▁अरजाया	-11.1848
▁दंखायोमोन	-11.1848
}:	-11.185
▁बोसोरथाम	-11.1851
▁मिलि	-11.1853
पाति	-11.1853
▁ओंखारबोबाय	-11.1854
▁थायनैजों	-11.1854
ीयाव	-11.1855
▁सानफिनो	-11.1855
हैद	-11.1855
▁जिरायो	-11.1856
▁दागा	-11.1858
बेयो	-11.1858
▁बिबुं	-11.1859
▁बारहां	-11.186
▁थायासै	-11.1862
▁मिनिस्लुयै	-11.1862
▁बिमादै	-11.1863
थारगौमोन	-11.1863
▁गेलेबाय	-11.1863
▁जाखानाय	-11.1863
▁थाङासै	-11.1864
▁!!"	-11.1866
▁आरमि	-11.1866
ान्त्रि	-11.1869
▁मानसिनो	-11.1871
▁लाफै	-11.1872
▁फेर	-11.1874
▁फैहां	-11.1875
▁मोले	-11.1875
▁फार्	-11.1877
▁डाक्टारा	-11.1877
▁गनायना	-11.1878
▁गोग्लैदोंमोन	-11.188
▁बेंग्रा	-11.188
▁गानबाय	-11.1881
सोलै	-11.1881
ard	-11.1884
▁एंगारनाया	-11.1884
▁नुगासे	-11.1884
▁खामायनाय	-11.1886
▁लांनायसै	-11.1886
▁खामायनो	-11.1892
▁जाफिनो	-11.1893
▁रिंगासो	-11.1894
▁भारि	-11.1894
▁थाफै	-11.1895
▁बांग्रा	-11.1898
▁खोलो	-11.1899
▁हालोदाव	-11.1899
▁सोरगो	-11.1902
▁दायनिगिरिया	-11.1902
▁बुलाय	-11.1902
▁सालाम	-11.1907
▁जाबोबाय	-11.1909
स्था	-11.1909
सानि	-11.1911
▁रायो	-11.1912
ालासिनो	-11.1912
▁बारासिन	-11.1914
▁सानलाय	-11.1915
▁बाग्दावनाय	-11.1915
2005	-11.1916
▁सिरिथा	-11.1916
▁जिला	-11.1917
▁फालाया	-11.1919
▁बिजिरनाया	-11.192
▁डाक्तारा	-11.1921
▁बासजों	-11.1923
▁बिब्दियै	-11.1923
▁फानहर	-11.1924
▁लिंख	-11.1927
▁कमाण्डफोरखौ	-11.193
.........!	-11.193
▁जाब्रथाय	-11.1932
अमा	-11.1932
▁खारलांनानै	-11.1933
▁हैदोंमोन	-11.1939
▁गोग्लैदों	-11.1939
▁खोमोन	-11.194
▁थायबा	-11.1942
टस	-11.1945
फ्लायो	-11.1945
▁दाहोनाफोर	-11.1946
▁खमाय	-11.1947
▁Inter	-11.1949
▁सुबुंफोर	-11.1956
▁गेजेरजोंनो	-11.1956
▁फैथ	-11.1959
ज्रुम	-11.1962
▁मोनहोनो	-11.1963
▁बेसादफोरखौ	-11.1964
▁मावफुंनाय	-11.1967
्रियै	-11.1967
▁खारफा	-11.1968
▁आयथा	-11.1968
▁नैथियाव	-11.1968
▁सानोब्ला	-11.1969
▁हांसा	-11.1973
▁मंगलिय	-11.1978
▁होलांदों	-11.198
▁गोबांथार	-11.1981
ाद	-11.1982
▁केच	-11.1982
सालिनि	-11.1983
जानाया	-11.1983
▁F	-11.1987
▁मुंसे	-11.199
स्टार	-11.1992
▁आली	-11.1995
▁आन्दार	-11.1997
▁बुरखायनाय	-11.2
श्रि	-11.2001
द्रि	-11.2005
▁थिन्	-11.2008
▁बुबाय	-11.2009
▁सुग्रा	-11.2012
▁बुंदोंदि	-11.2012
▁फोलानो	-11.2014
▁जिरि	-11.2014
▁थालांनाय	-11.2015
▁बुंला	-11.2017
▁सोखा	-11.2024
▁आइखौ	-11.2025
बिर	-11.203
▁लुबैबाय	-11.2032
▁हाबबाय	-11.2035
▁बावलां	-11.2035
▁लाजिनाया	-11.2038
▁दैमारि	-11.2039
▁नोमफानि	-11.2041
मोनै	-11.2047
िकेल	-11.2048
बेल	-11.2048
गुरु	-11.2051
▁नुवाब्ला	-11.2056
▁नुनायखाय	-11.2056
▁लानायसै	-11.2056
फैनाया	-11.2061
▁हारिफोर	-11.2062
▁थायनैनि	-11.2066
▁गारिनिफ्राय	-11.2069
▁गलायाव	-11.2072
▁आदैया	-11.2074
लात	-11.2075
▁दैमायाव	-11.2081
▁थांगार	-11.2083
बिखा	-11.2085
▁फैफिनब्ला	-11.2088
▁गास	-11.2089
द्रे	-11.2089
▁बिदां	-11.209
▁हारिफोरनि	-11.2095
बड	-11.2101
▁दाहाया	-11.2101
▁गनायनानै	-11.2102
▁बाहायजा	-11.2105
▁थैदों	-11.2106
फुङो	-11.211
▁थैजानाय	-11.2114
▁सोलिया	-11.2119
माराव	-11.2121
▁बिबा	-11.2121
▁बेंनानै	-11.2121
▁बंस	-11.2126
गाथाम	-11.2127
!!	-11.2128
हाजार	-11.2129
हैबावनो	-11.2129
ाब्लानो	-11.2134
▁सोरहा	-11.2136
▁राननाय	-11.2137
▁बेफोरो	-11.2143
बास	-11.2146
▁थिम	-11.2147
▁सुथुरनि	-11.215
▁फावखौ	-11.215
▁मावखां	-11.2151
▁कामाख्यानि	-11.2151
▁थानांनाय	-11.2152
▁टाट	-11.2154
▁मोदोमनाय	-11.2155
▁थायनैखौ	-11.2157
▁सोनार	-11.2161
▁नोंसोरलाय	-11.2167
▁नोंथाङानो	-11.2169
▁बुब्लिनि	-11.2171
न्थाइ	-11.2172
▁बिरबो	-11.2173
ख्री	-11.2173
▁फैफिन्नाय	-11.2179
▁मानसिफोरजों	-11.2183
▁फोरमाना	-11.2186
▁करि	-11.2186
▁गोरोन्थिनि	-11.2189
होलां	-11.2189
खोला	-11.2192
▁जालायनानै	-11.2193
▁दायनिगिरिफोर	-11.2193
र्टा	-11.2196
यालासिनो	-11.2197
ग्लाब	-11.2201
▁दाजाबदाफोर	-11.2207
▁N	-11.2211
rom	-11.2217
▁जाहैनाय	-11.2219
▁हायोदि	-11.2221
▁जिरायफा	-11.2226
गास्नि	-11.2229
िटिनि	-11.2229
▁रोङाब्ला	-11.2237
▁सैथोआ	-11.2237
▁जोंखां	-11.224
▁सोमजिखां	-11.2248
मेला	-11.2258
▁दावखाया	-11.2259
▁आन्दाखौ	-11.226
▁गेलेदों	-11.2264
जादब	-11.2273
▁सिनायथिया	-11.228
याखैसै	-11.2284
फर्म	-11.2287
▁लाल	-11.2288
▁लाइफ	-11.2288
▁निसा	-11.2291
▁गसंफै	-11.2294
जाल	-11.23
▁दिग	-11.2306
फ्लाबाय	-11.2308
▁अनजु	-11.2314
▁नुसन	-11.2315
फैनायसै	-11.2318
▁जाग्रो	-11.2318
▁गाला	-11.2323
▁नङैनि	-11.2324
▁गोलोमनाय	-11.2326
ाब्लाबो	-11.2328
▁रंजाफुनाय	-11.2334
▁गेरेब	-11.2344
▁बिरलांदों	-11.2349
जोंथि	-11.2357
राजानि	-11.2357
बाजार	-11.2357
ंगो	-11.2365
▁जेद	-11.2381
लायनाया	-11.2387
▁दोंमोन	-11.2388
▁बेफ्रुनाय	-11.2391
▁फैमार	-11.2393
▁खुंथाय	-11.2395
▁सुबाय	-11.2395
▁रोम	-11.2396
फोद	-11.24
▁खिन्थाहर	-11.24
▁मिनिटनि	-11.2403
▁बामोना	-11.2404
▁नागिरा	-11.2404
गद	-11.241
▁हाउ	-11.2414
▁गोलैनो	-11.2418
बेश	-11.2418
▁फिननायखौ	-11.2418
▁बारब्ला	-11.2421
▁सुरहाब	-11.2422
िनाराम	-11.2422
▁टिक	-11.2423
▁रमान	-11.2423
▁सुनिखौ	-11.2425
▁सोमबोरखौ	-11.2425
▁जाफ्ला	-11.2432
▁रानखां	-11.2435
▁ता	-11.2438
▁आनजादनि	-11.2438
▁g	-11.2439
▁मेलानि	-11.2444
▁दामानि	-11.2445
▁बाजारनि	-11.2452
im	-11.2452
▁बिबादि	-11.2454
▁बिबाराव	-11.2461
▁जेंनाफोर	-11.2463
▁खुरि	-11.2464
▁थानायखाय	-11.2464
▁खामग्लि	-11.2477
▁खांनो	-11.2483
▁मिलाय	-11.249
▁हरबाव	-11.249
▁नायथ	-11.2494
फाम	-11.2497
▁फैफिननो	-11.2497
▁खुदुमनाय	-11.2499
▁सादा	-11.2501
▁बाग	-11.2502
▁मिल	-11.2505
▁दखनाखौ	-11.2507
मिन	-11.2508
▁थाबायो	-11.2511
90	-11.2514
▁केसनि	-11.2515
▁जेकेटनि	-11.2519
▁जाथायजों	-11.2522
▁आखुथि	-11.2533
थाइखौ	-11.2533
▁थाफैदों	-11.2533
▁मुंजों	-11.2545
▁बुंफोर	-11.2549
सुनाय	-11.2551
▁बाथे	-11.2554
▁गोमाना	-11.2559
▁मोनखौ	-11.2568
▁जिप	-11.2574
▁मन्जुवाबो	-11.2578
▁थिनहै	-11.258
▁go	-11.2583
गाब्रै	-11.2613
▁होखा	-11.2627
बागान	-11.2628
▁थेफ	-11.2633
दोंसै	-11.2645
दोब	-11.2653
▁बिथिंनि	-11.2655
माइ	-11.2655
▁बब	-11.2659
▁नायफै	-11.2664
▁सानखां	-11.2675
ne	-11.2679
▁गेलेम	-11.2681
▁बायना	-11.2681
मारो	-11.2683
▁सिगांग्रो	-11.2688
रेम	-11.2689
बबे	-11.2693
साजा	-11.2701
▁सुयो	-11.2704
▁खारि	-11.2707
न्थाय	-11.2712
हारी	-11.2712
सेया	-11.2712
▁जेखाय	-11.2715
ोना	-11.2717
लिसे	-11.2718
▁मोजांब्ला	-11.2721
▁बादिसो	-11.2724
▁बुजायनाय	-11.2727
man	-11.2731
ालासेनो	-11.2731
▁जिरायहै	-11.2733
▁खावनो	-11.2734
....!"	-11.2735
▁आद	-11.2738
▁जाबायलै	-11.2745
फैगोन	-11.2745
▁फागुन	-11.2751
▁खिलि	-11.2762
▁उन्दुहै	-11.2765
▁गाज्रियै	-11.2765
▁नायग्राफोर	-11.2769
▁जुम	-11.277
▁मोनफ्लां	-11.277
खारि	-11.2771
el	-11.2772
माल	-11.2773
▁होबा	-11.2776
▁फावाव	-11.278
साब	-11.2787
मन	-11.2791
एनला	-11.2795
▁थाबा	-11.2814
▁द्रा	-11.2819
▁पर	-11.2831
▁गोफा	-11.2849
▁होसोबो	-11.2852
▁थैनाया	-11.2856
▁बारखो	-11.2859
▁खारसन	-11.2859
ारनि	-11.2861
▁थायनैया	-11.2879
पुरी	-11.288
ुलार	-11.2881
▁no	-11.2896
▁चा	-11.2897
ेसन	-11.2899
▁नोंना	-11.29
▁रुटि	-11.2903
▁फासय	-11.2906
▁सोलाया	-11.2908
▁नायहरनाय	-11.2909
▁गोरोबहो	-11.2931
▁बोबो	-11.2933
▁समनिफ्राय	-11.2936
....?	-11.2938
▁खोख्लै	-11.2943
▁लिरनायनि	-11.2949
▁सिखारनाय	-11.2949
▁फैबा	-11.2949
▁आसु	-11.2949
ष्टार	-11.295
▁बिग	-11.2961
▁सेक्सपीयेर	-11.2962
ph	-11.2963
▁लाफानाय	-11.2965
▁मासिया	-11.2969
देब	-11.297
--'	-11.2972
..........।"	-11.2972
▁खाल	-11.2973
▁रोंग	-11.2983
▁खुनुमथ	-11.2993
ठ	-11.2994
▁गंनैखौ	-11.2995
▁e	-11.2996
▁होन्नानैनो	-11.2998
उनाव	-11.2999
थांदो	-11.2999
▁सैथोनि	-11.3001
▁नायजाबफोरा	-11.3001
▁इसि	-11.3007
▁10.	-11.3008
फ्लं	-11.3014
टिक	-11.3014
रुम	-11.3017
ते	-11.3017
▁जिरायदों	-11.3021
क्टर	-11.3021
▁उसुं	-11.3023
12	-11.3027
▁महनलाल	-11.3029
▁जौजों	-11.3034
▁मोनहो	-11.3036
▁उजिर	-11.3037
▁स्प	-11.3037
."	-11.3037
▁दानख	-11.3037
थारनो	-11.3037
▁बायहो	-11.3039
▁सुबु	-11.3041
चिया	-11.3042
ine	-11.3045
▁कर्णिया	-11.3046
▁मंग	-11.3048
......।"	-11.3053
▁बिश	-11.3058
लेब	-11.3059
▁फिथा	-11.306
▁बारसिन	-11.3065
सान्ति	-11.3067
▁थिखा	-11.307
▁लांनायनि	-11.307
गेजेर	-11.3071
▁li	-11.3073
च्	-11.3073
▁उदाय	-11.3075
लायाखै	-11.3076
▁थांजोब	-11.3079
ें	-11.3079
अजित	-11.308
फोनां	-11.3087
ख्रब	-11.309
▁रमायश्रि	-11.3093
▁लुफुं	-11.3093
वन	-11.3095
रमायना	-11.3096
▁थिरां	-11.3096
▁मादा	-11.3097
▁मिला	-11.3099
मसा	-11.31
▁थाङाब्ला	-11.3103
अबंनि	-11.3104
नंनाया	-11.3104
वेर	-11.3105
बिख्लो	-11.3106
गामिनि	-11.3106
हिनजाव	-11.3106
मोदोम	-11.3106
आन्दास	-11.3107
खाफाल	-11.3107
गासिबो	-11.3107
गोजोन	-11.3108
फ्रानो	-11.3109
जेरै	-11.3109
राणी	-11.3109
▁असिला	-11.311
आरिखां	-11.3111
▁गब्लं	-11.3113
दाउसा	-11.3114
▁हगारसार	-11.3115
आफोद	-11.3117
अन्नानै	-11.3117
▁थाहैनो	-11.3121
टारि	-11.3124
टेल	-11.3126
▁दंलै	-11.3127
गोसोम	-11.3129
▁दुखुनांथाव	-11.3129
▁बिरग	-11.313
र्ज्य	-11.313
▁सेल	-11.3134
गैयै	-11.3134
▁खेबनि	-11.3135
ग्दाव	-11.3136
मिनिनाय	-11.3137
▁बुङाबाला	-11.3139
▁हाजिर	-11.3139
▁बिलाइस्रि	-11.3143
▁मुंरायनि	-11.3144
दुब	-11.3144
▁ट्रेन्स	-11.3147
ख्लोब	-11.3147
▁हस्पिटाल	-11.315
▁हस्पित	-11.315
dverb	-11.315
▁God	-11.315
▁कहिधन	-11.315
▁क्लार्क	-11.315
▁खाख्लारी	-11.315
▁तामिल	-11.315
▁युव	-11.315
▁लानजाइ	-11.315
▁सांग्रेमा	-11.315
▁हिमालय	-11.315
face	-11.315
sense	-11.315
▁1987	-11.315
▁Jul	-11.315
▁Limited	-11.315
▁उथुजुग	-11.315
▁उपेन्द्र	-11.315
▁एक्सप्रेस	-11.315
▁ग्रेणेड	-11.315
▁चाणाक्य	-11.315
▁जार्डारी	-11.315
▁जोबथेसालियाव	-11.315
▁थागिदा	-11.315
▁दानसोराङा	-11.315
▁दोहौ	-11.315
▁प्लास्टिक	-11.315
▁फरेइन	-11.315
▁फावखुंगुर	-11.315
▁फास्लां	-11.315
▁फ्रेस	-11.315
▁बारांगाबारी	-11.315
▁बिखुनजो	-11.315
▁बिगोमाजोआ	-11.315
▁बिजावजालि	-11.315
▁बिरोंदामिन	-11.315
▁बृटेइन	-11.315
▁बैरागि	-11.315
▁भार्चन	-11.315
▁मिनिगाग्लाब	-11.315
▁राजथान्दै	-11.315
▁रिजाल्ट	-11.315
▁वर्कश्वप	-11.315
▁वार्क	-11.315
▁सन्मिलन	-11.315
▁सुबिधा	-11.315
▁सेक्रिफाइस	-11.315
▁अरगें	-11.315
▁दत्त	-11.315
▁दावथ्रोद	-11.315
▁निज्रा	-11.315
▁बुर्जा	-11.315
▁रामसियारि	-11.315
▁गुन्दै	-11.315
▁राइफेल	-11.315
Acce	-11.315
▁इंगि	-11.315
▁बुद्दि	-11.315
▁थिकादार	-11.315
▁फेंखा	-11.315
▁गासिखौबो	-11.315
▁बाङाइ	-11.315
▁गंगना	-11.315
▁बाकसा	-11.315
▁रुगि	-11.315
▁दानदिसे	-11.315
▁टिकिट	-11.315
▁डलार	-11.315
▁थालिद	-11.315
▁पेड	-11.315
▁मसला	-11.315
▁स्पिद	-11.315
▁बकुल	-11.315
▁रंजुलि	-11.315
▁चिलाराम	-11.315
▁ग्रुप	-11.315
▁फानजारि	-11.315
▁फिथोब	-11.315
▁ब्रीज	-11.315
▁थोंगोर	-11.315
▁पेट्रिडिस	-11.315
▁हाब्रां	-11.3151
▁कर्निया	-11.3151
▁पाउदार	-11.3151
▁नार्भ	-11.3151
▁आगरवाला	-11.3151
▁जाहाद	-11.3151
▁रामोनदा	-11.3151
▁हाफौ	-11.3151
854	-11.3151
▁बेयावहायनो	-11.3151
▁सोलास्लिब	-11.3151
▁नारेंखल	-11.3151
▁मोन्थोर	-11.3151
▁दुंबुरु	-11.3151
▁मेरेज	-11.3151
▁बिथिङा	-11.3151
चन्दन	-11.3151
▁आवरायजेननाय	-11.3151
▁do	-11.3151
▁Not	-11.3151
▁खत	-11.3151
▁द्राइभार	-11.3151
▁दंनायमानि	-11.3151
sso	-11.3151
▁थगायसुलि	-11.3151
▁फंबाइ	-11.3151
▁रेन्ज	-11.3152
▁नील	-11.3152
▁मोख्रेब	-11.3152
▁गाराङा	-11.3152
▁मालिस	-11.3152
▁बयनिख्रुय	-11.3152
▁सोमोनांथाव	-11.3152
▁आलमारि	-11.3152
▁तिता	-11.3152
▁फ्लिं	-11.3152
▁खारखाना	-11.3152
▁फुथिहां	-11.3152
▁जोबजासिम	-11.3153
▁ष्टेसन	-11.3153
▁अनफावरि	-11.3153
▁थोथोर	-11.3153
▁बावगोमा	-11.3153
▁दुब्रि	-11.3153
▁br	-11.3154
▁भुत	-11.3154
▁टाइट	-11.3154
▁हुमखि	-11.3154
▁साबद्राय	-11.3154
▁मिनिबाला	-11.3154
जिरा	-11.3154
रपति	-11.3154
▁धुप	-11.3154
▁खारसां	-11.3154
▁एसेमब्लि	-11.3155
हारा	-11.3155
▁खैसिं	-11.3155
▁दोनस्लाय	-11.3155
▁कम्फिउटार	-11.3155
▁दोमैलो	-11.3155
▁मेलेन	-11.3155
ज्रो	-11.3155
▁दिन्दां	-11.3156
▁बुग्लि	-11.3156
▁दावज्ला	-11.3156
▁खोबथे	-11.3156
▁गमथा	-11.3156
▁असिद	-11.3156
▁मन्च	-11.3156
▁गुग्रुब	-11.3156
▁फोनांनायनि	-11.3156
▁खांग्रां	-11.3156
▁फन्दि	-11.3156
▁बैदिनखालि	-11.3157
▁L	-11.3157
▁मान्दार	-11.3157
▁सावरायनाया	-11.3157
▁संकर	-11.3157
▁गोमालांनाय	-11.3158
▁गाराङाव	-11.3158
▁रोंलिया	-11.3158
▁टेप	-11.3158
▁गोसोखांलाइ	-11.3158
▁डाटा	-11.3158
▁आयेन	-11.3159
▁नांफैदों	-11.3159
▁सौथु	-11.3159
▁मिनिखैर	-11.3159
ब्रोम	-11.3159
▁असित	-11.3159
▁फोन	-11.3159
▁नायनायसाय	-11.3159
▁खारस्लिउ	-11.316
▁फानथाव	-11.316
▁साइखं	-11.316
▁दाथासै	-11.316
▁समष्टि	-11.316
▁थुनलायारि	-11.3161
▁लाखिथों	-11.3161
▁गार्ड	-11.3161
▁गाग्लाब	-11.3161
▁तास	-11.3161
▁टप	-11.3161
▁फावसाय	-11.3162
▁गाराखै	-11.3162
▁खोमानांनाय	-11.3162
▁थरथिं	-11.3163
▁दाउथु	-11.3163
▁काली	-11.3163
फुफु	-11.3163
▁रेगां	-11.3163
▁बिरलाङो	-11.3164
▁मोनजायाखै	-11.3164
▁आन्दोआव	-11.3165
▁खायख	-11.3165
▁सानदुं	-11.3165
▁हाउली	-11.3165
▁गम्भीरसिं	-11.3165
▁बायह्रायाव	-11.3166
▁गेलेनाया	-11.3166
▁रोंनांगोन	-11.3166
▁कुलि	-11.3166
▁सावरायो	-11.3167
जायि	-11.3167
सुली	-11.3167
▁इयार	-11.3167
फ्लांदोंमोन	-11.3167
▁नाजानांगोन	-11.3168
एन	-11.3168
▁गोहोगोरा	-11.3168
▁सोंहरो	-11.3169
▁रुमु	-11.3169
▁सोनाबारि	-11.3169
सेमानि	-11.3169
▁फिज	-11.317
▁खारखो	-11.317
▁लुबैयाखैमोन	-11.317
▁गोजोम	-11.317
▁सान्नैसो	-11.317
▁हाबाथिलि	-11.3171
▁मिटिं	-11.3171
▁जाबसिन	-11.3171
▁ष्टेट	-11.3172
▁सेक्सपीयारनि	-11.3172
▁मानगोनां	-11.3172
▁साकर	-11.3173
▁कास्तमारफोरखौ	-11.3173
▁दानफाय	-11.3173
▁गयस्रि	-11.3175
▁हास्थायो	-11.3175
▁www	-11.3175
▁दामब्रा	-11.3175
▁बिबाङा	-11.3176
▁बीर	-11.3176
▁हमथे	-11.3176
▁बेदलाव	-11.3177
▁खुग्लु	-11.3177
▁लाखादों	-11.3177
▁लाबोफादों	-11.3177
▁दाबुंसै	-11.3177
▁द्रेस	-11.3178
▁देने	-11.3178
▁फोरमायथियो	-11.3178
▁रायहर	-11.3178
▁मार्का	-11.3178
▁लानांदों	-11.3179
मिद	-11.3179
▁गोलांनानै	-11.3179
▁जाखागोन	-11.318
▁दरनै	-11.318
▁खालामसिगोन	-11.318
▁होसोयो	-11.3181
▁भज	-11.3181
▁बाजौ	-11.3181
िंगार	-11.3181
▁सारस्रि	-11.3182
▁महीधरा	-11.3182
▁हेफाजाबगिरि	-11.3182
▁फावथायारि	-11.3183
▁मोननायमोन	-11.3183
▁बिजिरसालिनि	-11.3184
राजाफोरा	-11.3184
सिन्दों	-11.3185
▁गानहोयो	-11.3185
▁रैमोना	-11.3186
▁बिलिदबाय	-11.3186
▁आफामोन	-11.3186
▁बुजिस	-11.3186
महर	-11.3187
▁रायथाइ	-11.3188
▁फैखादों	-11.3188
▁उजियो	-11.3189
▁औवारी	-11.3189
▁ञ	-11.3189
▁लुबैयै	-11.319
▁क्लाबाव	-11.319
▁बुंफोरनाय	-11.319
अब्ला	-11.3192
▁जारां	-11.3193
▁खालामहोनानै	-11.3194
▁सौफैयो	-11.3195
▁थांफिनगोन	-11.3195
फैखो	-11.3195
▁इमार	-11.3196
▁हेले	-11.3196
▁नेशन	-11.3196
▁दोखो	-11.3198
▁लोमजादों	-11.3199
▁जेरबायाव	-11.3199
▁मोनलिया	-11.3199
▁हाबफैदों	-11.3201
खालाम	-11.3202
▁बिख	-11.3202
▁बुलि	-11.3203
▁नोंल	-11.3204
▁गारजानाय	-11.3204
▁बेरायदों	-11.3204
▁खारलांनाय	-11.3206
▁सुम	-11.3208
▁ख्रब	-11.3208
▁हुगारै	-11.3209
▁जानांदोंमोन	-11.321
▁बिखान्थि	-11.321
▁हगारसारनानै	-11.321
▁दब्लाय	-11.3211
▁फोजाव	-11.3211
▁मोनफिनबाय	-11.3211
िकेट	-11.3212
▁मावनांगोन	-11.3212
बाजि	-11.3212
▁बुद्रैया	-11.3212
▁गोदि	-11.3214
▁बैग्रि	-11.3214
▁मोनफैयो	-11.3216
▁फोरान	-11.3216
▁जाथारगोन	-11.3216
▁नङि	-11.3217
▁एंगोनाया	-11.3218
▁us	-11.3222
▁सोरजिदोंमोन	-11.3223
▁नेयो	-11.3224
▁नाछा	-11.3224
▁थांबावनो	-11.3224
▁रेगा	-11.3225
▁दरलाया	-11.3226
लेन्स	-11.3227
▁बायनांगौ	-11.3227
▁बुंखांनानै	-11.3227
गाप	-11.3231
▁खुरबाय	-11.3232
▁रिंसारथिजों	-11.3232
▁नेग्रा	-11.3232
▁नागिरबा	-11.3232
▁आलेहा	-11.3233
▁लुबैयाखै	-11.3233
▁बी	-11.3234
AS	-11.3235
िखौ	-11.3235
▁जोंजों	-11.3235
▁मोनहैबाय	-11.3235
▁जेन्नाय	-11.3236
▁फागा	-11.3236
▁मास्टारा	-11.3236
▁रंजालीया	-11.3236
▁थगायबोदों	-11.3237
▁दामदों	-11.3237
एसे	-11.3238
दहाय	-11.3238
▁बाख्रियाव	-11.3238
▁जखा	-11.3239
ोरसोन	-11.324
मागिरिया	-11.324
झार	-11.3242
▁जोंब्लावा	-11.3244
▁बोनायसै	-11.3245
▁थाहैयो	-11.3245
▁मोनलायो	-11.3247
▁दामसि	-11.3247
▁जाफुंहोनो	-11.3247
▁मुरि	-11.3247
▁रड	-11.3249
▁थालाङो	-11.3249
▁बेकेट	-11.325
▁सोलिबाय	-11.3252
▁गानहोनांगौ	-11.3252
▁उथ्रिनानै	-11.3252
▁सुरै	-11.3252
▁थुब्रा	-11.3257
▁होलांबाय	-11.3257
▁नायनांगौ	-11.3257
▁बोल्दा	-11.3258
▁गुरब्ला	-11.3259
वारिनि	-11.3259
▁टावारफोर	-11.3259
बायग्रा	-11.326
▁बरसा	-11.3263
▁मैथा	-11.3263
बेथ	-11.3264
▁हगारो	-11.3264
नोंहा	-11.3264
▁सुरबाय	-11.3267
▁साब्रैसो	-11.3268
▁सुफुंथि	-11.3269
▁गारसोम	-11.3269
▁बिजौवाव	-11.327
▁ख्रेब	-11.327
▁बाखनायनाय	-11.3272
▁बावलांनाय	-11.3274
▁नारसिननानै	-11.3274
▁हायामोन	-11.3275
▁हेव	-11.3276
▁हरनांगौ	-11.328
▁रोंदों	-11.328
▁दाथा	-11.328
।।2	-11.3281
वाब्ला	-11.3285
पेन	-11.3286
ालि	-11.3286
▁थोरसि	-11.3286
▁ओंखारनायनि	-11.3287
▁लाबानो	-11.3288
ेयार	-11.3288
थफ्लि	-11.3289
▁फिथाया	-11.3289
▁थिननायाव	-11.3289
▁हाइथा	-11.3289
▁हरनायसै	-11.329
▁सुहाबनाय	-11.329
रिन	-11.3292
चर	-11.3292
▁लाब्रा	-11.3294
▁हमगोन	-11.3294
▁देबनाग	-11.3296
▁बिजिनि	-11.3297
▁34	-11.3299
रेट	-11.3302
▁गाया	-11.3302
मासु	-11.3302
▁थिनबा	-11.3304
▁मुलिफोरखौ	-11.3304
▁फुंजानि	-11.3305
▁जोमनानै	-11.3306
▁दाउमा	-11.3306
▁मादैया	-11.3307
▁लांखारनाय	-11.3307
▁खनो	-11.3309
▁गिग्लुं	-11.3309
▁फोथैनानै	-11.3309
▁थैखो	-11.331
टारने	-11.3312
▁हामफ्ला	-11.3313
बिदि	-11.3314
▁बिबै	-11.3315
▁लाबोआ	-11.3317
▁सानथामसो	-11.3318
▁रमेनखौ	-11.3318
▁दाफै	-11.3319
▁दायसे	-11.3321
▁थुंग्रिया	-11.3321
फोरजा	-11.3321
लादार	-11.3322
▁हाले	-11.3323
आफाया	-11.3323
▁बाजारनिफ्राय	-11.3324
▁सिगांथिं	-11.3327
▁दौरि	-11.3328
▁हाबलांनाय	-11.333
▁मावमोनथायनि	-11.3336
▁रायदों	-11.3337
ेमथा	-11.3339
▁नायग्राफोरखौ	-11.3339
▁नांदोंमोन	-11.3346
दें	-11.3346
थारसिगोन	-11.3347
▁बालाय	-11.3347
▁बरायनाय	-11.3347
बाथाव	-11.3348
▁नुथायाव	-11.3348
▁मानियो	-11.3348
▁बुङाब्ला	-11.335
▁बावगोन	-11.3351
साइया	-11.3353
▁खोनासंबाय	-11.3354
▁मावदोंमोन	-11.3357
▁मोननाव	-11.3359
▁फोरोंदोंमोन	-11.3361
▁जाफ्लानाय	-11.3362
▁नायबिजिरनायनि	-11.3365
▁जोंफोर	-11.3365
▁दोनब्ला	-11.3368
▁बेसादफोर	-11.337
▁नांहाब	-11.3371
खांदोंमोन	-11.3371
फादार	-11.3371
▁गथायनाय	-11.3373
▁समब्रा	-11.3374
▁रायज्लायनाया	-11.3374
▁रागाया	-11.3375
▁होन्नाया	-11.3375
▁लोंहो	-11.3376
▁गोमोनाय	-11.3376
▁बाथुवानि	-11.3377
▁हमै	-11.3378
▁नाजावनानै	-11.3378
▁हानांगोन	-11.3382
▁फारनैयाव	-11.3384
▁दाननो	-11.3384
▁गोगोमै	-11.3385
▁बैसोआवनो	-11.3385
▁आखलै	-11.3385
▁फोलेराव	-11.3385
पे	-11.3389
▁होग्रां	-11.3389
▁दंहैयो	-11.339
▁फोजोबो	-11.3391
लांनायखौ	-11.3392
▁दिखांना	-11.3392
▁मन्जुजों	-11.3397
▁जोबदों	-11.3401
▁फिदिंनो	-11.3401
▁गोर्बोयाव	-11.3411
▁अक्सि	-11.3411
▁थिफु	-11.3414
▁फोसावनानै	-11.3414
▁बेदिं	-11.3415
र्ल	-11.3415
▁फ्राम	-11.3421
ाइनारि	-11.3423
▁बैनाय	-11.3425
▁मोनैयाव	-11.3425
▁बिमानै	-11.3428
▁दोहोननि	-11.3432
▁बेरनाय	-11.3436
▁रायजितखौ	-11.3436
▁मिथिला	-11.3438
▁सोरजिगिरिनि	-11.3438
▁सिफायनाय	-11.344
▁फोनांनो	-11.3441
बेफोरखौ	-11.3443
▁बरायनानै	-11.3445
▁दन्दर	-11.3447
▁थाइजाजों	-11.3455
आब	-11.3455
▁साजाखौ	-11.3458
▁थारुनखौ	-11.3458
▁लखब	-11.3459
▁थफीया	-11.3462
▁सय	-11.3465
स्नि	-11.3466
थावगौ	-11.3466
उरि	-11.3469
▁थालांदों	-11.3472
र्ण	-11.3472
▁फेसा	-11.3477
थायनि	-11.3479
▁थानांदों	-11.3482
.....।"	-11.3482
▁बान्थाया	-11.3483
▁प्रदिपखौ	-11.3488
▁नेयै	-11.349
▁बेन्स	-11.3491
▁मिनिबाय	-11.3494
▁बिमाइनो	-11.3495
▁खामला	-11.3496
▁खोरोम	-11.3497
▁आइजोनि	-11.3498
▁दोनथुमनाय	-11.3498
▁बिसोरनाव	-11.35
▁गोजोनबाय	-11.3503
..।"	-11.3506
▁देम	-11.3508
▁गान्	-11.3512
▁डिभाइस	-11.3512
▁मोनहैयो	-11.3513
▁खुनाय	-11.3522
▁देगारजों	-11.3524
▁नागाफोरखौ	-11.3526
सुथि	-11.3527
▁नुबोदों	-11.3529
▁हागौमानि	-11.3529
▁गायसननाय	-11.3532
देनाय	-11.3535
▁खांदोंमोन	-11.3535
▁आफोर	-11.3536
सन्नाय	-11.354
साला	-11.3543
▁हरदोंमोन	-11.3551
▁बिदैजों	-11.3567
▁गाखोफिन	-11.3569
नायथा	-11.3574
▁थुवा	-11.3577
▁आबौवा	-11.3577
▁नाजाया	-11.358
गालांनाय	-11.3581
▁दैथुना	-11.3582
▁दुमसि	-11.3584
हैथां	-11.3585
▁रेन्जारनि	-11.3587
▁गानदों	-11.3587
▁सानथि	-11.3592
▁बेफोरहा	-11.3599
काश	-11.3603
▁बन्थ	-11.3604
▁खिन्थाया	-11.3605
▁खोनाब्ला	-11.3607
स्राइ	-11.3609
राजाफोर	-11.3614
▁खिन्थाजोब	-11.3619
▁नागिरनायाव	-11.3619
▁सानजौफुनि	-11.362
▁समायो	-11.3626
▁नायगिरना	-11.3627
▁धर	-11.363
▁हल	-11.3635
▁बेरामा	-11.3636
मनो	-11.3637
▁सौनानै	-11.3641
▁....।"	-11.3642
▁बिबाननिफ्राय	-11.3643
▁हवा	-11.3644
▁सिनायमोन	-11.3645
ity	-11.3647
▁जारि	-11.3647
▁हाख	-11.3649
▁सानग्रा	-11.3652
▁होनजा	-11.3652
वेल	-11.3663
दाइ	-11.3665
ग्रोनानै	-11.3665
▁थिनहरबाय	-11.3666
▁गाराव	-11.3666
▁मोनना	-11.3667
▁फरेष्टनि	-11.3667
▁बोरला	-11.3668
▁दरजाया	-11.3669
▁बाग्दावखां	-11.3672
ोरोम	-11.368
.........।"	-11.3685
▁फाहामसालिनि	-11.3687
▁नाजायाखै	-11.369
▁सानाबो	-11.3692
▁सोलोंनो	-11.3694
गल	-11.3694
▁जुलिया	-11.3701
स्लु	-11.3702
▁थुनलाइया	-11.3705
▁फजनानै	-11.3708
ल्फ	-11.3708
▁मालायफोर	-11.3709
▁गावस्रानाय	-11.3711
▁लिंनो	-11.3712
▁हास्लाब	-11.3715
िनी	-11.3715
:...	-11.3716
▁गावल	-11.3719
लांनोसै	-11.3721
▁खुरखा	-11.3722
▁बाथ्राफ्रा	-11.3722
▁टार	-11.3725
जेन्स	-11.3725
▁नायगिदिंहै	-11.3728
▁बुंखानाय	-11.3728
▁मुगैनो	-11.3728
▁रुबु	-11.3729
▁बाबाय	-11.3734
▁बानायाव	-11.3734
▁थैब्ला	-11.3734
▁जागौ	-11.3734
▁गाना	-11.3735
▁बोहैलांदों	-11.3736
▁महराबो	-11.3736
▁खांनायनि	-11.3737
▁दैयो	-11.3737
▁सानैल	-11.3737
पद	-11.3742
▁फिसासिन	-11.3745
रीयाव	-11.3746
▁थांफानाय	-11.3752
▁दिहुनना	-11.3753
केन	-11.3754
▁मुंराइखौ	-11.3756
▁आथा	-11.3759
▁खन्थाइमा	-11.3765
▁थेब	-11.3767
फराय	-11.3768
ग्रामोन	-11.3768
लुब	-11.3774
▁थेख्रेनि	-11.3779
▁खनसायखौ	-11.378
▁अबे	-11.3787
▁आइननि	-11.3789
▁बिहावनो	-11.3793
▁नागिरनायखौ	-11.3793
▁काट	-11.3796
▁सुथुरजों	-11.3798
▁मुंमाखौ	-11.3801
िरि	-11.3803
▁हुखा	-11.3804
▁फावै	-11.3805
▁फानहै	-11.3811
ग्रोदो	-11.3816
लायोब्ला	-11.3817
सोराव	-11.3817
▁थोननाय	-11.382
थसि	-11.3825
▁थारबाय	-11.3833
▁बेनिनो	-11.3834
▁दानना	-11.3839
▁हान्थि	-11.3839
▁एरखांनाय	-11.384
▁फरायगिरि	-11.3841
▁काज	-11.3842
▁थिना	-11.3842
▁बुंनायमोन	-11.3843
लांनांगोन	-11.3848
▁मावनां	-11.3854
रीनि	-11.3854
बिफाखौ	-11.3857
हसि	-11.3858
nt	-11.3858
▁लागाय	-11.3873
नन्द	-11.3876
▁बाराखौ	-11.3882
▁गग्रा	-11.3884
▁कक्राझारनि	-11.3887
▁t	-11.3888
▁भुगि	-11.389
▁साफ्रासीफोर	-11.389
▁मावनायजों	-11.3891
0,000	-11.3893
▁गाराद	-11.3894
▁जानां	-11.3897
▁साखाथियावनो	-11.3898
▁मिथिं	-11.3908
▁महरफोरा	-11.3908
▁मासु	-11.3913
▁दुंनाय	-11.3917
▁सौसि	-11.3918
▁हमा	-11.3921
▁बेमारिखौ	-11.3923
▁बिफाङा	-11.3924
▁जौगानायनि	-11.3924
▁80	-11.3925
▁आन्जादखौ	-11.3925
▁खारनानै	-11.3925
▁No	-11.3935
ेछ	-11.3938
▁फैसानि	-11.3939
▁फैनायखौ	-11.3941
डेन	-11.3942
▁फाग्लाया	-11.3943
▁जब्रानि	-11.3948
▁साइकेलनि	-11.3953
खरखौ	-11.3954
लानाय	-11.396
▁सुहाब	-11.396
धर	-11.3965
▁दाबारी	-11.3966
▁फ्रा	-11.3972
▁फाफनि	-11.3986
▁दाहारा	-11.3986
▁बले	-11.3987
जेनो	-11.3989
▁बिखि	-11.3991
▁खान्	-11.3996
सिना	-11.3998
▁गाम	-11.4001
▁सौनाय	-11.4007
▁सिलाय	-11.4008
नोसैमोन	-11.4019
▁सिख्लायानो	-11.4021
10,000	-11.4029
दाहानि	-11.4034
▁परम	-11.4034
▁गरमा	-11.4034
▁बिजिरनो	-11.4034
▁सोलायहो	-11.4037
जानि	-11.404
▁फोसावनायनि	-11.4043
लांसिगोन	-11.4043
▁खमैब	-11.4053
▁गेवलांनाय	-11.4053
▁जोंदों	-11.4054
▁नुगा	-11.4057
▁मग	-11.4058
▁खालामबा	-11.4061
▁हरजोब	-11.4063
▁कल	-11.4071
▁गुबुनफ्रा	-11.4073
दावरा	-11.4075
होदोंमोन	-11.4083
one	-11.4084
रिष्ट	-11.4098
▁मासिनि	-11.4101
▁सालिया	-11.4103
▁आसामि	-11.4108
समब्रि	-11.4111
▁रंजानो	-11.4114
▁जौमोना	-11.4115
▁ओंखारब्ला	-11.4132
▁थेलेफाया	-11.4132
▁खोनाबा	-11.4137
▁खिन्थाफै	-11.4138
▁सबाय	-11.4145
नांनोसै	-11.4146
▁दुर्जाङानो	-11.4154
▁मुसु	-11.4155
▁साख्रिनि	-11.4159
▁जानायफोरखौ	-11.416
▁संफ्ल	-11.4161
▁साथामनि	-11.4162
▁बाया	-11.4166
▁"...	-11.4167
▁उरसो	-11.4171
ालाबा	-11.4175
▁खबाय	-11.4177
▁होखारहर	-11.4178
▁मिहिरखौ	-11.4178
▁साननायनि	-11.4183
थोलो	-11.4187
लजि	-11.4188
▁रन्	-11.419
▁मावनाया	-11.4192
▁दिस	-11.4195
ical	-11.4197
▁और	-11.4199
▁सायखङा	-11.4201
art	-11.4203
▁सानायनि	-11.4216
▁असमियाफोरनि	-11.4217
▁जाहोननि	-11.4217
▁बेमा	-11.4218
▁गावनानै	-11.4218
सिमहालागै	-11.4222
▁हालदा	-11.423
▁जाग्राया	-11.4232
जिबा	-11.4235
▁दोनथुम	-11.4236
मोनलै	-11.4238
▁लाग्रो	-11.4239
▁रायलायदों	-11.424
▁जामार	-11.4246
▁केर	-11.4251
▁थोंनै	-11.4254
म्फ	-11.4257
▁बिनारामखौ	-11.4258
▁जग	-11.4259
▁फालिदों	-11.4262
▁देरदों	-11.4267
खिरा	-11.4273
▁सिनायनाय	-11.4276
फिन्नायसै	-11.4276
ail	-11.428
▁गैयामोनब्ला	-11.4285
▁लोगोरि	-11.4293
▁गोथौव	-11.4293
▁रोंखा	-11.4296
▁आयदाफोर	-11.4297
▁जिरा	-11.4299
खावनाय	-11.4324
▁आउ	-11.433
▁खावलायखौ	-11.433
▁गनाया	-11.4337
▁रनसाय	-11.4342
▁जराय	-11.4343
बारियाव	-11.4343
▁थैहाब	-11.4344
▁मोनानि	-11.4344
▁लागा	-11.4345
▁नेह	-11.4345
स्राय	-11.4351
▁कमाण्डा	-11.4359
▁बिलाइफोर	-11.4369
▁लोगोयाव	-11.4374
▁माथा	-11.4375
▁जेननाय	-11.4375
▁बिबानगिरि	-11.4383
▁गोजो	-11.4391
ण्डि	-11.4391
ृ	-11.4395
▁हाखन	-11.4404
▁दङो	-11.4404
▁निसाया	-11.4405
गोसा	-11.4406
▁खावना	-11.4413
▁गोबालाय	-11.4418
▁आवा	-11.4432
▁लोगोजों	-11.4434
▁केडारफोर	-11.4435
▁खालामहर	-11.4437
दानिया	-11.4444
रुखु	-11.4447
▁सिखावा	-11.445
▁ख्रा	-11.4452
▁थाखोखौ	-11.4453
रेश	-11.4459
स्लाबाखिसै	-11.4463
▁बोसोरसो	-11.4467
▁आंखालखौ	-11.447
▁बेनिफ्रायनो	-11.448
▁गोजौनिफ्राय	-11.4482
ration	-11.4484
जोबाब्ला	-11.4489
▁साननायाव	-11.4499
▁थुम	-11.4512
▁कान	-11.4515
▁हेर	-11.4518
▁बिखाव	-11.4522
▁सोना	-11.4526
▁35	-11.4529
▁सानानै	-11.453
िभ	-11.4532
▁बिबारजों	-11.4534
▁...............	-11.4535
▁मिथिब्ला	-11.4537
दिनखालि	-11.4539
बिन	-11.4541
▁सुखुवा	-11.4543
▁खालामफै	-11.4544
खोन्दा	-11.4546
▁बोद्	-11.4553
▁दोआ	-11.4557
ri	-11.4561
▁नाजानायखौ	-11.4568
▁सिखांदो	-11.457
▁मेग	-11.4574
बेफोर	-11.4574
very	-11.4575
माबा	-11.4576
▁बिग्राय	-11.4576
▁बावला	-11.4586
▁नुजाहै	-11.4591
▁बबेथिं	-11.4596
बेनिफ्राय	-11.4597
न्दां	-11.46
▁हाखो	-11.4602
न्ध	-11.4603
मोनो	-11.4604
▁सोमजिदों	-11.4605
▁रिस	-11.4606
▁11.	-11.4616
▁me	-11.4619
सिबां	-11.4624
▁मावसोम	-11.4625
▁हानांगौ	-11.4626
▁आसिखौ	-11.4627
▁आइना	-11.4629
T	-11.463
ent	-11.4633
▁खैनाशान्ति	-11.4644
▁सोमहाब	-11.4651
▁सोमोन्दोखौ	-11.4653
int	-11.4656
▁लुबैनायनि	-11.4658
▁सिन्दुक	-11.4661
▁कट	-11.4665
▁हरिभुषन	-11.4668
67	-11.4668
नेस	-11.4672
37	-11.4673
▁खरस	-11.4674
िज	-11.4677
ओं	-11.4678
कान्त	-11.4679
पाट	-11.4683
ग्रोनांगोन	-11.4684
▁थख	-11.4684
▁भारता	-11.4686
▁रमाय	-11.4691
गियान	-11.4695
▁नुबा	-11.4696
▁पार्ट	-11.4696
ain	-11.4697
▁सार्क	-11.4699
▁दोनखारलां	-11.47
▁सिरिनाय	-11.47
राइजो	-11.4701
हरदोंमोन	-11.4701
़	-11.4701
▁गुजु	-11.4703
13	-11.4703
▁गग्र	-11.4703
रुप	-11.4704
स्रेम	-11.4705
खमज्लाय	-11.4707
L	-11.4707
हाफाय	-11.4707
R	-11.4707
ञ	-11.4707
उन्दु	-11.4708
उखैनाय	-11.4708
डाक्तार	-11.4708
खुरि	-11.4708
मिथिस	-11.4708
रिक्सा	-11.4708
बुजिबाय	-11.4709
ददेरे	-11.4709
गिदिर	-11.4709
जोहोलाव	-11.4709
प्लेट	-11.4709
इंख्रि	-11.471
खोनासं	-11.4711
अन्थाइ	-11.4711
ओंखारलाङो	-11.4712
खुलुमो	-11.4712
डाइन	-11.4712
आले	-11.4713
मेगन	-11.4713
▁दिप	-11.4713
▁खफाथि	-11.4714
मैदेर	-11.4714
सानराइ	-11.4714
▁फराम	-11.4716
मते	-11.4716
▁फेद	-11.4716
▁हमख्रब	-11.4718
ser	-11.472
रुबु	-11.4722
▁बुगा	-11.4724
बेसाद	-11.4725
▁आर्ट	-11.4725
बिष	-11.4727
▁मनजुआ	-11.4729
गोबां	-11.4729
▁मिनिख	-11.4729
▁फिस्रि	-11.473
बिजाब	-11.4731
▁बाहेरा	-11.4731
▁जोहोलावजो	-11.4731
गाँव	-11.4732
▁II	-11.4736
▁प्रफुल्ल	-11.4737
थौदो	-11.4738
बोलो	-11.4739
▁बाहाया	-11.4739
▁सन्दे	-11.4739
गुरै	-11.4739
थैबाय	-11.4739
▁bo	-11.4741
▁फिस	-11.4741
▁जायखार	-11.4743
नार्स	-11.4743
▁सोरजिगिर	-11.4743
गारां	-11.4743
▁सान्थ्र	-11.4744
▁साजाया	-11.4745
▁फोर्बो	-11.4746
ave	-11.4747
▁गेब्ले	-11.4747
▁सुंथाब	-11.4747
▁गन्थङा	-11.4748
हानाय	-11.475
▁मेन्दा	-11.475
▁फान्था	-11.475
चियेशन	-11.4751
▁ब्यावहा	-11.4751
▁खन्थाय	-11.4752
▁नायस्रा	-11.4752
ुंग्राय	-11.4752
▁नोगोरारि	-11.4753
ज्रिं	-11.4753
▁इलेक्ट्र	-11.4753
▁काश्यप	-11.4753
▁खिरिमिन	-11.4753
▁खेरेबफा	-11.4753
▁टेलिफ	-11.4753
▁दिब्रुगर	-11.4753
▁पिंपिं	-11.4753
▁प्रब्लेम	-11.4753
▁मतामत	-11.4753
▁महात्मा	-11.4753
▁मेगाजिन	-11.4753
▁सेकेन्ड	-11.4753
X	-11.4753
haracter	-11.4753
tive	-11.4753
▁people	-11.4753
▁आमुखाया	-11.4753
▁इन्सपेक्टर	-11.4753
▁एकाडेमी	-11.4753
▁खोनासङो	-11.4753
▁गुज्रि	-11.4753
▁गोबोरखि	-11.4753
▁गोर्ब्बो	-11.4753
▁गोलोमस्राव	-11.4753
▁जगाजग	-11.4753
▁जुक्ति	-11.4753
▁ठाकुर	-11.4753
▁डिग्री	-11.4753
▁डेनमार्क	-11.4753
▁दाखिन्था	-11.4753
▁देग्लाइ	-11.4753
▁द्रयिं	-11.4753
▁नोथाङा	-11.4753
▁फेब्रुवारि	-11.4753
▁बक्सीं	-11.4753
▁बामब्लेमा	-11.4753
▁बेगपाइपार	-11.4753
▁भिटामिन	-11.4753
▁महम्मद	-11.4753
▁मुम्बाइ	-11.4753
▁यैलाबोर	-11.4753
▁राक्षस	-11.4753
▁राखें	-11.4753
▁लानमी	-11.4753
▁लाफांगे	-11.4753
▁शचीपात्र	-11.4753
▁साबित्री	-11.4753
▁सिम्पान्जी	-11.4753
▁सेरफांगुरि	-11.4753
▁स्टरेज	-11.4753
▁हालिवग्राफोर	-11.4753
Prono	-11.4753
▁state	-11.4753
▁up	-11.4753
▁जन्त्र	-11.4753
▁जिख्लाबसे	-11.4753
▁तिब्बत	-11.4753
▁थुंसुं	-11.4753
▁थोरफो	-11.4753
▁पारमिट	-11.4753
▁बयसियाल	-11.4753
▁लटारी	-11.4753
▁सेमिनार	-11.4753
▁उसिफाव	-11.4753
▁एखुथा	-11.4753
▁ज्रय	-11.4753
▁पर्दा	-11.4753
▁बाङाली	-11.4753
▁लावगि	-11.4753
▁हेलमेट	-11.4753
ious	-11.4753
▁गीता	-11.4753
▁असुख	-11.4753
▁खिरफिन	-11.4753
▁थोबसे	-11.4753
▁लाइसारी	-11.4753
▁आथिमंगल	-11.4753
▁नोंसाज्ला	-11.4753
▁आदर्श	-11.4753
▁गोलोन्दां	-11.4753
▁आपुनि	-11.4753
▁नांगोल	-11.4753
▁नालेंखर	-11.4753
▁मंगलीयान	-11.4753
▁ष्टेडियाम	-11.4753
▁सन्थलि	-11.4753
▁हुखुम	-11.4753
▁noun	-11.4753
▁मेसें	-11.4753
▁who	-11.4753
▁दाबोरसे	-11.4753
▁दिग्री	-11.4753
▁धरणी	-11.4753
▁माउरिया	-11.4753
▁सिददा	-11.4753
▁अन्जु	-11.4753
▁बिलित	-11.4753
▁मिलियन	-11.4753
▁लंफेन्ट	-11.4753
▁सदबनो	-11.4753
▁फाइनाल	-11.4753
▁सान्द्रि	-11.4753
▁रिफिनाय	-11.4753
▁(8)	-11.4753
▁come	-11.4753
▁बिसालथि	-11.4753
▁सेवालि	-11.4753
▁बदमास	-11.4753
▁हबगा	-11.4753
▁दाहुना	-11.4753
▁ष्टेशन	-11.4753
▁दुरुङा	-11.4753
▁नारजारी	-11.4753
▁hour	-11.4753
hoo	-11.4753
▁बेरस्रां	-11.4753
▁स्कट	-11.4753
▁हाद्रिबाला	-11.4753
▁घटना	-11.4753
▁मेजेम	-11.4753
▁कलंखिनि	-11.4753
▁देब्लाब	-11.4753
▁मोनज्लायनाय	-11.4753
▁रेबति	-11.4753
▁ल्दाम	-11.4753
▁फ्रान्स	-11.4753
▁रायफोरनाय	-11.4753
▁उखुम	-11.4754
▁गुबुंले	-11.4754
▁आदिबा	-11.4754
▁मेनेजमेन्ट	-11.4754
▁पाब्लिकेशन	-11.4754
▁Pad	-11.4754
tory	-11.4754
▁लण्डन	-11.4754
▁बिजिनेस	-11.4754
▁सौग्दाव	-11.4754
▁लिटार	-11.4754
AC	-11.4754
▁राबेन	-11.4754
▁खराग	-11.4754
▁my	-11.4754
▁दान्थे	-11.4754
▁he	-11.4755
▁its	-11.4755
▁गोदौ	-11.4755
▁साबाइख	-11.4755
▁बाल्ब	-11.4755
फुंखा	-11.4755
▁wa	-11.4755
▁बावस्रोम	-11.4755
▁आपेल	-11.4755
▁सेंग्रि	-11.4755
▁सोमावसारग्राफोर	-11.4755
इलियट	-11.4755
▁खोथिया	-11.4755
▁बोनथुमना	-11.4756
▁साख्रिवाला	-11.4756
▁नांथ	-11.4756
▁बेबहार	-11.4756
आबारी	-11.4756
▁लटारि	-11.4756
रोखा	-11.4756
▁मायाजे	-11.4757
▁बोर्ला	-11.4757
▁बेहुस	-11.4757
▁कम्प	-11.4757
▁उपेन	-11.4757
▁उसुन्दा	-11.4757
▁थबगां	-11.4757
▁हालामाव	-11.4757
▁बेल्ट	-11.4757
▁मुथासे	-11.4757
▁एलाखा	-11.4757
▁बुटिं	-11.4757
▁समाजखान्थि	-11.4757
ग्राफिक	-11.4758
▁मोनामसु	-11.4758
▁हामथारबायलै	-11.4758
▁गाब्र	-11.4758
▁फाइखि	-11.4758
बारुद	-11.4758
▁बोस्लाय	-11.4758
▁सातजार्ला	-11.4758
▁नांफैबाय	-11.4758
▁मेथें	-11.4758
▁जाननु	-11.4758
मिडिया	-11.4758
▁जागायजेन	-11.4759
▁प्रमप्ट	-11.4759
▁सम्पत्ति	-11.4759
▁खुम्बीबा	-11.4759
▁खृष्टीयान	-11.4759
▁नरकासुर	-11.4759
▁मुर्ख	-11.4759
▁जोथ्रोद	-11.4759
▁फर्स	-11.4759
▁बायग्लि	-11.4759
▁मंगलदै	-11.4759
डियास	-11.4759
▁हाथारलिया	-11.4759
▁केबिन	-11.4759
▁दिंग्राय	-11.4759
▁बानेश्वर	-11.476
▁ट्रेन्स्	-11.476
▁-!	-11.476
न्दों	-11.476
मेश	-11.476
▁नार्जि	-11.476
▁दम	-11.476
▁मन्जुमोननि	-11.476
▁रांखिनि	-11.4761
▁बालें	-11.4761
▁गांथाम	-11.4761
▁एरखे	-11.4762
▁फुसब	-11.4762
▁नुगानै	-11.4762
▁रोजाबगिरि	-11.4762
▁सफैगोन	-11.4762
▁माइथायसिम	-11.4762
▁बेरखांहोनो	-11.4762
दौलत	-11.4762
▁गोराजों	-11.4763
▁गंग्लायो	-11.4763
▁खन्नाय	-11.4764
▁गोमसारो	-11.4764
▁राङै	-11.4764
वारीमोनखौ	-11.4764
▁खबजबनानै	-11.4764
▁1984	-11.4764
▁नोगोरारिफोरा	-11.4765
▁लाइटार	-11.4765
▁रांखावरि	-11.4765
▁खुनोरोखोम	-11.4765
गुमै	-11.4765
▁खाथ	-11.4765
▁बावलिया	-11.4765
▁खाबथा	-11.4765
▁नेपालि	-11.4766
▁बुरला	-11.4766
▁गरदसे	-11.4766
▁नास्राय	-11.4767
मुसुरनाय	-11.4767
▁name	-11.4767
▁दिन्थ	-11.4767
▁लोहो	-11.4767
▁आफादफोरा	-11.4767
▁बुथाराखै	-11.4767
र्टस	-11.4767
▁नेता	-11.4767
▁ट्रेइनफोर	-11.4767
▁मोनलोंगोन	-11.4767
▁साखोन	-11.4768
▁सिलिं	-11.4768
थारखो	-11.4768
▁लांथिया	-11.4768
▁पष्ट	-11.4769
▁इखान	-11.4769
▁खाराखै	-11.4769
▁खुङो	-11.4769
▁फांनै	-11.4769
▁सावफुं	-11.4769
जायोब्ला	-11.477
▁प्लेन	-11.477
▁फारफा	-11.4771
▁मुलिया	-11.4771
▁सिनायगौ	-11.4771
▁रैमोन	-11.4771
▁खारलुं	-11.4771
▁सिलिंनाय	-11.4772
▁मिनिखुसियै	-11.4773
▁लायथां	-11.4773
▁बेखेवगाद	-11.4773
▁जासिगौमोन	-11.4774
माबे	-11.4774
▁बोखाङो	-11.4774
▁नम्बरी	-11.4774
▁गुफुं	-11.4774
▁गोसारल्दा	-11.4774
▁ख्रों	-11.4775
▁मिनिस्रां	-11.4775
▁PC	-11.4776
▁अगर	-11.4776
र्गो	-11.4776
▁बिजिरसालिया	-11.4776
▁खदाल	-11.4777
▁गोग्लैजोबो	-11.4777
▁थरनै	-11.4777
▁आरिस्रां	-11.4778
▁सोरनिफ्राय	-11.4778
▁नुजाथिगोन	-11.4778
▁जिगां	-11.4778
▁मुफुर	-11.4779
▁जुरिजेननाय	-11.4779
1994	-11.4779
▁गाहेलाफोरा	-11.4779
▁दागाबसै	-11.4779
▁आथाल	-11.478
▁सारफ्राव	-11.478
▁जोबजानाय	-11.478
▁जुनिया	-11.478
▁दिहुनजानाय	-11.4781
सिबल	-11.4781
▁हरखादों	-11.4781
ment	-11.4782
▁खारबोयो	-11.4782
▁खौऔ	-11.4783
▁नुफैबाय	-11.4783
▁फिरि	-11.4783
मन्त	-11.4784
▁दलरै	-11.4784
▁दाखालामसै	-11.4784
▁हुफ्ले	-11.4784
▁खुद्रिनाय	-11.4785
▁लांफिनो	-11.4785
▁मोनथारदों	-11.4785
▁बाग्ला	-11.4786
▁दोंथाम	-11.4786
▁सामव	-11.4787
▁जिब्रै	-11.4787
▁दानस्रि	-11.4787
▁बुंफैदों	-11.4788
▁बियार	-11.4788
▁जाफ्लाय	-11.4788
▁घन्टासे	-11.479
▁ब्रें	-11.479
▁सत्य	-11.4791
▁लैथोआव	-11.4791
▁थोङै	-11.4791
▁लानांबाय	-11.4791
हय	-11.4792
▁खफाथिया	-11.4792
▁अरडार	-11.4793
मांग्रि	-11.4793
▁आल्ला	-11.4794
▁एमबु	-11.4794
▁फोसावग्रा	-11.4794
▁फुथिया	-11.4795
मादै	-11.4795
▁फैखांबाय	-11.4796
▁मोनखादों	-11.4797
▁सहैनो	-11.4798
▁नाङाखिसै	-11.4798
्टेम	-11.4798
▁लासिं	-11.4799
▁हाफाय	-11.4799
▁सिनथाय	-11.48
▁जागोदान	-11.4801
▁माहारी	-11.4801
▁लायदो	-11.4803
▁बुंथारदों	-11.4803
▁सुथारनाय	-11.4803
▁जिथाम	-11.4803
▁सिट	-11.4804
▁दन्दराव	-11.4804
▁मोनसिं	-11.4804
▁खाथा	-11.4805
▁सामलायो	-11.4805
▁बिरलांबाय	-11.4806
▁खबाम	-11.4806
▁धे	-11.4806
दाखालि	-11.4807
▁खालामहरो	-11.4808
▁सार्ट	-11.4808
▁दले	-11.4808
सय	-11.4808
▁बेंदों	-11.4809
▁बिनानावा	-11.481
▁गोमाजानाय	-11.481
▁खालामहैयो	-11.481
[	-11.481
▁गुजुनाय	-11.4812
▁दालान	-11.4812
▁दैखरा	-11.4813
▁होनदोंमोन	-11.4813
▁थिंगिनिया	-11.4813
▁गोजोनथों	-11.4813
▁सोरजियो	-11.4813
▁दोनदो	-11.4814
▁सामलायनाय	-11.4814
▁हाबफैदोंमोन	-11.4814
▁उजिदों	-11.4815
बैसे	-11.4815
▁दोनहैदों	-11.4817
▁गनायगोन	-11.4817
▁होआसै	-11.4817
▁जालायगोन	-11.4818
मिला	-11.4818
▁सोंलुवा	-11.4818
▁दहमै	-11.4818
▁देवबार	-11.4819
▁सेरखाय	-11.4819
▁Ma	-11.4819
▁बानसे	-11.482
▁सुति	-11.4821
▁नारायणा	-11.4821
▁बुंहैबाय	-11.4822
▁होनदों	-11.4822
▁बुथारग्रा	-11.4823
▁थाबोदों	-11.4824
▁जाखायो	-11.4824
▁जादिया	-11.4824
▁जाजोबगोन	-11.4825
▁हादान	-11.4825
▁खोनागोन	-11.4826
▁खारखुमा	-11.4827
▁जाथारनाय	-11.4829
▁थाहोनो	-11.4829
ग्रुब	-11.4831
▁नायगिरदोंमोन	-11.4832
कथा	-11.4832
थांगोन	-11.4833
▁धमक	-11.4834
▁सानखादों	-11.4834
▁गसर	-11.4835
▁सालाखौ	-11.4836
▁आवारामा	-11.4836
▁लाहैयो	-11.4836
▁दद	-11.4837
▁सामु	-11.4837
▁गोख्रोंसिन	-11.4838
▁गोबायो	-11.4839
▁सामाज	-11.4839
जाथावदि	-11.484
▁मोनबोदों	-11.484
▁दैमारीया	-11.4841
जासिगोन	-11.4842
▁आरांगायाव	-11.4842
▁गिलिरै	-11.4843
▁हब्रानाय	-11.4843
▁सिन्दुकनि	-11.4845
▁नाकि	-11.4846
▁नसिङाव	-11.4847
दाइन	-11.4847
▁फ्रु	-11.4849
▁खनथामसो	-11.485
▁फेस्	-11.485
▁सुखुयै	-11.4851
▁मेम्बरखौ	-11.4851
▁नेथ	-11.4852
▁उदाया	-11.4852
▁un	-11.4852
▁जुथि	-11.4852
▁दोर्फ	-11.4853
▁गोरोबो	-11.4854
▁भुमाव	-11.4854
▁बेथन	-11.4855
▁आलुमिंगिया	-11.4855
▁अन्नानै	-11.4855
▁नंदोंमोन	-11.4855
▁बुंलांबाय	-11.4856
सोरां	-11.4857
▁नसुंसे	-11.4858
▁जासिनाय	-11.4858
▁थागिरि	-11.4858
स्वा	-11.4859
▁हुयो	-11.486
▁ब्रास	-11.4861
▁बानान	-11.4863
▁मुला	-11.4864
▁रिस्ट	-11.4865
▁लोंगोन	-11.4865
▁दाबु	-11.4867
▁नाथाइ	-11.4867
▁आंगुर	-11.4869
▁गोजांदों	-11.4869
▁बिगुमैया	-11.4869
▁जगार	-11.487
मिटारसो	-11.487
▁माबायदि	-11.4871
▁खोनासंग्रा	-11.4871
▁ओंखारलाय	-11.4872
▁बिजिरगोन	-11.4872
▁खोनायोब्ला	-11.4872
▁बेंकाव	-11.4873
▁सोमद्रिया	-11.4875
▁थालांबाय	-11.4876
▁खेराइसालि	-11.4876
2003	-11.4876
▁सुबुंसा	-11.4877
बारिनि	-11.4878
जय	-11.4879
▁फुंजा	-11.4881
ड़ा	-11.4882
▁दाउला	-11.4882
▁75	-11.4883
▁जेव	-11.4883
▁हाननानै	-11.4884
▁सालान	-11.4885
▁फावा	-11.4885
▁मजा	-11.4888
▁गोनांब्ला	-11.4889
▁बिबायारिया	-11.4889
▁जाबोला	-11.4897
:....	-11.49
▁राइजोया	-11.49
▁ख्रि	-11.49
▁खेंखाय	-11.4901
▁थिंजाय	-11.4905
▁सिमेन्ट	-11.4905
▁गांनैसो	-11.4905
▁गाबज्रिबाय	-11.4905
▁रासियानि	-11.4907
▁गोब्रामनानै	-11.4907
▁थैहां	-11.4907
▁बुसाया	-11.4909
▁सोमावनानै	-11.4909
▁लोंहोनो	-11.491
▁दंफायो	-11.4911
▁कथा	-11.4912
▁दिन्थिगोन	-11.4916
▁प्रेमधरखौ	-11.4917
▁बिबादिनो	-11.4919
▁थाखोसे	-11.4921
▁लोगोफोरा	-11.4921
▁लिरथाइ	-11.4923
▁गोग्लैगोन	-11.4927
▁रंजायो	-11.4928
इनाय	-11.4929
▁जांख्रिथाय	-11.493
▁होग्रो	-11.493
टिकेल	-11.4932
▁अखाया	-11.4933
▁लांनोसै	-11.4934
▁सोबायो	-11.4934
सुरी	-11.4936
▁नोंसोरनाव	-11.4937
▁हाफ	-11.4938
▁केसा	-11.4938
▁माफा	-11.4938
▁शाल	-11.4939
▁बेंखननानै	-11.494
▁गाराया	-11.494
▁मोजाङानो	-11.4941
पी	-11.4943
्लुब	-11.4944
दायखौ	-11.4947
थारगौ	-11.4947
line	-11.4947
▁हाबसु	-11.4947
▁जाथायफोरखौ	-11.4948
▁बुंहै	-11.4948
▁दानब्ला	-11.4954
▁प्रग्रामफोरखौ	-11.4956
हाइ	-11.4961
▁ब्रैजि	-11.4961
खोब	-11.4963
▁लाखो	-11.4973
▁खुनसे	-11.4975
▁इंराजीयाव	-11.4976
▁समफ्ल	-11.4977
▁बबेखौ	-11.4977
कटन	-11.4977
▁बोदोंमोन	-11.498
▁बृ	-11.498
▁नायनाया	-11.4981
▁हाबाखालि	-11.4982
रिग	-11.4985
▁खोबनाय	-11.4987
and	-11.4988
▁हास्थायनायखौ	-11.4988
95	-11.4992
▁बाजे	-11.4992
आप	-11.4993
▁लांफायो	-11.4993
▁सफैदों	-11.4994
▁ष	-11.4995
▁ओंखारफा	-11.4996
▁बाखि	-11.4998
▁नोमाया	-11.5
▁खोथाफोरखौ	-11.5
ख्रुइ	-11.5003
▁बराद	-11.5003
▁गुदिया	-11.5004
▁सोमबाय	-11.501
▁गोजांनाया	-11.5012
▁गोजानै	-11.5015
▁दावबायारिफोरा	-11.5016
▁उत्तर	-11.5019
▁दारिया	-11.502
▁जोमाव	-11.5021
▁थगायनानै	-11.5022
▁खेवो	-11.5024
▁बेफार	-11.5026
▁खावलाया	-11.5027
▁नांलाया	-11.5028
▁आनन्द	-11.5029
▁नभेल	-11.503
▁टन	-11.5035
▁सावरायज्लायनाय	-11.5036
▁खमलायनाय	-11.5037
▁गारजा	-11.5038
गोसोखौ	-11.5038
▁गादब	-11.504
▁सौफैनाय	-11.5042
▁निउबिल	-11.5043
▁बुलायनाय	-11.5044
▁जेनथ	-11.5044
▁लासे	-11.5045
▁सुस्रांनाय	-11.5047
▁बिबनांखौ	-11.5048
▁इनायै	-11.5049
▁आथि	-11.5049
ज्लायनो	-11.505
▁दाइरिया	-11.505
जाम	-11.5052
▁फल	-11.5052
▁बैसागिया	-11.5053
थिर	-11.5056
▁होसोनानै	-11.5057
▁रायबाय	-11.506
▁सिबिनायाव	-11.506
▁बोहैथिमोन	-11.506
फादोंमोन	-11.5063
▁बिथांनिनो	-11.5064
▁आदायालाय	-11.5066
▁आंनाबो	-11.5066
▁रायै	-11.5067
▁सरलानि	-11.507
▁थिननानै	-11.507
ल्दि	-11.507
tt	-11.5073
▁काउ	-11.5074
▁नागारनाय	-11.5074
▁Con	-11.5074
▁हाबहैब्ला	-11.5075
▁बोसोनथि	-11.5077
▁मेडामा	-11.5079
▁सुखि	-11.5081
▁जानांनायनि	-11.5082
▁दब	-11.5084
▁सानफुनाय	-11.5084
▁थाफायो	-11.5085
▁ब्रह्मआ	-11.5087
▁आलौनाय	-11.5089
श्व	-11.5089
▁नार्सा	-11.5093
▁साखाथिनि	-11.5093
▁थाबायग्रा	-11.5094
फुंनाय	-11.5095
▁ट्रेड	-11.5097
si	-11.5097
मेन्टनि	-11.51
▁मिथियाब्ला	-11.5105
▁कालि	-11.5108
▁रमानि	-11.5114
▁थाफानाय	-11.5124
▁होथाव	-11.5124
▁सेन्देला	-11.5125
▁बुथारना	-11.5126
▁सुनिया	-11.5127
▁खौरांफोरखौ	-11.5128
▁एंगारनायखौ	-11.5135
▁थांखिमोन	-11.514
प्रे	-11.514
▁बायदिफोराव	-11.5142
▁बुथुमनाय	-11.5143
▁दोहोनि	-11.5144
▁आइजोफोर	-11.5145
गुरिनि	-11.5147
ाउण्ड	-11.5149
▁लाजिनायजों	-11.515
▁नेबाव	-11.5151
▁दौनाय	-11.5153
▁गनायथाव	-11.5156
आथिं	-11.516
▁आदानाव	-11.5161
▁फरायसुलिफोर	-11.5162
थाबाय	-11.5165
▁जाखांफै	-11.5165
▁मोनलायनाया	-11.5165
▁आदबा	-11.5166
▁थुनफावथाइगिरि	-11.5167
▁i	-11.517
▁रांखान्थिनि	-11.517
▁नखरखौ	-11.5172
▁खायो	-11.5173
प्रभु	-11.5175
▁थोया	-11.5176
▁आदबजों	-11.518
▁तुलारामाबो	-11.5181
▁बिजिया	-11.5181
खायनोथ	-11.5184
वाखिसै	-11.5185
▁लानोसै	-11.5186
बेन	-11.5187
सिन्नाय	-11.5192
▁जोंगा	-11.5194
▁बिदैया	-11.5195
▁रान्दिया	-11.5199
▁बोरसिया	-11.5201
▁दिन्थियाखै	-11.5204
थारनोसै	-11.5206
▁खनबा	-11.5207
फ्रोमावबो	-11.5209
▁हाथाया	-11.5211
एं	-11.5223
▁खोमाना	-11.5223
ाइस्	-11.5224
▁खमाव	-11.5228
▁मोनखांदों	-11.5237
▁जामारदों	-11.5237
बावब्ला	-11.5238
▁बिब्दियाव	-11.5246
▁बिख्लोखौ	-11.5248
सिंनिफ्राय	-11.5249
▁गोनांथिया	-11.5251
जाम्बि	-11.5251
▁राणीया	-11.5253
▁बेजे	-11.5254
▁बानायनो	-11.5258
सहेन	-11.526
▁थावनियाव	-11.5261
▁प्रग्रामा	-11.5261
▁बैयो	-11.5265
▁फोजोबस्रांनाय	-11.5265
▁मोसे	-11.5265
▁फुजिनाय	-11.5267
▁नंबाय	-11.5268
▁हमबायमोन	-11.5269
▁मिज	-11.5272
▁मावफारि	-11.5277
▁मेद	-11.5277
▁थिनहरदोंमोन	-11.5279
▁फरायसालिफोर	-11.5279
▁फैयोमोन	-11.5281
▁दावथु	-11.5281
जेङा	-11.5283
▁मिथिगौना	-11.5284
▁लांफिन	-11.5289
▁बाजियावनो	-11.529
▁बुट	-11.529
▁हुदाया	-11.5295
ेरा	-11.5309
▁निख्रुइ	-11.531
ओन	-11.5317
▁आसिया	-11.5318
▁दला	-11.5319
▁गोसोखांथि	-11.5329
माफा	-11.5336
▁गायनाय	-11.5337
किउ	-11.5339
▁अजयजों	-11.5342
▁रै	-11.5343
▁बाननानै	-11.5344
▁सेंग्राखौ	-11.5345
▁बिलाइफोरखौ	-11.5345
▁नोंथांमोननो	-11.5346
.)	-11.5349
▁बोसोरब्रै	-11.5352
▁थोनहर	-11.5355
▁ससेयाव	-11.5358
▁गोथैसालि	-11.536
▁गैयैखाय	-11.5361
▁फरायनायखौ	-11.5364
ुला	-11.5366
थानाय	-11.5375
▁सुरफा	-11.5375
▁थियेटाराव	-11.5376
▁फोरोंजा	-11.5381
▁बाजिनाय	-11.5384
बिसि	-11.5393
▁दुखुयै	-11.5396
▁टाउननि	-11.5398
▁दांब्ला	-11.5403
सम्ब	-11.5406
▁दाखो	-11.5409
▁रंफालीया	-11.5412
िभार	-11.5418
▁मेलेमा	-11.5418
▁खुन्था	-11.5422
▁खुसिया	-11.5426
▁नांथे	-11.5427
लाबायो	-11.5434
▁सोंखारिदों	-11.5436
▁अननाया	-11.544
▁हौवाफोरनि	-11.5447
▁बियाय	-11.5447
▁थोलायनाय	-11.545
▁खिनि	-11.5454
▁लागोनि	-11.5455
▁लिरगिरिफोर	-11.5456
▁मानसिं	-11.5457
▁होखारनाय	-11.5458
▁ge	-11.5459
▁आमाया	-11.5461
▁दाहाजों	-11.5462
्राङाव	-11.5465
गोम	-11.5466
▁होथ	-11.547
▁होननानैनो	-11.5481
बेयाव	-11.5487
फेले	-11.549
▁मुंराया	-11.5491
▁नामखौ	-11.5491
जोबदोंमोन	-11.5492
▁सैनानै	-11.5495
▁हरसेखौ	-11.5498
साइनि	-11.5499
▁सानबा	-11.5508
ल्दाबाय	-11.5512
▁अनलायनाया	-11.5514
▁सोहै	-11.5524
mber	-11.5527
61	-11.5531
▁हायैया	-11.5532
▁जाफैनाय	-11.5537
▁मोन्नायाव	-11.5539
▁बोख	-11.5547
▁मानैया	-11.5552
▁फैयोब्ला	-11.5554
▁आसारिया	-11.5558
▁फाखो	-11.5559
▁खुबैहर	-11.5563
जोबाखै	-11.5578
जोन	-11.5578
▁बेंथा	-11.5579
▁फिद	-11.558
जुत	-11.5583
थक	-11.5584
▁अजाखौ	-11.5591
▁सोमावसारदों	-11.5593
▁मावोमोन	-11.5595
▁मोसौवा	-11.5595
▁टाइ	-11.5598
▁जोबहै	-11.56
जोबाखिसै	-11.5602
▁जायि	-11.5608
▁फरायब्ला	-11.5609
▁मेलाखौ	-11.561
सियेल	-11.561
▁सन्	-11.5612
बेनो	-11.5614
▁गफ	-11.5614
जोबासै	-11.5617
बादां	-11.5618
दावा	-11.562
▁रुपानि	-11.562
▁इन्	-11.5622
कता	-11.5623
लांखो	-11.5627
▁फरायजोब	-11.5628
▁सान्थ्रिया	-11.5629
▁सुयै	-11.563
▁जगोन	-11.563
▁मेम्बरा	-11.5631
▁थैलांनाय	-11.5631
▁लायहो	-11.5637
▁बिबारिया	-11.5641
▁अफिसा	-11.5641
▁खालामनोसै	-11.5642
फादेर	-11.5646
▁जोनोमा	-11.5651
ʼ?	-11.5654
▁थुलुंगाजों	-11.5655
▁सुनांगौ	-11.5666
▁चक	-11.567
▁लाइजामजों	-11.567
▁रना	-11.5672
खायाखै	-11.5675
▁खारबोदों	-11.5678
▁दावरा	-11.5678
▁लाइटखौ	-11.5691
▁अब्रामा	-11.57
हिर	-11.5704
जायखौ	-11.5707
▁हुगारनाय	-11.5711
▁गाबखोमा	-11.5712
फ्रुं	-11.5716
▁हायासै	-11.5721
▁दिन्थिना	-11.5722
▁गायो	-11.5725
▁थैनांगौ	-11.5727
▁थावजों	-11.5735
नाजों	-11.5742
▁दंग	-11.5742
हरबावो	-11.5744
▁हानायमोन	-11.5744
▁दानै	-11.5759
▁आलुफोर	-11.5768
फिननांगोन	-11.578
गला	-11.5784
िट	-11.5785
▁खालामोमोन	-11.5785
▁गारखो	-11.5787
▁खामनाय	-11.5793
ies	-11.5798
सिखान	-11.58
▁खिन्थाहैनो	-11.5803
▁सैखा	-11.5809
▁फाइ	-11.5809
▁Kachar	-11.5815
▁मावफारियाफोर	-11.5815
द्रु	-11.5819
▁खालामखांनाय	-11.5819
▁रद	-11.582
▁बुंफादेर	-11.5822
▁बाहायनाया	-11.5823
हेना	-11.5823
जयो	-11.5829
▁हायैखौ	-11.5834
▁गावसोरखौ	-11.5835
▁लांगोनानि	-11.584
▁होथार	-11.5849
▁दाबादि	-11.5851
▁स्पे	-11.5851
▁गोबावसै	-11.5856
▁हरनाया	-11.5865
▁गोसोसै	-11.5872
▁घन	-11.5872
बावाखै	-11.5875
बादियै	-11.5875
रोङै	-11.5876
▁फोथाया	-11.5878
▁बहन्ना	-11.5882
▁साहस	-11.5886
▁गेदेरा	-11.5886
गारदोंमोन	-11.5904
▁खालामग्रो	-11.5916
▁मिनिग्लाब	-11.5917
▁सिगारेटखौ	-11.5921
लिय	-11.5926
▁लांनाया	-11.5926
▁दावबायफै	-11.5937
▁गोग्लैया	-11.5943
हाराव	-11.5947
फालि	-11.5947
▁सानाया	-11.5951
▁बोसोरनिफ्राय	-11.5953
▁दसेल	-11.5953
▁थिस	-11.5958
▁बक	-11.5961
▁लांफानो	-11.5963
▁कासारखौ	-11.5967
▁36	-11.5968
फैयाखै	-11.5968
▁गोसोखांनाय	-11.5969
माफोराव	-11.5971
ant	-11.5971
▁थानां	-11.5975
उदां	-11.5983
▁दारिमिन	-11.5983
▁गौथुमफोर	-11.5987
▁नुथार	-11.5989
▁इछ	-11.5991
▁सिगार	-11.5993
बारखालि	-11.6005
प्लि	-11.6006
▁रबिन	-11.6006
▁दादेर	-11.6009
▁गोसोदि	-11.601
▁बिरनाय	-11.6012
▁हाउल	-11.6014
▁नाला	-11.6015
मारोब्ला	-11.602
W	-11.6021
हेला	-11.6023
▁दुगैनाय	-11.6026
▁बारलां	-11.6029
समाय	-11.6034
▁नुस	-11.6048
▁फुस	-11.6071
▁अरखा	-11.6071
▁फेनाय	-11.6074
ागौमानि	-11.6078
▁लानायानो	-11.6079
▁जाफुंहो	-11.6085
▁नोथां	-11.6087
फ्लांगोन	-11.609
जायाखै	-11.6091
▁देन	-11.6102
▁दोबै	-11.6103
▁अरनाय	-11.6108
▁मेथाया	-11.6113
दासो	-11.6117
▁गण	-11.6125
बिदा	-11.6132
▁दागो	-11.6134
▁जिरायफिन	-11.6147
ङासै	-11.6158
▁होन्	-11.6169
▁उजिनाय	-11.6172
▁राइज	-11.6174
▁बावजोब	-11.6175
▁खालामाब्ला	-11.6181
▁सान्ना	-11.6185
▁दावखोनाय	-11.6187
▁नांना	-11.6189
▁बुहा	-11.6191
rd	-11.6194
▁मर	-11.6199
▁लाङा	-11.6206
णी	-11.6207
मोन्थाय	-11.6208
▁लथा	-11.6217
▁गानाय	-11.622
▁रामोन्दानि	-11.6224
▁बन्दर	-11.6224
▁हेफाजाबजों	-11.624
▁जाफु	-11.6248
▁खारदों	-11.625
जादोंमोन	-11.6253
सहर	-11.6253
ीज	-11.6257
▁नहा	-11.6259
▁लिंबो	-11.6262
ियेल	-11.627
▁थिफाय	-11.6273
▁सैथा	-11.6273
▁नालेनि	-11.628
▁सिंआ	-11.6284
▁कड	-11.6295
लेम	-11.6299
▁फाउ	-11.6308
▁दिहुनगा	-11.631
▁अबस्	-11.6312
▁पेस	-11.6321
▁चु	-11.6347
▁डु	-11.6356
ेरखां	-11.6356
बिब	-11.6359
▁लेद	-11.6362
▁होगार	-11.6363
▁गनतन्त्र	-11.6363
▁मोसेब	-11.6392
▁दैमुफोर	-11.6393
▁वे	-11.6408
▁आखुथाइफोर	-11.6421
▁लाबाव	-11.6423
न्थर	-11.6428
मद	-11.6435
बोआखै	-11.6437
फोन	-11.6443
▁...!	-11.6445
▁जेर	-11.6448
▁भेट	-11.6452
मुरा	-11.6456
▁कमाण्डफोर	-11.6459
▁ओंखाराखै	-11.646
▁थाहैया	-11.6461
▁बेफोराव	-11.6464
मेराव	-11.6466
▁बम	-11.6475
ंगली	-11.6478
न्दारि	-11.6482
▁सोन	-11.65
▁फैफेरा	-11.6504
दुवा	-11.6507
▁उह	-11.6507
▁पुलि	-11.6509
▁सौथार	-11.6509
▁टावार	-11.651
▁197	-11.6517
▁सोमद्रि	-11.6519
▁जेब्लासिम	-11.652
मुलि	-11.6523
मोन्ना	-11.6525
▁दानस्लाय	-11.6529
▁सिकिउर	-11.6534
▁गिख	-11.6535
▁सौदाव	-11.6541
▁एउ	-11.6544
▁बिहर	-11.655
खिनिखौ	-11.655
माराखै	-11.6551
▁गुस्लाय	-11.6558
▁भुगिनां	-11.6562
ुराम	-11.6565
▁डिजिट	-11.6565
ide	-11.6566
जोबनायसै	-11.6567
▁मिलौ	-11.6569
▁दोल	-11.6572
84	-11.6573
▁बरादा	-11.6574
▁एंगोना	-11.6574
▁आबौमोननि	-11.6586
▁गोदाय	-11.6587
▁बिफांफोर	-11.6588
खेव	-11.6589
▁जेङा	-11.659
मोन्नाय	-11.6591
सेयावनो	-11.6593
▁दुर्	-11.6597
▁थाइनैया	-11.66
▁थांथार	-11.66
▁डाय	-11.6601
होमब्ला	-11.6604
आजाय	-11.6607
▁सन्थाल	-11.6607
न्डा	-11.6612
फावथाइनि	-11.6614
सिखोन	-11.6616
सत्य	-11.6616
ज्रेम	-11.6616
U	-11.6617
दैलो	-11.6617
सन्मान	-11.6617
ऋ	-11.6617
लाउथि	-11.6617
The	-11.6617
गसङो	-11.6618
सुशान्तवा	-11.6618
थुंग्रि	-11.6618
लोङै	-11.6618
नरेना	-11.6618
दान्दिसे	-11.6618
मेहेरसिं	-11.6618
गोरों	-11.6618
खबरदार	-11.6618
एरैनो	-11.6618
गाहाम	-11.6618
खोमसि	-11.6618
माखासे	-11.6618
हावरिया	-11.6619
▁इज	-11.662
▁मार्क	-11.6621
▁गेन्द्रि	-11.6622
गामसा	-11.6622
▁लाहैदों	-11.6623
बेलासे	-11.6624
गाबोन	-11.6624
दाकात	-11.6624
खन्थाइ	-11.6625
▁दानाया	-11.6625
▁हसपिटाल	-11.6626
▁त्रि	-11.6626
▁बिथराय	-11.6626
बिहामजो	-11.6627
▁सानथाया	-11.6629
▁टाया	-11.6629
▁आमथेखा	-11.6629
▁थानसालि	-11.6631
साथाम	-11.6631
चु	-11.6632
राइजोफोरा	-11.6632
लथा	-11.6632
बर्ड	-11.6632
▁समिला	-11.6633
रुमाव	-11.6634
आमाइ	-11.6635
▁फंनै	-11.6635
▁मिनिखुसि	-11.6638
अरखि	-11.6639
▁स्टे	-11.664
फाग्ला	-11.6641
ेल्ल	-11.6642
out	-11.6643
ोरा	-11.6643
▁गुफु	-11.6646
डु	-11.6646
आखल	-11.6647
माबोरै	-11.6648
▁रुबै	-11.665
▁टेबोला	-11.665
बबाव	-11.665
▁दायनिगिर	-11.6651
▁रेकर्ड	-11.6651
खनसाया	-11.6652
▁बेरफ्रु	-11.6654
▁स्रोत	-11.6656
▁गियाखै	-11.6657
हिउ	-11.6658
▁झु	-11.6658
▁हैदिन	-11.6659
97	-11.666
▁मेनेज	-11.666
फेद	-11.666
▁धोर	-11.6661
▁मुरदा	-11.6661
▁कनट्र	-11.6662
▁लक्षी	-11.6662
▁9435	-11.6662
ज्ञान	-11.6662
▁System	-11.6662
▁कमपाउन्द	-11.6662
▁निउयर्क	-11.6662
▁मोदाउखा	-11.6662
▁रिभलभार	-11.6662
cruel	-11.6662
j	-11.6662
position	-11.6662
vid	-11.6662
जोबथेसालिनिफ्राय	-11.6662
▁Bodo	-11.6662
▁Brit	-11.6662
▁Style	-11.6662
▁ideal	-11.6662
▁with	-11.6662
▁अनसुंथाय	-11.6662
▁अमृनडर	-11.6662
▁आन्सलिक	-11.6662
▁आमुखाखौ	-11.6662
▁आशिफ	-11.6662
▁इडुवार्ड	-11.6662
▁इन्टारचिटि	-11.6662
▁उथुमाइ	-11.6662
▁एकसिदेन्ट	-11.6662
▁कलकाटा	-11.6662
▁काउन्सिल	-11.6662
▁काजलगाव	-11.6662
▁केहेरलाल	-11.6662
▁गुवाहाटि	-11.6662
▁टिउटर	-11.6662
▁दुइनम्बरि	-11.6662
▁धालिगाव	-11.6662
▁पिरामिड	-11.6662
▁फेब्रुवारी	-11.6662
▁फोर्दान	-11.6662
▁फ्रन्ट	-11.6662
▁बर्मण	-11.6662
▁बाइह्रायाव	-11.6662
▁बालाबगासे	-11.6662
▁भौमिक	-11.6662
▁मल्ल	-11.6662
▁माधुवा	-11.6662
▁मिनिमाइज	-11.6662
▁मुख्लं	-11.6662
▁मेघालय	-11.6662
▁यर्क	-11.6662
▁राफोत	-11.6662
▁रिटायार्ड	-11.6662
▁लोमस्राव	-11.6662
▁संबिजिद	-11.6662
▁सदबांसा	-11.6662
▁सप्तासे	-11.6662
▁सागुलुन्दि	-11.6662
▁सिमबलिक	-11.6662
▁सोदोरमा	-11.6662
▁स्कुटार	-11.6662
▁हादुंगोरा	-11.6662
▁अस्ताद	-11.6662
▁आग्राङारी	-11.6662
▁क्लिनिक	-11.6662
▁घिउ	-11.6662
▁घुस	-11.6662
▁बसुमथारी	-11.6662
▁बिखुमजो	-11.6662
▁बुंलांबावो	-11.6662
▁बैष्ण	-11.6662
▁मेलेमजिबि	-11.6662
▁मेहेरसिङा	-11.6662
▁मोहेर	-11.6662
▁रामायण	-11.6662
▁लहराय	-11.6662
▁लाजिगुसु	-11.6662
▁Well	-11.6662
▁गिर्जा	-11.6662
▁जमिदार	-11.6662
▁तदबि	-11.6662
▁थाम्फै	-11.6662
▁भ्राम	-11.6662
▁मेक्सिम	-11.6662
▁रैमाली	-11.6662
▁खायलें	-11.6662
▁बोख्लाइ	-11.6662
▁सुरिदार	-11.6662
▁अखनबा	-11.6662
▁चछमा	-11.6662
▁बौदा	-11.6662
▁लैखोन	-11.6662
▁साइन्स	-11.6662
▁सेहेरा	-11.6662
▁सुटकेस	-11.6662
▁telegram	-11.6662
▁Habildar	-11.6662
▁जस्लं	-11.6662
▁लाइखं	-11.6662
नेक्सट	-11.6662
▁आफिं	-11.6662
▁गोराजोआ	-11.6662
▁पानबाजार	-11.6662
▁बार्लि	-11.6662
शिक्षा	-11.6662
▁नबथिसुना	-11.6662
▁होरलां	-11.6662
काइदा	-11.6662
▁दाबोराब	-11.6662
▁बोगदा	-11.6662
▁रेष्टुरेन्ट	-11.6662
▁र्स्	-11.6662
▁लानजाय	-11.6662
▁खुन्दायाव	-11.6662
▁देन्था	-11.6662
▁सान्दुङा	-11.6662
▁सारियालि	-11.6662
▁बिलाताव	-11.6662
▁टंला	-11.6662
▁बोगथाब	-11.6662
▁जारें	-11.6662
▁दुर्ल्लाइ	-11.6662
▁गैल्या	-11.6662
▁बानाइसो	-11.6662
बांलादेश	-11.6662
▁जयमती	-11.6662
▁Scene	-11.6662
▁अरुणा	-11.6662
केमिष्ट	-11.6662
▁रेबगन	-11.6662
▁बृटिस	-11.6662
▁स्रुब	-11.6662
▁नारजारि	-11.6662
▁सरसती	-11.6662
▁him	-11.6662
▁गब्राय	-11.6662
▁हकारा	-11.6662
▁हार्डवेर	-11.6662
▁दायलग	-11.6662
▁फ्रान्च	-11.6662
▁बागदाउ	-11.6662
▁मुरदाबाद	-11.6662
▁spe	-11.6662
▁नोमानैया	-11.6662
▁फाइकी	-11.6662
▁सेकेण्डारी	-11.6662
▁But	-11.6662
iz	-11.6662
▁सफैब्ला	-11.6662
▁मधु	-11.6662
▁कमबक्ता	-11.6662
▁गगा	-11.6662
▁ब्राह्म	-11.6662
▁(?)	-11.6662
▁बाबाजी	-11.6662
▁फ्रिजनि	-11.6662
▁आधा	-11.6662
▁राजखुंग्रि	-11.6662
▁जेरिना	-11.6662
age	-11.6662
▁स्टेन्द	-11.6662
▁थेंगोना	-11.6662
▁बाइबेल	-11.6663
▁थिफुद्ला	-11.6663
मांसि	-11.6663
▁एसेयैब्लाबो	-11.6663
▁सोमब्र	-11.6663
▁इटाली	-11.6663
▁मिज्लिउ	-11.6663
▁जलदब	-11.6663
▁थादे	-11.6663
▁साखथिख	-11.6663
▁आजिर	-11.6663
▁हकारनि	-11.6663
▁बेरायग्लां	-11.6663
▁नायख्लें	-11.6663
▁खेफथ	-11.6663
▁फाथ्रिंगि	-11.6663
▁सोङाखिसै	-11.6663
▁गलाघाट	-11.6663
▁गैथारला	-11.6663
▁प्रताप	-11.6663
▁दौस्रेम	-11.6663
▁बेगें	-11.6663
▁बर्जन	-11.6663
▁आदालत	-11.6663
▁1983	-11.6663
▁लंथं	-11.6663
▁रोबै	-11.6663
▁माल्टि	-11.6663
▁जाफुङै	-11.6663
▁गाग्लेम	-11.6663
▁जुरिफिनबाय	-11.6663
▁एलबाम	-11.6663
सोरबा	-11.6663
▁मोगन	-11.6663
▁देमुख	-11.6663
▁थालोजाब	-11.6664
▁सिरियास	-11.6664
▁केन्सार	-11.6664
▁दांफाम	-11.6664
▁Ho	-11.6664
▁मिथिरोङा	-11.6664
▁नंखाइ	-11.6664
da	-11.6664
आगै	-11.6664
▁रमान्टि	-11.6664
▁नेहात	-11.6664
▁एयार	-11.6664
▁बुश्व	-11.6664
▁इस्कुल	-11.6664
▁मैखारि	-11.6664
▁बिगाबा	-11.6664
▁बिल्डिङाव	-11.6665
▁खुमब्रा	-11.6665
▁थानदै	-11.6665
▁मिसिल	-11.6665
▁उन्दुग्लां	-11.6665
▁खैरोम	-11.6665
▁गुरस्लाय	-11.6665
▁रिंखाङो	-11.6666
▁लिदार	-11.6666
▁सारन्थाइ	-11.6666
▁जायख्लं	-11.6666
▁मिस्टि	-11.6666
धोत	-11.6666
▁जुनात	-11.6666
▁खुरलु	-11.6666
▁कारबार	-11.6667
▁फेस	-11.6667
---!	-11.6667
▁खायला	-11.6667
▁Re	-11.6667
सेम्बाराव	-11.6667
ांख्राइ	-11.6667
▁फोथायसुला	-11.6667
▁बाग्दावखाङो	-11.6667
▁दिहुनगिबि	-11.6667
▁बैश्य	-11.6667
▁देरबोबाय	-11.6667
▁खौरांगाथाम	-11.6667
ेभेल	-11.6667
▁माइफ्रि	-11.6667
▁थावगुबै	-11.6668
▁गवालपारा	-11.6668
▁खारदिं	-11.6668
▁नुग्रोन	-11.6668
▁गिनाङा	-11.6668
▁नाइदाव	-11.6668
ii	-11.6668
▁1974	-11.6668
▁दुगैस्रां	-11.6668
▁लाबोआखै	-11.6668
स्टेल	-11.6668
▁बोहैबोयो	-11.6668
▁हाइथु	-11.6668
▁सानथावा	-11.6668
▁बाख्नायथाव	-11.6668
▁गसंदयो	-11.6669
ues	-11.6669
▁जगदार	-11.6669
▁हाकिम	-11.6669
▁बिस्कुत	-11.6669
▁खानसिसा	-11.6669
चीफ	-11.6669
▁थार्ला	-11.6669
सुखारु	-11.667
▁जिनिद	-11.667
▁मोनस्नि	-11.667
▁थर्स	-11.667
▁एग्दाव	-11.6671
▁चिरां	-11.6671
▁गोमोरलाङो	-11.6671
▁फरायसुला	-11.6671
▁जेवारि	-11.6671
ँइ	-11.6672
्रुम	-11.6672
▁लिरथुम	-11.6672
▁बिस्व	-11.6672
▁जांख्ला	-11.6672
▁सोरजिलांनाय	-11.6673
▁बोहैलाङो	-11.6673
▁गारनांदों	-11.6673
▁जिंग्रि	-11.6673
▁बारायहोयो	-11.6673
▁सिनायखायो	-11.6673
▁दौस्रा	-11.6674
▁फैसान्दि	-11.6674
वारीनियाव	-11.6674
▁बान्दी	-11.6674
▁बिषमाव	-11.6674
द्रेज	-11.6674
जुब	-11.6674
▁नुजादेर	-11.6674
▁सन्देर	-11.6675
▁बार्ड	-11.6675
▁दिन्थिगासे	-11.6675
▁लिलि	-11.6675
अजिता	-11.6676
▁रांखाउरि	-11.6676
बाथोर	-11.6676
▁लकेल	-11.6676
▁मेराय	-11.6676
▁मेंग्लिनाय	-11.6676
▁नागिराखै	-11.6677
▁Co	-11.6677
ख्लिब	-11.6677
▁सोंफ्राम	-11.6677
सिदेम	-11.6677
▁आगसिथिं	-11.6677
▁गोमोदै	-11.6678
▁गायसं	-11.6678
▁सारफाव	-11.6678
ध्द	-11.6679
फुट	-11.6679
हाबाब	-11.6679
▁गोमालांबाय	-11.6679
▁किरिरिं	-11.6679
▁tragic	-11.6679
▁नादायदा	-11.6679
▁माधब	-11.6679
▁थांब्रब	-11.6679
▁गोनोखो	-11.6679
▁थादेर	-11.6679
▁अरुनमोना	-11.6679
▁टाका	-11.668
▁सिबियारि	-11.668
▁दोनाखै	-11.668
▁गाग्लोबथाय	-11.668
▁दामोनसै	-11.668
▁प्रफुल्लवा	-11.668
▁खण्ड	-11.668
▁सरास	-11.6681
▁सामलाइ	-11.6681
▁होननांगोन	-11.6682
▁गोजांस्रिवो	-11.6682
▁एरसन	-11.6682
▁फुथि	-11.6682
▁दोनखादोंमोन	-11.6682
गोखा	-11.6683
पटल	-11.6683
▁माइथाइ	-11.6683
▁थुंग्री	-11.6683
▁सोंथे	-11.6683
▁उनफारसे	-11.6683
▁मेन्दां	-11.6684
▁रोङाबोला	-11.6684
▁आबुर	-11.6684
▁सोमजिहोयो	-11.6684
▁ओंखाराखिसै	-11.6684
▁थोंसे	-11.6685
▁फान्नाय	-11.6685
मुसि	-11.6685
▁दलत	-11.6685
▁उनथिंजाय	-11.6685
▁जुजाय	-11.6685
▁बुङाहां	-11.6685
▁बुंफैबाय	-11.6686
▁नासय	-11.6686
▁लोंजोबो	-11.6686
डिअ	-11.6686
▁गसंफैयो	-11.6686
▁हेन्द	-11.6687
▁गोरोबलायो	-11.6687
▁मिनिग्लाबो	-11.6687
▁सिखाराखै	-11.6687
गुलि	-11.6687
▁खाखानाय	-11.6687
▁नारसिन्नाय	-11.6687
▁थांथोंसै	-11.6688
▁रेग	-11.6688
▁बुथारजानाय	-11.6688
▁खाता	-11.6688
त्व	-11.6688
▁गाखोहैबाय	-11.6689
▁हख्राव	-11.6689
▁दुखारु	-11.6689
▁खोख्लैनाय	-11.6689
▁लक्षीमपुराव	-11.669
▁स्टेजाव	-11.669
▁बेवहा	-11.669
▁पावार	-11.669
▁जोमग्रा	-11.6691
▁दोनफिनो	-11.6691
▁भरत	-11.6691
▁देद्	-11.6691
▁खबज	-11.6693
▁उन्दुलाङो	-11.6693
▁all	-11.6693
▁कैलासा	-11.6694
▁अमिताभा	-11.6694
▁रुमे	-11.6694
▁सेरथे	-11.6694
▁बांहोयो	-11.6695
▁मन्थ्री	-11.6695
▁खालाइ	-11.6695
▁सोसन	-11.6695
▁रंजाखाङो	-11.6696
▁फुजियो	-11.6696
▁गोख्रैसिन	-11.6696
▁दोनलांदों	-11.6696
▁मिन्थिस	-11.6697
▁माइनारा	-11.6697
▁मोन्दांथि	-11.6698
▁जाथ्रा	-11.6698
▁बारथारबाय	-11.6698
▁खालामगौमोन	-11.6698
▁खिन्थाहरो	-11.6698
▁खावयां	-11.6699
▁जुरिबाय	-11.67
▁पिसास	-11.67
▁बुंस्लाब	-11.67
ुलुस	-11.6701
....!!!	-11.6703
▁सिनायलायनाय	-11.6703
▁नोंगुमै	-11.6704
▁खारनांगोन	-11.6704
▁जयफ	-11.6705
▁लागे	-11.6705
▁हैनायसै	-11.6706
सोनाब	-11.6706
1963	-11.6707
▁दोनजानाय	-11.6708
▁कापनै	-11.6708
▁खुंग्रा	-11.6708
▁गैथ	-11.6709
▁देवानीया	-11.6709
▁थादोलै	-11.6709
▁हाबावगोन	-11.6709
▁मोनदांबाय	-11.671
▁श्व	-11.671
▁होआखैमोन	-11.671
▁लुबैग्रा	-11.671
▁क्रम	-11.6711
▁वाक	-11.6711
▁होफैनायसै	-11.6711
▁उल्थां	-11.6711
▁ट्रिप	-11.6711
▁हमख्र	-11.6712
▁खोनाफा	-11.6713
▁गंगा	-11.6714
▁लाबोनांगोन	-11.6714
▁मोनसिगोन	-11.6714
▁फराइ	-11.6715
▁माबेयाव	-11.6715
▁फोथायथि	-11.6715
▁उखैजा	-11.6715
▁ओंखारलांनायसै	-11.6715
▁बथलसे	-11.6716
▁गाले	-11.6716
▁खायदायै	-11.6716
▁सुथे	-11.6716
▁लिरजानाय	-11.6717
▁गसंना	-11.6718
▁करम	-11.6718
▁स्रेम	-11.6718
▁थास्लिब	-11.6719
▁नम्बार	-11.6719
▁थादेरनाय	-11.6719
▁गेरेजाव	-11.6719
▁खावनै	-11.672
▁खामफा	-11.672
▁मोनथारा	-11.672
▁सिबिग्रा	-11.672
▁सुरखो	-11.6721
नेक	-11.6721
▁मोनलायदों	-11.6721
▁शुक्रबार	-11.6722
▁होसिगोन	-11.6722
▁जिल्लाफोराव	-11.6722
▁बारहो	-11.6723
▁फैखाङो	-11.6723
▁क्लर	-11.6723
▁खमज्लाय	-11.6723
▁बाथोर	-11.6724
▁दोनहां	-11.6725
ess	-11.6725
▁दोनहैयो	-11.6726
एइ	-11.6726
▁हमथायो	-11.6727
▁मोनामनाया	-11.6727
▁एखर	-11.6727
▁खालामहोनो	-11.6729
होखो	-11.6729
▁खालायनांगौ	-11.6729
▁सोंथाइ	-11.6729
त्ति	-11.673
▁अस्थाद	-11.673
▁गलाब	-11.673
▁गोब्राबसिन	-11.6731
▁गायदों	-11.6732
▁नागिरगासिनो	-11.6732
▁अमिताया	-11.6732
▁बोहैयो	-11.6732
▁होनाङा	-11.6733
▁फानसे	-11.6733
▁बन्दक	-11.6734
▁होयाखै	-11.6734
▁समहालागै	-11.6734
▁जिरायदो	-11.6734
▁सिगांङाव	-11.6734
▁गारफा	-11.6735
▁दावसिन	-11.6735
▁लाखाबाय	-11.6736
▁आलम	-11.6737
▁गथायो	-11.6737
▁जाथारै	-11.6738
▁लायासै	-11.6738
▁ओंखारलांब्ला	-11.6739
▁काजि	-11.6739
▁दामग्रा	-11.6739
▁होथारबाय	-11.674
▁खाजायो	-11.674
▁हाबलांबाय	-11.6741
▁लांखोमा	-11.6741
▁हाजिरा	-11.6742
▁खांगोन	-11.6743
▁जाहोदोंमोन	-11.6743
▁बोसोरनैसो	-11.6743
▁जाइलि	-11.6743
▁सौसिनानै	-11.6744
▁नरह	-11.6744
▁फाग्लिबादि	-11.6745
▁धोरोमारि	-11.6745
▁रासिया	-11.6745
▁खाब्रा	-11.6746
▁गेलेगोन	-11.6746
▁गुरो	-11.6746
▁रोंगोन	-11.6747
▁हादोंमोनब्लाबो	-11.6748
▁फावगिरिफोरा	-11.6748
▁देश	-11.6748
लाङाखिसै	-11.6749
फेरि	-11.6749
▁जाफ	-11.675
▁लोमजाब्ला	-11.675
▁गजेन	-11.6752
▁लाबोदो	-11.6752
▁मोनथाव	-11.6752
▁गानफ्रा	-11.6752
▁मोदोमारि	-11.6752
▁आद्	-11.6753
▁फाजि	-11.6754
▁हुगारदों	-11.6754
सामथाइ	-11.6754
▁रोसि	-11.6755
▁गांज	-11.6755
ओन्दां	-11.6755
▁आइदै	-11.6758
▁जिथायाव	-11.6758
▁देद्ला	-11.6759
▁इंलेण्ड	-11.676
▁मोनस्रि	-11.676
▁मोनजायै	-11.676
▁गोथौसिन	-11.6761
▁बुंदां	-11.6761
खावनो	-11.6762
▁मिलौनाय	-11.6762
▁थिनदोंमोन	-11.6762
▁know	-11.6763
▁खुलुमदों	-11.6763
▁खारलांबाय	-11.6763
▁em	-11.6764
न्ता	-11.6765
▁फरायथि	-11.6765
▁फेसन	-11.6765
▁सान्नायसै	-11.6767
▁लोंखा	-11.6767
▁दिनथिनाय	-11.6768
▁गबथ	-11.6768
▁मावथाय	-11.6768
▁खुगु	-11.677
▁मोनलाङो	-11.6771
▁होबावो	-11.6773
▁बिषि	-11.6773
▁मुसि	-11.6776
▁90	-11.6777
........!	-11.6777
▁गाहै	-11.6778
▁होखानाय	-11.6778
▁फान्दायनानै	-11.6778
▁नागिरग्रा	-11.6779
▁कारजिया	-11.6779
▁दुंखावनाय	-11.6779
स्वामी	-11.678
▁सारखो	-11.6781
▁उलथा	-11.6783
▁कबि	-11.6783
▁मोनजागोन	-11.6783
▁सङै	-11.6784
▁जाफैदों	-11.6786
▁m	-11.6787
▁मुसाहारिया	-11.6787
▁आलासिफ्रा	-11.6791
फोरमान	-11.6791
फाथो	-11.6792
लेस	-11.6793
▁फबनाय	-11.6793
फिनासै	-11.6794
▁जाजानो	-11.6795
भिल	-11.6796
▁गिदिंबायनानै	-11.6798
▁थिखादारा	-11.6798
द्रायबाय	-11.6798
▁मावदो	-11.6799
थाराखिसै	-11.6799
▁दाखथार	-11.68
▁थाखोमाबाय	-11.68
▁हरनांगोन	-11.68
ालाबानो	-11.6801
▁लासिनो	-11.6802
▁इन्टारने	-11.6803
▁गोलैबाय	-11.6803
▁हरजानाय	-11.6804
▁गोजांनायाव	-11.6804
▁रायलायगोन	-11.6804
▁गोराय	-11.6805
▁एमब्रा	-11.6806
▁दाराय	-11.6812
▁हाबलाय	-11.6812
▁दावगानाया	-11.6813
▁थाहैबाय	-11.6814
▁लाङाखै	-11.6814
▁सक	-11.6815
▁हाबदों	-11.6817
कल्पनाया	-11.6819
▁मालिक	-11.682
▁दिल्लीनिफ्राय	-11.6821
आदामोन	-11.6821
द्लाब	-11.6821
▁सन्थालीया	-11.6823
▁बिहामजोआ	-11.6825
▁!''	-11.6825
▁जावैसोखौ	-11.6827
▁सावो	-11.6829
थिंख्लि	-11.6831
▁सोंगोन	-11.6831
▁लेर	-11.6831
र्टाव	-11.6832
आलु	-11.6833
▁आबां	-11.6833
▁अनगोन	-11.6834
▁जखानि	-11.6834
▁बिसोरनावनो	-11.6836
▁मोसानांगौ	-11.6837
जेनबा	-11.6839
नोगोर	-11.6839
▁फरायगोन	-11.6839
1968	-11.6839
▁आगानसे	-11.6843
▁नुथायफोरा	-11.6844
▁बुथारनायाव	-11.6846
▁मुल	-11.6846
▁बारहुंखाया	-11.6846
▁गोरानजों	-11.6847
▁नायहरै	-11.6848
▁सावरायदों	-11.685
▁कला	-11.6851
▁सौबाय	-11.6851
▁मेदब	-11.6852
▁सौग्रावथाय	-11.6853
▁बुंथिनानै	-11.6855
▁कक्राझाराव	-11.6858
कृ	-11.6858
▁खारनाया	-11.6858
▁देवानिया	-11.686
हयै	-11.686
▁खिग्रा	-11.6862
उर्बस	-11.6863
▁हायियाव	-11.6863
▁उन्दुलांनो	-11.6863
▁रिंखा	-11.6864
▁आदत	-11.6865
हाज	-11.6865
▁बोज	-11.6865
▁गुलिया	-11.6867
▁गोथैबारि	-11.687
▁47	-11.6871
▁जामारो	-11.6873
▁सलाइ	-11.6875
राक	-11.6876
▁नुजाबाय	-11.6876
▁सरखाय	-11.6876
▁पाहार	-11.6876
जुनादफोरा	-11.6876
▁गुरजे	-11.688
▁जोबि	-11.6881
मिष्टार	-11.6882
▁थांहोनाय	-11.6884
▁सिंथिं	-11.6885
sis	-11.6885
▁बुजियाखै	-11.6889
▁साबिया	-11.6889
▁गंनैसो	-11.689
▁जोख्लाय	-11.689
▁मोन्नायसै	-11.6891
▁बोख्लायनानै	-11.6893
▁माथोब्रा	-11.6893
▁बबि	-11.6893
▁सोरजिथाय	-11.6896
▁जाथारो	-11.6896
▁जौथायाव	-11.6897
▁थाबायनांगौ	-11.6899
चल	-11.6901
▁औवारि	-11.6901
▁दोनदोंमोन	-11.6902
▁दाजाबदेर	-11.6903
▁माजां	-11.6903
▁मोनदांथिया	-11.6907
▁गगल्सा	-11.6908
सुबिदा	-11.6912
▁बालि	-11.6916
▁दिल्लीया	-11.6916
खावा	-11.6917
▁Th	-11.6917
▁दोनहर	-11.6921
टिसखौ	-11.6922
ेथेर	-11.6922
▁बोन	-11.6924
नागा	-11.6925
▁बिथाया	-11.6933
ोङा	-11.6933
▁फैखां	-11.6935
▁जोलैया	-11.6939
बारे	-11.6939
▁हरनै	-11.6939
▁रायज्लायनायाव	-11.6942
▁...."	-11.6944
▁आफामोनखौ	-11.6956
▁दिहुनथाय	-11.6961
▁नायज्लाय	-11.6964
▁आंग्रां	-11.6965
▁दैथायनाय	-11.6968
▁हायैखाय	-11.6969
▁फेजेननो	-11.6969
▁साननायसै	-11.697
▁मिथिनायाव	-11.697
▁95	-11.6972
▁राउ	-11.6972
▁जथुमनाय	-11.6975
▁मोन्नैयाव	-11.6975
▁थोनाया	-11.6976
माथा	-11.6979
▁बोना	-11.6979
दाखार	-11.698
▁होखांनाय	-11.6981
▁लाब्लानो	-11.6982
▁जांख्रिथाइयाव	-11.6983
▁बाथुवाखौ	-11.6983
▁नायफिनहर	-11.6985
दावलि	-11.6986
▁रम	-11.6988
▁बेलायावबो	-11.699
▁सरा	-11.6991
▁नायनायाव	-11.6993
▁जिलानि	-11.6997
▁टेक	-11.6998
▁दंफैयो	-11.7
▁जोंरुखौ	-11.7
▁मोनस्लाब	-11.7001
▁बराया	-11.7006
▁हगारबाय	-11.7007
▁बेनार	-11.7008
▁जङा	-11.7009
▁बादोंमोन	-11.7012
▁हैदों	-11.7017
▁हुख	-11.7017
▁राजाफ्रा	-11.7019
▁बुजायनानै	-11.7019
▁दाउल	-11.702
▁सिंखावरि	-11.702
▁मोनहां	-11.7021
▁मेंनायजों	-11.7023
थ्रेद	-11.7023
▁बुंगासिनो	-11.7027
▁जाथिया	-11.7028
▁खोलि	-11.7031
▁दिन्थिबाय	-11.7034
▁जायाबाला	-11.7034
▁मोनथिनाय	-11.7035
▁नंनाया	-11.7041
▁ओंखारगोन	-11.7041
▁मोन्नैया	-11.7041
▁थिब	-11.7042
▁रुटिन	-11.7043
▁थैयाब्ला	-11.7043
▁मेलेमजों	-11.7044
▁बयो	-11.7044
▁रंजादों	-11.7045
▁दैदेननो	-11.7048
▁लग	-11.7051
कम्बल	-11.7051
▁लिरगिरिफोरा	-11.7054
▁दावथाय	-11.7055
▁बुंनायबादि	-11.7055
▁नरेशनो	-11.7056
▁समय	-11.7057
To	-11.7058
बिब्दिनो	-11.7061
▁केडार	-11.7065
▁बारगोन	-11.7066
ब्राइ	-11.707
▁सानथिं	-11.7072
▁खारस	-11.7073
▁खाख्र	-11.7076
▁हौवाफ्रा	-11.7076
▁मिथिजोब	-11.7086
▁फैनायमोन	-11.7092
▁बोहाब	-11.7105
▁बिथांमोनखौ	-11.7105
▁नुथाया	-11.7106
▁सरलाखौ	-11.7107
▁थाखि	-11.7107
बेफोरनि	-11.7111
▁सोलायबाय	-11.7111
बिथ	-11.7112
▁मिनिटसोनि	-11.7118
प्रा	-11.7125
▁गारसो	-11.7125
खान्दाय	-11.7127
दावदै	-11.7129
▁जालमा	-11.7136
लांदिनि	-11.7137
▁माखु	-11.7138
▁गेद	-11.714
▁फोलाना	-11.7144
▁साग्लोबना	-11.7144
▁फोथांनाय	-11.7146
जुग	-11.7153
आंथ	-11.7158
▁दंबावोमोन	-11.7158
▁जुथुमनाय	-11.7166
▁32	-11.7168
▁गेसे	-11.7168
60	-11.7169
▁बियाब	-11.7173
▁टेकनिक	-11.7174
▁साथामबो	-11.7175
▁आंनोलाय	-11.7175
खांफिन्नो	-11.7176
▁दिम	-11.7179
ार्ड	-11.7179
▁गोसायाव	-11.718
▁थारथि	-11.7181
▁दैसाखौ	-11.7181
▁रबिल	-11.7184
▁सर्माखौ	-11.719
▁सानफिन	-11.719
▁नाइनानै	-11.7192
▁सानथ्रिफोर	-11.7194
▁हाबहैनाय	-11.7195
▁फानजोब	-11.7195
बावलायखो	-11.7196
40	-11.7198
▁हथ	-11.7203
▁लाइमोनफोर	-11.7204
▁नायना	-11.7207
िउब	-11.7208
▁सुबुंथि	-11.7212
▁खोम	-11.7215
▁Cl	-11.7216
▁नोंनोथ	-11.7216
▁कनष्टेबल	-11.722
▁लोंनाया	-11.7225
▁सनखां	-11.7226
▁फोरमाया	-11.723
▁हाजि	-11.7233
▁सुखां	-11.7234
▁अबंनि	-11.7234
68	-11.7242
▁शंकरखौ	-11.7242
▁सालथे	-11.7243
▁सोंफै	-11.7248
▁आसे	-11.7252
ग्रोबाय	-11.7254
▁गोबाबाय	-11.7257
▁उन्दुनायाव	-11.726
▁नायल्दा	-11.7262
▁मासेया	-11.7271
बोरो	-11.7275
▁एवनो	-11.728
ेकसन	-11.7293
▁गिदिंफिन	-11.7295
▁गावनाव	-11.7296
▁सोरजिनानै	-11.7297
▁गाबख्रावनाय	-11.7299
▁नायथा	-11.7303
▁भारतारिफोर	-11.7306
▁दिखांबाय	-11.7309
▁खिन्थायाखै	-11.731
▁बावना	-11.7316
▁साथामा	-11.7317
▁नोंथांमोनखौ	-11.7318
▁राइजोआनो	-11.732
पात	-11.7321
▁फिसायखौ	-11.7322
5)	-11.7324
▁गोहोमाव	-11.7332
▁जाफुंसारदों	-11.7338
52	-11.7344
▁गिबिफोरा	-11.735
▁दुल	-11.7355
▁फ्लां	-11.7356
ect	-11.7358
▁खुबैनाय	-11.7363
▁बारलांनाय	-11.7365
▁बेमारिया	-11.7368
लिन	-11.7369
▁खालामनायमोन	-11.7369
▁मुगाया	-11.7374
ौरां	-11.7375
▁बाख्नायनाय	-11.7376
▁मिनिनाया	-11.7381
थैनाय	-11.7382
▁नांफा	-11.7382
▁बहानिफ्राय	-11.7384
गुदु	-11.7386
▁भाग	-11.7386
▁गाबखांदों	-11.7399
▁नाजावा	-11.7403
▁मिथिखानाय	-11.7409
▁हुनाय	-11.7428
▁राजाफोरा	-11.743
▁नागाजों	-11.7431
ud	-11.7431
▁भु	-11.7438
जोबनोसै	-11.7441
ांग्रां	-11.7441
▁बादाय	-11.7441
▁गाबनायाव	-11.7445
▁बायखां	-11.7445
▁फिसाला	-11.7446
जागोनबो	-11.7458
▁लायोमोन	-11.7463
सिरा	-11.7467
▁बोहैहो	-11.7468
ट्रि	-11.7469
▁दासा	-11.7475
▁फैदेर	-11.7477
्मु	-11.7483
▁गेर	-11.7486
फास्ट	-11.7487
▁बोजों	-11.7488
▁फिफाया	-11.7498
▁आदाब	-11.7498
▁होखादों	-11.7502
▁हारिमुवा	-11.7505
▁रायखो	-11.7506
▁गसंद	-11.7516
▁सोबनाय	-11.752
▁जागिखांना	-11.7523
▁आलासिफोरा	-11.7528
▁खेबथा	-11.7542
▁बिसारा	-11.7544
▁आजा	-11.7549
▁थबेना	-11.7553
▁रायथिनाय	-11.7554
▁केरानिखौ	-11.7555
▁माइखौ	-11.7558
ब्रबनाय	-11.7558
लहानि	-11.7562
▁खिया	-11.7562
▁दोनखा	-11.7566
▁बेनिखाय	-11.7571
हामै	-11.7574
▁De	-11.7578
लेखा	-11.7578
ro	-11.758
▁फोजोबना	-11.7581
▁बिजिरथि	-11.7586
▁बुंखादों	-11.7586
▁खाथिथार	-11.7588
खाथि	-11.7595
▁होनबानो	-11.7596
▁बिलिरनाय	-11.7601
▁बेकार	-11.7604
▁फोजाहै	-11.7608
▁जथाइखौ	-11.7613
मनी	-11.7629
▁खाथिर	-11.7641
▁गिनां	-11.7646
▁बुजिनाय	-11.7663
बादल	-11.7671
जिरि	-11.7675
रेन्स	-11.7687
▁थौथि	-11.7693
रेस	-11.7695
▁मेनेजारा	-11.7714
▁बिलोफोर	-11.7714
हराखैमोन	-11.7719
रेस्ट	-11.7722
▁डलि	-11.7723
▁सौफैदों	-11.7731
▁बायदोंमोन	-11.7742
नेश	-11.7748
▁Dr	-11.7749
गारी	-11.7752
फेरदों	-11.7755
▁नुथायखौ	-11.7757
▁जेइ	-11.7769
ेमाखौ	-11.777
▁बुंफ्रु	-11.777
समाव	-11.7781
▁लैथोमा	-11.7785
▁लिंना	-11.7786
▁सावथालफोर	-11.7786
▁धुब	-11.7787
▁सिखोन	-11.7788
na	-11.779
▁बावलाय	-11.7797
▁होख	-11.7798
ts	-11.78
▁फुंखाखौ	-11.7802
▁दाबारीमोन	-11.7805
▁गुन्दाजों	-11.7806
स्वर	-11.7808
लैस्रो	-11.7813
▁बसुमतारिया	-11.7817
▁जाब्र	-11.7818
खुरै	-11.7818
▁थैयाखै	-11.7818
▁गुदुङा	-11.782
▁थाइलालिया	-11.7832
▁गाब्ला	-11.7833
▁भल	-11.7837
▁हुम	-11.7837
तिके	-11.7853
लांनांगौ	-11.7855
जोमफोरखौ	-11.7862
्रीम	-11.7872
▁गरज	-11.7873
ुरुं	-11.7874
▁रिड	-11.7879
▁बिजन	-11.7883
▁जिउसा	-11.7885
▁कर्	-11.7887
▁गोथारथि	-11.789
फैथोंसै	-11.7893
गुद	-11.7895
▁बिदाम	-11.7897
▁लाबोबाव	-11.7914
▁नायखो	-11.7917
हुन्दा	-11.7917
ोरखौ	-11.792
टरि	-11.7921
इण्डि	-11.7927
ble	-11.7928
▁ओं	-11.7929
ome	-11.7933
▁अनजिमाखौ	-11.7939
▁जांख्रिथाइया	-11.7947
▁गाखोहै	-11.7952
▁खोनाजोब	-11.7955
जाला	-11.796
▁लाखांनाय	-11.7961
ांख्ला	-11.7967
▁मुदा	-11.7986
▁खुस्रा	-11.799
▁मुंराइफोर	-11.7994
▁फेदेरदों	-11.7994
20	-11.8008
थिस्लाबाजासे	-11.8008
▁कुर	-11.8012
जाद	-11.8014
▁हास्लाबा	-11.8014
▁आहमफोर	-11.8015
▁फराया	-11.8015
▁ser	-11.802
▁खाबाय	-11.8024
सनेल	-11.8024
▁लिंनाय	-11.8034
▁होखोमा	-11.8034
बावगौ	-11.8038
▁शिल	-11.8043
फेरबाय	-11.8049
▁फैसाखौ	-11.8052
▁थांफिननो	-11.8065
रेसन	-11.8068
ेन्दा	-11.8075
▁जायालासे	-11.8089
▁मददगिरि	-11.809
▁खालामफिन	-11.8091
▁फोरबोआ	-11.8114
▁दोंफ	-11.8114
▁बज	-11.8121
▁जागार	-11.8127
▁them	-11.8129
▁लिरहरदों	-11.8131
▁सांग्रा	-11.8133
▁शि	-11.8145
सेंग्र	-11.815
▁सेरेब	-11.815
फेस	-11.8152
बुददि	-11.8153
▁रिग	-11.8154
▁बिहरदों	-11.8161
06	-11.8165
ियेट	-11.8166
▁थाफादेर	-11.8169
▁हौवाफोरा	-11.8171
▁गाबखां	-11.8176
▁समायनाय	-11.8179
▁गुब	-11.818
▁उनफिन	-11.8183
▁मर्	-11.8184
▁सिनाया	-11.8195
▁फोजोन	-11.8197
जागौमोन	-11.8201
▁खालामफैनाय	-11.8207
tic	-11.8211
िनसि	-11.8214
▁हमखां	-11.8223
▁खुथु	-11.8229
नास्री	-11.8231
▁लिरहर	-11.8231
रतन	-11.8249
▁गनक	-11.826
▁सेवलां	-11.8264
▁फैनांगौ	-11.8278
▁दाखन	-11.8286
ist	-11.8296
▁हाबफिन	-11.8299
▁हादत	-11.8301
▁बान्दिया	-11.8307
▁गसंफैनाय	-11.8308
▁लेन	-11.8309
▁द्राम	-11.8309
▁जोबगौ	-11.8313
थारबायमोन	-11.8316
▁मावग्लु	-11.8321
▁थफ	-11.833
▁बिलां	-11.833
45	-11.8331
▁खनदों	-11.8343
▁जखाइ	-11.835
▁फोरोंगिरिफोर	-11.8354
ंगालि	-11.8356
▁कनष्टेबलफोर	-11.8358
▁मुद	-11.8367
▁-1	-11.837
माइनाव	-11.837
साबबाय	-11.8394
खोथा	-11.8396
▁मोनजाथारा	-11.8397
▁बांनाय	-11.8397
▁थोलाय	-11.8397
दोत	-11.8399
ge	-11.8401
नर्थ	-11.8402
▁सोलोंदो	-11.841
थाख्रि	-11.8424
▁जोबस्लाब	-11.8431
▁....!	-11.8434
▁लाथ्र	-11.8444
▁आवगायलां	-11.8445
▁गोबाख्रबना	-11.8445
▁नागिरोब्ला	-11.8456
▁गोलैना	-11.847
▁गोरोबलाया	-11.8474
▁रुजुनना	-11.8487
▁गारब्ला	-11.849
▁नांनाया	-11.849
गारासै	-11.8496
▁साबखां	-11.8501
▁गोलो	-11.8502
तिक	-11.8504
x	-11.8505
▁नाजाबाव	-11.8512
▁फैफिननाय	-11.8519
तेल	-11.852
ंगनबाद	-11.8527
▁नायस	-11.8535
▁सोंहो	-11.8536
▁लालस	-11.8541
िटिक	-11.8543
▁जुनादा	-11.8544
▁थोवा	-11.8549
▁मोनग्रो	-11.8552
हांफ्ला	-11.8569
▁नायाखै	-11.858
uc	-11.8582
▁बंग	-11.8582
फ्ल	-11.8592
स्रायो	-11.8598
▁अब्	-11.86
80	-11.8619
▁दाननिफ्राय	-11.8621
▁खारखोमालां	-11.8621
मिसा	-11.8622
▁स्टेट	-11.8628
हें	-11.8634
▁ग्राम	-11.864
▁मोसाफा	-11.864
▁गोमादों	-11.8645
▁आहम	-11.8646
▁अज	-11.8664
▁जांख्रि	-11.8668
▁गोबाना	-11.8672
गोमो	-11.8672
▁गाहेला	-11.8673
बिलास	-11.8677
▁लोदो	-11.8677
फाखाय	-11.8678
▁आगोल	-11.8678
.......!	-11.8681
▁कल्पनामोन	-11.8682
▁गारलाय	-11.8686
हैयाब्ला	-11.8689
्लाप	-11.8699
▁देब	-11.8702
▁अनदों	-11.8704
हुम	-11.8705
खत	-11.8716
अरुप	-11.8717
सियान	-11.8718
nes	-11.8729
जाथाया	-11.8731
दिंग्रा	-11.8748
सिख्रा	-11.8752
▁रेब	-11.8752
▁सिबनाय	-11.8753
▁मदार	-11.8769
फाला	-11.8772
▁रामा	-11.8772
▁बादे	-11.8776
▁प्रग्रामफोर	-11.8777
र्जां	-11.8783
▁हगारदों	-11.8784
▁सालायनाय	-11.8786
▁अजाय	-11.8786
▁इन्जिनियारि	-11.8787
▁नुजादों	-11.8796
मथै	-11.8808
ty	-11.8809
▁खेवना	-11.8814
▁जावैसो	-11.8817
सिप	-11.8818
जिराय	-11.8819
दुखुवा	-11.8821
reat	-11.8824
▁गेस	-11.8833
▁सन्थाली	-11.8839
▁मुख	-11.8845
▁रुस	-11.8846
▁सान्थौ	-11.8848
▁फिर	-11.8849
खुंग्रि	-11.8851
▁मोखा	-11.8852
जेननायनिफ्राय	-11.8861
आलेया	-11.8863
char	-11.8866
रुब	-11.8866
▁बिफाव	-11.8869
cal	-11.8869
▁आकुसि	-11.8882
▁डेभि	-11.8882
ven	-11.8884
▁आन्द	-11.8888
▁सुट	-11.8891
▁गालि	-11.8892
▁.............	-11.891
लोङा	-11.8911
▁थाहैदो	-11.8915
▁बिजिरसालि	-11.8922
णा	-11.8925
ग्लांनाय	-11.8926
▁बाहाना	-11.8928
फिसाजो	-11.893
दिन्थि	-11.893
▁मिजिंक	-11.8933
ेहेर	-11.8934
4)	-11.8937
फैनांगौ	-11.8939
cial	-11.894
▁गैजा	-11.894
खनसाय	-11.8941
दालाफोर	-11.8943
▁थद	-11.8945
▁गारदो	-11.8946
न्ज	-11.8946
▁आग्लाय	-11.8947
▁(198	-11.8947
▁सरजाब	-11.8948
▁दोनखार	-11.8949
ction	-11.895
▁गसंहै	-11.8951
▁बागा	-11.8953
भेज	-11.8955
मोन्दा	-11.8961
▁मन्थ्र	-11.8962
▁बाहेर	-11.8962
▁इलेकट्र	-11.8963
फ्लांगार	-11.8965
▁फोजाखां	-11.8966
gre	-11.8967
▁देदगा	-11.8968
हामबाय	-11.8971
र्त्त	-11.8971
ज्राव	-11.8974
26	-11.8974
▁फिथाय	-11.8976
दिहुनगा	-11.8976
जारिमिन	-11.8976
जुलियेट	-11.8976
खावयां	-11.8977
www	-11.8977
झ	-11.8978
मैहुर	-11.8978
बैथालि	-11.8978
नंथारगौ	-11.8978
कृष्ण	-11.8978
बिस्कुट	-11.8978
कमेदि	-11.8978
अरडार	-11.8978
बैसागि	-11.8978
मन्जु	-11.8978
फोसाव	-11.8978
फानलु	-11.8979
बारहुंखा	-11.8979
मंगल	-11.8979
सावथाल	-11.8979
हामफे	-11.8979
ऊ	-11.8979
बिखुं	-11.8979
गोबारै	-11.8979
गाम्बारि	-11.8979
गैयि	-11.8979
बिलिफां	-11.8979
फोलेर	-11.8979
गोरोन्थि	-11.8979
बेदद	-11.8979
बांगाल	-11.8979
2008	-11.8979
महाराजा	-11.8979
बिबौ	-11.8979
गोजोनथों	-11.8979
धोनि	-11.8979
आयं	-11.8979
गयथिखौ	-11.898
अरजाया	-11.898
जार्ला	-11.8981
हारसिं	-11.8982
बेनिखायनो	-11.8982
खामानिखौ	-11.8982
फैमाल	-11.8982
एसेबां	-11.8982
अनथाइ	-11.8982
▁कैलास	-11.8982
बिफं	-11.8983
गोदाय	-11.8984
सिफाय	-11.8984
▁गसाथि	-11.8985
▁गावबुढ़ा	-11.8985
हाबदों	-11.8985
लांखार	-11.8987
होयासै	-11.8987
गेदेर	-11.8987
▁लक्षीमपुर	-11.8988
धे	-11.8988
जाहार	-11.8989
▁गिला	-11.899
दयाराम	-11.899
अभि	-11.8992
माबाफोर	-11.8992
जिराद	-11.8993
फोदो	-11.8993
▁स्टेज	-11.8993
जाम्बा	-11.8994
▁अनारी	-11.8995
▁गिसिखा	-11.8995
▁टेक्स	-11.8996
▁थाफ	-11.8996
बोहैथि	-11.8997
बेदर	-11.8998
▁बैसाग	-11.8999
बुङै	-11.9
▁लाब	-11.9
क्त	-11.9001
▁मिलिटार	-11.9002
▁थाफाव	-11.9002
माष्टार	-11.9003
सानस्रि	-11.9004
फाख्रि	-11.9004
▁po	-11.9004
बुदां	-11.9004
ture	-11.9004
बेसेबा	-11.9004
▁नायगिदि	-11.9005
निमाहा	-11.9006
जासुला	-11.9006
गस्ला	-11.9006
▁सेक्सपिय	-11.9008
▁गुबु	-11.9008
सुखु	-11.901
▁गिजि	-11.901
स्रोद	-11.901
▁थासान्दि	-11.9011
▁नोरखो	-11.9011
बोरसि	-11.9013
▁बुंखांना	-11.9013
▁बियाद	-11.9014
टलनि	-11.9014
▁साबायख	-11.9014
▁इउटिलिटि	-11.9016
▁मोनामो	-11.9016
▁संग्राय	-11.9017
▁सानहर	-11.9018
▁नुफेराखै	-11.9019
▁लिस्ट	-11.9019
ग्लेम	-11.9019
ायजामा	-11.902
▁king	-11.902
ंग्री	-11.902
▁द्राइभ	-11.9021
ification	-11.9021
▁मन्त्र	-11.9021
▁सुबुरुन	-11.9021
lf	-11.9021
▁दुंबुर	-11.9021
lect	-11.9022
▁गोद्	-11.9022
ख्रिं	-11.9022
ज्वौ	-11.9022
▁सेकेण्ड	-11.9022
हादर	-11.9022
तन्त्र	-11.9023
▁पइन्ट	-11.9023
▁रिनदाव	-11.9023
_	-11.9023
field	-11.9023
▁Play	-11.9023
▁एड्रेस	-11.9023
▁कमिउनि	-11.9023
▁खापसारा	-11.9023
▁दमयन्ती	-11.9023
▁पन्जिका	-11.9023
▁प्रिन्सिपाल	-11.9023
▁फ्लुर	-11.9023
▁भंगि	-11.9023
▁मिरजाहि	-11.9023
▁मोफ्लामनाय	-11.9023
▁समाजतन्त्रबाद	-11.9023
▁साइबेरिया	-11.9023
▁हेमब्रम	-11.9023
Adjective	-11.9023
Comm	-11.9023
Derived	-11.9023
K	-11.9023
fix	-11.9023
इज्जोत	-11.9023
क्रराझार	-11.9023
ज्लित	-11.9023
बजेक्ट	-11.9023
यीशु	-11.9023
▁***********	-11.9023
▁drama	-11.9023
▁well	-11.9023
▁अधोरोम	-11.9023
▁आजेखान्थि	-11.9023
▁आदुंगारी	-11.9023
▁आफगानिस्तान	-11.9023
▁आब्दुल	-11.9023
▁आमोखिया	-11.9023
▁इचननुपी	-11.9023
▁इन्द्रप्रभा	-11.9023
▁उदयासल	-11.9023
▁एक्सिडेन्ट	-11.9023
▁ओन्सोल	-11.9023
▁कनसार्ट	-11.9023
▁कमफिटिसन	-11.9023
▁कलिकाता	-11.9023
▁कवार्टार	-11.9023
▁कृष्णचन्द्र	-11.9023
▁गाम्बारी	-11.9023
▁गुर्लाब	-11.9023
▁गेरियट	-11.9023
▁गोहैलो	-11.9023
▁घाब्राय	-11.9023
▁टास्कबार	-11.9023
▁ट्रेजेडि	-11.9023
▁ट्रेन्सपर्ट	-11.9023
▁ढालिगाँव	-11.9023
▁तालुकदार	-11.9023
▁दाफोथाय	-11.9023
▁धनबोर	-11.9023
▁नाइटिंगेल	-11.9023
▁नेटवर्क	-11.9023
▁नोमबाजै	-11.9023
▁नोमबै	-11.9023
▁पण्डित	-11.9023
▁पलेनियास	-11.9023
▁पारलियामेन्ट	-11.9023
▁पेइन्ट	-11.9023
▁पेकेजेज	-11.9023
▁पेन्चन	-11.9023
▁फिफ्टि	-11.9023
▁बीरस्रन	-11.9023
▁बृहस्पतिबार	-11.9023
▁बेक्टेरिया	-11.9023
▁बेण्डपार्टि	-11.9023
▁बेन्देज	-11.9023
▁बेन्दोङाव	-11.9023
▁बोहैग्लायो	-11.9023
▁भाइजान	-11.9023
▁महकुमानि	-11.9023
▁मुसलिम	-11.9023
▁मैरालिखौ	-11.9023
▁रहस्य	-11.9023
▁राजउलाफाद	-11.9023
▁लक्ष्मि	-11.9023
▁लाउदांगि	-11.9023
▁लेजिसलेट	-11.9023
▁शशांक	-11.9023
▁शिबसागर	-11.9023
▁श्वाहरु	-11.9023
▁सम्पति	-11.9023
▁सम्बुधन	-11.9023
▁सित्रांफा	-11.9023
▁सिसटेम	-11.9023
▁सेन्डेल	-11.9023
▁स्भेटलेना	-11.9023
▁हज्रिख्राव	-11.9023
▁हेडक्लार्क	-11.9023
▁हेल्पारफोर	-11.9023
▁होलोखो	-11.9023
▁अन्नाइ	-11.9023
▁आदुमब्रा	-11.9023
▁आनदाज	-11.9023
▁आलमिरा	-11.9023
▁कसुगाव	-11.9023
▁खाख्लुबना	-11.9023
▁गोबौ	-11.9023
▁गोलोन्दाङा	-11.9023
▁जाराफाग्ला	-11.9023
▁टिउसन	-11.9023
▁टेन्दार	-11.9023
▁ट्रिगार	-11.9023
▁दुलुत	-11.9023
▁पाइप	-11.9023
▁पेश	-11.9023
[...]
