<unk>	0
<s>	0
</s>	0
।	-2.97855
,	-3.81311
नि	-3.9305
ʼ	-3.9412
-	-4.25332
नो	-4.42429
खौ	-4.46884
▁आरो	-4.80239
▁बे	-4.95411
बो	-5.07872
नानै	-5.12423
▁	-5.14928
या	-5.17581
▁"	-5.18775
▁:	-5.23372
ा	-5.26181
▁आं	-5.2686
▁?	-5.32042
जों	-5.4067
▁मा	-5.47996
।"	-5.54039
▁!	-5.6568
ाव	-5.69567
याव	-5.7152
सो	-5.71611
▁(	-5.71866
ल	-5.75089
नाय	-5.75105
▁बियो	-5.77605
▁नों	-5.77671
ना	-5.78085
.	-5.94455
▁नाथाय	-5.9896
निफ्राय	-6.02713
)	-6.04167
मोन	-6.06093
बाय	-6.06863
▁बर	-6.08003
बा	-6.11427
न	-6.11936
▁दं	-6.14759
दों	-6.15497
ब्ला	-6.1662
▁नङा	-6.18785
▁बि	-6.19077
▁?"	-6.21196
▁--"	-6.25081
▁न	-6.25492
▁जायो	-6.26084
▁दा	-6.26314
▁एबा	-6.26614
▁सल	-6.29941
▁बिनि	-6.31165
मा	-6.31259
▁मोजां	-6.33063
वा	-6.33836
▁आंनि	-6.33942
र	-6.35335
▁मोनसे	-6.3784
▁गावनि	-6.37899
▁थाखाय	-6.38194
लाय	-6.38894
:	-6.41143
▁'	-6.42408
▁जा	-6.4291
थ	-6.43113
▁हा	-6.4369
म	-6.44449
▁लोगो	-6.46205
ं	-6.4866
ब	-6.4888
▁जों	-6.48942
ला	-6.49866
▁-	-6.50195
▁लानानै	-6.50541
स	-6.50775
▁उनाव	-6.51144
▁जाबाय	-6.51476
▁गुबुन	-6.52053
▁बादि	-6.55376
▁जादों	-6.56901
▁गैया	-6.57816
आ	-6.61233
'	-6.61343
ै	-6.61914
गोन	-6.62392
फोरा	-6.62621
▁बायदि	-6.63374
फोरखौ	-6.63702
▁ना	-6.64882
ग्रा	-6.6902
द	-6.69201
▁बुङो	-6.71266
▁गोनां	-6.71327
▁जानो	-6.71443
्	-6.72147
▁गोसो	-6.72185
▁ज	-6.73582
ो	-6.73812
▁जेरै	-6.74593
हा	-6.7475
▁सासे	-6.7484
▁मानो	-6.76217
▁थानाय	-6.76829
▁गाव	-6.77478
यै	-6.77668
से	-6.7805
सै	-6.81322
यो	-6.81416
▁सा	-6.821
▁सान	-6.8333
▁दिनै	-6.84243
▁बाथ्रा	-6.84499
सि	-6.84597
▁जानानै	-6.84792
▁जेबो	-6.85076
दि	-6.86041
क	-6.86935
▁नोंनि	-6.86942
▁हागौ	-6.87185
▁ग	-6.87632
खा	-6.87925
▁समाव	-6.88065
▁था	-6.88515
▁मोन	-6.88978
▁दै	-6.89249
रि	-6.89465
दोंमोन	-6.90003
▁हाबा	-6.9033
▁जानाय	-6.90661
फा	-6.91068
▁हाया	-6.919
फोर	-6.9355
ि	-6.94435
ब्लाबो	-6.96053
▁[	-6.9719
▁आ	-6.97397
▁बेखौ	-6.97525
▁बुं	-6.97542
▁बेनि	-6.97853
लै	-6.98299
▁फिसा	-6.99649
ग	-7.01263
▁हो	-7.01539
▁जागोन	-7.01656
▁गोदान	-7.02198
▁आंखौ	-7.03715
▁सि	-7.04438
"	-7.0453
फोरनि	-7.05334
▁खालामनो	-7.05614
▁आदा	-7.06405
रा	-7.06504
▁स	-7.07066
▁गथ	-7.07199
थि	-7.07319
त	-7.07819
य	-7.08472
▁एसे	-7.08899
सा	-7.09041
▁राव	-7.10434
▁गोबां	-7.10632
▁मोनो	-7.10811
वाव	-7.11282
▁ला	-7.11602
जा	-7.11706
▁सायाव	-7.12053
था	-7.12108
फ्रा	-7.1214
▁जौ	-7.1222
ख	-7.13398
▁सोर	-7.15037
▁सम	-7.15057
दा	-7.15403
नायाव	-7.15758
▁थायो	-7.15778
खि	-7.15979
▁)	-7.16379
▁अ	-7.16546
▁खर	-7.17056
▁बा	-7.17263
▁रां	-7.17621
▁मानसि	-7.17723
▁होननानै	-7.17773
ज	-7.17917
▁बै	-7.18165
लि	-7.18693
▁गाज्रि	-7.19
▁थां	-7.19243
▁माबा	-7.19573
▁गेजेराव	-7.19926
▁दे	-7.20292
खो	-7.21113
▁बिसोर	-7.22033
▁बिमा	-7.23992
▁बिखौ	-7.24215
दो	-7.24441
▁खालामनानै	-7.24511
बादि	-7.25818
▁दुखु	-7.25866
▁होन्नानै	-7.26822
नांगौ	-7.27755
▁सु	-7.27941
▁बुंनो	-7.28798
▁बेफोर	-7.29722
▁होनो	-7.29894
--	-7.30032
;	-7.30635
▁ए	-7.30741
▁थै	-7.31998
▁दि	-7.32457
▁जाय	-7.32923
आव	-7.3412
▁खालाम	-7.34325
ट	-7.34578
▁हर	-7.35929
▁जोंनि	-7.36483
▁फै	-7.36559
गा	-7.37715
▁बाथ्राखौ	-7.37755
▁दङ	-7.37875
▁जि	-7.37995
व	-7.3845
इ	-7.40367
नै	-7.40609
▁हायो	-7.4074
▁बुंबाय	-7.41286
सिन	-7.41924
▁होनानै	-7.42495
▁]	-7.42651
नाव	-7.43959
बि	-7.44187
▁सिरि	-7.44706
▁बारा	-7.4544
▁महर	-7.45499
खौनो	-7.46204
▁ख	-7.46558
▁आफा	-7.46801
▁इ	-7.47039
प	-7.47381
▁बार	-7.49523
▁एन	-7.49584
▁बु	-7.49975
▁--	-7.50078
▁जिउ	-7.5072
▁ब	-7.50912
उ	-7.51105
▁होनाय	-7.51877
बे	-7.52458
ङा	-7.52749
▁जाया	-7.52944
▁आइ	-7.53268
▁नामा	-7.54059
▁नाय	-7.54097
▁सोदोब	-7.54115
▁हानाय	-7.54267
▁ओंखाम	-7.5482
▁नोंखौ	-7.55011
नायनि	-7.5698
थार	-7.57944
▁नवाव	-7.58002
नाया	-7.58186
ी	-7.59311
थिं	-7.60367
▁सिगां	-7.6047
▁गल	-7.60985
का	-7.61501
▁थांनानै	-7.61916
सिम	-7.62302
▁अब्ला	-7.62689
▁लामा	-7.62751
▁मोनबाय	-7.628
▁मानसिया	-7.63359
▁फा	-7.63548
गासिनो	-7.63939
▁गा	-7.64354
▁माथो	-7.64399
▁आंहा	-7.64469
थाय	-7.64478
ब्रा	-7.64668
▁क	-7.64981
▁गोरा	-7.65253
▁नोंसोर	-7.65326
▁द	-7.6554
जि	-7.65577
▁नुनानै	-7.65637
▁उन	-7.65714
▁लोगोसे	-7.65854
▁सिङाव	-7.65946
▁दसे	-7.65948
▁फारसे	-7.66663
▁ह	-7.67604
▁होयो	-7.67794
▁बिब्दि	-7.67859
▁म	-7.67915
▁सोरबा	-7.68312
▁थानो	-7.6834
▁नांगौ	-7.68429
▁र	-7.68585
▁मोखां	-7.68682
▁राहा	-7.68818
▁जोनोम	-7.68911
▁मानोना	-7.69521
▁अल	-7.69576
▁गामिनि	-7.69805
▁मोना	-7.70066
▁खाथियाव	-7.70228
▁बेयो	-7.70389
▁से	-7.70515
▁अर	-7.71134
▁गासै	-7.7119
▁बुंनाय	-7.71238
▁थि	-7.71449
हां	-7.71875
▁थाबाय	-7.71902
▁सिं	-7.71982
▁राइजो	-7.73573
▁मुं	-7.74277
हो	-7.74518
▁राजा	-7.75014
▁सुबुं	-7.75414
▁उ	-7.75862
▁माव	-7.75902
▁बयबो	-7.75964
▁मेगन	-7.7648
े	-7.77124
खाय	-7.77345
▁आखु	-7.77402
▁माखासे	-7.78245
▁ओंखार	-7.78271
सु	-7.79052
▁गोहो	-7.79901
ड	-7.80104
खौबो	-7.80333
▁थांनाय	-7.80574
▁नु	-7.81121
▁हिन्जाव	-7.81199
दे	-7.81517
▁खा	-7.81539
फ	-7.81634
▁गंसे	-7.8167
▁नाङा	-7.81772
▁नुनो	-7.81932
▁गुबै	-7.82655
▁मोननाय	-7.84063
▁मोननै	-7.84167
▁थु	-7.84737
▁गाहाय	-7.85098
मि	-7.85659
▁लानो	-7.85989
▁बो	-7.86158
▁गोजौ	-7.86283
▁जाखो	-7.8634
▁रावबो	-7.86398
▁हौवा	-7.86667
है	-7.87153
मानि	-7.87447
▁सानो	-7.88425
▁जे	-7.88581
▁आर	-7.88618
▁आलेया	-7.89477
ु	-7.89518
▁बिसोरनि	-7.89541
▁दोन	-7.8994
▁खामानि	-7.90077
▁नि	-7.9012
▁नोंथां	-7.90361
▁होबाय	-7.90388
ए	-7.90462
ह	-7.90797
▁गोबाव	-7.90798
▁जो	-7.91196
▁थाङो	-7.91312
▁गोसोआव	-7.91524
▁हे	-7.9209
▁जायगा	-7.92351
▁लानाय	-7.92515
]	-7.92772
▁मान	-7.92853
s	-7.92984
▁आखाइ	-7.93219
▁लासै	-7.93554
आं	-7.9377
अ	-7.94015
जानाय	-7.941
▁सेंग्रा	-7.94103
▁जोबोद	-7.94308
याबो	-7.94581
▁साहा	-7.9459
▁महाराजा	-7.94685
▁गासिबो	-7.94769
▁सिख्ला	-7.95516
▁मोसा	-7.95579
▁नै	-7.96089
▁!"	-7.96096
▁बिलाइ	-7.96294
▁बोसोर	-7.96543
▁खौरां	-7.96579
▁ल	-7.96865
▁लायो	-7.97192
▁गारां	-7.97699
▁बिखा	-7.97899
टि	-7.98318
▁खार	-7.9892
नांगोन	-7.99635
▁बिदि	-7.99779
▁गिबि	-7.99982
▁बेखौनो	-8.0012
▁मालाय	-8.00329
▁बुंदों	-8.00614
▁आबौ	-8.00655
▁हाब	-8.00829
▁नां	-8.00907
ारि	-8.01281
▁बेनो	-8.01676
▁समाय	-8.01771
▁एम	-8.01847
ानो	-8.02414
▁सानै	-8.02526
▁जादोंमोन	-8.02578
▁सो	-8.02638
फोराव	-8.02968
▁मानसिनि	-8.03061
▁जेब्ला	-8.03295
▁थ	-8.03508
थे	-8.04695
लु	-8.04875
▁मोदै	-8.05286
▁थार	-8.05298
▁फैदों	-8.05386
बाव	-8.05648
▁गैयै	-8.05759
▁गासैबो	-8.06081
थो	-8.06122
▁गार	-8.0645
▁सानसे	-8.06604
▁जु	-8.06811
▁हांखो	-8.07179
▁थेवबो	-8.07401
▁मिनि	-8.0768
▁दाय	-8.07889
▁जानांगौ	-8.07975
▁फिन	-8.08354
▁बादल	-8.08399
▁दाबो	-8.08489
▁समावनो	-8.08622
गो	-8.08795
▁लिर	-8.08804
▁सिगाङाव	-8.08817
▁बिबार	-8.08864
▁खालामो	-8.08914
▁गेजेरजों	-8.08947
▁नङाब्ला	-8.09501
▁सुंद	-8.09605
▁बिहा	-8.09763
▁गेजेर	-8.09924
▁खोमा	-8.10537
▁गोलाव	-8.10587
▁हम	-8.11093
▁गाब	-8.11134
▁दन्दा	-8.11178
▁रंजा	-8.11703
▁बांसिन	-8.11728
▁थांनो	-8.11771
▁आखायाव	-8.1183
▁गु	-8.11862
नायसै	-8.1193
फै	-8.12139
▁मोनगोन	-8.12141
▁जोंथिया	-8.12227
▁फावथाइ	-8.12387
▁सेप्तेम्बर	-8.12422
▁बाय	-8.12728
▁फराय	-8.12744
▁गोसोखौ	-8.12756
▁बिनानाव	-8.12892
▁महरै	-8.13112
▁दान	-8.1339
▁बेसेबा	-8.13458
▁बिसि	-8.13481
रे	-8.13607
▁बाहागो	-8.13615
▁खालामनाय	-8.1377
▁लु	-8.14579
▁बेसे	-8.15088
▁बिदा	-8.15229
हर	-8.15429
▁सों	-8.15472
▁पि	-8.156
▁आंबो	-8.15846
▁जेब्लाबो	-8.1594
स्रि	-8.15988
▁गावखौ	-8.16216
▁नोंथाङा	-8.1635
न्दा	-8.16427
▁खिन्था	-8.1656
बु	-8.16829
▁लिरनाय	-8.16879
▁फैनानै	-8.17044
▁जिउनि	-8.17081
▁दानो	-8.17236
यानो	-8.17414
▁नायनानै	-8.17424
▁बिजाब	-8.17437
▁मोसौ	-8.17488
▁माबोरै	-8.17495
▁नोजोर	-8.17578
▁हागोन	-8.17607
▁मे	-8.1762
लाङो	-8.17659
▁सार	-8.17855
▁हि	-8.17947
...	-8.18214
▁फाव	-8.18228
▁फैयो	-8.18309
▁बिफा	-8.18654
▁दिन्थि	-8.19021
खां	-8.19162
▁एसेबां	-8.19313
▁फ	-8.19325
▁तुलाराम	-8.19354
▁आनारी	-8.19366
ले	-8.19539
मु	-8.19805
लांबाय	-8.19931
▁बुंनानै	-8.20078
▁पुलिस	-8.20163
गार	-8.20194
▁दंमोन	-8.20362
▁होदों	-8.20835
▁सानबाय	-8.20859
दै	-8.20938
▁मोजाङै	-8.21093
▁लां	-8.21229
▁देहा	-8.21306
थाव	-8.21777
▁नायजाब	-8.21988
▁गोजोन	-8.2199
सार	-8.22198
▁गावनो	-8.22446
▁रावखौ	-8.22536
नायखौ	-8.22628
ाबो	-8.22747
▁मलेना	-8.22921
▁बेनिखायनो	-8.22971
▁गोसोनि	-8.22971
लां	-8.23069
▁राय	-8.23341
▁सोमबोर	-8.2342
▁बादिब्ला	-8.23424
▁खि	-8.2359
▁नंगौ	-8.23726
▁हमबाय	-8.24588
▁हारि	-8.24589
▁नायनो	-8.24725
▁फिसाजो	-8.249
▁लाबाय	-8.25308
▁बिखायाव	-8.25424
▁दमन	-8.25424
▁गांसे	-8.25515
▁लेखा	-8.26204
▁मि	-8.26273
▁अजया	-8.26453
▁गोग्लै	-8.26668
▁गामि	-8.2677
▁गोरोन्थि	-8.26772
▁प्र	-8.27085
▁गिदिर	-8.27432
▁हारिनि	-8.27465
गौ	-8.27467
▁बेबादि	-8.27493
▁हाज	-8.275
▁जायगायाव	-8.27525
खालि	-8.2781
▁बड़	-8.28079
▁खाबु	-8.28118
o	-8.28208
▁हगार	-8.28358
री	-8.28682
नोसै	-8.28842
गिरि	-8.29014
▁बेयाव	-8.29146
▁सिखार	-8.29149
e	-8.29344
फु	-8.29375
▁गाहाइ	-8.29394
▁मोननो	-8.30079
फोरजों	-8.3027
▁मु	-8.30346
▁बिदिब्ला	-8.30394
▁सेर	-8.30437
सन	-8.30566
▁इराग्दाव	-8.30728
▁हमनानै	-8.30789
▁माबार	-8.31733
▁बेनिफ्राय	-8.31994
▁खु	-8.32025
▁बाहायनाय	-8.32178
▁थाखो	-8.32222
▁मानि	-8.32351
▁होनना	-8.3246
▁थांखि	-8.326
हु	-8.328
▁खालि	-8.32827
▁लों	-8.33003
▁मिथिनो	-8.33102
▁सान्थ्रि	-8.33208
▁गोसोआ	-8.33249
ता	-8.33331
खु	-8.33365
▁बाथ्राया	-8.33476
▁मदद	-8.33562
▁दाव	-8.33785
▁आंनो	-8.33928
▁नुयो	-8.33958
हाय	-8.3398
▁बोरै	-8.33998
▁मोन्नाय	-8.34108
▁दुर्जाङा	-8.34181
▁सुलुंआव	-8.34186
▁आथोन	-8.34904
▁मिथिगौ	-8.35006
▁गाहाम	-8.35165
▁जिंगा	-8.35366
▁मोनदों	-8.35393
▁बहा	-8.35531
ग्रो	-8.35555
▁हमनो	-8.3568
▁खोना	-8.35763
▁बां	-8.3581
▁मावनो	-8.35842
▁उन्दु	-8.36142
▁मोखाङाव	-8.36327
▁जोबोर	-8.36385
▁जेन	-8.36402
▁रागा	-8.3665
▁सोलाय	-8.36741
▁जोहोलाव	-8.36829
बां	-8.3689
▁थाव	-8.36985
▁गोख्रों	-8.37023
दां	-8.37211
▁कम्पिउटार	-8.37266
▁अन	-8.37267
+	-8.37746
स्	-8.37752
नों	-8.37805
लिया	-8.37842
▁फंबाय	-8.37891
▁हां	-8.37902
ाखै	-8.38167
▁हायै	-8.38249
ब्लानो	-8.38485
▁मुवा	-8.38826
▁गो	-8.38894
▁हाग्रा	-8.39056
▁हेंथा	-8.39096
▁दावहा	-8.39331
▁थुनलाइ	-8.39502
▁खोमसि	-8.3955
▁जायाखै	-8.39599
▁आङो	-8.40027
▁हेफाजाब	-8.40108
▁आय	-8.40389
t	-8.40532
फिनो	-8.40691
▁हायाखिसै	-8.40795
▁लाबो	-8.41043
▁बिमाया	-8.41107
▁हु	-8.41343
▁धोरोम	-8.41627
गु	-8.41743
▁लाजि	-8.41775
यारि	-8.42132
▁मन्थ्रि	-8.42212
▁आगान	-8.42219
▁सोङो	-8.42229
....	-8.42305
▁अमा	-8.42438
▁जाथाइ	-8.42576
▁गोदो	-8.42616
▁माब्लाबा	-8.42813
▁फैबाय	-8.43197
फ्ला	-8.43237
▁साननानै	-8.43555
▁जाब्ला	-8.43646
▁फोरमायनाय	-8.43686
▁खालामबाय	-8.43777
▁खोथा	-8.4391
▁खालामदों	-8.44007
▁ने	-8.44328
ङै	-8.44404
▁आखल	-8.44426
y	-8.44439
▁मोदोम	-8.44707
▁बेदर	-8.44797
श	-8.4482
▁फैनाय	-8.44979
▁मिथिया	-8.44982
▁ड	-8.45053
खांनानै	-8.4529
▁अराय	-8.45422
थां	-8.45783
हैयो	-8.45977
▁जिराय	-8.46098
▁मिथि	-8.46119
▁माइ	-8.46356
▁खुगा	-8.46391
▁के	-8.46428
▁इसे	-8.46471
▁साजा	-8.46668
रु	-8.46765
▁हाबफैयो	-8.46952
▁शान्तिया	-8.471
▁...	-8.47236
▁फिसाज्ला	-8.47345
▁आथिं	-8.47548
▁बिफां	-8.47579
▁बिलिफाङा	-8.47659
▁सानैबो	-8.47904
▁मलेन	-8.4816
▁गुदि	-8.48206
▁दिहुन	-8.48295
▁रोखा	-8.48491
▁उन्दै	-8.48594
स्रा	-8.48746
▁सोमोन्दो	-8.48941
▁फे	-8.49108
▁फु	-8.49224
जे	-8.49241
फैयो	-8.49255
▁बेफोरखौ	-8.49357
▁बाव	-8.49376
▁हादर	-8.49509
▁ब्रह्म	-8.49545
थों	-8.49613
याखै	-8.49753
द्	-8.49767
▁डि	-8.49964
होनो	-8.50037
लाइ	-8.50359
▁उदै	-8.50621
▁रे	-8.50729
▁बबे	-8.50754
▁फारिया	-8.50891
/	-8.51153
▁रुमाव	-8.5124
▁गोथौ	-8.51365
▁जाथाय	-8.51484
▁मै	-8.51511
▁साव	-8.51559
मार	-8.51664
च	-8.51865
▁लाय	-8.52108
▁आफादनि	-8.52356
जोब	-8.52423
▁मुंमा	-8.52436
▁हायाखै	-8.5247
▁बाहाय	-8.52524
▁मेथाइ	-8.52672
▁थांबाय	-8.52703
नां	-8.52796
▁ददेरेया	-8.52886
▁खाथि	-8.53085
▁नाजा	-8.53142
▁थाब	-8.53379
राम	-8.5339
▁कल्पना	-8.53638
▁दाजाबदा	-8.53736
लांनाय	-8.5379
▁जेंना	-8.53902
▁खन	-8.53994
▁जिल्ला	-8.54316
यावनो	-8.54356
▁साना	-8.54416
थाम	-8.54663
वारी	-8.54681
▁डा	-8.548
▁दाउ	-8.54878
▁गय	-8.5496
▁नोंनो	-8.54986
▁आव	-8.55001
▁रोदा	-8.55171
▁गोथार	-8.55483
▁मिहिरा	-8.55613
▁एस	-8.5583
▁खोनानानै	-8.55862
2	-8.56009
▁उदां	-8.56038
राव	-8.56044
▁सोम	-8.5611
▁सावगारि	-8.56171
निफ्रायनो	-8.56564
फिन	-8.56696
▁लाइजाम	-8.56712
जु	-8.56854
▁बादला	-8.57027
ङो	-8.5714
▁थियेटार	-8.57479
▁प	-8.57482
ष्ट	-8.57562
थाइ	-8.57646
न्द	-8.57647
थु	-8.57697
▁बाबु	-8.57704
▁गारि	-8.57891
ङाव	-8.58039
▁फावथाइनि	-8.58172
▁सोंबाय	-8.58173
▁गाबोन	-8.58186
▁अनगायैबो	-8.58204
▁दिन	-8.58444
लायनाय	-8.58565
.....	-8.58609
▁आफादगिरि	-8.58716
▁बिमानि	-8.58749
▁हादों	-8.58807
थायाव	-8.58918
▁आसाम	-8.58985
▁गोरोब	-8.59288
मोना	-8.59318
▁आनाराम	-8.59524
▁बेखेवफा	-8.59621
▁होमब्ला	-8.59788
▁सिनाय	-8.59795
a	-8.60101
▁दयाराम	-8.60471
▁बोराय	-8.6072
ली	-8.60727
ग्रि	-8.61007
खोमा	-8.61337
▁बेसेबां	-8.61338
▁साख्रि	-8.61448
▁गि	-8.61449
▁थाखायनो	-8.61534
▁दिन्थिनाय	-8.61536
▁लामायाव	-8.6155
हि	-8.6161
▁सं	-8.61648
।)	-8.61674
▁बिथां	-8.61969
▁खोनासं	-8.62044
▁रैखा	-8.62094
देर	-8.62132
▁रोखोमनि	-8.62158
जो	-8.62304
▁गम्भीर	-8.62309
▁खोमदोन	-8.62542
▁जोब	-8.62595
▁बोलो	-8.62678
▁गोमा	-8.63
▁सेराव	-8.63035
▁दाहा	-8.63196
▁बिजिर	-8.63514
▁आब	-8.63763
खानाय	-8.63801
▁फरायसा	-8.63904
▁थागोन	-8.63989
▁आलेखौ	-8.64164
▁गिदिं	-8.64251
▁जै	-8.64268
बावनो	-8.64398
बोदों	-8.64411
▁जेराव	-8.64541
▁एफा	-8.64824
▁लादों	-8.64831
▁नागिर	-8.65003
स्ट	-8.65091
▁आसि	-8.65119
▁खोथाखौ	-8.65201
सिगोन	-8.65362
▁सौ	-8.65531
▁बाजै	-8.6557
▁बिलाय	-8.65717
▁बिब्दिनो	-8.65777
▁दानाय	-8.65788
▁ब्रा	-8.65829
▁बाइदि	-8.66113
▁अखा	-8.66211
खाङो	-8.66382
i	-8.66446
▁का	-8.6659
▁अननाय	-8.66609
▁नोंहा	-8.6665
▁है	-8.66955
r	-8.67037
ति	-8.67041
▁मुलि	-8.67077
▁सहेन	-8.67112
▁नं	-8.6713
▁नंखाय	-8.67242
▁जानायनि	-8.67261
▁रायलाय	-8.67271
लायो	-8.67378
..	-8.67394
गाव	-8.67441
▁मैया	-8.67591
▁खैफोद	-8.67749
▁बिर	-8.67788
▁बबाव	-8.67917
▁गान	-8.68023
▁गोरों	-8.68065
▁सिमां	-8.68106
▁नोजोरथाव	-8.68111
▁खेबसे	-8.68137
▁बेलस्रि	-8.68294
▁''	-8.68484
▁मानसिखौ	-8.68743
▁फारि	-8.68928
▁बिथांनि	-8.69111
▁दानिया	-8.69365
▁बिबान	-8.69404
▁साननाय	-8.69424
▁फैनो	-8.69499
▁हराव	-8.69763
▁नागा	-8.69998
▁ओंखारलाङो	-8.70094
▁बिजौ	-8.70153
सिं	-8.70172
▁गोजानाव	-8.70288
▁आंगो	-8.7029
▁नखर	-8.70295
▁मासि	-8.70308
▁फोरमान	-8.70314
बोला	-8.70316
▁आयदा	-8.70321
▁रि	-8.70421
▁माने	-8.70433
दु	-8.70455
▁माहाजोन	-8.7055
▁फान	-8.70561
▁चि	-8.70701
▁साला	-8.70897
▁गोबा	-8.70947
जोंनो	-8.71012
▁कल्पनाया	-8.71087
▁रोङा	-8.71157
▁हाबाफारि	-8.71168
पि	-8.71168
रो	-8.71292
▁5	-8.71526
▁फोरमायदों	-8.71535
▁गुवाहाटी	-8.71712
▁सिन	-8.71796
।'	-8.71849
ार	-8.71977
▁बिसोरखौ	-8.72023
मो	-8.72158
फुं	-8.72373
हे	-8.72845
▁हिनजाव	-8.72901
▁आनजाद	-8.73078
▁बिहामजो	-8.73106
▁मेहेरसिं	-8.73109
▁गाखो	-8.73234
▁फोरमाय	-8.73283
▁जनानै	-8.7329
▁गसं	-8.73296
▁लुबैयो	-8.73303
▁दो	-8.73394
▁खान्थि	-8.73621
▁आफाद	-8.73633
नादि	-8.73937
हरो	-8.74173
▁गेदेर	-8.74249
▁औ	-8.74416
▁थाङा	-8.74442
औ	-8.74596
राय	-8.74628
▁देंखो	-8.74641
जोबो	-8.74717
▁आलासि	-8.74729
▁माहाजोना	-8.74747
▁जिउखौ	-8.74893
▁2	-8.74897
ेन	-8.7519
▁राइजोनि	-8.75233
▁थो	-8.75286
▁मन्जुवा	-8.75314
▁मावनाय	-8.75359
▁सान्नानै	-8.7542
थिया	-8.75465
▁बिदिनो	-8.75492
बावो	-8.75677
▁रावनि	-8.76085
▁बोराया	-8.76157
▁मुङा	-8.7625
▁गुमै	-8.7629
▁मुस्रि	-8.76369
▁जाग्रा	-8.76408
▁बिनो	-8.7658
▁दौ	-8.76592
▁आलाइस्रि	-8.76607
▁दु	-8.7663
▁रुम	-8.76648
▁थांगोन	-8.76869
▁बुथार	-8.76944
▁फि	-8.76956
▁दाम	-8.77085
जाब	-8.7715
▁बेवहाय	-8.77221
▁गेले	-8.77322
▁दान्दिसे	-8.77329
▁आगै	-8.77412
▁टि	-8.77417
▁खाव	-8.77496
▁बिसोरो	-8.77858
▁देनानै	-8.78003
▁आलाइया	-8.78044
▁रावाव	-8.78231
▁समाज	-8.78301
▁10	-8.78412
▁खायसे	-8.78477
▁हाजार	-8.78498
▁हांमा	-8.78978
▁फिथाइ	-8.79498
▁फाग्ला	-8.79507
▁रा	-8.79682
▁रैखाथि	-8.79736
▁रों	-8.79954
रिया	-8.80053
▁नायहर	-8.80055
▁बाजि	-8.80058
▁सावराय	-8.80115
▁माब्ला	-8.80308
मे	-8.80324
▁रमा	-8.8037
▁बायदिसिना	-8.80593
▁फावथिना	-8.80874
▁सुखु	-8.80875
▁गोजाम	-8.8103
▁हाबनानै	-8.81107
▁मोदोमाव	-8.81148
▁रान	-8.81288
हाब	-8.81515
▁गोब्राब	-8.81525
▁खेब	-8.81634
▁of	-8.81708
▁बिथा	-8.81729
n	-8.81765
▁गोजा	-8.81831
हैबाय	-8.81833
▁आसामनि	-8.81889
▁दिन्थिग्रा	-8.81939
▁फैगौ	-8.82097
▁बारग	-8.82184
▁एल	-8.82264
पा	-8.82282
▁थानानै	-8.82311
▁खहा	-8.82326
दाव	-8.8238
▁बोहैथि	-8.82428
▁गोसोखां	-8.82538
▁जोंहा	-8.82593
निख्रुइ	-8.82723
▁आयै	-8.82746
▁हिसाबै	-8.82886
बार	-8.82896
▁खलथा	-8.82909
▁खें	-8.82969
▁खनसे	-8.82992
माव	-8.83022
▁:-	-8.83215
▁मेब्ला	-8.83277
=	-8.83408
▁लाखि	-8.83437
▁हाबाखौ	-8.83706
▁नायबाय	-8.83706
▁थाखोनि	-8.83773
मै	-8.8395
▁हाजो	-8.8399
▁मालायनि	-8.83997
▁बिथाङा	-8.84043
▁साइकेल	-8.84108
▁!!	-8.84271
▁मिथिबाय	-8.84315
▁रंजानाय	-8.84322
▁बड	-8.8454
1	-8.84657
l	-8.84867
▁बिखाया	-8.8491
▁सांग्रां	-8.84913
▁जायखौ	-8.84951
िं	-8.85081
▁थेलेफा	-8.85147
▁सान्दो	-8.8521
मानो	-8.85226
▁अजिता	-8.85447
▁थांनोसै	-8.85519
▁नोंलाय	-8.85572
▁मानसिफ्रा	-8.85579
▁एरै	-8.85591
टा	-8.85857
▁गुदुं	-8.85897
▁नुबाय	-8.8591
▁मेगनाव	-8.86243
▁सोमोन्दै	-8.8632
▁लाख	-8.8632
▁सै	-8.86337
▁सुथुर	-8.86353
▁बागै	-8.86387
▁समनि	-8.864
▁नागार	-8.86492
▁सैमा	-8.86878
▁साफा	-8.86958
स्रां	-8.8698
होनानै	-8.8698
▁रावजों	-8.87017
सोर	-8.87054
▁गामियाव	-8.87157
▁होगोन	-8.87165
▁गोसोम	-8.87249
▁बोथोर	-8.87268
▁मानसिफोरा	-8.87431
▁मिनिस्लु	-8.87511
▁गैलिया	-8.87525
▁गुवार	-8.87528
जेन	-8.87651
▁मुंख	-8.87743
बोनाय	-8.87753
▁हाबो	-8.87755
▁बेसेन	-8.8794
▁आरोबाव	-8.88178
जासे	-8.88239
▁इनाय	-8.88244
▁समाजनि	-8.8835
कि	-8.88395
▁होनांगौ	-8.88529
▁खन्थाइ	-8.88532
▁दां	-8.88585
▁गाबज्रि	-8.88597
d	-8.88613
▁दासो	-8.88623
▁थासारि	-8.88738
लायबाय	-8.88926
▁गे	-8.88945
जायो	-8.88973
▁मुलुगाव	-8.88995
क्	-8.89097
▁रोजा	-8.89144
गाब	-8.89299
▁मोननानै	-8.89371
ध	-8.89701
▁मिजिं	-8.89838
▁गाहायाव	-8.89874
▁खायफा	-8.89926
लांनो	-8.89965
गौमोन	-8.90172
फि	-8.90183
खर	-8.90298
▁च	-8.90352
▁खालामा	-8.90506
0	-8.90596
मोनहा	-8.906
▁गुन्दा	-8.90671
▁अजय	-8.90775
▁भ	-8.9078
▁मोनफा	-8.90863
▁बावदिया	-8.91002
▁गाबो	-8.91023
▁दुलाराय	-8.91154
दार	-8.91166
▁साबसिन	-8.91192
▁मो	-8.91225
▁आले	-8.9142
जाय	-8.91426
▁लाखिनो	-8.91427
▁अरुना	-8.91674
▁जोंथिनि	-8.91998
▁उनावनो	-8.92001
▁लो	-8.92041
▁समबारु	-8.9216
▁....	-8.9224
डि	-8.92247
▁दिन्थिनो	-8.92351
3	-8.92482
▁C	-8.92572
▁आदै	-8.92591
▁लाइजामखौ	-8.92766
▁बिफानि	-8.92956
▁मीनाराम	-8.93035
▁आलेनि	-8.93056
▁लोंनाय	-8.93113
▁थिक	-8.93201
फिनबाय	-8.93282
ावनो	-8.93547
al	-8.93549
रां	-8.93563
▁खां	-8.93626
▁हाजेव	-8.93665
बानो	-8.93722
▁राजानि	-8.93751
▁आबुं	-8.93752
▁गनाय	-8.93761
▁सानदों	-8.93762
▁मुंनि	-8.9377
▁बिगुर	-8.93777
▁बिष	-8.93845
6	-8.93935
▁सोनानै	-8.9394
▁गावजों	-8.94012
लायनानै	-8.94083
▁बुंनायसै	-8.94247
▁दुर्जां	-8.94274
▁1.	-8.94339
▁मोनहा	-8.94443
▁जेरावबो	-8.94509
▁फोरों	-8.94531
▁ध	-8.94535
▁आलाइस्रिया	-8.94603
▁हाबानि	-8.9463
सान	-8.94797
भ	-8.948
▁थामहिनबा	-8.9494
▁तितागुरि	-8.94941
▁इन्दिस्री	-8.94941
▁नङामोन	-8.95025
▁माइथायाव	-8.95053
▁रुवाथि	-8.95106
4	-8.95113
▁सानस्रि	-8.95175
▁सुर	-8.95207
▁अनाथी	-8.95339
▁नोंथांनि	-8.95365
▁आइजो	-8.95377
▁आबै	-8.95455
▁समायना	-8.9547
लांदों	-8.95621
▁आवगाय	-8.95745
▁बुंदोंमोन	-8.95755
▁हाबाब	-8.95982
▁आखुथाय	-8.96027
▁सुबुंनि	-8.96204
▁सोरजि	-8.96245
▁गोथै	-8.96251
▁दहाय	-8.96324
▁खाना	-8.96368
ण	-8.96403
▁जोंखौ	-8.96557
▁जाखां	-8.96665
......	-8.9679
▁गोसोजों	-8.96858
ज्लाय	-8.96902
▁नाजानाय	-8.97462
▁बान्था	-8.97548
▁एसेबो	-8.97747
▁हाथाइ	-8.97783
▁थौ	-8.97837
▁खालामना	-8.97847
▁आथिखालाव	-8.97854
▁बिदै	-8.97981
थारा	-8.98017
▁the	-8.98024
▁आंजों	-8.98093
▁रामनाथा	-8.98095
▁खाम	-8.9815
th	-8.98152
▁लिं	-8.98191
▁खालामगोन	-8.98224
▁2008	-8.98296
▁थुलुंगा	-8.98435
न्स	-8.98443
▁थाला	-8.98508
▁मासे	-8.98601
▁A	-8.98709
▁सिखाव	-8.98789
▁सोरां	-8.98917
▁जावलिया	-8.98953
▁आदब	-8.98992
▁स्रि	-8.99041
▁थांदो	-8.99156
▁गाय	-8.99393
▁फिसाया	-8.99435
▁खुगायाव	-8.99469
▁कलेज	-8.99478
▁जोबथा	-8.99636
▁बादियै	-8.99645
▁खोनानो	-8.99752
▁होन	-8.99773
▁नुजा	-8.99791
▁दर	-8.99814
▁खौ	-8.99907
बाबो	-8.99975
▁खालाय	-9.00114
▁मन्जुनि	-9.00177
▁जेसेबां	-9.00231
▁मिहिर	-9.00257
▁माय	-9.00475
▁हाय	-9.00532
▁नायहरो	-9.00535
▁थाया	-9.00601
▁बिजि	-9.0067
मोननि	-9.00811
▁देर	-9.01349
▁सोलि	-9.01366
जानो	-9.0142
▁दोननाय	-9.01581
▁मुस्री	-9.01599
▁देरसिन	-9.01649
▁सोलो	-9.01687
▁फाग्लि	-9.01697
▁मोनजा	-9.01837
▁माब्रै	-9.01947
▁2.	-9.02106
फ्राव	-9.02156
▁गुर	-9.02175
▁इउ	-9.02204
▁सासेया	-9.02228
▁अनगायै	-9.02321
नु	-9.02361
▁खाफाल	-9.02508
माया	-9.0258
ख्र	-9.02777
▁गोदै	-9.03021
▁बान	-9.03074
▁बावनो	-9.03113
▁जुनै	-9.03131
▁खुसि	-9.03261
गे	-9.0327
▁मोनथाम	-9.03412
▁थे	-9.03413
▁सिनायथि	-9.0342
▁सोरखौ	-9.03447
▁हारिया	-9.0346
बै	-9.0346
▁ब्रह्मनि	-9.03533
फैदों	-9.037
▁जायोब्ला	-9.03785
▁हादोरनि	-9.03806
ष	-9.03863
फे	-9.04112
▁पा	-9.04114
▁फालांगि	-9.04169
▁फोजोब	-9.04208
▁खामानियाव	-9.04246
▁टेबिल	-9.04376
▁19	-9.04404
▁गारनानै	-9.04539
▁गर	-9.04659
▁रावआव	-9.04849
▁हादरनि	-9.04884
▁बानाय	-9.05233
▁एरैनो	-9.05355
बनानै	-9.05378
▁जायै	-9.0547
नांदों	-9.05486
▁जुलि	-9.0549
▁ले	-9.05506
▁सोरखार	-9.05598
▁नागिरदों	-9.05676
यैनो	-9.0578
▁अब्राम	-9.0581
▁होमबा	-9.05928
▁नायो	-9.05938
खांबाय	-9.05983
थुम	-9.06094
ौ	-9.06098
▁ओजों	-9.0618
▁नांनाय	-9.06405
▁जेरैबो	-9.06438
▁गिनाय	-9.0655
▁फिसौ	-9.06673
▁भारत	-9.0672
▁रागाजों	-9.06904
▁माहाजोननि	-9.07059
साव	-9.07074
▁सानैजों	-9.07076
▁सौफै	-9.07117
▁बबेखानि	-9.07246
▁दावराव	-9.07287
िक	-9.07301
▁हाल	-9.07328
▁हरो	-9.07483
▁दैमा	-9.07609
▁खनसाया	-9.07642
न्थ	-9.07674
▁मख	-9.07732
▁लांनो	-9.07823
▁फोर	-9.07837
▁हान्जा	-9.07949
▁सर	-9.07957
▁उजि	-9.07992
▁बिफाया	-9.08038
▁थैनाय	-9.08134
▁मन	-9.08194
▁आखाइयाव	-9.08424
▁थाइलालि	-9.08572
▁अदेबानि	-9.08708
▁गोथां	-9.08749
▁15	-9.08767
▁लाङो	-9.08774
▁रुपा	-9.08837
▁फज	-9.08868
▁खावलाय	-9.09265
▁दुं	-9.0928
h	-9.09338
खार	-9.09364
▁फरायनाय	-9.09409
▁गां	-9.09577
▁समान	-9.09618
▁लिंहर	-9.09669
खादों	-9.09744
▁रु	-9.09752
थारबाय	-9.09759
▁थांदों	-9.09881
▁बिखानि	-9.10036
▁मुलुगनि	-9.10101
▁नखरनि	-9.10102
▁खामानिखौ	-9.10195
▁सैथो	-9.10238
फायो	-9.10266
बर	-9.10324
साइ	-9.10339
▁हनै	-9.10449
▁दिन्थियो	-9.10465
▁हरनो	-9.1047
▁रायज्लाय	-9.10482
▁दासिमबो	-9.10488
▁हरनि	-9.10583
▁बसुमतारी	-9.10606
▁फैफिन	-9.10628
▁नागिरो	-9.10637
▁मादाव	-9.10753
▁हमो	-9.10795
▁मावग्रा	-9.1087
▁फैगोन	-9.10948
▁गियान	-9.11021
मोनब्ला	-9.1118
▁आल	-9.11269
बोयो	-9.1128
▁बुंगोन	-9.11305
▁साननो	-9.11395
▁लाबोनानै	-9.11419
▁3	-9.1147
▁बेखेव	-9.11504
▁होन्ना	-9.11508
▁गं	-9.11519
▁Window	-9.11704
▁मुंराय	-9.11799
▁गै	-9.11976
▁आलाइ	-9.12035
पुर	-9.12197
होनाय	-9.12234
▁थिङै	-9.12315
▁मलेनखौ	-9.12401
▁नेम	-9.12403
द्राय	-9.12435
▁मावो	-9.12472
▁बोनाय	-9.12676
▁गुन्दाया	-9.12718
▁जायनि	-9.12764
▁अख्रां	-9.1286
▁आथिखाल	-9.12878
▁गाबा	-9.12885
▁आफाया	-9.129
c	-9.12935
▁बुजि	-9.12947
▁त	-9.13008
▁गोख्रै	-9.13026
▁दैखां	-9.13114
▁आंखाल	-9.13266
जाथाव	-9.13296
▁12	-9.13338
▁थादों	-9.13362
▁थानायाव	-9.13392
▁फिसाजोखौ	-9.1341
▁कमाण्ड	-9.13484
▁खेव	-9.13603
▁गले	-9.13697
▁मोनदोंमोन	-9.1383
▁नोंबो	-9.13909
▁9	-9.13927
खे	-9.13966
▁जोंनो	-9.14001
▁मोनै	-9.14126
u	-9.14177
▁गोरलै	-9.14424
▁हरखाब	-9.14507
▁बोर	-9.14559
▁बेरखां	-9.14652
▁फोथाय	-9.1469
▁गुन	-9.14696
जौ	-9.1476
▁बें	-9.1478
▁मानोबा	-9.14788
▁सिस्टेम	-9.14793
▁फिसार्च	-9.14806
▁हानजा	-9.14808
▁गुरै	-9.14857
▁सानराइ	-9.14867
▁दोर्सोन	-9.14872
▁बानु	-9.14923
▁सोदोबनि	-9.14942
▁ओंथि	-9.15089
▁गेब्ला	-9.15103
▁मुगै	-9.15125
▁गोग्लैयो	-9.15171
फिसा	-9.1519
▁खालार	-9.15324
▁लांबाय	-9.15383
थाब	-9.15427
ने	-9.15433
5	-9.15506
▁जोला	-9.15582
▁गसंनानै	-9.15696
▁फाइल	-9.15756
▁खालामनायनि	-9.15797
▁फिसाइ	-9.1585
▁होनायनि	-9.15968
▁थाम	-9.16051
हैनो	-9.16113
▁सोलों	-9.16191
राजा	-9.16198
▁दाहार	-9.16246
p	-9.16247
ब्रै	-9.16346
▁गेट	-9.16362
▁गिदिद	-9.16374
▁सोमावसारनाय	-9.16422
▁फावथायाव	-9.16462
▁हाबाया	-9.16523
▁थांब्ला	-9.16546
▁सहाय	-9.16586
▁1	-9.16615
▁रांखौ	-9.16624
▁हारसिं	-9.16768
▁थुनफावथाइ	-9.16816
फुनाय	-9.16883
▁साम	-9.17004
फ्ले	-9.1702
थारदों	-9.17022
खायो	-9.17058
▁बोरैबा	-9.17061
▁रावा	-9.17177
▁राज	-9.17188
▁हाबाय	-9.17236
फ्राम	-9.17431
▁जालाय	-9.17513
▁लामाजों	-9.17569
▁फोलेर	-9.1768
ख्रि	-9.1773
लाव	-9.17739
▁होदोंमोन	-9.1793
▁अनलाइन	-9.17981
▁गन्थं	-9.17981
▁मुलुग	-9.17986
▁सोरगिदिं	-9.17993
▁बोसोरनि	-9.18018
▁सानसेखालि	-9.1806
▁थादोंमोन	-9.18083
▁हेंथायै	-9.18231
▁बिफाननि	-9.18431
▁सुख	-9.1845
मायाव	-9.18464
खै	-9.18657
▁बेखायनो	-9.18686
▁गैयामोन	-9.18813
▁रामनाथ	-9.1894
खायनो	-9.18991
▁श	-9.19026
>	-9.1904
होयो	-9.19184
▁गोनांथि	-9.19506
र्स	-9.19516
▁दाबि	-9.19556
▁मोनाखै	-9.19599
▁माहारिनि	-9.19669
▁आलो	-9.19747
▁थुनलाइनि	-9.19807
ाइ	-9.19925
on	-9.1995
▁सेंग्राया	-9.20062
g	-9.20088
▁गाबै	-9.20095
▁दिनैसिम	-9.20135
▁फोरोंगिरि	-9.20165
▁थेफेना	-9.20203
▁दरजा	-9.20232
9	-9.20251
▁ओंखारनाय	-9.20475
!	-9.20499
▁गोजां	-9.20569
▁गिनानै	-9.20669
▁बाराय	-9.20707
थिङै	-9.2096
▁गावसोर	-9.21169
▁निमाहा	-9.21274
▁प्रग्राम	-9.21285
▁थोर	-9.21386
▁फट	-9.21588
▁ओ	-9.2166
▁आदाया	-9.21692
▁मोनब्ला	-9.21702
▁अखाफोर	-9.21707
▁हारिखौ	-9.21771
▁सिबाय	-9.2178
▁माइथायनि	-9.2181
▁लांनाय	-9.21818
▁बिदाय	-9.21823
ये	-9.21968
▁थाब्ला	-9.22059
मान	-9.22108
▁बिलिफां	-9.22351
▁फार्से	-9.22372
▁बिबो	-9.22474
नांबाय	-9.22669
▁मुंखौ	-9.2283
▁दंफां	-9.2285
▁निउ	-9.22947
▁ककराझार	-9.22971
▁दोंसे	-9.22975
▁गोदोना	-9.22981
▁बुंहरबाय	-9.23005
▁जारिमिनारि	-9.23017
▁होनब्ला	-9.23071
▁होखार	-9.23072
फेर	-9.23081
▁रिंसार	-9.23106
▁लुबै	-9.23134
र्ट	-9.23188
▁गोजौवाव	-9.23284
or	-9.23412
▁दाहोना	-9.23423
▁सिबि	-9.23437
▁खुलुम	-9.23449
▁जायखि	-9.23477
▁खाफालाव	-9.23512
▁>	-9.23557
सिया	-9.23639
▁नांगोन	-9.23647
▁बिनारामा	-9.23668
▁बिनाराम	-9.23722
▁हय	-9.23798
खांनाय	-9.23855
▁जाथाइनि	-9.23899
▁खो	-9.2392
▁स्रां	-9.24009
▁खम	-9.24012
▁बुरै	-9.24015
▁हरनाय	-9.24039
▁गोमो	-9.24079
▁सान्नाय	-9.24132
▁भा	-9.2414
ेट	-9.2444
▁मोननायनि	-9.2455
थारगोन	-9.24597
▁जाब	-9.24598
▁इंख्रि	-9.24686
▁फेलें	-9.24687
▁जैबोर	-9.24689
is	-9.24692
▁बिजों	-9.24706
▁बादिनो	-9.25074
▁साथाम	-9.25109
▁बैसो	-9.25132
▁कलेजाव	-9.25146
▁4	-9.25254
▁गोलै	-9.25307
▁मलेननि	-9.25388
▁11	-9.25471
गां	-9.25507
▁गथाय	-9.25566
फ्लां	-9.25678
लाम	-9.25719
▁खानानै	-9.25744
▁फंसे	-9.25791
न्थि	-9.25876
नायजों	-9.25881
टार	-9.25991
▁गाननाय	-9.26081
▁खामानिया	-9.26132
▁गोहोम	-9.26239
m	-9.26268
हालागै	-9.26287
फोरनो	-9.26298
▁हारसिङै	-9.26425
▁मटर	-9.26428
▁मैगं	-9.26432
▁20	-9.26447
▁हार्सिङै	-9.26452
▁गाबनाय	-9.26501
▁बाहागोआव	-9.26644
आदा	-9.26872
▁जानायाव	-9.26879
▁थांना	-9.26962
▁कु	-9.2697
▁बाला	-9.2707
▁नार	-9.27227
फाव	-9.2733
▁अजितनि	-9.27346
▁अरुन	-9.27456
▁राइजोफोर	-9.27461
▁टा	-9.27522
▁थर	-9.27533
भि	-9.27599
▁नायगिर	-9.28145
▁मेगननि	-9.28152
▁गोजान	-9.28181
▁बिथोन	-9.28212
▁बन्द	-9.28217
▁लुबैनाय	-9.28224
▁सोनाब	-9.28234
▁नोगोर	-9.28305
▁खुरै	-9.28329
▁रोङै	-9.28334
▁आरति	-9.28346
▁सोंनाय	-9.28393
▁गावबा	-9.28409
▁बिमाखौ	-9.28409
▁बिसार	-9.28417
थाया	-9.2843
नाङा	-9.28495
▁बोरो	-9.28502
▁आन्दा	-9.2854
▁मोन्नानै	-9.28584
▁बुजाय	-9.28951
जोबनो	-9.29045
▁फैया	-9.29148
▁नायहरनानै	-9.292
▁नुनाय	-9.29509
▁बुङा	-9.29523
▁बिहाव	-9.29561
▁होसो	-9.2959
▁दावबाय	-9.29596
▁बेराम	-9.29715
त्	-9.29815
म्	-9.29828
▁राजखान्थि	-9.29853
▁सान्दों	-9.29949
▁जाव	-9.29991
▁खौरांखौ	-9.30012
▁थबेन	-9.30038
▁मोन्नै	-9.30043
▁फुङाव	-9.30054
▁नंलिया	-9.30056
थै	-9.30067
▁ऐ	-9.30068
▁लिरगिरि	-9.30079
▁जाहोन	-9.30157
माय	-9.30199
▁इराग्दावा	-9.30201
केल	-9.30242
▁देहाखौ	-9.30331
हैनाय	-9.30337
▁दंबावो	-9.30385
खिसै	-9.30421
ल्ला	-9.30449
खाबाय	-9.3047
▁औवा	-9.30479
▁माहारि	-9.30498
▁दाखालि	-9.30544
▁हजों	-9.30609
▁मोनथि	-9.30667
▁गेजेरावनो	-9.30716
सं	-9.30753
नी	-9.30999
िया	-9.31035
▁अलका	-9.31062
▁बेदि	-9.31076
▁नैथि	-9.31083
▁थाङोब्ला	-9.31108
▁होननाय	-9.31203
▁लोंनो	-9.31294
दिया	-9.31357
▁हुरा	-9.31508
▁अजयनि	-9.31538
▁सोब	-9.3155
▁बेबादिनो	-9.31607
्ट	-9.31648
▁नुहर	-9.31726
▁राइजोखौ	-9.31814
▁सोरनि	-9.31816
▁स्कुल	-9.31856
▁हावरिया	-9.31865
▁बान्दि	-9.31905
▁गस्ला	-9.31951
▁दानि	-9.3199
स्लाब	-9.32127
▁सोरनिबा	-9.32143
▁सरलाया	-9.32195
▁18	-9.3221
दब	-9.32274
▁आसारि	-9.32307
▁खानाइ	-9.32428
बिफा	-9.32587
।''	-9.32597
लायनो	-9.32618
जागोन	-9.3273
▁रामोन्दा	-9.32779
▁रंजालि	-9.32864
▁सायाराम	-9.329
▁सुजुग्राया	-9.32948
.......	-9.3316
फोराबो	-9.33326
▁राग	-9.33354
्रि	-9.33409
▁आखुनि	-9.3346
द्ला	-9.33465
▁गुसु	-9.33693
▁लोब्बा	-9.33734
▁डिस्क	-9.33752
▁बारि	-9.33796
▁हाबलाङो	-9.33841
▁थब	-9.33846
▁जयो	-9.33976
▁बैसोनि	-9.33981
▁एफ	-9.34069
▁जाहो	-9.34079
▁आयं	-9.34113
▁3.	-9.34293
▁अनारि	-9.34307
▁जानांगोन	-9.34336
▁बिस	-9.34528
खांनायनि	-9.34685
बारी	-9.34696
▁नोंथांमोन	-9.34701
▁जिं	-9.34704
▁बोहै	-9.34814
▁क्र	-9.34826
▁ओरैनो	-9.34827
▁फुंनि	-9.3489
ारी	-9.34954
▁नार्जारी	-9.34994
रै	-9.35058
▁होआ	-9.35093
▁थानायनि	-9.35105
▁जारिमिन	-9.3512
्र	-9.35171
▁बेयावनो	-9.3526
▁सायख	-9.35455
रोम	-9.35501
ग्ला	-9.35514
ननि	-9.35621
▁अपारेटिं	-9.35648
▁जखम	-9.35649
▁मारजित	-9.35653
▁गैयि	-9.35689
लेण्ड	-9.3569
ेल	-9.3572
▁रासिन	-9.35761
▁लादोंमोन	-9.35779
▁काप	-9.35857
▁फोसाव	-9.35911
सुला	-9.35913
ेन्ट	-9.35915
▁मन्जु	-9.35927
▁मिरु	-9.35929
▁दुब	-9.35967
▁मोनलायनाय	-9.36036
फैबाय	-9.36065
यालाय	-9.36096
▁जौगा	-9.36102
▁लि	-9.36191
▁दोननानै	-9.36226
▁नाइ	-9.3629
फानाय	-9.36292
कखौ	-9.36403
ीया	-9.36476
▁थिनहर	-9.36485
थिखौ	-9.36534
▁बोहैथिया	-9.36601
▁गोदोनि	-9.36632
▁हारिमु	-9.36788
▁आफादा	-9.3679
▁जोबो	-9.36889
▁दावगा	-9.37011
▁थिन	-9.37056
▁महरा	-9.37059
▁सालिस	-9.3706
▁हुगार	-9.37095
▁जिरायनानै	-9.37109
▁दिल्ली	-9.37138
▁जोबनाय	-9.37155
▁धोन	-9.37268
ाखिसै	-9.37471
▁लाबोनो	-9.37597
▁गोर्लै	-9.37599
▁मुंदांखा	-9.37599
▁गिलिर	-9.37601
▁मेलेम	-9.37604
▁दुगै	-9.37612
▁बायजो	-9.37669
▁लिरनानै	-9.37759
▁खावसे	-9.3781
▁डज	-9.37951
▁सिंनि	-9.38043
ंगा	-9.3807
▁बबेबा	-9.38165
▁खे	-9.3823
बुं	-9.38383
▁माबाफोर	-9.38474
▁जाथाया	-9.38601
8	-9.3862
▁असे	-9.38623
▁दाननि	-9.38662
▁गाम्बारि	-9.38722
▁गावबुरा	-9.38862
गोनां	-9.39126
चि	-9.39135
▁अन्नाय	-9.39204
▁सना	-9.39221
खौसो	-9.39285
▁थैबाय	-9.394
▁मोन्दों	-9.39475
वार	-9.39479
▁मोखाङा	-9.39532
▁ओंखायनो	-9.39589
▁सिगारेट	-9.39589
▁फादोर	-9.39591
▁मैदेर	-9.39636
▁बेसाद	-9.39699
▁समा	-9.39753
▁कुमार	-9.39823
▁संसाराव	-9.39931
▁6	-9.40034
▁एर	-9.40126
▁मेगना	-9.4026
▁जिवाव	-9.40262
),	-9.40278
जाया	-9.40385
▁फिसाखौ	-9.40417
▁नोंसोरनि	-9.40539
▁जोंथिखौ	-9.40618
▁बेराय	-9.40788
▁आखुवा	-9.40856
ed	-9.40884
▁रज	-9.40922
▁बिनिफ्राय	-9.41157
▁होब्ला	-9.41323
▁गैयाब्ला	-9.41379
छा	-9.41391
▁हायाव	-9.41405
गासे	-9.41471
▁फालो	-9.41507
ग्लि	-9.41519
▁जिनाहारि	-9.41619
▁जिबौ	-9.4163
▁बिगोमा	-9.41696
▁सालि	-9.41823
▁बिसिखौ	-9.41827
re	-9.41931
▁मोदाइ	-9.41935
▁नागिरनाय	-9.41958
▁नांनानै	-9.41972
▁फोरजा	-9.42013
▁सानदोंमोन	-9.42053
▁रन्जन	-9.42067
▁बोरसि	-9.4208
▁हाखु	-9.42085
▁बराय	-9.42164
▁फैदो	-9.42191
▁आंलाय	-9.42272
▁खोनाबाय	-9.42279
▁थुंग्रि	-9.42301
दाय	-9.42323
▁लाना	-9.42358
▁आनारीया	-9.4237
स्लाय	-9.42387
▁जालांबाय	-9.42406
▁बाहायनो	-9.4244
हाबो	-9.42441
▁ओंखारलां	-9.42462
▁एक	-9.42491
▁खुगानिफ्राय	-9.42492
▁नुवा	-9.42507
▁बेल	-9.42613
▁लं	-9.42695
▁गोजोननाय	-9.42799
▁माब्लाबानो	-9.42828
▁फोथायनाय	-9.42868
▁हाबायाव	-9.42869
▁फिसानि	-9.42909
▁भि	-9.4308
जित	-9.43194
▁खाजा	-9.43245
थौ	-9.4332
▁थाइ	-9.43331
▁घ	-9.43375
▁राम	-9.43499
▁जानायखौ	-9.43555
▁थिं	-9.43584
इन	-9.43617
▁सिलागां	-9.43698
▁चन्द्र	-9.43698
▁सोलोंथाइ	-9.43717
▁हमथा	-9.43744
▁खनले	-9.43759
▁थांफा	-9.43803
▁दौनांगौ	-9.43826
▁फरायनो	-9.4386
ख्ला	-9.43941
▁इयुन	-9.43945
▁लाफा	-9.43961
▁सोरजिनाय	-9.43984
▁सिख्लाया	-9.44152
▁गोसा	-9.44162
▁खोब	-9.44413
▁गेवलां	-9.4442
▁खनै	-9.44463
▁खारलां	-9.44483
▁सोलायनाय	-9.44632
्रा	-9.44661
▁बोराइ	-9.44678
▁थाहै	-9.44786
रनि	-9.44822
बोबाय	-9.44929
▁S	-9.44929
जानानै	-9.45032
ैनो	-9.45034
याखिसै	-9.45151
सालि	-9.45169
▁गुलि	-9.45351
▁रजि	-9.45446
▁साब	-9.45488
▁हाबफै	-9.45599
▁माइरं	-9.45809
ेश्वर	-9.45813
▁आजाव	-9.45829
▁निदान	-9.45865
फेराखै	-9.45876
▁संसार	-9.45902
▁हाथाय	-9.45958
▁थाय	-9.45959
जार	-9.45992
▁साखाथियाव	-9.46016
▁लख्राया	-9.46044
स्ला	-9.46091
▁लांनानै	-9.46145
▁फालि	-9.46165
▁लाबोयो	-9.46246
▁जाबो	-9.46286
▁फोरमायो	-9.46298
▁कि	-9.46344
के	-9.46361
आफा	-9.46587
▁जेकेट	-9.46615
▁मोनबा	-9.46649
पे	-9.46867
▁सिब	-9.46969
आइ	-9.47133
▁सोमजि	-9.47256
घ	-9.47394
▁लाहार	-9.47401
▁खनसाय	-9.47514
▁.....	-9.47527
जोब्बाय	-9.47535
▁स्नि	-9.47639
▁फो	-9.47702
▁बाना	-9.47717
▁बिब	-9.47793
▁लायै	-9.47796
▁ट	-9.47854
▁फैमाल	-9.47975
निखुरै	-9.4798
▁बिथिङाव	-9.4798
▁गुफुर	-9.4799
▁इंराजी	-9.47997
▁बाग्दाव	-9.48007
▁थायनै	-9.48036
▁मोनाखिसै	-9.48139
फोरनिफ्राय	-9.48202
▁बिफाखौ	-9.48211
▁बुंबावो	-9.4822
नांनाय	-9.48229
▁पास	-9.48264
▁राइजोआव	-9.48384
.........	-9.48439
▁8	-9.48716
▁गावबुराया	-9.48768
बावबाय	-9.48854
▁बिजिरनाय	-9.48881
▁सुजुग्रा	-9.48964
▁7	-9.48975
बोथ	-9.4902
▁मावनानै	-9.491
▁दोनथ	-9.4912
गर	-9.49193
खाया	-9.49212
▁बिबारि	-9.49326
▁ददेरे	-9.49345
▁दिनैनिफ्राय	-9.49575
(	-9.4961
▁जानाया	-9.4961
जोबबाय	-9.4972
न्त	-9.49764
▁मेल	-9.49793
▁ओंखारबाय	-9.49813
▁आंथ	-9.49858
क्स	-9.49913
▁नुथाय	-9.4994
▁खुं	-9.50067
▁बसुमतारि	-9.50181
▁रंफाली	-9.50181
▁लाइ	-9.50187
▁आमाइ	-9.50188
▁बोसोन	-9.50231
▁गंनै	-9.50271
▁होन्नाय	-9.50464
▁सोदोबखौ	-9.50492
▁थबसि	-9.50584
▁आगोर	-9.50614
▁गला	-9.50691
▁मेम	-9.50716
▁खानाय	-9.5076
▁जिब	-9.50768
▁s	-9.51019
▁बथल	-9.51064
▁खालामनायाव	-9.512
▁लाबोनाय	-9.51305
जोबनानै	-9.51425
▁खै	-9.51572
▁हांखोनि	-9.51573
लुं	-9.5173
▁हेलाराम	-9.51774
▁इं	-9.51823
▁उदु	-9.51836
▁नायब्ला	-9.51902
▁अरायबो	-9.52
▁मोनाबिलि	-9.52046
▁सावरायनाय	-9.5205
▁गिलु	-9.52369
▁बिहोमा	-9.52446
▁आथिङाव	-9.52463
बालानो	-9.52464
▁198	-9.52487
▁बेमारि	-9.52512
▁मुङै	-9.52514
▁हरबाय	-9.52526
वारीया	-9.52528
▁बिलिर	-9.52533
▁खुर	-9.52534
▁जाम्बा	-9.52563
er	-9.52571
▁T	-9.52582
▁दमना	-9.52595
जोम	-9.526
बावगोन	-9.52734
▁बेरखांदों	-9.52751
▁हाबहै	-9.52793
▁गोर्बो	-9.52803
▁अब	-9.52816
▁सिलाइ	-9.52853
▁जिनिस	-9.5287
▁फुन	-9.52959
राइ	-9.52961
▁बानायसो	-9.53002
▁बिजाबखौ	-9.53006
▁लाइफां	-9.53015
▁गाइखेर	-9.53018
▁फावथाइगिरि	-9.5302
▁कासार	-9.53057
ब्र	-9.53121
फां	-9.5315
▁होदो	-9.53169
गुर	-9.532
ख्रा	-9.53288
▁बिलिफांनि	-9.53316
▁मोनफ्रोम	-9.53325
दान	-9.53365
▁थाद	-9.53446
▁उन्दुनो	-9.53461
▁अजा	-9.53569
▁नाजादोंमोन	-9.5365
▁ओंखारबो	-9.53686
▁गेव	-9.53691
▁एसेल	-9.53807
▁गोगोम	-9.53959
▁खालामनांगौ	-9.53961
▁आया	-9.53965
▁सामलाय	-9.54045
फिन्नो	-9.5406
▁ओंखारो	-9.54105
▁टे	-9.54144
▁रावै	-9.54151
फैनाय	-9.54198
▁थावनि	-9.54209
▁जिवा	-9.54339
▁फारनै	-9.54343
▁जोमै	-9.54408
▁बासि	-9.54441
▁सिंनिफ्राय	-9.54556
▁होफै	-9.54693
▁थेफेन	-9.54698
}	-9.54753
▁इन्दुप्रभा	-9.54753
▁देग्लाय	-9.54753
▁मावरिजा	-9.54754
▁आलादा	-9.54755
▁दखना	-9.54761
▁मेम्बर	-9.54763
▁लैथो	-9.54771
▁सानफ्रोमबो	-9.54826
▁मावरिया	-9.54842
▁बाथौ	-9.54843
▁मानसिफोरखौ	-9.54846
▁लाजिनाय	-9.54883
▁रोखोम	-9.54893
न्नानै	-9.54905
▁नाजादों	-9.54905
▁हले	-9.54932
▁खोन्दो	-9.54965
▁गोसोयाव	-9.55041
नाथाय	-9.55084
▁नाजाव	-9.55111
▁लाइमोन	-9.55124
त्र	-9.55188
▁बेबायदि	-9.55192
▁आखाइनि	-9.55207
▁दोन्	-9.55289
▁स्	-9.55293
▁सानजा	-9.55329
▁मावथि	-9.55335
▁सिम	-9.55356
▁4.	-9.55395
▁गैला	-9.554
▁थारैनो	-9.5544
▁बन	-9.55481
▁नोंजों	-9.55486
▁अनसाय	-9.55644
▁नुदों	-9.55708
▁आसा	-9.55732
▁नखराव	-9.55762
रिनि	-9.55793
▁थैनायनि	-9.55898
खराव	-9.55943
▁हाइ	-9.55955
▁दैयाव	-9.56114
▁थेर	-9.56136
सम	-9.56153
▁नोमा	-9.56167
▁नागिरनानै	-9.56233
▁जालां	-9.56337
बाथाय	-9.56396
▁गोमजोर	-9.56436
फ्रु	-9.56459
w	-9.56546
योब्ला	-9.56571
▁हिन्जावनि	-9.56578
मोनखौ	-9.56593
▁मोखांखौ	-9.56627
ख्लाय	-9.56682
ब्रे	-9.5673
▁जाना	-9.56898
▁महरखौ	-9.56974
▁ज्राम	-9.5712
▁असमीया	-9.57122
▁नंला	-9.57126
▁राफोद	-9.57128
▁अन्दर	-9.57155
00	-9.57168
........	-9.57196
▁बुथुम	-9.57209
▁जारौ	-9.57253
▁सिलाराम	-9.5729
▁फोरमायथि	-9.57316
▁गावथार	-9.57363
▁बुंना	-9.57371
▁प्रेमधरा	-9.57384
▁बोरमा	-9.57495
▁सोदोबथि	-9.57783
▁फोनां	-9.57818
▁रायलायनाय	-9.58015
▁जाथायखौ	-9.58033
▁आरतिया	-9.5804
▁जाफुं	-9.58046
▁बाजार	-9.58091
▁शान्ति	-9.58126
▁दिनैनि	-9.58203
▁मिनिनाय	-9.58209
▁खथा	-9.58322
▁थगाय	-9.58362
▁हरदों	-9.58412
▁हिन्जावफोर	-9.58483
▁केस	-9.5851
▁बिथिं	-9.58538
▁फां	-9.5863
मोनब्लाबो	-9.58704
ण्ड	-9.58867
▁थाग्रा	-9.58907
▁दोनो	-9.59135
स्क	-9.59169
▁गरम	-9.59182
▁आवथाय	-9.59196
▁अफिस	-9.59231
दाखु	-9.59245
▁जुजि	-9.59288
▁देवान	-9.59376
▁लायनो	-9.59412
▁गिया	-9.59446
ve	-9.59541
▁नेर्सोन	-9.59544
▁मोखाङै	-9.59544
▁गिलास	-9.5955
▁सालाय	-9.59555
▁खब	-9.59568
▁हांगार	-9.59577
▁and	-9.59655
▁जाम्बि	-9.59668
▁थानांगौ	-9.59674
▁होग्रा	-9.59696
▁इसिं	-9.59699
▁गोमजोरै	-9.59701
▁फुजि	-9.59731
▁उसु	-9.59737
▁बुंजायो	-9.59792
▁फारियै	-9.59828
▁दंखायो	-9.59887
▁गावस्रा	-9.59908
▁गाग्लोब	-9.5995
साय	-9.60016
▁हान्जाया	-9.60086
▁सिफाय	-9.60148
इं	-9.60246
▁नाङै	-9.60271
नाइ	-9.60307
▁नाजायो	-9.60555
▁बख	-9.60615
▁ओंथिया	-9.60644
▁बादा	-9.6069
लायखो	-9.60695
▁आन	-9.60794
गै	-9.60863
फब	-9.60865
▁बयनि	-9.60878
न्नाय	-9.60907
▁बमा	-9.60911
▁बोखां	-9.60913
▁लासैनो	-9.60972
▁एंगार	-9.61032
वाबो	-9.61173
▁बिनहारी	-9.61302
▁मोनाब्ला	-9.61326
▁देरहाग्रा	-9.61354
ख्ल	-9.61484
▁लाइफांनि	-9.61608
▁लाव	-9.61634
▁गब	-9.6165
▁उनावसो	-9.619
▁लोब	-9.61935
▁बाथ्रायाव	-9.61992
▁होना	-9.62026
▁घन्टा	-9.62029
▁एम्बु	-9.62029
▁सानफ्रामबो	-9.6203
▁सुबुङा	-9.62033
▁मुलाम्फा	-9.62036
▁हालोद	-9.62048
▁अफिसार	-9.6205
▁खिन्थि	-9.62068
▁दार	-9.62152
▁दैदेन	-9.62199
▁जोंरुवा	-9.62233
हरदों	-9.62243
▁अमला	-9.62265
खन	-9.62289
▁बायनानै	-9.62307
▁इन	-9.62333
▁मिनिनानै	-9.62335
▁गानहो	-9.6239
▁बानजाय	-9.62409
जां	-9.62549
कनि	-9.62625
▁लेंहर	-9.62629
▁सेरजा	-9.62638
▁थाबैनो	-9.62659
▁खाथिनि	-9.62698
▁बसुमतारीनि	-9.62776
▁लागोन	-9.62873
▁जाथायनि	-9.62927
es	-9.6296
बायमोन	-9.63011
छ	-9.63022
▁मुगा	-9.6313
फेरा	-9.63163
▁लुबैया	-9.63206
नङा	-9.63213
नाङो	-9.6336
▁मारि	-9.6342
▁लांगोना	-9.63441
▁नुब्ला	-9.6356
▁लाबोदों	-9.63665
▁थाथ	-9.63692
▁मुगानि	-9.6372
थारो	-9.63869
हैदों	-9.63898
▁हाम	-9.63925
A	-9.63996
▁नङाना	-9.64013
बारि	-9.64049
▁दरजाखौ	-9.64055
▁रायज्लायनाय	-9.64071
▁थाखोमा	-9.64111
सानजा	-9.64172
▁सुनि	-9.64188
सौ	-9.64202
▁दाबसे	-9.6425
▁मेला	-9.64295
▁खुदुम	-9.64473
▁बोयो	-9.64478
▁हाबिला	-9.64502
ation	-9.64515
▁राजाया	-9.64534
▁बेरेखा	-9.64538
▁नम्बर	-9.64556
▁भकत	-9.64579
▁डाः	-9.64584
▁थांदिनि	-9.64675
▁फैसा	-9.64687
▁फिसाजोनि	-9.64703
▁थियारि	-9.64743
▁दैदेनगिरि	-9.64915
▁जुदा	-9.6496
▁अना	-9.65002
?	-9.65018
▁अफिसाव	-9.65027
▁I	-9.65102
▁फैसालि	-9.65161
▁सन	-9.65217
क्ष	-9.65268
▁16	-9.65273
दाब	-9.65329
▁थिग	-9.65349
▁सानथाम	-9.65404
▁बेंगा	-9.65429
▁सिनायनो	-9.6544
▁जाहै	-9.65445
▁मिनियो	-9.65467
▁मनजु	-9.65474
▁नाङो	-9.65551
हायै	-9.65613
▁समाजाव	-9.65624
▁खारखोमा	-9.65665
▁थाबनो	-9.65714
▁दावहायाव	-9.65746
▁दिहुननाय	-9.65897
▁ददेरेखौ	-9.65921
▁लिरगिरिया	-9.65935
..........	-9.66065
▁रंजालिया	-9.6608
फिननाय	-9.66084
▁मिन्थि	-9.66104
▁गासे	-9.66134
खौल	-9.66341
▁सैबारी	-9.66384
▁बिगियान	-9.66402
▁बेगर	-9.66433
▁आन्दाया	-9.66552
रन्जन	-9.66567
कु	-9.66638
▁फिननाय	-9.66707
▁आखाय	-9.66736
▁लोंनानै	-9.6679
▁थांखिनानै	-9.66831
दाहा	-9.66872
▁लोमजा	-9.66892
▁ददेरेनि	-9.66894
दिनि	-9.66896
नायबादि	-9.67064
▁हरा	-9.67124
▁मानसिफोरनि	-9.67128
▁सन्देह	-9.67191
▁मोब्लिब	-9.67191
▁(1)	-9.67193
▁(2)	-9.67194
▁जिरायनाय	-9.67208
▁कक्राझार	-9.67218
▁संख्रि	-9.67222
▁क्लास	-9.67241
▁रिंगा	-9.67255
▁फावथाया	-9.67257
▁फावथाइखौ	-9.67287
▁नङाबा	-9.67364
▁थाइजा	-9.6737
▁गोग्लैनाय	-9.67377
▁खोथाया	-9.674
▁क्ल	-9.67426
▁D	-9.67428
न्ड	-9.67434
प्र	-9.67448
थोर	-9.67463
▁सिबिनाय	-9.67468
▁लांफा	-9.67469
▁गलाय	-9.67472
▁आखाइजों	-9.67479
फ्राय	-9.67482
▁नैबे	-9.67496
▁सारि	-9.67498
थिनि	-9.67501
खान्थि	-9.6764
्नानै	-9.6767
▁हांखोखौ	-9.67755
फुर	-9.67795
▁देगार	-9.67872
र्ड	-9.6796
सिनि	-9.67974
▁कलि	-9.67975
▁मोनहै	-9.68033
▁समाया	-9.68172
बाद	-9.68176
▁हिन्जावा	-9.68217
▁बोनानै	-9.68265
▁अजितखौ	-9.68271
▁बांला	-9.6837
▁महराव	-9.68489
खुमा	-9.68548
▁सैया	-9.68681
▁दुम	-9.69089
▁ट्राइबेल	-9.69213
▁गसाइ	-9.69241
▁सिमा	-9.69264
▁शान्तिनि	-9.6954
▁..	-9.69618
▁नायै	-9.69778
गोरा	-9.6984
▁ट्राक	-9.69877
▁बामुन	-9.69899
▁सोंनो	-9.69907
▁दुखुजों	-9.6994
▁सुबुंसाइ	-9.69955
फार	-9.70064
▁मनजुवा	-9.70089
▁फोला	-9.70091
थें	-9.70093
▁23	-9.70107
▁गाबनानै	-9.70122
▁14	-9.70145
▁थोंजों	-9.70162
▁बिनिखायनो	-9.7019
▁समानै	-9.70279
▁गदाय	-9.70368
▁लामाखौ	-9.70419
▁खथायाव	-9.70429
▁हुदा	-9.7048
ब्लि	-9.70525
होबाय	-9.70682
▁इस	-9.70688
▁ब्रै	-9.70727
▁जान	-9.7081
▁प्लट	-9.71037
▁ओंखारनानै	-9.71198
▁हिन्जावसा	-9.71285
▁कल्पनानि	-9.71306
▁में	-9.71309
▁लाइट	-9.71554
▁......	-9.71568
आरि	-9.71749
▁बाहायनानै	-9.71795
लों	-9.71828
▁फोसावनाय	-9.71866
ंग्रा	-9.71891
ङाखै	-9.71929
▁सेंग्राफोर	-9.71951
b	-9.72039
▁जिराद	-9.7205
I	-9.72055
नंगौ	-9.72064
▁हाला	-9.72176
फारसे	-9.72186
▁जासि	-9.72291
▁स्रा	-9.723
सिङाव	-9.72338
▁नार्जा	-9.72392
▁अजित	-9.7242
▁?'	-9.72434
ोब्ला	-9.72464
▁बिलो	-9.72615
▁हामा	-9.72617
▁बाख्नाय	-9.72635
▁स्रें	-9.72635
▁एफाग्राब	-9.72635
▁बेरखाङो	-9.72638
▁जांख्रिथाइ	-9.72641
▁स्रोद	-9.7265
▁गोराया	-9.72651
▁बांगाल	-9.72656
▁दैथुन	-9.72665
▁मुंराइ	-9.72688
▁मिनिट	-9.72715
▁सानथौ	-9.72779
▁13	-9.72927
▁लोमजानाय	-9.72958
▁जायाखिसै	-9.73023
ic	-9.73092
▁गुन्दाखौ	-9.73125
▁शंकरा	-9.73132
ar	-9.73149
▁साल	-9.73177
▁b	-9.73188
▁दुइ	-9.73234
लांनानै	-9.73266
▁रौ	-9.73275
▁w	-9.73308
▁दानसे	-9.73392
▁देरहाग्राया	-9.73505
माखौ	-9.73534
▁फंसेबो	-9.7365
▁ड्र	-9.73662
▁हरनानै	-9.73707
▁लेब	-9.73854
▁बिफांनि	-9.73893
▁आसामाव	-9.73915
▁आमाय	-9.73991
गुरि	-9.74025
▁मीनारामा	-9.74041
हैदो	-9.74056
▁खालामब्ला	-9.74086
▁उननि	-9.74178
▁बुंब्ला	-9.74185
▁आखलखौ	-9.74247
▁गोबानानै	-9.74305
थ्रा	-9.74374
▁मावफुं	-9.74378
▁आखुखौ	-9.7438
▁मोन्नो	-9.74418
ग्रां	-9.74446
▁आखाइखौ	-9.74499
▁थोन	-9.74575
राज	-9.74638
जाबाय	-9.74688
▁गेलेनाय	-9.74819
▁फैयाखै	-9.74877
▁तुलारामा	-9.74951
▁बेलासि	-9.74957
▁फैदोंमोन	-9.75024
▁हायोब्ला	-9.75026
फाथै	-9.75053
▁खुदिया	-9.75098
▁खौसे	-9.75114
ृ	-9.75142
▁दायनिगिरि	-9.75214
लाबाय	-9.75272
st	-9.75308
▁मोनजाया	-9.75371
▁हास्थाय	-9.75383
▁सोमावसार	-9.75386
▁जात्रा	-9.75469
▁खोख्लै	-9.75472
▁सेन्देल	-9.75472
▁दरखं	-9.75472
▁थान्दै	-9.75472
▁साबायखर	-9.75472
▁गरन्थ	-9.75495
▁फाफ्लियाव	-9.75557
▁गोरिब	-9.75568
▁गोथाव	-9.75576
▁लांदां	-9.75581
▁राणी	-9.75584
▁बेदद	-9.75591
▁25	-9.75595
▁महनलाला	-9.75598
▁आग्रां	-9.75648
▁जाहार	-9.75651
▁सुशान्तवा	-9.75687
▁.........	-9.75698
▁24	-9.75713
▁अरखि	-9.75722
▁एइ	-9.76023
▁फुजा	-9.76164
▁हमदों	-9.76205
▁दिखांनानै	-9.76263
▁दैया	-9.76267
▁सुं	-9.76325
ख्रुब	-9.76336
रौ	-9.76341
ाल	-9.76438
▁खफ	-9.76663
न्दि	-9.76747
▁अलकाया	-9.76818
लोंनाय	-9.76857
र्ज	-9.7687
हरनाय	-9.76963
▁सुबुंफोरा	-9.77093
खाइ	-9.77112
▁गाखोनानै	-9.77143
▁a	-9.77217
▁P	-9.77235
▁बाहायो	-9.77258
▁मेगननिफ्राय	-9.77269
▁बेफोरनि	-9.77291
▁रावनिबो	-9.77383
▁मानसिफोर	-9.7754
म्बा	-9.77616
▁थं	-9.7762
▁बहन	-9.77637
▁गोर	-9.77705
ज्ला	-9.77775
▁शंकर	-9.77867
▁आंनाव	-9.77938
ेन्द्र	-9.78082
at	-9.78099
▁थिउरियाफोर	-9.78178
होदों	-9.78318
▁दिन्थिनानै	-9.7833
मुं	-9.78366
▁बेखौबो	-9.78372
▁डेभिद	-9.78392
▁जाहाथे	-9.78393
▁जाउनाव	-9.78393
▁सिनेमा	-9.78393
▁देरहासार	-9.78418
▁राङा	-9.7844
▁थायोब्ला	-9.78454
▁निजोम	-9.78457
▁रायजो	-9.78477
▁बानजायनाय	-9.78491
▁पार्टि	-9.78493
▁दाजाब	-9.78552
▁नायनाय	-9.78598
फ्रि	-9.78607
ङि	-9.78658
▁22	-9.78671
▁हरसे	-9.78679
▁रोनाव	-9.78725
▁R	-9.78729
▁फरायसालियाव	-9.78756
▁अनिमाया	-9.78792
▁हायि	-9.78797
▁जाथों	-9.78854
डार	-9.78854
▁गावसोरनि	-9.78897
▁उन्दुग्रा	-9.78903
▁मोदाय	-9.7897
▁जौमोन	-9.78978
▁लाउ	-9.78978
▁रोंगौ	-9.79055
▁पुलिसनि	-9.79059
▁हालिया	-9.79067
फिननो	-9.79102
▁आइजोआ	-9.79162
▁ट्रे	-9.79203
▁जोम	-9.79257
▁बुंस	-9.79305
▁मेगनजों	-9.79369
▁फाफ	-9.79395
▁फिफा	-9.79475
▁आइयै	-9.79478
▁बुब्लि	-9.79493
स्री	-9.7963
थारै	-9.79683
सुं	-9.79745
ासै	-9.79847
le	-9.80028
▁बास	-9.80042
बेबा	-9.80078
▁सानाय	-9.80084
▁गाबदों	-9.80091
▁दानस	-9.80103
▁बोरायनि	-9.8012
ल्दा	-9.80199
दिं	-9.80224
▁फोसाब	-9.80329
▁होनायाव	-9.80403
▁मादै	-9.80419
याब्ला	-9.80483
स्र	-9.80572
▁दाब	-9.80712
▁गोमोर	-9.80762
स्लि	-9.80788
▁नन्द	-9.80812
▁फुंखा	-9.80833
▁देरहा	-9.80987
लं	-9.80991
▁उथ्रि	-9.80998
▁खुगाजों	-9.81
साया	-9.81019
▁बोसोराव	-9.8109
▁फारसेथिं	-9.81115
▁आस	-9.81181
हार	-9.81236
▁दाफोदार	-9.81399
▁to	-9.814
▁कमिटि	-9.81401
▁माखौ	-9.81423
▁नोङो	-9.81424
ust	-9.81426
रामा	-9.81428
▁लोङो	-9.81446
▁अन्थाइ	-9.81456
▁H	-9.815
▁गांनै	-9.81526
▁सोमदोन	-9.81552
▁स्टे	-9.81574
▁गुसुं	-9.81684
▁M	-9.81694
▁नुवाखै	-9.81713
▁खालामदोंमोन	-9.8176
▁एसेयावनो	-9.81766
▁आगु	-9.81795
▁मनजुलाया	-9.81828
▁होफैयो	-9.81879
थोंसै	-9.81923
▁होनांगोन	-9.81951
▁बुजिबाय	-9.81959
▁गारनो	-9.82095
▁नारसिन	-9.82147
मेन्ट	-9.82176
▁साननाया	-9.82189
▁ब्रह्मवा	-9.82219
की	-9.82232
▁सान्दोंमोन	-9.82295
▁रादाब	-9.82323
▁गुबैयै	-9.82441
▁देहाया	-9.82524
एसेयाव	-9.8262
▁एंगारनाय	-9.82678
▁फोथां	-9.82754
▁सायारामा	-9.8278
▁मोसानाय	-9.82846
▁लानायनि	-9.82883
▁गारा	-9.82897
▁डे	-9.8299
▁मोनलाय	-9.83005
▁हिन्जावखौ	-9.83017
▁हमनाय	-9.83034
जादों	-9.83112
बनाय	-9.83226
▁नार्स	-9.83247
फिनगोन	-9.8326
▁मिथिंगा	-9.83293
▁साजाय	-9.83304
▁गोम	-9.8331
▁मिथिंगानि	-9.83385
द्रा	-9.83398
▁जाखांनानै	-9.83418
▁मिथिखा	-9.83419
लांदोंमोन	-9.83442
▁देरा	-9.83447
▁फरायो	-9.83502
▁आफानि	-9.83614
▁दिखां	-9.83654
▁दरबासि	-9.8368
▁कम्पिउटारखौ	-9.83711
▁फावथिनानि	-9.83718
P	-9.83925
सानराय	-9.83963
▁दोनहै	-9.83972
येल	-9.84118
▁लें	-9.8415
ब्रब	-9.84314
आरो	-9.8435
▁गाराय	-9.84463
▁17	-9.845
▁उल्था	-9.845
▁जान्जि	-9.84501
▁(3)	-9.84502
▁खायदा	-9.84505
▁आबुङै	-9.84511
▁खामफ्लाय	-9.84524
▁फेस्ला	-9.84536
▁अनसुला	-9.84538
▁ब्लद	-9.8456
▁बिगुमै	-9.8457
▁मुजु	-9.84589
▁गोजाव	-9.84675
▁बैसोआ	-9.84689
▁you	-9.84702
▁बांसिनानो	-9.8472
▁बुङै	-9.8472
▁गिलुं	-9.84732
▁बिथांखि	-9.84769
▁दाबुं	-9.84804
▁खुलि	-9.84851
▁दोनदों	-9.84991
▁गोखा	-9.85096
टिस	-9.85104
▁राइजोफ्रा	-9.85172
▁मानसिजों	-9.85177
▁बोखार	-9.85224
▁फिसाइनि	-9.85242
▁जालाङो	-9.85353
▁बामोन	-9.8538
▁दालाय	-9.85408
▁is	-9.85541
▁फार	-9.85607
▁गारिखौ	-9.85658
▁लाया	-9.85713
▁गियो	-9.85821
▁उदैयाव	-9.85862
जन	-9.85869
ग्राफ	-9.85914
▁गोहोखौ	-9.85922
▁दिहुननो	-9.85956
▁ओंखारदों	-9.86006
खांदों	-9.86075
▁सिलानि	-9.86292
▁हमथानो	-9.86333
▁लाहै	-9.86372
ra	-9.86459
▁21	-9.86462
▁सेथि	-9.86571
▁दोनबाय	-9.86591
सिनो	-9.86791
▁सोद्रोमा	-9.86976
▁थांलाय	-9.87023
▁लोरबां	-9.87046
▁बाद	-9.87052
दर	-9.87058
रियाव	-9.87197
▁साह	-9.87247
▁सानैनि	-9.87271
▁दैसा	-9.87303
▁जौगानाय	-9.87316
थिंजाय	-9.87373
गोदान	-9.87402
▁लामानि	-9.87437
▁5.	-9.87447
▁देव	-9.87453
थारला	-9.87501
▁बारनानै	-9.8751
▁सिखा	-9.87653
N	-9.87656
▁एमाव	-9.87666
▁अनुलेखा	-9.877
▁इन्टारनेट	-9.877
▁साग्लोब	-9.877
▁एखनब्ला	-9.87701
▁गोलाउ	-9.87701
▁खिरखि	-9.87701
▁मेनेजार	-9.87704
▁मोसाहारि	-9.87706
▁गान्दु	-9.87707
▁रेजें	-9.87708
▁फुदुं	-9.87715
▁समायस्री	-9.87737
▁गोमोथाव	-9.87752
▁आगदा	-9.87754
▁बिदिन्थि	-9.87764
ing	-9.87764
▁जुरि	-9.87783
▁बाटन	-9.87786
▁सानथ्रि	-9.878
ड़	-9.87814
▁गेदेमा	-9.8782
▁जोंथि	-9.87838
▁सोंलु	-9.87878
दाउ	-9.87915
▁रान्दि	-9.87946
▁फोजा	-9.87996
गानै	-9.88057
▁जागौमोन	-9.88124
▁जाथाइखौ	-9.88145
▁हायना	-9.88161
▁बायनाय	-9.88175
▁फुल	-9.88191
▁होलाङो	-9.88192
▁लिरनो	-9.88195
▁खारबो	-9.88249
▁सुमिलाया	-9.88352
▁फैलाव	-9.88353
▁ओइ	-9.88383
▁गोजोनै	-9.88418
▁रावखान्थि	-9.88436
▁थांफिन	-9.88439
▁माबादि	-9.88494
▁बय	-9.885
--"	-9.88599
▁;	-9.88654
▁थाफा	-9.88677
▁खोनासंनो	-9.88677
▁मार	-9.88697
▁फरायसालि	-9.88699
▁ख्रे	-9.88711
▁नांनो	-9.8879
▁कल्पनाखौ	-9.88838
लायदों	-9.88844
▁खैफोदाव	-9.88853
▁लख्रानि	-9.88898
▁फसं	-9.88921
▁सोरबाफोर	-9.88943
▁जाजोब	-9.88951
▁हादोर	-9.88989
▁दासिम	-9.8901
▁मिथिहो	-9.89074
▁नुजाफै	-9.89089
लासेनो	-9.89219
जोंसो	-9.89302
जोबदों	-9.89332
▁माहारिया	-9.89333
▁मोदोमनि	-9.89339
▁गाजा	-9.89422
▁आदार	-9.89469
अर	-9.89521
▁बाथि	-9.8965
मी	-9.8968
फ्रोमबो	-9.89687
▁हाखर	-9.89706
स्रो	-9.89717
▁गाहामै	-9.89771
जायै	-9.89824
▁खालामनाया	-9.89865
▁जोबबाय	-9.8991
▁थानाया	-9.89911
▁जेंनाखौ	-9.89931
▁जुग	-9.90013
▁हाव	-9.90037
▁वा	-9.90136
▁थांखिया	-9.90209
▁सियाल	-9.90247
▁बुजिनो	-9.90249
▁मोन्नायनि	-9.90315
▁मानै	-9.90322
▁अफिसनि	-9.90348
▁जायफोर	-9.90539
र्म	-9.90998
▁{-	-9.91006
▁गिज्रा	-9.91006
▁थ्रोब	-9.91006
▁दर्बासि	-9.91006
▁थफी	-9.91007
▁भुम	-9.9101
▁गिलिद	-9.91012
▁नेरसोन	-9.91018
ug	-9.91028
▁फुं	-9.91031
ल्ड	-9.91031
▁रबिबार	-9.9104
▁जाफुंसार	-9.91046
▁बयखौबो	-9.91056
▁ई	-9.9106
लेण्डनि	-9.91079
▁गसङो	-9.91099
▁मंगल	-9.91103
▁आहार	-9.91126
▁in	-9.91156
न्दी	-9.9121
ालाय	-9.91231
▁मोनथाय	-9.9125
▁दाइन	-9.91288
▁माइनाव	-9.91298
▁फाथो	-9.91321
▁फाहामसालियाव	-9.91333
▁राइजोआ	-9.91378
▁बाथुवाया	-9.91403
हाबनानै	-9.9141
▁थैया	-9.91454
▁अनजिमा	-9.91488
▁खोला	-9.91503
वै	-9.91526
▁सोदोबा	-9.91533
▁रबि	-9.91581
▁खरसा	-9.91601
न्ट	-9.91618
en	-9.91621
फ्र	-9.91643
▁बाबुवा	-9.91724
▁मुगायाव	-9.91728
▁सियाला	-9.91824
▁नङै	-9.91852
▁सफा	-9.91877
▁खाथियावनो	-9.91943
▁साननै	-9.91987
▁माखन	-9.92031
▁निफ्राय	-9.92044
▁लिरदों	-9.92069
▁फोलाव	-9.92108
▁नांलाय	-9.92124
▁भारतनि	-9.92147
▁नुदोंमोन	-9.92159
▁थिख	-9.92194
▁मिथियो	-9.92257
▁एव	-9.92266
▁रुजु	-9.92277
▁जाथार	-9.92285
▁थाखा	-9.92305
▁सोरखारा	-9.92308
गोसो	-9.9234
▁जिबा	-9.92377
▁फैब्ला	-9.92394
▁ओरै	-9.92395
▁दामनाय	-9.92396
▁हं	-9.9244
▁रथ	-9.92475
▁अफ	-9.92584
▁नागारनानै	-9.92719
यावबो	-9.9276
▁बाजियाव	-9.92981
ोलो	-9.93004
प्ल	-9.93023
S	-9.93117
▁लोगोआव	-9.93117
रग	-9.93159
▁लाइन	-9.93168
▁दावबायनाय	-9.93234
▁गाबनो	-9.93287
▁मुवाफोर	-9.93296
▁उन्दुनाय	-9.9336
जोबनाय	-9.93363
▁30	-9.93367
▁सिला	-9.93382
▁लांदों	-9.93417
▁बारनाय	-9.93443
▁थैयो	-9.935
▁भर	-9.9355
▁दिन्थिदों	-9.93558
▁जारिमिनखौ	-9.93565
▁बाजुराम	-9.93584
खोना	-9.93606
बिफानि	-9.93668
▁फुथु	-9.93689
▁बिब्दिब्ला	-9.93713
▁बेथ	-9.93725
याखैमोन	-9.93737
▁रुमनि	-9.9379
▁नाम	-9.93824
D	-9.9385
कल्पना	-9.93853
हैगोन	-9.93857
जुनाद	-9.93857
ग्रे	-9.93858
▁कासारनि	-9.93936
थावा	-9.94017
▁गालां	-9.94097
▁लाखिनाय	-9.94145
▁धु	-9.94189
▁लामाया	-9.94295
▁महा	-9.94295
▁जेखौ	-9.94308
गिरिफोरा	-9.94313
▁हिसाब	-9.94362
▁डाक्टार	-9.94425
▁मोगथां	-9.94425
▁बिबाजै	-9.94426
▁मेडाम	-9.94427
▁सान्दुं	-9.94429
▁दोहोरोम	-9.9443
▁नेहाथारि	-9.94431
▁अख्राङाव	-9.94434
▁रोमै	-9.9444
▁फोथै	-9.94441
डा	-9.94446
▁हादोरगिरि	-9.94482
▁सरखार	-9.94483
▁मथर	-9.9449
▁बुङाखै	-9.94514
▁ट्रेइन	-9.94538
▁लुनानै	-9.94555
▁आनारामा	-9.94576
▁दस्रा	-9.94631
▁होयै	-9.94632
▁मोन्नाया	-9.94642
▁उसाव	-9.94678
मागिरि	-9.9477
ख्रं	-9.94789
सान्दो	-9.9483
▁सुवा	-9.94838
▁हाजासे	-9.94895
▁बेन्दों	-9.94918
▁दासान	-9.94952
▁गारिनि	-9.94976
▁सालाइ	-9.95109
फिन्नाय	-9.95215
▁गोहोआ	-9.9523
▁बिसिनायाव	-9.95235
▁दाग	-9.95283
▁दालाइ	-9.95286
▁ननि	-9.95347
बायो	-9.95356
लांगोन	-9.95413
▁मेंनाय	-9.95424
lo	-9.95441
▁हायाखैमोन	-9.95571
▁बहाबा	-9.95574
ग्र	-9.95622
▁खनायाव	-9.95703
ग्लां	-9.95741
▁आइन	-9.95966
▁मोननाया	-9.95992
द्रि	-9.96004
▁फरायसालिनि	-9.96076
▁एबसुनि	-9.96082
▁फरायग्रा	-9.96159
▁हमना	-9.96176
▁नागिरदोंमोन	-9.96239
▁राइजोफोरा	-9.96335
k	-9.96362
▁खिन्थानो	-9.96382
▁सान्नाया	-9.96397
▁नायजाबाव	-9.96441
▁बावदियानि	-9.96511
▁हागौमोन	-9.96511
▁बिसोरबो	-9.96548
▁सह	-9.96581
▁दाला	-9.96632
▁मोदोमखौ	-9.96689
▁पु	-9.96747
▁बुरखाय	-9.96762
▁गलाम	-9.96787
▁दंना	-9.96814
▁रहेला	-9.96837
▁मन्जुखौ	-9.96858
▁अनाथीया	-9.96862
▁आलु	-9.96873
▁बानानै	-9.96881
▁होबथा	-9.96891
▁सिथार	-9.96962
▁सेख	-9.96977
▁बिथ	-9.96986
▁बायनो	-9.97128
▁गोनांदि	-9.9715
थेर	-9.97239
ब्रु	-9.97314
▁उर	-9.97358
E	-9.97387
▁फाराग	-9.97397
▁फोजोबनो	-9.97427
लायाव	-9.97558
▁बुनानै	-9.97562
▁हामो	-9.97565
me	-9.97609
नार	-9.9769
बावदों	-9.97706
▁होनबा	-9.97776
▁थिननाय	-9.97831
नाथ	-9.97842
▁एम्फौ	-9.97965
▁गावबो	-9.97966
▁आन्जाद	-9.97966
▁बारान्दायाव	-9.97967
ास	-9.97973
▁साबुक	-9.97974
▁मोख्रा	-9.97987
▁एसेग्राब	-9.97988
थुर	-9.98065
▁गिथाव	-9.98072
▁जोबनो	-9.98097
▁.......	-9.981
▁बाराद्राय	-9.98103
▁अलकाखौ	-9.9811
▁बुंनायसाय	-9.98115
▁जोङो	-9.98118
सल	-9.98128
▁मोगा	-9.98147
▁दिनैबो	-9.98154
▁दाकात	-9.98156
▁दुगा	-9.98178
▁खास्रि	-9.98215
▁लाइसि	-9.98217
▁ओंखारबोयो	-9.98242
हरनानै	-9.98244
▁फोथाराव	-9.9826
▁गायसन	-9.98292
▁सोरजों	-9.98382
▁हुगारो	-9.98387
▁बेवहायनो	-9.9839
▁दावखो	-9.98406
▁अरखिया	-9.98417
▁थाल	-9.98442
▁जथाइ	-9.98457
▁सेरे	-9.98485
▁नङालै	-9.98523
हरबाय	-9.98602
▁जुनाद	-9.98613
▁देवानि	-9.98623
▁सिखारो	-9.98628
▁जेनबा	-9.9863
▁मेलाव	-9.98686
▁थानांगोन	-9.98692
▁बेरे	-9.98707
▁जेसे	-9.98778
उन	-9.98798
▁मोनब्रै	-9.98956
▁सिखां	-9.9896
▁नायफिन	-9.99005
▁हमथानानै	-9.99006
▁नेबाय	-9.9904
an	-9.99085
▁सिमान	-9.99106
▁बायदियै	-9.99139
निथिं	-9.99176
▁लोंबाय	-9.99199
▁नायहरबाय	-9.9921
सिगौ	-9.99241
▁रजिया	-9.99296
▁नुजाथि	-9.99303
▁सुथार	-9.99333
ख्लाब	-9.99372
▁बिबानखौ	-9.99396
▁गोगो	-9.99447
स्टि	-9.9945
▁मोनाम	-9.99472
फिननानै	-9.99491
▁दंसै	-9.99534
मारा	-9.99542
▁50	-9.99566
▁बुहुमनि	-9.99621
▁आलाइनि	-9.99627
▁जोंनानै	-9.99716
न्द्रा	-9.99777
▁दाबा	-9.99942
▁दैमानि	-9.99987
▁य	-10.0001
▁कार	-10.0002
▁फाला	-10.0003
ब्ले	-10.0048
▁दोन्नाय	-10.0056
लिं	-10.0077
▁थामथि	-10.008
▁बिसोरनो	-10.008
सी	-10.0083
▁जथाय	-10.0084
▁आलाय	-10.0089
श्री	-10.0104
सालियाव	-10.0108
▁दुब्लि	-10.0132
▁फाहामसालि	-10.0132
▁बाहा	-10.0134
▁टाउन	-10.0134
लें	-10.0134
▁फिसाइखौ	-10.0143
▁p	-10.0143
बोदोंमोन	-10.0154
com	-10.0158
▁थिसन	-10.016
▁आच्	-10.0163
F	-10.0164
▁सेनापति	-10.0164
qu	-10.0164
▁किउरि	-10.0164
▁सौग्राव	-10.0164
▁दाखालाम	-10.0164
▁बेखेवगास्नि	-10.0164
▁सुदेम	-10.0164
▁बिदिन्था	-10.0164
▁सावथाल	-10.0164
मोगि	-10.0164
▁केरानि	-10.0164
▁चीन	-10.0165
▁दाइरि	-10.0166
ut	-10.0168
▁थांनायाव	-10.017
▁ऊ	-10.0172
▁बारहुंखा	-10.0172
▁आगसि	-10.0172
▁जोंबो	-10.0175
▁सानाखैमोन	-10.0175
▁रिक्सा	-10.0176
▁सुफुं	-10.0176
▁निस्थार	-10.0177
फिन्	-10.0177
▁गोथे	-10.0179
▁खेबनै	-10.0184
▁दाद्रि	-10.0184
▁फोजोबनाय	-10.0192
▁बुंहरो	-10.0197
▁बुन्दा	-10.0198
▁साननैसो	-10.0201
▁टाउनाव	-10.0202
▁दैथाय	-10.0206
it	-10.0207
▁गुरु	-10.0207
▁दिनैसो	-10.0208
थियाव	-10.0222
▁फोरमायनो	-10.0223
▁मथे	-10.0228
वाखै	-10.0234
▁सानैया	-10.0242
जोबगोन	-10.025
▁समाजा	-10.0257
▁फावथाइगिरिया	-10.0258
▁जाहोनाव	-10.0273
▁सिलाया	-10.0274
▁हुगारनानै	-10.0278
▁बिथांमोन	-10.0285
▁हादोंमोन	-10.0288
भा	-10.0291
▁बेलायाव	-10.0296
▁दिहुन्	-10.0296
सिख्ला	-10.0299
फोरानो	-10.0306
▁बुब्लियाव	-10.0316
्य	-10.0317
▁जालांदों	-10.0317
▁बसुमतारीया	-10.0326
▁मोन्	-10.0327
▁जाफै	-10.033
▁मावख	-10.0336
▁आम	-10.0337
ंनि	-10.0338
?"	-10.0341
▁आसार	-10.0344
▁मिथिनाय	-10.0347
,000	-10.0351
▁नोंसोरखौ	-10.0351
ot	-10.0358
कार	-10.0365
▁गाबख	-10.0369
▁बुहुम	-10.0372
▁गुन्दानि	-10.0379
▁साजों	-10.038
▁ससे	-10.0384
▁गिसि	-10.0392
▁दैखर	-10.0395
▁गुदियाव	-10.0413
▁गद	-10.0414
▁नोंथ	-10.0416
जी	-10.0416
▁जं	-10.0419
▁जाम	-10.0437
▁मिथिनानै	-10.0438
▁जेना	-10.0439
▁खामसालि	-10.0447
▁नागिरब्ला	-10.0448
▁जन	-10.0462
▁आलाइखौ	-10.0472
▁आरि	-10.0478
▁गाग्लोबनाय	-10.0481
ँ	-10.0486
आलाइस्रि	-10.0489
नोंथां	-10.05
▁नोंसिनि	-10.05
लासे	-10.0501
▁ब्रे	-10.0506
▁संसारनि	-10.0508
▁........	-10.0513
▁कम्पिउटारा	-10.0515
▁मद	-10.0522
▁होम्बा	-10.0525
▁रो	-10.0528
▁थांखो	-10.0531
श्	-10.0543
▁अनसुंथाइ	-10.0545
▁परिषद	-10.0545
▁बैसागु	-10.0545
▁फरेष्ट	-10.0545
▁बटल	-10.0546
▁बिबायारि	-10.0548
दुर	-10.0549
हाबा	-10.0549
▁मोन्दां	-10.0551
▁दुपसावफा	-10.0551
▁लेङा	-10.0551
दला	-10.0554
▁प्रेस	-10.0555
▁गोबारै	-10.0556
▁बिबुंथि	-10.0558
थामसो	-10.0559
▁थफ्ला	-10.0561
▁लेंग्रा	-10.0562
हरनो	-10.0562
▁खिबु	-10.0563
▁बाख्रि	-10.0563
▁भारा	-10.0564
▁गंफा	-10.057
▁पज	-10.0573
▁थिउरिया	-10.0573
▁आलाइस्रिखौ	-10.0573
▁थुन	-10.0577
▁माष्टार	-10.0582
▁बेंक	-10.059
▁गिनांगौ	-10.0598
▁मावदों	-10.0601
▁बुंफिनो	-10.0602
▁बुंलाङो	-10.0605
▁आबाद	-10.0605
▁मोनाबिलियाव	-10.0612
▁बिसिया	-10.0614
▁दाजाबनाय	-10.0616
▁बेलासे	-10.0619
गारो	-10.0624
खागोन	-10.0624
▁हरबिलासा	-10.0626
ro	-10.0631
▁लिरो	-10.0632
▁जोमैया	-10.0633
▁सुरो	-10.0638
▁गान्नाय	-10.0639
▁c	-10.0639
▁मोब्लावा	-10.0639
▁रांजों	-10.0645
▁आइनि	-10.0647
▁बिमाइ	-10.0648
▁दांनाय	-10.0658
ेशन	-10.066
तु	-10.0661
▁हेलारामा	-10.0661
▁अट	-10.0662
▁लोङा	-10.0662
▁सुफुंनो	-10.0669
▁कलेजनि	-10.0672
▁सान्नो	-10.0674
▁नङाब्लाबो	-10.0677
▁हौवासा	-10.0683
▁आवगायाव	-10.0685
▁दल	-10.0689
▁गोनांथार	-10.069
▁लख	-10.0694
▁रोन	-10.0696
▁बबेनि	-10.0696
▁आफादाव	-10.0708
▁थानायखौ	-10.0711
▁आलि	-10.0717
▁थादो	-10.0717
▁फोरबो	-10.0725
▁सुरनानै	-10.0726
▁खालामग्रा	-10.0732
ग्रोयो	-10.0738
यासै	-10.0743
▁फाख	-10.0743
थारनांगौ	-10.0744
▁आनारीखौ	-10.0746
▁जोंनाव	-10.0763
▁नवा	-10.0768
▁थैनो	-10.0777
धर	-10.0782
in	-10.0785
▁खाब	-10.079
▁जेकेटखौ	-10.0793
▁दावहानि	-10.0795
▁साफाय	-10.0798
ख्रेब	-10.0805
▁नायग्रा	-10.081
▁जाबोदों	-10.0814
गिर	-10.0828
खोमायो	-10.0829
▁आनान	-10.0836
▁साया	-10.0843
▁दावा	-10.0852
्स	-10.0853
▁फर	-10.0856
▁बिसिना	-10.0859
▁रमेन	-10.086
ओ	-10.0862
▁सोदोबमा	-10.0864
▁नुना	-10.0869
गिबि	-10.0874
▁कम	-10.0882
O	-10.0883
▁सोलायनानै	-10.0884
र्ग	-10.0888
दुखु	-10.0893
नायसाय	-10.09
▁सिथ्ला	-10.0904
▁फाहाम	-10.0931
se	-10.0931
▁कंग्रेस	-10.0941
▁बिजामादै	-10.0941
▁हिन्दु	-10.0941
~	-10.0941
▁मुंख्लं	-10.0941
▁बिसायख	-10.0941
▁आबहावा	-10.0941
▁हुजुर	-10.0941
▁जथुम्मा	-10.0941
▁खोन्था	-10.0941
▁बिखुं	-10.0941
▁असमिया	-10.0941
▁थिलियाव	-10.0941
▁नंगुबै	-10.0942
निख्रुय	-10.0942
▁जायखिजाया	-10.0943
▁इउनिट	-10.0943
▁मुश्री	-10.0943
▁फोजोबस्रां	-10.0945
▁सरासनस्रायै	-10.0945
▁एखनब	-10.0945
▁नालिस	-10.0945
▁बांद्राय	-10.0947
▁बेखेवगानै	-10.0947
दिन	-10.0949
▁थागिबि	-10.0951
▁लानाया	-10.0951
न्थाइ	-10.0952
▁बिख्लो	-10.0956
▁फरायनानै	-10.0957
▁दिखार	-10.0962
▁सिथाब	-10.0966
▁लिरगिरिनि	-10.0966
▁खालामबावनो	-10.0969
▁बाउ	-10.0972
आंनि	-10.0972
▁संग्रा	-10.0975
▁ओंखारलांनाय	-10.0978
▁नोंनाव	-10.0989
▁नुजागोन	-10.099
▁मोदोमा	-10.099
▁ओहो	-10.0995
▁नरेशा	-10.0996
▁फाफि	-10.1
▁गाथाम	-10.1003
▁बान्दा	-10.1003
सोम	-10.1004
▁सोमजिनाय	-10.101
लाब	-10.1012
ाखैसै	-10.1019
▁लांगोनायाव	-10.1019
▁फरायसाफोर	-10.1019
▁सिगांआव	-10.102
▁सौहै	-10.1024
▁जायगानि	-10.1026
▁सिगाङावनो	-10.1027
▁बारियाव	-10.103
▁नायोब्ला	-10.1032
▁गोरबो	-10.1032
▁दिल्लीयाव	-10.1036
▁200	-10.1037
दोंमोनब्लाबो	-10.1037
▁बिखाय	-10.1045
▁माला	-10.105
▁गिनो	-10.1053
दुम	-10.1054
नांगौब्ला	-10.1058
▁मोनखो	-10.106
अन	-10.1063
▁बिबु	-10.1072
ब्रैसो	-10.1073
▁सेबखां	-10.1073
▁जागाय	-10.1075
▁लानांगौ	-10.1075
▁राइजोफोरनि	-10.1076
▁सानहाब	-10.1077
▁थाना	-10.108
▁सरकार	-10.1088
▁मोखांजों	-10.109
▁लागो	-10.1096
▁बाथ्रानि	-10.1097
▁सान्	-10.1104
बायदि	-10.1106
दाया	-10.1114
▁मह	-10.1114
▁नायगोन	-10.1117
लौ	-10.1126
▁द्	-10.1133
▁हानो	-10.1145
▁नालाय	-10.1146
▁नाजानायाव	-10.115
▁बोब्ला	-10.1152
▁होनायसै	-10.1153
▁एबसु	-10.1156
▁हेमलेट	-10.1165
▁गोनो	-10.1165
▁बिबारनि	-10.1176
▁सुनाय	-10.1178
▁बुंनांगौ	-10.1178
▁बानायनाय	-10.1179
▁बाल	-10.1186
लिक	-10.1195
▁आखाइनिफ्राय	-10.1205
▁बेफारि	-10.1207
▁दैनि	-10.121
▁थेफेनखौ	-10.1214
जोला	-10.1216
▁खोमोर	-10.1231
▁नागिरनो	-10.1232
▁सैनाय	-10.1233
▁खुंनाय	-10.1233
▁सन्	-10.1236
▁एसि	-10.1244
▁महरनि	-10.125
▁बेलस्रिया	-10.1252
▁सारिनि	-10.1268
▁अनिल	-10.1271
्ति	-10.1271
▁उन्दुलां	-10.1276
▁रिं	-10.1276
▁-"	-10.1286
खाला	-10.1289
▁बाथ्राफोरखौ	-10.1289
▁सिगांनि	-10.1291
▁जाबा	-10.1291
C	-10.1294
नोंथाङा	-10.1296
▁फांथे	-10.1298
▁हांख्राय	-10.1306
▁उन्दैनिफ्राय	-10.1312
बाब	-10.1313
फाङा	-10.132
▁गारांजों	-10.1324
▁बाथ्राखौनो	-10.1331
▁गोमानाय	-10.1337
▁खोनायो	-10.1338
▁इंराज	-10.1339
▁मावजि	-10.1352
▁कामाख्या	-10.1353
▁गाड़ी	-10.1353
▁थेख्रे	-10.1353
▁मेट्रिक	-10.1353
▁सानजौफु	-10.1353
▁संगालि	-10.1353
▁हालुवा	-10.1353
▁गंग्लाय	-10.1354
▁गौथुम	-10.1354
▁दुंहाव	-10.1354
▁अक्टबर	-10.1354
▁थुनलायाव	-10.1359
▁मावनायनि	-10.1359
▁अनिमा	-10.1361
▁सभा	-10.1363
▁इंराजि	-10.1363
▁The	-10.1365
टिं	-10.1366
▁आद्रा	-10.1366
▁दैदेनगिरिफोर	-10.1367
▁बागान	-10.1368
▁दासान्दि	-10.1368
▁लोङै	-10.1372
▁जासे	-10.1373
▁नोंथांखौ	-10.1375
▁खामाय	-10.1381
▁लुबैदों	-10.1381
▁लिभ	-10.1382
▁फेजेन	-10.1382
▁फिसाफोरखौ	-10.1384
▁जासुला	-10.1388
▁भे	-10.1388
▁हमनायसै	-10.139
▁जाथोंसै	-10.1391
''	-10.1391
▁थांदोंमोन	-10.1394
▁सिथ्लायाव	-10.1395
▁दायखौ	-10.1406
▁हामबाय	-10.141
▁फाहार	-10.1411
▁बेंखन	-10.1412
▁O	-10.1413
▁खुदियाफोर	-10.1414
▁दाया	-10.1416
▁उदुराम	-10.1417
खानानै	-10.1419
ur	-10.142
▁दैमु	-10.1424
▁बिसोरजों	-10.1426
ङ	-10.1427
▁दागाब	-10.1428
▁दाना	-10.1429
▁सिमना	-10.143
▁महना	-10.143
▁खिन्थायो	-10.1431
▁जाथि	-10.1432
बासो	-10.1433
▁नोगोराव	-10.1434
▁सांग्रांथि	-10.144
▁जासिगोन	-10.1443
▁दिउ	-10.1445
खरनि	-10.1448
▁सोंदों	-10.1449
▁दोननो	-10.1451
गान	-10.1453
▁जौवा	-10.1455
▁बेसेबांबा	-10.1456
▁उनथिं	-10.1459
▁बिरलां	-10.146
हाबनाय	-10.1467
▁नुयै	-10.1469
▁लोंहो	-10.1471
दिनै	-10.1471
▁बेफ्रु	-10.1473
ाब्ला	-10.1473
▁बबेनिफ्राय	-10.1479
▁बिसान	-10.1482
▁बिजिरगिरि	-10.1485
जिर	-10.1489
▁हान्जानि	-10.1492
▁जब्रा	-10.1498
▁सोबा	-10.1499
▁मावनांगौ	-10.1501
▁दानायाव	-10.1504
▁फोसाबनाय	-10.1506
▁खबर	-10.1512
न्टि	-10.1512
सां	-10.1517
मारबाय	-10.152
▁बबेयाव	-10.1525
दम	-10.1528
▁गगै	-10.1531
▁हादराव	-10.1533
यनाय	-10.1534
▁देरगा	-10.1534
▁खारनाय	-10.1536
▁दानाव	-10.1537
▁मिहिरनि	-10.1538
जै	-10.1549
सायाव	-10.1554
▁खारग	-10.1554
▁शान्तिखौ	-10.1555
▁गानै	-10.156
▁सिख्लासा	-10.1567
गैया	-10.1571
▁दांनानै	-10.1572
▁आखलनि	-10.1572
▁बासा	-10.158
▁साबि	-10.1582
▁लारि	-10.1586
रोङा	-10.1593
ce	-10.1594
▁गोजों	-10.1605
▁इनफरमेसन	-10.1609
▁गोसोवाव	-10.1612
▁सेनानै	-10.1617
▁अखानाय	-10.1619
▁थैखौ	-10.162
▁मलेनजों	-10.1621
नांगौमोन	-10.1623
▁रावआ	-10.1631
▁सानैसो	-10.1633
▁लाबोफा	-10.1649
लांनायनि	-10.165
▁दाजाबदाखौ	-10.1657
▁मागोन	-10.1662
िस	-10.1663
▁।।	-10.1674
▁खानाइखौ	-10.1678
रला	-10.168
▁देहायाव	-10.1681
खांदोंमोन	-10.1686
लोगो	-10.1703
▁मोनसेया	-10.1706
गथ	-10.1707
▁प्ल	-10.1708
थायारि	-10.1708
............	-10.1708
▁दिनाव	-10.1711
▁कमाण्डखौ	-10.1717
▁बाजा	-10.1724
केट	-10.1724
▁साब्रै	-10.1724
▁रुजुन	-10.1725
▁जाहोनो	-10.1726
आबौ	-10.1726
फिसौ	-10.1728
सुलि	-10.173
▁नायगिरनाय	-10.1736
▁लाइजामा	-10.1745
▁रेल	-10.1747
▁होवा	-10.1763
▁नायबिजिर	-10.1768
▁गोरान	-10.1768
ष्टार	-10.1771
फानो	-10.1772
फैनो	-10.1772
▁मनजुनि	-10.1779
▁अक्ट	-10.1782
▁खुन्दुं	-10.1783
▁आमेरिका	-10.1783
▁गुस्थि	-10.1783
▁मेहेर	-10.1783
▁गोब्राम	-10.1784
▁सुग्लाय	-10.1785
▁हामफे	-10.1785
▁मंगलसिं	-10.1785
▁मनिपुर	-10.1786
▁मुखुब	-10.1787
▁खुंथाइ	-10.1787
▁फावदुर	-10.1787
▁अगेन	-10.1788
▁बेहाय	-10.1789
▁सिमाङाव	-10.1789
▁डाइरेक्टरि	-10.179
▁बोख्लाय	-10.1791
▁गोदाव	-10.1792
▁इण्ड	-10.1792
▁बैसागि	-10.1793
▁भारतारि	-10.1794
▁थाइनै	-10.1796
▁बेखेवगासे	-10.1797
▁खबरदार	-10.1797
▁गवा	-10.1799
▁प्लेट	-10.1799
▁गामियारि	-10.1799
▁W	-10.18
▁।"	-10.1802
▁मुसुखा	-10.1802
▁अरहे	-10.1803
▁रोखोमसे	-10.1805
▁कमल	-10.1806
▁सिफि	-10.1807
▁आवराय	-10.1809
▁समाजारि	-10.1809
▁जगाय	-10.1809
▁जानोसै	-10.1812
▁थाबथा	-10.1814
▁हटेलाव	-10.1817
▁सायखं	-10.182
..............	-10.1822
▁जोंरु	-10.1822
▁गंस्रिनानै	-10.1822
▁मिथिस	-10.1828
▁सुथि	-10.183
▁गैयाब्लाबो	-10.1832
▁हब्रा	-10.1843
थाराखै	-10.1843
▁मोथो	-10.1845
हैदोंमोन	-10.1851
▁दासि	-10.1855
▁दरलाय	-10.1856
▁बावदा	-10.186
▁थारै	-10.1862
▁फैगासिनो	-10.1863
▁दावला	-10.1866
▁फिसाजोआ	-10.1877
▁बारसोम	-10.1878
बियो	-10.1885
▁होनाया	-10.189
▁आइया	-10.1892
▁बारस	-10.1892
▁6.	-10.1895
नांसिगौ	-10.1895
▁दामै	-10.1922
▁नाजाबाय	-10.1924
▁नुगोन	-10.1926
▁गारामा	-10.194
▁थामथिम	-10.195
▁गुदुंजों	-10.1954
इस	-10.1954
▁आखा	-10.1955
थारनाय	-10.1955
▁खनथाम	-10.1955
▁बस	-10.196
▁गिबियाव	-10.1965
▁हेला	-10.1967
▁सुजुनाय	-10.1969
▁बेव	-10.1972
▁गाबनि	-10.1978
▁जय	-10.1979
भार	-10.199
▁जनाय	-10.1994
▁फालिनाय	-10.1997
▁संनाय	-10.1999
▁थालानि	-10.2003
▁मोदैखौ	-10.2013
▁फाइ	-10.2015
खुथु	-10.2017
▁बायो	-10.2019
▁जयै	-10.2021
मिटार	-10.2023
▁मोदैया	-10.2025
▁बिसिनि	-10.2027
र्द	-10.2028
हैनानै	-10.2033
▁दाहो	-10.2036
...........	-10.2042
▁चे	-10.2043
▁केसखौ	-10.2045
▁थों	-10.2047
लाबानो	-10.2053
▁हाबफैनाय	-10.2061
▁खना	-10.2077
यारी	-10.2081
लेर	-10.21
▁जर	-10.2101
▁फिसाफोर	-10.2106
▁मोनग्रा	-10.2117
▁हारसिंनो	-10.212
▁जोलै	-10.2126
................	-10.2132
▁थब्ल	-10.2134
▁सुमिला	-10.2141
▁गावो	-10.2144
▁बुंखो	-10.2146
▁हांखोआ	-10.2154
बावनांगौ	-10.2158
▁रेन्जार	-10.2168
▁मोदैजों	-10.217
▁बाथा	-10.2185
1.	-10.2193
▁नुजानाय	-10.2196
▁गासैखौ	-10.2197
▁जानायसै	-10.2207
▁हांखोजों	-10.2207
▁बेखेवगा	-10.2209
▁मावफारिया	-10.2211
▁मोजाङैनो	-10.2214
दुं	-10.2218
▁बिसोरहा	-10.222
▁..........	-10.2221
ग्दाव	-10.2225
जेन्नाय	-10.2227
▁जाथाव	-10.2229
बावनाय	-10.2229
▁लुबैनायखौ	-10.2229
▁गोलोम	-10.223
▁फोथायखेबस	-10.2233
▁भ्लादिमिर	-10.2233
▁स्टार्ट	-10.2233
▁इन्जिनियार	-10.2233
▁पाकिस्तान	-10.2233
▁गलाफी	-10.2233
▁थासान्दियाव	-10.2233
▁बिखुङाव	-10.2233
▁दानसोरां	-10.2233
▁थुबुर	-10.2233
▁मारुटि	-10.2233
▁जीउ	-10.2233
▁होख्राव	-10.2233
▁प्रिन्ट	-10.2234
▁बेलश्री	-10.2234
▁हांखुर	-10.2235
us	-10.2241
▁गंगार	-10.2241
▁उदखारि	-10.2242
▁मोनदां	-10.2243
▁बेग	-10.2245
▁कर्ट	-10.2249
▁रंजाली	-10.2249
▁मन्स	-10.2251
▁बिमायं	-10.2251
2.	-10.2254
▁नांलिया	-10.2254
▁थारैब्ला	-10.2255
स्रोम	-10.2259
▁एरैबादि	-10.2261
▁अक्सिन	-10.2262
आखु	-10.2263
▁खुलुमो	-10.2264
▁गुरैयै	-10.2266
रुवा	-10.2268
▁फेदेर	-10.2269
▁बुंथि	-10.2271
▁सेयाराव	-10.2271
▁L	-10.2272
▁बुदों	-10.2275
▁थिर	-10.2276
ेस्वर	-10.2276
ष्टि	-10.2278
▁सान्थि	-10.2279
न्याव	-10.228
▁मोनखाङो	-10.2281
फं	-10.2284
▁लाहारी	-10.2288
▁सुखे	-10.2289
▁भुटान	-10.2291
मारो	-10.2298
गावनि	-10.23
▁जानांदों	-10.23
▁मोन्दोंमोन	-10.23
र्थ	-10.2302
▁फालांगिरि	-10.2307
▁जाति	-10.2309
नोंनि	-10.2309
▁सेंग्राफ्रा	-10.2313
▁ओंखारलांबाय	-10.2315
माथो	-10.2318
▁जाबावनो	-10.2321
▁बिहारि	-10.2325
▁बायजोयाव	-10.2328
▁गांनाय	-10.233
▁सेंग्राफोरा	-10.233
▁फाहामथायनि	-10.2333
▁बिमाय	-10.2334
▁सोमबोरा	-10.2334
▁हेफाजाबै	-10.2336
▁सोलायो	-10.2336
▁आंहाबो	-10.2338
नाङै	-10.2341
▁राइ	-10.2342
▁बुन्दिया	-10.2355
▁खारो	-10.2361
▁पार्	-10.2371
▁बोखाव	-10.2373
▁दालि	-10.2373
▁मोनायाव	-10.2377
▁अरा	-10.2377
फोद	-10.2379
▁टेबोल	-10.2383
न्द्र	-10.2387
हरा	-10.2393
▁नार्जारीया	-10.2394
▁आन्दो	-10.2404
▁खालायनाय	-10.2405
▁आप	-10.2405
पारा	-10.2405
▁रायखां	-10.2415
गिरिया	-10.2418
▁नख	-10.2418
माबि	-10.2421
▁इसोर	-10.2423
▁दाजा	-10.2425
▁सिख्लाफोर	-10.2427
स्था	-10.2432
▁फिसाज्लाखौ	-10.2432
▁मानिबा	-10.2438
▁दायो	-10.244
▁फालाय	-10.2463
▁लाखिनानै	-10.2473
▁दुर्जांनि	-10.2475
गारदों	-10.2475
▁दावखा	-10.2477
▁साख	-10.2486
▁नोंदा	-10.2492
▁गेजेरनि	-10.25
▁गाननानै	-10.2519
▁जेला	-10.2523
▁फब	-10.2524
▁फरा	-10.2528
▁सोलोंथाय	-10.2538
▁रोजाब	-10.2541
हाया	-10.2542
▁दोहोन	-10.256
▁फुरा	-10.2563
▁बेलखौ	-10.2568
जेननाय	-10.2568
▁खोथायाव	-10.2576
▁सोदोबजों	-10.2578
▁बेलाय	-10.2581
सब	-10.2588
em	-10.2589
न्जा	-10.2597
▁गोदाना	-10.2598
▁हरबिलास	-10.2604
...।	-10.2608
4.	-10.2608
▁माब्लाबाबो	-10.263
खायसो	-10.2643
▁आबारी	-10.2645
बिनानाव	-10.2646
▁बाथुवा	-10.2647
▁जाखांनाय	-10.2647
▁आखुफोरा	-10.2648
▁बुंजा	-10.2656
▁बोराब	-10.266
▁दावबायारिफोर	-10.2666
फाहार	-10.2667
6.	-10.2667
3.	-10.2668
ायनानै	-10.2669
▁सायावनो	-10.2674
▁सरला	-10.2676
▁दुर	-10.268
मालाय	-10.2683
▁फुवा	-10.2688
क्राझार	-10.2699
▁कास्तमार	-10.2703
▁रुगुं	-10.2703
▁लोमसाव	-10.2703
▁हान्थु	-10.2703
▁थिखादार	-10.2703
▁आलुमिंगि	-10.2703
▁रुवाथी	-10.2704
▁बुरजा	-10.2704
▁जेरबा	-10.2704
▁बिखं	-10.2704
ित्य	-10.2705
▁राभा	-10.2705
▁बयनिख्रुइ	-10.2706
▁फिदिं	-10.2706
▁बेखेवगाथाम	-10.2706
▁जोथोन	-10.2708
▁जानगार	-10.2709
▁बोदोर	-10.2709
▁नोगोरनि	-10.2711
▁आसागि	-10.2711
▁खावलाइ	-10.2713
आशा	-10.2714
▁हाबबोयो	-10.2715
▁गारहर	-10.2715
▁पुरा	-10.2715
श्व	-10.2717
▁लाकी	-10.2718
▁डाक्तार	-10.2719
▁उरां	-10.272
▁स्राय	-10.2722
▁सावरायनो	-10.2723
▁अभि	-10.2724
नांदि	-10.2731
▁किटसेन	-10.2731
▁रोखोमै	-10.2732
▁गोमोयो	-10.2734
▁नायहाब	-10.2734
▁सोनारनानै	-10.2735
▁नायगिरो	-10.2735
▁G	-10.2736
▁सुला	-10.2739
▁रानि	-10.2739
गं	-10.2742
▁बाजु	-10.2743
▁हांगारिया	-10.2743
▁हार्ट	-10.2747
▁पलि	-10.2747
▁खालामाखै	-10.2749
ेहाद	-10.2752
▁सावगारिया	-10.2753
▁दैखाङो	-10.2754
▁हांख्रायनाय	-10.2758
▁गावरावा	-10.2763
▁हाबहैबाय	-10.2767
▁रेन्जारा	-10.2772
▁फिसाय	-10.2777
जिया	-10.2779
▁खन्थाइगिरि	-10.2781
▁सावख्लिया	-10.2781
▁बिजिरगिरिया	-10.2782
▁धोनि	-10.2787
▁फुलि	-10.2791
न्दों	-10.2791
ग्रोन	-10.2792
▁बाजाराव	-10.2795
एल	-10.2804
▁थेला	-10.2806
▁समखौ	-10.2821
▁लिरदोंमोन	-10.2826
▁सुपार	-10.2829
▁मम	-10.2833
▁गराय	-10.2836
▁बाबा	-10.2843
▁फोथार	-10.2848
ग्ल	-10.2851
बालु	-10.2851
▁सानराय	-10.2854
▁संनो	-10.2859
फैदोंमोन	-10.2861
▁बोथोराव	-10.2869
▁मावगोन	-10.287
▁गारनाय	-10.288
▁खामानिनि	-10.288
▁गोहोजों	-10.2888
सोमोन	-10.2893
▁रांखान्थि	-10.29
8.	-10.2902
▁लै	-10.2902
▁सोमाव	-10.291
▁नागिरबाय	-10.2915
▁लुनाय	-10.2916
▁नागिरना	-10.2919
फानानै	-10.2924
लासिनो	-10.2926
▁सरकारनि	-10.2927
▁बुरैया	-10.2929
फारि	-10.2929
▁हांसो	-10.2932
▁होयोब्ला	-10.2938
ri	-10.2942
▁आयदाखौ	-10.295
▁बावदियाया	-10.2968
▁नारा	-10.297
▁हामला	-10.2971
▁खेबाव	-10.2971
फिनदों	-10.2974
▁उखै	-10.2974
▁अबं	-10.2975
▁महन	-10.3011
am	-10.3022
▁बाहायदों	-10.3027
▁गुमुर	-10.303
▁हानायनि	-10.3033
▁मानिनां	-10.3037
▁सेप्तेम्बराव	-10.3046
▁सानाव	-10.3049
▁हायैनि	-10.305
▁बिफाना	-10.3053
नांसिगोन	-10.3053
वानो	-10.3056
▁सावगारिखौ	-10.3057
ेत	-10.3058
थिलि	-10.3059
▁h	-10.3059
मारनो	-10.306
un	-10.3062
▁दन	-10.3074
▁बोनो	-10.3074
▁मोब्लाव	-10.3075
▁सानैखौ	-10.3077
थ्र	-10.3077
▁लाजिया	-10.3078
▁बाहागोखौ	-10.3093
19	-10.3103
हाव	-10.3104
ाय	-10.3108
▁खान	-10.311
▁फावथाइया	-10.3112
▁नाथ	-10.3121
▁नरेश	-10.3128
▁झ	-10.3133
R	-10.314
आरसा	-10.314
▁गावहा	-10.3145
▁इराग्दावनि	-10.3153
▁गुदुङ	-10.3158
▁खुगाया	-10.3171
▁जोमनाय	-10.3173
▁सुशान्त	-10.3174
ion	-10.3179
दौ	-10.3182
होनायनि	-10.3184
pe	-10.3186
▁थाबै	-10.3193
▁थुनलाया	-10.3196
▁स्क्र	-10.3196
▁रैसुमै	-10.3197
▁सानबोलाउरि	-10.3197
▁इन्जुर	-10.3197
▁एमफौ	-10.3197
▁नबेम्बर	-10.3197
▁बाज्ल	-10.3197
▁बिल्डिं	-10.3197
▁मुसाहारी	-10.3197
▁सेकस्पीयार	-10.3197
▁अबथिरा	-10.3197
▁चित्त	-10.3197
▁खाइला	-10.3198
▁मुलुक	-10.3198
▁प्रदिप	-10.3198
▁अजद	-10.3198
▁बिथराइ	-10.3198
▁जोख्लोब	-10.3199
▁द्रइ	-10.3199
▁नारें	-10.3199
▁बेखेवगाब्रै	-10.3199
▁अनसुलि	-10.32
▁प्रसेन	-10.32
▁खेंख्रा	-10.3201
बोआखै	-10.3201
▁गोमसार	-10.3202
▁गुसुङै	-10.3203
▁दैदेननाय	-10.3203
▁रुंसारि	-10.3203
▁थोजासे	-10.3204
द्रु	-10.3204
▁गोखै	-10.3205
▁सात	-10.3206
▁साइट	-10.3207
ess	-10.3211
▁जानायमोन	-10.3214
▁नांजाब	-10.3214
▁!!!	-10.3216
बादाव	-10.3217
▁एक्स	-10.3217
▁खुदै	-10.3218
▁ओनसोलाव	-10.3219
▁बिलिद	-10.3221
▁फांसे	-10.3221
▁जुथुम	-10.3222
▁बेखेवगाबा	-10.3222
गारबाय	-10.3224
▁नैजि	-10.3226
▁सुस्रां	-10.3227
▁अलकानि	-10.3229
▁अनलायनाय	-10.323
▁हारा	-10.3231
▁हादाब	-10.3231
▁जिङाव	-10.3233
▁जेथो	-10.3234
▁देनां	-10.3236
ेयार	-10.3245
▁खेमा	-10.3245
▁थाथों	-10.3248
▁गैलामोन	-10.3249
▁समनिफ्रायनो	-10.325
▁हरखाबै	-10.3252
▁गोजाननि	-10.3257
▁जोंबाय	-10.3257
▁26	-10.3266
▁एराय	-10.3266
फ्लि	-10.3267
▁लावथि	-10.3267
▁महाराजानि	-10.3268
▁गनायथि	-10.3269
nd	-10.3275
▁ओनसोलनि	-10.3277
▁सोला	-10.3281
▁th	-10.3292
▁रिंसारथि	-10.3294
▁लान्थाया	-10.3295
▁फाथि	-10.3299
▁हिन्जावफ्रा	-10.3299
न्नो	-10.3301
▁लरेना	-10.3307
ख्लि	-10.3309
▁मना	-10.3309
▁लाखियो	-10.3309
▁रुमनिफ्राय	-10.3314
▁मुसु	-10.3323
▁दुसि	-10.3325
▁............	-10.3327
▁खौसेथि	-10.3328
▁हाबनाय	-10.3329
▁बारायनाय	-10.3332
जासिम	-10.3333
▁मोननायखौ	-10.3333
▁खावलायाव	-10.3336
▁सिङा	-10.3336
▁मोनैनि	-10.3345
साब	-10.3347
▁थिनहरदों	-10.3349
▁गलि	-10.338
▁थाबायनाय	-10.3389
▁स्प	-10.3394
▁थाखायसो	-10.3396
जम	-10.3396
▁नांदों	-10.3404
▁मदन	-10.3405
▁बाइ	-10.3406
▁गिदिंबाय	-10.3416
▁खोनानै	-10.3422
▁छ	-10.3428
गी	-10.343
▁खाला	-10.3431
▁नुमार	-10.3432
▁रान्	-10.344
▁नागाफोर	-10.3441
▁दोनखोमा	-10.3442
गिरिनि	-10.3447
खाङा	-10.3451
▁हाराव	-10.3458
ate	-10.3464
▁मोनाखैमोन	-10.3467
▁दलर	-10.3479
▁जंखाय	-10.3485
▁गोजांनाय	-10.3489
▁जिर	-10.3492
▁सोलोजों	-10.3492
▁सोल	-10.3494
▁जमा	-10.3495
▁रायदाव	-10.3496
▁गाइ	-10.3501
▁खिन्थाहै	-10.3502
▁सिखोमा	-10.3504
▁बावै	-10.3517
ते	-10.3519
▁बोलोजों	-10.3519
▁खुनु	-10.3525
खावरि	-10.3526
▁एरखां	-10.3526
बजबनानै	-10.3536
▁गासिनो	-10.3536
▁फन	-10.3539
▁फिसि	-10.354
▁जाल	-10.3545
▁गन	-10.3557
▁बोखा	-10.3559
▁साननि	-10.3563
...."	-10.3571
शन	-10.3574
▁साहाखौ	-10.3577
▁जेल	-10.3584
▁खोमदोना	-10.3584
▁बुन्दि	-10.3586
्रेद	-10.3589
▁बावलां	-10.3591
5.	-10.3593
▁जोंलाय	-10.3602
▁नोमफा	-10.3605
▁आखला	-10.3606
▁नांबाय	-10.3607
▁लिरनायाव	-10.3621
▁सानगोन	-10.3639
▁हिन्जावफोरा	-10.3642
▁साफ्रासी	-10.3645
▁सेरजों	-10.3651
▁40	-10.3654
▁लाखा	-10.3656
सान्दि	-10.3663
ओहो	-10.3665
नालाय	-10.3666
▁जोबनानै	-10.3672
▁मावा	-10.3674
▁जिउवा	-10.368
▁थांनांगौ	-10.368
▁नोंसो	-10.3685
▁थानायसै	-10.3687
बिसोर	-10.3692
▁रिंसारखौ	-10.3696
▁हामथार	-10.3702
▁साय	-10.371
DOS	-10.3717
▁अपारेसन	-10.3717
▁एप्लिकेसन	-10.3717
▁गिख्रंथाव	-10.3717
▁नंमारगौ	-10.3717
▁प्राइभे	-10.3717
▁अबंलावरि	-10.3717
▁इन्दु	-10.3717
▁कामरुप	-10.3717
▁मोनसिंसिं	-10.3717
▁वेब	-10.3717
▁दुर्गा	-10.3717
▁अनजालि	-10.3717
▁मोसाहारी	-10.3717
▁गाबख्राव	-10.3717
▁हालमाजि	-10.3717
▁सती	-10.3717
▁गहेना	-10.3717
▁हमदांनो	-10.3717
▁बिगुमा	-10.3718
▁बेलस्री	-10.3719
▁लेबेल	-10.3719
▁दाइनिं	-10.3719
▁रोङो	-10.372
▁बुङाखिसै	-10.372
▁थाजिम	-10.372
▁बोराइदब	-10.372
▁लायाखै	-10.3721
▁be	-10.3722
▁बुदुं	-10.3723
▁खुबै	-10.3726
▁थारुन	-10.3727
▁उफ्ले	-10.3731
▁बिट	-10.3733
▁दैमारी	-10.3733
▁सिथर	-10.3734
▁आइदिया	-10.3734
▁उदांस्रि	-10.3735
▁सोमस्रि	-10.3735
▁आवाज	-10.3736
▁मास्टार	-10.3739
▁हाद्रि	-10.3741
▁आगोलाव	-10.3742
▁नोगोरमानि	-10.3742
▁नोगोरमायाव	-10.3743
▁बिरहां	-10.3743
▁लांखार	-10.3746
▁कारजि	-10.3749
▁V	-10.375
▁महनलालनि	-10.3751
▁सेयार	-10.3753
▁दुखुथिया	-10.3753
▁गांफा	-10.3753
▁लाउथि	-10.3759
▁सादु	-10.3774
▁गोसोया	-10.3776
▁सेब	-10.3781
देरनाय	-10.3782
▁खेंफोर	-10.3782
▁खाफालखौ	-10.3785
▁बर्ड	-10.3787
बोरै	-10.3787
▁हामबुरा	-10.379
▁बिदिबादि	-10.3795
▁गावनाय	-10.3797
▁गोयै	-10.3798
▁आख	-10.3798
▁श्री	-10.38
▁गसंनो	-10.38
▁बाग	-10.38
▁बरमा	-10.3801
▁थारजा	-10.3802
▁लानांगोन	-10.3804
▁मोनजायो	-10.3804
▁नायथिं	-10.3805
▁इयुनाव	-10.3806
▁दंब्ला	-10.3808
▁मोनोब्ला	-10.3808
म्बार	-10.3808
▁फिनो	-10.3815
▁गोजाननिफ्राय	-10.3815
▁फुंखाया	-10.3818
▁फारनैजों	-10.3821
▁थालां	-10.3822
▁गयथिखौ	-10.3823
पुट	-10.3825
▁बं	-10.3825
▁दिहुन्नाय	-10.3826
▁फोलेरनि	-10.3829
मानसि	-10.3829
▁फैलाय	-10.3839
▁बोसोरसे	-10.3844
▁ट्राइबेलफोर	-10.3853
▁जाला	-10.3858
▁गोरलैयै	-10.3861
गाय	-10.3878
▁गसाइया	-10.3881
▁ट्र	-10.3881
▁हाबाफारिखौ	-10.3885
▁सैबारीया	-10.3887
▁लाफिन	-10.389
गारि	-10.3895
▁खानाया	-10.3897
▁सुबुंआ	-10.3904
▁खायनो	-10.3908
▁गोग्लैबाय	-10.3909
ामोन	-10.3909
▁बुंफिन	-10.391
▁ग्र	-10.391
थी	-10.3916
▁सें	-10.3925
फैलाय	-10.3927
▁जुवा	-10.393
▁गांसो	-10.3935
▁मोननांगौ	-10.3941
▁आथिंखौ	-10.3943
..."	-10.3945
▁जिसे	-10.3946
▁गोमोन	-10.3955
▁जागासिनो	-10.3964
▁गोरोबथा	-10.3966
▁दाबिनाय	-10.3972
ber	-10.3973
▁थानानि	-10.3975
▁मेथाय	-10.3976
▁बिथांमोननि	-10.3986
र्ब	-10.3991
ओं	-10.4001
सेयावबो	-10.4004
la	-10.4009
▁बाहायनायखौ	-10.4011
▁जोर	-10.4017
▁सुथुरा	-10.4017
▁खावनानै	-10.4023
▁आबा	-10.4026
▁हरम	-10.403
▁फिसाइया	-10.4035
▁मावबाय	-10.4036
▁खारबोनाय	-10.4037
▁भेन	-10.4041
र्ल	-10.4042
सारा	-10.4043
▁नुजाहै	-10.4052
▁सिलि	-10.4065
▁गंसेयाव	-10.4078
▁गारिया	-10.4079
▁d	-10.408
▁व	-10.4085
▁हाजोनि	-10.4087
▁बोजोंनि	-10.4096
▁बुंलांदों	-10.41
▁नागिरहै	-10.4101
▁रादाबखौ	-10.4101
▁बेंगल	-10.4105
▁लानानैनो	-10.411
▁बुजा	-10.4111
▁जोहोलावनि	-10.4113
न्ज	-10.4119
▁सिख्लाखौ	-10.4123
टक	-10.4128
▁नेनानै	-10.4131
▁नोजोरजों	-10.4133
ुल	-10.4139
फारिया	-10.4139
▁हायाब्ला	-10.414
▁खांनाय	-10.4144
▁मोनि	-10.4144
▁थिनदों	-10.4144
▁लरेन	-10.4149
आयै	-10.4155
▁आबैया	-10.4158
▁de	-10.4159
▁बावनानै	-10.4169
our	-10.417
▁देरहानाय	-10.4174
वाखैमोन	-10.4185
▁सुद	-10.419
फ्लांबाय	-10.4193
▁कन	-10.4194
ज्राब	-10.4207
जेबो	-10.4217
▁थांनाया	-10.4228
आखाइ	-10.4233
▁अरजा	-10.4235
▁स्ल	-10.4246
आंबो	-10.4246
▁दिना	-10.4248
तार	-10.4252
नेल	-10.4256
▁बाखनाय	-10.4263
▁भुगि	-10.4264
▁कन्ट्रल	-10.4265
▁गगल्स	-10.4265
▁गोल्लै	-10.4265
▁जोंरूवा	-10.4265
▁ड्रयिं	-10.4265
▁बङाइगाव	-10.4265
▁सिलिंखार	-10.4265
▁सोदोमस्रि	-10.4265
▁गोजांस्रिव	-10.4265
▁खंख्ला	-10.4265
▁खाम्फा	-10.4265
▁सोमखोर	-10.4265
▁नेवसि	-10.4265
▁हिंसा	-10.4265
▁बरपेटा	-10.4265
▁अमब्रागं	-10.4265
▁(4)	-10.4265
▁सर्मा	-10.4265
▁माउजि	-10.4266
▁इण्डिया	-10.4266
▁आगष्ट	-10.4267
▁मोजाङा	-10.4267
▁खौराङा	-10.4267
▁हारसा	-10.4267
िर	-10.4267
▁टर्स	-10.4267
▁जिबख्रि	-10.4268
▁सन्थाल	-10.4268
▁आवाराम	-10.4268
ity	-10.4268
▁लगाय	-10.4269
▁दौदिनि	-10.4269
▁खिथेर	-10.4269
▁सुन	-10.427
▁बिबनां	-10.4271
▁सोलेर	-10.4271
▁रोहो	-10.4271
▁बरुवा	-10.4272
▁रायजित	-10.4272
▁मिन्थिया	-10.4273
▁फंनैसो	-10.4274
▁खौरांगासे	-10.4275
▁मुगैथाव	-10.4275
▁थांनायनि	-10.4276
▁बुदारुवा	-10.4279
लाङासै	-10.4279
▁अनथाइ	-10.428
▁अरदाब	-10.4283
▁जोंथिहा	-10.4286
▁हास्थायनाय	-10.4288
▁सफैबाय	-10.429
स्रेम	-10.4292
ख्रां	-10.4292
▁थायसे	-10.4297
▁नरेना	-10.4298
▁जिगाब	-10.4299
▁सिरां	-10.4304
▁खननै	-10.4305
▁जुनार	-10.4309
▁सेवारिया	-10.431
▁सोरजिगिरि	-10.4311
▁गुबुननि	-10.4316
▁गाबज्रियो	-10.4317
▁गमामायै	-10.4317
▁हिउ	-10.4317
▁बिलाइनि	-10.4318
मोसा	-10.4319
▁जालांनाय	-10.4321
▁जथुम	-10.4323
▁सब	-10.4323
▁बुद	-10.4324
▁राजि	-10.4325
▁थांखु	-10.4326
▁संदान	-10.4328
▁अलकेशा	-10.4332
▁आर्ट	-10.4334
▁मोननि	-10.4335
▁गाब्रै	-10.4336
▁थोआ	-10.4338
▁खल	-10.434
▁सेव	-10.4341
▁मिथियै	-10.4344
▁फांथेनानै	-10.4346
▁दालां	-10.4349
...!	-10.4357
▁थुदो	-10.4361
▁थोनो	-10.4368
▁नायजाबा	-10.4368
सानै	-10.4372
▁दैथायहर	-10.4375
▁हिनजावसा	-10.4384
▁नोमफाया	-10.4384
▁सेनो	-10.4386
थिख	-10.4387
▁नाजागोन	-10.4395
▁फाथै	-10.4395
▁बुरि	-10.4401
▁रमेना	-10.4401
▁खासि	-10.4406
▁आब्रा	-10.4406
▁खाफाला	-10.4413
▁अन्नायाव	-10.4418
▁सुनै	-10.4421
▁थाबाव	-10.4421
▁नखौ	-10.4423
▁जालायबाय	-10.4425
▁सोद्रोमाफोरा	-10.4429
▁बिबां	-10.443
▁लाफानानै	-10.4436
▁दान्	-10.444
▁जौगाखां	-10.4443
▁थें	-10.4447
▁गारो	-10.4459
▁सुबुंफोरखौ	-10.446
▁नोजोरा	-10.4461
▁खुलुमनानै	-10.4462
▁दोनै	-10.447
भु	-10.447
▁हाग्रामा	-10.4485
▁बुनो	-10.4486
▁बिफान	-10.449
▁जोबस्रां	-10.4492
▁माइल	-10.4498
▁थायोमोन	-10.4503
▁खाफालनि	-10.4504
are	-10.4505
▁बाराव	-10.4507
▁होनै	-10.4507
▁आलासिफोर	-10.4512
▁साफ्रोम	-10.4515
लाङाखै	-10.4518
▁जिरादखौ	-10.4518
▁बाहागोनि	-10.4525
▁गोग्लैसो	-10.4534
▁नोंगौ	-10.4535
▁जारिमिननि	-10.4551
▁बिना	-10.4556
▁होनलाय	-10.4558
▁होम	-10.4558
▁थैगोन	-10.4567
▁गोजौनि	-10.457
थर	-10.4574
▁दावगानाय	-10.4576
▁थोनाय	-10.4578
▁माना	-10.458
बेर	-10.4583
त्रि	-10.4586
▁बाजैया	-10.4586
▁सिगांनो	-10.4597
▁नायदों	-10.4601
▁लाग्रा	-10.4607
▁बिथांखौ	-10.4608
▁बिनहारीखौ	-10.4616
सालिनि	-10.4624
▁गिदिंनानै	-10.4627
▁रेस	-10.4632
फुनायाव	-10.4636
बेथेर	-10.4638
▁मानसियानो	-10.4644
▁बिहार	-10.4674
▁सोङा	-10.4676
इट	-10.4679
▁खोल	-10.4682
▁सालाया	-10.4693
मुक	-10.4694
▁बाजिनि	-10.4696
▁बेसोर	-10.4699
▁सुबुंखौ	-10.4709
्लुब	-10.4709
खोमाबाय	-10.4722
▁अबंलाउरि	-10.4729
खुर	-10.473
▁गयो	-10.4737
▁गोर्बोनि	-10.4751
▁हुस	-10.4754
▁गोरोबनाय	-10.4763
▁हामबुर	-10.4763
हैदिनि	-10.4769
▁जौगाखांनाय	-10.4771
▁बिथिंखौ	-10.4772
▁दङमोन	-10.4778
ठ	-10.4786
▁फुट	-10.4787
M	-10.4788
गाज्रि	-10.4788
हिन्जाव	-10.4788
▁सोरजिनो	-10.4789
▁राखेब	-10.4792
मोजां	-10.4792
▁गाहाया	-10.4793
गुबै	-10.4795
▁हाबाफारिनि	-10.4795
▁मानिया	-10.4795
ओइ	-10.4796
▁अनो	-10.4801
▁स्व	-10.4802
▁गाबनायखौ	-10.4802
जायि	-10.4804
▁ओंखारनो	-10.4822
▁लाम	-10.4827
▁आयदानि	-10.4827
▁दागि	-10.483
गाथाम	-10.483
▁दुपसाव	-10.4835
▁राइजोफोरखौ	-10.4843
▁पाब्लिक	-10.4844
ञ	-10.4845
रेटरीयाव	-10.4845
▁उखुन्दै	-10.4845
▁एष्ट्राग	-10.4845
▁गैजारोङै	-10.4845
▁गोख्रोङै	-10.4845
▁जिबारेलिन	-10.4845
▁तरुण	-10.4845
▁नेटवार्क	-10.4845
▁प्रफेसार	-10.4845
▁बुद्रै	-10.4845
▁सानबोलावरि	-10.4845
▁सिन्दुर	-10.4845
▁हाबिलदार	-10.4845
▁मोखथां	-10.4845
▁मरनिं	-10.4845
▁गामाखालि	-10.4845
▁गागि	-10.4845
▁राजथावनि	-10.4845
▁सयथि	-10.4845
▁नांथारगौ	-10.4845
▁साबाइस	-10.4845
▁जागि	-10.4845
▁मैहुरारी	-10.4845
▁मावमोनथाय	-10.4845
▁सोहोर	-10.4845
▁साइखेल	-10.4846
▁MS	-10.4846
▁थालिर	-10.4846
▁माउस	-10.4846
ज्रां	-10.4846
▁अलखद	-10.4846
▁डेटा	-10.4848
▁रंगिना	-10.4848
▁नेपाल	-10.4848
▁बानजायफुं	-10.4849
▁सोंहरबाय	-10.4849
▁काल	-10.485
▁गैथारा	-10.485
▁गावराव	-10.4852
▁फख्रि	-10.4855
गोमा	-10.4856
▁जाफुङा	-10.4858
▁जोबाखै	-10.486
▁नांज्लाय	-10.4861
▁बिबौ	-10.4861
▁फानलु	-10.4864
▁माइथाय	-10.4864
▁बोस्रां	-10.4865
▁सानखो	-10.4865
▁फेन्दा	-10.4866
▁साखाथि	-10.4869
▁बिदुं	-10.4871
▁अमर	-10.4872
▁फेर	-10.4875
▁B	-10.4875
▁नुहुर	-10.4877
▁आगोलनि	-10.4877
गुरी	-10.4878
▁हाजोआव	-10.4879
▁बैसोआव	-10.488
बावनानै	-10.4882
▁खैला	-10.4885
▁मुजि	-10.489
▁राजखान्थिनि	-10.4892
▁सान्ति	-10.4893
0.	-10.4894
दांनाय	-10.4898
▁199	-10.4898
▁गान्दा	-10.4899
▁आसान	-10.4899
▁फोथायो	-10.4899
▁थाखोआव	-10.4902
▁दिनथि	-10.4903
▁नोजोराव	-10.4903
▁गान्नानै	-10.4906
▁हेद	-10.491
गय	-10.491
▁बोसोरनै	-10.4921
▁दोगोन	-10.4925
▁सेक्सपीयेरनि	-10.4927
▁हुक	-10.4928
▁हास	-10.4929
▁जिंगासि	-10.4932
▁नेर	-10.4934
गाब्रै	-10.494
▁जाबायमोन	-10.4941
गोजा	-10.4943
▁एरसो	-10.4944
▁दाबसेयाव	-10.4945
▁सावनाय	-10.4947
▁दाउब	-10.4951
▁मोनामनाय	-10.4951
▁लोंग्रा	-10.4955
िटि	-10.4957
▁जारिमिनाव	-10.4959
▁समबारुवा	-10.496
लेब	-10.4964
▁थांहां	-10.4967
▁थाखानाय	-10.4968
▁बेखौल	-10.4971
न्दर	-10.4972
▁दिङा	-10.4975
▁ताल	-10.4978
फादेर	-10.4981
▁बाहागोआ	-10.4982
▁सोदोबआ	-10.4984
▁खमलाय	-10.4985
▁होखां	-10.4988
▁जागायनाय	-10.4988
ir	-10.4991
बेसे	-10.4994
▁खालामदो	-10.4996
▁गेटाव	-10.4999
▁खुरनानै	-10.4999
▁जोहोलावा	-10.5
▁बोरायखौ	-10.5002
▁जोबनायाव	-10.5002
बिलाइ	-10.5006
गथाय	-10.5012
▁दरबासिया	-10.5013
▁सिउ	-10.5018
▁मेगनखौ	-10.5021
▁हौवाफोर	-10.5021
▁जासेनो	-10.5032
▁लादो	-10.5037
▁रहेलाया	-10.5039
▁दोहो	-10.5052
▁मुलियाव	-10.5053
▁मोसाया	-10.5059
▁हासु	-10.5063
▁रिंखां	-10.5063
▁दैमाया	-10.5066
▁गोनाङ	-10.5068
▁लाबोबाय	-10.5069
▁रोंनाय	-10.5075
▁लायाब्ला	-10.5081
▁अप	-10.5087
▁नांगौब्ला	-10.509
▁गाबबाय	-10.5094
▁बखि	-10.51
▁दोलो	-10.5102
▁खालामनायखौ	-10.5111
▁थुनफावथाइयाव	-10.5114
▁होबोदों	-10.5121
एस	-10.5124
▁मुलुगा	-10.5125
फाखा	-10.5126
रोन	-10.5127
▁जायोमोन	-10.5129
▁नांला	-10.5131
▁दाजानाय	-10.5132
▁आह	-10.5132
▁आखि	-10.5133
▁हिर	-10.5135
▁बिदाया	-10.514
▁बेद	-10.514
▁गोमाजा	-10.5154
्दार	-10.5156
गारा	-10.5162
न्थाय	-10.517
▁खैना	-10.517
पार	-10.517
▁लख्रा	-10.5174
▁साइख	-10.5179
▁बिबाय	-10.5179
▁कन्	-10.5181
फालु	-10.5193
्न	-10.5193
▁अन्नायखौ	-10.5195
▁गोसोवा	-10.5201
▁मावनायाव	-10.5206
▁हाबलां	-10.5209
▁बथलखौ	-10.5225
▁साजायनाय	-10.5227
सोमनानै	-10.5231
▁सोमहाब	-10.5238
▁आग्रा	-10.5252
बिला	-10.5265
▁/	-10.5267
▁हमजा	-10.5272
▁बुंग्रा	-10.5275
हांमा	-10.5277
▁उदाय	-10.5278
थ्रि	-10.5284
▁नायग्राफोर	-10.5289
▁सायो	-10.5292
.00	-10.5295
▁सोंखारि	-10.5299
सारि	-10.5301
▁मिथिंगाया	-10.5304
▁धोरोमा	-10.5307
▁होफैदों	-10.5314
▁रायज्लायनो	-10.5329
▁गौ	-10.5329
जाम	-10.5333
▁साबा	-10.5333
▁जाहोनाय	-10.5336
▁दाथ	-10.5349
▁फान्दायनाय	-10.5365
▁मुलुगखौ	-10.5371
▁सिंह	-10.538
▁सान्थ्रिफोर	-10.5382
▁अलकेश	-10.5385
▁मोनब्लानो	-10.5392
▁होलां	-10.5397
▁दारि	-10.5397
फार्से	-10.5403
उन्दै	-10.5403
थेवबो	-10.5404
ओंखार	-10.5404
फोनां	-10.5405
निफ्राइ	-10.5408
▁बाब	-10.5414
▁टेबुल	-10.5414
▁हटेल	-10.5415
▁सियार	-10.5428
मुस्रि	-10.5433
▁लाइजौ	-10.5445
ब्रि	-10.5448
म्बर	-10.5449
▁सालिसनि	-10.5451
▁या	-10.5452
▁आथिङा	-10.5455
▁27	-10.546
▁एप्रिल	-10.546
▁गब्लं	-10.546
▁थुंगि	-10.546
▁नारायण	-10.546
▁बङाइगाँव	-10.546
▁बिजनेस	-10.546
▁बुर्लुंबुथुर	-10.546
▁लग्न	-10.546
▁संस्कृत	-10.546
▁मोगथाङा	-10.546
▁देरहासाद	-10.546
▁अक्त	-10.546
▁बाबांसिन	-10.546
▁बिजनी	-10.546
▁आरांगा	-10.546
▁बिन्दो	-10.546
▁थिरांथा	-10.546
ंग्री	-10.546
▁ड्राइभ	-10.546
▁बिलाइस्रिया	-10.546
▁हाइजें	-10.5461
▁बदनाम	-10.5461
▁अनागारि	-10.5461
▁दांग्रोम	-10.5462
▁सबाइ	-10.5462
▁खुंख्रा	-10.5462
▁दुयारी	-10.5463
घाट	-10.5463
▁मिलिटारि	-10.5464
▁थाइजौ	-10.5464
▁होआखै	-10.5464
▁लावखार	-10.5464
▁मार्क	-10.5464
▁खुद्रि	-10.5465
▁लेफे	-10.5465
ry	-10.5466
▁बिखौनो	-10.5466
▁सुवामि	-10.5467
▁हमासै	-10.5468
▁फुख्रि	-10.5468
थावथाव	-10.5469
▁ऐखालि	-10.5469
▁जानजि	-10.5472
फैनानै	-10.5472
▁दुथां	-10.5473
फ्लाङो	-10.5476
▁बांग्रि	-10.5477
▁जोबथारनायाव	-10.5478
▁ऋ	-10.5478
▁फान्नानै	-10.5478
▁दावहारु	-10.5479
▁बावहाय	-10.5479
थारनांगोन	-10.548
▁खिला	-10.5481
▁फाख्रि	-10.5481
▁नाम्बार	-10.5481
▁थालो	-10.5483
▁आखान्थि	-10.5484
▁गोथों	-10.549
▁डाइन	-10.5493
नांनोसै	-10.5494
▁बिनाव	-10.5494
▁हामगोन	-10.5494
▁खारदै	-10.5495
▁हाथेर	-10.5497
▁रंजालिनि	-10.5497
▁बिलोगो	-10.5497
▁हरेन	-10.5503
▁जाहोना	-10.5511
▁होम्बाना	-10.5512
▁हाबनो	-10.5513
▁जानांनाय	-10.5514
▁लेंहरदों	-10.5515
सिगौमोन	-10.5516
गद	-10.5517
▁दुब्लियाव	-10.5518
▁गरद	-10.5518
ङारि	-10.5522
बिस्रि	-10.5527
▁सिनायथिखौ	-10.5527
▁बुंङो	-10.5528
ne	-10.5529
▁जुथाय	-10.553
▁मोनलों	-10.5531
▁जालायखो	-10.5532
टिभ	-10.5535
▁थिनबाय	-10.5535
▁मिनिटसो	-10.5537
▁7.	-10.5537
▁खालामनांगोन	-10.5543
▁गेम	-10.5544
▁खुरमा	-10.5546
▁बिथिंनिफ्राय	-10.5551
थारसै	-10.5553
▁फार्	-10.5558
▁E	-10.5563
▁दंफांनि	-10.5563
▁फान्दाय	-10.5563
▁फाननो	-10.5567
▁खुसियै	-10.5567
▁आबु	-10.5571
▁हाबहैयो	-10.5572
▁खियो	-10.5575
▁सुबुंफोरनि	-10.5575
▁मोनथिगौ	-10.5577
▁खांनानै	-10.5578
▁बेलासियाव	-10.5581
▁दावसि	-10.5583
▁दाजाबनानै	-10.5591
▁गंब्रै	-10.5592
▁बानाजों	-10.5593
▁नायदो	-10.5594
▁फ्रि	-10.5595
▁जाथारबाय	-10.56
▁लिरग्रा	-10.5606
▁मिनिनो	-10.5614
▁दाथां	-10.5616
▁अख्रांनि	-10.5628
▁फारा	-10.5629
▁लांफै	-10.563
▁नुसन	-10.5631
▁फैफिनो	-10.5636
▁बुंबावनो	-10.5636
▁हौवाया	-10.5638
▁खालामखो	-10.5641
ग्रं	-10.5641
रेट	-10.5641
▁जिरायबाय	-10.5648
▁खामानिफोरखौ	-10.5651
▁मोनफिन	-10.5653
▁सोंदोंमोन	-10.5654
▁आरसा	-10.5655
▁सुजु	-10.5663
▁ब्ल	-10.5667
▁थैनानै	-10.5668
▁थियेटारा	-10.5673
▁जारिमिना	-10.5676
▁आग	-10.5676
▁थाबावनो	-10.568
▁खुवा	-10.5682
▁रसा	-10.5685
गोमजा	-10.5687
▁फुंनिफ्राय	-10.5687
▁रुमाल	-10.5688
▁सेवारिनि	-10.5691
दोंगो	-10.5708
▁सिखारबाय	-10.5709
▁प्रेमधर	-10.5714
▁आनै	-10.5715
▁बेगखौ	-10.5717
▁मुंमानि	-10.5733
▁फैयै	-10.5736
▁ब्र	-10.5739
▁बारन	-10.5741
▁जोलैनि	-10.5744
10	-10.575
▁रुमा	-10.5751
▁लोंदों	-10.5757
▁जोनोमगिरि	-10.5758
▁हेमलेटनि	-10.577
गुन	-10.5775
बोगासिनो	-10.5788
▁नायगिदिं	-10.5791
▁सोमजिहो	-10.5795
▁दरा	-10.5803
बाथा	-10.5803
▁होफैनाय	-10.5814
▁सुरथ	-10.5822
▁सोरबाया	-10.5823
▁बायदों	-10.583
▁खोनादों	-10.5831
▁सिरियै	-10.5836
▁फंबायखौ	-10.5838
▁एरनाय	-10.584
▁बाहायनायाव	-10.5847
▁100	-10.5863
▁आरतिखौ	-10.5878
▁जादो	-10.5882
कान्त	-10.5883
▁गानो	-10.5886
▁बुथारनो	-10.5889
▁दद्र	-10.5891
मेट	-10.5892
▁जागा	-10.5896
▁बारजों	-10.5897
▁जथ	-10.5904
▁मुगैनाय	-10.5905
▁खोनानाय	-10.5913
बंग्रा	-10.5921
साहा	-10.5922
▁नट	-10.5922
▁मेव	-10.5923
▁इयुनखौ	-10.5924
▁फैला	-10.5924
▁होनब्लानो	-10.5935
आरिखां	-10.5943
▁सानफा	-10.5943
▁होनायखौ	-10.5944
x	-10.5944
▁खाराव	-10.5945
▁नायबिजिरनाय	-10.5953
▁खहाब	-10.5954
दं	-10.5955
▁लाग्रो	-10.5957
▁लोगोफ्रा	-10.5958
▁लिंहरदों	-10.5966
▁लानायखौ	-10.5969
फ्लानानै	-10.5969
▁हालामनि	-10.5973
▁...........	-10.5977
▁ब्लाउ	-10.599
एनै	-10.5994
▁फिनखौ	-10.6003
▁बिबारा	-10.6023
▁एरख	-10.6023
नाथा	-10.6025
▁बोथोरा	-10.6031
▁मावब्ला	-10.6037
बिब्दि	-10.6037
▁लिरनाया	-10.6038
▁फावजों	-10.6043
▁जाथारदों	-10.6046
▁गोमोहाब	-10.6051
▁एरा	-10.6053
▁अमल	-10.6055
L	-10.6058
▁थुनफावथाइया	-10.6066
▁गंस्रि	-10.6069
▁बिग्रायारिफोर	-10.6072
▁रुप	-10.6088
▁हेमलेटा	-10.6096
ध्य	-10.6102
▁फोरोंनाय	-10.6106
ः	-10.6114
▁Soli	-10.6116
▁अदालगुरी	-10.6116
▁गोसोज्लिद	-10.6116
▁डिटेकटिभ	-10.6116
▁युमुना	-10.6116
▁रमायश्रि	-10.6116
▁सप्ताह	-10.6116
▁खामफ्लाइ	-10.6116
▁डकुमेन्ट	-10.6116
▁थिंगिनि	-10.6116
▁मणिपुर	-10.6116
▁माइक्र	-10.6116
▁गुरलुब	-10.6116
▁दाङाबाजि	-10.6116
▁गबिन्द	-10.6116
▁गेबें	-10.6116
▁मैखोम	-10.6116
▁हालेव	-10.6116
▁होंगो	-10.6116
▁मेरगा	-10.6116
▁स्लिम	-10.6116
▁इन्टार	-10.6116
▁सिगि	-10.6116
▁सोरमाङा	-10.6116
▁नारेंगुरी	-10.6117
गाँव	-10.6117
▁अंक	-10.6117
▁मिबथि	-10.6117
▁गोजोन्नाय	-10.6117
▁सोद्रोमाफोर	-10.6118
cto	-10.6118
▁गोफोन	-10.6118
▁बाथुल	-10.6118
▁स्क्रिन	-10.6118
▁थेलेब	-10.6118
▁हायेनारि	-10.6119
▁शिब	-10.6119
▁मंगलबार	-10.6119
▁थिखिनि	-10.6119
▁बालाबारि	-10.6119
▁आजायनाय	-10.612
▁आइजें	-10.612
▁फिथर	-10.612
▁फोनांजाब	-10.6121
▁क्लाब	-10.6122
▁गुथाल	-10.6122
▁रोङाखिसै	-10.6122
▁सिथला	-10.6123
▁सावरायज्लाय	-10.6124
▁बाग्लाय	-10.6125
ाइज	-10.6127
▁हारिमुनि	-10.6129
▁बोसोरबा	-10.613
▁इन्दि	-10.613
▁गलादार	-10.6131
▁होनजायो	-10.6132
▁रुब	-10.6134
▁आलारि	-10.6135
▁गुमैया	-10.6135
▁अलसिया	-10.6136
▁खरथें	-10.6136
▁गाबखाङो	-10.6137
▁सौरा	-10.6137
▁आलौ	-10.6137
▁बायजोआव	-10.6139
▁दलद	-10.6139
▁जाहाज	-10.614
▁बान्दोल	-10.6141
▁बुंथिगिरि	-10.6142
▁नम्बरि	-10.6142
रुफा	-10.6143
▁मामाय	-10.6145
▁बेरेखायै	-10.6146
▁बहाथो	-10.6147
▁खुथार	-10.6147
▁हिस्रि	-10.6149
▁सानजाहा	-10.6151
▁खारलाङो	-10.6155
▁बुङासै	-10.6158
▁सिगांनिफ्रायनो	-10.6161
▁बुंनायखौ	-10.6162
▁बापा	-10.6163
▁आगर	-10.6164
▁बाहागि	-10.6167
हेला	-10.6167
▁बोहैलां	-10.6172
▁रुफाथिया	-10.6173
▁खेला	-10.6175
▁जाल्ला	-10.6175
▁थाइलालिआ	-10.6179
▁जानांबाय	-10.6181
▁हाखिमा	-10.6187
▁थाब्लाबो	-10.6191
▁मुवाखौ	-10.6193
हांखो	-10.6194
इउ	-10.6194
▁बुंफैयो	-10.6194
▁आखुथाइ	-10.6195
▁नुजायो	-10.6196
▁टु	-10.6196
▁मोन्थि	-10.6205
▁खुलुमबाय	-10.6208
▁अनगा	-10.621
▁नुहरबाय	-10.6214
▁सागु	-10.6214
▁बिनारामनि	-10.6218
▁रायज्लायबाय	-10.6222
▁जापान	-10.623
▁मैला	-10.624
रागा	-10.6251
▁हेब	-10.6251
खायसे	-10.6254
▁मोनदांथि	-10.6265
▁जालिया	-10.6267
बुंनानै	-10.6268
▁खुन	-10.627
▁जिनै	-10.6272
▁हारावा	-10.6283
ग्रु	-10.6284
▁खारा	-10.6291
▁हैनो	-10.6292
▁लोगोआ	-10.6292
श्रि	-10.6295
▁हमस	-10.6296
▁सोफै	-10.6297
▁जोब्बाय	-10.6302
▁बुङोब्ला	-10.6303
▁मिथिमोन	-10.6314
▁जोंब्लाव	-10.6321
▁No	-10.6326
▁हांखोफोर	-10.6328
▁हामनाय	-10.633
▁बाजारि	-10.6331
▁होनोब्ला	-10.6343
रासे	-10.6345
▁सोंनायाव	-10.6345
▁फिट	-10.6346
▁गोबाख्रब	-10.6347
▁दफा	-10.6352
11	-10.6358
▁मिथिखागौ	-10.6359
▁सुरनाय	-10.6361
...?	-10.6366
▁बेनोथ	-10.6366
▁अखाफोराव	-10.6367
▁फावगिरि	-10.637
▁गाखोनाय	-10.6371
▁अन्नाया	-10.6376
बिफाया	-10.6378
▁आयदाया	-10.639
▁फसंनाय	-10.6391
▁मैसो	-10.6392
▁फरायबाय	-10.6395
▁ब्रि	-10.6396
ch	-10.6399
▁बुंबाव	-10.6404
▁सोदोबफोरखौ	-10.6408
▁इसोरनि	-10.6409
▁गोसार	-10.6415
▁रस	-10.6417
▁संसारा	-10.6417
▁फैनाया	-10.642
▁सुथुरखौ	-10.6423
▁मुरा	-10.6426
▁लिंनानै	-10.6428
▁थुलुंगानि	-10.6437
सासे	-10.6444
फैदो	-10.6451
▁होननाया	-10.6456
▁साखा	-10.6458
▁देंखोआ	-10.646
▁=	-10.6464
▁सोंनाया	-10.6473
खांब्ला	-10.6487
▁मनजुखौ	-10.6489
▁संसारखौ	-10.6489
▁फोथा	-10.649
▁जाखांबाय	-10.6491
फ्लांदों	-10.6491
▁बोनाया	-10.6499
▁खोमसिया	-10.6507
▁सेवारि	-10.6508
थावै	-10.6511
▁हक	-10.6511
▁बाथ्राजों	-10.6513
▁फाननानै	-10.6523
▁भुटियाफोर	-10.6534
▁अननायाव	-10.6536
▁दिननिफ्राय	-10.654
▁देरगानाय	-10.6546
स्थ	-10.6549
ent	-10.6553
▁लांगोन	-10.6555
▁फेल	-10.6572
▁मोनथिनो	-10.6579
▁हाब्ला	-10.6581
न्ध	-10.6582
▁लोंखां	-10.6584
▁गामोन	-10.6593
▁थुंग्रिखौ	-10.66
▁खिन्थाबाय	-10.6613
▁नंदों	-10.6613
▁बावनाय	-10.6616
▁बावबाय	-10.6619
▁फरायग्राफोरनि	-10.662
गोर	-10.6629
द्रे	-10.6633
▁सोमो	-10.6642
▁फोथायनो	-10.665
▁रुजुनाय	-10.6653
▁बुयो	-10.6653
▁जायाखैमोन	-10.666
▁लाजिनानै	-10.6672
ख्रु	-10.6678
▁लान्था	-10.6679
▁जालायनाय	-10.6682
▁मोनफै	-10.6685
▁बुजिया	-10.6689
▁गोसोयै	-10.6693
▁दोम	-10.6695
▁मिस	-10.6698
90	-10.6699
▁e	-10.67
▁अनजिमाया	-10.6715
▁थुलुंगाया	-10.672
▁नायगिरदों	-10.6731
▁खेराइ	-10.6733
▁बोबाय	-10.6751
▁पेन	-10.6753
होन	-10.6755
▁थानायावनो	-10.6756
ओंखाम	-10.6761
आनारी	-10.6762
हौवा	-10.6763
▁नार्जारि	-10.6765
▁गोसोआबो	-10.6766
लाइफां	-10.6767
▁मालायजों	-10.6768
▁गिदिंनाय	-10.6768
मोखां	-10.6781
नोंसोर	-10.6781
▁हांगारि	-10.6794
फिसाइ	-10.6795
फंबाय	-10.68
▁बुदारु	-10.68
▁खिथा	-10.6806
▁सानसु	-10.6809
▁अमब्रा	-10.6818
day	-10.6818
▁गोनोखोआरि	-10.6818
▁जेनेरेल	-10.6818
▁निउक्लियार	-10.6818
▁नीलकमल	-10.6818
ight	-10.6818
जैमती	-10.6818
▁अनसुमै	-10.6818
▁उरिष्या	-10.6818
▁कौटि	-10.6818
▁वर्	-10.6818
▁शर्मा	-10.6818
▁झालु	-10.6818
▁बादायलायनाय	-10.6818
▁कमेदि	-10.6818
▁सामब्राम	-10.6818
▁केम्प	-10.6818
केनसेल	-10.6818
▁हाथियार	-10.6818
▁लेन्थन	-10.6818
▁बिघा	-10.6818
▁ट्रेक्टर	-10.6819
▁सोर्जि	-10.6819
▁जार्मान	-10.6819
▁ग्रोब	-10.6819
▁बंफां	-10.6819
▁समिला	-10.6819
▁लाउदुम	-10.6819
▁बियादै	-10.6819
▁भबेन	-10.682
▁वार्ड	-10.682
▁2009	-10.682
▁दहम	-10.682
▁गुरलाब	-10.6821
▁रौनिया	-10.6821
▁$	-10.6821
▁बिबथै	-10.6822
▁चेयार	-10.6822
▁गोलोमदै	-10.6822
▁नायजाबगिरिया	-10.6823
▁मिलौ	-10.6823
▁जवानफोर	-10.6823
▁फैसाली	-10.6823
▁बन्ध	-10.6824
▁गेसाव	-10.6825
▁अख्रा	-10.6826
▁उवाल	-10.6827
▁हुसियार	-10.6827
▁रोङाखै	-10.6827
▁जाबोनाय	-10.6829
▁अख्रांमा	-10.683
▁थुख्रा	-10.6831
▁बिसुखे	-10.6831
▁कृष्ण	-10.6834
▁बिस्कुट	-10.6834
▁ति	-10.6834
▁??	-10.6834
▁दुइसिन	-10.6835
सुबिदा	-10.6836
▁उइल	-10.6837
▁थुनलाइगिरि	-10.6838
▁गोदोनिफ्रायनो	-10.6839
▁उन्दैयाव	-10.6839
▁थामजि	-10.6841
▁दाउदै	-10.6842
▁जौसाय	-10.6843
▁थायै	-10.6843
▁राङारि	-10.6845
बिमा	-10.6845
▁वेर	-10.6847
▁कफि	-10.6848
▁नौनारिफोर	-10.685
▁एखे	-10.685
▁नुथाइ	-10.6852
▁गाथोनाव	-10.6852
▁पार	-10.6852
खाउरि	-10.6852
▁बोरैथो	-10.6852
▁थाङाखै	-10.6852
▁अहा	-10.6853
▁नायदाव	-10.6853
▁बुथारनायनि	-10.6856
▁अंग	-10.6858
▁जुजिगोन	-10.6858
▁थाथोंसै	-10.6859
▁फालोसे	-10.6859
▁ग्रीमउइगा	-10.686
▁दिरिया	-10.6862
▁195	-10.6867
▁बाग्राय	-10.6868
▁कर्णियाखौ	-10.6876
▁दरसि	-10.6876
▁बाब्राब	-10.6876
▁बरगयारीया	-10.688
▁मेउ	-10.6885
▁सिखाङो	-10.6889
▁हैनाय	-10.6893
▁रेबतीया	-10.6894
▁दानथार	-10.6894
▁साहाब	-10.6897
थाङो	-10.69
▁बुंलांनाय	-10.69
▁गेलेग्रा	-10.6902
▁मेसिन	-10.6903
गेन	-10.6903
▁हान्था	-10.6904
▁वाइ	-10.6909
▁द्रा	-10.6911
▁बिसाइ	-10.6924
▁ँ	-10.6927
दिनखालि	-10.6929
ant	-10.693
▁मिथिगोन	-10.6931
▁जुरिजेन	-10.6935
मोदै	-10.6936
▁गोब्राबै	-10.6937
▁जाखाङो	-10.6939
▁नोंहालाय	-10.695
▁लाबोगोन	-10.6953
▁आबारीया	-10.6955
▁रय	-10.6961
▁फैफिनबाय	-10.6968
▁आबारि	-10.6971
▁फारागा	-10.6976
▁मुहिनि	-10.6978
▁जाथ	-10.6984
▁मीना	-10.6997
▁जौथाय	-10.7001
▁जवा	-10.7006
नीया	-10.7008
-30	-10.7009
▁थास	-10.7009
▁मनजुलानि	-10.7011
▁हमदोंमोन	-10.7011
▁जिउवाव	-10.7028
▁खोमोरनो	-10.7033
▁बेखेवनो	-10.7034
मेन	-10.7038
▁re	-10.7038
▁बाजिनिफ्राय	-10.705
▁मोनासै	-10.7074
▁साननायखौ	-10.7077
▁बिबानाव	-10.7077
▁दुमा	-10.7089
▁मोसायै	-10.7092
▁गेवा	-10.7095
▁महननि	-10.7103
man	-10.7107
▁साइकेलजों	-10.711
▁हयै	-10.7114
▁खैफोर	-10.7124
▁लांदोंमोन	-10.7127
▁प्रम	-10.7127
▁मोनफ्लां	-10.7135
▁बायबाय	-10.7136
▁गाम्बारिया	-10.7154
▁ब्रेक	-10.716
▁दानथाम	-10.7163
▁बाथ	-10.7169
▁नुनायाव	-10.717
▁बुनाय	-10.717
खावनाय	-10.7175
▁नायबा	-10.7176
▁सिफायनो	-10.7179
▁लाफै	-10.7184
▁प्रेमधरनि	-10.7184
▁हरगोन	-10.7193
▁उन्दुना	-10.7199
▁लासैयै	-10.7201
मथे	-10.7212
▁बोराइखौ	-10.7225
▁दाखु	-10.7228
▁हेफाजाबाव	-10.7236
ब्बाय	-10.7236
फर	-10.7239
▁अनी	-10.7243
▁गोलैनाय	-10.7244
▁दोलोआ	-10.7255
▁पेस	-10.7258
सिरि	-10.7262
▁लुबैयाखै	-10.7264
बावदोंमोन	-10.7266
ालाबा	-10.7284
हैनांगौ	-10.729
▁दैखांनाय	-10.7299
▁ha	-10.7299
▁मनजुला	-10.7306
▁थाबोला	-10.7322
▁खालामै	-10.7326
-[	-10.7333
▁रिंसारा	-10.7333
▁हारिफोर	-10.7344
▁फ्ल	-10.7348
न्च	-10.7349
▁देरनाय	-10.7354
▁सोंथि	-10.7367
▁थायाखै	-10.7367
▁नेसा	-10.7375
▁गाइखेरखौ	-10.7378
▁हाराम	-10.7384
ल्फ	-10.7393
ग्रोम	-10.7396
▁जाफिन	-10.7407
▁थेब	-10.7417
खोमानाय	-10.7426
▁8.	-10.743
▁लाहा	-10.7455
▁सान्नायखौ	-10.7457
रायना	-10.7458
▁लिरगिरिफोरनि	-10.7478
▁लाखोमा	-10.7481
▁अनसि	-10.749
▁मोदायजो	-10.749
▁अह	-10.7493
▁हाखिम	-10.7494
▁दावब	-10.7496
▁दैखांदों	-10.7502
▁जानायखाय	-10.751
दौलद	-10.7515
बाहागि	-10.7515
दाङा	-10.7516
▁मदाराम	-10.752
▁सोद्रोम	-10.752
रंजा	-10.7533
▁मेडि	-10.7534
▁रायजा	-10.7535
▁खेर	-10.754
ब्रुं	-10.7545
▁हाउस	-10.7547
▁फास	-10.7548
▁लेम	-10.7555
▁ष्टे	-10.7558
▁हज्रि	-10.756
▁जांख्रि	-10.7563
कराझार	-10.7568
ावखुंग्रि	-10.757
▁तुला	-10.7571
\	-10.7573
▁IBM	-10.7573
▁अन्जिमा	-10.7573
▁गुगुरुब	-10.7573
▁जांगिला	-10.7573
▁निरामिस	-10.7573
▁नोम्फा	-10.7573
▁बेंपार्ति	-10.7573
▁बोथ्रोद	-10.7573
▁मबाइल	-10.7573
▁हेन्देल	-10.7573
▁mean	-10.7573
▁आनज्राय	-10.7573
▁इजराइल	-10.7573
▁कमिसनार	-10.7573
▁बदमाइस	-10.7573
▁बेब्दि	-10.7573
▁मुलामफा	-10.7573
▁अंगुबै	-10.7573
▁खान्थाल	-10.7573
▁टेक्सि	-10.7573
▁फुंबिलि	-10.7573
▁मडेल	-10.7573
▁होनथेयो	-10.7573
▁उलाफाद	-10.7573
▁जुलाफि	-10.7573
▁दोनथुमग्रा	-10.7573
▁मुसाहारि	-10.7573
▁गेदाइ	-10.7573
▁राखाउ	-10.7573
▁बिरहाङा	-10.7573
▁सम्बारु	-10.7573
▁मारुति	-10.7573
▁मोनलोङा	-10.7573
▁जाइली	-10.7573
▁बुंफबनाय	-10.7573
▁जानोहागौ	-10.7573
▁बोथिसे	-10.7573
▁ग्लाब	-10.7573
▁हार्सा	-10.7573
▁कम्पानि	-10.7574
▁सोगोम	-10.7574
▁गरसे	-10.7574
▁मोनजारोङै	-10.7574
▁जात्रागान	-10.7574
▁बायहेरा	-10.7574
▁रोङि	-10.7574
▁अपमान	-10.7574
ज्रेम	-10.7575
▁काछार	-10.7575
▁बिबुंसार	-10.7575
▁बागदाव	-10.7575
▁थानादार	-10.7576
▁पकेट	-10.7577
▁सांग्राङ	-10.7577
▁बिजिरसालियाव	-10.7577
▁ट्रेन्स	-10.7578
▁खामग्लि	-10.7578
▁ग्रह	-10.7579
▁गेरेज	-10.7579
▁बालन्दा	-10.7579
▁सानथ्र	-10.758
▁निखावरि	-10.758
▁दन्दर	-10.7582
ष्टेल	-10.7582
im	-10.7582
▁साबगौ	-10.7583
▁सोमखे	-10.7583
▁बिबोनां	-10.7584
▁मेइन	-10.7584
▁बेसर	-10.7585
▁गोदना	-10.7586
▁रैमोन	-10.7586
▁दन्दि	-10.7586
▁अभार	-10.7587
▁उनदाहा	-10.7588
▁आफोद	-10.7589
▁मेनु	-10.7589
▁ओरैबादि	-10.759
▁मावाखै	-10.7591
▁नांथाब	-10.7592
▁समसेर	-10.7595
▁गामसा	-10.7595
▁आब्राम	-10.7595
ग्रोमोना	-10.7596
▁हामगौमोन	-10.7598
▁कमन	-10.7599
जाइलि	-10.7599
▁मिनिग्लाब	-10.76
▁सोंफिनो	-10.7604
▁U	-10.7604
▁गिसिब	-10.7605
▁गसाया	-10.7605
▁हाथर	-10.7605
▁सोमजियो	-10.7613
▁जाथावै	-10.7615
▁---"	-10.7616
▁खुन्थिया	-10.7617
▁हार्ड	-10.762
▁एइस	-10.7626
▁ब्रैथि	-10.7628
▁बिग्रायारि	-10.7629
▁मेडिया	-10.7631
▁गोथो	-10.7633
▁बुदां	-10.7634
▁आन्दाय	-10.7636
▁रिंसारआ	-10.7636
▁जम	-10.7638
▁दरसे	-10.764
आलाइ	-10.7642
▁फित	-10.7643
▁राखेबा	-10.7643
▁धुना	-10.7644
▁गुदु	-10.7645
80	-10.7646
▁बिसना	-10.765
▁ठ	-10.765
▁बिग्राय	-10.7651
▁सुलु	-10.7657
▁थांग्रो	-10.7657
▁फोसावदों	-10.766
▁पाप	-10.7664
▁गसंफै	-10.7667
▁हाथारा	-10.767
▁फुंजा	-10.767
▁सानाखै	-10.7672
▁बादारि	-10.7673
▁थांफिनबाय	-10.7675
▁सोरजिदों	-10.7675
▁थैनोसै	-10.7679
▁बारबाय	-10.7681
▁फैयामोन	-10.7682
▁जुजिनाय	-10.7682
▁निसा	-10.7683
▁खालामजानाय	-10.7683
▁थावरि	-10.7685
▁सान्दा	-10.7689
▁लाजियो	-10.7689
▁जरा	-10.769
.....!	-10.7693
ill	-10.7695
▁सहि	-10.7697
ser	-10.77
▁ओंखारदो	-10.7701
▁दिहुनगिरि	-10.7703
▁देलाय	-10.7703
▁आलां	-10.7704
▁राहाया	-10.7708
▁?''	-10.7709
▁अबस्	-10.7712
बिर	-10.7712
▁खालामगासिनो	-10.7721
▁मोनथिया	-10.7722
▁सायर	-10.7725
▁खैसार	-10.7731
अउ	-10.7733
▁सरकारा	-10.7733
▁लखि	-10.7735
▁मावजा	-10.7739
म्भ	-10.774
▁खोनायाखै	-10.774
▁मोसायो	-10.7757
▁फ्राय	-10.7757
▁नुफै	-10.7759
▁जाहैबाय	-10.7761
▁आइलि	-10.7767
▁सोलोंसालि	-10.7768
▁नांजा	-10.777
▁बुंहां	-10.7771
दैलो	-10.7772
xt	-10.7776
▁रायथि	-10.7781
▁गिरि	-10.7786
▁सिन्था	-10.7791
▁नायबिजिरनो	-10.7792
▁जोबा	-10.7794
▁सोरनाव	-10.7799
▁दिहुनबाय	-10.78
▁सारा	-10.7803
खान्थियारि	-10.7809
▁फोजों	-10.7817
▁बद	-10.7817
रेम	-10.7825
▁होबथानाय	-10.7825
▁फैनायसै	-10.7828
▁उन्दुबाय	-10.7828
▁आंखालाव	-10.7834
▁गुवाहाटीयाव	-10.7836
ter	-10.7837
▁गिदों	-10.7838
▁आफाफोर	-10.7841
▁बुरखायनो	-10.7842
ेटिक	-10.7848
पी	-10.7848
▁सिथारनो	-10.7849
▁गोमोनानै	-10.785
▁70	-10.7851
el	-10.7859
टेल	-10.7862
▁जें	-10.7863
▁बुयै	-10.7866
▁फरायनायाव	-10.7867
▁थैब्लाबो	-10.7875
▁बारसे	-10.7879
▁बुंथिनाय	-10.7881
▁बन्दा	-10.7884
▁गामिनिफ्राय	-10.7888
▁गयथि	-10.7896
▁कर्	-10.7905
▁राखां	-10.7907
▁मावफुंनो	-10.7911
▁ओनसोल	-10.792
▁देरनानै	-10.7927
▁होनब्लाबो	-10.793
▁गाबनाया	-10.7938
र्ण	-10.794
▁जायहा	-10.7945
▁सानफ्लां	-10.7954
▁बेंनाय	-10.7964
▁नागारा	-10.7968
बिजिरसालि	-10.7968
▁जिला	-10.797
ट्रि	-10.7972
▁रं	-10.7979
30	-10.7991
▁खान्थिजों	-10.7992
▁हांखोफोरखौ	-10.7995
▁बरफ	-10.8009
▁गारबाय	-10.8014
▁जाहैनो	-10.8026
all	-10.8031
▁फरायखां	-10.8033
▁गान्	-10.8037
खुगु	-10.8038
▁खनखां	-10.8046
▁नागिरनाया	-10.8059
बावनायसै	-10.8071
▁भट	-10.8075
▁फोथांना	-10.8081
▁अनसायनाय	-10.8084
▁खाङो	-10.8085
▁आन्दाज	-10.8094
▁गुद	-10.8112
▁गोसोखांनानै	-10.8112
▁बिनहारीया	-10.8119
▁ट्रेन	-10.812
▁सुफुंनाय	-10.8123
▁दाङा	-10.8128
यालासिनो	-10.8128
दावसि	-10.8129
आंहा	-10.8165
हैनोसै	-10.8174
नांला	-10.8175
खमज्लाय	-10.8177
▁बुसा	-10.818
▁जाफुंहो	-10.8186
दुमसि	-10.8189
▁फुर	-10.8191
ग्रोदों	-10.8192
▁अजाया	-10.8198
▁ओंखारबोदों	-10.822
र्ल्ल	-10.8221
▁लादाय	-10.8226
▁होलांनाय	-10.8229
▁थाहैनाय	-10.8249
▁फैनायाव	-10.8252
▁रान्नाय	-10.8256
▁सावख्लि	-10.8258
▁थिन्नाय	-10.8265
▁रायनाय	-10.8268
▁दबथाय	-10.8268
▁मिन्थिना	-10.8284
▁फिनबाय	-10.8287
▁सैमाया	-10.8308
▁--'	-10.8329
शान्ति	-10.8332
G	-10.8332
आरति	-10.8333
थुनलाइ	-10.8333
बिदिब्ला	-10.8333
▁कैलाश	-10.8337
▁उस	-10.8337
मेथाइ	-10.8347
अजित	-10.8348
जोमनाय	-10.8355
रोङै	-10.8356
▁रेक	-10.8358
▁for	-10.8361
ागौमानि	-10.8366
▁बारायो	-10.8368
▁प्रशान्त	-10.8372
मलेन	-10.8376
▁रुंसार	-10.838
लाम्फा	-10.8382
ंगिना	-10.8385
ू	-10.839
▁Excellency	-10.839
▁अपारेशन	-10.839
▁इनस्ट्राकसन	-10.839
▁इनिंथौ	-10.839
▁चौधुरी	-10.839
▁जानुवारि	-10.839
▁दाक्टार	-10.839
▁संबिजिर	-10.839
▁स्टाइल	-10.839
▁गोजांस्रिउ	-10.839
▁ट्रेजेदि	-10.839
▁दख्ना	-10.839
▁परेश	-10.839
▁बांलादेशी	-10.839
▁बाहेराव	-10.839
▁बिस्तिबार	-10.839
▁सम्फथि	-10.839
▁सिन्दुक	-10.839
▁उजिगासेयाव	-10.839
▁एरेष्ट	-10.839
▁पेपार	-10.839
▁दुरुं	-10.839
▁एंगोना	-10.839
▁खरथेङा	-10.839
▁लागायनानै	-10.839
▁अंखार	-10.839
▁आब्रुथि	-10.839
▁जोनोमफुरि	-10.839
▁बुबिलि	-10.839
▁खिथिर	-10.839
▁ग्रें	-10.839
▁नोंसाजो	-10.839
▁गुस्लायनाय	-10.839
▁सिग्लाब	-10.839
ound	-10.839
▁सायनासालि	-10.839
▁(5)	-10.839
▁बेरफ्रु	-10.839
▁देउल	-10.839
▁सादोर	-10.839
▁मोबायजों	-10.839
▁सावसुब	-10.839
▁थुरसि	-10.8391
▁बुधबार	-10.8391
▁फुकन	-10.8391
▁मानिमुनि	-10.8391
▁गोजोनग्लाय	-10.8391
▁लाइनमेन	-10.8391
▁भुगिनांनाय	-10.8391
▁दाखोर	-10.8391
▁खासिबारी	-10.8391
▁सानसुमै	-10.8392
▁जाब्रथाय	-10.8392
▁मागि	-10.8392
▁खन्थायारि	-10.8393
▁पाटिल	-10.8393
▁एवस्रां	-10.8393
▁दुमफे	-10.8393
▁You	-10.8394
▁दोंनै	-10.8394
▁खोरोम	-10.8394
▁बिप्लब	-10.8395
▁गाराङै	-10.8396
▁बाहायखान्थि	-10.8396
▁खफाथि	-10.8396
▁मोदोमफ्रु	-10.8398
▁जांख्रिखांनाय	-10.8399
▁हौ	-10.84
▁संराजा	-10.84
▁गावजें	-10.8401
फ्लं	-10.8403
▁उदयाचल	-10.8403
▁ट्रेजि	-10.8405
▁नायदिं	-10.8406
▁मिलाय	-10.8407
▁रयाथि	-10.8407
▁राज्य	-10.8407
म्बल	-10.8408
▁दखान	-10.8408
▁नंथारगौ	-10.8408
▁आवग्रि	-10.8408
▁आवगायलाङो	-10.8409
▁दैमालु	-10.8409
▁आमथा	-10.8409
▁रुटि	-10.841
▁सर्ब	-10.8411
▁बोखे	-10.8412
▁थुखै	-10.8412
▁बक्स	-10.8413
▁कर्क	-10.8415
▁फोदो	-10.8418
▁दोमै	-10.8419
▁लागै	-10.8419
▁दमासुवा	-10.842
▁खोलाहा	-10.842
▁प्रदीपा	-10.8425
▁बाजिसिम	-10.8428
▁सफ्ट	-10.8428
▁बिथं	-10.8429
▁मोजोम	-10.8431
▁सिकार	-10.8431
सानैबो	-10.8431
ुकुर	-10.8432
▁सुजुगिरि	-10.8432
▁सुलुं	-10.8432
▁सन्थलाया	-10.8433
▁60	-10.8433
▁गोबाङा	-10.8436
▁जारला	-10.8437
▁थौदो	-10.8437
▁सिख्रि	-10.8437
▁बुंहरदों	-10.8438
डिजिटाल	-10.844
▁कैलाशा	-10.8443
लथर	-10.8444
हाफाय	-10.8449
▁मोनथारबाय	-10.8449
▁मिजिंथि	-10.845
▁बावलांबाय	-10.8457
▁रायज्लायो	-10.8458
▁ग्रोम	-10.8458
▁गरसेबो	-10.846
▁फाइलफोरखौ	-10.8463
▁दंथारो	-10.8463
▁हाजिर	-10.8464
▁मुङाव	-10.8465
ेइल	-10.8465
▁..............	-10.8466
▁नायगार	-10.8467
▁बुस्रि	-10.847
▁लोंनांगौ	-10.8475
▁नुहरो	-10.8478
▁थोयो	-10.848
थाइगं	-10.8484
▁माइथायनिफ्राय	-10.8484
▁नाजाब्लाबो	-10.8486
▁खाजि	-10.8488
▁अरायथा	-10.849
▁गैयाजासे	-10.8491
▁फानग्रा	-10.8496
▁गोसोखाङो	-10.8498
▁सैबा	-10.8499
▁थाङै	-10.8501
▁हुगारबाय	-10.8503
▁एसेनोसै	-10.8504
▁गोमोबाय	-10.8506
▁जाखार	-10.8507
▁ङ	-10.8508
▁हायाखैसै	-10.8508
▁दिन्थिथि	-10.8511
▁जाजोबबाय	-10.8514
▁दबथायनो	-10.8514
▁थिउ	-10.8516
▁खावलायदों	-10.8518
▁उन्दुयो	-10.8521
आले	-10.8522
▁उदुवा	-10.8525
▁ख्लाब	-10.8527
▁सानखालि	-10.8532
▁होथे	-10.8537
▁देरबाय	-10.8538
▁दावसा	-10.8541
बाजार	-10.8542
▁बोखो	-10.8543
▁नील	-10.8543
खनला	-10.855
ाण्डा	-10.8551
▁बुंनांगोन	-10.8551
▁बाथाव	-10.8552
▁बहाय	-10.856
▁माखौबा	-10.8564
▁अबंलाउरिया	-10.8565
दावला	-10.8566
▁थक	-10.8568
▁मोनबोनाय	-10.8573
▁गोमजोरा	-10.8581
▁गाखोबाय	-10.8584
▁बबावबा	-10.8586
▁आखुवाव	-10.8596
▁खाफालानो	-10.8598
▁जाहैयो	-10.8598
▁बुब्लिया	-10.86
▁नांलायनाय	-10.86
▁थुरि	-10.8602
▁बाजुरामा	-10.8603
हैयाखै	-10.861
▁खान्दा	-10.8617
▁सोदोबथिया	-10.8638
लेखा	-10.8639
▁जिखि	-10.8644
टेक	-10.8644
▁फंबाया	-10.8644
▁खारै	-10.8645
▁बेफोरबादि	-10.8646
▁थिसननाय	-10.865
▁28	-10.865
▁बिगियानगिरिफोर	-10.8651
▁सोंनांगौ	-10.8656
▁थायाब्ला	-10.8659
▁गुमुरखौ	-10.8677
▁एसिद	-10.8688
▁दोरो	-10.8697
▁बुङाबा	-10.8708
▁हगारहर	-10.871
▁सोरखि	-10.8711
▁बुंदो	-10.8719
▁स्र	-10.8732
रण	-10.8744
▁खांदों	-10.8744
▁घरि	-10.8745
▁सोमोन्दोआ	-10.8745
▁बिजाथि	-10.8752
▁जाहां	-10.8758
▁सोंहै	-10.8764
फैनायसै	-10.877
▁बान्दो	-10.877
▁लुबैनाया	-10.8773
▁गिबाय	-10.8774
▁होनजा	-10.8791
▁मावै	-10.8804
▁आखाया	-10.8815
▁pro	-10.8816
▁बेरायहै	-10.8821
▁रामोन्दाया	-10.883
▁सुइस	-10.8841
▁लाब्ला	-10.8848
▁खौरांगिरि	-10.8849
▁सान्थ्रिफोरखौ	-10.8851
▁हरफिन	-10.8853
▁रोगा	-10.8855
ue	-10.8864
▁सोबख	-10.8865
मारी	-10.8908
▁फेन	-10.8921
▁खिन्थाफै	-10.8924
▁आन्दास	-10.8925
महन	-10.8933
▁साफि	-10.8938
▁खौरांगिरिफोर	-10.8943
▁हराखै	-10.8944
गन्द	-10.8955
▁रजे	-10.8956
▁ददेरेमोन	-10.8959
▁एवनाय	-10.8973
▁दरबा	-10.8975
▁सौसि	-10.8999
▁खान्	-10.9037
▁सिख्लाफोरा	-10.9044
der	-10.9045
▁फाहामथाय	-10.909
फोन	-10.9094
▁केक	-10.9097
▁जुथा	-10.9102
▁मुहि	-10.9103
▁बुंजोब	-10.9111
▁नुजाथिनाय	-10.9115
▁मोदाइजो	-10.9137
जें	-10.9146
▁जाहैदों	-10.917
▁जिरायहै	-10.9171
▁गेदे	-10.9173
स्लु	-10.9176
▁दुंखां	-10.9181
▁रेबती	-10.9183
int	-10.9186
▁नंनाय	-10.9201
▁दोनलां	-10.921
▁काम	-10.9214
▁पाट	-10.9216
गुमै	-10.9219
V	-10.9221
T	-10.9222
हारिमु	-10.9222
गेजेर	-10.9222
▁बावदों	-10.9226
▁ग्रीमउइग	-10.9226
गोजोन	-10.9226
जुनार	-10.9227
▁नरेन	-10.9228
मोसौ	-10.9228
राइजो	-10.9229
▁सोनार	-10.9234
▁गाथोन	-10.9237
▁थेव	-10.9253
▁मैहुर	-10.9264
▁हामगौ	-10.9265
▁खाजानाय	-10.9265
Y	-10.9275
▁पार्ट	-10.9275
▁mo	-10.9276
दोरफो	-10.9279
▁बुध्दि	-10.9279
<	-10.9279
▁इज्जत	-10.9279
▁जब्द	-10.9279
▁डिसेम्बर	-10.9279
▁थोंजोङै	-10.9279
▁नाथ्रोद	-10.9279
▁प्रफुल्ल	-10.9279
▁लंपेन्ट	-10.9279
▁हर्खाब	-10.9279
▁हसिख्राव	-10.9279
j	-10.9279
▁ग्रीक	-10.9279
▁दरखङाव	-10.9279
▁पेकेट	-10.9279
▁फिल्म	-10.9279
▁बाज्रेद	-10.9279
▁रेलवे	-10.9279
▁ओंख्रि	-10.9279
▁डिजाइन	-10.9279
▁नांबावगौ	-10.9279
▁मिञा	-10.9279
▁आरजलाइ	-10.9279
▁सुइसाइद	-10.9279
▁गुरहं	-10.9279
▁थुंगे	-10.9279
▁एमेले	-10.9279
www	-10.9279
▁मिनिखुसि	-10.9279
▁बैसागो	-10.9279
▁लहेना	-10.9279
▁गनतन्त्रबाद	-10.9279
▁शनिबार	-10.9279
ग्लेम	-10.9279
▁आउट	-10.9279
▁सोर्गो	-10.9279
▁गोजोर	-10.9279
▁जिरात	-10.9279
▁सेर्जा	-10.9279
▁बाथोन	-10.9279
▁लुफुंनाय	-10.9279
▁दंबावयो	-10.9279
▁शाला	-10.928
▁(6)	-10.928
▁बादोर	-10.928
▁बारहावा	-10.928
▁रेकर्ड	-10.928
▁बयजोंबो	-10.928
▁दामोल	-10.928
सिगां	-10.928
▁इनपुट	-10.928
▁फसंथान	-10.928
▁नोंसाला	-10.9281
▁नालेया	-10.9281
▁राइज्लाय	-10.9282
▁बेलुन	-10.9282
▁थगायसुला	-10.9282
▁टाइम	-10.9284
सत्य	-10.9284
▁आसोल	-10.9285
▁फार्सेथिङै	-10.9285
▁मोदान	-10.9285
▁राखाव	-10.9285
▁निखाउरि	-10.9285
▁गुन्द्रा	-10.9287
▁मते	-10.9288
▁रासिया	-10.9288
▁खामहाब	-10.929
▁आसथाम	-10.929
▁उदिस	-10.929
▁स्टेसन	-10.9291
▁हायेन	-10.9291
▁रेडि	-10.9291
▁सोनारो	-10.9291
हायि	-10.9291
▁गम्भ	-10.9292
▁अन्थाय	-10.9292
▁दोनखुमा	-10.9292
▁राजखान्थियारि	-10.9293
▁फैफिनाखै	-10.9293
▁हास्लाब	-10.9293
▁जावले	-10.9294
▁हाथर्खि	-10.9294
▁होख्रां	-10.9294
▁हज्रिखाव	-10.9295
▁लुफाव	-10.9295
फरा	-10.9295
▁मोन्नाव	-10.9295
▁सिखाउ	-10.9295
बाथ्रा	-10.9295
▁अरखाव	-10.9296
▁बुख्रुब	-10.9297
▁हालदै	-10.9298
▁इसिङाव	-10.9299
▁जेसेखि	-10.93
▁खिफि	-10.93
▁बारजां	-10.93
▁खालामफै	-10.9301
/2	-10.9301
▁हिसान	-10.9303
▁होन्दों	-10.9303
▁सिनायाखै	-10.9303
ज्राव	-10.9303
▁खान्दि	-10.9303
▁जीब	-10.9305
▁सिथोर	-10.9311
▁नाख्रेब	-10.9311
▁दाउस्रि	-10.9311
▁जाहोनांगौ	-10.9313
▁ब्लक	-10.9313
▁साइर	-10.9314
▁मैहुराव	-10.9314
▁जुलाइ	-10.9315
▁रमायना	-10.9316
▁बुंहरनाय	-10.9317
▁सन्मान	-10.9318
▁मास्थारा	-10.9323
▁फिउ	-10.9325
▁मस्ट	-10.9326
▁मानास	-10.9327
▁खारसन	-10.9328
ph	-10.9328
▁गराइ	-10.933
▁फैमार	-10.9333
▁मावफारियाफोरा	-10.9333
▁नाइट	-10.9334
▁एदाव	-10.9335
▁खेराय	-10.9335
▁केजि	-10.9336
▁गोलैयो	-10.9339
▁एरिया	-10.934
फारां	-10.9342
▁रोंगौथि	-10.9343
▁मदारामा	-10.9343
▁बिथिंजाय	-10.9344
▁मेवा	-10.9345
▁जानाङो	-10.9346
▁ब्रुं	-10.9349
▁लेदि	-10.9349
▁सुग्रि	-10.935
▁फाखा	-10.9355
▁लेट	-10.9355
▁संग्रायाव	-10.9358
▁खैनाशान्तिया	-10.9365
▁लिरहर	-10.9366
▁जागायजेननाय	-10.9366
▁खावलायो	-10.937
▁अफिसनिफ्राय	-10.9375
▁सिमाङा	-10.9377
▁नुजाथियो	-10.9378
▁ज्राब	-10.9378
▁दाहालागै	-10.9381
▁सोंनायसै	-10.9385
▁लुबैदोंमोन	-10.9388
▁बेसेबांदि	-10.9389
▁लोंखांनानै	-10.9389
ेरासिन	-10.9389
▁मालायनाव	-10.9396
फिन्दों	-10.9407
▁सिनायो	-10.9407
▁हानायमानि	-10.9408
▁होफैबाय	-10.9416
▁बाहायग्रा	-10.9418
▁रादाय	-10.9418
▁लामाथिं	-10.9419
▁नार्जारिया	-10.9421
▁नोंथांमोनहा	-10.9421
▁जाफैबाय	-10.9425
▁रुवा	-10.9428
▁जोंखाङो	-10.9431
▁दानस्लायनाय	-10.9432
▁मेसेब	-10.9449
▁सानहाबनानै	-10.9449
▁बाउनाय	-10.9451
▁बाइक	-10.9453
▁ब्लाउज	-10.9458
il	-10.9462
▁खाफ्रा	-10.9467
▁जिरायथ	-10.9471
▁माहारियाव	-10.9474
▁किल	-10.9478
▁गोमोरलां	-10.9481
▁इसोरा	-10.9484
▁खोलो	-10.9489
▁बिथांमोना	-10.949
▁मुगैयो	-10.9498
▁हामजा	-10.95
▁29	-10.9503
फर्म	-10.9519
▁हरदो	-10.9521
▁सासु	-10.9534
▁बराद	-10.9551
▁जोबगोन	-10.9559
दाङै	-10.9561
थावगौ	-10.9572
▁जोगार	-10.9593
▁सालाफोर	-10.9596
फ्ल	-10.9609
▁दोर	-10.961
▁गोमायो	-10.9624
▁थगायनाय	-10.9624
▁ओनसोलफोर	-10.9625
▁ओंथियाव	-10.9627
▁टिक	-10.9632
▁खान्थियाव	-10.9638
▁इनफरमेसनफोर	-10.9658
not	-10.9663
▁बावाखै	-10.9665
▁मोनमार	-10.969
▁खेवनाय	-10.9718
▁दाखोन	-10.9723
▁गावथारनाय	-10.9742
अन्नानै	-10.9745
दैसा	-10.9752
▁खोर	-10.9754
ept	-10.9756
▁उखैनाय	-10.9763
फराय	-10.9774
95	-10.9776
▁सुइ	-10.9825
▁बांहो	-10.9834
▁बिजाथिफोर	-10.9848
▁no	-10.9852
▁लाभ	-10.9882
▁बासाय	-10.9927
▁हुर	-10.9929
op	-10.9948
▁ओंखारबोनाय	-10.9952
सेन्स	-10.9954
▁बेरला	-10.9956
▁मोनजानाय	-10.9975
▁बेखेवनाय	-10.9975
बिबार	-10.9978
▁दिन्थिफुं	-10.9994
▁प्रेक	-10.9997
क्टर	-11.0015
फेन	-11.0082
nt	-11.0088
min	-11.012
61	-11.014
hat	-11.0146
▁pl	-11.0168
गिदिं	-11.0184
▁द्लाम	-11.0185
आयदा	-11.0198
आसाम	-11.0199
खैफोद	-11.02
़	-11.0201
▁खुन्थि	-11.0213
▁दमासु	-11.0219
▁खारदो	-11.0229
खुरमा	-11.0233
▁लांखा	-11.024
▁नायजा	-11.0244
फाग्लि	-11.0248
▁डिभाइस	-11.0255
owel	-11.0255
▁Captain	-11.0255
▁Yes	-11.0255
▁अमृत	-11.0255
▁उल्टा	-11.0255
▁एक्सटेनसन	-11.0255
▁गुजुस्रेम	-11.0255
▁नीलाम्बर	-11.0255
▁फावदिन्थिनाय	-11.0255
▁फिरफिला	-11.0255
▁बकसिस	-11.0255
▁बाहेरायाव	-11.0255
▁बेण्डेज	-11.0255
▁ब्रेकफास्ट	-11.0255
▁राजखुंगुर	-11.0255
▁लक्ष्मी	-11.0255
▁हरिभुष	-11.0255
▁महिलारी	-11.0255
▁मुकुट	-11.0255
▁मेलेरिया	-11.0255
▁रहमान	-11.0255
▁लांसुनिया	-11.0255
▁गोथाङै	-11.0255
▁टाइप	-11.0255
▁दुखुनांथाव	-11.0255
▁बानबुंथि	-11.0255
▁थुलुंसि	-11.0255
▁लेकसार	-11.0255
▁अनजालु	-11.0255
▁कम्पानी	-11.0255
▁गान्धी	-11.0255
▁गेसेव	-11.0255
▁नबीन	-11.0255
▁मैखुन	-11.0255
▁अन्जालि	-11.0255
▁गसाथिया	-11.0255
▁बैथाली	-11.0255
▁इंखं	-11.0255
▁गिदित	-11.0255
▁थाइलिर	-11.0255
▁उकिल	-11.0255
▁सफ्टवेर	-11.0255
▁जार्ला	-11.0255
▁फायारिं	-11.0255
ुथुर	-11.0255
▁रासायन	-11.0255
▁मुरदा	-11.0255
▁मेजर	-11.0255
▁सौवो	-11.0256
सेन्ट्रे	-11.0256
▁मन्दिर	-11.0256
▁हाथुरा	-11.0256
▁आन्था	-11.0256
▁प्रेकटिस	-11.0256
▁उनथाराव	-11.0256
डब्लिउ	-11.0256
▁उथुमाय	-11.0256
▁दोनखारलां	-11.0256
▁स्लगान	-11.0256
▁हजुर	-11.0256
▁असिला	-11.0256
▁प्रसेसिं	-11.0256
▁मालदार	-11.0257
▁words	-11.0257
▁गायदाङा	-11.0257
▁ड्रेस	-11.0257
▁बयनिखुरै	-11.0258
▁मुब्रुं	-11.0259
▁रुगुङा	-11.026
▁दैबाना	-11.026
▁मोरोन	-11.026
▁लायाजासे	-11.0261
▁बाइजोआव	-11.0261
▁खन्थाय	-11.0262
▁सार्भ	-11.0262
▁निस्	-11.0262
ong	-11.0263
▁2000	-11.0263
▁आरिमु	-11.0263
▁गानस्लाय	-11.0265
▁ब्लां	-11.0267
▁सोलिबोनाय	-11.0268
▁मावसोम	-11.0268
▁सामोल	-11.0269
▁थखन	-11.0269
▁go	-11.027
▁लर्ड	-11.027
▁थोंनै	-11.027
▁लिभार	-11.027
▁मृ	-11.0271
▁खसाब	-11.0271
बाथेद	-11.0271
▁मिसेस	-11.0271
▁दुफुं	-11.0271
▁राइट	-11.0273
▁साबेसे	-11.0275
साथी	-11.0275
▁बेदत	-11.0275
▁li	-11.0275
बिथां	-11.0276
▁सुन्दर	-11.0276
▁अहं	-11.0276
▁गाखोहैयो	-11.0276
आदसा	-11.0277
▁फारिलाइ	-11.0277
▁प्रशान्तवा	-11.0277
▁गोबाङै	-11.0278
▁दावदाब	-11.0278
▁हामसिन	-11.028
▁फाल्ला	-11.0283
▁आथुर	-11.0284
▁बेंगिरि	-11.0285
▁मुथु	-11.0285
▁लाइजौवा	-11.0285
▁इनाइ	-11.0285
▁थुनलाइगिरिफोरा	-11.0287
▁रायथाइ	-11.0287
▁जरासे	-11.029
▁नुहैबाय	-11.0293
▁गुबुनारिफोर	-11.0295
▁लेप	-11.0297
▁दोनखानाय	-11.0298
▁बिश्व	-11.0299
16	-11.03
▁नैजिबा	-11.0301
▁थिफुं	-11.0302
स्टार	-11.0302
▁हासिगौ	-11.0302
▁थानाङो	-11.0302
▁हाब्रु	-11.0302
▁खुदुमो	-11.0303
▁गान्थि	-11.0305
▁नुजाफैयो	-11.0306
▁आयु	-11.0308
▁रानी	-11.0312
▁सोंबाव	-11.0312
▁दानथे	-11.0315
▁हाउसाव	-11.0316
▁गाराइ	-11.0316
▁मोनफ्राम	-11.0322
▁हरासै	-11.0326
▁नांथाव	-11.0326
▁आलफा	-11.0327
▁सोबग्रा	-11.0327
▁बिमुं	-11.0328
▁द्लामै	-11.0329
▁टेबुलाव	-11.033
▁स्राव	-11.0331
▁नायबाव	-11.0331
▁45	-11.0332
सिलाइ	-11.0332
▁दौलद	-11.0333
▁सैथि	-11.0335
▁गालाङो	-11.0339
▁नागाफ्रा	-11.034
▁जफायो	-11.0341
माने	-11.0343
▁98	-11.0343
▁सिबियो	-11.0344
▁बिबानगिरिफोर	-11.0348
▁हेड	-11.0349
▁जाखाबाय	-11.0349
▁फान्था	-11.0354
▁मन्जुलाया	-11.0358
▁रेख	-11.0359
▁सति	-11.0359
▁जुजाइनि	-11.0359
▁गेलेयो	-11.036
▁जालांगोन	-11.0363
▁बिबुं	-11.0364
▁अबिनासा	-11.0365
▁थाखै	-11.0371
▁लाखिगोन	-11.0377
▁होफिनो	-11.0382
▁सोराङा	-11.0383
▁गोलैदों	-11.0383
▁खिलि	-11.0384
▁हाबफैबाय	-11.0395
▁रुफा	-11.0396
▁गोख्रैयै	-11.0397
▁नायसन	-11.0399
्टेम	-11.0407
▁जाखादों	-11.0408
▁हबे	-11.0413
▁थांनांगोन	-11.0414
▁उन्दुलांबाय	-11.0418
▁ब्रां	-11.0422
▁बिदिनोसै	-11.0423
▁खुलुमनाय	-11.0425
▁दोरोद	-11.0428
▁हासिगोन	-11.043
▁आराम	-11.0436
▁दारै	-11.0446
दावसा	-11.0454
ard	-11.0462
▁लोरबांथि	-11.0465
▁दाउसा	-11.0468
▁आबसा	-11.047
▁बुंफ्	-11.0518
▁गंथाम	-11.052
▁सोंखारिनाय	-11.0521
▁नामै	-11.0522
वेल	-11.0538
▁बालु	-11.0542
थ्ला	-11.0543
गामिनि	-11.0562
▁लाहारि	-11.0567
▁गंफ्रोम	-11.0577
▁आइजोफोरा	-11.0579
▁जोहोलावफोर	-11.0583
▁सोहै	-11.0606
▁थुनफावथाइगिरि	-11.0624
▁भुटिया	-11.0671
ाइनारि	-11.0689
▁सिलिम	-11.0696
▁सहरनि	-11.0707
शी	-11.0709
ak	-11.0724
▁फार्सेथिं	-11.0727
▁मिथियाखै	-11.0731
▁नांग्रा	-11.0743
ेहेर	-11.0755
▁फरायगिरि	-11.0758
▁थांजोब	-11.0761
सिख्लाफोर	-11.0769
▁खुरु	-11.0799
बेफोर	-11.0809
▁पाब्लिकेसन	-11.0813
▁फिसौफोर	-11.0813
▁बोहैनाय	-11.0821
▁गेरेब	-11.0837
▁Pa	-11.0861
▁फिसिनाय	-11.0862
▁सावरायो	-11.0865
▁खिन्थाहर	-11.0867
▁31	-11.0868
ain	-11.0874
....?"	-11.089
▁500	-11.0909
▁नायगिरि	-11.0934
फैगौ	-11.0935
लायथारबाय	-11.1001
▁नोगोरमा	-11.1006
▁काट	-11.1009
▁दौब्ला	-11.1021
गोथो	-11.104
▁थादेर	-11.1052
▁रेप	-11.1061
▁मीन	-11.1063
dia	-11.1088
▁लाजोब	-11.1113
▁जंखायनाय	-11.1134
....!"	-11.1145
▁Ma	-11.1147
▁असम	-11.1183
▁भुट	-11.1194
▁खेबखां	-11.1217
▁गमामा	-11.1236
▁दाजाबफा	-11.1239
▁बरगयारी	-11.1241
▁मिथिजा	-11.1245
्मी	-11.1245
▁रुफाथि	-11.1261
▁रोंग	-11.1265
सान्ति	-11.1275
B	-11.1279
जाम्बि	-11.128
दोर्सोन	-11.128
▁सन्थला	-11.128
बेसाद	-11.1283
▁लायफिन	-11.1284
▁मास्थार	-11.1285
सुखे	-11.129
बुरै	-11.1297
अजय	-11.1302
▁मन्जुला	-11.1313
बिब्दिब्ला	-11.1316
▁मन्थ्र	-11.1318
▁सरासनस्रा	-11.1326
गुरु	-11.1332
▁बाइजो	-11.1335
मोन्नाय	-11.1337
▁आग्दा	-11.1337
तन्त्र	-11.1337
▁इक्लेटिक	-11.1337
▁खुनुरुखुम	-11.1337
▁थुनफावथिना	-11.1337
▁धर्मेन्द्र	-11.1337
▁नमस्कार	-11.1337
▁निर्मालिया	-11.1337
▁फिल्टार	-11.1337
▁बमब्राय	-11.1337
▁मारुती	-11.1337
▁रिजार्भ	-11.1337
▁लाइब्रेरी	-11.1337
▁सारेण्डार	-11.1337
▁इराग्दाउ	-11.1337
▁कनष्टेबल	-11.1337
▁गैजारोङि	-11.1337
▁दस्टुर	-11.1337
▁पाक्का	-11.1337
▁बह्रा	-11.1337
▁बिष्णु	-11.1337
▁बैराथी	-11.1337
▁महाभारत	-11.1337
▁रामचियारी	-11.1337
▁सेकेण्ड	-11.1337
▁हसपिटाल	-11.1337
▁हुखुमोर	-11.1337
▁खृष्टान	-11.1337
▁दारिमिन	-11.1337
▁दुंब्रुद	-11.1337
▁लक्षीमपुर	-11.1337
▁ट्राष्ट	-11.1337
▁राइफल	-11.1337
▁लैहोर	-11.1337
▁हार्सिं	-11.1337
▁आमथेखा	-11.1337
▁थरथिंसे	-11.1337
▁रिलिफ	-11.1337
▁कैलास	-11.1337
▁जोगोनार	-11.1337
▁दखरसे	-11.1337
▁निजोरा	-11.1337
▁रनसाय	-11.1337
▁थानसालियाव	-11.1337
▁बाथरुम	-11.1337
▁सरबत	-11.1337
▁सावथुन	-11.1337
▁आर्मि	-11.1337
▁ब्यावहा	-11.1337
▁दिंग्रि	-11.1337
▁निलिख	-11.1337
▁स्रोत	-11.1337
▁डील	-11.1337
▁उइक	-11.1337
▁दुलुर	-11.1337
र्च	-11.1337
काइनिन	-11.1338
▁गेन्द्रि	-11.1338
▁दखरा	-11.1338
▁जावैसो	-11.1338
▁होयि	-11.1338
▁ग्लास	-11.1338
▁अग्रन	-11.1338
▁चाहा	-11.1338
▁दाब्राय	-11.1338
▁एनजर	-11.1338
▁फोर्बो	-11.1338
▁थनथ्र	-11.1338
▁खोरोमदाउ	-11.1338
▁गोज्वौ	-11.1338
▁जोंब्लाउ	-11.1338
very	-11.1338
▁दर्जा	-11.1338
▁टमेट	-11.1339
▁मोगामोगि	-11.1339
▁सिदोब	-11.1339
▁इसादि	-11.1339
▁जुलुम	-11.1339
▁आसारखान्थि	-11.1339
▁मन्त्री	-11.1339
ble	-11.1339
▁सनिराम	-11.134
▁बुङालाबानो	-11.134
▁गेस्रेम	-11.134
▁बोजब	-11.134
▁इंलिस	-11.1341
▁मोख्रेब	-11.1341
▁खुंगुर	-11.1341
▁लाजिफोनां	-11.1341
▁फावखुंग्रि	-11.1341
▁गेब्ले	-11.1342
▁बीरु	-11.1342
▁सिखिरि	-11.1342
ृष	-11.1342
▁नेमखान्थि	-11.1342
▁सुंथाब	-11.1343
▁गस्वामी	-11.1343
▁बीर	-11.1343
▁लुबैसुला	-11.1343
▁अवाल	-11.1343
▁सौवै	-11.1343
▁खानस्रि	-11.1344
▁कार्ड	-11.1345
▁बारलाम्फा	-11.1345
▁he	-11.1345
▁गाब्बाय	-11.1345
▁सिबस्रां	-11.1345
▁बेवाइ	-11.1345
▁मिजिङा	-11.1346
भोट	-11.1346
▁1980	-11.1346
अलंबार	-11.1348
▁गौहाटीयाव	-11.1348
▁मिन्थिगौ	-11.1349
▁हाथरखि	-11.1349
▁St	-11.1349
▁लिङो	-11.1349
▁लाइफाङा	-11.1349
▁आर्य	-11.135
▁गेलेहोनाय	-11.135
▁दोबै	-11.135
▁He	-11.1351
▁नायगोमो	-11.1351
▁हासिब	-11.1351
र्ज्य	-11.1351
▁खनाथिं	-11.1351
▁बदलै	-11.1351
▁फासय	-11.1353
ज्रो	-11.1354
▁बस्था	-11.1355
▁गार्ल	-11.1356
▁बोहैबोनाय	-11.1356
▁लेबार	-11.1357
▁दोनफैनाय	-11.1357
▁बिथराय	-11.1357
▁फान्ड	-11.1359
▁जुवारि	-11.1359
▁बैसां	-11.1359
▁बेफ्रुथाय	-11.136
▁थामफै	-11.136
▁फारौ	-11.1361
▁थौले	-11.1361
▁लेङाय	-11.1362
▁बोदला	-11.1362
▁हाब्बाय	-11.1363
फादेरो	-11.1363
▁बोद्ला	-11.1363
▁पसम	-11.1365
▁बैथालि	-11.1365
▁गाउन	-11.1365
▁फाख्रा	-11.1365
▁थाबथायो	-11.1367
▁रिता	-11.1367
हैयासै	-11.1368
▁पियन	-11.137
▁पापी	-11.1372
▁उद्राय	-11.1372
▁हलाव	-11.1372
▁गुन्दामि	-11.1373
▁जालांखो	-11.1374
▁सुफुंग्रा	-11.1376
▁गयारी	-11.1378
▁सोमजिहोदों	-11.1378
▁बुंलाबाय	-11.1378
▁दाबखा	-11.138
▁लाजिथाव	-11.138
▁दाबसि	-11.1382
▁हमदोंसै	-11.1383
▁गाबगु	-11.1383
ail	-11.1385
▁जर्ज	-11.1385
डाइल	-11.1386
▁थिखं	-11.139
▁दाहोनाफ्रा	-11.1393
▁खबसे	-11.1393
▁थाफैनाय	-11.1394
▁फोसावगिरि	-11.1394
▁दावराय	-11.1397
▁थाल्ला	-11.1401
▁मिनिथाव	-11.1401
▁बुंखाबाय	-11.1401
▁हाबिलास	-11.1404
फैयासै	-11.1405
▁थिखां	-11.1406
▁जोंरुहा	-11.1406
▁लान्स	-11.1407
▁एखमब	-11.1409
▁नायगंना	-11.1412
देखोन	-11.1413
▁बाटा	-11.1413
ction	-11.1417
खावयां	-11.1427
▁सोलियो	-11.1431
▁लासिगोन	-11.1436
▁हासुं	-11.1441
▁बृश	-11.1444
▁दावबायारि	-11.1449
▁रोमो	-11.1453
चन्दन	-11.1455
▁मिथिस्लाबा	-11.146
▁जोबस्रांनाय	-11.1471
िथुन	-11.1484
▁फोथायथाव	-11.1488
▁मोन्नांगौ	-11.1494
▁गौमा	-11.1497
लेन्स	-11.153
▁अनारु	-11.1543
▁गेरे	-11.1551
▁पेर	-11.1557
खनसाय	-11.1579
AS	-11.158
▁दाजाबफानाय	-11.1584
फिनासै	-11.1595
गारबोनाय	-11.1639
पुरी	-11.1649
▁लोरि	-11.1652
▁सुजुग	-11.1655
▁दिन्थिफुंनाय	-11.1669
लांनांगोन	-11.1695
▁रोजाबनाय	-11.1712
▁बजबना	-11.1744
▁थोनहर	-11.1761
जुलि	-11.1784
▁बायोब्ला	-11.1786
▁सोमोनां	-11.1831
ies	-11.1843
▁फरायसालिमा	-11.1873
जोबाखिसै	-11.1894
▁होवाखै	-11.1901
▁लिंहै	-11.1903
▁सानब्रै	-11.1925
्रिटिस	-11.195
▁मावखां	-11.197
ries	-11.2007
▁लाखादों	-11.2064
▁लाबोफिन	-11.2073
▁बुंबावदों	-11.2096
▁एवखां	-11.2097
▁सोमजाय	-11.21
▁गोबाख्र	-11.2139
लोंखां	-11.2152
.........!	-11.2196
नंनाया	-11.2244
बेन्थ	-11.2261
▁जिरादफोर	-11.2272
▁नुजाथिदों	-11.2282
सिखोन	-11.2342
▁लांफिन	-11.2346
art	-11.2358
▁दानस्लाय	-11.2373
▁गाफै	-11.2389
rom	-11.2391
लाखार	-11.2409
▁जागायजेन	-11.2413
▁अबिनास	-11.2413
▁धे	-11.2451
!!	-11.2454
▁आखुथाइफोर	-11.2463
सफ्ट	-11.2492
उन्दु	-11.2492
H	-11.2493
सोमदोन	-11.2493
ऐ	-11.2493
कलेज	-11.2493
गुबुन	-11.2493
जावलिया	-11.2494
▁नौनारि	-11.2494
होमब्ला	-11.2494
▁प्रदीप	-11.2497
▁नोगो	-11.2499
बयबो	-11.2499
रुवाथि	-11.2517
▁जोबथारनाय	-11.2522
▁उदखार	-11.2525
▁फाफ्लि	-11.2525
▁कलंख	-11.255
%	-11.255
evenge	-11.255
haracter	-11.255
z	-11.255
▁(7)	-11.255
▁Inter	-11.255
▁आदुंगारि	-11.255
▁इरामुती	-11.255
▁एकाउन्ट	-11.255
▁कार्बिआंलं	-11.255
▁खुनुरोखोम	-11.255
▁गोग्गा	-11.255
▁घर्ना	-11.255
▁चेन्टार	-11.255
▁थंब्लेद	-11.255
▁देमग्लाय	-11.255
▁धुबुरी	-11.255
▁फल्डार	-11.255
▁फान्जामुथि	-11.255
▁बसुमथारि	-11.255
▁बिभीसन	-11.255
▁बिसम्बि	-11.255
▁भावथिना	-11.255
▁माथाउरी	-11.255
▁मेगावाट	-11.255
▁हस्रिखाव	-11.255
▁गावबुढ़ा	-11.255
▁टेंकि	-11.255
▁दासान्दै	-11.255
▁मुक्ति	-11.255
▁रिपर्ट	-11.255
▁सुबुरुन	-11.255
▁हाइब्रिड	-11.255
▁प्रदेश	-11.255
▁फिदिङो	-11.255
▁फोरोङो	-11.255
▁बिल्डिङा	-11.255
▁मुंफ्रोमखौ	-11.255
ज्लिउ	-11.255
▁कन्ट्राक्टर	-11.255
▁साखाफारा	-11.255
दामब्ले	-11.255
▁डिमापुर	-11.255
▁हुकुम	-11.255
▁टेनसन	-11.255
▁दोनथुमो	-11.255
▁बमफां	-11.255
▁खुजेब	-11.255
▁हावलाद	-11.255
▁दैज्लां	-11.255
▁हारामजादि	-11.255
▁जालिजौ	-11.255
▁उजेर	-11.255
▁इसिबां	-11.2551
▁रुबैजों	-11.2551
▁साग्रिद	-11.2551
▁आर्जि	-11.2551
▁ज्रोम	-11.2551
▁ब्लेक	-11.2551
▁बुन्था	-11.2551
▁एडभ	-11.2551
▁दुखारि	-11.2551
▁जलंगा	-11.2551
▁रेबग्रा	-11.2551
▁बुब्राब	-11.2551
▁आकुसि	-11.2551
▁अनारीया	-11.2551
▁स्रोब	-11.2551
▁सिलङाव	-11.2551
▁नलबारी	-11.2551
▁भुटियापारा	-11.2551
नाफुलि	-11.2551
▁बास्रिनाय	-11.2551
▁कसारी	-11.2551
▁खौरांगाबा	-11.2551
▁बावयैसो	-11.2551
▁इनटारने	-11.2551
फिफटि	-11.2551
▁साख्रियावला	-11.2551
▁फादुब	-11.2551
▁लमन	-11.2551
▁ग्रिद	-11.2551
▁निहोर	-11.2552
▁लिबारे	-11.2552
▁दाबाश्री	-11.2552
▁गोरजिया	-11.2552
▁देबी	-11.2552
ick	-11.2553
▁फाथाल	-11.2553
▁पाब्लिकेसनस्	-11.2553
▁नायबिजिरसं	-11.2553
ज्रिं	-11.2553
▁होवाखिसै	-11.2553
▁डेस्क	-11.2553
▁रुपसिं	-11.2554
▁कारेन्ट	-11.2554
▁मिनथि	-11.2554
▁आइटेम	-11.2554
▁बेसात	-11.2554
▁दामोनसै	-11.2554
▁फोनाङो	-11.2554
▁मामाइ	-11.2555
▁2004	-11.2555
▁मोस्रोम	-11.2555
▁गैमारा	-11.2555
▁गन्थङाव	-11.2555
▁रेडिअ	-11.2555
▁दतमा	-11.2555
▁गोसोथोनाय	-11.2556
▁हासुदै	-11.2556
▁do	-11.2557
▁नार्सिं	-11.2557
▁बाखनायथाव	-11.2557
▁मिथिसिगौ	-11.2558
▁इउजार	-11.2558
▁सहराव	-11.2558
▁नोंसिनाव	-11.2559
▁सोराङाव	-11.2559
▁असान्ति	-11.2559
▁ग्लब	-11.256
▁सियान	-11.256
▁आग्लाय	-11.256
▁फोसावजायो	-11.256
▁मामला	-11.256
▁दिदोम	-11.2561
▁मिनिखैरो	-11.2561
▁गुस्टि	-11.2561
रमिव	-11.2562
▁आबादारि	-11.2562
▁नोथां	-11.2562
▁फागुन	-11.2563
▁साइद	-11.2563
जुलियेट	-11.2563
▁गिखांनाय	-11.2564
▁लिंथिया	-11.2566
▁थाइस्रि	-11.2569
▁फेंफ	-11.2572
▁खुनसे	-11.2573
▁गायदां	-11.2574
▁बिरलांनाय	-11.2574
▁निरन्जन	-11.2575
▁छि	-11.2576
▁थाफ्लि	-11.2576
▁नुगासे	-11.2577
▁गयति	-11.2578
▁लिरस्लाय	-11.2578
हख्राव	-11.2578
▁मोले	-11.2579
▁फैफिन्नाय	-11.2581
▁गोदाय	-11.2581
▁फिस्रि	-11.2584
▁होयासै	-11.2584
▁गिहु	-11.2585
▁अनजु	-11.2585
▁साबिद	-11.2589
▁गायदे	-11.2591
▁थाथेर	-11.2592
▁नेता	-11.2592
▁सार्क	-11.2594
▁दोमो	-11.2594
▁सानथावा	-11.2595
▁अनथाव	-11.2601
▁सोंबावो	-11.2602
▁फोजायो	-11.2603
सेग्राब	-11.2606
ख्री	-11.2607
दुखारु	-11.2607
▁बाग्ला	-11.2623
सनेल	-11.2627
▁75	-11.2644
▁De	-11.2649
नबारु	-11.2651
▁35	-11.2683
▁उलथा	-11.2687
ज्रुम	-11.2731
गास्नि	-11.2731
▁उथ्रिनाय	-11.2731
and	-11.2788
ान्त्रि	-11.2826
▁नुनायखाय	-11.2877
पाति	-11.288
▁केच	-11.2933
काश	-11.2939
▁मंगलिय	-11.2967
फुङो	-11.3055
▁खुनुमथ	-11.306
2005	-11.3063
▁दाहोनाफोर	-11.3078
फुरियाव	-11.3087
ect	-11.3091
िनी	-11.3235
▁लानथ	-11.3236
अबंनि	-11.3266
▁सुरहाब	-11.3267
▁लाइफ	-11.3296
ल्दि	-11.3318
▁बंस	-11.3361
▁सोमजिखां	-11.3408
▁अनखां	-11.344
▁Not	-11.3506
▁गियाखै	-11.3524
▁रंजाफुनाय	-11.3529
िनाराम	-11.3612
▁मंग	-11.3628
एनला	-11.3691
▁खुंथाय	-11.3695
▁सेक्सपीयेर	-11.3731
▁महनलाल	-11.3772
▁आगोल	-11.3785
िकेट	-11.3802
ine	-11.3809
▁कर्णिया	-11.3815
▁रानखां	-11.3825
▁अक्सि	-11.3837
लवार	-11.3859
रमायना	-11.3865
U	-11.3873
वेर	-11.3873
W	-11.3874
बिख्लो	-11.3874
जारिमिन	-11.3874
हिनजाव	-11.3874
राणी	-11.3874
मोदोम	-11.3876
हामबाय	-11.3878
गासिबो	-11.3878
खाफाल	-11.388
आन्दास	-11.3884
जेरै	-11.389
मिनिनाय	-11.3896
बेवहाय	-11.3902
▁बिथिङा	-11.3926
ख्लोब	-11.3928
▁थागिदा	-11.3931
▁उथुजुग	-11.3931
▁एक्सप्रेस	-11.3931
▁कम्फिउटार	-11.3931
▁चाणाक्य	-11.3931
▁फावखुंगुर	-11.3931
▁फ्रेस	-11.3931
▁बिजावजालि	-11.3931
▁बैरागि	-11.3931
▁लानजाइ	-11.3931
▁सांग्रेमा	-11.3931
▁हिमालय	-11.3931
dverb	-11.3931
face	-11.3931
fix	-11.3931
tragic	-11.3931
अमिताभा	-11.3931
किरिरिं	-11.3931
▁God	-11.3931
▁Jul	-11.3931
▁Kachar	-11.3931
▁Limited	-11.3931
▁king	-11.3931
▁उपेन्द्र	-11.3931
▁कहिधन	-11.3931
▁क्लार्क	-11.3931
▁खाख्लारी	-11.3931
▁गिग्लुं	-11.3931
▁ग्रेणेड	-11.3931
▁जोबथेसालियाव	-11.3931
▁तामिल	-11.3931
▁दानसोराङा	-11.3931
▁दावथ्रोद	-11.3931
▁दोहौ	-11.3931
▁पाउदार	-11.3931
▁पेट्रिडिस	-11.3931
▁प्लास्टिक	-11.3931
▁फंबाइ	-11.3931
▁बारांगाबारी	-11.3931
▁बिखुनजो	-11.3931
▁बिरोंदामिन	-11.3931
▁बृटेइन	-11.3931
▁भार्चन	-11.3931
▁महीधरा	-11.3931
▁मिनिगाग्लाब	-11.3931
▁राजथान्दै	-11.3931
▁रिजाल्ट	-11.3931
▁वर्कश्वप	-11.3931
▁वार्क	-11.3931
▁सन्मिलन	-11.3931
▁सेक्रिफाइस	-11.3931
▁सेक्सपीयारनि	-11.3931
▁हस्पिटाल	-11.3931
sense	-11.3931
▁अनफावरि	-11.3931
▁खारस्लिउ	-11.3931
▁युव	-11.3931
▁जार्डारी	-11.3931
▁टिकिट	-11.3931
▁फरेइन	-11.3931
▁बिगोमाजोआ	-11.3931
▁सुबिधा	-11.3931
▁हस्पित	-11.3931
▁अस्थाद	-11.3931
▁दत्त	-11.3931
▁निज्रा	-11.3931
Word	-11.3931
▁आगरवाला	-11.3931
▁रामसियारि	-11.3931
▁अरगें	-11.3931
▁इंगि	-11.3931
▁एसेमब्लि	-11.3931
▁दोमैलो	-11.3931
▁नार्भ	-11.3931
▁फुथिहां	-11.3931
▁हाफौ	-11.3931
▁नारेंखल	-11.3931
▁फास्लां	-11.3931
▁सान्नैसो	-11.3931
Acce	-11.3931
▁गुन्दै	-11.3931
▁थिकादार	-11.3931
▁बकुल	-11.3931
▁बुद्दि	-11.3931
▁बुर्जा	-11.3931
▁राइफेल	-11.3931
रपति	-11.3931
▁भुत	-11.3931
▁खुग्लु	-11.3932
▁गासिखौबो	-11.3932
▁बाङाइ	-11.3932
▁हुमखि	-11.3932
▁बौहै	-11.3932
▁गंगना	-11.3932
▁रंजुलि	-11.3932
▁फेंखा	-11.3932
▁ब्रीज	-11.3932
▁दिन्दां	-11.3932
▁रुगि	-11.3932
▁दानदिसे	-11.3932
▁आलमारि	-11.3932
▁देदगा	-11.3932
▁बाकसा	-11.3932
▁डलार	-11.3932
▁ग्रुप	-11.3932
खृष्ट	-11.3932
▁बेयावहायनो	-11.3932
▁ब्राह्म	-11.3932
▁चिलाराम	-11.3932
▁थालिद	-11.3932
▁मिनिबाला	-11.3932
▁खारखाना	-11.3932
▁थोंगोर	-11.3932
▁मसला	-11.3932
▁स्पिद	-11.3932
▁थाफसि	-11.3933
▁आवरायजेननाय	-11.3933
▁सोलास्लिब	-11.3933
▁रामोनदा	-11.3933
▁हाब्रां	-11.3933
▁पेड	-11.3933
abi	-11.3933
▁केडारफोर	-11.3933
▁बयनिख्रुय	-11.3933
▁जाहाद	-11.3933
▁कर्निया	-11.3933
▁दुंबुरु	-11.3933
▁फानजारि	-11.3934
▁(198	-11.3934
▁फिथोब	-11.3934
▁बिबाङा	-11.3934
▁टाइट	-11.3934
▁थगायसुलि	-11.3934
▁दंनायमानि	-11.3934
▁मोन्थोर	-11.3934
▁द्राइभार	-11.3934
▁सान्थौ	-11.3934
▁दाथासै	-11.3935
▁फ्लिं	-11.3935
▁सोमोनांथाव	-11.3935
▁II	-11.3935
▁मेरेज	-11.3935
▁रेन्ज	-11.3935
▁मिनिखैर	-11.3935
▁हाउली	-11.3936
▁मालिस	-11.3936
▁तिता	-11.3936
▁जोबजासिम	-11.3937
▁बुंफोरनाय	-11.3937
▁बावगोमा	-11.3937
854	-11.3938
▁ष्टेसन	-11.3938
ब्रोम	-11.3939
▁प्रसेस	-11.3939
▁तास	-11.3939
▁साबद्राय	-11.3939
▁गाराङाव	-11.394
▁थोथोर	-11.3941
▁मन्च	-11.3941
▁मिटिं	-11.3941
▁गुग्रुब	-11.3941
▁दुब्रि	-11.3942
▁थिन्	-11.3942
▁खांग्रां	-11.3943
▁खैसिं	-11.3943
▁जाफ्लानाय	-11.3943
▁मान्दार	-11.3943
▁संकर	-11.3943
▁दावज्ला	-11.3944
▁खारसां	-11.3944
sso	-11.3944
ud	-11.3945
▁फन्दि	-11.3946
▁असिद	-11.3948
▁शिल	-11.3949
▁मेलेन	-11.3951
▁बोल्दा	-11.3951
ार्जी	-11.3953
▁ष्टेट	-11.3954
▁सौदाव	-11.3955
र्त्त	-11.3958
▁गाग्लाब	-11.396
▁खायख	-11.3962
्लोम	-11.3962
▁परम	-11.3964
▁बेदलाव	-11.3968
▁असित	-11.3969
other	-11.3971
mber	-11.3974
ध्द	-11.3977
▁इयार	-11.3981
ल्प	-11.3988
▁दानफाय	-11.4004
जोबाब्ला	-11.4009
▁द्रेस	-11.4016
कटन	-11.4025
▁दब्लाय	-11.405
▁दायनिगिरिफोर	-11.4075
▁थिनहै	-11.4079
ोरसोन	-11.4087
▁34	-11.4121
▁थगायबोदों	-11.4121
▁साफ्रासीफोर	-11.4132
▁बुंसोलाय	-11.4134
ेमथा	-11.4154
08	-11.4157
झार	-11.4165
▁प्रिन	-11.4183
▁देबनाग	-11.426
▁गारसोम	-11.4285
डाक्टर	-11.4309
▁टाट	-11.4342
▁फोजाखां	-11.4356
▁खिन्थाजोब	-11.4359
▁हामफ्ला	-11.4368
ुलार	-11.4401
ाजोना	-11.4537
▁लिंलां	-11.4552
टारने	-11.4646
स्लाबाखिसै	-11.4661
▁नायगिदिंहै	-11.4697
10,000	-11.4708
lect	-11.474
बुजियाखिसै	-11.4878
▁खमैब	-11.4879
▁संफ्ल	-11.4909
िनसि	-11.4997
दिहुनगा	-11.5028
फेले	-11.5066
समब्रि	-11.5178
char	-11.5203
खेंख्रि	-11.5253
▁बायहो	-11.5257
▁रन्	-11.5271
▁खैनाशान्ति	-11.5376
ुंग्राय	-11.5452
गियान	-11.5466
डाक्तार	-11.5476
जोहोलाव	-11.5477
ददेरे	-11.5477
उखैनाय	-11.5477
गिदिर	-11.5477
बुजिबाय	-11.5477
मिथिस	-11.5477
रिक्सा	-11.5477
डाइन	-11.548
प्लेट	-11.5481
मेगन	-11.5491
ज्योति	-11.5501
▁सान्थ्र	-11.5519
सहेन	-11.5528
▁गन्थङा	-11.5528
▁सोरजिगिर	-11.5528
▁कन्ट्राक	-11.5534
चियेशन	-11.5534
▁ताँति	-11.5534
▁तिब्बत	-11.5534
▁फेब्रुवारि	-11.5534
▁मुर्ख	-11.5534
▁सेरफांगुरि	-11.5534
Prono	-11.5534
X	-11.5534
hoo	-11.5534
ious	-11.5534
jective	-11.5534
ार्टिफिकेट	-11.5534
▁name	-11.5534
▁people	-11.5534
▁state	-11.5534
▁who	-11.5534
▁इन्सपेक्टर	-11.5534
▁इलेकट्र	-11.5534
▁इलेक्ट्र	-11.5534
▁उत्तर	-11.5534
▁एकाडेमी	-11.5534
▁काश्यप	-11.5534
▁खिरिमिन	-11.5534
▁खुनोरोखोम	-11.5534
▁खुम्बीबा	-11.5534
▁खृष्टीयान	-11.5534
▁खेरेबफा	-11.5534
▁गुबुंले	-11.5534
▁गोबोरखि	-11.5534
▁गोर्ब्बो	-11.5534
▁गोलोन्दां	-11.5534
▁जगाजग	-11.5534
▁जोथ्रोद	-11.5534
▁ठाकुर	-11.5534
▁डिग्री	-11.5534
▁दाखिन्था	-11.5534
▁दिब्रुगर	-11.5534
▁द्रयिं	-11.5534
▁धरणी	-11.5534
▁नरकासुर	-11.5534
▁पिंपिं	-11.5534
▁प्रमप्ट	-11.5534
▁बामब्लेमा	-11.5534
▁बेगपाइपार	-11.5534
▁भिटामिन	-11.5534
▁मतामत	-11.5534
▁महम्मद	-11.5534
▁मिलियन	-11.5534
▁मुम्बाइ	-11.5534
▁यैलाबोर	-11.5534
▁लंफेन्ट	-11.5534
▁शचीपात्र	-11.5534
▁सम्पत्ति	-11.5534
▁सातजार्ला	-11.5534
▁सिम्पान्जी	-11.5534
▁सेकेन्ड	-11.5534
▁सेक्सपिय	-11.5534
▁स्टरेज	-11.5534
▁हालिवग्राफोर	-11.5534
▁आथिमंगल	-11.5534
▁आदर्श	-11.5534
▁गोलोमस्राव	-11.5534
▁जन्त्र	-11.5534
▁डेनमार्क	-11.5534
▁मंगलीयान	-11.5534
▁महात्मा	-11.5534
▁मेगाजिन	-11.5534
▁ष्टेडियाम	-11.5534
▁साबित्री	-11.5534
▁आमुखाया	-11.5534
▁गाहेलाफोरा	-11.5534
▁जुक्ति	-11.5534
▁दिग्री	-11.5534
▁नभेल	-11.5534
▁प्रब्लेम	-11.5534
▁बक्सीं	-11.5534
▁बयसियाल	-11.5534
▁बिजिनेस	-11.5534
▁राक्षस	-11.5534
▁राखें	-11.5534
▁लाफांगे	-11.5534
▁सेमिनार	-11.5534
▁गुज्रि	-11.5534
▁जिख्लाबसे	-11.5534
▁टेलिफ	-11.5534
▁नोथाङा	-11.5534
▁हेलमेट	-11.5534
▁थुंसुं	-11.5534
▁देग्लाइ	-11.5534
▁पर्दा	-11.5534
मिन्टन	-11.5534
▁उसिफाव	-11.5534
▁लटारी	-11.5534
▁अन्जु	-11.5534
▁थोरफो	-11.5534
▁बदमास	-11.5534
▁लुस्सा	-11.5534
▁up	-11.5534
▁खोनासङो	-11.5534
▁रेबति	-11.5534
▁लावगि	-11.5534
▁बाङाली	-11.5534
▁हामथारबायलै	-11.5534
▁ज्रय	-11.5534
▁पारमिट	-11.5534
▁नारजारी	-11.5534
▁लानमी	-11.5534
▁खिरफिन	-11.5534
▁नोरखो	-11.5534
▁हाद्रिबाला	-11.5534
▁its	-11.5534
▁फ्लास्क	-11.5534
▁my	-11.5534
▁नसुंसे	-11.5534
▁नार्जि	-11.5534
▁एखुथा	-11.5534
▁बिसालथि	-11.5534
▁लाइसारी	-11.5534
हेन्दिमेन	-11.5534
▁गीता	-11.5534
▁हाथारलिया	-11.5534
▁नोंसाज्ला	-11.5534
▁नालेंखर	-11.5534
▁असुख	-11.5534
▁मुथासे	-11.5534
▁कलंखिनि	-11.5534
▁थोबसे	-11.5534
▁आपुनि	-11.5534
इलियट	-11.5534
▁नांगोल	-11.5534
tive	-11.5534
▁माउरिया	-11.5534
▁सफैगोन	-11.5534
▁फाइनाल	-11.5534
▁मेनेजमेन्ट	-11.5534
▁हबगा	-11.5534
▁noun	-11.5534
▁फ्रान्स	-11.5535
▁मेसें	-11.5535
▁दाबोरसे	-11.5535
▁(8)	-11.5535
▁बेबहार	-11.5535
▁बोनथुमना	-11.5535
▁सेवालि	-11.5535
tural	-11.5535
▁महारानि	-11.5535
▁फरायसुलिफोर	-11.5535
▁हुखुम	-11.5535
▁सिददा	-11.5535
▁सदबनो	-11.5535
▁hour	-11.5535
▁जाफ्लाय	-11.5535
▁राबेन	-11.5535
▁ष्टेशन	-11.5535
▁पाब्लिकेशन	-11.5535
▁सन्थलि	-11.5535
▁इखान	-11.5535
▁बिलित	-11.5535
▁बोर्ला	-11.5535
▁गोसारल्दा	-11.5535
▁दाहुना	-11.5535
▁माहारी	-11.5535
tory	-11.5536
▁बेरस्रां	-11.5536
▁साबाइख	-11.5536
▁रायफोरनाय	-11.5536
▁साखोन	-11.5536
▁रिफिनाय	-11.5536
▁can	-11.5536
▁सान्द्रि	-11.5536
▁Pad	-11.5536
▁आदिबा	-11.5536
▁PC	-11.5536
▁देब्लाब	-11.5536
▁दुरुङा	-11.5536
▁आथाल	-11.5537
▁स्कट	-11.5537
AC	-11.5537
▁दोर्फ	-11.5537
▁घटना	-11.5537
▁मृनाल	-11.5537
▁उखुम	-11.5537
▁रुबिला	-11.5538
▁ल्दाम	-11.5538
▁मेजेम	-11.5538
▁आपेल	-11.5538
▁बाल्ब	-11.5538
▁लण्डन	-11.5538
▁धमक	-11.5538
▁केबिन	-11.5538
▁खराग	-11.5538
▁फोजोन	-11.5539
▁कम्प	-11.5539
▁मोनज्लायनाय	-11.5539
▁दिंग्राय	-11.5541
▁बेहुस	-11.5541
▁खदाल	-11.5541
▁प्लेन	-11.5542
▁धोर	-11.5543
ide	-11.5543
▁सोमावसारग्राफोर	-11.5544
▁एलाखा	-11.5545
मिडिया	-11.5547
उरीया	-11.5555
ाउण्ड	-11.5556
डियास	-11.5557
दौलत	-11.556
▁come	-11.5561
बारुद	-11.5563
सिदेम	-11.5569
form	-11.5593
ेकसन	-11.5598
ुर्सि	-11.5608
▁खबाम	-11.5634
मांग्रि	-11.5641
▁सामाज	-11.5684
▁गसर	-11.5705
ment	-11.5722
सिबल	-11.5734
line	-11.5736
▁खेराइसालि	-11.575
All	-11.5777
फ्रोमावबो	-11.579
म्फ	-11.5791
▁निउबिल	-11.5829
1994	-11.5863
्रुम	-11.5891
▁हाउल	-11.5944
▁बहन्ना	-11.6023
आयौ	-11.6027
[	-11.603
ियेट	-11.6061
2003	-11.6185
▁दोंफ	-11.6378
▁गोथौव	-11.6391
प्रभु	-11.648
जोबासै	-11.6618
▁खुन्था	-11.6722
age	-11.6762
र्श	-11.6873
लाङाखिसै	-11.6916
▁थिफाय	-11.7117
सामथाइ	-11.7146
▁सिकिउर	-11.727
cial	-11.7299
टेम	-11.7304
▁डिजिट	-11.7326
▁ma	-11.7367
झ	-11.7384
फावथाइया	-11.7384
सन्मान	-11.7385
ऋ	-11.7385
The	-11.7385
खबरदार	-11.7385
सुशान्तवा	-11.7386
थुंग्रि	-11.7386
गसङो	-11.7386
मेहेरसिं	-11.7386
दान्दिसे	-11.7386
गामसा	-11.7386
गोरों	-11.7386
बिहामजो	-11.7386
लाउथि	-11.7386
एरैनो	-11.7386
लोङै	-11.7386
गाहाम	-11.7387
खोमसि	-11.7388
spir	-11.739
दाकात	-11.7404
▁फंनै	-11.741
स्वामी	-11.7433
ification	-11.744
▁मेनेज	-11.744
▁नेहाथ	-11.7441
ology	-11.7443
▁9435	-11.7443
▁कनट्र	-11.7443
Comp	-11.7443
▁Brit	-11.7443
▁इन्टारचिटि	-11.7443
▁बसुमथारी	-11.7443
▁रिभलभार	-11.7443
▁स्कुटार	-11.7443
TWW	-11.7443
cruel	-11.7443
position	-11.7443
ractical	-11.7443
vid	-11.7443
जोबथेसालिनिफ्राय	-11.7443
ज्ञान	-11.7443
▁Bodo	-11.7443
▁Habildar	-11.7443
▁Style	-11.7443
▁System	-11.7443
▁know	-11.7443
ऊ	-11.9747
K	-11.9804
_	-11.9804
ई	-12.2842
ऩ	-12.2899
$	-13.5675
Q	-13.5725
J	-13.5726
q	-13.5727
ढ	-13.5728
{	-13.5729
*	-13.573
v	-13.5731
f	-13.5732
&	-13.5733
7	-13.5733
ऴ	-13.5733
॥	-13.5733
॰	-13.5733
⁮	-13.5733
√	-13.5733
