#version: 0.2 - Trained by `huggingface/tokenizers`
ा य
▁ ब
ा न
ा व
▁ स
▁ ग
▁ म
न ि
▁ ज
ो न
ा र
▁ ह
▁ आ
ल ा
ो ं
▁ न
▁ द
् र
ा ं
ख ौ
ो र
न ो
▁ब ि
▁ थ
ा ब
▁ ख
ान ै
न ाय
▁ फ
▁ब े
▁ र
न ानै
ब ो
स े
य ा
▁ग ो
ा म
▁ ल
द ों
स ि
थ ि
ु ं
द ि
् ला
न ्
ो ।
ा इ
ब ाय
ा ज
. .
▁म ोन
फ ोर
ा थ
▁आ र
▁ अ
ा ग
ाय ा
▁आ ं
▁आर ो
ो म
ा ल
ान ि
ा ख
▁स ि
ार ि
े र
ा ह
ान ो
ब ा
▁ ला
▁ ए
्र ा
स ो
ान ाय
ज ों
ि र
ा ला
् ल
म ोन
▁न ों
▁ ?
ब ्ला
न ा
▁म ो
्र ि
य ो
▁स ान
ि स
य ाव
ाय ाव
▁ उ
▁ "
ु र
ु ब
फ ्र
▁ह ोन
ि न
▁ क
▁ :
ाला म
▁ब ुं
ङ ा
▁ख ालाम
▁ग ाव
ा द
म ा
ो ब
दों ।
ु न
ां ग
स ै
▁ज ाय
ल ʼ
ल ाय
ान ानै
फ्र ाय
▁स म
ल े
▁ -
▁म ा
ु ल
▁ !
▁थ ां
▁म ि
न् द
ान ्
बाय ।
▁ह ाब
▁ज ों
.. ..
ज ि
नि फ्राय
स ोर
व ा
▁फ ै
ं ग
▁ज ा
▁म ान
ं ख
▁ह ो
▁ (
▁ प
▁ज े
ाथ ाय
ख ा
▁ इ
ु म
▁ब ु
र ʼ
ह र
▁न ाय
ाब ो
▁बि यो
दों मोन
ो ग
ोन ।
▁गो सो
▁न ु
ह ा
▁ग े
▁स ो
▁ज ि
फ ा
▁द ं
न ाव
▁ब ा
▁म े
ज ा
▁ ओ
द ा
ि या
ाब ाय
ि न्
▁स ोर
। "
▁थ ाख
ख ां
ै या
थ ा
ु ग
▁न ाथाय
▁फ िस
▁ब ो
▁ब ाथ
▁आ ख
▁स ा
नाय नि
र ाय
् ट
▁र ाव
ांग ौ
▁ब रʼ
▁ग ि
▁ब ाय
ाल ि
▁- -
फोर ा
थ ʼ
फोर खौ
थ ाइ
ब ि
▁ल ोग
▁मान सि
▁द ै
थ ार
▁स े
य ै
▁ग ुब
य ो।
ङ ो
ार ी
थ ाय
ज ां
ज ो
▁लोग ो
▁म ाव
▁म ाब
ला इ
▁स ु
ल ि
▁थाख ाय
▁बा दि
फ ै
▁द ा
▁ह र
ग ा
▁ब ार
▁द े
▁बि नि
▁ए बा
स ा
ग िर
ङ ाव
ह ै
▁ग ु
▁न ङा
▁मोन से
आ व
नाय ाव
▁बि ब
▁ओ ंख
न ै
ब ाव
▁अ न
ोन ां
▁ग ोर
▁गाव नि
ब ां
▁ '
▁स लʼ
▁? "
ख ि
ङ ै
र ि
▁आं नि
▁म ु
▁ह म
▁द िन
▁उ नाव
▁-- "
म ्
ङ ो।
▁बि सोर
ाय ो।
ज ेर
▁गुब ुन
थ ां
ै ।
▁फ ोर
ला ं
▁मो जां
▁ह ाग
फोर नि
ग ोन
▁बाथ ्रा
▁मि थि
▁गे जेर
ब े
▁गो द
▁ज ेर
ख ्र
▁गो ज
ाय नो
स ्रि
ार ाम
▁थ ानाय
स ार
ोन ा
▁द ि
▁थ ि
▁थ ा
▁फ ो
▁ ट
व ाव
▁ज ानाय
▁ ड
▁स ोम
▁ग ा
▁ल ानानै
▁बाय दि
ह ो
▁ग ोनां
▁न ा
▁ज ाबाय
् द
▁ग ाब
दोंमोन ।
▁ब ाह
ाज ा
नाय ा
े न
▁ग ैया
ाब ्ला
ाय ो
▁बे नि
ब्ला बो
सि न
गिर ि
▁ह ाया
▁फ ाव
▁बे खौ
ार ्
▁ए से
▁ 1
ाल ाय
ग ्रा
▁दिन ै
▁ज ो
▁र ो
▁ज ाग
▁ह ा
▁हाब ा
▁सम ाव
▁ख ा
ाह ा
द ै
स ्र
▁सा से
ाय ै
▁ह े
सै ।
ख ो
▁ज ानो
▁म ुं
▁द ाव
े व
ख ु
▁जाय ो।
▁र ाइ
ज ाव
े ट
ि नि
▁ओंख ार
▁ब ोर
ल ाव
▁न ाग
▁ भ
▁द ोन
नाय खौ
▁ग ाह
▁द ु
▁जेर ै
▁ब ै
्र े
बा दि
▁म ानो
▁ख ाम
▁सो द
▁ज ौ
▁ग ाम
▁ल िर
▁म हर
्ल ि
थि ं
▁राइ जो
र ा
▁ग ार
▁फ राय
ाज ों
▁ज ानानै
मोन ।
▁थ ै
▁स ुब
▁ नि
े ब
▁जि उ
▁सि ख
▁आ फ
ग ौ
▁ह ारि
▁ 2
▁हाग ौ
▁आ ब
ग ोन।
म ाय
ज ाब
▁जे बो
ग ्र
थ ाव
े ल
् नानै
▁ह ां
खौ नो
ा ।
▁आ इ
▁न ʼ
स ु
िन् थि
▁स ाव
ल ै
्ल ाय
स ्
न ांगौ
फ िन
फ ्रा
▁ज ोब
▁नों नि
▁ग ै
ोन ो
▁बे से
▁र ां
ख ʼ
ज ु
ान ा
▁आ ले
नो ।
म ानि
▁स ों
सि म
▁सुब ुं
ोन ाय
▁द िन्थि
▁न ां
▁गेजेर ाव
ब ्र
▁अ र
▁दं ।
त ि
▁आ न
▁र ाय
▁स ानै
ि ं
▁स ायाव
▁गो बां
▁ला इ
ोन ानै
▁मे ग
▁फिस ा
- -
▁फ ार
थि या
▁आख ु
ज ोर
ख ै
▁ला ं
▁ख ार
▁ खौ
▁माब ा
▁आं खौ
ग ां
▁मि नि
▁ब ाव
▁गोद ान
▁ख ोम
ज ोब
▁खालाम नो
▁गा सै
▁बि फ
▁बि दि
▁ग ं
▁सोद ोब
▁ब ाज
▁उ न्द
िन् जाव
▁जा दों
ब र
▁म ाह
ो द
▁ [
▁होन नानै
▁न ो
▁सान ्
ै नो
द ेर
▁ज ाथ
ल ्
▁ह ाद
▁ज ान
▁आ ग
▁खाम ानि
▁ग थʼ
▁मोन ्
▁आफ ाद
▁होन ाय
े ं
▁ह िन्जाव
सि नो
▁नाग िर
ाख ा
▁द ान
▁म ले
ग ार
▁ग ाज
▁खालाम नानै
.... ....
▁थ ुन
▁ब ाद
▁ख ु
र ्
▁ श
▁बि खौ
ख ोम
ाम ा
▁दु खु
▁मो द
् दि
ार ा
▁गो म
▁ब ां
▁ज ाया
▁बि ख
▁गाज ्रि
▁ज ाह
▁म न्
▁ह ाज
▁न ङ
▁ख ोन
क ्
▁ च
▁खा थि
स ं
▁द ेर
▁बि मा
ारि या
द ो
▁जों नि
▁ज ाख
ल ो
▁फिस ाज
▁फोर माय
▁नङा ।
द ां
ाब ा
▁ल ों
▁म ुल
▁र ं
▁आ स
▁ख ो
▁होन ्नानै
ब ार
▁र ाज
▁बे फोर
ष ्ट
न् ट
थ ्रि
▁ ध
खौ बो
- फ
▁ज ु
नाय ,
.. .
▁आख ाइ
▁होन ो
ख र
▁म ाइ
▁ )
सि ं
▁बि ज
▁सि गां
▁म ह
ब ्ल
▁नो जोर
▁बु ङो
न नि
ाख ै
▁" आ
▁जाय ो
फ ुं
▁ब य
▁बे ख
▁फाव थाइ
ान ाव
▁आ दा
▁प ्र
फ ि
▁ख न
▁बो सोर
ान् थि
े स
▁ह ानाय
▁आ लाइ
ाज ाब
▁फ ु
▁बिब ्दि
ुब ै
▁जा दों।
ज ानाय
▁र ु
▁ब ्र
▁बुं नो
् ड
▁ त
▁बि न
▁बे र
▁होन ानै
- ग
▁ल े
न्द ा
स ालि
्ल ै
▁गो ग
▁गि दि
▁द ङ
▁बाह ाय
▁बुं नाय
स ाव
▁बि सि
▁ज िर
थ ायाव
ार नि
▁बाथ्रा खौ
▁स ं
▁मो स
् त
▁स ेर
▁फ ि
▁सि ं
▁न े
▁आ य
ाग ो
▁से ंग
0 0
ारि नि
म् बर
▁फार से
ण ्ड
ाम ोन
ह ाय
▁आ व
▁स ै
▁म ै
▁न ाज
क ा
▁नों थां
▁जाबाय ।
▁ब बे
▁मो खां
▁द र
▁गैया ।
▁ल ानाय
▁बि थां
प ि
ौ वा
ट ि
् म
ाब ु
▁बेख ेव
- म
▁खौ र
- द
▁थ े
▁सि रि
▁मेग न
▁ख रʼ
▁द ुर
- स
थ ो
▁अ ज
ाया ।
▁नों सोर
ुल ुं
फ ां
जि त
- ब
▁आ द
▁ला मा
▁गोज ौ
▁बाह ागो
▁थ ार
▁ए र
▁ब ान
▁ग ां
▁उ न
ल िया
ी या
▁न ै
▁लोगो से
ानि फ्राय
ह ां
▁गो हो
▁ज ोन
▁बुं बाय
ग ि
ाव नो
▁ ]
▁द ाब
न ां
▁ए न
▁मोद ोम
ांग ोन।
ल् प
ख ार
थ े
ो नि
▁जोन ोम
ाला ं
▁ख ुग
म ाया
▁न वाव
▁थां नानै
▁जाग ोन
▁थ ाब
▁म ाथ
▁ह ाम
याव नो
▁मुल ुग
▁ख ाव
ल नि
▁न ांगौ
▁फ ं
▁ओंख ाम
▁हां खो
य ारि
ल ों
ुल ि
थ ाम
ुर ै
▁सि ङाव
▁माब ्ला
▁जेरै -
▁उन्द ु
ज ाय
स ुम
स्र ी
▁र ि
▁दुर ्
▁र ुम
▁ल ुबै
▁सम ाय
▁नु नानै
▁जो बो
▁मान ोना
▁गं से
स ʼ
ख ाल
▁नों खौ
ख ै।
▁म ालाय
▁म ाखा
▁ख ै
▁आले या
▁थ ाबाय
दों ,
खां नानै
▁थ ानो
▁सि नाय
▁क ल्प
▁बार ा
▁स ौ
▁ज ʼ
▁बि ह
▁गाम िनि
ख ाय
्र ाय
▁फ ा
▁गाम ि
ल ु
स ाय
ान् त
▁हागौ ।
▁सोर बा
▁न ामा
▁र ै
दि ,
▁ला बो
▁माखा से
▁र ा
▁गोग ्लै
▁आ फा
्द ो
▁दि ह
े श
▁ ।
्र ाया
नाय ।
▁हाया ।
▁सम ाज
▁ब ाग
▁ख िन्
म ु
▁ए म
▁" न
ुर ि
▁माह ाज
ब ोर
ह ाब
▁ह ु
▁द से
▁थां नाय
▁आस ाम
फ ्ला
▁थ ायो।
▁बे यो
फोर ाव
ब्ला ,
िस ै।
▁ब्र ह
द ʼ
▁बे नो
ोम ा
ांग ोन
▁मानसि या
▁खाथि याव
▁म न
▁म ानि
▁ह ौवा
▁आ थि
▁गुब ै
▁खौर ां
स ो।
थि नि
▁द ाय
▁बे ल
▁सेंग ्रा
▁ब्रह ्म
▁ह ाय
▁ख ि
▁सान से
्द ाव
प ्त
य ाबो
▁स ाब
गा सिनो
▁ला खि
▁थुन लाइ
ख ालि
▁गोज ोन
ग ो
थ ुम
्र ां
▁बु ङो।
म ान
▁थ ाम
▁गो थ
ख ायनो
र िया
स न
▁ब ड
▁ग लʼ
बो ।
▁ल ानो
थि खौ
▁थां नो
फ ाल
म ि
- ह
र ाव
▁आं ।
▁ला सै
▁बिसोर नि
▁र ाग
ारी या
▁फ िन
▁मोन ो।
ान् दि
ज ्लाय
▁गो ख्र
▁सो लाय
▁ख ाय
▁र े
▁नु नो
▁गि बि
फ ोद
▁ल ु
▁आं हा
▁न ं
र ाग
▁स र
▁ग ान
▁बय बो
फ ु
▁ह ार
▁मोन ो
▁मले न
▁र ाहा
ाइ नि
ाख ै।
▁सोम ोन
▁सिख ्ला
स ोम
था ङा
▁ह ाथ
▁ख ेब
दि या
▁ह ोम
ान नि
▁ग ʼ
सि बो
▁जाग ोन।
▁द ाह
▁बि लि
▁ला ब
▁फ े
▁अ ल
क ्ट
▁स ्
▁स ाय
▁म ुग
बाय ,
फोर जों
▁बि लाइ
▁नाय हर
▁राव बो
▁गाह ाय
▁जोबो द
▁ज ाथाय
देर े
य ानो
ह िर
▁ब सुम
▁थ ाग
▁माथ ो
ंग ा
ाराम ा
ङा ।
▁जाय ग
▁मो दै
े म
▁म द
नाय सै।
▁र ाजा
- ज
ख ान्थि
े म्बर
▁नाय जाब
▁से प्त
▁ह ायो
▁द देरे
▁मो खा
▁बो है
▁फिसाज ो
ग ाय
▁र ाम
▁क म्
म िन
▁स ुं
नाय जों
▁अ ब्ला
▁गा सिबो
▁बिज िर
▁जिर ाय
▁बे बादि
▁मि हिर
▁सेप्त ेम्बर
न् ज
ुल िस
▁मन् जु
स ्ट
▁ह ाल
▁क ा
▁लाइ ज
▁बसुम त
ग ायै
▁ह ान्
निफ्राय नो
उ ट
र नि
▁गो बाव
i n
म ायाव
▁प ुलिस
▁रै खा
य ार
▁जे ं
▁ज ाब
▁ला जि
▁अन गायै
स्र ां
द ो।
ला ङो।
▁थ ु
▁थ ाइ
▁थ ायो
▁मोन नै
ुर ा
▁गु व
▁गेजेर जों
▁खो था
▁मह ार
▁न खर
खौ ।
ोर ोम
▁थ ाव
▁हे ं
▁दिह ुन
▁ग र
▁फ ान
थ ोन
▁द ाजाब
▁गोर ा
▁बोर ै
▁बां सिन
▁सि गा
▁जाय गा
य ान
▁बि ग
▁इ राग
▁गोसो आव
ब्ल ानो
▁आलाइ स्रि
ल ाया
▁स ाइ
न् थ
▁अ लʼ
▁रो खोम
फ ाव
▁बि जाब
▁अ जित
▁नʼ वाव
e r
ु वा
▁गार ां
थाव ना
▁बे द
▁मोन नाय
▁अ फ
▁बेखौ नो
▁ज ारि
ी ,
▁स ुलुं
▁ख ोना
▁साव राय
▁नङ ाब्ला
▁सिगा ङाव
म ार
▁थां खि
न ाथ
▁ह ि
▁द ो
▁गासै बो
- बि
▁स ाहा
▁हाब फै
▁सो लों
▁ड ि
- आ
े ना
ार नानै
▁सि म
▁मानसि नि
▁इराग ्दाव
▁थ ान
या ।
▁सलʼ मा
ोन ्
▁अ न्
िर ि
द ुं
ल ्ल
▁न ार्
▁जे न
▁हाद ोर
▁थ िन
▁अ राय
▁महर ै
थ ाया
फ ारि
▁ब र
▁द म
▁मो जा
▁बिब ार
▁रं ज
▁थ ेव
▁फ ुं
- र
द ाय
▁! "
▁सोर जि
▁समाव नो
▁आ ला
▁फ ारि
▁ल ाय
्ला ब
▁गै यै
▁बि र
▁जान ांगौ
▁हो यो।
▁गे ले
▁फो थाय
हो लाव
▁खा फाल
▁आथि खाल
▁ग सं
▁ह ायो।
ंग ौ
▁जे ब्ला
▁सुलुं आव
▁फ ाग
▁जिउ नि
▁प ा
▁गाह ाम
▁जाख ो
▁द ाम
▁आख ायाव
▁"आ ं
थ ोर
▁स ार
▁द ाख
ोर ै
▁गो लाव
▁लाइज ाम
फ्र ोम
▁क े
▁जो होलाव
▁गाह ाइ
o n
ख ्ल
द े
फ ्ल
▁द ाबो
▁बि फा
▁ल िं
▁जेर ाव
▁त ुल
▁ 3
▁गोसो नि
▁हारि नि
▁आन ारी
▁ ....
▁1 9
पि उट
▁जारि मिन
t h
ज े
स ोन
िस ै
ार त
▁बाद ल
क ेल
ग ʼ
▁द ौ
▁गोसो खौ
▁दा उ
▁दे हा
▁कम् पिउट
▁मोजा ङै
▁र ों
ुं ग
▁थेव बो
् ‌
▁ 5
▁स ह
▁आं बो
▁जाथ ाइ
द ाव
थ ु
द ार
ा ,
▁स ाख
▁द ानो
▁बरʼ नि
▁बाज ि
▁सुं दʼ
ो ,
▁ब ान्
▁गाव नो
▁फै नानै
▁आब ौ
▁बेसे बा
▁जे ब्लाबो
▁बिन ानाव
▁महार ाजा
▁द ानि
ह ेर
▁स ाल
▁ग ाख
▁ड ा
▁साव ग
ी न
▁ह गार
▁न ार
▁थ ाय
ाथ ʼ
ोग ोर
▁बिफ ां
ख े
ज ्रि
▁बे याव
▁बुं नानै
▁प ि
▁दङ ʼ
ै ,
▁ह ाख
▁बि हा
▁क ले
▁माब ोरै
▁था ङो
t i
▁बादि ब्ला,
▁मु वा
▁भ ारत
नांगौ ।
▁माहाज ोन
▁स ुर
▁ख ाबु
ाह ै
▁नाय नानै
फ ाजाब
▁ औ
▁ग य
दि ं
▁सान् थ्रि
झ ार
् ब
▁ब ाइ
▁ग स
▁बि खा
▁गां से
ब ोनाय
▁आ ल
▁ख न्
▁खोम सि
▁मन् थ्रि
▁खिन् थ
द ेन
▁ख ालि
▁उ द
▁खालाम नाय
सै ,
▁इ ं
▁मु स्री
▁ट े
प ार
▁अ खा
ोम ोन
▁सोम बोर
▁मले ना
▁मोस ौ
क ेट
▁आं नो
▁हे फाजाब
सालि याव
▁जायग ायाव
▁ह ै
्र ी
▁नाय नो
▁फोर ों
▁एसे बां
▁अफ िस
्र ै
ख्र ु
▁बै सो
▁2 00
ʼ व
▁मोन बाय
न्द ्र
▁गु दि
ज ʼ
ज ाया
▁जों थिया
▁अलʼ क
नि बो
▁ज ुन
▁ह ायै
▁बुं दों
ारी नि
▁माव नो
गिर िया
▁बोर ाय
▁बिख ायाव
ख ानि
फ ेर
े न्ट
▁स ाम
▁ज ाम
▁सान नानै
ंग ि
▁नङा ,
▁बेनि खायनो
थ ुर
ब ्रा
▁ घ
▁स ʼ
▁ह िस
न् दि
▁मोन नो
▁गोर ोन्
▁सं सार
थावना दि,
▁स ानो
▁ज ाव
▁द न्दा
लाय नाय
थाय नि
▁मिथि नो
▁ट ि
▁जाख ां
▁तुल ाराम
▁म ार
ला ङो
▁फ ाह
▁गोसो आ
▁बिब ान
▁गोर ोब
▁हाबा फारि
▁"न ों
ब ानो
▁ग ुर
▁न ोगोर
▁ख र
▁ख ुं
▁बे व
▁सोम ाव
न ानि
ाब ै
▁ख ान
▁अ ब
▁दै देन
▁हम नानै
क् स
▁दुर् जा
▁मद द
् य
▁न ंगौ
▁थ ाल
▁आख ल
▁फोरमाय नाय
▁गिदि र
▁जें ना
र ाइ
▁ब ुर
जों नो
▁उन्द ै
▁आफाद नि
▁थे फ
▁गोख्र ों
प ुर
नो सै
▁बि स
▁" म
▁थाख ो
▁ध ोरोम
▁ज ै
▁उ दै
▁होन ना
▁गु न्द
▁फराय सा
▁राम नाथ
ख ्रि
फ ाय
▁ग ारि
▁फो साव
▁थुन फाव
▁नोजोर थावनादि,
स ्ल
▁अ म
▁श ान्त
ख ाव
ह ोनो
▁ 4
सि या
ख ानाय
▁ग ाय
▁ग ुम
▁आ थिं
▁प ्रे
क रा
य ेट
़ ʼ
▁बे निफ्राय
▁गाव खौ
▁फो जोब
▁बेसे बां
▁खै फोद
▁सोमोन ्दो
ु ट
▁ब ानाय
▁स ांग
▁ख ां
लां नाय
▁ट ्रे
ाब्ला बो
▁गै य
▁गिदि ं
ु नि
▁ख े
▁उ दां
▁माब ार
प ा
▁मोन बाय।
▁इ से
▁लिर नाय
▁बड ़ʼ
फ िन्
▁म ाद
▁ज ालां
▁द ानाय
ाग ्ल
▁जौ ग
▁सावग ारि
▁ज ोम
्र ाइ
▁हम नो
▁फं बाय
ख न
ी र
▁मोन ा
▁इ उ
ल ेर
स ुं
▁सान बाय
ुल ुम
▁जोब ोर
फ्रोम बो
e s
ख िसै।
र ाज
▁आ म
▁ल ान
▁था स
▁गोथ ौ
ज ाद
स म
▁थ ो
▁जा दोंमोन।
▁बु जि
▁मिथि गौ
लिया ।
▁मोखा ङाव
a n
ज ेन
थ ों
ब नानै
ु ना
▁ब ाबु
▁ल ो
ाराम -
▁ना ङा
▁राइजो नि
द ोन
▁ख ʼ
ाथ ाम
मोन नि
ंख ाय
▁जि ब
▁सोम जि
▁हा :
▁थुनफाव थाइ
ह ार
▁बे फोरखौ
▁ल ायो।
सि ना
्ल ानो
▁नों थाङा
वा ।
▁ओ ं
ाबाय ।
▁अनगायै बो
a l
स नि
▁ग ान्
▁बि दा
▁बे ं
▁गो ब्र
थि याव
▁दा सिम
▁फाव थि
▁आइ जो
▁बिदि ब्ला
▁ले खा
ी नि
ोम ोन।
▁मो सा
▁जानाय नि
▁सानै बो
▁खोना सं
e n
ु व
् बा
▁आ न्द
▁बु थार
▁नु जा
▁बो थोर
▁हें था
▁द ां
▁द ुल
▁बि यो।
सि नि
ाख िसै।
▁" मा
▁मोन् नाय
▁हाज ʼव
ेस न
ज ुग
▁बि मानि
▁बो लो
▁बाथ ्राया
▁सलʼ नि
▁बाद ला
▁दुर्जा ङा
उ रि
र े
▁ ........
▁ग ाइ
से याव
लाय ।
लाय नानै
▁सोमाव सार
ज िर
् व
▁र िं
ाग ि
▁सि न
ब्र ै
▁आग ान
▁फोरमाय दों।
▁माब्ला बा
o r
थ ाब
▁थ ुलुं
▁होन ्
▁बाथ ्र
बाव नो
ज ाग
ान ो।
▁फ ाला
दि नि
▁क म
▁हो बाय
ख्रु इ
ज ानि
▁बि माया
▁थाखाय नो
ख्र ां
▁च ि
ʼ र
न ांगोन।
ह ाबो
▁ व
ंग ार
▁फिस ाइ
▁बायदि ।
▁खोन ानानै
▁कल्प ना
▁आला सि
o u
ला ।
▁: -
▁जे से
▁बिथां नि
▁अज य
▁दुर् जां
▁गुव ाहा
य ानि
ल ानि
▁ब हा
▁ह ुग
▁अ मा
.... .
▁दाव बाय
▁कम्पिउट ार
▁खन् थाइ
▁फाह ाम
ाग्ल ोब
सि ङै
▁ए फ
▁जि ंगा
▁देर ह
ल ायाव
▁द ुं
▁गो थार
ाल ु
▁गोद ो
गिरि फोरा
▁आफाद गिरि
▁रुम ाव
ख ेर
फ ानि
▁स ाला
▁स ्ट
▁ख ान्थि
▁ख ुलुम
▁मे हेर
जा से
▁सोर नि
▁गोम ो
▁फिसाज ्ला
▁फावथाइ नि
- सि
ख िसै
िन जाव
▁गाव ब
▁हो फै
▁थि येट
▁गोरोन् थि
▁गुवाहा ट
a r
ी याव
ो ब्ला
▁ ...
▁स ोन
▁आ थोन
्र ाब
नो बो
▁बि थिं
न् थि
▁बुं हर
▁बाहाय नाय
▁मन जु
▁साख ्रि
ज ार
ट ा
त ा
ाव ा
▁ला ख
▁नों नो
ंख ्रि
▁हो यो
▁मे थाइ
▁ओ र
▁गाब ोन
▁राग ा
. ए
▁ब बाव
मोन ा
दों। "
ंख ो
▁राव खौ
ारी ,
▁सलʼ मानि
▁बेद र
▁आथिखाल ाव
ल िर
ह ोनानै
▁म ीन
ार ाय
▁द ोर
ाब ि
▁र ʼ
▁ला मायाव
▁नाय गिर
▁हाग ोन
▁माह ारि
▁एर ै
▁बेल स्रि
▁रोखोम नि
▁नार् ज
▁दम न
▁सांग ्रां
क ि
ड ि
▁ब ह
▁द ों
▁द ुब
▁फ ां
▁सम नि
न्द ु
नै सो
▁बिसोर खौ
▁दाव हा
▁सिख ार
फि नो।
▁बेर खां
▁बड ʼ
▁बिलि फा
▁मिहिर ा
▁जुन ै
स ्रा
▁ख ें
▁ल ोम
▁ए स
▁रो खा
▁आले खौ
▁सिम ां
▁रिं सार
उ रिया
ै नि
▁ह ान
▁बे ला
▁ल ि
ाख ां
▁सु जुग
▁गु दुं
म् भ
▁सोद ्र
▁राय लाय
▁जाह ोन
ख ्रा
फ े
▁ज ालाय
▁ह िनजाव
▁बि म
▁र ान
फ्र ु
फ्र ाम
जि ं
खा ङो
ांगौ ।
▁बाग ै
▁अल क
▁साइ केल
▁शान्त िया
क नि
ग ाव
▁स ाजा
▁फ ाल
फोर नो
▁अ द
बा द
▁क ि
▁सोर ख
▁आन जाद
ज ौ
द ाया
फ ारिया
ब ु
▁न ाजा
▁गो ब
▁फै नाय
▁इ न
▁नाथाय ,
▁राय ज्लाय
▁कले ज
ज ें
थ ाल
▁ ति
ाव ।
▁ग नाय
▁ग म्भ
▁ख ाल
▁गाव सोर
ले ण्ड
▁जा फुं
▁राव नि
▁बिसोर ो
▁बिमा -बि
▁रं जा
▁नाज ानाय
फां नि
भ ि
स ाया
▁ब ाख
ाम ोन।
ाथ ी
▁दे ह
▁गोर ों
▁अज या
▁दाब ि
▁हादोर नि
▁हारि मु
श ान्त
ह ोनाय
▁ब ुब
▁गो ह
▁सान ्नानै
▁हो दों।
▁हम बाय।
▁दि ल्ल
▁गाब ज्रि
▁हाद र
▁हि :
ग ै
ज ानो
त ्र
▁ज नानै
▁ज ाब्ला
▁द य
▁फ ार्
से बो
▁गो जां
▁ल ोब
▁गु न्दा
▁गैया ,
▁खाय से
▁गाइ खेर
द ु
▁ C
▁बि नो
▁फ ाइ
▁हाब नानै
▁गोसो खां
लां नो
▁सुबुं नि
▁बिब्दि नो
ग ाब
ज ायो।
ट ʼ
▁ह ार्
बाय --
▁! !
▁फै नो
▁फै दों
▁फै गौ
▁गे देर
▁मु स्रि
▁1 0
▁आसाम नि
ज ाथ
्र ाम
नाय सै
▁गो सोम
ाज ोब
▁आं गो
▁सान स्रि
▁खालाम ो।
ंग ल
▁आले नि
-स ान
ान्दि से
ं नि
न सो
▁सम बार
▁हाया खै
▁जिउ खौ
▁आब ुं
▁स् क
स ाद
ला ,
ारि ,
▁( 1
▁इ य
लां बाय
▁गोज ानाव
▁रो दा
▁राज खान्थि
▁इं राज
- ख
ा सिनो
▁ह ाइ
ला म
▁हाब ानि
▁लिर गिरि
▁गोम जोर
▁सोमोन ्द
▁दाजाब दा
▁सʼ ना
▁हिस ाबै
i s
नो ,
▁थ ों
▁ख ल
ंग ोन
▁बु ङ
▁सो लि
▁बायदि सिना
▁बुङो -
▁दुल ाराय
r a
थ ौ
फ ाया
ब ʼ
ि क
् सोन
▁ 6
▁ज िन
▁" बे
▁मा सि
ान् ति
▁सो लो
▁मानसि खौ
▁हर ाव
▁फोर मान
▁बिदि नो
▁खुग ा
म ाल
र ाम
स ाइ
▁ 7
▁स ाखा
▁आ सि
▁ख हा
▁मोन गोन।
खा ङो।
लां बाय।
▁हे :
स् क
▁हाज ो
▁मुल ि
▁फि थाइ
▁होम ब्ला
ुंग ्रि
द ानि
स ाब
ह े
▁ख ुर
▁अ ख्रां
ाग ्रा
▁उ जि
▁थाख ोनि
थाय ै
बाव ो
▁गोज ाम
▁थानाय नि
▁नʼ खर
▁थे ले
▁खोथा खौ
▁दानि या
करा झार
▁गोब्र ाब
थ ्र
फ ुर
▁न र
▁थ ानानै
▁सि या
▁जाय खौ
▁' '
▁मिथि या
▁नाग ार
▁नि उ
गौ ।
▁होनाय नि
गि दिं
▁खेब से
▁बाइ दि
ब ्लि
ल ्ला
स ्लाय
ार ्ट
▁ख म
▁आरो बाव
▁सि बि
▁मि जिं
▁हो बाय।
▁गे व
▁ओ नसो
▁दे ंखो
▁मुं खʼ
▁अ नि
- थ
ं ,
▁ S
▁ o
▁स ोब
▁फ ान्
सि गोन।
न् स
ाज ि
▁" अ
▁फै या
▁मान े
▁दं ,
जा खौ
▁सोर ां
▁सु थुर
फै यो।
▁दे व
▁' आ
बे ल
▁खोम दोन
▁रु वा
▁आय दा
▁मुग ै
▁हुग ार
) ,
त ी
फ ानाय
ो )
▁ th
▁स ाह
▁म ैया
▁द ान्दिसे
▁थ ौ
▁मानसि फोरा
▁हाग ्रा
▁था ङो।
▁हाज ार
▁दङ ।
ह िन
▁ W
▁ज ार
▁ए ल
्ल ाया
▁जा दोंमोन
▁उनाव नो
गोन ,
▁बिज ौ
▁मुलुग नि
▁मालाय नि
▁बिह ाम
▁गुव ार
▁बेव हाय
▁गम्भ ीर
▁म िर
▁थ ब
▁राव ाव
▁सिख ाव
▁खोम ा
▁खामानि खौ
▁जाया खै
▁कल्प नाया
▁समाज नि
▁ s
▁स ्र
नि या
▁ह ाव
▁द ख
दों -
फोर ाबो
▁दं मोन।
▁सु खु
▁हर ख
▁हर नि
▁फोर म
▁थि क
▁फो लेर
▁गाह ायाव
फ्ला ं
न्ज न
ट े
् बो
▁ 9
▁ A
▁न ोम
▁ख ालाय
▁बे ग
▁र जि
▁गो लै
बाय दि
यो ,
▁सान ा
▁फै फिन
▁राज ानि
▁माइ थायाव
▁बेर े
▁सेर ाव
▁बबे खानि
▁लिं हर
▁गाख ो
ʼ न
इ न
त ाग
▁न ेर
▁न ंखाय
▁फ ारिया
बो ला
▁ल ाव
▁नों हा
▁सान नाय
▁खालाम दों।
▁गाव जों
▁जाग ्रा
▁हाबा खौ
▁आब ʼ
▁बिफ ानि
▁माहाज ोना
▁गलʼ वा
▁मेहेर सिं
▁सोमोन्द ै
o w
ख ं
ट ार
थ ै
▁ब न्द
▁ग ुरै
▁ज ां
▁द ुग
▁बि ष
▁ख ुन
बाय -
▁मोन नानै
▁ए फा
ब्ला -
▁बान जाय
▁थाम हिन
▁ददेरे या
▁रैखा थि
ज ायो
ब ाबो
से नि
▁अ सम
ाल िया
▁क मा
.... ..
▁इ न्दि
▁दं मोन
▁दे नानै
है यो।
▁गोर लै
▁मुं मा
▁नाग ा
▁मुलुग ाव
▁ति ताग
▁ 8
सि गोन
▁आं खाल
▁सि थ
▁गे ट
▁बार गʼ
▁जाह ै
▁रं जानाय
-फ िस
▁आलाइस्रि या
▁फाग ्ला
▁माद ाव
▁बिहाम जो
▁थामहिन बा
) ।
e l
म ध
ल खौ
ाय ाबो
▁स ाज
ारि याव
ाह ारि
▁जों र
▁नु हर
▁राव जों
▁बाय जो
▁थि ङै
▁थि उरिया
▁हाया खै।
▁दाव ह
▁सिख ारनानै
सु ला
▁बाज ै
▁देर सिन
फि नो
▁बोसोर नि
▁सिनाय थि
▁गामि याव
▁हार सिं
▁साल िस
ti on
▁सोद्र ोमा
▁इय ुन
' '
o m
ज ानानै
य ाया
ार ाव
▁ह ोब
▁द ाग
ाम ि
▁मोन थि
ाल ी
ाल ै
▁" ब
ंग ्रा
▁गोसो जों
खां नाय
▁सु फुं
▁1 2
▁मुं नि
▁बुंबाय --
▁खाव लाय
▁फा फ
▁ब्रह्म नि
स्ल ु
▁o f
म ाजों
र म
▁स ोनानै
▁म ाय
्र ु
▁थ ाद
▁प े
▁सा फा
▁बादि यै
▁ट ा
▁एसे बो
▁रो जा
▁सानै जों
▁मेग नाव
▁बेखेव फा
▁मोदोम ाव
▁गोथ ै
▁200 8
▁प्रे मध
- बे
ख म
ख ाया
द ्राय
न ांगोन
▁ग ाग्लोब
▁आ यै
्र ानि
▁बि थाङा
▁ल ै
▁मोन फा
▁ला बाय।
▁सान ्दो
▁जाय नि
▁जाय खि
▁जों खौ
▁फै यो
▁मु ङा
▁जेरै --
▁थाबाय ।
▁फार् से
प ी
फ ार
् नाय
▁न ाम
▁ल ें
▁मोन ा।
▁अ पार
▁आं जों
▁क कराझार
▁खालाम नायनि
बि जिर
▁हां मा
▁दिन्थि नो
▁दिन्थि ग्रा
▁बिफ ाननि
▁बिख ाया
▁खौर ांग
▁खान ाइ
द ायाव
न ारि
▁म ाल
ला द
▁बि लाय
▁बि था
न् नानै
ाग ोन
्ल ानि
▁जों थिनि
▁फै बाय
▁प ्ल
▁हम थ
▁जाथ ार
▁खोन ानो
▁मह न
▁समाय ना
▁नखर नि
▁थेफ ेन
▁फाला ंगि
▁कमा ण्ड
▁ब ्रा
▁र ाह
▁गो थां
▁सि ब
▁सोर खौ
▁मानसि फ्रा
▁सासे या
्लि याव
ेब ानि
▁आव गाय
▁बान् था
▁माहाजोन नि
▁दासिम बो
क े
ङ ानो
ान ाया
▁ग न्थ
▁ज ाला
▁थ र
▁थ ोर
थि ङै
▁ए खन
ले ट
▁बै स
▁मले ननि
▁खु सि
▁लाखि नो
▁सोलों थाइ
फ्ल े
* *
ल ाराम
▁ T
▁बि जों
▁ख ेव
▁गो ल
मोन हा
िस न
▁जि ल्ला
▁दा सो
सा ,
▁1 .
▁गार नानै
▁मिनि स्लु
क् ष
▁ने म
▁सै मा
▁सै थो
▁थिन हर
▁जानांगौ ।
▁जेराव बो
▁बिलिफा ङा
▁अद ेबानि
ङ ाइ
ब ारी
▁स ्रि
▁ज ाबो
▁ह ांग
▁गो जा
▁ल ायो
▁हाब ाय
▁जे केट
ुम ार
▁सो ङो
▁बार ाय
ार् च
▁बोर ाया
्रे ं
ब्र ाम
▁माह ारिनि
▁जाया ।
▁आदा ।
▁आद ब
▁साब सिन
▁जेसे बां
▁बडʼ लेण्ड
उ नाव
▁ग ग
▁ह ʼ
▁थ ाथ
▁मोन लाय
ारि खौ
दोंमोन ,
▁जि ल्ल
▁ना ङा।
▁बेसे न
▁खन से
▁थाइ ला
द ुम
भ ा
स ,
▁ P
▁बि गि
▁मोन ाबि
▁नों लाय
ले ं
▁गु सु
बे न
▁गोज ान
▁बुंनाय सै,
▁नोंथां नि
▁एर ैनो
▁रामनाथ ा
▁हाजʼव ारी
न े
म े
▁ग ुन
ार खौ
▁बि जि
नाय निफ्राय
▁फ सं
▁ल ख्र
▁मोन थाम
▁ला बाय
ना ,
▁खालाम ना
▁जों नो
ुम ि
▁ओ जों
▁फिस ौ
म् ब
▁1 5
▁फराय सालि
ग्र ो
▁हाद रनि
▁जाया खै।
▁जु दि
▁लाब ोनानै
▁बिग ुर
▁जां ख्रि
e d
ग ं
द ाब
▁ ष्ट
▁ब ्ल
ाव बो
नि ,
▁द ʼ
खौ सो
▁र ेब
▁फै दों।
▁नु यो
▁फिस ाया
▁से व
है बाय।
▁रो ङ
▁ओंखार बो
▁गाम ्ब
▁अर ुना
▁खु दिया
▁हें थायै
▁मीन ाराम
▁मिर ु
▁फ ाथ
▁र ाद
▁मोन गोन
ाग ौ
▁" ह
▁माव नाय
ाजा से
्लि क
ाखै मोन
▁गुम ै
▁गोह ोम
▁थाइला लि
ख ुम
ख िया
स ान
स खौ
ह ुर
ु ,
् दा
▁ p
▁ब ाब
▁ग ौ
▁ग थाय
ोन ायाव
ार ,
▁थ गाय
ो। "
ाइ न
ाथ े
▁सान नो
▁" बि
ाद ोर
▁सम ान
▁हाब ाब
▁जों हा
▁हो खार
▁इ नाय
▁नु यो।
▁मे ले
▁दिनै सिम
▁हा दों।
▁नि म
▁बाव नो
▁हाज ेव
▁खुग ायाव
▁गोख्र ै
▁थाग ोन
▁रंज ालि
▁लाइजाम खौ
▁पि .
▁मोनाबि लि
ज ्ल
श ्री
स ानि
▁म ंगल
▁फ ालि
▁ला उ
▁नों बो
▁" ग
▁नु बाय
▁मु स
▁जाग ाय
▁हे म
▁बोर ाइ
▁खामानि याव
▁जायो ब्ला
▁मलेन खौ
▁हाथ ाइ
▁दाह ोना
▁फावथि ना
- अ
a t
प ्र
ह ायनो
▁ I
▁ब ाल
ाव नि
▁बि दै
▁थ ाहै
▁ख ेर
्ला ं
▁गाव बा
▁फै यो।
▁हो दों
▁दै खां
▁मिथि ंग
ख्र ाव
▁ड े
▁हाया खिसै
▁हारि खौ
▁श ं
▁बिख ानि
▁जिर ाद
▁सानसे खालि
in d
▁दङʼ ।
▁अब ं
▁th e
▁इन्दि स्री
▁तिताग ुरि
ʼ नि
द ान
▁ग ्र
▁आ ङो
ाग ोन।
▁ए ब
ना द
▁मा से
▁हो आ
▁बु ह
▁नाय बिजिर
लि ं
▁बादि नो
फै नाय
▁ट ्राइ
गिरि नि
▁जेरै बो
▁2 0
▁आन ाराम
▁मिनि ट
ाबा दि
▁फुं नि
▁अलʼक ा।
▁थुनलाइ नि
l e
ग ुर
च ि
ट र
▁ t
▁ w
▁ज ाद
▁बि बो
▁बि सार
▁ख ानाय
▁ल ोर
▁ल ान्
▁खालाम ो
▁हाब ि
गा से
▁दाव राव
▁अर ुन
▁लां नो
▁बाव दिया
▁जान ां
▁जु जि
ाखै मोन।
▁गिदि द
▁लाब ोनो
▁मन्जु नि
दो। "
▁सह ेन
▁खल था
. सि
ख ारि
ख ुरै
थ र
फ ानो
स ्लाब
ह ि
▁ब ाला
▁ब ांग
▁ज खम
▁र ामोन
▁मो ग
फ्र ाव
ङा ,
▁मा खौ
▁सोर गिदिं
नायाव नो
▁गोर ्बो
▁हाया खिसै।
▁मुं .
▁2 .
▁सों बाय
▁जाथ ाइनि
▁दुखु नि
▁आखाइ याव
▁खिन् था
▁नायजाब नि
▁बोहै थि
जाथ ाव
▁थेले फा
▁ट्राइ बेल
▁ड .
ग ्लाय
ल ,
▁ c
▁ ऐ
▁ब ोनाय
▁बि थि
▁फ ाख
▁मोन दों
▁सि ला
बा सि
▁ला माजों
ाला गै
▁क र्
मा खौ
लाय नो
खां नायनि
▁सु शान्त
▁हारि या
▁आखु नि
▁बिन ह
▁दाय नि
▁राग ाजों
▁का सार
▁गसं नानै
▁टे बि
▁नुजा थि
▁गावब ुर
▁दय ाराम-
i c
i t
थ ेर
र ो
▁ग ले
▁ज ाना
ला म्
▁न ाइ
▁बि दाय
▁फ ोनां
फोर ानो
▁अ ब्लाबो
ोम ै
ाल ʼ
▁ए व
▁ए ंगार
िस ्
▁क ʼ
▁क ेस
▁खालाम बाय।
▁राव आव
यै नो
▁माब ्रै
▁अन ाथी
▁1 1
▁दिनै नि
▁मानो बा
▁रां नि
▁दिन्थि नाय
▁सोदोब नि
▁दान नि
खोम ा
▁बिमा खौ
▁माइ थायनि
▁बेखेव ग
▁थुलुं गा
ख ायै
न ों
म ʼ
▁ m
▁ह नै
▁द ाद
▁द ाहा
▁र म
▁मोन ै
फोर निफ्राय
ाया खै
▁ला ह
न्द े
▁बो ख
▁गि नानै
फै यो
है नो
ख्र ं
▁गाब ै
▁भ ुट
▁दोन नाय
फिन बाय।
▁जोब था
▁जादों -
▁देर हा
▁ने ह
▁फिसाजो खौ
▁मन्जु वा
▁बोरै बा
▁दैदेन गिरि
▁समबार ु
▁हरख ाब
त िया
र ां
व ाबो
▁ D
▁म खʼ
▁थ ुंग्रि
▁मोन नायनि
▁मोन ्नानै
फोर ,
ाख िसै
मोन खौ
▁" औ
ंख ार
▁बु द
लाइ न
▁हर नो
▁फो साब
▁दाव ग
फिन नो
▁बिफ ाया
▁जायो ,
▁खाय फा
फु नाय
▁अजित ा
▁हाबफै यो।
फ ो
▁ब द
▁ब ाम
▁ग ला
▁ह जों
▁गो बा
▁सान ो।
याव ।
ायाव नो
▁बरʼ फोरा
▁गि यान
थार ।
▁हाग ोन।
▁मिथि बाय
▁थानाय ाव
ार् ड
स् व
▁गेजेराव नो
▁गथʼ खौ
▁श ान्ति
▁बेख ायनो
▁गोजौ वाव
▁अल का
▁सोन ाब
- लों
s t
ड ़
र ्ट
् बाय।
▁ M
▁बि .
▁र बि
▁मो ब्लि
▁क ाम
▁जाय ै
▁माव फुं
▁जानाय ाव
ग्र ाम
स् त
जोब नो
▁आदा ,
▁साय ाराम
▁जारिमिन ारि
▁W ind
▁बुह ुम
o l
r e
फ ानानै
▁ब ुरै
▁ज थुम
▁आ बाद
ला खौ
▁द ुम
्र ायाव
▁बि थोन
▁ख ब
▁बे बायदि
▁ल ं
फोर ।
्रा क
▁नाय बाय
▁दं फां
▁फिस ानि
थार बाय
▁अन नाय
▁1 8
▁रो ङै
▁सुब ु
▁मेग ननि
▁बाव दि
▁खामानि या
▁आलाइ या
▁बिन ाराम
▁बबे बा
▁दिह ु
▁थांनो सै
▁फाग ्लि
▁थेफ ेना
▁ओं थि
▁ओर ै
▁Wind ow
- ल
i l
थ ुन
र ु
ल ुं
ह ाव
▁ b
▁ब थ
▁स ाथाम
▁न ाल
खौ लʼ
▁थ ांगोन
नाय ानो
▁र ोन
▁ल ुब
▁अ ब्राम
▁ला दों।
ानाय नि
▁बुं दोंमोन
▁थां बाय
▁जों थि
.... ...
▁सोर खार
▁बिब ुं
नै नि
खि नि
लां नानै
▁फो थार
▁फाव थायाव
गोन। "
ग्र ाय
▁जाथ ों
▁आग ै
▁बाहागो आव
▁सर क
▁आनारी -
▁"म ानो
▁जौग ाखां
▁देरह ाग
▁खाल ार
▁महन ला
▁मेले म
उ न
क ्रा
ब ुं
ल ै।
स ोनानै
▁ह ौ
▁द हाय
▁ख ानानै
▁ख ाना
बो दों।
सि गौ
▁सि स्ट
▁खालाम बाय
मा ,
▁थां ना
ान् दै
▁फै बाय।
▁( ग
▁नु नाय
▁मे ं
ैया ।
▁फिस ार्च
▁राव ा
ार् क
▁हागौ ,
ग्र ां
▁आफाद ा
र् ड
▁बिसि खौ
▁रि ंग
हाब नानै
▁हार सिङै
▁फे लें
▁देहा खौ
▁गुन्द ाया
फ्राम बो
▁हार् सिङै
▁एब सु
' ,
ज ुल
▁ य
▁स फै
▁ग म
▁ज ी
▁ह य
▁ह ालाम
▁आ ङो।
ला स
▁बि माय
▁फ जʼ
न् नाय
▁मोन दों।
▁सि गार
फ्र ाबो
▁गाव खौनो
▁थां बाय।
▁माव नानै
▁जानाय खौ
्द ां
▁गाब ा
▁आब ै
क् त
▁फु ङाव
▁सेंग ्राया
▁नै थि
▁फं से
▁सौ फै
▁होम बा
▁बसुमत ारी
▁दो ह
▁कले जाव
▁बैसो नि
्व र
▁दोर ्सोन
▁लोब ्बा
▁जिन ाहारि
▁निम ाहा
▁बिथि ङाव
▁मोब्लि ब
ु द
ो ङै
▁स ्रां
▁आ दै
▁आ लो
▁थ ाया
▁बे दि
▁ए क
▁सान राइ
▁गोद ै
ख्र ाय
▁मानो थो
▁रां खौ
▁फिसा खौ
▁खौ से
▁गथʼ वा
▁मोन् नो
▁मोद ाइ
दां खा
-ग ो
▁लुबै यो
▁बिलि फां
▁होन् ना
▁सोरनि बा
▁ओर ैनो
▁दों से
पी य
लाम् फा
आ बो
थ ानि
फ ाद
ब ोनानै
ल द
व ानि
▁म टर
▁ज ाल
▁ज ुलि
▁ह ायाव
▁ह ुरा
▁फ टʼ
मोन ,
▁क मि
▁गाव थार
▁हाब ो)
▁इ न्ट
▁इ ंख्रि
▁इ न्दु
▁माव थि
▁सलʼ वाव
▁गोनां थि
▁मुं खौ
▁मुं राय
▁आफ ाया
▁गै लिया।
खʼ नानै
▁फार नै
▁सिं नि
▁आलाइस्रि नि
▁खाफाल ाव
▁गैय ि
▁जिब ौ
▁जिल्ल ानि
c t
आ रि
न खौ
र ं
ा से
▁ब ्ला
▁ब राय
▁द र्
▁र ौ
ाख ि
▁सि बाय
ना ।
ुर ाम
▁क ेर
▁खालाम गोन
▁बरʼ फोरनि
बाव ो।
▁अन लाइन
▁गोद ोनि
▁हा स्
▁राइजो आव
▁च न्द्र
▁स् नि
▁बेबादि नो
▁अजित नि
▁फारि यै
▁थास ारि
▁थियेट ार
▁लें हर
▁बिगि यान
ज ोम
स ुलि
ु त
▁ >
▁ d
▁ग ाबो
▁द ाला
▁बे साद
से नो
ाज ानाय
▁मोन हा
▁सि थार
लʼ ।
▁मि न्थि
▁हाब ाया
▁गि लु
है नानै
▁गु फुर
▁सलʼ मायाव
लां दों।
▁बाथ्रा ।
▁गोनां ।
▁नʼ नि
▁सुबुं फोरा
▁लां नानै
▁खरʼ वाव
▁आद ाया
▁जिराय नानै
▁रुवा थि
▁असम ीया
▁गन्थ ं
- ए
फ ब
फ ौ
▁म ेर
▁ज ाजोब
ला बाय
▁ख ोब
▁ख ुरै
▁बे बो
▁बे राय
ाज ो
▁सि मा
▁सान दों
▁क ुमार
▁सम ्
जो बो।
रि ष
▁मुं दांखा
▁दु इ
▁लिर नानै
▁जाथ ाया
▁लों नो
▁ध ोन
▁बेर ाम
▁मै देर
▁जʼ रा
▁नायहर नानै
▁थाग ि
-ज ोम
▁जै बोर
an d
▁अजय नि
.ए .
▁रोदा ,
आ ं
ग ोनां
भ ार
ह ोर
् बाय
▁स ुन
▁स ुग
ला उ
▁द ार
▁थ ोन
▁बे यावनो
▁बे फ्रु
▁बे फारिया
▁आं ।"
▁ला ंगोन
▁ए .
्रि क
▁बुं थि
▁हो गोन
▁नु व
▁जि नि
थाइ नि
▁अन जि
▁अन साय
रि नि
▁हाया ,
▁दिनै निफ्राय
▁ओंखार लाङो।
▁दोन नानै
▁दोन थʼ
्रे स
▁माबा फोर
▁मोन् नै
▁रु प
▁बान ु
▁गोग्लै नानै
▁एम .
▁खौरां खौ
-ह ु
▁19 8
▁सोरख ारा
▁स्क ुल
▁हाजेव नि
ङ ारि
य ारी
▁ f
ाव ,
▁आ जाव
▁थ ाब्ला
ाब ्लिक
▁ख ान्
▁र ेल
▁आर ति
ाल ानो
जों बो
▁होन नाय
▁होन ब्ला
▁बुं गोन
▁खालाम दों
▁राव खौबो
▁से क्स
▁माव ग्रा
है नाय
▁बाह ायनो
▁राइजो खौ
▁हिन्जाव नि
▁फिसाज ोनि
▁राज ाया
▁लानाय नि
▁खाव से
▁रा फोद
▁दाह ार
▁जाथाय खौ
▁हान् जा
▁दाख ालि
ख्ल ं
▁थाङो ब्ला
▁भारत नि
▁साखा थियाव
▁राद ाब
▁सिस्ट ेम
▁सिगार ेट
इ ं
ग ्ल
ङ ाबो
प े
े ज
▁ब ान्दि
▁स फ
▁स न्दे
▁ग ोनो
नि ।
▁थ ाला
▁र ाख
▁ल ाना
ांग ्र
ंग ुबै
▁प ार्ट
▁नु ज
▁गे दे
▁जि वाव
▁गि लिर
फोरखौ बो
▁ड िस्
▁जो है
▁नां नानै
▁आखु थाय
▁सान् नाय
........ .
ष्ट ार
▁प्र ग्राम
▁ब्र ै
▁सर लाया
▁लाब ोनाय
क्ट र
▁अलʼ का
▁हाबफै यो
▁मार ु
फिन् नो
▁दुग ै
▁हास् थाय
o t
त ्त
फ ायो।
म ेन्ट
व ानो
▁ a
▁स न
▁स ुमि
▁आ न्दा
▁न ाथ
्र ʼ
खौ ,
▁फ ुल
▁बे फोरनि
▁ल ायनो
▁ला हार
िस ्त
▁क न
लाय ो।
खां नो
▁बाय नानै
▁दै थाय
▁ओंख ायनो
▁मु ङै
▁हम बाय
ेट िं
▁हां ख्राय
▁आय ं
▁खुग ानिफ्राय
▁माब्ला बानो
▁जाथाय नि
▁का प
▁3 .
▁डा .
▁गस ्ला
▁घ न्ट
▁फाल ो
▁साज ाय
▁बिनह ारी
क्रा झार
ख ्ला
ग ्रि
न ,
स ्ला
▁ब मा
▁ब ्रे
▁म ाख
▁ह ले
ाब ालानो
▁अ क्ट
ारि ।
▁ए म्
▁नों जों
▁" ओ
▁होन ांगौ
▁थां ब्ला
बाय। "
▁हाब ायाव
▁मे ल
फै नो
▁सलʼ म
▁गोद ानै
स्रि या
▁ड ्र
▁थै नायनि
▁आखु वा
▁उन्द ुग
▁बुङो ,
▁रु जु
▁नोंथां ।
▁बिह ोमा
▁थाम थि
▁बेला सि
ग ्लि
त ्य
व ाल
ह ालागै
् बि
▁स ालि
▁न ौ
▁न नि
▁बि थ
▁बि निफ्राय
नानै ।
▁ल ेब
▁मोन ब्ला
▁अ से
▁सान ्द
▁" ए
▁क ्ला
▁मि लि
न्द र
न्द ेल
▁जों थिखौ
▁प ाब्लिक
▁इ ण्ड
हर ो।
दोंमोन ब्लाबो
▁गोसो याव
▁बा उ
▁मे लाव
▁बो द
▁दै याव
▁सलʼ वा
▁हम ो।
▁बेखौ बो
▁जो ला
ायै नो
▁भ ि
▁सों नाय
▁लाइ मोन
▁गं नै
▁खन ले
00 0
ेश ्वर
▁इराग्दाव ा
▁हाख ु
▁गस ाइ
▁जाव लिया
▁मार जित
▁गुवाहाट ी
▁अपार ेटिं
- जु
2 )
आ नो
ग ु
ट िस
प ्ल
फ ʼ
् ण
् या
▁ h
▁स ंग
▁स ाबाय
नि ख्रुइ
▁ज ुरि
▁द ंख
▁थ बेन
ाब ्लानो
▁फ ुन
▁बे म
▁र ुग
न् ड
न् था
▁मोन ाम
बा ।
▁ला दों
▁सान फ्रोमबो
▁क ल
▁क ार
▁जा त
▁आख ाय
▁मानसि ।
▁नङा ।"
▁ड ाइ
▁ना ङै
▁हा उ
▁ओंखार लां
▁बोर ो
▁खु दुम
▁लों नाय
▁आखाइ नि
▁नोंसोर नि
गि बि
▁रे न्ज
▁जायग ानि
▁बोहै थिया
▁अराय बो
▁पा क
▁औ वा
▁खुं थाइ
▁ओं थिया
▁गावसोर नि
▁सिया ला
▁प्रेमध रा
▁इन्ट ार
ग ानि
थ ें
▁म ारि
▁ज ुग
▁बि लिर
▁बि ग्राय
▁थ ʼ
▁फ ादोर
▁बे ंग
बो दों
▁आं थʼ
▁थां दो
▁हो सो
▁इ सोर
▁जि ंग
▁मे ब्ला-
▁गि नाय
▁मानसि फोरखौ
▁सु नानै
▁बिनि खायनो
▁गोर ्लै
▁' स
म् प
▁गुबुन ारि
▁थि ं
▁फराय नाय
गौ मोन
जोब नानै
▁होननानै ।
▁खन साया
सालि नि
▁थार ै
▁समाज ाव
▁बसुमत ारीनि
▁आला दा
▁गैय ाब्ला
ou r
▁गुवाहाट ी,
▁फां थे
▁जाफुं सार
▁बिमा-बि फा
▁हाव रिया
▁हेम लेट
▁लोर बां
' ।
क र
क ाव
ज ायनो
म ो
व ै
ि ब
। '
ाय ानो
ार ।
▁बि ।
▁थ िर
▁ल र
▁ल ायै
ाथ ा
जों ।
▁" स
िन ां
जि नि
जि या
खा ।
▁बु थुम
दा उ
▁बरʼ वा
▁मानसि फोरनि
▁बादि ब्ला
▁हर बि
▁उनाव सो
▁थानाय खौ
▁दि -
▁थि ख
▁था ङ
▁था दोंमोन।
▁ड ज
▁हा दों
▁2 5
▁आन ाराम-
▁फार ाग
▁नागिर नानै
▁गोम ोर
▁जाह ो
बार खालि
▁मै गं
▁मोखां खौ
-द ाख
▁लामा खौ
▁थाब ैनो
▁हांखो नि
सुम ै
▁रा सिन
ेश न
▁मुग ानि
▁मोखा ङा
यार ाव
▁फान लु
▁पा स
▁जेंना खौ
▁अम ला
▁गोल ोम
▁समबारु -
▁सन्दे ह
- क
a tion
ण ी
द ब
▁ ,
▁ H
▁स रा
▁ह ाथाय
▁बि बाय
▁थ ेर
ाब ो।
▁ख िर
▁ख नै
▁ला ङो।
▁ए इ
▁मो ब्ल
▁उ थ्रि
▁" द
▁क लिं
▁हो दोंमोन।
▁( ख
▁मे ड
▁बो सोन
▁1 6
नायखौ नो
सु खे
स् थार
▁आन ारीया
▁जाह ाथे
▁नङ ामोन
▁लों नानै
▁बुंनाय सै
▁सिं निफ्राय
▁मन जुल
▁आथि ङाव
▁हान् जानि
▁पुलिस नि
▁फोथाय नाय
▁बिफा खौ
▁.... .
▁संसार ाव
▁(1 9
▁सिला गां
▁पाक िस्त
क खौ
ब ाइ
▁ n
▁ and
ान ां
▁स ाग
▁स र्
▁स न्थ
▁स ्रें
▁फ ेस
सि ङाव
▁सि फाय
▁मो ख्र
▁बुं बाव
▁फै माल
▁सो ङो।
▁बाथ ौ
्ट ि
▁गि सि
▁दै म
▁दा स
है यो
▁था दों।
हो दों।
▁राइजो फोर
▁आब ु
ग्र ानि
▁खाथि नि
▁फोरमाय थि
▁होन्नानै ।
▁आखाइ जों
▁बिज न
▁खन साय
▁मोस ाह
▁बुंबाय -
▁उन्दु नो
▁बाग ्दाव
▁लासै नो
▁बिलि फांनि
▁सह ायनो
▁नेह ाथ
▁रिंग ायाव
▁थागि बि
e m
ट िनि
य े
▁स ाद
▁स मा
▁ग ुलि
▁म ाला
▁न म्बर
▁द ब
▁द ान्
▁थ िसन
▁ख बर
नाय बादि
▁र न्जन
▁ल ʼ
▁अ ख्रा
िर ा
▁? '
▁उ ननि
▁क ्ल
▁खालाम नायाव
मा सु
ोग ोन
िया ।
▁दै मा
▁माव फारिया
फै बाय।
▁दे गार
है बाय
▁' ब
▁बिसोर नो
लां दों
▁जो लै
▁ओंखार नाय
ल् ड
▁जान ाया
▁आग ोर
▁गथʼ नि
▁खो ला
▁बय निबो
▁बेखेव गा
▁थार ैनो
▁गान नाय
▁थाग ्रा
▁थाग ोन।
▁नखर ाव
▁गाहाम ।
▁4 .
दिनि ।
▁देह ानि
▁बुब ्लि
▁फाइ ल
-सान जा
▁लख्र ाया
▁गावबुर ाया
v e
ख ्लै
द ,
द ्‌
ब ोनो
म ाव
म नि
ह ुं
ै ला
ो बा
▁ निफ्राय
▁स ालाय
▁ग ेर
ला ब
▁द ाइ
बो यो
थि जों
▁मोन फ्रोमबो
▁आर ि
▁आं ,
▁सि लाइ
ुर नि
▁होन ायाव
लाय ,
▁मा उ
▁इ न्
▁दं ।"
▁राव ै
▁राव निबो
▁दै नि
थाय खौ
▁सु इ
▁दे ग्लाय
▁फो थां
हो यो।
ेन नि
▁1 3
▁हे लाराम
▁ओंखार लाङो
▁दु प
▁फराय नो
▁2 4
स् नि
▁नां नाय
▁लाइ फां
▁गथʼ फोर
▁रं फाल
▁माइ रं
▁दर जाखौ
▁नांगौ ।
▁साय खʼ
▁बिजाब खौ
▁जोम ै
▁खʼ थायाव
जाग ोन
▁इंराज ी
▁नर ेश
▁गेव लां
▁दख ना
▁देरहा सार
▁सलʼम ाग
- बां
- दै
क ,
द ेम
न ु
▁ब न
▁ब ृ
▁ज ्राम
▁थ ान्दै
▁ख ाजा
▁ख थायाव
नाय ाबो
दों ब्लाबो
सि ,
▁मोन दां
जों नि
▁सान थाम
▁होन ांगौ।
▁क न्ट
▁खालाम ा
▁जा उनाव
▁इ सिं
▁बु जाय
हर नो
दोंमोन -
▁बा ट
▁मे ने
▁गि ख्रं
▁माव रि
▁सु ख
▁था फ
▁था ङा
▁जाबाय ,
▁जाग ौ
▁भ ुग
▁दोन थुम
▁महर ा
▁2 2
▁सों लु
▁जादों ,
▁आग ु
▁आग ो
▁मोद ाय
▁नङ ामोन।
-द ाव
▁सिनाय नो
▁कल्प नानि
▁गोजोन नाय
▁दौ नांगौ।
▁आम ाइ
▁एखन बा
▁जांख्रि थाइ
▁गाम्ब ारि
▁रामोन ्दा
▁जी उ
- सु
ड ʼ
द नि
न नानै
प ति
▁ब ोनानै
▁स ्रा
▁स ाग्लोब
▁स ंख्रि
▁म ाम
ोन ाया
▁आ सार
▁ख ाब
▁र मा
थि ,
ाग ्राब
▁आं लाय
▁सान फ्रामबो
▁हो ग्रा
ोग ि
▁मे मʼ
जा ,
दा ।
खां बाय
▁सा -सानजा
▁माव रिया
लि याव
▁थाखाय ।
▁अन ज
▁मिथि या।
▁गोद ोनायाव
स्रि नि
▁गा से
▁1 4
▁महर खौ
▁सिख ्लाया
▁लाइ फांनि
▁लां नाय
▁नागिर दों
▁खु न्द
▁हानाय नि
▁फारसे थिं
▁खरʼ खौ
▁दाब से
▁गुबै यै
▁बाथ्र ायाव
▁मासि याव
▁बेरे खा
▁लै थो
▁बैस ाग
▁सुबु ङा
▁इन्दु प्र
▁ब्ला उ
▁नौ नारि
▁साबाय खर
▁दुप साव
, 000
g u
क त
ज ्
ज ायै
ज ्लि
फ ारिनि
य ाब्ला
े मा
ान ,
▁म नि
▁द ्र
▁थ ं
▁थ ाह
▁ख िन्थि
▁र ुं
▁मोन ्दां
▁अ ग
▁सि खा
▁सि लानि
▁ए प
▁मो गा
▁सान थौ
▁" नै
▁क ैला
▁खालाम नांगौ
▁सम ानै
निफ्राय ।
▁से क
▁से ब
थाय ारि
▁हर नाय
▁हर नानै
▁सलʼ खौ
▁मु लाम्फा
▁थि यारि
▁ट ाइ
▁गाब नानै
ायो ,
▁एसे लʼ
▁दोन ्
▁आफ ानि
▁मेग ना
▁खोम ोर
▁सोदोब खौ
▁मोन् नायनि
........ ..
▁खो ख्लै
▁गोग ोम
▁बाहाय नानै
▁मै हुर
▁थाब नो
▁जोबो त
▁हाथ ार
▁हान् जाया
▁दम ना
▁आथिखाल नि
▁बिफां नि
▁बिबान खौ
▁होन् नाय
▁इन फ
▁बाइदि ।
▁दावह ायाव
.सि .
▁हाखु -दाख
a s
ʼ खौ
म ाइ
ल ्द
स ी
▁ब ारि
▁ग ालां
▁ग ्री
▁र ान्
▁गो मोन
▁गो थाव
▁ल ाया
▁ल क्ष
्ला इ
▁मोन बा
▁मोन ाब्ला
▁आर तिया
▁सि लि
▁ए सि
▁सान जौ
▁उ ल्
▁फै दो
▁( ए
▁( स
▁जि वा
▁दं -
▁बो खार
फै बाय
▁दे ।
▁अन सुं
▁गुबुन नि
▁थि ग
▁ट ्राक
नाया ।
सिन ।
ग्रा फोरनि
▁सिख ्लानि
▁2 3
फिन नानै
▁सों नो
▁सान् दों
▁जाथ ाव
▁च े
▁आखाइ खौ
▁प्र :
▁बिन ारामा
-म ु
▁नै बे
▁खुग ाजों
▁लुबै नाय
▁आसाम ाव
▁गाहाय नि
▁मोखा ङै
▁थायो ब्ला
▁महार ाज
▁थाव नि
▁दिहुन नो
▁अजित खौ
▁थांखि नानै
▁3 0
▁कम्पिउट ारनि
▁बान् दो
▁अखा फोर
▁जाम ्बा
▁थाल ायाव
▁धोरोम नि
▁गुम ुर
▁हाइ जें
थ्र ोद
▁होब थ
▁सरा सन
- बा
3 )
ख ो।
ज ्रा
ज ुर
व ारि
स ारि
े द
ै सो
▁ब ʼ
▁स ानाय
▁आ प
▁आ या
▁द ल
्र ब
▁थ ांग
▁थ ाबो
▁ख ाख
▁फ ेर
न् त
▁मोन ाखै
▁सि ल
बा ,
▁ला मानि
जों ,
▁नों ।
िन ांगौ
ंग ोन।
▁( आ
▁इ स
▁मे म्बर
▁दै खांनानै
▁सु स्रां
▁सु खे
▁बार ान्
▁मोनसे लʼ
▁' अ
ख्र ुब
▁दि खांनानै
▁ना ङ
▁महर ाव
▁2 1
ग्र ाब
▁सानै नि
▁माबा दि
▁मिनि नानै
▁नङ ाना
▁खोन ्दो
▁सिगां नि
▁फावथाइ खौ
▁प्र से
▁फु दुं
▁रु व
▁रु पा
▁गोहो खौ
▁मोदोम नि
▁हाम ब
▁सोलाय नाय
▁लु नानै
▁हायो ब्ला
▁गर म
▁दो लो
▁फोरों गिरि
▁जाम ्बि
▁इउ नि
▁नार्ज ारी
▁दिल्ल ी
▁ओनसो ल
▁बानजाय नाय
▁मिथिंग ानि
▁हालाम नि
▁सेक्स पीय
▁हाखु-दाख ु
- उ
a c
e c
छ ा
ड ा
त ्
न ाजों
य ेल
ल ी
ह ायै
ी ल
े ला
▁ B
▁ G
▁ L
▁ {
▁ in
▁ब ङाइ
▁ग ंग
▁ग ारिनि
▁म ानै
▁न ांगोन।
▁द ाल
▁बि ल
▁ख ुलि
▁बे न्
▁र जʼ
▁अ ह
▁सि :
▁ए क्स
यो ब्ला
▁सान नि
▁होन ा
ाद ार
ोब ्रा
लाय ो
▁थां दों
▁( 2)
▁नाय ब्ला
ोग ो
▁बा स
ैया खै
▁सु थार
▁सु जु
फै दों।
▁सलʼ माया
▁गोनां दि,
▁गाब नाय
▁बाह ेर
▁खा स्रि
▁ओंखार नानै
▁लिर गिरिया
ग्र ाया
▁रां खान्थि
▁आखु खौ
▁लां दां
▁गं स्रि
▁हिन्जाव ा
▁नागिर ो।
▁दुखु जों
▁नङ ाबा
▁खोन ाबाय
-फ ाथ
▁सिगां आव
▁प्र द
▁दर खं
▁बिथां खि
▁रुम नि
▁मन ʼ
▁बेल ायाव
▁बसुमत ारी,
▁जाब ाव
▁बिग ुम
▁जाथाइ जों
▁डा ः
▁थाय नै
▁बुंदों -
▁जालां बाय।
▁हाजʼव ारीया
▁बाथ्र ानि
जाग ोन।
▁एफ ाग्राब
▁थियेट ारनि
▁बाख ्नाय
▁(1 )
▁गोमजोर ै
▁थों जों
▁उजि गिबि
▁थाद ʼ
▁एखन ब्ला
ज्ल ायनो
▁दायनि गिरि
- नि
r i
ख ोन
द ्ला
ब ाथाय
ब ्दि
ल ाया।
व ार
श ा
ी खौ
ु क
। ।
▁ब ानानै
▁ज य
▁ह ानि
▁न ंगुबै
्र ल
ोर ा
▁बि द
▁थ फ
▁थ ालां
▁फ र
▁फ ाय
▁मोन थार
▁मोन दोंमोन।
बा सिया
▁उ सु
▁गाव राव
▁हाब लाङो।
▁जा सि
▁मान ा
▁हो ब्ला
हर नानै
▁फिस ा।
▁फिस ाइनि
▁बाथ ुव
थाय नो
▁माव जि
गा ँ
सा खौ
▁गु सुं
▁बिब ʼ
▁अन ु
▁गैया मोन।
▁रो जाब
▁भ ुम
▁गार ा
▁फराय सालियाव
▁थै नाय
▁नि जोम
ेब ुल
थाव नि
▁गै ला
▁गै लिया
▁दिन्थि नानै
▁लाइ न
▁राज थावनि
▁जु नाद
▁नोजोर नानै
▁बिसि नि
▁बिसि या
▁सेर नि
▁सिं आव
▁सै बारी
▁गलʼ नि
▁मुग ायाव
▁नायहर ो
▁ददेरे नि
▁ददेरे खौ
in g
▁थायो ,
▁बांसिन ानो
▁जेन ʼ
▁.... ..
▁रों गौ
▁बोराय नि
ंगि ना
▁शान्त िनि
▁जौग ानाय
▁बुजि नो
▁बेदर ,
▁गोब ानानै
▁गुन्दा खौ
▁जार ौ
▁रजि या
▁जोंर ुवा
▁फाफ ्लियाव
▁गौ थुम
▁डे भि
▁गेदे मा
▁इनफ रम
h e
r o
क ुम
च ्
ज ाम
ज ाबाय
ज ाजों
न ाम
न ेट
न ेल
फ ाम
व ेर
▁ ..
ाव खौ
▁ग न
▁ज ग
▁ज ब
▁ह ानो
▁बि साय
▁थ ुब
▁र ह
सि गौ।
न् नो
ाथ ार
▁आं नाव
ारि फोरा
ाह र
▁ला गोन
याव बो
▁उ खै
▁" फ
▁" सोर
▁बुं ना
लाय बाय
लाय खो
ुल िनि
▁हो व
▁प ्रि
खा ,
खा दों
▁नाय ो।
▁ओ इ
▁से न्देल
ङो ,
▁हर ा
▁बार नानै
▁बिब ारि
▁' म
▁बाथ्रा खौनो
स्र ोम
▁साव थाल
फिन नाय
▁लाइ ट
▁सान् नो
▁जान ांगोन।
▁श ि
▁बिख ायनो
▁फु जि
जानाय नि
▁आव राय
-म ो
▁मेगन जों
-ब िस
▁फं सेबो
थाम सो
▁सौ ग्र
▁बसुमत ारीया
▁बिग ोमा
▁गाख ोनानै
▁डा क्ट
▁उद ु
ोमोन ब्ला
▁अफिस ाव
▁अफिस ार
▁हाबाफारि खौ
es s
▁आम ेर
en t
▁कल्पना खौ
▁नʼखर नि
▁बिजौ ,
▁स्र ोद
फार से
▁बांग ाल
▁महनला ला
▁हय थʼ
▁घन्ट ा
- खु
? "
क )
ख ाइ
ख ्लाय
ग ाया
ट ्रिक
त ,
प ान
फ ्लाय
व ाया
स ायाव
स ्लि
ह ेना
▁ R
▁ या
▁ ।"
▁ब ं
▁स ्ल
▁ग ाद
▁ग ुग
▁म ुर
▁ज र
▁ह ज्रि
▁आ ग्रां
▁न ांगोन
▁द ैया
्र ोब
▁थ ाथʼ
▁फ ्र
▁फ रे
न् त्र
ाथ ो
ाख ालि
्ल ायाव
▁सान दोंमोन
▁" थ
लाय बाय।
▁मा ष्टार
खा दों।
▁बु ङै
हर नाय
▁जि ं
▁गि लि
▁मानसि जों
▁सु नि
लि य
▁हम दों।
▁गाब नो
ेन खौ
ायो ब्ला
▁बोर मा
▁राइजो फ्रा
▁नि दान
▁साव नानै
▁दिन्थि यो।
▁अर खि
▁राय जो
▁दुखु -द
▁आदा ।"
▁रु फा
▁आय ʼ
▁दर जा
▁गोग्लै यो।
▁ब्रह्म ,
▁हादोर गिरि
▁हाबाफारि याव
▁उदै याव
▁फोसाव नाय
▁फावथि नानि
▁आन्द ाया
थाब नानै
▁जाहोन ाव
▁बिमा-बि फानि
▁नʼखर ाव
▁फान् दाय
▁फोरम ायो।
▁मुस ाह
▁शं करा
▁t o
▁फोथार ाव
-जु नाद
▁जात ्रा
▁हरबि ला
▁मेमʼ रि
▁खुन्द ुं
▁सानजौ फु
" ,
+ आ
ग े
द ्र
द ्रि
य ोमोन।
ल ं
स र
ह ालाय
ि खौ
ै खौ
▁ झ
▁ग दाय
▁म त
▁ज ान्
▁न न्द
▁द ानानै
▁बि लो
▁थ ुं
▁बे ंख
नानै बो
से र
सि खौ
▁मोन ाखै।
ाथ ीया
▁ला ंग
्रि ं
▁उ :
▁बुं दों।
ांग ्रा
▁सम ाया
▁जों नानै
▁नाय ै
▁दं बावो
जा सिम
▁गोर ाया
▁गोर िब
▁ट ेबुल
▁जानाय -लों
▁1 7
▁दिनै बो
▁नाग ारनानै
▁भ कत
▁हागौ ।"
फिन बाय
▁फिसा ,
▁सोदोब थि
▁जान गार
▁दान से
▁बाद लनि
▁बां ला
▁देर ग
▁आस ारि
▁जु दा
▁माइ थाय
▁माइ गाब
▁"आ लाइ
▁फावथाइ गिरि
▁बिसि -फिस
▁मोस ानाय
▁नाज ाव
-द े
▁मेगन निफ्राय
▁गोहो नि
▁मोदोम खौ
▁हांखो खौ
▁गोग्लै नाय
▁अब्ला सो
▁हि न्दु
▁थान ांगौ
▁अन् थाइ
▁अराय नि
▁रंज ालिया
▁के :
▁बाजि याव
▁गुदि याव
▁अलʼक खौ
▁जाखां नानै
▁आखल खौ
फिन् नानै
▁बुंहर बाय
▁मीन ारामा
▁सुजुग ्राया
▁सोरख ारनि
▁गोजां स्रि
▁मुंखʼ नो
** **
▁बथ ल
▁आबु ङै
▁अख्रा ङाव
▁इन् जिनि
▁रंफाल ी
▁बिसाय खʼ
3 0
e t
आ ।
क ार
ज ुन
न ाइ
ल ्ट
श ्व
ु ला
े नि
▁ ;
▁ N
▁ छ
▁ब ामोन
▁स य
▁स ारि
▁स ाजों
▁ग िया
▁ग ाजा
▁म ʼ
▁म िस
▁आ ह
▁आ माय
▁आ हार
▁न ेव
▁थ ाना
▁थ ांगोन।
▁र ानि
▁र ुब
▁र माय
बो यो।
सि नै
न् थʼ
न् दिया
बाय मोन।
▁सि फ
▁सि लाराम
ाह ार
सो नि
ब्ला ।
ब्ला सो
यो )
▁" दे
▁गाव बो
▁जाय फोर
ान् द
वा ,
▁जा फु
▁थाख ोम
ालि ,
▁दै मानि
▁दै थुन
थाय ो।
▁माव खʼ
सा ।
है दों।
▁' ह
▁बिसोर बो
▁फोर जा
▁फो लाव
स्र ाव
▁बोर सि
▁लिर नो
▁गार नो
▁थै बाय
▁आइ यै
▁जोब नाय
▁गासै खौबो
▁हाद राव
▁हिन्जाव खौ
▁च ी
▁खाथि यावनो
▁खो थाया
▁"आ र
-ग ावनि
▁बेखेव नानै
▁नै जि
▁आफा ।
▁सेंग्रा -सि
▁सलʼमा ।
▁5 0
▁जाथाइ खौ
▁अफिस नि
ख्रु य
▁गुन्द ानि
▁गान् दु
▁फाला ंग
▁फाहाम सालियाव
जार ोङै
▁माहारि यारि
▁अलक ेश
▁दिल्ल ीयाव
▁दय ाराम
▁मुंखʼ नां
▁एल .
▁थब सि
▁नेर ्सोन
▁थाथ ों
▁ब्ल द
▁जिनि स
▁नेहाथ ारि
" ।
- न
u r
ʼ ज
ख ायाव
ख ाबाय
ज बनानै
ट िं
द ुर
न ैया
प ाल
र न्जन
स ौ
▁ y
▁ब ट
▁द न्द
▁द मासु
▁बि या
▁ख ्रे
▁बे जों
▁र ान्दि
▁गो लाउ
ाइ ला
▁अ खानाय
▁ला दोंमोन।
जों सो
ना -
ना खौ
▁सान नैसो
िस ा
▁उ इ
ाद ्राय
लाय नायाव
▁मा दि
▁फै गोन
▁( 3)
▁प रिष
▁गे ब्ला-
▁जि बा
▁सोर ब
▁सोर जों
खां ना
▁बाथ ्राय
▁आख लनि
▁गि लुं
जो बो
▁लोगो आव
▁सु व
▁दा फोद
▁हर ो
▁बार हुं
▁गु स्लाय
▁मोनसे या
▁बिब ाज
▁बिब ारनि
▁अन ारि
▁हम नाय
▁ना ,
▁रो खायै
स्र ायै
▁हे ल
खो ,
▁मुं ख्लं
नायखौ ।
▁सोद ोबा
▁आइ नि
▁जोब नो
▁जोब स्रां
खʼ र
▁नां लाय
▁सायाव नो
▁गोदान नि
जोब ्बाय।
▁बिफ ान
▁गं फा
ोद ान
▁बाद ाय
▁बय खौबो
-ग ु
▁आव ग
▁दर बासि
-म ोगि
▁दाब ुं
▁माब्ला बाबो
▁मोनो ,
▁गʼ ला
▁हायो ,
▁नङाब्ला बो
▁अन् नाय
▁हगार नानै
▁बुर खाय
▁बानाय सो
जेन नाय
▁आन्द ो
▁कम्पिउटार खौ
▁गावब ुरा
▁बह ाबा
▁देह ाया
▁फोरम ायनो
▁दावह ानि
▁खौरांग िरि
▁हमथ ानो
▁अबं ला
▁मोग थां
▁बाम ुन
▁बुहुम नि
▁ब्रे क
▁मोगा -मोगि
▁इनफरम ेसन
o d
ख ान
ख ुंग्रि
ट ारि
त िनि
न ी
ब ्रि
र ी
व ान
ि त्य
▁ E
▁ is
▁ब ाना
▁ब ारियाव
▁स है
▁म ार्
▁म थे
▁ज न
▁ज थाय
▁आ सा
▁न ुब
▁न ङै
▁द ाथ
▁द ाया
▁थ ाया।
▁थ ्रोब
ाब ्रा
▁ख था
▁ख नायाव
▁गो बार
▁मोन ाखिसै।
▁सि .
्ल ुब
▁" क
▁खालाम ब्ला
▁गाव स्र
▁थां खिया
▁जों बो
ंख ा
▁हो गोन।
▁प ुर
▁बु दार
▁बु न्दिया
▁नाय ो
▁नाय ग्रा
हा ।
▁सो होर
▁राव खान्थि
▁बाय नाय
▁मानसि ,
▁से थि
▁माव नायनि
▁दा का
▁हर से
▁बार ाद्राय
▁दे ब
▁' ग
सार ा
▁एसे यावनो
ग्रा ,
▁रो ङा
स्र ीया
स्र ेम
ेट ा
▁राइजो -र
▁जोब थार
▁सुबुं साइ
▁नां नो
▁आन ारामा
▁नो ङो
... ।
▁फु थु
▁अज या।
-ब ु
▁बान जायनो
▁लुबै यो।
सʼ नो
▁। ।
▁दसे नि
▁फिन नाय
▁नं लिया।
▁बिलाइ ,
गाय नानै
▁बिजिर नानै
▁बिग ोम
▁आलाइस्रि खौ
▁बर ग
▁5 .
▁जोंथिया ।
▁हिस ाब
▁खैफोद ाव
▁सानबाय -
▁थुनफावथाइ नि
▁गान् नाय
▁........ .
▁एरै बादि
▁लि भ
-सान राय
थ्र ʼ
▁सिया ल
▁टा उनाव
▁हाबाय ।
▁बडʼलेण्ड नि
▁लख्र ानि
▁भुट िया
▁अब्राम -
s i
अ ʼ
ख ुब
ख ेब
ज िस
ट नि
ट ाल
त खौ
द ाम
न ाबो
ब ारि
य ि
ह ु
ह ावा
े न्द्र
▁ज यै
▁ह ो।
▁न ब
▁न खौ
▁द ाबा
ाब ानो
▁फ िर
▁बे थʼ
नानै )
▁गो सा
थि र
दि न
्ला म
न् थिया
▁मोन नि
मोन ब्ला
▁नों थʼ
▁सान थ्रि
▁" जों
▁क क्राझार
▁बुं ब्ला
▁सम खौ
▁थां लाय
▁थां नायाव
▁फै लाव
▁( क)
▁प ार
▁नु थाय
▁सोर ्
खां बाय।
फोरखौ नो
▁दै जों
▁माव ो।
फै दों
▁हर ो।
▁मु जु
▁लानानै ।
▁बायदि यै
ालाय ।
▁हाबा फारिनि
▁खा सि
्रे द
▁सोद ोम
▁महर नि
▁राइजो फोरा
ग्र ोन
▁सों खारि
▁सुबुं फोरनि
▁खोम ायाव
▁आग सि
▁आफाद ाव
▁नागिर नाय
▁थुन लायाव
दो ,
▁माइ नाव
▁) ।
▁बोसोर ाव
▁बिसि नायाव
▁आद ्रा
सʼ नानै
▁एम ाव
▁नं लिया
ाइनि ं
▁बिलाइ खौ
▁नायहर ो।
▁मिहिर नि
▁दिहुन नाय
▁दम ननि
▁तुल ारामा
▁महाराजा ।
▁नार े
▁हाख र
▁हाख ि
▁नोगोर नि
▁बेव हायनो
▁बुर ैया
▁गारि खौ
▁दुर्जां नि
▁लोम साव
▁बेला से
▁अलक ाया
▁बाख ्रि
▁बेग र
▁बावदि यानि
▁फुङाव नो
▁कमि टिनि
▁दाला इ
▁इन्टार नेट
▁(ख )
▁बारान् दायाव
▁सेक्सपीय ेर
▁अनु ले
▁गोबार ै
▁( ब
- फा
- हां
4 )
क ु
ख ानानै
ख ायो।
ख ्लाब
ग ्लाब
ङ ाखै।
ज ्ला
थ ान
न ोनो
प नि
ब ौ
ल ानो
▁ ई
▁ब ोग
▁स ैया
▁ग लायनानै
▁म थर
▁ज ाज
▁आ न्ज
▁द ारि
नो सै।
▁थ ैया
▁थ फ्ला
▁र थʼ
▁र ोमै
▁गो मा
▁गो सार
ाइ स
▁मोन ज
▁अ ʼ
▁सान जा
▁सान बोला
▁उ र
▁क ंग
▁बुं नांगौ
▁बुं जायो।
▁खालाम नाया
▁सम ाजा
▁- "
ुल ु
▁थां फिन
सोर ां
▁फै गोन।
▁फै सालि
ंग ्रि
▁जा से
▁मे ट्रिक
दा खौ
िया ,
▁गि ज्रा
▁बाय नो
▁-- -
▁मानसि फोर
▁से ना
▁सु देम
▁दे ,
▁हम था
▁गोज ाव
स्रि खौ
▁जाबाय -
▁जो थोन
लाव रि
▁नां जाब
▁सानै खौ
▁सानै या
▁लां बाय
▁बिफ ाना
▁बिदि न्थि
▁बाज ार
▁बाज ुराम
▁हिन्जाव सा
▁जाह ोनो
▁खोन ्
-फ ु
▁बिज ाम
▁फावथाइ गिरिया
▁ले ङाइ
▁आय दायाव
▁आव थायाव
▁मोखां जों
टि भ
-द ु
▁आद ार
▁गां नै
▁खै ना
▁"न ंगौ
▁ब्रह्म वा
▁लाखि नानै
▁रे जें
▁खेब नै
▁जागोन। "
▁फिसाजो आ
▁हाल ो
▁रैखा थिनि
▁लाजि नाय
▁सावराय ज्लाय
▁सिगाङाव नो
▁जेन बा
▁मुवा फोरखौ
▁अलʼक नि
▁जाम ार
नोसै ।"
▁खे ंख
▁बोथोर नि
▁फिसाइ खौ
▁खन्थाइ गिरि
▁साला इ
▁गोमो थाव
▁हान जा
▁शान्तिया ।
▁ओनसो लाव
▁ओनसो लनि
▁साह ित्य
▁सुफुं नो
लाद ेश
▁हांग ार
▁फरायसालि नि
▁सुशान्त वा
▁कासार नि
▁दाद ्रि
▁मखʼ जाथाव
▁नाल िस
▁रोन ाव
▁दोह ोरोम
▁केर ानि
▁लाहार -फ
▁सान्द ुं
▁बेम ारि
▁पाकिस्त ाननि
▁मेने जार
▁(ए सेयाव
▁अनसुं थाइ
गाँ व
▁आमेर िक
▁आन्ज ाद
- बो
- मोन
- दा
8 .
a y
a in
i d
उ इ
ख ुन
घ ा
ट ,
ट से
ड ार
ब ्रे
ल ौ
ल ुब
ह ोन
ृ ष्ट
▁ब र्ड
▁स ार्
▁ज ाखा
▁ह िं
▁ह ाजासे
▁आ च्
▁थ िन्
से ब
से ल
▁गो थे
थि नो
बाय ा
▁मोन दोंमोन
▁मोन ब्रै
▁अ प
▁अ स
▁अ क्
▁ला माया
िर िया
▁नों स
▁मो ख
▁उ साव
▁क ौ
ाद ै
▁थां नायनि
ान् दो
▁हो यै
▁बु ध
▁बु ङा
हर बाय
▁नाय बाय।
▁गि थाव
▁गि लास
थार बाय।
▁दा सान
▁गोर बो
▁हम ना
▁हम नायसै।
▁उनाव बो
लां नायनि
▁गेजेर नि
▁गाब नि
▁जो ख्ल
▁सासे लʼ
▁मुं राइ
▁दोन ्नाय
्रे म
▁गार ाय
▁थै नो
▁जोब थ
▁नागिर ो
........ ........
▁फोरमाय नानै
ब्ल े
ाखै ,
▁आलाइ नि
▁रु जुन
का स
▁बबे नि
पि .
▁उन थिं
▁सोरबा फोर
▁आफा ,
▁हाय ि
▁हाथ ायाव
▁साय ारामा
▁नायजाब ाव
▁बेद द
▁19 6
▁जारिमिन खौ
▁सह ेना
▁भारत ारि
▁खिन्थ ानो
▁संसार नि
▁टि .
▁गाय सन
▁फोजोब नो
▁मिथिगौ ।
उरि य
▁दुब फुं
▁सुजुग ्रा
▁सोद्र ोम
▁कि टसे
▁सोरख ारि
▁नाजा दों।
▁बाख नाय
गाब ्रै
▁निउ क
▁दाग ाब
▁खौरांग ासे
▁खेव नानै
▁बिगुर ,
▁एबसु नि
फाद ेर
▁सुमि लाया
▁अक्ट बर
▁बिग्राय ारि
▁सौग्र ाव
▁मुंखʼनां दि,
" आ
- फै
0 .
a m
a p
n d
q u
u s
ʼ ना
क ी
ज ाह
ण ा
ब नि
भ ानि
श ्रि
ष ्ण
स ां
ी ज
▁ O
▁ब ोनो
▁ब ीर
▁स न्
▁स ाबु
▁ग ानै
▁ग ाथाम
▁ज ोर
▁ज ाइ
▁ज थाइ
ोन ाव
▁आ लु
▁बे ंगा
▁बे ंगल
▁मोन है
फोर थि
▁अ ब्लानो
▁सि न्द
▁सि मान
▁ला है
्ल िया
मोन नाय
्रि द
▁सान नाया
▁क ार्
सै ।"
▁थां दिनि
▁जे खौ
▁बु नानै
▁नाय ोब्ला
नाव नो
था ,
▁सा फाय
▁दै खौ
▁दै मु
ङो ब्ला
लि क
▁बादि ।
▁गु स्
▁अन ाथीया
▁' द
▁मोजां नि
▁मिथि नानै
▁दि खार
▁था ।
▁ट ्र
▁सोम दोन
▁एसे ग्राब
▁रो ङा।
▁हा -हु
▁सासे नि
▁भ ारा
▁राइजो फोरनि
▁फराय नानै
▁नि स्थार
लै ,
▁गै ला।
▁सुबुं फोरखौ
▁हाद ्रि
▁आग दा
▁खामानि नि
▁मोन् दों
▁नागिर नो
र् म
▁गोम ानाय
▁बां द्राय
▁जाह ार
▁च ीन
▁बुंनाय साय
▁आय दानि
▁बबे याव
▁नोंसोर खौ
▁गोहो आ
नां दों।
▁जागोन ,
▁हाम ो।
▁मानोना ,
▁गामि यारि
▁लाबो यो
▁समाज ारि
▁सोलाय नानै
▁हान् था
▁थान ां
▁नार् जा
▁आनारी खौ
▁नार सिन
▁गय -फाथ
▁हायै नि
पुर नि
▁खे बाव
▁थो जासे
▁बें क
▁आइजो आ
▁खोनासं नो
ʼर ेट
▁हुग ारनानै
▁दुं हाव
▁मनजु वा
▁कलेज नि
▁लिरगिरि नि
▁देव ान
▁देव ानि
टे लाव
el l
▁हमथ ानानै
▁जाला ङो।
▁गग ल्
▁फाथ ो
▁टेबि ल
▁अलका खौ
▁बिबुं थि
▁अनजि मा
▁बोद ोर
▁खिर खि
▁फेस ्ला
▁दाइ रि
▁इन्दुप्र भा
▁उल् था
▁डेभि द
▁दुखु-द ाहा
▁नोजोर ाव
- सो
- हा
v er
क ्र
ग ान
ग ुरि
ज र
ट खौ
प र्ट
भ ेट
य िं
ृ त
▁ ऊ
▁स ्राय
▁स प्त
▁स ादोर
▁ग ाथ
▁ज ्र
▁ज यो
▁ज ंखाय
▁ह ालाय
▁द स्रा
▁द ाइन
▁बि थʼ
▁ख फʼ
नाय मोन।
या खै
सि ।
▁अ बि
▁अ न्दर
▁सि द
▁सि लाया
ाह ाय
▁नों ,
▁नों था
ना ङा
▁सान हाब
▁बुं बावो
ंख ां
खा खौ
▁बु न्दि
हर ो
▁नु ब्ला
दा ,
▁सा त
▁सा फ्रा
▁गि ला
थार ा
▁से के
▁बार नाय
▁बार सोम
▁गु जु
▁गु दु
▁अन सुला
▁मु श्री
▁मु खुब
▁फोर बो
▁बाथ्रा फोरखौ
▁गोद ाव
ेन सन
▁गैया ।"
▁फाव थाया
▁दिनै सो
▁सासे बो
▁ओंखार बाय।
▁दोन नो
▁जौ नि
ेल नि
▁आइ क
▁आइ न
स् ‌
स् ति
▁सों बाय--
▁दिन्थि दों।
▁लां बाय।
▁खार खोम
▁आग र
▁मोन् दों।
▁बां लादेश
▁बिख ्ल
▁आखाइ निफ्राय
सिं सिं
▁सिगां नो
▁बय निख्रुइ
▁बिब्दि ब्ला
ामोन नि
▁बबे निफ्राय
▁बिथां मोननि
-द ौ
▁बाहागो नि
▁नवाव नो
▁थाब ाव
▁"न ाथाय
▁हाय ाब्ला
▁गोजोन ै
▁फे देर
▁मोदै खौ
▁पुलिस ा
▁जाब ्लानो
▁दाख ालाम
▁.... ...
▁बादल ,
ुंग ुर
▁सुर नानै
▁जायगायाव नो
▁थाल ानि
▁ट्रे इन
▁माबार ।
▁बुजि बाय
▁लो ङै
रे क्ट
▁सिन ेमा
or d
जाग ्रा
▁कम ल
▁फाहाम थायनि
▁होफै यो।
▁बेरखां दों।
▁लोम जानाय
▁साइकेल खौ
▁देह ायाव
▁गाइखेर खौ
▁मुस्रि मा
▁कल्पनाया ।
▁प्ल ेट
▁राह ाजों
▁काम ाख
▁देरहाग ्राया
▁दर् बासि
▁गोनो खो
▁लेब ʼरेट
▁मेड ाम
▁मोख्र ाया
▁मावरि जा
▁ग्री म
▁सरासन स्रायै
▁गिलि द
▁जान् जि
▁निउक ्लि
- 2
- इ
- सोर
- लाइ
> म
b er
h ar
ʼ वा
ख ोर
ख ागौ
ङ ि
ज ाहा
ट क
द ोना
प ुट
म ेट
र ुम
व ाला
ह न
ि ल
े बा
ै बो
ाय नानै
▁स हाय
▁ग लाम
▁ज ं
▁आ खा
▁आ लि
▁न म्ब
▁द ाइनिं
▁बि खु
▁र ेस
▁र हे
से ,
▁ल ारि
थि नानै
ुं .
▁मोन नाया
फोर बो
▁अ सि
▁आं हाबो
बा सो
▁ला दोंमोन
मोन ब्लाबो
▁नों सिनि
▁" सि
मा ।
न्द ्रा
▁हाब है
▁हो या
▁गोसो ज्लि
▁बा सि
▁बा थि
▁गि नो
थार दों
▁से नानै
▁दा ङ
▁हम दां
▁मोजां ।
▁गोज ाननि
▁दि उ
▁थि लियाव
▁फो ज
हो बाय।
▁गाब खʼ
गिरि ,
▁हा सु
▁दोन ो।
▁थै खौ
ग्र ी
नांगौ नि
▁रां जों
ोनाय नि
▁अर खिया
▁आन ान
▁मिनि नाय
▁जान ो।
▁मोन् नाया
▁नागिर दों।
▁दान ाव
▁गोम ालां
▁बिख ुं
क् सा
▁खो ल
बार ाव
ाखै ।"
▁प्र ाइ
▁बिन ाराम-
▁बेर खाङो।
▁गोग ो
▁फि सि
▁आव ाज
▁नाज ायो।
▁नोंथां मोन
▁अज द
ानिफ्राय नो
यारि ं
▁लुबै नायखौ
▁फा स
▁साब ्रै
▁गʼ साइ
▁मोदै जों
▁बिजिर नाय
▁सेप्तेम्बर खालि
▁बसुमत ारि
मार नो
-आ खु
▁19 7
▁आबौ ।
▁सावग ारिया
▁फोजोब स्रां
▁बेसेबां बा
▁दानाय ाव
▁जोम ैया
▁लान ां
▁थास ान्दि
▁बाबु वा
▁फिसाज्ला खौ
▁एस .
▁बिम ाइ
▁अद ाल
▁इंराज ि
▁6 .
▁मुलि खौ
▁फोलेर नि
▁जायखि जाया
▁थेफेन खौ
▁सोरखौ बा
▁गग ैया
▁मोनाबिलि याव
▁टेबि लाव
▁सिमा ङाव
▁स्कुल ाव
▁माख न
▁एम् फौ
▁ड्र इं
▁दंख ायो।
▁मनजुल ाया
▁बेखेवगा स्नि
▁लांग ोना
▁सेंग्रा-सि ख्ला
▁ग्रीम उइ
>म ुं.
- हर
उ नि
ङ ाब्ला
ट न
प ,
फ ुल
फ ोनां
स ाल
े या
ो ल
▁ब क
ाव ार
▁स ाया
▁स ारिनि
▁ग ारिया
▁म ाया
▁ह ं
▁ह टेलाव
्र ो
▁बि नानै
▁बि सुखे
▁ख ोरोम
▁गो जों
ाम ायैनो
सि ब
ाइ ,
▁मोन खो
▁मोन नायखौ
▁आं -
ेर ि
▁ला फ
्ल ुं
▁सान बाय।
ुर िनि
▁होन ाया
▁क ्र
▁क र्ट
▁मा ,
▁थां ।
▁जों नाव
▁( म
▁जे थो
▁इ ंख
हर दों
▁बियो -
▁गोसो वाव
▁नु यै
▁सो लेर
फा ,
▁मे उ
थार ा।
▁माव नांगौ
▁अन सुलि
▁मु सु
म् पि
▁बिसोर जों
▁जानाय ।
▁लानानै नो
▁जाबाय ।"
▁गाब ो।
▁रो हो
▁दाव ा
▁खाम ्
्लि ब
रा ङा
▁2 6
्लाय नानै
▁दिन्थि यो
▁अर दाब
▁लाइ सि
-- -
▁खार लां
▁बिदि बादि
▁गं ब्रै
▁आग ष्ट
▁दान थार
........ ...
▁आस ान
▁आस ागि
▁खो थायाव
ब्ल ं
▁आलाइ खौ
▁फु जा
▁बिसि ना
▁जिर ायनो
▁सं नो
▁दर लाय
▁खि बु
▁खि थेर
▁सर ख
▁होम ्बा
▁मन्जु खौ
▁हाल ोद
▁दिहुन नानै
▁गारां जों
▁थान ाया
▁19 9
▁आबौ ,
▁बिहा ।
फेर ा
▁खैफोद नि
▁गैय ाब्लाबो
फिन् नाय
▁दां नानै
सेयाव बो
▁सोन ारनानै
▁बिथिं निफ्राय
▁कि उरिय
▁फैया खै।
▁सिथ ्लायाव
▁थिउरिया फोरा
▁सोद्रोमा फोरा
▁टा उन
▁खानाइ खौ
▁जेकेट खौ
▁मंगल सिं
at e
▁शं कर
▁बेखेवग ानै
▁लुब ैया
ग्ल ुं
▁क्ला स
▁रुग ुं
▁डाइ रेक्ट
▁थिर ां
▁रुव ाथी
▁बेन् दों
▁फरे ष्ट
▁अखानाय ै
▁हेल ारामा
▁सानबोला उरि
▁आच् छा
▁कौ टि
▁बिख्ल ो
▁निउक्लि यार
▁बिखु ङाव
- जो
1 .
5 .
g e
u l
u gu
ʼ ,
ʼ ब
ख ाबाय।
ग ानै
ज ायाव
त न्त्र
द र
फ ाला
फ ्रि
फ ैया
भ ु
म खौ
य न
य ाननि
श ्र
स ालिया
ा खौ
ी म
े क
े ड
▁ Y
▁स से
▁स ना
▁स ुम
▁स हर
▁म हा
▁ज ल
▁ज यो।
▁ह ाला
▁न ंख
▁द ालाय
्र ाजों
▁बि ला
▁बि खौनो
▁ख ंख
▁फ ʼन
▁बे रा
▁बे फारि
बो बाय
से ।
▁ल ग
▁ल खʼ
सि नो।
बाय ानो।
▁मोन थाय
▁मोन ब्लाबो
▁मोन ैनि
▁अ न्द
▁अ रा
▁अ टʼ
▁आं सो
ोम ो
▁सि रां
▁ला ग
▁ला फानानै
▁ए का
ानाय ।
▁नों नाव
ना ङै
िस ्ट
▁उ रिष
▁" ख
▁" ज
िन ानाव
▁खालाम बावनो
▁गाव सिनि
न्द ो
▁जों ब्ल
▁फै गासिनो
▁( बि
▁प लि
▁प जʼ
▁नु ना
▁नु जानाय
▁गे बे
▁दं ना
▁मे व
जा दों।
▁ओ हो
▁सोर ा
▁बो थि
▁बाथ ुल
▁राव ।
थार दों।
थार गोन
ङो )
▁माव ो
▁थाखाय बो
▁अन ाग
▁गोर ान
▁मिथि मोननाय
▁था .
▁ड ्राइ
▁गा ड़
▁बाह ायो।
ार् स
▁हा खौ
▁दोन बाय।
्रे ब
▁राइजो आ
▁2 7
थाव ।
▁साव ख्ल
नांगौ ,
▁फिसा फोरखौ
▁फिसा -फिस
▁आखु थाइ
जोब बाय।
▁सान् नाया
▁गथʼ -ग
र् स
▁श नि
खोम ानानै
▁दुखु थिया
▁नङ ालै
▁ध ु
▁ध ोनि
▁नोजोर जों
▁मोखां नि
▁थे ख्र
▁बान ाजों
▁एन .
▁मोदोम ा
▁माथ ो।
▁हाम फे
▁उन्दु नाय
▁उन्दु लां
▁लाबो दों
▁रा णी
▁दाय खौ
▁बेल खौ
▁साब ि
ज्लाय नानै
▁आंहा ।
▁नं मार
▁मोनो ब्ला
▁मलेन जों
▁स् व
▁साय खं
▁जिराय नाय
स्ट ि
▁गर न्थʼ
▁जायगा खौ
▁साहा खौ
▁हाबफै नाय
▁फोथाय खेब
▁दाम नाय
▁दाख ोर
▁कम्पिउट ारा
▁डा क्त
▁भारत ाव
▁मुस्री मा
▁बैसो आ
▁साम लाय
▁बानाय नाय
▁खां नानै
▁सावगारि खौ
थों ।
▁जिब -जुनाद
▁दां नाय
▁चि त्त
▁स्ट ार्ट
▁मनजु नि
▁बेलस्रि या
▁नार्ज ारीया
▁खें फोरथि
▁अलक ानि
▁नाजा दोंमोन।
होनाय नि
ra m
▁हरख ाबै
टे क
▁A ugu
▁जोंर ु
▁बायजो याव
▁थिउरिया फोरनि
▁केस खौ
st ,
▁बावदि याया
▁सोरखार खौ
▁देरहाग ्रानि
▁लांगोन ायाव
▁थामथि म
▁संग ालि
▁थबेन -
▁बुंनायसै -
▁दास ान्दि
▁बिजन ेस
▁गिख्रं थावना
▁जागौ मोन
▁रुं सारि
▁अग ेन
▁दोन् नो
▁महाराज ानि
▁खास्रि -बिस
▁गंस्रि नानै
▁दाफोद ार
▁आवग ायाव
▁लाहार-फ ाहार
▁अबि ना
▁Augu st,
▁खास्रि-बिस ्रि
▁जारिमिन नि
- 1
- स्र
i m
t er
ʼ ल
ʼ ।
ज न
ज ो।
द म
द ाइ
प ारा
फ ायाव
फ ुरि
ल ार
ह ानि
ु मा
ृ ष्ण
▁ F
▁ g
▁ l
▁ब म
▁ग लि
▁म थ
▁म ाज
▁ज नो
▁ज मा
▁ज ार्
ार नो
▁ह ाराम
▁आ लाय
▁न ाव
▁न वा
▁न खʼर
▁थ ुर
▁थ ाजि
▁ख ाज
▁ख ोनानै
▁ख ृष्ट
▁फ ्ल
▁फ ुरा
▁बे ।
▁बे लाय
बो ,
थि ।
ाज ार
▁आर ज
▁अ ,
▁अ ं
▁अ लि
ाख ाय
▁ए म्ब
सो ,
ानाय ाव
▁सान दों।
▁सान सु
▁उ खु
▁" र
▁" सुखे
ुर ी
ुर ामा
फ्र ानो
▁क र
▁खालाम है
लाय ाबो
▁सम निफ्रायनो
▁थां दों।
न्द ै
▁जों लाय
▁फै ब्ला
▁फै सा
ंग िनि
▁जा ,
▁हो ख्राव
▁प र
▁जे ला
▁जे ना,
▁बु न्द
▁नाय नाय
▁नाय गिदिं
▁दं बाव
▁बा ङ
▁बा सा
जा दों
▁थाख ा
था खौ
▁बो ब्ला
फोरा ।
▁मानसि यानो
▁दै खर
▁लोगो नि
लि फ
फै नानै
▁हर ि
▁हर बाय
▁बिब ां
▁' क
▁' र
▁सलʼ ।
▁सलʼ फोरा
रि ,
▁हाग ्रायाव
▁था दों
▁था ङा।
▁जानाय ,
▁जानाय सै।
▁बायदि नो
ग्रा ।
▁जाग ासिनो
गौ मोन।
▁सों नानै
▁सुबुं खौ
▁अर हे
▁राय जित
▁आखु ,
▁जान ांगोन
▁होनाय खौ
▁दान सोरां
थ्रि यै
▁ध ोर
-फ ालु
फुं नाय
▁बेर फ्रु
-ग ोम
▁ने बाय
▁ने गासिनो
▁नोंथां खौ
▁लानाय खौ
▁सिरि ।
▁मेगन खौ
▁गोजौ नि
थे नानै
▁खुग ाया
▁हाम ला
▁खाव लाइ
▁हु जुर
▁मानि बा
▁थुनलाइ याव
▁गोथ ों
▁गलʼ वा।
▁गान नानै
▁नायहर बाय
▁हान् थु
▁फान नो
▁खोना स
▁सावराय नाय
▁इराग्दाव नि
▁थान ांगोन।
▁सलʼमा खौ
-र ु
▁खाफाल नि
▁दाम ै
▁मोजाङै नो
ti ve
▁खिन्थ ाहै
▁उद खारि
▁फाह ार
▁दैदेन नायाव
▁नंगौ ।
▁आखल -आखु
▁अम ब्र
▁लो ङो
▁सोमावसार नाय
▁सोमावसार नायनि
▁कल्पना ,
▁आफादगिरि ।
▁सोन ार
▁बिलिफा ङा।
▁गुदुं जों
▁रायलाय नो
▁गोब ाख
▁गनाय थि
▁दाजाबदा खौ
▁नेर सोन
▁हारसिं नो
▁कर् ण
▁कʼ क्राझार
▁जथुम ्
रु ण
▁सरक ारनि
▁डिस् क
▁खबर दार
▁सलʼमाग िरि
▁बाथुव ाया
▁थुब ुर
▁"आलाइ स्रि
▁अबंला उरि
▁जोख्ल ोब
▁सिन्द ुर
▁अदाल गुर
▁थाजि म
' नि
- थि
- फोर
- बार
2 .
4 .
i r
s e
च ल
त नि
त ा,
ध र
न ाग
ब ै
य ोमोन
स ना
स ाया।
े ,
ो खोम
▁ V
▁ ठ
▁ब ्रि
▁स ब
▁स ती
▁ग दʼ
▁म ंग
▁म बे
▁म ागोन
▁ज रा
▁ह िर
▁ह ालि
ला ।"
▁न ेट
▁न ील
▁बि जा
▁बि स्क
▁थ ोनो
नानै सो
बो ल
▁गो खा
दि म
दि नै
्ला दिम
न् थाइ
▁मोन ायाव
▁मोन जाया
▁अ भि
▁आं निफ्राय
▁सि फि
ाह ो
▁ला ंखार
▁ए ड
ानाय ,
ाला बानो
▁उ फ्ले
ुर ु
▁बुं बाय।
ङा सै।
ोब ाव
▁थां खो
▁फै दोंमोन
▁फै नायनि
▁हो बो
▁हो दो
▁जे ल
खा उरि
▁इ न्ज
▁बु नो
▁नाय गोन
▁गोसो या
▁नु जागोन।
▁जि से
खां दों।
▁बो स्रां
▁बो खाव
थाय जों
▁थाखाय ,
▁बार नि
▁दे नां
▁गोर ा।
▁गोद ोना
▁गोद ाना
▁था फै
▁फो थै
▁सोम खोर
हो यो
▁बेनि नो
▁बोर ाब
▁भ ्लादिम
▁खाम सालियाव
्लि म
थिं जाय
ग्र ोम
▁आइ ,
▁आइ या
फिन गोन
▁जोब नायाव
▁नां थार
-- "
▁बाज िनि
▁सान् दोंमोन
ल् दा
▁हाद ाब
▁खु दै
▁मोद ैया
▁गोम सार
▁जाया खिसै।
▁हाज ोनि
क् ति
बार ु
ष्ट ्र
-फ ि
▁जु थुम
▁मह ना
▁बय नि
▁प्र शान्त
▁त रुण
▁ले ंग्रा
▁सेर े
▁ने नानै
▁लानाय ाव
टि .सि
▁खरʼ नि
-ब ालु
▁गोहो जों
▁खाव लायाव
▁हांखो जों
▁रुम निफ्राय
▁लुबै दों
▁गोग्लै यो
▁हु स
मि टार
▁रे क
▁लु नाय
▁अल ख
▁का स्त
▁रोखोम ै
▁सावराय नो
▁फुं खा
▁जोहोलाव नि
▁बिफां ,
▁खाबु खौ
▁आल ुमि
▁"नों थां
▁नोगोर मानि
▁दैदेन गिरिफोरा
▁रामनाथ ,
▁4 0
▁फोजोब नानै
▁आन्द ाज
▁फाहाम सालि
▁बिथिं आव
▁दुब ्लि
▁हारिमु नि
▁!! !
▁आयदा खौ
▁स्र ो
▁बेरे खायै
▁गुरै यै
▁असम िया
▁सिथ ्ला
▁बारगʼ नो
▁रंजानाय नि
-फिस ा
▁इयुन ाव
om p
▁फालांगि यारि
▁कमाण्ड खौ
▁इनाय नो
▁बाला ब
▁मोग था
▁गला फ
स्व र
▁शान्ति खौ
▁b e
▁में नाय
▁गम ामायैनो
▁बिगियान गिरिफोरा
▁गिलु -फालु
▁गिलु -बालु
▁नुव ाखै
▁सफ ्ट
▁मारु टि
▁उन्दुग ्रा
ल्ड िं
▁कैला श
▁थफ ी
▁प्रि न्ट
▁राइजो-र ाजा
-दु खु
▁सप्त ाह
▁गोनोखो आरि
▁गोसोज्लि द
▁हमदां नो
▁फिसा-फिस ौ
टि.सि .ए.
- नाय
- थां
3 .
9 .
क ुर
ख ाब
ख ुर
ख ाना
ग र
ट ाव
प ्ट
फ ोन
ब ान
ब ानि
म हन
व े
ह िनि
ि ,
ी ला
े त
े ण्ड
् याव
▁ ar
▁ब ुलि
▁स ोग
▁ग ब
▁ग ंगार
▁ग िनांगौ
नि ं
▁ज ाबा
▁ज गाय
ोन नि
ोन ो।
▁ह ुर
▁ह मा
▁ह ैनो
▁ह ामा
▁आ ग्रा
▁न ाया
▁न ोमा
▁द ाना
▁द ाजानाय
▁द ्लाम
्र ुब
्र ाया।
ाब ाबो
▁ख ना
▁ख ुबै
▁बे हा
▁र ंगिना
या ,
▁ल ेट
सि नाव
थि रा
न् ध
बाय नो
▁अ जा
बा ला
▁ए ,
▁ए राय
▁ए खे
▁मो थो
▁सान बो
▁उ दि
▁उ रां
फ्र ाइ
▁बुं सʼ
▁खालाम नो।
ुल िया
न्द ां
ान् दा
▁हाब हैबाय।
▁फै या।
▁जा ति
▁हो लां
▁प ेट
▁बु दुं
▁नाय फिन
▁नु दों
▁दं ब्लाबो
▁दं फांनि
▁मे से
▁बरʼ फोरखौ
बि न्द
▁लोग ो।
थार ो
थार ाव
▁से यार
थाय ,
▁सु नाय
▁दे म
▁बिब ु
▁गोर ानि
▁सलʼ ,
▁मु हिनि
▁हाग ्रानि
▁मिथि ंगा
स्रि ,
▁था दोंमोन
▁गा सिनो
▁ना ङो।
▁दाव ला
▁ओंखार नो
▁ओंखार ो।
▁दोन है
बादि ।
▁लिर दों
ाजों नो
स् पीय
▁रां ।
खʼ नो
सिम ।
▁राय दाव
▁राय लायनाय
▁सानै सो
▁मिनि खै
जोब दों।
▁बाज ्ल
▁गथʼ फोरखौ
▁नागिर ब्ला
▁बाद ा
▁मन् स
▁खोन ानाय
▁देर ा
▁राज ि
-फ ं
▁नोजोर ा
▁फावथाइ ।
▁प्र दि
▁फु ख्रि
▁मोस ाहारि
▁सेर जा
▁फि दिं
-म ि
-ब िनानाव
▁दाब सेयाव
▁सिनाय थिखौ
▁मानि नां
सो। "
▁सेंग्रा फोरा
▁सेंग्रा फ्रा
▁हाय ना
▁हाय ेन
-ह ारि
▁गोख्र ोङै
▁रे डि
▁हार ्ट
▁राहा खौ
सोम ोन।
▁बिलाइ नि
▁राजा खौ
▁सेप्तेम्बर ाव
▁हाल ुवा
▁गोबाव नि
▁मोननै जों
▁थान ानि
▁जेन ेर
▁बर प
▁खाफाल खौ
▁पा टि
▁के म्प
जे न्
▁हाख राव
ti c
▁सोमबोर ा
फेर ै
फेर ाखै।
▁जाव लि
▁"नों थाङा
▁नोगोर ाव
पुर ,
▁फरायसा फोरा
▁प्रे क
▁प्रे स
▁खे मा
▁लान ाया
▁बाबु ।
▁गान् ध
▁गोब्र ाम
▁बोथोर ाव
ब्रै सो
▁दावबाय ारि
▁एफ ाग्रा
▁बुंहर बाय--
▁सांग्रां थि
▁बेरखां दों
▁खें नानै
ra g
सिगोन। "
▁मुगै थाव
▁जोंर ू
▁रावजों बो
▁सालिस ाव
▁सालिस नि
▁प्रेमध र
▁ककराझार ,
▁बान्था खौ
▁T he
▁हांग ारिया
▁गुसु ङै
▁पि. टि.सि.ए.
▁रामोन ्द
▁ट्राइबेल फोरनि
▁फोनां जाब
▁बेखेवग ाथाम
▁देरहा साद
▁नेह ाद
▁सायाराम ,
▁फारनै जों
▁धोन -दौ
▁कल ंख
▁थारै ब्ला
▁फांथे नानै
▁भुग ि
▁अनज ालि
▁दुपसाव फा
▁आरतिया ।
▁थांग ासिनो
▁बङाइ गाव
▁फालांग िरि
▁पुर ाना
▁सेना पति
▁साफ्रा सी
▁फोथायखेब सʼ
▁अलि म्पि
▁नेट व
▁एफाग्रा फ
) नि
- थु
- खाव
6 .
g h
ʼ नाव
आ खै
क ल
क जों
ख ाया।
ग ोर
ग ्लां
च र
ज म
झ ारनि
ट ेल
थ ानानै
न ।
न ाल
फ ायो
फ ार्
म ती
र ोम
ल ानानै
स ुर
ह म
े ष्ट
् न
▁ ढ
ाय नि
ान ांगौ
▁ग ाग
▁ग ्रा
▁ग ाला
▁ग ोना
▁म ृ
▁म ाजों
▁ज ोग
▁आ थ
▁न ।
▁न बे
नो ।"
▁बि बा
▁बि ल्डिं
▁ख ाला
▁ख ायनो
▁ख ाइला
नाय मोन
▁फ ब
▁फ ्रि
▁फ ुर
▁फ ेल
▁बे सोर
▁र न
▁र ्
▁गो खै
ाम ोना
सि स
न् च
बाय ाव
बाय ो।
▁मोन सिंसिं
▁सि खां
▁सि -जोम
ाह ां
▁ला क
▁ला फा
्रा ।
िर िनि
▁मो ख्रा
▁सान ाव
▁सान राय
▁सान नै
▁उ ,
▁" इ
▁" हाब
▁" थौ
▁होन ांगोन
▁क ाल
▁क ुम
▁बुं खो
▁खालाम ग्रा
▁खालाम नायखौ
▁खालाम गोन।
▁गाव जें
ोब ै
▁जाय फ्रा
ले टा
▁- बुं
▁मा स्थार
▁हाब ो
▁हाब नो
▁जा थि
▁जा फै
▁( मे
▁प ाल
हर ा
▁गोसो वा
▁जि ङाव
▁दं ब्ला
▁मे न
था ।
▁बाथ रुम
▁राव आ
▁लोग ोनो
▁से न्ट
▁से याराव
यै ,
जो ङै
▁लोगो फोरजों
▁सु थ
▁सु लाद
लि ,
▁हर दों।
▁बार ाव
नायाव ।
▁बिब नां
नै ,
बाव बाय
▁अन थाइ
▁दिन ाव
▁बिसोर ।
▁हाग ्र
▁थानाय सै।
▁गोनां थार
▁गैया मोन
▁गैया जासे
▁दिनै नो
▁हा थि
▁हे ला
▁दाव गा
▁दाव खो
▁भ रम
▁दोन ्नानै
▁दोन खोम
▁जौ खौ
▁लिर नायाव
▁राइजो फोरखौ
▁थै यो
▁हां सो
नांगौ ब्ला
▁जोब नानै
ब्र ब
▁माबा -म
▁आंखौ ।
▁मिनि नो
▁मिनि यो।
▁खोम ानां
▁सोदोब ।
▁सोदोब जों
▁सान् ति
▁हिन्जाव फोरा
▁श र्
▁फोरमाय ग्रा
-फ ाव
▁"आ दा
▁खन थाम
▁सै ब
▁बेखेव गासे
▁अज ाया
-ब ाथ
▁बान बुं
▁गां फा
नां बाय।
▁थाब ै
▁खाव नानै
▁खै ला
▁बिह ारि
▁रै सुमै
▁लाबो दों।
▁लाबो यो।
मु नि
▁एम फौ
हाब नाय
▁हु दा
▁हु खुम
▁थुनलाइ खौ
▁गलʼ खौ
▁सिख्ला खौ
सोम नानै
▁हाथ र
▁कम् पान
▁बिजिर गिरिया
▁हाल म
▁थाइ जा
▁गर द
▁गर न्थ
▁सोरजि नाय
▁लाय ाब्ला
▁"आं नि
फ्ल ानानै
▁बिनानाव ।
ोगोर ा
▁आल ारि
▁हेफाजाब ै
ब्रा ।
▁नोगोर मायाव
▁खान ाया
▁अब थिरा
▁बिस ान
▁गाय सं
▁गिदिं बाय
▁माद ै
▁लान ांगौ
▁........ ..
.ए ल
▁बह ननानै
▁नाजानाय ाव
▁बुब ्लियाव
▁दिल्ल ी,
▁हार् ड
▁जिन ै
हे :
-थ ुन
▁हुगार ो
▁सोङो -
▁गोजान निफ्राय
▁दिनैसिम बो
▁रबि बार
▁लुब ैया।
▁बिमाय ं
▁बिलिफां खौ
▁फटʼ खौ
▁ड्र यिं
▁रेन्ज ारा
▁मोब्ल ाव
▁जोलै नि
▁बैसाग ु
▁सेक स्पीय
▁प्रद ी
▁रह ेल
▁बिबाज ै
▁"क ल्प
▁बरग य
▁मोनज ाया।
▁कंग ्रेस
▁मोख थां
▁गगल् स
▁दाङ ाब
▁नबे म्बर
- नो
- खान्थि
- उन
. 00
7 .
O S
u t
ʼ वाव
ं ।
क ्ल
क ुट
ख ल
ख रा
ङ ाखै
ज ाइ
थ ेब
द खौ
द ाजों
ध ुर
प खौ
म ेन
य ,
र ाया
र ीयाव
श ान्ति
स नो
ह ानो
ह ोग
ह ैया
ह ाबा
ु ङाव
् ना
् जा
् बार
▁ k
ाय खौ
▁ब ौ
▁म ड
▁ह ब
▁ह ुम
ला से
▁न ाख
▁न निफ्राय
▁न ालाय
▁न ुमार
▁न -बां
▁द ायाव
▁द ाजा
▁द ालां
▁द ोमै
नो ब्ला
▁बि याव
▁बि बादि
▁बि दुं
▁बि दाया
▁बि दानि
▁फ ालाय
▁फ ्राय
▁र ोग
ाज ्रि
▁मोन ब्लानो
▁मोन लायनाय
▁अ ंग
▁अ भार
ाग ासिनो
ानि या
▁सि नो
▁ला गोन।
▁ला गायनानै
्रा ,
सो गार
▁नों सो
▁नों खि
ना ङो।
▁" थां
▁होन बा
▁क ाज
▁क ृष्ण
▁बुं लां
▁बुं नायखौ
▁खालाम दोंमोन।
मा स
▁सम ।
▁मा -
▁मा स्ट
▁थां दो।
▁मि न्थिया
▁हाब ाव
▁जों नाय
.... ।
▁फै स
▁फै लाय
▁जा सेनो
▁मान नि
▁( 4)
▁जे निबो
▁इ ज
▁इ ट
▁इ सारा
▁नाय थिं
▁नु हुर
▁सो ला
▁जि गाब
▁दं बावो।
▁मे ला
▁मे इन
▁थाख ानाय
▁बो यो
▁बो खांनानै
▁बरʼ खौ
▁बाय ह
थʼ ।
▁दै ख्रं
ारी खौ
▁माव ख
▁सु थि
▁हर दों
▁हर बाय।
▁बार नो
▁दे ंख
▁अन नायनि
▁' न
खि ,
▁मु ङाव
▁हम ो
▁हम दों
▁हम बाय--
▁मिथि यो
▁मिथि यै
सार नि
▁ड ʼ
▁जाबाय मोन।
▁गाब दों
▁बाह ागि
▁रो ङा,
▁हा दोंमोन।
▁हे द
▁जानो ,
▁मुं मानि
▁ओंखार ो
▁भ ाव
▁दोन ै
▁दोन दों।
▁दु सि
▁गाम ाखालि
▁गार हर
▁सुब ि
▁नि द
▁जिउ वाव
▁सिख ोम
▁आब हावा
▁आइ -आ
▁गेजेराव बो
थिया ।
▁लां दों।
▁खार नाय
▁खार बोनाय
▁खौ राङा
▁बाव नानै
▁खोम दोना
▁सान् थि
▁जान जि
▁खामानि फोरखौ
▁होनाय सै।
▁नागिर बाय
▁नागिर ना
▁खु थार
▁श ्री
▁दुखु खौ
▁बिख ं
ब्ल ाया
▁"आ इ
फुं नो
फि ना
▁बोसोर से
▁फु ट
-ग ि
▁बाहाय नायखौ
▁सं नानै
▁सेर जों
▁सिं ह
▁दर बासिया
▁बिथां मोन
टि क
्म ी
-द ुम
-स म
-ब ाग
▁बाहागो खौ
▁गां नाय
▁गां सो
नां बाय
▁फं बाय।
▁फं नैसो
▁दुर् गा
▁जʼ नानै
▁जʼ यो।
▁बिह ाव
▁फा फि
▁बाग ान
▁बाग ्लाय
▁बेनो थʼ
▁मन ʼर
▁मानि नानै
▁हौवा सा
▁मलेन ,
ंगा सिनो
▁जाब ावनो
▁थाइ नै
▁दाजाब दाया
▁हि उ
▁दो हो
-आ रि
▁सोरजि नो
▁फारि याया
▁सार ।"
जे बो
▁औ वानि
▁गय थिखौ
▁बाइ जो
▁बैसो आव
्य ानि
▁थाल िर
▁बुर ्लुं
▁आथिं खौ
▁ट्रे जे
▁थुनफावथाइ या
▁बोलो जों
▁व ेब
▁बिथिं खौ
▁दुब ्लियाव
▁फां से
खाङो ,
नायसै -
▁राजखान्थि नि
▁राजखान्थि यारि
▁लिरगिरि फोरनि
▁हाजो आव
▁अख्रां नि
▁अनि माया
▁दुग ा
▁खुन ु
▁दंमोन ,
▁गेट ाव
फिनो -
▁इयुन नि
▁खावलाय दों।
▁पे केट
▁थर थिं
्लिक ेसन
▁हेम लेटा
▁खेर ाइ
▁जिराद खौ
▁आनाराम नि
▁जाद ब
▁गोर्बो नि
▁गोर्बो आव
▁बेखेवग ाबा
▁बद माइ
▁काम रु
▁महनला लनि
▁हौ वानि
▁जʼरा से
▁सुग ्लाय
▁दोनथʼ नानै
ांग्र ो
▁एम् बु
▁बिथ राइ
▁बेंग िरि
▁सुइ साइ
▁भुग िनां
▁आगो लाव
▁द्र इं
▁एप ्लिकेसन
▁दल र
▁फुदुं नानै
▁हरबिला सा
▁गोजांस्रि व
▁नेव सि
▁सोरब ाबा
▁सेक्सपीयेर नि
▁खेंख ्रा
▁प्राइ भेट
▁डाइरेक्ट रि
▁नंमार गौ
▁अमब्र ाग
▁कर्ण िया
▁मबे बा
▁हाथि यार
▁माबा-म ाबि
! !
- फ्राय
- सा
5 )
o p
r u
ख ोनानै
ङ ाखिसै।
ज ं
ज नि
ज ाबाय।
ज ्राब
ट ्‌
त ीया
ध ा
न ारी
प ाव
ब ुर
ब िन
ष :
े ले
् स
▁ .
▁ब ोब
▁ब र्
▁ब ारिनि
▁स ाथ
▁स ंग्रा
▁ग ारामा
▁ग ागि
▁ग बʼ
▁ग हेना
▁ग ब्लं
▁ज ालिया
▁ज वान
ार जों
▁ह क
▁ह स्रि
▁आ जाय
ला सिनो
ला फाद
ला ंगोन।
▁द खर
▁द ामोन
▁द ागि
▁द ांग्र
▁बि ट
▁थ ेब
▁थ ोनाय
▁थ ुंग
▁थ ाब्लाबो
▁ख ोर
▁फ ाद
▁फ िन्
▁र य
▁र ायनो
से व
से लʼ
▁गो यै
▁ल ायाखै
सि याव
सि यार
सि येल
्ला ,
्ला स
▁मोन ग्रा
▁मोन नांगौ
▁मोन लो
▁मोन खाङो।
▁आर ्
▁अ :
▁आं दि
ाल ाव
▁सि ङा
▁सि ंख
▁सि याराव
बा सिनो
▁ला ंख
▁ला गो
▁ए रा
▁ए ष्ट्र
▁नों खौनो
▁मो नि
▁सान खो
▁सान जाहा
▁सान -हर
▁उ वाल
▁" फा
▁होन ो।
▁क ेन
▁बुं लांनाय
▁बुं जासे
▁जाय ोमोन।
▁थां खु
▁थां हां
जि क
▁जा त्र
▁जा सुला
▁हो दोंमोन
▁हो दो।
▁हो लाङो।
▁हो ख्रां
▁( A
▁( P
▁इ ज्
▁नाय ग
▁नु वा
▁जि बार
▁बो यो।
▁बो जोंनि
▁आख ि
▁आख ला
▁सा फ्रोमबो
▁बरʼ ,
ालि नि
▁दै सा
लि ।
▁दा क्ट
▁दे उ
▁गु द
नायाव ,
▁बिब ानाव
ङै नो
लां दोंमोन।
▁मिथि नाय
▁गोद ोन
▁दि ,
▁ट ्रा
▁गाब ्रै
▁गाब ख्राव
▁बेखौ लʼ
ार् ज
▁हा -ह
▁जानो सै
▁दाव हार
▁राइ फ
▁ओंखार लांनाय
▁मानो ,
▁खाम फ्लाय
▁जौ वा
▁जौ गा
▁जौ साय
▁फराय ग्रा
▁जिउ वा
▁जोब बाय।
▁गै थार
▁गै जारोङै
▁सुबुं आ
▁अर खौ
▁राय ज्लायनो
▁आखु थायनि
▁खार ाव
▁बाव ैसो
▁गोदान खौ
▁बाज ैया
▁बाज ाराव
▁जान ुव
▁नागिर ै
▁दान स्लाय
▁खु द्रि
▁बां -सानराय
▁च ौ
▁बिमा ,
▁जु लाइ
▁माइ ल
▁प्र फे
▁खन नै
▁खन साया।
ेस ्ट
ेस ालि
▁आलाइ या।
▁गोग ्ल
▁मै खोम
पि टाल
्म ि
▁बेखेव गाब्रै
▁सिरि यै
-स ानै
▁लामा -स
▁थार ।
▁बान ानि
नां दों
▁मुलुग खौ
▁नांगौ ,
▁हांखो आ
▁रि ंगा
▁समाय स्रीया
▁मालाय जों
▁खै सार
▁जʼ यै
खाय सो
▁रा ङा
▁गोग्लै बाय।
▁गोग्लै सोनानै
मि ना
▁नं ला
▁नं ला।
▁होम ्ब
▁गʼ लाम
▁मुग ा
▁मद ाराम
▁जें नानि
▁फान नानै
▁दाजाब नाय
▁साइ ख
▁रोखोम से
▁बिजाब नि
▁सोलों थाय
▁अन् नायखौ
▁नार् स
▁गसं नो
▁गाहाम ै
फ्ल ायाव
▁लिं नानै
▁आनारी नि
▁जारिमिन ाव
▁दौ दिनि
▁दाउ बʼ
▁रों ग
▁बिनानाव नि
▁आल म
▁आल ौ
▁टे क्
▁बोराय खौ
▁सʼ नानि
▁टि वा
▁गुर ु
▁खर सा
▁नंगौ ,
▁थाखो आव
▁आथिं नि
▁ट्रे क्टर
▁जालां दों।
▁फंबाय खौ
▁गोथौ यै
▁जिब ख्रि
▁सोमजि नाय
▁थुनफावथाइ याव
en c
▁स्ट े
▁खान्थि नि
▁बुंहर ो
▁होयो ब्ला
▁रिंसार खौ
▁बिम ुं
▁आनजाद ाव
बु थुर
▁नाजा दोंमोन
▁गुन्दा ,
▁हायाखै मोन
▁थों जोङै
▁साखा थि
▁खुर मा
▁गोब्राब ।
▁नर ेना
▁सुखु -दुखु
▁तिताग ुरिनि
▁गेट नि
▁प्रेमध रनि
▁नाम ्बार
▁बैस ागि
▁सेव ारिया
▁p l
▁बाब ्राब
▁गथाय नानै
▁रंजालि नि
▁गावबा -गावनि
▁ओरै बादि
il o
▁सम् प
▁दार ʼ
▁आजाव नो
▁पाब्लिक ेसन
▁भि .
▁गसाइ या
▁हेमलेट नि
▁बुब्लि यावनो
▁माउ जि
▁ओंखारलाङो )
▁आगो लनि
▁एप ्रि
▁प्रद ेश
▁मनʼ महन
+आ =
▁जानाय-लों नाय
▁सोरजों बा
▁दरबासि खौ
▁ब्रेक फा
▁बुदार ुवा
▁सोर् जि
▁बिजाम ादै
▁आइक ʼन
▁बांलादेश ी
▁अरदाब ाव
टेक टिभ
▁सुथ ुरा
▁सैब ारीया
▁सिंख ाव
▁प्रफे सार
- 0
- ला
a b
o c
ʼ नो
आ ले
उ ,
क न
ग नि
ग ं,
ण ि
त ाव
न ार
प ार्
ब ाथ
म न
र ,
ल जों
ल िस
स .
स ुब
स ुल
ह ागौ
े से
े दि
े स्वर
् ग
▁ /
▁ U
▁ वा
▁ यै
ाय ण
▁ब ुरि
▁ब जबनानै
▁स नानि
▁स भानि
▁ग राय
▁ग ्रे
▁ग बिन्द
▁म स
▁म रनि
▁ज ुलिनि
▁आ मु
ों गो
▁न ोर
▁न ांग
▁द न
▁द ंखाय
▁द ोगोन
▁बि नाय
▁थ ब्ल
▁ख ाथ
▁ख ानो
▁फ न
▁फ ख्रि
▁बे ब
▁बे लʼ
▁बे ण्ड
▁ल ुन
बाय मोन
▁मोन लों
▁मोन ाखिसै
▁अ ना
▁अ क्त
ाख ो
▁सि गि
ाह ैनो
▁ए न्ट
्ल े
मोन ै
▁नों गौ
▁सान खालि
▁" मोन
▁" बु
▁बुं फिन
▁बुं फब
▁खालाम ।
▁गाव हा
लाय ै
▁सम ि
▁मा ।
▁हाब नाय
▁फै यै
▁फै दों,
▁( ह
▁प ु
▁प केट
▁इ ,
▁इ सि
▁इ राम
▁नाय नि
▁गोसो यै
▁गे म
▁गे दाइ
नाव बो
खां ब्ला
▁आख ʼ
▁आख ान्थि
▁गि यो
बि यो
▁दै माया
▁गुब ुं
थाय ो
थाय ।
▁माव मोन
▁माव नायाव
▁सु वा
▁सु पार
▁थाखाय सो
गा सेयाव
सा दि
▁बिब थै
बाव नाय
बाव दों
▁' ए
▁' ज
▁' बि
▁आंनि ।
▁मु व
▁बिसोर हा
▁मिथि सʼ
ख्र ेब
▁दि ग
▁था सʼ
▁ट ्रि
▁जानाय मोन।
▁सोम खे
▁लानानै सो
▁गाब दों।
▁गाब नायखौ
ार् थ
ार् भ
▁खा फाला
▁जानो बो
▁जायो। "
▁दु थां
▁खाम ाय
▁गार नाय
▁हारि याव
▁हारि यारि
▁हागौ मोन
▁आब ्रु
ेल खौ
▁नʼ खौ
सु ला,
▁रां -रु
▁नां बाव
▁आन ज
▁आखु फोरा
▁खार गʼ
▁मिनि यो
▁बाव दा
जोब बाय
▁माह ारिया
▁गथʼ फ्रा
▁हिन्जाव फोर
▁हिन्जाव फ्रा
▁दान सʼ
र् ज
▁बां सिनै
▁जाया खिसै
▁गाज्रि ।
▁जाह ोना
▁फिसाज ्लानि
▁लों बाय
▁लों ग्रा
▁आस ʼ
▁ध र
▁जु व
... "
ाखै सै।
▁"आ रो
▁प्र म
▁फु वा
-ग े
▁ले फे
▁बाहाय नायाव
▁सं नाय
▁सं स्क
▁सेर ावनो
▁सै नाय
▁नोंथां मोननि
▁बिथां खौ
▁बेखेव नो
▁खुग ानि
▁रि ज
▁रि ंखां
▁गंसे याव
▁सौ है
▁गामि निफ्राय
▁माहाज ोन।
▁हु क
फ्ला इ
▁आथि ङा
▁बेल स्री
▁बेल श्री
▁खि ला
▁थांनो सै।
▁सोलाय ो।
▁गिबि यावनो
▁सिख्ला ,
▁हाथ ाव
▁हाथ ेर
▁खेब नि
▁गʼ स
▁बिलि द
▁गाहाय ।
▁लाइज ौ
▁बसुमत ारिनि
▁जें नाजों
▁जाब ोनो
▁जाब ोनाय
▁लाजि नानै
▁थु नानै
▁थाइ जौ
▁जायगा फोराव
er s
▁थांखि खौ
▁डि जि
▁सिम ना
ोन् दा
-र ो
▁सार ।
▁जोहोलाव ।
▁दाउ दै
▁जाथाइ या
▁बान् दा
▁साल ाया
▁गाख ोनाय
▁नार ें
▁मुवा खौ
▁गस ङो।
▁मन्थ्रि नि
▁उद या
▁उद ुराम
▁"नों नि
▁गुर लुब
▁खुं नाय
▁जेंना फोरखौ
▁उन्दै निफ्राय
▁रामनाथ खौ
खाव रि
▁ट्रे न्स
▁गिदिं नानै
▁लान थ्रियै
▁गान् नानै
▁बिदा खौ
▁बिदा -फं
▁थुलुं ग
▁थुलुं गानि
▁फिसाइ या
▁खुलुम नानै
▁गुवाहाट ीयाव
▁सिखार ो
▁बिम ाजों
▁कलेज निफ्राय
▁हादर खौ
▁बुङ ाखिसै।
▁मुलि याव
▁खुर नानै
▁सिबि नाय
▁अनि म
▁फैया खै
▁फोरम ायो
▁गोरलै यै
▁सिथ र
▁मोनथि नो
▁गोथां ,
▁फसं थान
▁रेब ग्रा
▁फाथ ै
▁बाब ां
▁मोनाबिलि नि
▁बोराइ दब
▁अरुन ,
स्लाब नो
▁बांग ्रि
▁कʼ कराझार
▁m e
▁M S
▁बि. टि
▁जथुम ्म
▁Window s
▁हौ वाया
▁एबसु वा
▁आदै ,
▁दर् बासिया
▁रौ निया
▁खान् थाल
▁राख ेब
▁पार्ट ि
▁नुज ाहै
स्ला बा
▁मिलि टारि
▁इण्ड ि
▁इसोर नि
▁लर ेना
▁थिख ादार
▁साद ु
▁देगार खौ
▁खोमोर नो
▁लक्ष ीम
▁सिलि ंखार
▁बोखार नानै
-बा दाव
▁प्रसे न
▁हामब ुरा
▁सुजु नाय
-नि -फ्राय
▁उसु -खु
▁गावराव ा
▁गैला मोन।
▁इन्जिनि यारिं
▁गाजा -गोम
▁परिष दनि
▁बारहुं खा
▁दाथ ां
▁नारे ंग
▁आमेरिक ानि
▁जोबथ ेसालि
▁किटसे नाव
qu y
▁गय-फाथ ै
-लाइ फां
▁गाड़ ी
▁चित्त रन्जन
▁इन्ज ुर
▁कास्त मार
▁गोनोखोआरि फोरा
▁जेनेर ेल
gh t
▁मनʼर न्जन
▁अमब्राग ं
▁एष्ट्र ाग
▁जात्र ाग
▁हा-ह ु,
▁दावहार ु
▁उसु-खु थु
▁अनि ल
- D
- रि
- दां
- लु
. पि.
6 )
a d
e p
उ न्द
क ट
क म
ख ुं
ख ुंगुर
ज य
ज ोन
ट ेम
ड नि
ड िस
थ ं
न ाथाय
फ ान
फ िस
फ ्लि
भ ाया
म ै
य दा
र ीया
स नानै
स ाम
ी ।
े लि
ौ ,
। )
▁ ऋ
▁ब ाबा
▁स ल
▁ग ्ल
▁ग ्रें
▁म बाइ
▁ह ोंगो
▁आ बो
▁आ दि
▁न ारा
▁द द
▁द हायनो
▁द लद
्र ोद
खौ लाय
खौ थʼ
▁थ िस
▁ख बʼ
▁बे मा
▁र ाखा
▁गो स
ाम ानो
▁ल ख्रा
थि नाय
दि -
बाय ो
▁मोन बो
▁मोन दों,
▁आर ांग
▁आर ʼज
▁अ व
▁अ मि
▁अ जाखौ
▁अ ंगुबै
▁आं ना
ाल ,
▁ला म
▁ला फिन
▁ला गासिनो
▁ए नै
सो ल
▁नों दि
▁उ थुम
▁" बोर
ुर ुब
▁होन लाय
▁होन ब्लानो
▁होन जायो।
▁क न्
▁क ्रि
▁बुं सो
▁बुं बावनो
▁खालाम नाय,
▁खालाम जानाय
▁खालाम बाय,
▁गाव नाय
▁सम निफ्राय
ले ब
▁थां नाया
▁मि लौ
▁फै फानाय
▁हो ब्लाबो
▁हो बाय,
खा दोंमोन।
▁बु दों
▁नाय गार
▁नाय हाब
▁नाय दाव
▁गोसो खांनानै
▁नु थाइ
हा ट
फा दों
फा दों।
▁दं सै
▁मे ब्ला
▁ओ न्
▁सोर ाव
▁सोर नाव
▁राव -थुन
▁बरʼ वाव
थʼ व
▁से खʼनानै
थाय ाबो
▁माव ा
▁माव दों
▁माब ि
▁सु नो
▁थाखाय लʼ
फै गोन
▁बार जों
▁आंनि याव
▁मु वानि
▁दिन नि
▁दिन ै।
▁फोर खौ
▁मिथि होदों।
▁मिथि खागौ
▁गोज ोर
▁थि फु
▁थि खिनि
▁था ,
▁था ङै
▁फो थ
▁गाब नायनि
ब्लाबो ,
गिरि फोरनि
▁बेखौ सो
▁जो ङो
▁जाग ि
▁हाबा ।
▁समाव बो
▁हे ड
▁ओंखार लांबाय।
लाव रिनि
▁गाह ाया
▁खाम फ्लाइ
▁जौ ,
▁गाम ोन
▁लिर गिरिफोरा
▁फराय ो।
▁थै नानै
▁थै नोसै
▁आफ ोद
▁2 8
▁आब ्रा
▁आब ैया
▁आइ लि
▁नʼ -बां
ब्र ु
▁अर नानै
▁खार खोमा
जोब नाय
▁सोदोब आ
▁होनाय ,
▁खु दि
▁गोम ाज
▁बिख ानिफ्राय
▁जाह ोनाय
▁जाह ैनो
क् ‌
▁च ेन्ट
▁राज ाजों
... ।"
▁सिगां निफ्रायनो
▁बुङो ब्ला
▁फावथाइ या
▁फु न्नानै
▁रु मा
न्दा ,
▁दङ ,
▁मोस ाया
▁आय दाया
▁सेंग ्रानि
▁मै सो
▁नोंथां मोना
▁नोंसोर नो
▁थार ुन
▁एर ेष्ट
▁थाब थ
▁थाब ावनो
▁मुलुग ा
▁रि क्सा
▁बिह ावखौ
खाय से
▁रा ङारि
▁सेंग्रा ।
▁लाखि नाय
गो सो
▁फिन खौ
ज्लाय नाय
▁सोलाय नो
▁खाय दा
▁रे जि
▁सिख्ला ।
▁होम ब्लानो
▁फे जेन
▁साय ना
▁राजा ,
▁ददेरे या।
▁बिजिर गिरि
▁हाल िया
▁जें नाया
▁जाब ्र
▁लाजि या
▁दाजाब नानै
▁बिजाब ाव
▁जारि मिना
▁थांखि जों
▁डि मा
▁अन् जि
▁अराय था
▁बिबार खौ
▁फुं बि
▁फुं खाया
▁बिर हां
▁गेले नाय
फ्रोम खौबो
फ्ल ं
▁बिनानाव ,
▁हगार सार
▁सुर थ
▁सुर ो।
▁खोमसि या
▁मन्थ्रि या
▁मोनबाय -
▁हिस ्रि
▁सानो ,
▁थाल ो
पुर ाव
▁बिस नायाव
▁"म ो
▁गारि याव
▁फोसाव दों।
▁ट्रे इ
▁दानाय नि
es ,
▁बुजि या
▁नाङा ,
▁बें पार्
▁गोब्र ाबै
▁फावथि नायाव
▁सोमावसार नो
▁थुलुं सि
ʼर ्ट
▁देरह ाग्रा
▁नायगिर नाय
डि .
▁साइकेल जों
▁हारिमु ,
▁दिल्ल ीनि
▁गाइखेर ाव
जाथ ार
▁समबार ुवा
▁स्क ्रि
▁स्क ्रल
▁7 .
▁S t
▁फान् नानै
▁'आ शा
▁रुवा थिखौ
▁हाग्रा -ब
▁खालाय नानै
▁गोलै नानै
▁गेट खौ
▁गाग्लोब नाय
▁गाग्लोब नायनि
▁फालांगि याव
▁कमाण्ड ।
▁जिल्ल ायाव
▁सेव ारिनि
▁ओंखारबो यो।
ज्ल ायो
▁होआ ।
▁खानाय ाव
▁ऐ खालि
▁फाख ्रि
▁टेबि लनि
▁गावबुर ानि
it y
▁रम ेना
▁मावफुं नो
▁बिनाराम नि
▁बथ लखौ
▁जौगाखां नायनि
▁(ग )
▁गम ामा
-ए नै
▁अनजि माया
▁रेल वे
▁आन्दा ,
▁साजाय नानै
▁मोब्ल ावा
▁सिफाय नानै
▁मोसाह ारिनि
▁बेखेवगा डʼ
▁आरि मु
▁दोलो आ
▁ओनसोल फोराव
कुम ेन्ट
▁डाक्ट ार
▁हज्रि खाव
▁थुं गि
▁इन्जिनि यार
▁सय थि
▁सिफ ायनो
▁y ou
▁y our
▁बाथ्राय ानो
▁सुव ामि
▁गुस्लाय नाय
▁E x
▁जोबथार नायाव
▁सोदोम स्रि
▁उसाव -बादाव
▁लेबʼरेट रीयाव
▁नम्ब रि
▁मुसु खा
श्र ीया
▁खंख ्ला
▁अनाग ारि
▁एम्ब ुवा
▁धोर ोमा
▁बिस्क ुट
▁मोगथा ङाव
▁-बुं नानै
▁बुर्लुं बुथुर
▁इज् ज
▁ट्रा ष्ट
▁ब्रेकफा स्ट
' खौ
) :
- से
- जों
- थाइ
- नाथ
- 30
7 )
c om
i es
i al
w w
उ री
ख ायो
ज ब
ज ाइनि
ड ेम
त े
त ्‌
थ ानो
थ ्रा
ध ्य
न ागौ
प ानि
प ेन
फ ाग
फ ्ट
ब ारियाव
म ाना
म ारा
म ʼन
श ि
श ी
श ्य
स ब
स य
ि ला
ु ड
▁ *
▁ or
▁ब खʼ
▁ब न्ध
▁स लि
▁स बाइ
▁स ्लिम
▁ग थ
▁ग ल
▁ग ानो
▁ग ्रिद
▁म ाग
▁म िन
▁म णि
नि क
नि ।"
▁ज नाय
▁ज ांग
▁ज ाब्लाबो
▁ह स्
▁ह ब्र
▁ह ारा
▁न ाजाब
▁द ोम
▁द ाथाय
ां नाय
▁बि य
▁बि ना
▁बि ल्
▁थ ोब
▁थ ालाय
▁थ ायै
▁थ ें
ाब ाव
▁ख ुम
नाय बो
▁फ ज
▁बे ज
▁बे सो
▁बे मार
▁बे जोंनो
▁र िन
▁र सा
▁र ुबै
बो बाय।
से खौ
▁गो फोन
▁ल ेर
▁ल ुग
सि ङा
दि न्थि
▁मोन ा,
ाथ ों
▁आर तिनि
ाख ʼ
▁सि उ
▁सि ग
▁सि त
▁सि नि
▁सि खौ
▁सि थाब
▁सि ग्लाब
▁ला ल
▁ला ।
िर ाम
मोन ा।
▁नों बादि
▁नों हालाय
ब्ला उ
▁सान फा
▁सान दोंमोन।
▁सान नायखौ
▁सान ाखैमोन
िस ोर
▁" मान
▁होन ै
▁होन ांगोन।
िन ाव
▁क स
▁बुं फोर
▁बुं लाङो।
▁बुं जायो
▁बुं फिनो-
▁खालाम दोंमोन
▁खालाम गासिनो
ाद ा
▁जाय ाब्ला
लाय दों
लाय दों।
▁थां दोंमोन।
▁मि ब
▁हाब लाङो
▁हाब हैनानै
निफ्राय बो
▁फै दोंमोन।
▁जा सिगोन।
▁जा सिगोन
ंख ाम
▁हो लाङो
▁( अ
▁( र
▁प ान
▁प ्ला
▁नाय दों
▁नाय नायनि
ाबो ला
▁नु दों।
▁नु दोंमोन
▁नु नायाव
▁नु सन
▁गे साव
▁सो लʼ
फा खौ
▁दं सै।
▁सोर मा
▁सोर बाया
खां दों
▁सा फि
नायनि ,
▁बाय ो।
ालि खौ
▁-- '
फोरखौ ।
▁दै ,
▁दै दे
▁से नो
ारी ।
▁लोगो खौ
▁लोगो फ्रा
▁लोगो -ल
▁सु दʼ
लि म
▁दा सि
▁हर ।
▁हर नायनि
▁बार ʼ
▁बार न
▁दे हाय
▁मोनसे नि
▁बिब ोनां
▁अन फाव
▁आंनि नो
▁मु जि
म् बार
▁गुबुन जों
▁मोजां ,
▁मिथि होनाय
बे श
▁थानाय ावनो
▁दि ना
▁थि ंख
▁थि ंगिनि
▁फो ल
▁ट ेनसन
▁ड कुमेन्ट
▁सोम ोनां
हो बाय
▁गोनां ,
ेन ,
▁फाव दुर
▁1 00
▁हा सुं
▁समाव ।
ेव बो
ेट िक
▁ओंखार दों
▁ओंखार दों।
▁दोन खार
▁खाम ग्लि
▁खाम फ्लायाव
▁लिर ो।
▁लिर दोंमोन।
▁राइजो -
▁नि राम
▁हागौ मोन।
▁आब हाव
माय ानो
ग्र ं
थाव ा।
▁आइ दिया
▁आइ जें
▁बेसे दि
▁सों दों
▁सों नायाव
▁दिन्थि नायाव
▁नां थाव
ब्र ʼ
▁खार दै
▁सोदोब फोरखौ
▁जाह ोनानै
▁च ा
दां ।
▁लों खां
▁ध म
▁ध ुब
सिं ,
▁मह ननि
▁खन सेबो
▁फु द
▁त ा
▁त ुला
▁ले बेल
▁फि ट
▁ने नो
▁सेंग ्राजों
▁फारसे ।
ामोन ,
ामोन हा
▁आव थायनो
▁नाज ान
▁नोंथां ,
▁खरʼ वा
▁गोजौ याव
▁उन द
▁उन -उन
▁जोनोम गिरि
▁माथ ा
▁नांगौ ब्ला
▁ओंखाम खौ
▁हांखो फोरनि
▁बिह ावनि
▁खिन् थायो।
ुरि ,
▁सेंग्रा फोर
▁हाय ार
▁हाय नारि
▁थाम जि
▁गलʼ आ
▁गिबि सिन
▁हार सा
▁साय ख
खान्थि ,
▁नायजाब ा
▁नायजाब गिरिया
▁बोहै थिनि
▁बिजिर सालियाव
▁जिराय बाय।
▁मन्जु वा।
▁हाल ेव
स्रां नानै
▁थु दो
▁मोननै सो
▁बोरै थो
यान ो।
▁डि .
▁डि टेकटिभ
▁अन् नायनि
▁बर फ
-र े
▁लाय नानै
▁होयो। )
▁पा ट
▁गाहाम ैनो
▁जोहोलाव ा
ख्ल ʼ
ख्ल ैनो
▁बिफा ङाव
▁जेराव खि
▁रों नाय
▁जाथाइ याव
▁बाजि निफ्राय
▁नार ज
▁माहाजोन खौ
▁औ व
▁बिखा खौ
▁खिन्थ ानानै
▁टे बोल
पार ्ट
▁मोसौ ,
फेर ाखै
▁गोरोन् थिखौ
▁संसार खौ
▁जाव ले
▁तुलाराम नि
▁खर थें
▁बुर जा
▁बानाय नानै
▁सांग ्रा
▁गिदिं बो
▁माबार ।"
▁सावगारि ।
▁फंबाय नि
▁थो आ
▁नाङा -फा
al l
▁गान् दा
▁आइजो फोरा
en d
▁बुथार नो
▁बुथार नायनि
▁........ ....
▁सोमावसार नायाव
▁कम ेदि
▁अजय खौ
▁फाहाम थाय
▁खान्थि जों
▁बिथिं नि
▁मनजु खौ
▁होयो ,
▁दोर ोद
▁नार्ज ारीनि
▁हान ाया
▁हान जानि
▁सुजुग िरि
▁जालाय खो
▁कि लʼ
▁रायज्लाय नाय
▁बिमा-बि फाया
▁हायाखै मोन।
▁6 0
▁सोलो जों
▁फिथाइ ,
ब्लि उ
▁सिबि नो
▁मिजिं खौ
▁S ol
▁सुथुर खौ
▁रुवा थिया
▁s t
▁खालाय नाय
▁बेग खौ
▁8 .
▁नुहर नानै
▁बायजो आव
▁होब ाव
▁थाद ो
▁आयै ।
▁फार्से थिं
▁अपार ेसन
ागोन ,
▁बिजों नि
▁गोल ्लै
▁नेम -खान्थि
▁रेब ती
▁रोङ ाखिसै।
▁"बि ब्दि
▁बोराइ खौ
▁I n
▁ग्र ोब
चि य
▁लान् थाया
▁बोख ्लाय
▁बुद ्र
▁बद नाम
स्व ाम
▁दिहु न्नाय
▁ओरै हाय
▁बुंदोंमोन -
▁जाथों सै
▁य ुम
▁सुन ै
▁रादाब खौ
▁फालो से
▁बिनहारी खौ
▁बेलासि याव
▁मिलि ट
▁फुन नांगौ।
▁प्रेमधरा ।
▁'स ान्दो
▁(19 8
▁साग ु
▁गिसि ब
▁मावफारिया फोरा
▁कन्ट ्रल
▁माम ाय
▁गालां नाय
▁रान् नानै
▁खाख ्ल
▁सुखे ,
ac e
त् ति
▁बं फां
▁जानगार ाव
▁गोजांस्रि उ
▁रमाय श्रि
▁ची ननि
▁"आर सा
▁बट ल
ना- खन
▁थासान्दि याव
▁सरख ारनि
▁एका डेम
▁पलि अʼ
▁हिर ʼ
▁बिजा थि
▁थफी -
▁ar e
-हारि मु
▁बरप ेटा
▁धोन-दौ लद
▁नेटव ार्क
फार् से
▁हालम ाजि
▁लामा-स ामा
▁आनज ्राय
-D OS
- दों
- खै
/ 1
B M
o ber
p h
p er
t ain
आ इ
क सार
ख ्लि
ग ारि
ग ुल
च न
च ा
ज िनां
त ानि
थ ब
द ी
द ोम
न ालाय
प ु
प ्
फ र
म थे
य ाना
र ्ल
व ो।
श न
स ल
ि द
ी यान
ो बो।
▁ $
▁ =
▁ e
▁ ँ
▁ झार
▁ re
▁ब ोन
▁ब नानै
▁ब ंग
▁ब खि
▁ब ालां
▁ब क्स
▁स नि
▁स ंख
▁स ोनाय
▁ग ांग
▁ग सा
▁ग िरि
▁म ुब
▁ज म
▁ज थʼ
▁ह ानानै
▁आ नो
▁आ नै
ला त
ला जों
ला ंगोन
▁न ल
▁न ोग
▁द ाज
▁द ्राइ
▁द हम
्र ोम
ां ,
नो बा
▁बि स्रि
▁थ ग
ाब ्रै
▁ख हाब
▁ख ाजि
▁ख ाथे
▁फ ्ला
▁बे न
▁बे हाय
▁र ाब
▁र या
बो गासिनो
से न
से म्बर
या सै।
▁गो था
▁गो थो
▁ल हेना
दि ब्ला
न् याव
न् नायनि
.. ।
▁मोन ानि
▁मोन फिन
▁मोन हाबो
▁मोन जानो
फोर बादि
▁अ ख
ाग िरि
▁सि थाबनानै
ाह ानि
▁ला ङो
ानाय खौ
िर िं
ाला सेनो
्ल िनि
▁? ?
ब्ला लाय
▁मो जोम
▁सान ना
▁सान गोन।
▁सान नैनि
▁उ लाफाद
▁" उ
▁" ला
▁" दा
▁" जाय
▁" जागोन
▁" जेबो
▁होन थे
िन नि
▁क ान
▁क लि
▁बुं दोंमोन।
▁खालाम खो
▁खालाम ा।
▁जाय हा
▁जाय फोरा
लाय नाया
▁थां थार
▁हाब हैयो।
▁फै ,
▁फै ।"
▁फै सालियाव
▁हो ,
▁( ज
▁( बे
▁जे खि
▁इ ले
▁इ स्ल
▁इ सादि
▁नु गोन
नाव ।
▁बा क
▁मे सिन
▁मे लानि
▁मे डि
▁सोर खि
खां दोंमोन।
▁नाथाय ।
▁बो खांनो
▁बो थ्रोद
▁आख ाया
▁सा -
▁राव नोबो
फोरखौ लʼ
▁से ं
▁से -सानराय
यै ।
यै सो
▁लोगो आ
▁माव ै
▁माव बाय
▁माव ब्ला
लाइ नि
▁सु खʼ
लि नि
फै दोंमोन।
▁हर ेन
▁हर मʼन
▁बार ाब्ला
▁दे द
सा फोरखौ
सा फोरनि
नायाव बो
▁बिब ारा
बाव बाय।
▁' बे
▁मु लाम
▁हम ख्र
▁फोर ा
▁हाग ्राम
▁मिथि खा
बे ना
▁गोज ोन।
▁दि खां
▁फो जों
▁जानाय जों
हो दों
▁गोनां नि
▁ना ङो
▁गाब बाय
▁बेनि बो
▁फाव जों
▁जो ङो।
▁जाग ा
▁जानो हागौ
▁दाव बʼ
▁ओंखार बाय
▁ओंखार बोनाय
▁भ ग
▁दोन खानाय
▁दु यारी
्रे ल
▁जौ मोन
▁जौ मोननि
▁लिर नाया
▁फराय बाय
▁फराय ग्राफोरनि
▁आब ्राम
माय ाबो
जाब नानै
▁जोब नायनि
▁बेसे ननि
▁सों नायनि
▁सों नाया
▁दिन्थि नायनि
▁नां नायनि
ब्र ाय
ब्र ुं
▁अर ाव
▁गोबां ।
▁फिसा फोर
▁फार ा
▁आखु जों
खै मोन।
▁बाव लां
▁बाव खुंग्रि
▁खालामनो ,
▁बाज ु
▁होननानै बो
▁गथʼ ।
▁मोन् थि
▁नागिर दोंमोन।
र् क
खोम ानो
▁गोम ानानै
▁जाया ,
▁गाज्रि यै
▁जाह ां
▁जाह ाज
▁मन् जुल
▁फिसाज ्लाया
▁खो ख्लैनो
▁मह िल
▁बय जोंबो
▁हानाय मानि
▁ले न्थ
▁बाहाय दों।
▁बाहाय नायनि
▁जिर ा
▁सं दान
▁मोस ानि
▁फि थ
▁ने पाल
▁आव ाराम
▁आव ग्रि
▁मै ला
▁मै गं,
▁नाज ाबाय
▁नाज ायो
▁नाज ागासिनो
▁बिथां खिनि
▁मेगन ,
-स ौ
▁नोंसोर ो
▁नोंसोर बो
▁थार जा
ीया ।
▁नै ,
▁गोहो ,
नां नाय
▁जोनोम नि
▁हाम थार
▁हांखो ,
▁हांखो आव
ुलि ,
▁सिङाव नो
▁रि ट
सʼ न
▁सौ रा
▁फा उ
▁समाज खौ
▁बाग दाव
▁खिन् थाया
▁खि थिर
▁साब ाइस
▁लाखि यो।
▁थुनलाइ गिरि
▁गिबि याव
▁नं थार
राग ा
▁गान हो
▁हार ाव
▁गʼ दाय
▁दाह ानि
▁हायो -
▁मिहिर ,
▁थु ,
▁थाव रि
▁गोरा ,
▁बिग ुमा
न्थ ानि
▁डि भ
▁सलʼमा ,
▁बर मा
-र ौ
▁सोरजि लु
▁गोलाव ।
▁लाइजाम नि
जे न्नाय
▁साख ि
▁बाजि सिम
▁दङʼ ,
▁थाङो )
▁औ ,
▁फोरों गिरिया
▁200 7
▁200 9
▁जुन ार
▁साम ब्राम
▁गोसोआ बो
▁हाबाफारि जों
▁गुर लाब
▁खुं नो
▁बुर खायनो
▁"म ाथो
▁गुन्द ामि
▁थुनफाव थि
▁गुम ैया
▁फोजोब नाय
▁ट्रे याव
▁जालां बाय
▁आम ो
▁ओं थियाव
▁बोथोर ा
▁बाथ्र ाजों
▁कम न
▁कम िसन
ख्रुइ बो
▁व ाइ
▁व ार्ड
ou n
▁दावबाय नायनि
▁दुं बुर
▁गोदो निफ्रायनो
▁साला ,
▁स्ट ाइ
▁खुलुम बाय।
▁मेहेर नां
जार ो
▁बबाव बा
▁माहारि याव
▁बह ाथो
▁लोम जानानै
▁रान नो
▁नाजा दों
▁रंजा ,
▁गोह ोगोरा
▁फाइ लनि
-ख ुर
▁गोमजोर ा
is t
▁बुङ ाखै।
▁मुंखʼ नाय
▁साह ाब
▁जादोंमोन ब्लाबो
▁सुखु नि
▁नोम ्
▁लिंहर नानै
▁लाव खार
▁8 0
▁आंखाल ाव
▁नुहर बाय
▁इयुन खौ
▁साफा -सानै
▁आयै ,
▁बिथा खौ
▁प्ल ट
▁राह ाया
▁जाबो दों।
▁एरैनो थʼ
ग्रो यो।
▁रेब तीया
▁खुदिया फोरा
▁थाइलालि आ
▁थागोन ,
▁जागाय नाय
▁जागाय जेन
▁नायबिजिर नो
▁w ord
▁अरुन खौ
▁c om
▁सुशान्त वा।
▁नाइ ट
▁लाह ारीनि
▁थुंग्रि खौ
▁गोबा ङानो
▁बुहुम ाव
▁दिहु न्नो
il l
▁नाल े
▁खालार खालि
▁फजʼ नानै
▁दोह ोन
▁जाल ्ला
ct ober
▁बराय नानै
▁सिथार नो
▁खोब नानै
ाजो आ
▁दुइ सिन
▁f or
▁आरति खौ
▁सफ ायाव
▁मारु ति
▁"ओ इ
▁कार जि
▁गोलोम दै
▁मनजुल ानि
▁पाकिस्त ान
▁सन्थ ाल
▁दैम ालु
▁नरेश ा
▁गिख्रं थाव
▁मनि पुर
▁सरासन स्रा
▁सुस्रां नो
▁बङाइ गाँव
▁भुम नि
▁गन तन्त्र
▁गुग ुरुब
▁रुफा थिया
▁झ ालु
▁नुब ्लानो
▁फिर फि
-हां खो
ay .
-फै लाय
▁बयनिख्रुइ बो
▁ग्रीमउइ गा
▁दरलाय नि
▁थिरां था
▁सावख्ल िया
▁नील कम
▁भ्लादिम िर
▁रेक र्ड
▁हायेन ारि
▁अलिम्पि क
▁हाग्र ामा
▁बरगय ारीया
▁कर्णिया खौ
▁दांग्र ोम
▁थुंग े
▁होम्ब ाना
▁pl ot
ilo quy
▁संस्क ृत
▁बिदा-फं बाय
▁अनिम ाया।
▁मबाइ ल
▁किलʼ मिटार
ctober ,
- ओ
- खौ
- मा
- लो
. com
5 0
: \
e g
e v
h o
x t
ं खौ
उ ननि
क स
ख ङाव
ग थʼ
ग ेन
ज ाबो
ज रा
ज ्रां
ज ाइन
ज िनांगौ
ड िया
थ ामा
द ाल
द ्रा
द ्रु
फ ाबा
ब ल
ब िया
भ ारत
भ ा,
य ायाव
य ाबा
य ाब्लाबो
ह ʼ
ु थि
ु ङा
▁ J
▁ u
ाय ारि
▁ब ख
▁ब स्
▁ब ोनाया
▁ब ्याव
▁स त
▁स ां
▁स ोनो
▁स ाबा
▁स ारनानै
▁स ुलु
▁ग ाल
▁ग लाय
▁ग ान्थि
▁ग ्लाब
▁म ान्
▁म स्ट
▁ज ुब
▁ज रʼ
▁ज ै,
▁ज ार्ड
ोन ,
ार ु
▁ह सि
▁ह यै
▁ह ब्रा
▁ह टेल
▁आ ,
▁आ थुर
ला फि
ला ंगार
▁न ट
▁द ायो
▁द खʼ
▁द ्‌
्र ुव
▁बि थायाव
▁बि लाय।
▁बि प्ल
▁बि स्ति
▁बि न्दो
▁थ ुम
▁थ ालि
▁थ ुरि
▁ख फा
▁ख ्लाब
नाय खाय
▁फ ाम
▁फ रा
▁फ ेब
▁फ ें
▁बे लनि
▁बे ब्दि
▁र ाखां
नानै ,
नानै नो
बो दोंमोन
बो दोंमोन।
या खै।
ाम ानि
ाम िनि
दों ना
थि खʼ
ाइ ज
▁मोन बाय,
▁मोन ाखैमोन
▁मोन जारोङै
ाथ ी,
▁आर .
▁आर ्ट
▁आर सा
▁अ भ
▁अ न्ज
▁आं नो।
ाख ्रि
▁सि मानि
▁सि कि
▁सि लिं
ेर नाय
ाह ागि
▁ला ग्रा
▁ए टा
▁नों -
▁? ''
्रि या
यो -
▁सान नांगौ
▁सान ाखैमोन।
▁सान थ्रʼ
याव ,
▁उ स
▁उ त्त
▁" सार
▁" थै
▁" दिनै
ुब ुन
▁होन ां
▁होन नाया
▁होन ब्लाबो
▁क ु
▁क पि
▁बुं फै
▁बुं नायाव
▁बुं नाया
▁बुं हां
▁खालाम नाय।
ोब ्लानो
▁थां नांगौ
▁थां फानो
▁मि .
ान् जाब
▁हाब ्ला
▁जों बाय
▁फै नायाव
▁( ओ
▁( द
▁( मो
▁इ न्स
▁बु यै
▁बु स्रि
▁बु दां
हर दों।
▁नु जानो
▁गे न्द
▁दं नाय
▁मे लनि
▁ओ ,
था से
ुग ु
▁बाथ ा
▁बाथ ुवा
▁बाय हेर
▁मानसि नो
▁दै फां
▁दै खाङो
▁दै खांनाय
थाय नानै
जो नि
जो ला
▁लोगो ,
▁माव ना
लाइ खौ
फै ब्ला
▁हर बाव
▁बार ग
सा से
▁गु थाल
▁अन गा
▁अन ारिया
▁अन सुमै
▁अन लायनायाव
▁गोर ायै
▁सलʼ जों
▁दिन निफ्रायनो
म् बि
▁थि उरि
▁ट र्स
वाव नो
▁जानाय लाय
▁जानाय खाय
हो आ
▁एसे नो
▁हाबा फारिया
▁दाव खा
▁भ ट
▁भ ा
▁भ बेन
▁दोन ो
▁दोन दों
▁दोन बाय
नायखौ बो
▁गाह ेला
▁दु खुन
▁लिर दों।
▁फराय ो
▁फराय नायाव
▁जानानै बो
▁थै नि
▁थै जों
▁थै गोन
▁थै ब्लाबो
▁हारि ,
▁हारि फोरनि
▁2 9
▁आब ारीनि
थाव ,
थाव ै
▁हां खुर
▁आइ .
▁नʼ आव
स् य
▁गै जारो
▁रां ,
▁सों हर
▁दिन्थि फुं
▁नां बाय
▁नां लिया
▁अर ु
▁लाइ ब्र
▁लां फ
▁लां दों
▁आंखौ बो
▁बाव ैनो
▁सोदोब मा
▁जादों ब्लाबो
▁हाद रा
▁आग ै।
▁गथʼ फोरा
▁मोन् नायखौ
▁आफाद खौ
▁हिन्जाव फोरनि
........ ....
........ ......
▁दुखु वा
▁मोद ान
▁गाज्रि नि
▁खोन ायो।
▁बिमा ।
▁लों खांनानै
▁मुल िनि
▁होन्नानै बो
▁बेफोर नो
▁ध ुना
-फ ाखा
▁जु लाफि
▁होनो ब्ला
▁जायो -
▁बय नोबो
▁बोसोर ,
ेस नाव
▁ले प
▁बिसि जों
▁मोस ायै
▁मै र
▁नाज ाब्लाबो
▁नाज ानाया
▁नाज ागोन।
-म ै
-ब ेर
▁आद ै।
▁आद ुंग
▁थार ला
गि दि
▁दाब ोर
▁हाम बाय
▁हाम गोन
▁उन्दु ना
स्री नि
▁रुम ाल
▁लुबै नाया
▁गंसे बो
▁नोंखौ ।
▁कल्प न
्राय ाबो
▁लाबो ।
▁माखासे या
▁रा ण
▁"न ङा
▁हु सियार
▁दसे नो
▁सेंग्रा फोरनि
▁साब गौ
▁साब ेसे
▁थुनलाइ यारि
▁गोजोन ्नाय
▁रे दि
▁नं दों
▁गान नो
▁हार ावा
▁हाथ र्
▁दाह ो
▁फे जे
▁स् पि
-ज ाइ
▁नायजाब खौ
▁का उ
▁का छ
▁लाइज ामा
in e
▁लाजि नो
▁थु खै
▁थु ख्रा
▁मोननै नि
▁मोननै बो
▁गर से
▁बिजाब ा
▁बिजाब ।
▁बिजाब फोरखौ
▁अजित ा।
मार बाय
▁अन् नाया
▁थिन बाय।
▁बिबार ,
▁रंज ाली
▁फारि याव
▁बिर हा
▁जाखो ,
▁"आं बो
▁के डार
▁दौ नानै
▁दौ ब्लाबो
▁आंबो थʼ
▁बाजि बाय।
▁गाख ोनो
▁औ ।
▁खिन्थ ाहर
▁फोरों नो
▁200 0
▁जुन ैनो
▁संसार ा
▁जाखां नायनि
लाङो ,
▁गोरोब नाय
▁जै -ज
▁जै मती
▁फरायसा फोरनि
▁अम र
▁खे ला
▁इसे बो
▁इसे लʼ
▁इसे बां
▁लान ांगोन।
थों सै
थों सै।
▁आन्द ाय
▁बुथार नानै
▁नुजा फै
▁हेंथा ।
जिर ा
▁थुलुं गाया
▁व र्ल
▁जेसे खि
▁दुर्जां ,
▁दुर्जां खौ
▁गोमो यो
▁गावब ाग
▁थियेट ारा
▁गाबोन नो
▁सिमां नि
▁साइकेल नि
गाव ,
▁फाल ्ला
▁रायज्लाय बाय
▁गनाय नानै
▁हारिमु वारि
शान्त िया
▁बुब ि
▁खायसे बा
▁C ap
▁सानस्रि या
▁सोलि नो
▁मासि खौ
▁मोनगोन। "
▁फिथाइ खौ
▁उजि गासेयाव
▁थेले ब
▁नागार नो
▁फैया मोन
▁जार ां
▁गुवार ै
▁सिखाव ै
फ्लां बाय
▁फैफिन बाय।
टार नेल
▁खुन ुम
▁एफा -एनै
▁बाजै ।"
▁सालिस ा
▁मोनथि गौ
▁2008 ,
-बे थेर
▁फार्से थिङै
▁माल ाया
▁खुसि जों
▁थाथ ार
▁बिगि याननि
▁गाम्ब ारिया
▁फालि नायनि
▁लाउ दुम
▁I BM
▁ग्र ह
▁मिनिट सो
▁w ill
▁हाबि ला
▁जुजि गोन
▁सुशान्त नि
▁रबि ,
ol o
▁बेबायदि नो
्राक सन
▁बिनाराम ा।
-ल थर
▁लुब ैयाखै
▁सरक ारा
▁सफै बाय
▁थाया खै।
-गो थो
▁जाल ायो।
▁बुंथि गिरि
▁सुमि लानि
▁उन्दुग ्रायाव
▁हाउ साव
▁जिंग ा।
▁बुथुम नो
▁बिबाय ारि
▁थेर -बेथेर
▁उथ्रि नो
▁मेड िया
▁n ot
▁दैमा -दै
▁खोला हा
▁सलʼमाग िरिनि
▁सानथाम नि
▁कन्ट ्रा
▁मेने ज
▁नौनारि फोरखौ
▁सेब खां
▁मैहुर ाव
▁मैहुर ारी
▁गोमोन ानै
▁जाथाव ै
▁हामब ुर
▁इउनि ट
▁बिल ोगो
▁रुब ि
▁अलकेश ा
▁दमासु वा
▁बिया दै
▁सियाल फोरा
si on
दिन खालि
▁हाखि मा
▁अप मान
▁अक् सिना
▁बुङा सै
▁O ctober,
▁कार् बि
▁सोमदोन नि
▁ऊ ,
▁गुदु ङाव
भु ष
▁लग ्न
▁गेबे ं
▁ड्राइ भार
▁धु प
▁सिफि निफ्राय
▁अलख द
▁सोग ोम
▁हमा सै।
▁सानबो लावरि
▁बानबुं थि
▁सेकस्पीय ारनि
▁इज राइ
▁ट्रेजे दि
▁जवान फोरा
▁केन सेल
▁चौ धुर
enc y
▁एप्रि ल
▁me an
▁जथुम्म ायाव
▁प्रसेन जित
▁नारा -नाथ
▁राखा उ
▁बेंपार् ति
▁'आशा '
▁निराम िस
▁Sol iloquy
▁युम ुना
▁मुब ्र
▁मेडि केल
▁नीलकम ल
:\ >
▁हसि ख्राव
▁फेब ्रुव
▁दुखुन ां
▁वर्ल ्ड
! "
" खौ
- 9
. नि
/ 2
1 9
a th
c ell
d ay.
f f
i x
r y
s )
u b
u re
y ,
इ ,
इ न्ट
क ानि
क रनि
ख त
ख ानो
ग ्रे
ग ्दाव
च न्द्र
ज खौ
ज ालि
ज ाब्ला
ज ानिफ्राय
ज ्लाया
ज ानाया
ट िन
ट िया
ड िं
ढ ़
त ाया
त ्री
द ाबो
प र
प ेन्ट
फ ारा
फ ानिफ्राय
ब ाज
य ारनि
र खौ
ल दार
स ोना
ह ेन
ा सिन
ु स
ै लाय
▁ ङ
▁ब ाजा
▁ब रा
▁ब माखौ
▁ब खʼनानै
▁स ानि
▁स ैनो
▁ग ोन
▁ग वा
▁ग गै
▁ग ्रु
▁म ी
▁म ना
▁म ुन
▁म ागि
नि सार
▁ज म्
▁ज ब्र
▁ज ब्रा
▁ज ्राब
▁ज ाजानाय
▁ज र्ज
▁ह स
▁ह ान्थि
▁आ लां
▁आ उट
ला बो
ला सेनो
▁न ,
▁न ारनानै
▁द िस
▁द फा
▁द ालि
▁द िरिया
▁बि नाव
▁बि रि
▁बि .ए
▁थ क
▁थ राय
ाब नानै
▁ख ्र
▁ख ानि
▁ख ावनो
▁फ ोना
▁बे क
▁बे सर
बो दों,
▁गो बाय
▁ल खि
▁ल रे
▁ल वार
दों सो
सि नानै
▁मोन ।
▁मोन ाबा
▁मोन गासिनो
▁मोन बोनाय
ाथ ाव
▁आर ्मि
▁अ ंखार
ाया खै।
▁आं खौनो
▁सि ,
▁सि क
▁सि न्दु
ाह ाम
▁ला थिखʼ
▁ए सʼ
मोन ्
▁नों निफ्राय
▁मो बाय
▁सान गासिनो
▁सान सुमै
▁उ सि
▁उ राय
▁" नाय
▁" फै
▁" जोंनि
▁" डा
ुर ्
ुब ि
फ्र े
▁क ालि
▁क ान्त
▁बुं ,
▁बुं ।
▁बुं फैयो
▁खालाम दों,
▁खालाम ाखै।
▁गाव स्रा
ांग ्रां
▁जाय नो
▁जाय ामानो
लʼ ग
लाय नायनि
लाय ग्रा
▁सम फोर
ुल ,
▁थां ब्लानो
▁मि जि
न्द न
ान् स
▁हाब ो।
▁हाब ्रां
▁हाब बोयो
▁जों ।
▁जों ना
.... "
जि बा
▁फै नाया
▁फै दों।"
▁जा प
▁जा फिन
▁( सि
▁( मान
▁( 5)
▁प ार्क
▁इ मार
▁इ निं
▁बु ख्रुब
हर नायनि
▁नाय बा
ोग ोन।
▁जि खि
ुग ाव
ुग ्रा
▁बो खे
▁बो थों
▁आख लाव
▁राव -हारिमु
▁बरʼ फ्रा
▁दै नानै
▁दै माल
थार ला
यो। ]
▁लोगो जों
▁माव गोन
▁माव सोम
फै ।
▁हर ्
▁हर दम
▁बार से
▁बार फुनाय
है नो।
▁गु ड
▁नङा दा
▁बिब ौ
▁बिब ाना
▁बिब ʼनि
▁' उ
▁मु हि
थां ।
▁फोर नि
▁बाथ्रा ,
▁थि उ
▁थि खानाय
▁फो दो
▁जानाय बादि
▁ड ाय
▁ड ेटा
▁ना ʼ
्द ार
▁बाह ाग
▁गैया लै
▁बेनि ख्रुइ
सिन ,
▁एसे म
ग्रा फोरा
▁जाग ्र
▁सासे ।
▁हे ब
▁जायो। )
▁ओंखार दो
▁ओंखार लांबाय
▁दु ख
▁दु इन
▁बै फोर
▁बै राग
▁बै थाल
▁लिर नायखौ
▁महर -मु
▁थै नायखौ
▁थै जासिम
▁नि र्
गौ बा
▁आब ारीया
ग्र ायाव
▁हां खुरै
▁आइ ननि
▁नʼ निफ्राय
सु मा
▁जोब बाय
▁बेसे ना
खʼ नाय
▁आले जों
▁सों नांगौ
▁सों हरबाय
▁सुबुं ,
▁दिन्थि थि
▁नां ज्लाय
▁नां थाबनानै
▁सानै खौबो
▁सायाव सो
▁फिसा फोरा
▁आखु वाव
▁लां फै
▁खार ै
▁खार नो
▁खार सन
▁मिनि ग
▁बाव नाय
▁खोम ानानै
जोब गोन
जोब ्बाय
▁बिदि न्था
▁सोदोब ाव
▁सोदोब थिया
ोद ोम
▁[ आ
▁सान् नायखौ
▁आग ोमा
▁आग ै,
▁मोन् थोर
▁नागिर दोंमोन
▁थुन लाया
▁खु न्थि
▁बिखौ ।
▁बिखौ बो
खोम ाबाय
▁गाज्रि सिन
▁खोन ाना
▁खोन ायाखै
क् य
▁देर नानै
▁जाख ो।
▁लों नायनि
बार नि
▁बेफोर बादि
ष्ट ्रे
▁ध न
-फ ार
▁जु ना
▁आखाइ या
▁"आ यै
▁जायो ब्लाबो
▁प्र साद
▁खन थायारि
▁बोसोर ारि
▁बोसोर बा
▁फु थि
▁फु कन
▁जादों। "
▁ब्र ुं
-ग ाज्रि
▁ले दि
▁गिदि त
▁बाहाय खान्थि
▁सं बिजिर
▁फि उ
▁फि त
▁फि थर
▁सिं आ
▁सिं जों
▁ने प
ण्ड ि
हाय ि
▁मै यानि
▁दर खौ
▁दर सि
▁लानाय ।
▁बेखेव फाया
-द ाब
▁दुर ुं
-ब ाहागि
▁लामा ।
▁लामा थिं
▁बाहागो आ
▁एर खां
▁बान ाया
▁मोदोम फ्रु
थे ङा
▁हाम नाय
▁मुलुग नां
▁उन्दु बाय
जाय ि
▁समाय खौ
▁गंसे ,
▁थाबाय नाय
▁सिनाय थिया
▁जʼ र
साय ानो
▁रा ङानो
▁आफा खौ
▁हु कुम
▁खाथियाव ।
▁सेंग्रा ,
▁खि नो
▁खि लि
▁खि फि
▁लाखि नायनि
मान नि
▁थाम फै
-ह े
▁लासै यै
▁गोख्र ैनो
▁सोलाय नायनि
▁खाय फाया
▁रे प
▁सर लानि
फु नायाव
▁सिख्ला सा
▁दाह ायाव
▁अल सिया
▁नायहर ब्ला
▁मद न
-ज ाम
-ज ुन
▁कम् पानि
▁मिहिर खौ
▁हाल िया।
▁नʼवाव नो
▁सावराय नानै
▁सावराय नायनि
▁थांखि यै
▁हि न्द
▁थान ांगौ।
▁अन् नायाव
▁हादोर नाङै
▁थिन नाय
▁रंज ाल
▁थेव ब्लाबो
▁फुं निफ्रायनो
▁सोरजि गिरि
▁जानांगौ ब्ला
▁खाफाल ानो
▁पा उ
्‌ दा
्‌ वेर
▁सह ि
▁सह खौ
▁साख ʼ
▁बाजि नानै
▁बिनानाव खौ
▁थाय ाब्ला
▁थाय ोमोन।
▁खन् थायारि
▁खोमसि नि
▁खोमसि याव
▁खिन्थ ानाय
▁खिन्थ ाजोब
▁अखा फोराव
ोमोन -
▁हेफाजाब ाव
▁फोरों नाय
▁फोरों गिरिनि
▁एसेबां नो
▁हायै याव
▁हायै लाय
▁साम लायनो
▁जाम ्ब
▁गोरोन् थिनि
▁जाखां -लों
लाङो )
▁गोरोब नानै
▁धोरोम खौ
▁उदै नि
स्ल ायनो
▁4 5
करा झारनि
▁जालां नो
▁जोम नाय
▁गोथौ वै
▁लो ङ
▁लो ङा
▁खʼ नायाव
▁बिदा -बिनानाव
▁बोथोर ।
▁बियो। "
▁बोलो खौ
▁........ ...
्व ौ
जाग ौ
ानो। "
▁फिसाइ जों
ou nd
▁दावबाय नो
▁खन्थाइ नि
▁गोथार ,
▁आफादगिरि ,
▁खान्थि खौ
▁... ।
ता खौ
▁बेदर खौ
▁नार्ज ारी,
▁बह न
▁सिखार ो।
▁रिंसार आ
▁रिंसार नि
▁सुजुग ्राया।
▁हिनजाव नि
▁हिनजाव खौ
▁इन स्ट
▁दाबि याव
▁फाइ लखौ
ra c
▁7 0
▁देंखो आ
▁'आ '
▁जायाखै सै।
▁9 .
▁बिष नि
▁बिष ्ण
▁बिहामजो खौ
▁"ब ुं
▁फाफ ्लि
▁ककराझार ाव
▁माल ायनो
▁प्ल े
▁सिब स्रां
▁थर से
▁थोर फो
▁खुसि यै
▁जेकेट ,
▁बाराय नाय
▁हʼ गार
▁थाथ ाव
▁मोनलाय नायनि
▁फसं नो
दाब ाद
▁रोङ ि
▁ओंखारबो यो
▁गौ हाट
▁लाउ थि
-अ र
▁बाल ानो
▁दैखां दों।
▁ग्र ोम
▁जाद ो
▁दावराव -दाव
▁बावदिया '
खुरै बो
▁फाख ʼनाव
▁फोसाब नो
▁दावग ानाय
▁बुरै नि
▁दुम फे
▁साथाम सो
▁जौगाखां नाय
▁हौ व
सिगौ मोन।
▁हारसिङै नो
▁बेदि नो
▁मिन्थि ना
▁सम् फ
▁सुग ्रि
▁दार ेन्द्र
▁गोनो -गोथो
▁राख ेबा
▁पार्ट िनि
▁आन्दा साव
▁गस्ला खौ
▁बिनहारी -
▁अक्ट ʼ
▁लेब ार
▁मारि नानै
▁हरबि लास
▁फाराग ा
▁मैगं -थाइ
▁गोलोम स्राव
▁दब थायनो
▁फोथां ना
▁बाट नाव
▁रुं सार
▁टाइ म
ल्द ानानै
▁रान् नाय
▁गुमुर खौ
▁थांग ार
▁गंग ्ल
▁बास ायनो
▁सुथार नो
▁बाहेर ाव
▁रांखान्थि यारि
▁गारा ङै
▁जब ्द
-मो खां
▁मत े
▁बिसि-फिस ाइ
**** ****
ल्ट ार
▁N o
▁थाखोम ानानै
▁खौरांगिरि फोरनि
▁सोहोर नि
▁दाका त
▁गान्नाय -जोम
▁नब ीन
▁--- "
▁खैना शान्तिया
▁हालो दै
▁जाइ ली
▁हान्था -म
▁गाथ ोनाव
▁गलाम नि
▁इंख ं
▁इंख ंनि
▁किउरिय ʼ
▁नंख ायनो
▁बोथि से
▁थुर सि
▁अं क
▁उखु न्दै
▁"सुखे ,
▁पर ेश
▁"आलाइस्रि ।"
▁हादाब -
▁आलुमि ंगि
▁प्रेक टिस
▁पि.टि.सि.ए. नि
▁(मे थाइ
▁नाख ्रेब
▁नुमार नो
▁फैस ाली
▁निद ाननि
▁जिबार ेल
▁जानुव ारि
▁दानस्लाय नाय
▁मरनि ं
▁नांबाव गौ
▁बाबां सिन
▁इण्डि यान
▁जोबथेसालि याव
▁होंगो -दों
▁"मो जां
▁हाग्रा-ब ंग्रा
▁Ex cell
▁नाङा-फा ङा
ना-खन ला
▁मुलाम फा
▁द्‌ लाम
▁गावबाग ाव
▁जाखां-लों खां
▁Excell ency
' s
- 3
- गा
0 )
1 1
8 )
a k
a ct
e ct
i v
i ght
r on
s s
u m
आ खै।
इ उ
उ न्ट
क ।
ख ोनाय
ख ागोन।
ग ोम
ग ाबा
ग ुबै
ग ोनि
ग ्लाइ
ङ ालाय
ङ ाथʼ
च ी
च नि
ज ,
ज ी
ज ेब
ट ेनसन
त ʼ
त ्रि
थ ाद
थ ानिफ्राय
द ान्
द ायै
फ ं
फ बनानै
ब ालाय
म ,
म नानै
म ानो
म ालाय
म ाहा
य ʼ
र ाथी
स ाबो
ह ं
ह ो।
ह ारि
ी रा
▁ ण
▁ it
▁ our
▁ब ालु
▁ब ोनायाव
▁ब हरा
▁ग ुं
▁ग यो
▁म म
▁म ोर
▁म ागो
▁म दʼ
▁ज ंख
▁ज ै।
▁ज ोगोन
▁ह ंख
▁ह लाव
▁आ बा
▁आ वा
▁आ न्था
▁आ सोल
ला ल
▁द ोन।
▁द रा
▁द ामा
▁द स्ट
▁द न्दि
▁द ाथा
▁द ालि,
▁द ोबै
्र ेट
नो सो
▁बि -
▁बि सो
▁थ ाज
▁ख ाजानाय
▁ख ुंगुर
ानै बो
▁फ ʼ
▁फ रम
▁बे ले
▁बे यो।
▁बे नो।
▁बे सिम
▁बे निफ्रायनो
▁बे दिं
▁बे फार
▁बे हायनो
▁बे फारिनि
▁र ,
▁र ज
▁र ोम
बो थʼ
से ं
या सो
ाम ी
ाम ै
ाम सा
दि ।
न् नायाव
▁मोन जा
▁मोन फ्लां
▁मोन जायो
▁आर ्य
▁आं लाय।
▁आं हालाय
▁सि थोर
▁सि न्था
ाह ोनाय
▁ए ला
▁ए ले
▁ए रि
▁ए दाव
ाला खौ
मोन जों
मोन ।"
▁सान ानै
▁सान ब्लाबो
▁सान फ्ला
▁सान हाबनानै
▁उ दा
▁उ कि
▁उ ल्ट
▁" बा
▁" हो
ुर ोखोम
▁होन नो
िन ांगौ।
▁क ाब
▁क िर
▁क ʼर्ट
▁बुं ला
▁बुं नायनि
▁बुं ङो।
▁बुं ब्लाबो
▁बुं लाङो
▁गाव ो।
▁गाव सो
▁गाव दां
▁गाव -गावनि
ोब ां
ुन ,
सै मोन।
▁- बे
▁- हे:
▁मा ध
▁थां नायखौ
▁थां फानाय
▁थां दिनि।
▁मि ञ
▁मि ल
निफ्राय सो
▁फै ।
▁जा पान
▁हो खां
▁हो गासिनो
▁हो लांनाय
▁हो बोदों।
▁( 2
▁( घ
▁( 6)
▁प ेन
▁प ार्
▁प ान्जाब
▁इ सिङाव
▁बु जायनो
▁नाय दिं
दोंमोन ।"
▁गोसो ,
▁नु दोंमोन।
▁सो ल
▁सो फै
▁बा पा
▁बा ङाइ
▁मे घ
▁मे द
ैया खै।
▁फिस ाय
▁सा सु
▁राव ,
▁राव फोरनि
▁गि यो।
▁गि नाया
▁गि यानि
▁गि ग्लुं
थʼ ,
थाइ खौ
थार नाय
थार गोन।
थाय ानो
थाय गिरि
▁लोगो फोरखौ
▁माव नां
लाइ याव
▁हर ,
▁हर ै
▁बार आ
▁बार बाय।
▁बार जां
▁बार ानिफ्राय
▁दे -दे
ङाव नो
है दों
▁मोनसे ।
▁मोनसे खौ
बाव नानै
बाव दों।
▁अन सि
▁अन नायाव
▁' इ
▁' मा
▁सलʼ फोराव
▁सलʼ गिरिया
रि ग
▁मु ख्लं
▁मु वाया
▁मु कुट
म् म
▁फोर ो
लां ब्ला
▁मिथि यो।
▁गोद ै,
▁दि ङा
▁दि था
▁दि ंग्रि
▁थि फुं
▁थि खांनानै
▁था ।"
▁फो जाव
▁ट ं
▁ट ु
▁ट ें
▁ड ाइन
▁ड ब्लिउ
▁सोम द्रि
▁लानानै ,
▁गोनां थिखौ
▁गोनां थार।
▁गाब नाया
▁गाब गु
▁बाह ा
सिन दों।
गिरि फोरखौ
▁हाया ।"
▁फाव दिन्थि
▁रो ङो।
▁हा ,
▁सासे खौ
▁हे न्देल
▁मुं ,
▁मुं माया
▁दाव दाब
खु सि
▁राइ ज
▁राइ ट
▁ओंखार बोनानै
▁बोर ाइनि
▁दोन नायसै।
▁दोन खुम
▁बै राथी
▁खाम हाब
▁गाम िया
▁गाम सा
▁लिर नायनि
▁राइजो याव
▁फराय खांनानै
▁फराय फुनाय
▁फराय ग्रानि
▁थै बाय।
▁सुब ुर
▁नि ं
▁नि न
▁नि खाउरि
▁2 ,
▁हागौ -
▁हागौ मानि
थाव ा
ेल ,
स् सा,
▁सों बाय-
▁सुबुं फ्रा
▁नां दों
▁गेजेराव ।
ब्र ुद
▁अर खाव
ति ,
▁राय खांनानै
▁राय लायनानै
▁सानै निबो
▁सायाव ।
▁आखु ।
▁आखु थाया
▁लां सु
▁खार लुं
▁खार बोनानै
गां ,
▁मिनि खुसि
जोब ।
▁बिफ ानाव
▁गं नानै
▁सोदोब फोरनि
▁बाज ै,
▁बाज ्रेद
▁बाज ुरामा
बर ाज
ोद ो
▁जाथ ायाव
▁मोन् दोंमोन।
▁आफाद फोरा
▁होनाय सै
▁दान थे
▁दान थाम
▁बाद ोर
▁खु न्थिया
र् थ
▁श ाला
▁श ्व
खोम ायो।
खोम ायो
▁बिख ाजों
▁मन् दि
▁खोन ाबाय।
ारिया ।
दो लै
▁लों नायाव
▁आस थाम
▁होन्नानै नो
-फ े
-फ ां
▁नोजोर खौ
▁फावथाइ यारि
▁प्र फुल
जानाय ाव
-ग ाव
▁दङ मोन
▁बाहाय जानाय
▁सं राज
▁सेर जानि
▁फि फा
▁फि नो।
▁फि ल्
ामोन खौ
▁आव नाय
▁सै थि
▁नाज ानानै
▁नाज ाबाय।
▁दर से
▁दर खङाव
▁बिथां मोना
पि ,
-म िनि
-द ान
▁थे ला
▁खरʼ ,
▁दुर जां
-स ंगिना
▁अज न
▁आद ानि
▁बाहागो याव
▁थार खौ
▁उन थाराव
▁नै थियाव
हां मा
नां सिगौ।
खार ु
▁जागोन नि
▁जागोन खौ
▁माथ ाम
▁हांखो फोरखौ
▁उन्दु नानै
▁रि फि
▁रि क्स
▁लुबै नायनि
▁मालाय खौ
▁मालाय नाव
▁खै फोर
▁सिनाय ाखै
▁बारा खौ
▁बारा सो
▁सौ वै
▁बिह ोम
▁लाबो बाय
▁लाबो ।"
▁रा साय
ेश ननि
▁बाग ्राय
▁एम निफ्राय
▁एम .ए.
▁एम ेले
फ्ला ङो।
फोराव बो
▁बेनो -
▁मानि या।
▁मानि मुनि
▁हौवा खौ
▁हौवा फोरनि
▁सेंग्रा फोरखौ
▁हाय िनि
▁गोजोन ग्लाय
थुम नानै
-ह ि
▁लु फुं
▁लु फाव
▁सिख्ला फोर
▁सिख्ला फोरा
▁सिख्ला फोरनि
▁गʼ गा
▁गʼ स्ला
▁दाह ालागै
▁लाब ोन
▁फे न्दा
▁अल ं
क्ट ि
▁स् पे
▁जायग ानिफ्राय
▁नायजाब ारि
▁जिराय थʼ
▁हाल दै
▁हान् जाखौ
▁पुलिस नो
▁थाइ लिर
▁गेजेरजों नो
▁दिहुन नायनि
▁गर सेबो
▁फान ज
▁बेद रनि
▁हाबफै नानै
▁सोलों सालिनि
▁डि सेम्बर
▁डि जाइन
▁अन् ध
▁बर ुव
▁लाय नाय
▁लाय ाजासे
▁गैयै ,
▁गैयै ।
▁बिर ों
▁गेले नो
▁गेले ग्रा
▁फोथाय नो
▁के म्
ख्ल ें
▁बिफा ,
▁आनारी ,
दार ,
▁महाराजा खौ
▁नार सि
▁नार ायण
▁भारत ा
▁गस ाया
▁गस ङो
▁खोमसि ।
▁खिन्थ ाबाय
▁उद ैया
▁इं लिस
▁है नानै
फेर ा।
▁साननानै ।
▁सानो -
▁जाव नानै
▁जाखां नाय
▁खुं ख्र
▁अब स्
▁नंगौ ना
राइ जो
▁बिस ाइ
▁बिस म्बि
▁धोरोम ,
▁अम ब्रा
▁बेसेबां दि
▁खैफोद खौ
▁सोमोन्दो आ
▁खां नाय
▁खां नायनि
▁गिदिं नाय
▁फंबाय ा
▁इउ रिया
▁आम था
▁थास ारिया
▁थास ारियाव
▁थास ारिखौ
an t
▁सोमजि यो।
▁फावथि नाया
▁मोसा खौ
▁बुथार नाय
▁सोमावसार नायखौ
▁सिन खौ
नांगोन। "
▁जेसे नो
▁दावबाय नायाव
▁देरह ानो
▁खुलुम ो
▁होफै नो
▁बिथिं जाय
▁दोर फो
▁नायगिर ो।
▁माहारि खौ
▁सिखार बाय।
▁सिमां खौ
▁रिंसार ा
▁लि ंख
▁जालाय नाय
▁जालाय बाय
▁आनजाद नि
▁इन पुट
▁गम्भ िर
लेण्ड नि
▁जाफुं होनो
▁गोरों ,
▁बुब ्लिया
▁गोह ो।
▁गोह ोमा
▁खायसे या
▁हार् सा
▁सानस्रि नि
▁राजखान्थि ,
-ख म
-ख ाला
▁हाइ ब्रि
▁सोलि बोनाय
स्क ुल
▁सिया लनि
▁अनि राम
▁मुगै नाय
▁थौ ले
▁नोम फाया
▁गोलै नाय
▁लिंहर दों
▁बन्द ाया
▁खुन ुरोखोम
▁सिथ लायाव
▁बायजो नि
▁दावह ाया
▁सोद्रोमा फोर
▁पे पार
▁लै होर
▁नाम ाब्रा
▁ब्रा ।
▁बैस ागो
▁T h
▁सैथो नि
▁जाबो दों
▁आदब खौ
▁ष्ट ेट
▁ब्ल क
▁गाम्ब ारिनि
▁खुदिया फोरनि
▁गुमै ।"
खुम ै
▁p ro
▁गोख्रै यै
▁मिथिंग ायारि
▁अबं लावरिनि
▁होआ खै
▁हाबि लाया
▁जानां बाय।
▁मोग ाम
▁माखौ बा
▁गोर्बो याव
▁बिनह ारीया
▁जाना ङो।
▁एंगार नो
▁थुलुंगा खौ
▁D ate
▁"औ ।
▁बद लै
▁लं पेन्ट
▁दिहु न्नानै
....... ।
▁मेलेम नि
▁खौसे यै
▁बिलिफां जों
▁फारनै खौ
▁बराय नो
▁लेंहर नानै
▁मेर गानि
▁लांगोन ानिफ्राय
▁बुंथि नाय
▁खान् थिया
▁गेदे द
▁मारु ती
▁a d
▁नाथ ्रोद
▁साजाय नाय
▁सालि याव
▁बिथ ं
▁संग ्रायाव
▁जुरि जेन
▁दंख ायो
▁रुग ुङाव
▁बोहैथिया ।
▁गुबुनारि फोरखौ
▁लर ेन
▁"स ान्दो
▁(19 6
▁बुंबाव ो,
▁फोरमायथि नो
▁बिजन ी
▁थिसन नानै
▁आरि खां
▁नौनारि फोरनि
▁कैला शा
▁खोख्लै नानै
▁चे यार
▁महाराज ाया
▁बिगुम ै
▁फाय ारि
▁माना स
▁जौगानाय ाव
▁जब ाब
▁शि बराज
▁स्ल ʼ
▁स्ल गान
▁जर खा
▁फ्र ान्
▁"थ ेवबो
▁मुसाह ारीनि
▁बेंख न
▁टेबुल ाव
▁जानाय-लों नाय,
▁जानगार नानै
▁देरग ानाय
▁माइथाय निफ्राय
▁दन्द ी
▁आन्दो आव
▁जन ता
▁थांलाय -फैलाय
▁मुजु ब्ला
▁नारे ंख
▁हाखि मनि
▁ई ,
▁बिदिन्थि ।
घा ट
▁बर्ड नि
▁बुध ्दि
▁बेंगल ी
▁गुस् थि
▁ट्र ेन
-हा फाय
▁हालाय -हाफाय
▁बुंबावो -
▁सेके ण्ड
▁सिमाङाव बो
▁खाम् फा
▁महा भारत
▁उरिष ्या
▁सोरा ङाव
▁शनि बारखालि
▁डाक्त ार
▁हरि भुष
▁जथुम् मानि
▁अदालगुर ी
▁ब्रि टिस
▁सती श
▁मोनजाया ,
ग्रोम ोना
▁"नोंथां नि
▁स्रो त
ीला म्बर
▁रंगिना -संगिना
▁बुंसʼ ह
▁मिनिखै रो
▁जावलि यानि
▁जोंरू वा
▁रामोन्द ाया
▁खोमानां नाय
▁कम्पान ी
.एल .
▁प्रदी प
▁दाङाब ाजि
▁सिखोम ानानै
▁कामरु प
▁सुइसाइ द
▁दखर से
▁आर् जि
▁देउ ल
▁आखʼ -फ
▁रां-रु फा
▁डिजि टाल
▁उदया चल
▁MS -DOS
▁लक्षीम पुर
▁ओन् सो
▁आइलि -जाइ
▁इज्ज त
▁जांग िला
▁सित ्रां
▁सोरमा ङा
▁लोगो-ल ोगो
▁बारʼ लाम्फा
▁अनफाव रि
▁थिंख ्लि
▁उनद ाहा
▁एकाडेम ी
-खै फोद
▁नोग ोद
▁गोथा ङै
▁इन्स पे
▁बुबि लि
▁इजराइ लनि
▁मुब्र ुं
▁थराय ना
▁इनिं थौ
▁हर् खाब
▁इनस्ट ्राकसन
▁प्रफुल ्ल
" नि
- प
- भ
- सै
- जा
- आव
- बर
- साव
- खे
- पा
- दाउ
. "
a )
a ge
c c
g y
j ec
o st
p i
ं नाय
ं नानै
आ ंनि
आ रो
इ ल
इ जिं
क ाबि
ख ाम
ख ाला
ग ें
ङ ाबा
ट ्रा
ड ,
त ु
त ्रा
थ ालि
थ ान्दै
द ्ल
द ारा
ध न
प ाइ
प ्रा
फ ्
फ ʼनि
ब रʼ
ब ारिनि
भ िस
भ ारखौ
म स्क
य नि
र न
र ै
ल ानिफ्राय
ष ्
स ाग
स नाव
स ान्दि
ह ाम
ह ाथʼ
ह ोनायाव
ि का
ु ती
े न्
े लाव
् ष
▁ K
▁ v
▁ an
▁ब स
▁ब हाय
▁ब ्लां
ान खौ
ान ा।
▁स रʼ
▁स ायो।
▁ग िर
▁ग ायनो
▁ग लाद
▁ग ्लास
▁ग स्वाम
▁म ामोन
▁म ाग्रा
▁म कर
नि नो
▁ज बाय
▁ज ुम
▁ज ुलुम
▁ज ्रेम
▁ह ,
▁ह ल
▁ह ेर
▁ह बे
▁ह जम
▁आ स्र
▁आ सु
▁आ न्थ
ला बानो
▁न सुं
▁न ीलाम्बर
▁द स
▁द ंग
▁द ोना
▁द ्रे
▁द ाराय
▁द ाग्रा
्र ुम
्र बनानै
ोर ्सोन
▁बि ,
▁बि ध
▁बि यावनो
▁बि श्व
▁थ न
▁थ खन
▁ख ाइ
▁ख िनि
▁ख ुरि
▁ख स्ट
▁ख साब
▁ख ्रब
नाय फोरखौ
▁फ ुलि
▁फ ालु
▁बे ,
▁बे जाय
▁बे ंग्रा
▁बे थेर
▁बे इजिं
▁र माया
बो ।"
से या
से बां
या लाय
▁गो खा,
▁ल ख
▁ल ाया।
▁ल र्ड
▁ल गायनानै
सि ल
ाज ानि
ाज िया
▁मोन खौ
▁मोन बाव
▁मोन नाय।
▁मोन ज्लाय
▁मोन मार
▁मोन होनो
▁मोन ाखैमोन।
▁अ वाल
ाल िस
▁सि र
▁सि जों
ाह ोनो
▁ला भ
▁ला फै
▁ला ग्र
▁ला दाय
▁ला फानो
▁ला जिनां
▁ए ख
िर े
▁नों लʼ
▁सान नायनि
▁सान ा।
▁सान निफ्रायनो
▁सान फ्लां
िस ्रां
▁उ सुं
▁" है
▁" गो
▁" जानो
िन ,
▁क रि
▁क ेब
▁क ्ष
▁बुं ख
▁बुं है
▁खालाम ाखै
▁खालाम ोब्ला
▁गाव ो
ांग ासिनो
सै लै
▁जाय खार
लʼ सो
लाय बाय,
▁सम र
▁- '
▁थां फिननो
▁मि से
न्द ायाव
ान् टिक
▁हाब हां
▁जों जों
▁जों बाय।
▁जों बादि
▁जों ब्लाउ
▁फै ब्लानो
ंग िरि
▁जा ।
▁जा फैबाय।
▁( D
▁( थ
▁( न
▁( थां
▁( सिङाव
▁प सम
▁प ावार
▁जे नो
खा दोंमोन
▁इ .
ुम ै
▁बु नाय
▁बु न्दा
▁बु ङा।
▁बु लेट
▁बु ग्लि
▁नाय गं
▁गोसो खाङो
▁नु बाय।
▁नु वा।
▁नु बाय-
▁गे सेव
▁जि बि
▁जि -जोम
फा ।
▁दं थार
▁मे लेर
▁मे जर
जा ।
दा ङा
▁थाख ोमा
▁बो ल
▁बो बाय
▁बाथ ाव
▁सा थि
▁सा फ्रोम
नायनि बो
▁राव निफ्राय
ांगौ ,
▁गि दों
▁गि बिया
▁बाय ना
थʼ ।"
▁लोग ोर
▁मानसि याबो
थार नो
थार नांगौ
▁से खʼ
▁से हेर
ङो ]
▁माव है
▁सु न्दर
▁बादि सो
फै नाया
▁हर खि
▁हर गोन
है ब्ला
है नायनि
▁गु ण
▁नङा सै
▁मोनसे बो
▁बिब ाव
▁अन ी
▁अन नाया
▁अन नायखौ
▁' भ
▁' नों
▁सलʼ फोरनि
▁सलʼ गिरि
▁मु थु
▁हम दोंमोन।
▁उनाव हालागै
▁फोर ्बो
लां नायसै।
▁मोजां -गाज्रि
▁मिथि ं
▁मिथि बाय।
▁जेर ा
▁दि ंग
▁थि नो
▁थि नो।
▁ट ,
▁ट ावार
▁ड ी
▁गा दि
▁गाब ्बाय
ायो )
▁बेखौ थʼ
ार् कनि
ग्रा खौ
▁जो -जो
▁हा दोंमोन
▁हाबा फोरखौ
▁हाबा -हु
दै ,
▁मुं ।
खु मा
▁नाग ाया
▁दु मा
▁खाम ायनो
▁जौ से
▁लिर ।
▁लिर बि
▁महर जों
थिं बो
▁गार ाइ
▁गार जानाय
▁थै सʼ
▁नि जोर
▁नि खावरि
▁जिउ नां
▁सिख ्रि
▁आफ ायाबो
▁हारि जों
▁आब ्द
माय ना
ग्र ोनो
ेल जों
▁हां खो।
खौनो ।
▁नʼ सिम
▁साव थुन
▁साव सुब
्लाय नाय
स् पति
फिन नायनि
फ्रा ,
▁जोब ्बाय।
▁रां -
▁आले नो
▁नां लायनाय
▁नां लिया।
▁राय खां
▁गोबां थार
▁मेग ावा
▁खार ो
▁खार लाङो।
▁आंखौ सो
▁मिनि थाव
▁बाव गार
▁बाव हाय
▁बाव स्रोम
▁गोदान ,
▁बिफ ायाबो
▁बिदि न्थानि
▁माह ि
▁होननानै नो
ल् दि
▁गथʼ फोरनि
▁मोन् नाव
▁दान सʼनानै
र् मे
▁श िब
▁दुखु वाव
ारा ,
▁खोन ्द
▁खोन ाजोब
▁च िर
▁च न्दन
▁खाथि निफ्राय
▁जाख ार
▁फिसाज ो।
दां खौ
▁लों होनानै
▁मुल ु
▁मुल ुक
▁राज थान्दै
ष्ट ि
▁जु था
सिं नि
▁मह ी
▁बुङो --
▁"आ द
▁हानाय ाव
जानाय ।
▁ब्र ां
▁त ्रि
▁होनानै ,
-ग ोर
▁ले ङ
▁ले कसार
▁बाहाय नाया
▁फि थि
▁फि ल्टार
▁सिं ,
▁सिं ।
▁आय ु
ामोन ब्ला
▁मै खुन
का ट
▁नोंथां जों
▁मोखां ,
▁दर बा
▁दर लाया
▁बेखेव नाय
-म ाराव
▁सिरि से
▁खरʼ याव
▁नोंसोर बादि
-ब ाजा
▁बान खौ
हां ।
▁दाब ोनो
▁मोदोम जों
▁हाम ार
▁हाम सिन
▁हाम गौ
▁हाम थारबाय
▁मुलुग निफ्राय
▁नांगौ मोन
▁सिङाव ।
स्री ,
▁रि पर्ट
▁रि लिफ
▁रुम खौ
▁खै दां
▁थाबाय नो
▁सिनाय थिनि
▁फा थिनानै
▁गामि खौ
साय ारि
▁हागौ। '
▁रै खानि
▁रा सि
मु ख
हाब ,
▁बेनो दि
▁मानि खौ
▁हौवा ,
▁सेंग्रा खौ
▁साब ाइ
▁साब िखौ
▁बुङो। )
▁बुङो। ]
▁थाम ि
▁गोथ ैनि
सन खौ
मि क
मि थि
मि ष्ट
-ह ाम
▁राग जों
▁सोलाय -सो
▁खाय फाबा
▁गान नाया
फोरजों नो
▁बिलाइ स्रि
▁मद ारामा
-ज े
▁बोहै नाय
▁बोहै बोनाय
▁बोहै लांनाय
▁जिराय नायनिफ्राय
▁पुलिस ,
▁पुलिस फोरा
▁लाजि यो।
▁खोथा ।
▁खोथा खौनो
▁थाव ,
▁दिहुन गिरि
er e
▁नङाब्ला ,
▁सिगाङाव ।
▁थांखि याव
▁थान सालियाव
▁बर बाद
▁फुं जानि
▁गैयै नि
▁जानांगौ ,
▁गेले मु
▁फोथाय ो
▁गसं नाय
▁जेब्ला सिम
▁पा प
▁पा क्
▁दाख ु
▁लाइजाम ाव
फ्ल ानाय
▁19 5
▁जारिमिन ।
▁बादल खौ
▁दौ लद
्‌ ला
▁हगार नो
▁हगार नाय
▁थाय से
▁थाय नैनि
▁बिफां खौ
▁मुवा फोर
▁मुवा फोरा
▁सुर नाय
▁औ र
▁सान्थ्रि फोर
▁सान्थ्रि फोरा
▁सान्थ्रि फोरखौ
बोनाय नि
▁आल फा
▁उद खार
▁उद ुवा
▁मोसौ खौ
▁है यो।
▁फोरों नानै
▁अफिस निफ्राय
▁200 4
▁200 6
▁हायै खौ
▁साम ाज
▁घ रि
▁गोरोन् थिया
▁जाव रि
▁बिबान निफ्राय
▁बेव नो
▁दुर्जा ङाबो
▁थाल ्ला
▁थाखो खौ
▁गुन्द ्रा
▁अम ल
▁माद ावनो
▁इउ .
▁गोथौ ,
▁मोखाङाव नो
▁बिदिब्ला ।
▁लेखा -फ
▁हाजʼव ारीनि
ou s
▁कम्पिउटार -
▁जिंगा सि
▁देरह ानाय
▁खान्थि याव
▁खुलुम नो
ar d
▁बुंहर नाय
▁साख्रि याव
▁गाबोन निफ्राय
.ए स.
▁हागोन ,
▁हागोन खौ
▁दों फा
▁दों नै
▁बिलिफा ङाबो
▁लोम जानायनि
▁लि टार
▁सुजुग ्रानि
▁रायलाय बाय
▁रायलाय नाया
▁फाल ो,
▁इन ाइ
▁गावसोर नो
▁रंजा -बाजा
▁बुब ्राब
▁हि: ।
▁दय ारामा
▁गोसोखां बाय
▁हार् सिं
▁मुस्रि या
▁सानस्रि खौ
▁इंराज नि
-ख ुगु
▁सʼना ,
▁सʼना ।
▁थों नै
▁सोलि नाय
▁सोलि गासिनो
फुर ,
▁नागार ै
▁खम ज्लाय
▁S c
▁सोब खʼ
▁'आ नारी
▁th at
▁साह ाया
▁दान्दिसे नि
▁जार ्ला
▁मिर ुनि
▁सिखाव फोरा
▁स्र ाव
निया ,
▁9 8
▁रजि खौ
▁माइथायाव ।
▁लाव थि
▁आबʼ ,
ow el
▁खुन ुरु
▁बानजाय फुं
▁नागा फ्रा
▁जाहै यो।
▁बिहामजो नि
▁बायजो निफ्राय
▁थिउरिया फोरखौ
▁सालिस खौ
▁होब ्लानो
▁"ब रʼ
▁"ब हा
▁बेखेवफा खौ
▁2008 .
▁नाम ा।
▁अपार ेशन
▁आवगाय नि
▁गन्थ ङाव
▁खेव नाय
▁लायो ब्ला
▁जेकेट ा
▁बाराय नानै
▁मोनलाय नायखौ
▁फसं नाय
▁फरायसालि फोराव
▁नुयो -
▁ओंखारबो दों
ागौ मानि
▁"ह ाम
▁थाइलालि खौ
▁p e
▁गथाय नो
▁गथाय नाय
▁होखार नो
▁मंगल बारखालि
▁फालि नाय
▁हाथाइ याव
▁बिदै खौ
▁मिथिंग ाया
▁शं करनि
▁नायबिजिर नायनि
▁खानाय खौ
▁लान् था
▁बावदिया खौ
ic al
▁फोनां नानै
▁एंगार नाय
▁दाहा खौ
▁रम ेन
▁रम ेननि
▁दैदेनगिरि फोरनि
▁दावग ानो
▁हाबफैयो। ]
▁जोंथि हा
▁सरक ार
▁रिंग ानिफ्राय
▁जी ब
▁दोह ौ
▁मोब्लिब ारि
▁खौसे थि
▁इंख्रि ,
▁इंख्रि या
▁जिबौ जों
-ए न
▁जाजोब बाय।
▁खुरै खौ
ाजो बो।
▁सिमा ङा
▁सम् बारु
▁बेराम ाव
▁थागि दायाव
▁आरति ,
पे न्द्र
▁ब्रै थि
मेन्ट नि
▁फुल िनि
▁कन ष्ट
▁हांख्राय नाय
▁बाउ नाय
▁हाउ स
▁जिंग ानि
▁हावरिया ,
▁फानलु ,
▁..... ।"
▁साद ा
▁माला इ
▁थिसन नाय
▁नरेश ा।
▁बाट न
▁जागौ मोन।
▁मोदाय जो
▁जीउ नि
▁बैसाग ुनि
▁इन्दुप्र भाया
▁मनि पुरनि
▁सिखा उ
▁गालां दों।
▁ग्री क
▁बान्दो ल
▁होबथ ानो
▁होबथ ानानै
▁फेर लेब
▁सिल ङाव
▁सुस्रां नायनि
▁प्रसे सिं
-उ खै
▁G od
▁एक्स टेनसन
▁बाहेर ायाव
▁बिगुम ैखौ
▁दायनिगिरि फोरखौ
खोन ्दो
▁रोंगौ थि
फाम ानि
स्लि उ
▁सानजौफु नि
▁बिसि-फिस ा
▁बिसायखʼ थि
▁आह मे
▁रमाय ना
▁सिलाराम ,
▁आइयै ।
ख्रुय बो
▁थाथों सै
▁बाथ्राय ाबो
▁अबंला उरिया
▁इनफरमेसन खौ
▁मार् केट
▁बरग यारी
▁भुटिया फोरजों
▁अनुले खाया
▁दारि मिन
▁कंग ्रे
▁बिजाम ाद
▁नोंस ाजो
▁गिलास से
am e
ver y
▁गुजु स्रेम
▁कामाख ्या
▁मेडाम नि
▁आखा -फाखा
▁ग्रीमउइ ग
▁सरख ारा
▁लखʼ बनि
▁अन्द राव
▁अटʼ रि
▁जोंब्ल ावा
▁ओहो ,
▁गथʼ-ग थाय
▁खृष्ट ान
▁बुन्द ाया
▁बयनि खुरैबो
▁गलाफ ी
▁सफ्ट वेर
▁सफ्ट ्‌वेर
▁खना थिं
▁उरां -फार
tic al
▁जोग ार
▁आथ ोन।
▁रन साय
▁रहेल ाया
▁"कल्प ना
-बाग ्रि
▁बाइजो आव
▁बदमाइ स,
▁खाराव -माराव
पिटाल ाव
▁रिंगा सो
▁बेण्ड ेज
▁इराम ुती
▁गुबुं ले
▁बि.टि .सि.
▁एष्ट्राग ʼना
ep t
▁कन् या
▁खुदि याया
▁बुद्र ैया
▁थग ायनो
▁थावरि नो
▁जरʼ खा
▁जार्ड ारीया
▁(ओ ंखार
▁स्पि द
▁Cap tain
▁कार्बि आं
▁बुंफैयो -
▁हाबबोयो )
▁हान्था-म ेला
▁होंगो-दों गो
▁(घ )
▁मेघ ाल
▁गिग्लुं नाय
▁सुबुर ुन
▁अन्ध ्र
▁मोगाम ोगि
▁स्लʼ गान
▁आखʼ-फ ाखʼ
काबि ला
▁उरां-फार ां
▁ ﻿
- ध
- जि
- नै
- ख्र
- जाब
- खार
. A
1 )
1 0
1 3
4 5
7 0
T he
a x
l o
आ र
आ यदा
इ ननि
क ान्त
क ाइनि
क ुनि
क ्रʼ
ख ाद
ख ोनो
ग ोदान
ज ाया।
ज ्लां
ड र
त ।
त ार
थ न
थ ो।
थ ाया।
न ʼ
न ामा
प द
प ेट
फ ोना
फ िनि
फ ौवा
फ ुलि,
ब ं
ब न
ब ाल
ब ाना
ब ्ब
भ :
भ ल
भ ायाव
भ ेल
म ेना
म ाव,
य ां
य बो
र ाइनि
ल स
व ाखै।
व ार्ट
श िक
श नेल
स ोनो
ह ाखि
ि :
ी '
े न्स
ो ट
ो त
ो लै
् गा
् फो
् भ:
। ''
▁ याव
▁ em
ाय ,
▁ब ल
▁ब नाय
▁ब ाया
▁ब बा
▁ब ाथाय
▁ब ुरा
▁ब जʼ
▁ब र्म
▁ब जब
▁स द
▁स न्द
▁स नै
▁स ारिया
▁स ानायनि
▁स ना।
▁स ीज
▁ग नो
▁ग िस
▁ग जʼ
▁ग ाग्ल
▁ग लायाव
▁म ालि
▁ज ग्रा
▁ज खानि
▁ज नायनिफ्राय
▁ज फायो।
▁ज न्त्र
ोन ्दां
ार ै
▁ह सिया
▁ह ʼर
▁ह क,
▁आ :
▁आ नि
▁आ थाल
▁न क
▁न ानि
▁न ालाय।
▁न कल
▁न मस्क
▁द ारिया
▁द ाबु
▁द ाथʼ
ोर नो
▁बि भ
▁बि श
▁बि फोर
▁बि थिखौ
▁बि लाया
▁बि .ए.
▁बि घा
▁थ से
▁थ ामोन
▁थ जेन
ाब ,
ाब ाद
ाब ारी
▁ख ,
▁ख ाया
▁ख ोनाय
▁ख ना-खनला
▁फ ्रा
▁फ थʼ
▁फ ्रे
▁फ ाखा
▁फ बनानै
▁फ ्रेस
▁बे ट
▁र ब
▁र स
▁र िस
▁र मि
▁र जे
से खौनो
से यावनो
▁गो बोर
▁ल ्द
▁ल गाय
दों --
सि ड
सि यारि
थि लि
बाय ;
बाय नानै
बाय बो
ाज ाया
▁मोन फै
▁मोन सिन
▁मोन जानाय
▁मोन थारबाय
▁मोन फ्रामबो
▁मोन थायखौ
फोर ालाय
▁आर ,
▁आर ्टि
▁अ .
▁अ ग्र
▁अ ब्ल
▁अ डि
ाग ा
▁आं बा
▁आं खि
ाल ायनो
▁सि खांनानै
▁सि जौ
ारि निफ्राय
ाह ारी
▁ला ब्ला
▁ला ङासै।
▁ए नि
▁ए ंग
▁ए क्
▁ए खम
ाला इ
ाला से
ाला सिनो
्ल ानिफ्राय
▁नों नो।
▁नों लाय।
▁नों दाया
ब्ला थाय
▁मो ले
▁मो गि
्रि ,
्रि डिस
▁सान ।
▁सान खौ
▁सान खां
▁सान नायजों
▁सान फेर
▁उ म
▁उ ल
▁उ र्
▁उ दाय
▁उ पेन्द्र
▁" ध
▁" बो
▁" थि
▁" रʼ
▁" बाव
▁" सान
ुर ,
फ्र ां
▁क ,
▁क फि
▁क ार्ड
▁बुं ग्रा
▁बुं गोन।
▁बुं गार
▁खालाम नां
▁खालाम ो,
▁खालाम नांगोन।
▁खालाम नांगोन
▁गाव नानै
ाद ʼ
मा -दाव
▁जाय ोमोन
लाय नाय,
लाय ो,
▁सम जों
▁सम सिम
ले खा
▁मा ष्ट
▁थां ,
▁थां दोंमोन
▁थां सʼ
▁थां फिनबाय।
▁मि थुन
▁मि ज्लि
▁हाब ्लानो
▁हाब ्रु
▁हाब सोनानै
.... ।"
▁फै ला
▁फै ना
▁फै फिनो।
▁फै फिन्नो
▁जा उ
▁मान ,
▁मान खौ
▁मान गोनां
▁हो यि
▁( C
▁( S
▁( रागा
▁जे याव
खा उ
खा फाल
▁इ म
▁इ क्ल
▁बु ग
▁बु जिस
हर ब्ला
▁नाय सि
▁नाय लʼ
▁नाय दो
▁नाय सन
▁नाय ब्लानो
▁नाय गिदि
ाबो ,
▁बियो ,
दोंमोन ;
▁नु जायो
हा ,
हा :
▁गे वा
▁गे स्रेम
▁गे ब्ले
▁जि ंनि
▁जि ख्लाब
▁मे ंग
▁मे नु
▁मे ब्लाया
▁मे ष:
▁सोर हाबा
▁बो यै
▁बाथ ोन
▁सा दों
▁राव हाबो
▁गि खांनाय
▁बाय बाय।
▁बाय ोब्ला
बि '
बि जि
▁मानसि हा
▁से न
▁गुब ुना
▁माव नायखौ
▁माब े
▁सु हाब
लि टि
लि खत
▁दा ङा
▁हर ावनो
▁बार हां
▁बार सʼ
▁दे '
▁दे ं
▁दे त
▁दे ।"
▁दे ग्लाइ
▁बिनि नो
सा फोरा
है दो
▁गु जरा
नायाव सो
▁ओंख ्रि
बाव नो।
▁अन नानै
▁अन थाव
▁अन जु
▁गोर ाय
▁गोर ां
▁' सि
▁' फुं
▁' सोम
▁सलʼ बाथ
▁मु ङानो
▁हम बाय-
म् बा
▁बिसोर ो।
▁बिसोर नाव
लां बाय,
▁मोजां ब्ला
▁मोजां थार
▁बाथ्रा फोरा
▁मिथि थार
▁मिथि गोन।
बे से
▁गोज ोम
▁गोज ्वौ
▁दि प
▁दि न्दां
▁दि दोम
▁थि म
▁थि खं
▁फो थाया
▁ट क
▁ट ेन
▁ट मेट
▁जानाय सै
▁जानाय फोरखौ
▁ड ाब
▁सोम हाबनानै
▁सोम स्रिया
▁गा सि
▁बायदि फोराव
▁गोनां सिन
▁ना स्र
▁गाब ।
▁गाब हां
▁गाब गासिनो
▁फाव नि
▁फाव खुंग्रि
▁एसे याव
▁एसे ब्लाबो
▁एसे नोसै
▁हा स
▁हे व
▁जानो सो
▁मुं हा
▁दाव सि
ेट ि
▁बोर सिनि
▁नाग ानि
▁दु फुं
▁जेरै ,
▁जेरै बादि
▁बै खौ
▁सोद ेर
▁जौ ।
▁लिर ना
▁लिर ग्रा
▁लिर नांगौ
▁लिर नाय।
▁महर ।
्लि ं
थिं ।
▁गार ो।
▁गार ्ल
▁गार बोनाय
▁फराय गासिनो
▁फराय सुलि
▁जानानै ।
▁थै जानाय
▁थै नायजों
▁नि स्
▁नि होर
▁नि रन्जन
▁सिख ्लाय
▁आब सा
▁आब ै,
जाब ाव
थाव थाव
▁आइ फोर
▁नʼ वा
▁नʼ टिस
सु ख
सु ला।
▁साव ख्लि
नांगौ मोन।
▁सों थि
▁सों ब्ला
▁सों बाव
▁दिन्थि नाया
▁नां ला
▁नां बाय।
ब्र बनानै
▁अर गें
ति खौ
▁राय थि
▁राय थाइ
▁राय खांनो
▁राय ज्लायो
▁राय ज्लाया
▁सायाव बो
▁गोबां सिन
▁लाइ फा
▁आखु फोरखौ
▁आखु फोरनि
▁लां नायसै।
▁खार बो
▁खार लांनानै
▁खार सां
▁बाव यैसो
▁खोम ा।
जोब गोन।
▁बिफ ाजों
▁सोदोब ,
▁सोदोब फ्रा
▁बाज ारनि
▁[ ग
▁सान् दों।
▁सान् नैसो
▁सान् थौ
देर नानै
▁गथʼ वाबो
▁आफाद ,
▁होनाय जों
▁होनाय सै,
▁हिन्जाव ।
▁हिन्जाव फोरखौ
▁नागिर है
▁नागिर नाया
▁दान नो
▁खु वा
र् श
र् सनि
▁श ुक
खोम ानाय
▁मोद ै।
▁गोम ाजानाय
▁बिख ुन
▁हाज िर
▁च ाहा
▁खाथि -खाला
▁देर नो
▁जाख ोब्रा
▁लों दों
▁लों बाय।
▁खो लो
▁राज ्य
न्ट ि
▁ध ,
▁ध ि
▁ध नु
▁ध र्मे
-फ ारि
▁जु थाय
▁जु जाइनि
▁माइ क्रʼ
▁मह कुम
ब्ल ानि
▁"आ बौ
▁आदा खौ
▁खन नानै
▁बोसोर नै
▁हानाय ानो
▁ब्र ाह
▁त ,
▁त द
▁त र
▁बेर खाङो
-ग र
-ग ोरा
▁दङ ।"
▁बाहाय थि
▁सेर फ
▁फि दि
▁फि सिनो
▁फि फानि
▁आय था
▁आय नायाव
ण्ड ा
▁सै माया
का ,
का त
▁नोंथां मोनहा
▁दर जानि
▁बिथां आ
पि त
टि .
टि केल
-म ाव
-द ुब
▁सिरि नि
▁खरʼ निफ्राय
-स ब
▁नोंसोर हा
-ब ाज
-ब रʼ
-ब ुरै
▁एर सो
▁एर िया
हां ,
▁] ।
▁जोनोम फुरि
▁नवाव ।
▁फं बाय,
▁उन्दु यो
▁लुबै नानै
▁कल्प नायाबो
▁जʼ खायसे
▁फा सि
साय ।
▁नामा ,
▁लाबो गोन
▁लाबो दोंमोन।
▁रा क्ष
▁रा भा
▁रा भा,
▁बाग ्ल
मु क
▁थांनाय सै।
फ्ला म
▁सानसे नि
▁सानसे बो
▁सानसे यारि
▁लाखि गोन
▁थुनलाइ ,
▁थुनलाइ गिरिफोरा
-ह ाव
-ह िन्जाव
▁रे ख
▁गिबि नि
▁लु यै
▁लु फुंनाय
▁सर ब
▁सर ला
▁सर खार
▁गान ग्रा
▁हार ावनि
▁सिख्ला फ्रा
▁हाथ ाइनि
▁हाथ ुरा
▁दाह ोन
▁फे नानै
▁स् प
▁साय ायाव
▁मुग ैया
फोरजों बो
▁बिलाइ स्रिया
▁नायहर बाय।
▁जाथाय जों
▁जाथाय फोरा
▁मोदै नि
ेम सा
-ज ाल
▁हायो दि
▁बोहै थिखौ
▁फिसाजो या
▁बिजिर नाया
▁बिजिर नायखौ
स्ट िक
▁लाइज ौवा
▁बसुमत ारि,
▁पुलिस जों
▁जाब जों
▁लाजि फोनां
▁दिहुन बाय।
▁गर ाइ
▁दाजाब फानाय
▁इराग ्दा
▁साइ के
▁अजित नो
▁सावराय नायखौ
▁सोलों नो
-आ खाइ
-आ बौ
▁बर ाद
▁रंज ानो
▁फुं आव
-र ं
-र ुब
▁सोरजि नायनि
▁सोरजि नायाव
▁गैयै याव
▁गेले नायाव
▁फोथाय थाव
▁फाग ्लिया
▁दाम ो
▁सार ेण्ड
▁दाख ि
▁के जि
on g
दे सि
▁3 1
जे क्ट
▁रों गौ।
ुंग ोरा
▁5 00
▁बाजि यावनो
▁बाजि बायमोन।
▁बिनानाव ।"
▁डा :
▁थाय ोमोन
▁हाख न
▁माहाजोन ,
▁आल ी
▁खालि नि
▁उद ख
▁टे कनि
▁अखा फोरनि
▁सोमबोर नि
▁बोराय -बे
▁बिखायाव ।
▁साम फ्रोमबो
▁साम ोल
▁हिस ान
▁जाव ैसो
▁मार ाव
▁हाबाफारि फोरखौ
▁गुर ुं
▁नोगोर ारि
▁जेंना ,
▁उन्दै याव
▁उन्दै निफ्रायनो
▁गोख्रों सिन
▁गारि जों
▁फोसाव नो
▁फोसाव नायनि
▁फोसाव जायो
खानाय ।
▁खैफोद निफ्राय
▁खैफोद -आ
▁सोमोन्दो खौ
▁ट्रे जिक
▁उदां स्रि
▁बड़ʼ नि
▁जालां नाय
▁दानाय ,
▁जौग ानो
▁मोना सै।
▁इउ ,
▁इउ टि
▁आम थे
▁लान ांगोन
▁लान ांगौ।
▁बाबु नि
▁जिब ौवा
▁सोमजि होदों।
▁थुनफावथाइ खौ
▁बेफोरखौ नो
▁ओं थिखौ
▁बें नानै
▁आइजो नि
▁दुल ुर
▁सिन े
or m
▁कम ब
▁कम पा
..... ।
▁कम्पिउटार ।
▁खन्थाइ ,
▁एफ नि
▁दुं ब्रुद
▁खुलुम ो।
-सि लाय
▁होफै दों।
▁थियेट ारखौ
▁आथोन नि
▁मीन :
▁दोर ो
▁रʼ ,
▁बेलस्रि ।
कि ट
फिनो। ]
▁बेरखां नाय
▁बेला सेनि
▁जाहोन खौ
▁जालाय नानै
▁हिनजाव ा
▁बिम ानो
▁आनजाद खौ
▁गोब ालाय
▁गनाय ना
▁खाल ाराव
▁नाजानाय ।
▁नाजानाय नि
▁हारिमु वा
▁बुब ्लिनि
▁सान्नानै ।
दु त
▁C l
▁!! "
▁फैगौ ।
▁गेदेर -उ
▁मुस्रि खौ
▁10 .
▁सानस्रि याव
▁समबार ुनि
▁इंराज ीयाव
▁थों गोर
▁खल थाया
▁बुङ ाखै
▁बुङ ाबानो
▁बुङ ालाबानो
ra tion
▁खुर िया
▁नर कास
▁थानानै बो
▁खम ैबो
▁गेव सार
▁देंखो जों
-थ र
▁S ept
▁फान् ड
▁सुथुर नि
▁सुथुर निफ्राय
▁मुगै यो
▁थब नो
▁सिखाव ,
▁जायाखै ,
▁जायाखै मोन।
▁s en
▁स्र ोब
▁गाखो बाय।
▁आबʼ ।
▁गेट जों
▁जाहै दों।
▁साज ाया
▁दाग ा
▁गाग्लोब नो
▁माल िस
▁प्ल टा
▁राह ानि
▁राह ाबो
▁राह ायै
▁सिब नो
▁बैस ां
फ्ले नानै
▁खेव नो
▁जिल्ला फोराव
▁सैथो आ
▁लायो ,
▁जेकेट नि
▁बाराय नायाव
▁आदब नि
▁गग न्द
▁थाथ ेर
▁P ro
▁हाजʼवारी ।"
▁बिजि -फिसा
▁जांख्रि खां
▁ब्ल ेक
▁दʼ से
▁रेब सुं
▁नुयो ब्ला
▁खुदिया फोरखौ
▁"ह ोम
▁रंजालि खौ
▁"ग य
▁"ग ैया
▁"ग ुड
▁मुस लिम
▁जागाय नानै
▁खेर ासिन
▁दैखां नो
▁जिराद ा
▁अबं लावरि
▁आनाराम खौ
▁मिनिट नि
गुर ी
▁हाबि लदार
▁जानां दों।
▁ऐ ,
▁फाख ्रा
▁कर् कट
ic ation
▁केस नि
▁हनै ,
▁लाह ारिनि
▁"औ ।"
▁फोसाब नाय
ड़ ि
▁रबि ल
▁बुरै खौ
▁खब ाम
▁खब जबनानै
▁सुबु ङारि
▁नाल ेया
▁जाथों ।
▁फंसे लʼ
▁कमि टि
▁गावथार नानै
▁सम् बार
▁मैदेर ा
▁दार ै
▁बेफ्रु थायजों
▁अनसाय नाय
ेज नि
▁थाला खौ
▁राख ाव
▁डिस् कनि
▁डिस् क्‌
▁आखुथाय खौ
▁आन्दा खौ
्रʼ ब
▁दैथाय हरनो
▁होनांगौ नि
▁मेल -मि
▁रुजु नानै
▁इण्ड िया
फʼ ब
▁बिलिर नानै
▁इसोर ा
▁थिं जाय
▁बिमा-बिफा ,
▁हेमलेट खौ
▁सन्थ लाया
▁मोख्र ेब
▁खनसाय नि
em ber
▁नम्बर नि
▁क्ल ʼ
▁'ब ार्थ
द्‌ दा
▁गेर ेब
▁माउ स
▁फोथां नानै
▁बृ ष:
▁आमाइ ,
▁अनज ालु
▁थं ब्ल
▁जाम्बा -जाम
▁बʼ हा
▁थाबो ला
▁थाबो दों।
▁सेक्सपीय ारनि
ac har
▁गंग ्लायनानै
▁दाल ायाव
▁हाजʼवारीया ।
▁दायनिगिरि खौ
नाम ुलि
▁शि व
▁रायजो -र
▁रुफा थि
▁हरबिला सनि
+आ >
▁बांला देसि
▁मोसानाय ,
▁मʼ काबिला
▁मावखʼ नि
▁"आर ति
▁नैजि बा
▁अलकेश नि
ur al
▁बानायसो ,
▁मोगथां नि
▁इनफरमेसन फोरखौ
्लुब नानै
▁देब ी
▁।। आयदा
▁बिगोम ानि
▁एरैबादि ।
▁खासि बारी
▁सेना प
▁हालो दा
▁जाखा दों
▁हिं सायारि
▁थिन् नानै
▁अक् सिन
▁बुध बारखालि
▁गोरबो नि
णा क्य
▁दाइरि याव
▁ज्र ोम
▁सिद ोब
▁गिला सखौ
▁बबेनिफ्राय बा
▁कामाख ्यानि
-इ ंख्रि
▁रहे ला
▁होया सै।
▁हासु नो
▁फास य
▁खोरोम दाउ
▁लाफ ांग
▁क्र ʼर
▁Y es,
▁सहर नि
▁एका उन्ट
▁उरिष ्यानि
▁पजʼ वा
▁बाथुल नि
▁हामफे ,
▁अबिना सा
▁सानसु नि
▁उखु न्द
▁गोबाख ्रब
▁ठ ा
▁गदʼ खौ
▁एड भ
▁बोखाव नानै
▁नांथार गौ
▁द्लाम ैनो
▁उदि स
▁बाज्ल ʼ
▁मोसाहारि नो
जेन् सि
▁जावलि याया
▁गान्ध ीया
▁साफ्रासी फोरा
▁गोना ङा
▁मृ गेन
▁बिबा ङा
▁लाक ीया
▁कुम ्भ:
▁सेन्ट ्रेल
होग ्रा
▁k n
▁मड ेल
▁काज ल
▁भाव थि
▁सुबि दा
▁जानजि याव
▁सिंह :
-आरि खां
▁हस्रि खाव
▁रोंग थि
▁थब्ल ʼ
▁"बु जि
▁जुव ारि,
▁रिज ार्भ
▁ट्रेन्स पर्ट
▁इन्जुर ाव
▁"बोर ै
▁सोरनाव बा
▁फोथ ैनो
▁मिब थि
▁देहाय ारि
▁चा णाक्य
▁तुला :
▁सांग्रा ङा
▁सनि राम
▁गसा थिया
▁द्राइ भ
▁जिरा त
▁रिट ाय
▁डिभ ाइस
oun )
.com ,
▁दंनाय मानि
▁लाइब्र ेर
▁हाथर् खि
olo gy
▁चौधुर ीया
▁मी ना
▁मोबाय जोंबो
▁इमार जेन्सि
▁बाहाग ो।
▁साखʼ न्द्रा
▁गौहाट ीयाव
▁सुग्रि -बाग्रि
▁दस्ट ुर
▁उल्ट ा
▁रासाय नारि
▁अलं बार
▁बिरों दाम
▁बुंसʼह ाया।
jec tive
▁मकर :
▁मेलेर िया
▁लेङ ाय
▁सोलाय-सो लʼ
▁कनष्ट ेब
▁कन्या :
▁कार्बिआं लं
▁ल्द ाम
▁मिथुन :
▁धनु :
▁सारेण्ड ार
▁Sept ember
▁कर्कट :
' या
- ड
- दो
- स्रां
- फोर,
/ आ
/ बि
3 3
5 4
6 1
9 4
a ti
e al
i )
m e
o tion
o si
r es
r om
t xt
u n
u al
} :
~ खाय
ʼ ग
ँ इ
अ र
क िन
क ता
ख ाजों
ख ोब्रा
ख ोन्दा
ग न
ग म
ग ाथाम
ङ ानो।
ङ ाखैमोन।
च िन
ज ुं
ज ारि
ज ाना
ज ाहै
ट ल
थ ाजों
द से
द ैया
द ेव
द ेब
द ारनि
न ालै
प जों
प िं
फ ाख
फ ायै
फ ाजों
फ ेस
फ ाया।
फ ेन्ट
फ ाबाय।
ब ्लाय
ब ोनायाव
म ला
म नो
म ाब
म िन्
य ाब्लानो
य ाबो।
र ैनो
ल निफ्राय
ल ोगो
व हाय
श ्मी
स ।
स लʼ
स ोन।
स ोनाय
ह ाद
ह ांग
ह ारा
ह ोगोन
ह स्पति
ा सै
ु ढ़
ै याव
् नि
् यो
। 2
▁ <
▁ on
▁ ro
▁ id
▁ ********
▁स ालाम
▁स फा
▁स भा
▁स ाथा
▁स दब
▁ग ्रि
▁ग ंगा
▁ग दाया
▁ग िया।
▁म ल
▁म ुम
▁म नायाव
▁म मखौ
नि याव
नि यानि
▁ज व
▁ज राय
▁ज ालि
▁ज खाय
▁ज स्ल
▁ज थायै
ोन ाब
▁ह ोर
▁ह जुर
▁आ उ
▁आ ति
▁आ कु
▁आ न्च
ला बासिनो
▁न ाब
▁न ाला
▁न ांग्रा
▁न खल
▁न खरा
▁द ,
▁द त
▁द िन्
▁द ायो।
▁द ाखा
▁द ोमो
्र ामोन
्र निक
▁बि फोरखौ
▁बि जोंनो
▁बि स्व
▁थ ,
▁थ िया
▁थ खʼ
▁थ ांग्र
▁ख त
▁ख नो
▁ख िस
▁ख ायै
▁ख ्रुब
▁ख थानिफ्राय
नाय -
▁फ ोन
▁फ ेन
▁फ ल्ड
▁बे सा
▁बे खि
▁बे केट
▁बे कार
▁बे हु
से सो
से मानि
▁गो लांनानै
ाम ाव
▁ल ट
▁ल ड
▁ल ह
▁ल ुं
▁ल मन
न् सि
न् दों।
न् जि
न् सनि
बाय नाय
बाय बाय
बाय ग्रा
▁मोन थिया
▁मोन नाय,
▁मोन हां
▁मोन बानो
▁मोन हैनाय
▁मोन फ्रोमखौबो
फोर नाव
▁आर ो।
▁अ ध
▁अ नो
▁अ खन
▁अ स्त
ाग ्ला
ाग ्लाब
ाल े
ाल ै।
ाल ुनि
ाख ायनो
▁सि नानै
▁सि लाय
▁सि फुं
▁सि रिया
▁सि यान
▁सि खाङो
ारि जों
ाह ोनायनि
▁ला लु
▁ला बाय,
▁ला गै
▁ला खांनायनि
▁ए -
▁ए ंगोन
्ल ोब
मोन -
मोन नो
मोन हाबो
▁नों दा
ना ङो
▁मो से
यो )।
▁सान निफ्राय
▁सान ाबो
याव सो
▁उ जेर
▁उ खुम
▁उ प्रा
▁" प
▁" ना
▁" हर
▁" दै
▁" हे
▁क ला
▁क ालाम
▁क ेल
▁क ुलि
▁क ्लाब
▁क हि
▁क ्रिं
▁क कराझारनि
▁क वार्ट
▁बुं बा
▁बुं दो
▁बुं नांगोन
▁बुं बावो।
▁बुं लाबाय
ङा सै
▁खालाम ै
▁खालाम ब्लाबो
▁खालाम ब्लानो
▁खालाम नांगौ।
▁खालाम होनानै
▁खालाम दो।"
▁जाय फोरखौ
▁जाय ामोन
▁जाय ख्लं
लाय ारि
लाय ।"
लाय गोन
लाय ोब्ला
▁- इ
▁- हा:
▁मा स
▁मा सिनि
▁थां ।"
▁मि उ
▁मि -जुनाद
न्द ाव
न्द ै,
▁हाब बोयो।
▁फै हां
▁फै नाय।
▁फै नायसै।
▁फै यो,
▁फै फिनो
▁जा फ्ला
▁जा फ्लाय
▁हो सार
▁हो दों,
▁हो स्रां
▁हो फिनो।
▁हो खांनायनि
▁हो सेयावबो
▁( इ
▁( उ
▁( दु
▁( प्र
▁( हाबनानै
▁( 7)
▁प ,
▁प ʼ
▁जे इ
▁जे व
▁जे खौबो
▁इ न्द्र
▁बु क
▁बु गा
▁नाय ख
▁नाय ैनो
▁गोसो थ
▁गोसो निफ्राय
▁नु है
▁नु थायाव
▁नु फेर
▁नु गासे
▁नु हैबाय
▁नु फैबाय
▁गे ं
▁गे ब्ला
▁गे ब्ला,
▁सो बा
▁सो लाव
▁सो सन
▁जि व
फा दोंमोन।
▁दं जोबो।
▁दं थारो
▁बा स्रि
▁बा सिनो
▁मे थाय
▁मे लायाव
▁मे सेब
▁सोर गो
▁थाख ि
▁फिस ायानो
▁बो ला
▁सा स्
▁बरʼ वानो
▁गि जि
▁गि नायजों
▁गि याननि
▁बाय -बाहागि
थʼ नो
▁मानसि खौनो
▁मानसि -दुम
▁दै खʼ
▁दै मायाव
▁दै बान
▁दै ज्लां
▁से म
▁से बनानै
यै नि
▁लोगो याव
▁माव नायजों
▁माव जिया
▁माव जाग्रा
▁माब ेबा
▁हर फिन
▁हर बाय--
▁बार ांग
▁बार ायो।
▁बार सिन
▁बार हाव
▁बार लाम्फा
▁बार सनानै
▁दे लाय
▁बिनि या
▁गु सेब
आव ।
बाव ।
बाव गोन।
▁अन ज्लाय
▁अन ाली
▁गावनि नो
▁' दै
▁सलʼ फोरखौ
▁आंनि या
▁हम है
▁हम ो,
▁हम सʼनो
ायो। "
▁गुबुन -ग
▁फोर ान
लां नायखौ
▁मोजां सो
गोन -
▁बाथ्रा फ्रा
▁मिथि ना
बे नि
▁जेर ावनो
▁दि ग्री
▁था क
▁था फैनाय
▁फो ला
▁फो था
▁ट ार
▁जानाय फोरनि
▁ड ,
▁ड ेन
▁सोम ो
▁लानानै बो
हो दोंमोन।
▁गोनां खौ
▁गोनां ब्ला
▁गाब जों
सिन बाय।
▁फाव द
▁फाव खुंगुर
▁दिनै लाय
▁जो थ्रोद
▁रो जासे
▁हा सिगोन
▁हा स्लाब
▁हा सिगौ
▁हा दोंमोनब्लाबो
▁हा सिब
▁समाव ,
▁खा फ्र
दै खौ
स्र ो
▁हे ले
▁हे न्दि
▁दाव सा
▁दाव स्रि
▁दाव थ्रोद
▁दाव मा-दाव
जाव लिया
▁ओंखार लाय
▁ओंखार हां
▁ओंखार लांनो
▁भ र
▁भ ेन
▁भ ुत
▁दोन नायनि
▁दोन ग्रा
▁दोन हैयो।
▁दु द्रु
▁बै सुम
▁बै सोम
▁बै दिनखालि
▁सोद ां
▁जौ थाय
▁जौ सां
▁जौ खोन्दो
▁महर ,
▁महर थि
▁राइजो फोरनो
रा ।
▁गार ाव
▁फराय नायनि
▁थै ब्ला
▁थै यो।
▁नि स
▁नि लिखत
▁जिउ जों
▁आब ारि
▁आब ैनि
ग्र ोनाय
ग्र ोनि
▁आइ जो।
▁आइ टेम
▁नʼ सिङाव
▁साव नो
▁साव नाय,
लै ।"
स् थʼ
फिन दों।
▁जोब ाखै
▁जोब ाखै।
▁नोंनि ,
▁बेसे ग्राब
खʼ बाव
▁आले हा
▁सों फै
▁सों फिनो
▁दिन्थि या
▁नां ब्ला
▁नां थाब
ब्र ुग
▁अर ,
▁अर न
▁अर नो
▁राय नाय
▁राय फोर
▁सानै याबो
▁सानै बो।
▁लाइ टार
▁फिसा फ्रा
▁फार ौ
▁लां नायनि
▁लां बाय,
▁खार ो।
▁खार दो
▁मिनि दों।
▁मिनि नाय,
▁मिनि ग्लाब
▁बाव ाखै
▁खोम ोन
जोब दों
जोब ब्ला
▁बिदि न्
▁बिदि सो
▁गं थाम
▁सोदोब खौनो
▁सोदोब माया
▁बाज ौ
▁बाज ै।
▁उन्द ै,
▁नो थां
▁मोन् दोंमोन
▁मोन् नाय,
▁होनाय ।
▁होनाय मोन
▁हिन्जाव फोरजों
▁दान सेनि
गार नो
........ ।"
........ .....
▁थुन -फाव
▁खु सिनि
▁खु जेब
र् ना
▁श ची
▁गोम ाला
▁गोम ाना
▁बां होनो
▁बिख ाव
▁गाज्रि ,
▁मन् त्री
▁हाज ोब
▁नङ ागोन।
▁खोन ाया
▁देर बाय।
▁जाख र
▁फिसाज ोनो
▁फोरमाय नायजों
▁आस ारि,
▁राज खुंगुर
▁जु थायखौ
... !
▁आखाइ ,
▁होनो ,
▁माइ र
▁माइ क्र
▁नोजोर थाव
▁बय हाबो
▁फावथाइ ,
▁फावथाइ गिरिनि
फि उट
फि केट
फि नो,
▁खन खांनानै
▁खन थामसो
▁बोसोर ि
▁बोसोर फ्रोमबो
▁आलाइ याबो
▁आलाइ -सि
▁फु वार
▁रु नानै
▁रु टि
▁त ाम
▁त ाल
▁त ामि
-ग ʼ
-ग ं
▁ले ह
सालि ।
▁गोग ्ग
▁दङ मोन।
▁सं बिजि
▁सेर ै
▁ने सा
▁सेंग ्रि
हाय ।
▁सै बा
▁सै मानि
▁नाज ाद
▁नाज ावनो
▁बबे थिं
▁मोखां आव
▁लानाय सै।
▁लानाय मोन।
-म े
-म ान
-म ाइ
▁मेगन ाबो
▁नोंसोर लाय
▁आद र्श
▁लामा ,
▁गोजौ निफ्राय
▁एर खे
▁बान नानै
▁उन निफ्रायनो
▁दाब ाव
▁दाब खा
नां ला
▁एन जर
थे नो
▁जोनोम ,
ालां नो
▁थाब थायो।
▁हाम गौमोन
▁फं बाइ
▁ओंखाम -इंख्रि
थाम ,
▁उन्दु लांनो
▁रि भल
▁रुम ावनो
▁समाय स्री
▁जोबो ।
▁आलेया ।
▁जʼ यो
▁बिह ाबो
▁बिह ारिफोरा
▁लाबो बाय।
▁माखासे खौ
▁बाग ्रा
▁खिन् थाय
▁हु दा।
▁थायो। "
▁बेनो ,
▁मन बारु
▁मन ालिस
▁हौवा फोरजों
▁दाय ।
▁ब्रह्म खौ
▁खि यो
▁खि था
▁खि यो।
▁साब द्राय
▁लाखि दों।
▁लाखि नायाव
▁गोजोन नो
▁गोजोन नायनि
मि ट
मि ल
▁फिन बाय
▁खाय दाजों
▁लु सि
▁गान स्लाय
▁गान होन
फु नाय,
▁राहा ।
दिया ।
▁गʼ लायाव
▁दाह ाया
▁दाह ाजों
▁फे द
▁जाथाय ,
▁बसुम थ
▁थाग िरि
▁जायग ाया
▁मोदै ,
▁राजा फोरनि
▁नायजाब फोरा
▁बिजिर नो
▁का ट
▁थु ।
▁थु यै
▁नखर खौ
▁फान ग्रा
▁दाजाब दानि
▁गोसोआव नो
▁साइ टʼ
▁खोना दों
▁सावराय नाया
-आ ,
▁थान ो।
▁थान ादार
ोन् थि
▁अन् थाय
▁नार् सिं
▁जेन े
▁हादोर ाव
▁थिन बाय
▁बर ुवा
▁मोजा ङा
▁बिबार ।
▁बिबार ाव
▁बिबार जों
▁फुं निफ्राय
-र ुम
-र ुवा
-र मायना
▁सोरजि नि
▁लाय -लथर
▁गैयै खाय
▁बिर लां
▁बिर गʼ
▁बिर लांनाय
▁गेले बाय
▁फोथाय ो।
▁फाग ुन
▁फाग ्लाया
▁पा पी
▁दाम नो
▁दाम ानि
▁"आं खौ
▁"आं हा
▁सार स्रि
▁गोलाव ,
▁के सा
▁जोहोलाव ,
▁आनारी ।
▁.... ।
th er
जे नो।
▁दाउ ला
▁दाउ सा
▁दाउ स्रि
ुंग ोर
थु जुग
▁साख ोन
▁सुंदʼ यै
▁बान् थाया
▁बिनानाव ा
▁हगार हर
▁थाङो ,
▁थाङो बा
▁सुर नो
▁सुर खो
ाहै यो।
्ब ी
▁टे लिफ
▁सोमबोर खौ
▁है दोंमोन
▁200 5
▁गुदि निफ्राय
▁बोराय ,
▁साम लायनानै
▁घ ि
▁सानो ब्ला
▁टि .एस.
▁जाखां बाय
▁गोरोब था
▁गोरोब होनानै
▁गुर हं
▁खर थेङा
▁"म े
▁धोरोम ाव
▁उदै खौ
▁गारि ,
▁फोसाव गिरि
▁अम ृत
▁गाय दे
▁गुम ै,
▁बानाय ाव
▁खां दों
▁इउ रʼ
▁लान जाइ
▁थास ारिनि
an c
▁लो ख
दोन '
▁खʼ हा
▁खʼ था
▁खʼ नाजों
▁जिब नि
▁हा: -
▁थुनफावथाइ गिरि
▁बें नो
▁आइजो फोरखौ
▁आइजो फोरनि
▁मोसा ,
en ge
ुव ाबो
▁बोलो आव
▁सिन जों
or y
थाब नाय
▁कम प्ल
▁होबाय --
▁व ाल
▁व ार्क
▁व र्क
▁आलासि फोर
▁आलासि फोरखौ
▁अमा ,
..... !
▁दावबाय नाया
▁कम्पिउटार ाव
▁गोदो -ग
▁स्ट ʼर
▁खान्थि ,
▁खान्थि यारि
▁फिसाज्ला ।
▁गावब ुढ़
▁होफै यो
▁गुवाहाट ीनि
▁मनजु ला
▁मनजु वा।
▁साख्रि नि
▁साख्रि वाला
▁मेथाइ नि
▁रागा खौ
▁रʼ द
▁रʼ म
▁नायगिर नानै
▁नार्ज ारिया
▁दुब ्रि
▁सिखार नो
▁रिंसार थि
▁लि बार
▁जाहोन नि
ख्रा उ
▁बिम ानै
▁रान ी
गाव नि
▁साजा खौ
▁फाल ाया
▁रायज्लाय नायखौ
▁बिमा-बि फानिफ्राय
▁नाजानाय खौ
▁दाबि खौ
▁दाबि नायनि
▁गाबज्रि यो।
▁लोब बा
▁खायसे ~खाय
▁C omp
▁फाइ नाल
▁गोसोखां थिखौ
▁हायाखै सै।
▁सोलि बाय
▁"बे नि
▁फोरमान खौ
▁साखा थिनि
▁आसि जों
▁हाजो निफ्राय
▁फिथाइ नि
▁अख्रां मा
बावो -
▁'' मा
▁खम लाय
▁S y
▁फान् जाम
▁"अ र
▁देव ाननि
▁'आ फा
▁साह ाबा
▁थौ दो
▁जार ला
▁s p
▁हाव लाद
▁दख ान
▁दख ्ना
▁फोरम ाना
▁थिक खौनो
▁फोलेर ाव
▁फोलेर खौ
▁नोम फानि
▁रजि जों
▁फैफिन नानै
▁नंखाय खौनो
▁दंमोन ब्लाबो
▁मुंमा +
▁मुंमा :
▁मुंमा ।
▁आंखाल नि
▁जाहै बाय।
▁जोंर ुनि
▁नुहर ो।
▁सुफुं ग्रा
▁खावलाय ो।
▁माय ,
▁नाम खौ
▁खौरांग ाबा
▁प्ल टखौ
▁समायना -रमायना
▁जाला ङो
▁जाला ंगोन
▁थर फा
क्ष ा
▁नेम खौ
▁नेम खान्थि
▁सैमा खौ
▁थिनहर नानै
▁आदब जों
▁हʼ वा
▁बेसेन खौ
▁हाजʼवारी ।
▁बिजि नि
▁जांख्रि थाइनि
ed y
▁सेव ालि
▁रोङ ाब्ला
▁रोङ ाखै।
▁राद ाय
▁राद ायखौ
▁मावनाय -दां
▁गोहोम खौ
▁थाइलालि नि
▁"बि यो
▁"बि दिब्ला
▁समान ।
-अ न
▁बाल ें
▁बिदै जों
▁थाहै नाय
▁दैखां ना
▁डे स्क
▁जिराद फोरखौ
▁t rag
▁w h
▁बिसार खौ
▁लोर ि
▁हाबि लद
▁जानां दों
▁जानां नायनि
▁खलथा ,
हि :
▁थेलेफा ,
▁बोनाय नि
▁लामाजों नो
▁दायनि गिरिया
▁नुजाथि यो
ic k
it ed
▁एव स्रां
▁एंगार नायनि
▁एंगार नाया
▁मोनै याव
▁लाह ारि
▁लाह ारी
▁बोख ्लाइ
▁भुट ान
▁हरखाब नो
▁बुद ्दि
▁बुद ्रै
▁फोसाब नानै
▁गियान खौ
▁हागोन। "
▁जायै -लो
▁सायाराम नि
▁आबाद ारि
▁थांनोसै ।"
-ल ोब
▁थांगोन ,
▁जोंथि हा।
▁जाथों सै।
▁जौगाखां नायाव
▁देरहाग ्राया।
क्रा झारनि
▁सिस्ट ेमा
▁य ुव
▁हालाम ाव
▁बिमाय ाबो
▁बसुमतारी खौ
▁मोदाइ जो
▁लुबैयो ब्ला
▁मुंराय नि
▁बराय नाय
▁लेंहर दों
सुलि ,
▁बेसाद फोरखौ
▁मेर गाया
▁जʼरा ,
्बाय ारि
▁रुप ानि
▁198 0
▁आजाव नानै
▁सेक्स पि
▁अलʼका -
▁हास्थाय नायखौ
▁"ओ हो
▁रुजु नाय
▁मिलि यन
▁लाइमोन फोरा
गु सु
▁कार ेन्ट
▁डाइ लʼग
▁ओंखारलां नायसै।
▁जुग ाव
▁बिग्राय ारिफोरा
▁हावरिया -
▁लर ेननि
▁बुथुम नानै
▁बोसोन खौ
▁सिलागां ,
▁साग ्रिद
▁सर् बेश
▁दैम ारी
▁दास ान्दै
▁फोरमायथि नाय
▁दब थाय
▁'ब बि'
▁गाननाय -जोम
▁फाइल फोरखौ
▁गेर े
▁गेर ेमसा
▁सिलाइ खौ
▁देग्लाय नि
▁फोथां नो
▁सायखʼ नाय
▁बृ शिक
▁बृ हस्पति
▁खाजा खौ
▁दोनथुम नो
▁दोनथुम ग्रा
▁जांख्रिथाइ याव
▁मावरिया -
▁थाह ैनो
▁टाइ प
ल्द ाबाय
▁(स ानैबो
▁मोनाखै सै।
▁सिल ारामा
▁नार्जारी ।
▁बिल ोग
▁थायनै खौ
▁थादʼ नाय
▁थालां नाय
▁जासि नानै
गाँ वाव
▁जोंरुवा ।
▁गौथुम नि
▁जग ाज
▁रह मान
▁उखै नाय
▁"फ िसा
▁होव ाखिसै।
▁नायो। )
ess or
▁सानदोंमोन ;
▁मेमʼरि याव
▁बेंख ननानै
▁दानसे यारि
▁माइथाय सिम
▁फावथाइगिरि ।
▁आह म
▁नेव सिनो
▁फोलाव नानै
▁सेंग्रा-सि ख्ल
▁फालांग िनि
▁साननैसो नि
▁बिफान जों
▁बादाय लायनाय
▁दाबुं ।
▁आन्दो याव
▁सहै ब्ला
▁मार् का
▁हरसे मानि
▁जोबथार नाय
▁फुथु नानै
▁सोर् गो
▁सोदोम स्रिनि
▁जोथोन ै
▁खैना शान्ति
▁दोहोरोम नि
▁आन्जाद ाव
-दा ङा
▁जाखा ङो।
▁अस ान्ति
▁टि. भि
▁बाखनाय थाव
▁बीर ु,
▁सन् मिल
▁साबु कनि
▁साबु कखौ
▁थांदिनि ।"
▁गय-फाथ ै,
▁खिरखि जों
▁दुखु-दाहा ,
▁ऊ ँ
▁गाथ ोन
▁नोंथा ङानो
▁सेके न्ड
▁गोदाव -सोर
▁दर्बासि खौ
▁मावरिजा ।
▁जान्जि याव
-2 00
har act
▁असि ला
▁फोज ाखां
▁फिसि नाय
▁फोजोबस्रां नो
▁थासान्दि याव।
▁बक सिस
▁कर्ट ाव
ेड िया
▁सहर ाव
▁लखʼ ब
▁गेबे ङै
▁सोरा ङा
▁ड्राइ भ
▁थेख्र े
ram a
▁बम फां
▁हाराम जा
▁आरज लाइ
▁बुन्द ानि
▁बाङ ाय
▁बाङ ाली
▁बिबां नि
▁रायजित खौ
▁सोनार ो।
▁अबंलाउरि नि
▁हालि व
▁भ्लादिम िरा
▁मेसे ं
▁देम ग्लाय
▁दावबायारि फोरनि
▁बाथरुम ाव
▁हाथर खि
▁प्रदी पा
▁हुम खि
▁नायथिं -नाय
▁गांनाय -उखै
▁भुगिनां नाय
▁. txt
▁गब्लं जों
▁मोनलो ङा।
▁(A d
▁दारʼ गा
आले या
▁नोर खो
▁इसि बां
▁गेदाइ या
▁आखान्थि याव
▁मावमोन थायनि
▁धर णी
-गे जेर
▁रिज ाल
▁बिलिद नानै
▁गाजा-गोम जा
▁नारेंग ुर
-लाइफां ,
▁जात्राग ान
▁अमि ता
▁रेजि ष्ट्रे
▁सायना सालियाव
▁बिल् डि
▁सिग ांग्रो
▁In ter
▁कान ाइला
▁बोथ्रोद नानै
▁आवग्रि नानै
▁स्टाइ ल
▁नाले ंख
▁J ul
▁बिस्ति बार
▁बायहेर ायाव
▁आदुंग ारि
▁बिरहा ङा
▁आउट पुट
▁ख्र ों
▁जाप ाननि
▁एसेम ब्लि
▁निर् माल
▁लेदि ज
rac tical
▁सम्फ थि
▁मैगं-थाइ गं
▁जोगोन ार
▁उदा ङै
▁किर िरिं
▁गाबगु -खुगु
▁फिल् म
▁फायारि ं
▁नारेंख ल
▁दोना सै।
▁जो-जो ला
▁खैदां -खैफोद
▁'आनारी '
▁बजब ना
▁बिभ ी
▁एखम बा
▁इक्ल ेटिक
▁मेंग ्लि
▁'सोम दोन'
▁शुक ्र
पित ालाव
▁खैफोद-आ फोद
▁थंब्ल ेद
▁मुम ्ब
▁जालि जौ
▁आन्च लिक
▁अस्त ाद
▁गुबुन-ग ुबुन
▁साइटʼ काइनि
▁जायै-लो ङै
▁बृशिक :
▁रेजिष्ट्रे श
- ,
- ।
- ना
- ले
- खि
- स्रि
- हो
- खो
- गार
- खोम
- सिं
- थोर
- खन
- मासु
- कास
/ गथʼ
0 3
2 4
2 5
2 6
8 0
E ,
I n
a ve
b ar
c h
c tion
e ar
f ication
i th
l d
l l
o -
o y
r ed
r ess
s h
अ .
अ न
ओ ंखाम
क ल्प
ख ान्
ख ारा
ख ागोन
ख िरा
ग खौ
ग ानाय
ग ्रेब
ज ्र
ज ाज
ज ुरि
ज ्रेद
त '
त ान्त
त ्व
द य
द ।
द ाद
द ोब
द ांग
द ोन।
द ्रे
द ानिफ्राय
ध ाम
न र
न ारा
प ʼ
फ ेन
फ टि
फ ालां
फ ाग्रा
फ ैयाखै
ब ोन
ब खौ
ब से
ब ोनां
ब ंनि
ब ाथा
ब िसोर
म त
म ारी
य ला
य ेर
य ानिफ्राय
य ाबालानो
र ब
र ाजा
ल ानाय
ल ैया
व ो
व ारी
व ाबा
श ां
ष ,
ष ा
ष नि
स ारी
स ननि
स ाइनि
स ारी,
स फ्ट
ह ाया
ह ोम
ह ाला
ह ोनाया
ु ।
े इ
े त्र
ो बो
् ज
् था
▁ +
▁ ञ
▁ खौनो
▁ us
▁ब ,
▁ब माजों
ान ।
ाव रि
▁स क
▁स ङै
▁स ्म
▁स ानिफ्राय
▁स ुरै
▁स ुरि
▁स लाद
▁स ार्क
▁स त्य
▁स थब
▁ग ण
▁ग ी
▁ग था
▁ग ायै
▁ग ार्ड
▁ग वाल
▁ग िनांगौ।
▁म ाबाय
▁म ारा
▁म ण्ड
▁म ल्ल
▁म ार्क
▁ज ुल
▁ज है
▁ज ारा
▁ज ालʼ
▁ज ाजो
▁ज ुलिया
▁ह ुं
▁ह वा
▁ह ाखा
▁ह ालागै
▁आ मि
ला ला
▁न ो।
▁न ाहर
▁द ुन
▁द ले
▁द ागो
▁द त्त
▁द द्र
▁द ानिफ्रायनो
खौ '
▁बि न्द
▁बि जाव
▁बि नो।
▁बि यार
▁बि लायाव
▁थ द
▁थ ुल
▁थ ाजोब
▁थ ब्लं
ाब ्राय
▁ख ारि
▁ख ्रि
▁ख रि
▁ख ष्ट
▁ख राग
▁ख ेम
▁ख ांग्रां
नाय )
नाय लाय
नाय सो।
▁फ िरि
▁फ राइ
▁फ ्राम
▁फ राम
▁फ ्रु
▁फ ्लिं
▁बे जे
▁बे थन
▁र ांग
▁र मानि
▁र मान
▁र गʼ
▁र मा,
▁र बिन
नानै ]
से न्स
▁गो दि
▁गो लां
▁गो सो।
ाम ,
▁ल क
▁ल िस
सि क
सि जों
थि ङाव
दि से
न् दों
न् जु
बाय लै
ाज े
ाज ्ला
ाज िन
ाज िनि
.. ।"
▁मोन ना
▁मोन नाव
▁मोन दा
▁मोन नायाव
▁मोन थाव
▁मोन फ्रोम
▁मोन जायो।
▁मोन ग्रो
▁मोन स्लाब
फोर हा
ाथ ीनि
▁आर ाम
▁अ बाव
▁अ स्
▁अ मानि
ाया ,
▁आरो मा
ाल ेण्ड
▁सि बाय।
ेर िया
ानो थʼ
बा )
▁ला सिं
▁ला दों,
▁ला गाय
▁ला सखौ
▁ला जोबनो
▁ला जिस
▁ए उ
▁ए खु
▁ए खर
▁ए न्ज
▁ए सनि
ाला ,
ाला बासिनो
मोन ्नाय
▁नों ना
▁नों स्रा
▁नों सिनाव
ब्ला थʼ
▁मो स्रोम
▁मो फ्लाम
्रि फ
यो ;
▁सान लाय
▁सान हर
▁सान गोन
▁सान दुं
▁सान थाया
▁सान ब्रै
ायाव ।
▁उ थुजुग
▁" A
▁" नि
▁" नो
▁" हा
▁" ...
▁" हार
▁" थें
▁" हे:
ुब ्लि
िन ेट
िन ेस
िन ांगोन।
▁क ुर
▁क टन
▁क क्राझारनि
▁बुं बो
▁बुं दों,
▁बुं खांनानै
▁बुं फिनो।
▁बुं फ्लां
▁बुं हैयो
▁बुं लांदों
▁बुं सʼनो
▁खालाम ,
▁खालाम ामोन
▁गाव लʼ
▁गाव हानो
ुन ाव
ांग ्रि
लʼ ,
लʼ नि
लाय जासे
▁सम ाया।
▁सम ब्रा
▁सम सेर
▁सम ेत
▁सम -सम
ले स
ले ना
ले न्स
▁- बि
▁मा घ
▁मा फा
▁मा सेबो
▁! '
▁थां खां
▁थां नां
▁मि टार
▁मि टिं
न्द ार
▁हाब लां
▁हाब सु
▁हाब ाखालि
▁जों फोर
▁जों गा
जि बि
सोर ा
सोर नि
▁फै खो
▁फै नायखौ
▁फै दो।
▁फै गोन,
▁फै सानि
▁फै फिन्नानै
▁फै फिन्नाय
ंग िया
ंग ालि
▁जा फैनो
▁मान ोमोन
ंख ्रे
▁हो बा
▁हो खो
▁हो गार
▁हो ग्रां
▁( से
▁( था
▁प स
▁प ाइ
▁प ेर
▁प िन
▁प ेन्ट
▁प रम
▁जे लाव
▁इ छ
▁इ ड
▁इ ष्ट
▁इ ंगि
▁इ खान
▁बु बाय।
हर बाय।
हर नायखौ
▁नाय लाय
▁नाय दो।
▁नाय जानो
▁नाय हाबनानै
▁बियो दि
▁नु बो
▁नु गोन।
▁नु जायो।
▁नु ग्रोमोना
▁गे स
▁गे सेर
▁सो ङ
▁सो लास
▁जि ला
▁जि गां
▁बा दों
▁बा साव
▁बा सिया
▁मे थें
जा दोंमोन।
ाबाय ,
▁सोर मोन
▁सोर निफ्राय
▁सोर थो
ुग ोनां
▁नाथाय बा
▁फिस ्रि
▁बो दों।
▁बो खां
▁बो ख्ल
▁बो ल्दानानै
▁बाथ ʼ
▁बाथ े
▁बाथ ायाव
▁सा ध
▁राव ना
▁राव फोरखौ
▁बरʼ ।
▁बरʼ जों
▁बाय ो
▁बाय दों
थाइ या
थाइ याव
बि ल
▁मानसि ङा
▁मानसि फोरजों
▁मानसि फ्राबो
▁दै बो
▁दै लो
▁दै खाङो।
▁दै मा,
थार नि
थार सै।
▁से ल
▁से ले
ङो -
जो बा।
▁लोगो फोरा
▁माव दों।
▁माव बाय।
▁माव गोन।
▁माव नाय,
▁माव गासिनो
▁माव ाखै।
लाइ ,
▁सु कुर
▁बादि या
फै नायाव
फै नायसै।
▁दा सोम
▁दा सि।
गा सिनो।
▁बार ्
▁बार बाय
▁बार नायनि
▁बार लांबाय।
▁बार हावा
▁दे श
▁दे लै
▁दे ने
सा ङाव
है ।
है गोन
▁गु स्टि
▁नङा -
▁मोनसे याव
▁ओंख ामा
▁अन ार
▁अन ारीया
▁अन ाथीनि
▁गोर ाजों
▁गोर जिया
▁गोर ाजोआ
▁' ट
▁' ड
▁' बाव
▁सलʼ वानो
▁सलʼ बाथा
▁मु क्ति
▁हम ,
▁हम बाय,
▁हम नायसै
▁दिन खालि
▁दिन थिनो
▁दिन थिनाय
▁बिसोर ,
▁मोजां खौ
▁मिथि बाय,
बे निफ्राय
▁गोद ौ
▁जेर बा
▁जेर बायाव
ख्र ाइ
▁थानाय ,
▁थानाय खाय
ोना ।
▁दि खांनो
▁थि लि
▁फो जानानै
▁फो लानो
▁जानाय निफ्राय
▁ड :
▁ड िस
▁ड ्रेस
▁ड ील
▁ड लार
▁सोम खि
▁सोम जाय
▁सोम स्रिनि
▁सोम स्रिखौ
▁गा डʼ
▁गा ण्डा
▁गोनां फोरनि
▁ना ।
▁ना पि
▁ना सय
▁जाबाय लै
्द ै
ाजा ,
▁गैया ;
ाब्ला ,
▁फाव खौ
▁फाव गिरि
▁फाव थायारि
ार् न
▁1 000
▁हा सार
▁हा सʼ
▁हा फाय
▁हा कि
▁हा -दै
▁समाव सो
▁खा प
खो ला
खो लाय
▁जानो बा
▁जानो सै।
▁मुं ख
▁मुं जों
▁मुं फ्रोमखौबो
▁मुं राइनि
▁दाव राय
▁दाव ज्ला
ेट ार
ेट ा,
▁ओंखार ला
▁ओंखार नायनि
लाव नो
▁नाग ालेण्ड
▁भ ारि
▁भ ार्च
▁दोन जानाय
▁दोन फैनाय
▁गाह ायै
▁बै नाय
▁बै याव
▁बै ग्रि
▁बै थालि
बादि नो
▁सोद ांनाय
▁जौ जों
▁जौ थाइनि
▁लिर ो
▁लिर बाय
▁महर ाबो
थिं बाय
▁गार ाया
▁गार ना
▁गार गोन
▁गार नांगौ
▁फराय नोबो
ाजों ।
▁थै ,
▁थै जासे
▁नि य
▁नि र
▁जिउ -ज
गौ ,
▁हारि हा
माय ारि
▁हां फ्ला
▁हां सानि
▁आइ खौ
▁आइ ।"
नांगौ ।"
फिन ब्ला
फ्रा सो
▁जोब ्बाय
▁जोब जासिम
▁गै मार
▁सों दोंमोन
▁सों है
▁सुबुं ।
▁सुबुं जों
▁दिन्थि नाय,
▁दिन्थि फुंनाय
▁नां दों।
ब्र ामा
▁अर नि
▁आन खि
▁राय ग्लि
▁सानै ।
▁लाइ फ
▁फार निसार
थिया हां
▁आखु खौनो
▁लां दोंमोन
▁खार ा।
▁खार खाना
▁खार स्लिउ
▁आंखौ ,
गां नि
▁बाव दों।
▁खोम था
▁खोम ाना
जोब नाय।
▁गासै खौ
▁बिफ ानो
▁सोदोब फोरा
▁सोदोब फ्राव
▁बाज ारि
▁सान् दा
▁सान् नायनि
▁सान् दों-
ल् फ
▁खामानि ।
▁खामानि याबो
▁गथʼ ,
▁मोन् नैसो
▁होनाय ानो
▁नागिर नायाव
▁दान ना
▁दान निफ्राय
▁दान सोरा
▁थुन लायारि
▁बाद ै
▁बाद ाम
▁खु व
▁खु नो
▁खु सेर
▁श ्राइ
्दि न
▁जाया ।"
▁बिख ान्थि
▁गाज्रि खौ
▁गाज्रि मोन
▁जाह ाद
▁नङ ि
▁नङ ाब्लानो
▁खोन ाम
क् साव
क् सन
▁च ,
▁च ु
▁च ाइ
दां ,
▁लों ब्ला
▁लों नाय,
▁लों नांगौ।
▁लों होनो
▁खो थ
▁होन्नानै सो
▁राज ानो
▁राज ेन
▁बेफोर ो
▁बेफोर ।
ष्ट ेलाव
▁ध ाली
-फ ो
-फ ाल
-फ राय
▁जु थि
▁जु थे
▁जु क्ति
▁मह म्म
ब्ल ेम
▁नोजोर ।
ानाव ।
▁प्र .
फि ना।
▁बोसोर सो
▁बोसोर थाम
ेस ननि
▁हानाय सिम
▁बुंनो बो
▁त ाला
▁त सर
▁बेर ामा
-ग ुर
-ग ोब
▁ले म
▁बाहाय ग्रा
▁जिर ि
▁सं दान्
▁मोस ानो
▁सेर ्
▁सेर खाय
▁फि द
▁फि नो
▁सिं खौ
▁ने यो
▁ने बाय।
▁ने शनेल
▁आय ना
▁फारसे बो
▁फारसे थिङै
हाय ,
▁मै नि
▁मै था
▁बबे खौ
▁मोखां ।
▁मोखां थिं
▁दर जाया
▁दर नैनि
▁दर जाजों
▁दर जायाव
ौवा ,
▁बेखेव थि
▁सिरि नाय
▁सिरि जाहा
▁मेगन ानो
▁दुर ्ल
▁दुर ्लुब
-स ोम
-स ाथाम
-स ोनाब
-ब ुर
-ब ांग
▁आद बा
▁आद ैया
▁आद ्‌दा
▁एर नाय
▁लोगोसे नो
▁गोहो -बो
ावनो ,
▁दाब ारी
▁दाब ्राय
▁दाब सियाव
▁हाम िद
▁खाव नै
▁खाव लायनाय
▁नांगौ नि
▁ओंखाम ,
▁हांखो फ्रा
▁उन्दु ला
▁उन्दु है
जाय खौ
▁रि प
▁रि ंखा
▁लुबै नाय,
▁लुबै सुला
▁समाय खिरा
▁नुनानै ।
▁गंसे यावनो
▁थानो बो
▁थानो सै
▁सिनाय मोनै
▁बारा सिन
▁सौ थार
▁सौ दाव
▁सौ थु
▁जʼ नो
▁जʼ गार
▁बिह ाराव
▁गामिनि ।
खाय ाबो
▁फा ङा
▁फा फा
▁लाबो आ
▁गोग्लै बाय
▁आफा फोर
▁आफा ।"
ेश नाव
▁समाज ,
▁खिन् थायो
▁एम ,
▁एम बु
ुरि याव
▁हु दाया
फ्ला बाय
फ्ला ङो
▁हौवा फोर
▁खौरां ,
▁खौरां फोरखौ
▁हाय ।
▁सानसे मानि
▁गोजोन ्
▁थाम ्
▁लानो बो
मि ला
-ह नाय
▁राग ाया
▁राग ायाव
▁फिन ज्राब
▁रे ष्ट
▁लु टि
▁लु स्सा,
▁सर जाब
▁गान ो।
▁गान होनानै
फु बाय
▁हार साया
▁मलेन ।
▁सिख्ला फोरखौ
▁गʼ यो
▁बिलि त
▁लाब ानो
▁फे फे
क्ट रनि
▁मुग ैनो
▁बिलाइ जों
यानो थʼ
▁मद त
▁मद दाव
▁राजा फोरा
▁राम चि
▁कम् फिउट
नायजों नो
▁अब्ला सिम
▁बिजिर खʼ
▁बिजिर सालिनि
▁बिजिर सालिया
▁जिराय बाय
▁मिहिर ाबो
▁सेप्तेम्बर निफ्राय
▁मन्जु वाबो
▁हाल ुव
▁का श्य
▁हान् जाजों
यार खौ
यार ्ट
▁जें नायाव
▁जाब सिन
▁लाजि नाया
▁लाजि गुसु
▁थाइ जाजों
▁मोननै खौ
▁नखर ।
▁दिहुन ना
▁फान थाव
▁बांसिन ।
▁साइ ट
▁साइ रʼ
▁बेद लाव
▁बेद द,
▁सावराय ज्लायनो
मार ो।
▁थांखि ।
▁हि माल
▁दो ल
▁दो खो
-बि ख्ल
▁हाबफै बाय।
▁सोलों नानै
▁इराग्दाव खौ
▁थान ांगोन
▁अन् नानै
▁अन् जु
िरि ,
▁नार् जां
▁जेन नानै
▁थिन दों।
▁थिन नायाव
▁अराय दिन
▁बर ाया
-र िन
दाय ानो
▁सोरजि नानै
▁सोरजि गिरिनि
▁फारि ।
▁फारि लाइ
▁गेले होनाय
▁फाग ्लानि
▁दाम ि
▁दाम नानै
▁दाम ब्रा
▁आखायाव नो
▁सार ,
▁दाख ोन
▁के .
▁के च
▁जोहोलाव '
▁3 5
▁.... ।"
जे ङा
▁दौ ल
▁दौ नाय
▁दाउ थु
दाव ला
▁आबौ नि
▁बेयाव बो
▁बेयाव हायनो
▁पि य
▁दङʼ मोन
▁दङʼ ।"
▁हाख ो
ाहै यो
▁गय थिया
▁सान्थ्रि नि
▁बिखा -बिख्ल
बोनाय खौ
▁उद ्राय
▁उद ुनि
▁उद ुरामा
▁इं लेण्ड
पार ानि
▁अखा फोर,
▁हेफाजाब गिरि
▁है बाय।
▁है दिनि।
▁नायनो बो
▁बैसो आबो
▁गुदि ।
▁बुंदों --
फेर ाखैमोन।
▁साम व
▁घ ट
▁घ र्ना
▁गोसोआ ।
▁नोगोर खौ
▁खर स
▁खान स्रि
▁अब ंनि
▁दैदेन नाय
▁दुर्जा ङानो
▁मदद खौ
▁मदद जों
्य ायाव
▁आखल ।
▁उन्दै नि
▁बिस ना
▁"म ै
▁फरायसा फोरनो
▁गारि निफ्राय
▁फोसाव नानै
▁अम ृ
खाव नाय
खाव नानै
सिया ल
▁गाय नानै
▁आथिं जों
▁आथिं निफ्राय
▁बानाय सो।
▁सांग ्रे
▁खां नो
▁खां सोर
▁माबार ,
es t
es day.
▁थो थोर
▁मिथिगौ ,
▁लो ङो।
▁खʼ थानि
▁बेफोरखौ बो
▁खोनासं बाय
▁आन्द ार
▁नुजा फैयो।
▁नुजा फैनो
ेसन ,
उरि टि
रे न्द्र
▁........ ......
▁सोमावसार नाया
जाग ासिनो
ंगार ो
ou t
▁बिथांनि नो
..... ।"
▁फाहाम सालिनि
▁जिंगा ,
▁जिंगा सिनो
▁गोथार ै
▁गोथार ।
▁गोदो निफ्राय
▁गोमो बाय
▁गोमो हाब
▁गोमो थावना
▁होफै दों
▁थियेट ाराव
▁बुंहर ो।
▁मनजु आबो
▁साख्रि खौ
ता प
.ए फ
▁रʼ या
▁नायगिर ो
▁नार्ज ारिनि
▁बह ्रा
▁दों मोन।
▁दावहा ,
▁दावहा ।
▁बेरखां नो
▁जुनै बो
▁खें सालि
▁लोम स्राव
▁सुजुग ्रायाबो
▁रायलाय नायनि
▁रान नानै
बाद ी
▁आनजाद ा
▁गोब ाथ
▁इन टारनेल
▁रायज्लाय ग्रा
▁कलेज ,
▁गम्भ ीरा
▁गोरों -गोरा
▁हारिमु खौ
▁गाबज्रि नायाव
▁गाइखेर ,
▁C :\>
▁गोसोखां दों
टʼ प
▁गेदेर थार
जाथ ाव।
▁हायाखै ,
▁हायाखै सै
▁रोदा खौ
▁गोमजोर ,
▁सʼना फुलि,
▁बुङ ाबालानो
▁बायदिसिना ।
▁"बे यो
▁7 8
▁साखा फारा
▁होमब्ला सो
▁होमब्ला लाय
दानि या
▁अख्रां मायाव
▁नʼखर खौ
▁मिथिया ,
▁खेबसे लʼ
▁मिजिं थि
▁गेव नाय
▁देंखो खौ
▁अनि मा
▁अनि लनि
-थ फ्लि
▁सोब ै
▁सोब ग्रा
▁"अ उ
▁"अ बंनि
▁फैया ,
▁माने ,
▁सोरां नि
▁सोरां नाय
फैयो। )
▁देव ना
▁रुवा थिनि
▁आयदा ,
▁हुगार ै
▁बिजौ वाव
▁जायाखै मोन
▁सुखु यै
▁फोलेर ा
▁फोलेर ारि
▁गाहायाव नो
▁A ss
▁A cc
▁नोम ानै
▁बेग ें
▁रजि ।
▁गोलै नो
▁गोलै यो
▁फैफिन ब्ला
▁फैफिन ाखै।
▁लिंहर नाय
▁नेर ्स
▁लाव दाब
▁लाव थिजों
▁खुन ोर
▁बानजाय फुंनो
...... ।"
▁मुंमा ,
▁मुंमा खौ
▁नागा फोर
▁रंजानाय ,
▁फाग्ला ,
el eg
▁थिङै ।
▁देरसिन ।
om e
om m
▁मोनथि बाय
▁फाफ नि
▁थाद ेर
▁पे ड
▁टा टा
▁टा उननि
▁गोथै सालियाव
द्राय ब्ला
▁माल दार
▁बिथा ,
▁जाथार बाय।
▁कमाण्ड फोरखौ
▁सिब िस
▁गन्थ ं,
▁जाला ंखो
▁थोर ्फो
▁सोलोंथाइ नि
फ्ले बाय
▁T o
▁T rag
▁गोल ोन्दां
▁मिनिस्लु यै
क्ष ेत्र
▁नेम ।
▁थिनहर दों
▁थिनहर बाय
▁थिनहर दों।
▁जाबो बाय।
▁हांग ार।
▁गोजा ,
▁जेसेबां नो
▁खनसे लʼ
▁P l
▁बिगि यानि
▁ष्ट ेडिया
▁सेव ारि
▁ओंखारबो बाय।
▁खुदिया फोरनो
▁मीनाराम नि
▁फाथ ाल
▁थगाय नानै
▁हाबाब ,
ज्ल ायो,
▁मंगल ीयान
▁मुस ुर
▁जागाय जेननाय
▁खामानियाव ।
▁I I
▁बाल न्द
▁खेर ेब
▁अबं लाउ
▁t ra
▁w ww
▁हाबि लास
▁c omp
▁बिथि ङा
▁फाख ाय
▁कर् च
▁कर् निया
▁आखुनि ।
▁दायनि गिर
▁नुजाथि नाय
थेर नो
▁एव नानै
▁लाह ारिया
▁भुट ाननि
▁दैदेनगिरि फोरखौ
▁मखʼ नो
▁थुंग्रि या
▁फोसाब नायनि
▁गोबा ङैनो
▁सोनाब नि
ड़ ी
▁लं थं
▁लं फेन्ट
▁सुबु -रुब
▁फाग्लि ,
▁फाग्लि ।
il d
▁साथाम नि
▁सोरखार जों
▁बिबुं सार
▁बिबुं थिखौ
▁बिबुं सारनि
▁"मानो थो
▁मेलेम जिबि
▁खाना ,
सिगौ मोन
▁हार्सिङै नो
▁य ,
▁दोह ोननि
▁स्रां -स्रां
▁फटʼ ग्रा
▁कमि टिया
▁जिबौ नि
▁रौ -रौ
▁केर ल
▁केर ि
▁थासारि जों
▁d o
▁गुफुर ,
फब नाय
▁जाजोब नानै
▁बेफ्रु नाय
▁लांगोन ानि
▁नुव ाखै।
▁जिनि सखौ
▁दोनथʼ नाय
▁मोन्नै बो
▁रुप ाया
▁रुप नाथ
▁198 7
▁198 8
▁दाखालि सो
▁नुज ाबो
▁नुज ाहैनो
......... ।"
▁लायनो ।
▁काप खौ
▁"ओ ह
▁बेलासि ।
▁"ए ,
▁क्ला बाव
▁भि ट
▁सोंनाय सै,
▁बेम ारिखौ
▁नाङै नो
▁रेन्ज ारनि
▁खुंथाइ खौ
▁खुंथाइ या
▁थʼ फ्ला
▁इसोर खौ
▁फाराग खौ
ation )
▁थेर नाय
▁नङामोन ब्ला
▁मनजुल ाया।
▁n o
▁सर् मा
▁बुंबाव दों
▁बाथौ नि
▁बिजन ी,
▁मोसाह ारी
▁मोसाह ारिया
▁गुलि याव
▁दब ्लाय
▁दान् नानै
▁दान् दा
▁दान् थे
▁थागोन। "
▁दखना खौ
▁सलʼमाग िरिया
▁बृ टे
▁कन्ट ्र
▁इसिं नि
▁संख्रि ,
▁आसार खान्थि
▁लैथो आव
▁ब्लाउ ज
▁नौनारि फोरा
gu e
ज् ञ
▁द्र यिं
▁मोन्दां थि
▁सानथौ नि
▁सेक ्रिफ
▁सेब खांनानै
▁हाथार नाय
▁लाया खै।
▁सिलि म
▁बान्दो लखौ
▁होबथ ानाय
▁बʼ बे
▁आप कुनि
▁(आ इ
▁फुदुं नो
▁दोलो नि
त् मा
▁L im
▁गंग ्लाय
▁मानै खौ
▁एक्स प
▁बास जों
▁रांखान्थि नि
▁बेलायाव बो
▁थायनै जों
जागोन। "
▁बिद ैया
▁फाय ार
▁गावराव नि
▁बाथुव ानि
▁बाथुव ाया।
▁गारा ङाव
▁"फ िस
▁होव ाखै।
▁सेन्देल खौ
▁बसुमतारीया ।
▁डाक्ट ारा
▁आमेर िका
▁बांगाल नि
▁मुर ्
▁हज्रि -ह
▁फ्र न्ट
▁सुनि खौ
▁निदान खौ
▁दुखु-द ाहानि
▁गोग्लैयो। ।
▁फान्दाय नायाव
▁शंकरा ।
▁गदाय नि
▁मत ाम
▁देरग ानानै
▁नाजाव नानै
▁रंजालिया ।
ान्द ारि
▁दैथुन नि
▁ची फ
▁गान्दु खौ
▁थाथों ।
▁ख्रे ब
▁गʼला दार
▁बुरखाय नाय
▁गावबुरा खौ
▁मार् स
▁नङै नि
▁सोहोर ाव
▁दाका ति
▁देब नाग
▁नब थि
▁सानथ्रि नि
▁बाख्रि याव
▁सेक्सपीयेर ा
▁अनुले खानि
-फु फु
▁दोहोरोम ारि
गाँव नि
▁सार् भि
▁जाखा ङो
▁थिन् नायाव
▁नोंस ाला
▁मोख ोना
▁दासान ।
▁रुजुन नानै
▁बेंगल ,
▁साफाय नानै
▁'द ोर्सोन
ver b
▁ज्र य
▁ज्र ाव
▁नोंथा ङाबो
▁सात जार
▁गिला साव
▁सेके न्द
▁फेदेर नानै
▁मावरिजा :
▁"सि :
▁"सि रि
▁फास ्लां
▁बिसुखे नि
▁(म िनि
▁आगष्ट ,
▁दानथार ु
▁हालोद ाव
▁किउरिय ʼनि
▁फरेष्ट नि
▁Y ou
▁जल ंगा
▁बेरा फारसे
▁बेफारि खौ
▁लाग ाम
▁जोंब्ल ाव
▁थेख्र ेनि
▁उन्दुलां फु
▁साबि द
▁g o
▁जार् मान
▁बिबां आ
▁जथुम् मा
▁सिन्दुर ,
▁अदालगुर ी,
▁मंग ʼ
▁मंग लिय
▁हालि से
▁सिफि याव
▁बोस्रां नो
▁फोथै नानै
▁नांथार गौ।
▁स्रो दै
▁गलाफ ीनि
▁पेट ्रिडिस
▁फुख्रि याव
▁पाटि लनि
▁कलंख िनि
चर ण
▁गाला ङो।
▁गोना ङै
▁बेसोर नि
▁लाक ीखौ
▁गावजें खौ
▁मास्थार ा
▁पाल ें
.एल .ए.
▁सेकस्पीय ारा
▁k ing
▁बिबादि नो
▁इट ालि
▁बायह ्रायाव
▁आइ-आ फ
▁खुथार ै
▁गबʼ नाय
▁फाद ुब
▁नायग ोमो
▁दाक्ट ारा
▁खुद्रि नाय
▁गोग्ल ैया
▁बुंहरो -
▁साखाथि यावनो
▁सम्प त्ति
▁पाब्लिकेसन स्‌
▁प्रदेश नि
+आ= आ
▁U n
▁ग्रे ण
▁मस ला
▁पकेट निफ्राय
▁इराम ुत
▁सुवा -सु
▁बेलस्री -
▁बांग्रि खʼबाव
▁नारेंग ुरी
▁आदि बासि
▁दद ्रʼ
▁डिमा पुर
▁फुंबि लि
▁सुवामि ,
▁मिन थि
▁मणि पुरनि
▁फज नानै
▁रुबै जों
▁प्ला स्टिक
▁धुब ुरी
▁ता ँ
▁माथा उरी
▁रमायश्रि या
गुल ार
▁उलाफाद ाव
▁होनथे यो
▁बाक सा
▁आब्राम -
▁मन्जुल ाया
▁नंथार गौ।
▁आमो खिया
▁कमिसन ार
▁वाइ ल्ड
▁दुंबुर ुद
▁फिरफि ला
▁सत िस
▁मान् दार
▁थालि द
▁अन्ज ालि
▁उत्त रा
▁गेन्द ्रि
▁मैर ालिखौ
▁हुसियार ै
▁जै-ज ै
▁कन्ट्रा क्टर
▁ङ ,
▁जब्र ानि
▁उसि फाव
▁दैमाल ुनि
▁दुख ुगोनां
▁बैथाल ी
▁मिनिग ाग्लाब
▁फुथि हां
-जुन ार
इउ .
▁फरम ेट
▁उकि ल
▁सासु -मासु
▁टें कि
▁लिंख ʼ
▁हाइब्रि ड
▁इन्सपे क्टर
▁मुब्रुं -मु
▁K achar
▁आन्थ ोर
▁लर्ड ।
▁आब्द ुल
▁रासि यानि
▁लेखा-फ रा
▁साख्रियाव ला
▁खुनुरु खुमै
▁आहमे दाबाद
▁बेण्डेज खौ
▁em otion
▁बर्म ण
▁नमस्क ार
▁(रागा )
▁गासि खौबो
▁सिख्लाय ानो
▁महकुम ानि
▁सेरफ ांग
▁कमपा उन्द
▁दोरो ङारि
▁जाम्बा-जाम ्बि
▁बेसा त
▁नायख ंख्रे
▁डेन म
▁लेह ेम
▁टेलिफ ʼन
▁वर्क श्व
▁खायसे~खाय फा
▁डेस्क टʼप
▁सर्बेश ्वर
essor ies
▁टि.भि .
▁गोदाव-सोर ाव
▁नायथिं-नाय था
▁रिजाल ्ट
▁रेजिष्ट्रेश नखौ
तान्त ्रिक
▁सलाद ें
▁अस् थाद
▁"थें क
▁श्राइ न
▁सिरिजाहा त
▁फेफे -फुफु
eleg ram
▁Lim ited
" -
" या
' आ
, आ
- 7
- औ
- त
- दि
- फ्र
- जेर
- लाव
- रा
- थाव
- ब्र
- खाल
- थोन
- खेर
- बाद
- प्ल
- नु
. पि
/ 0
2 00
3 5
5 ),
8 4
9 )
9 0
? )
A C
O M
a v
a w
a il
e )
f e
i ti
i le
i re
i et
i ous
m es
m ent
o f
o ther
p l
p o
s er
t t
v el
y le
} ,
ʼ म
ʼ स
अ ʼनि
इ नाव
उ टि
क ʼ
क ाइ
क बि
क ेस
ख ाबो
ख ंनि
ग ्ला
ग ोबां
ङ ाया
ङ ारी
ङ ामोन
ङ ालʼ
ङ ाबो।
छ ानि
ज ्रब
ञ ्
ट ेलनि
ड .
ड ाइन
त न
त ्या
थ ाला
थ ेन
थ ाना
थ ौवा
थ बनानै
द ौ
द ्द
द ोमोन
ध ्द
प '
फ ायनो
फ ायो,
ब ।
ब ोना
ब ाथʼ
ब ाजार
भ ेला
म ी
म िनि
म ाबा
म िसन
म ेनखौ
य ाब
य ायै
य ारिनि
य ारी,
र ाब
र जों
र ामा
ल ग
ल ो।
ल ारि
ल िन
व ालाय
स ाजा
स ाजों
ह ुन
ह ें
ह ु,
ह ैयाखै
ा फ
ा सै।
ी ं
ु टि
े ।
ो -
् सि
् मा
् बां
् बाय,
▁ j
▁ ~
▁ all
▁ब इ
▁ब ब
▁ब ी
▁ब ानि
▁ब ालाय
▁ब माया
▁ब ्रें
▁ब सुमा
ान ी
ान ांगौ।
▁स ,
▁स ी
▁स बाय
▁स ोना
▁स ायो
▁स ारा
▁स ाजि
▁स फैनाय
▁स ैया।
▁स ंगिना
▁स प्
▁स थबनानै
▁ग ,
▁ग नायनि
▁ग ाराम
▁ग ग्र
▁ग लायनाय
▁ग ्राम
▁ग ुलिया
▁ग ब्राय
▁म ख
▁म र
▁म ौ
▁म न्द
▁म ुरा
नि ल
▁ज वा
▁ज रि
▁ज गार
▁ज मि
▁ज लद
▁ज खाइ
▁ज खायसे
▁ह थʼ
▁ह ानो।
▁आ फोर
▁आ लʼ
▁आ स्
▁आ पार
▁आ सिया
▁आ थें
▁आ बा,
▁आ शि
▁आ जिरा
ला मा
ला दा
ला बोर
▁न ी
▁न ान
▁न ाद
▁न हा
▁न खʼ
▁न ेस
▁न ायाखै
▁न सिङाव
▁न र्थ
▁द ानै
▁द ुंग
▁द न्दर
▁द ालाय।
्र ायनो
्र ै,
ोर ।
▁बि आ
▁बि घ
▁बि लʼ
▁बि नायाव
▁बि खि
▁बि सिन
▁बि थाया
▁बि थिङै
▁बि थर
▁बि कास
▁थ लʼ
▁थ ोन्
▁थ ांग्रो
ाब नि
ाब ां
ाब ्ल
▁ख िन
▁ख राय
▁ख ायो।
▁ख माय
▁ख ान्दि
▁ख िरि
▁ख ान्दिसे
▁ख ्लां
नाय नो
नाय नाय
▁फ ,
▁फ ल
▁फ स
▁फ ौ
▁फ न्दि
▁फ ʼना
▁बे ड
▁बे बा
▁बे गाव
▁र ङ
▁र ड
▁र ायो
▁र ना-
▁र िस्ट
▁र ोबै
बो आखै
से रा
से न्ट
ाम खौ
ाम िन
▁ल ेव
▁ल ण्ड
▁ल केल
सि रा
सि दे
सि न्नानै
सि न्नाय
थि यारि
न् जा
न् जित
बाय दों
.. हि
▁मोन बादि
▁मोन नो।
▁मोन सिं
▁मोन थोर
▁मोन थायनि
▁मोन स्रा
▁मोन खाङो
▁मोन गोन,
▁मोन हैयो।
▁मोन दोंमोन,
▁मोन हैनानै
▁मोन थिया।
▁मोन जाथार
ाथ ां
▁आर मि
▁आर िस्रां
▁अ -
▁अ ले
▁अ वा
▁अ नो।
▁अ नो,
▁अ खाया
▁अ .सि.
▁अ वार
▁अ सुख
▁अ मुक
ाग ्र
ाग ासे
▁आं बो।
▁आं गुर
▁आरो बा
ोम नि
ोम ानि
ाल ै,
ाख र
▁सि ट
▁सि न्
▁सि हाब
▁सि खाङो।
▁सि खांनो
▁सि म्प
ारि मिन
ानो ,
ानो बो
ानो बा
ानो सै।
बा -
बा सै।
▁ला था
▁ला गा
▁ला बाव
▁ला सै।
▁ला खो
▁ला दो
▁ला दो।
▁ला ंगार
▁ला फानाय
▁ला ग्रो
▁ला सिंसिं
▁ए ं
▁ए ग
▁ए ंख
▁ए रʼ
▁ए यार
सो लाय।
जों लʼ
्ल ʼ
्ल ु
्ल ्ला
्ल ेब
्ल ाया।
मोन ाबो
मोन बो।
▁नों ग
▁नों खौबो
▁नों हाबो
ना सो
ना सै।
▁मो ज्लाय
▁मो हेर
▁सान ाया
▁सान ब्ला
▁सान नायाव
▁सान बाव
▁सान दां
▁सान ावनो
▁सान दों,
▁सान ाखै।
▁सान फिनो
▁सान ो।"
▁सान जाथाव
▁सान सʼनो
▁सान फामानि
▁उ -
▁उ त
▁उ जिर
▁उ फेरा
▁उ पेन
▁" ऐ
▁" जा
▁" लाइ
▁" दो
▁" मु
▁" मि
▁" गाब
▁" The
ुर खौ
ुर ेन्ट
फ्र ालाय
फ्र ाथʼ
▁होन बानो
▁होन नाबो
▁क ुब
▁क ान्
▁क था
▁क ाना
▁क ्राइ
▁क ाली
▁क ्रु
▁बुं लाय
▁बुं ।"
▁बुं नो।
▁बुं जोब
▁बुं बोनाय
▁बुं दों।"
▁बुं जोबनो
▁बुं लांदों।
▁बुं खाबाय
▁बुं फादेर
▁खालाम बा
▁खालाम थार
▁खालाम फै
▁खालाम दो
▁खालाम गोन,
▁गाव न
▁गाव ।
▁गाव निफ्राय
▁गाव लायनाय
▁गाव ख्रुब
▁गाव जेङा
ाद े
ाद ाव
ाद ारा
मा )
मा -दाउ
सै नो
▁जाय ाबो
▁जाय ोना
▁जाय ैनि
▁सम जित
▁सम ्ब
▁सम मथे
▁सम मिथि
ले न
▁- !
▁- [
▁- उ
▁मा प
▁मा फ
▁मा सिया
▁मा सनि
▁मा सेनि
ुल ानि
▁थां बा
▁थां ब्लाबो
▁थां जोब
▁थां दों,
▁थां बाय,
▁थां बावनो
▁थां फिनो
▁थां नायावनो
▁मि लाय
न्द ,
न्द ाया
ान् सनि
▁हाब लाय
▁हाब ाबो
▁हाब ्बाय
▁हाब हैनाय
▁जों दों
▁जों खां
▁जों हाबो
▁जों फ्रु
▁जों खाङो
जि य
▁फै थʼ
▁फै थार
▁फै खाङो।
▁जा फ्ल
▁जा फिनो।
▁मान ाव
▁मान बाय
▁हो लाय
▁हो वा
▁हो खानाय
▁हो सोनानै
▁हो थेनानै
▁( c
▁( s
▁( 8)
▁प द
▁प य
▁प िं
▁प ष्ट
▁प िसा
▁प िस्ट
▁जे द
▁जे न्
▁जे ब्लानो
▁इ श
ुम नानै
▁बु व
▁बु लाय
▁बु न्था
▁बु टिं
हर ु
हर ाव
हर दोंमोन
▁नाय ,
▁नाय ।
▁नाय थʼ
▁नाय है
▁नाय बाव
▁नाय नाया
▁नाय गिरि
▁नाय ग्राफोरनि
ाबो थʼ
दोंमोन नो।
ोग ासिनो
▁नु खो
▁नु थाया
▁नु जाद
▁नु जानानै
▁नु गानै
हा त
▁गे ल
▁गे न्द्रा
▁गे ब्लाया
▁सो बो।
▁सो लाया
▁सो लिया।
▁सो खानो
▁जि खौ
▁जि थाम
▁जि दु
▁मे ज
▁मे लखौ
▁मे ब्लानि
▁ओ न
▁ओ लै
ाबाय मोन।
▁सोर ,
▁थाख ै
▁थाख ुम
▁बो खो
▁बो जबनानै
▁आख लै
▁सा प
▁सा थिं
▁राव ारि
▁राव ा।
▁गि बाय
▁गि नायाव
▁गि नायखौ
▁बाय नांगौ
▁बाय ग्लि
थाइ ।
बि .
बि दि
▁दै नो
▁दै लां
थार ै
थार लै
▁से :
▁से मोन
▁से मिन
▁से न्दे
यै ब्लाबो
ारी ।"
▁लोगो फोरनि
▁माव नाया
▁माव ाखै
▁माव दों,
▁माव फारि
▁माव ो,
▁सु प
▁सु खौ
▁सु बाय
▁सु ना
▁सु खि
▁सु निया
▁सु नि,
▁सु खʼनानै
लि खौ
▁बादि खौ
▁दा ।
▁दा सा
▁हर ाब्ला
▁हर ो,
▁हर ेश्वर
▁बार ,
▁बार ो।
▁बार ानि
▁बार स्लाय
▁बार सʼनानै
▁दे नाय
▁दे ब्ला
▁दे देन
है गोन।
है लो
▁गु ना
▁गु फुं
▁गु ज्रि
▁नङा ;
▁मोनसे निफ्राय
आव '
आव ला
▁बिब ै
▁बिब ारिया
▁अन नाय,
▁अन साइ
▁अन ारिखौ
▁अन ार।
▁गोर ्ल
▁गोर ्ब
बां सा
बां सिन
▁' P
▁' से
▁' गो
▁' आव'
▁सलʼ वाबो
▁सलʼ मायानो
रि ं
रि यानि
▁आंनि थिं
▁मु क
▁मु था
▁मु जाह
▁हम ै
▁हम ब्ला
▁हम जानाय
▁हम लायनानै
▁दिन थि
▁दिन निफ्राय
▁उनाव ,
▁--" आं
▁बिसोर निफ्राय
जेर ाव
▁गुबुन ।
▁फोर जाया
लां नायाव
लां दों,
गोन ा
▁बाथ्रा खौबो
▁मिथि गोन
▁मिथि रो
▁मिथि याब्ला
बे लाव
▁गोद ाय
▁गोद नायाव
ख्र ावनो
▁गोज ानै
स्रि ।
▁थानाय बादि
ोना ,
ोना सं
▁दि म
▁दि ंख
▁दि खांना
▁दि ब्रुग
▁थि नाय
▁थि खां
▁थि फाय
▁था फैयो।
▁था ङा,
▁फो जायो
▁ट प
▁सोम हाब
▁गा सा
▁गा उन
▁बायदि खौ
▁बायदि सो
▁बायदि फोरा
▁बायदि फोरखौ
▁गोनां बो
▁गोनां थिया
▁ना खौ
▁ना कि
▁गाब दोंमोन
▁गाब खाङो
▁बाह ायो
▁गैया मोनब्लाबो
सिन नानै
▁फाव "
▁फाव ,
▁फाव ा
▁फाव ाव
▁फाव साय
▁दिनै बा
▁दिनै जों
▁रो दानि
▁रो ङोब्ला
▁जाग ्राया
▁जाग ोदान
▁हा +
▁हाबा थि
▁खा ङो
दै नि
स्र ʼ
▁दाव ,
▁दाव सिन
खु नो
खु थु
▁राइ ज्लाय
ेट ाव
▁बोर ाया।
▁बोर मा,
▁भ ौ
▁भ ार
▁भ ाइ
▁भ ाग
▁भ ेनि
▁भ बेश
▁भ ोट
▁दोन ब्ला
नायखौ सो
नायखौ लʼ
▁दु व
▁दु मासु
बादि ,
▁खाम सालिनि
▁जौ सिन
▁लिर दोंमोन
▁महर फोरा
्लि ,
थिं नो
▁राइजो निफ्राय
▁राइजो फोरजों
▁राइजो आरि
▁राइजो आनो
▁गार बाय।
▁गार जा
▁गार नां
▁गार सोम
▁गार सोनानै
▁फराय दों।
▁फराय गिरि
▁फराय सुला
▁थै दों
▁थै नायाव
▁थै खो
▁थै हां
▁थै बाय,
▁थै नोसै।"
▁सुब ाव
▁नि ज
▁नि साया
▁नि ख्रुइबो
▁जिउ ।
▁जिउ खौनो
▁सिख िरि
▁सिख ावा
▁आफ गानि
▁हारि फोर
▁आब िर
▁आब ौवा
ग्र ो।
ग्र ामा
ग्र ामोन
ेल ानि
ेल िया
▁हां मानि
▁आइ दै
सु शान्त
▁साव नाय
▁साव फुं
स् फार
फिन गोन।
▁जोब जानाय
▁नोंनि नो
▁नोंनि या
▁गै थʼ
▁बेसे थो
▁आले ,
▁सों दोंमोन-
▁सुबुं फोरनो
▁नां हाब
ब्र ʼब
▁अर ्
▁अर जाया
ति केल
▁आन न्द
▁राय फोद
▁सानै नो
▁सानै लʼ
▁सानै -ह
▁सानै -साथाम
▁गोबां नि
▁गोबां नो
▁लाइ नाव
▁फिसा ।"
-- '
▁फार लं
▁आखु थि
खै मोन
▁लां नायाव
▁लां थिया
▁लां फानो
▁खार ा
▁खार नाया
▁खार ाखै।
▁खार लांनो
▁खौ औ
▁मिनि बा
▁मिनि यै
▁मिनि श्री
▁बाव बाय
▁बाव बाय।
▁बाव लांबाय
▁बाव हायनो
▁बाव गोम
▁गोदान जों
▁बिदि ब्ला,
▁बिदि नोसै
▁गं फ्रोमबो
▁गं नैसो
▁बाज ुवा
▁जादों --
▁नो लो
▁सान् जा
▁सान् दोंमोन,
▁सान् थ्रʼ
देर नाय
▁हाद ुं
▁जान ाया।
▁आग ्दा
▁मोन् दा
▁मोन् थाय
▁मोन् नांगौ
▁आफाद फोरनि
▁आफाद गिरिया
▁हिन्जाव ,
▁नागिर नायनि
▁नागिर ब्लाबो
▁नागिर नायखौ
▁नागिर दों।"
▁दान ो।
▁दान ाया
▁दान दिसे
गार दों।
▁खालामनानै ,
▁खालामनानै सो
........ ।
........ .......
▁खु नाय
र् ण
▁श ,
खोम ा।
▁दुखु यै
▁मोद ाया
▁गोम ायो।
▁गोम ाबाय।
▁बां ला,
▁हाज ो,
▁नङ ाथाय
▁खोन ाबा
▁खोन ायोब्ला
क् ता
▁च ेन
▁च िनि
▁देर ायाव
▁जाख ि
▁जाख ानाय
▁जाख ाबाय।
▁फोरमाय दों
▁नङा। '
▁लों दों।
▁लों लाय
▁लों हो
▁खो थिया
बार ।
▁राज खुंग्रि
▁बेफोर ाव
▁ध ालि
... ?
▁होनो बो
▁माइ खौ
▁बिज िनेस
▁सिगां थिं
▁मह ाम
▁नोजोर नि
ाखै सै
▁"आ दाया
▁जायो बा
▁बय बो।
▁फावथाइ फोरा
ानाव नो
▁प्र न
▁प्र ब्लेम
फि क
▁खन नाय
▁बोसोर ब्रै
▁बोसोर नैसो
▁बोसोर सालिया
ान्थि ,
▁हानाय खौ
▁फु नो
▁फु नानै
▁फु सब
▁बिब्दि खौ
▁बिब्दि नो।
▁रु खु
▁ब्र ीज
▁त ै
▁बिन य
▁बेर नाय
▁बेर लाव
▁बेर स्रां
-ग ारि
-ग ाहाय
▁ले ंग
▁ले यार्ट
▁गोग ो,
▁बुंनाय सै।
▁बुंनाय मोन।
▁बिसि ,
▁जिर न
▁बाथ्राखौ ।
▁सं फ्ल
▁सेर जाखौ
▁फि थाया
▁फि ंगार
▁ने थʼ
▁ने ग्रा
▁ने हरु
▁आय ाबो
▁सेंग ्र
ण्ड नि
ामोन ब्लाबो
▁आव बा
▁सै थो।
▁मै ,
▁मै ना
▁मै -मै
▁नाज ाब्ला
▁नाज ागोन
का टा
▁दर ं
▁लानाय ,
▁बिथां मोनहा
टि सि
▁बेखेव फानि
▁थे लाखौ
▁सिरि याव
▁अज ानि
▁नोंसोर ।
जित ा
-ब ै
-ब ोर
-ब ले
-ब ाथे
▁आद ाब
▁गोजौ थिं
▁बाहागो खौनो
▁एर खʼ
▁एर सोनानै
▁बान ेश्वर
▁गां नैसो
ीया ,
हां नाय
▁जोनोम ा
▁खुग ु
▁खुग ा,
▁खुग ्लुबनानै
▁नवाव बो
▁माथ ुरा
▁हाम बाय।
▁हाम फ्ला
▁खाव ना
▁खाव नायनि
▁खाव लाया
▁ओंखाम नि
▁हांखो खौनो
▁उन्दु लांबाय।
▁रि मोन
▁रुम ु
▁रुम े
▁रुम ।
▁लुबै दोंमोन
▁लुबै यै
▁लुबै यो,
▁गंसे नि
▁मालाय फोर
▁थाबाय नानै
▁सिनाय ै
▁सिनाय नाय
▁सिनाय नानै
▁कल्प ानाया
▁कल्प नाजों
▁सौ नाय
▁सौ वो।
▁सौ ग्दाव
▁बिह ार
▁बिह ारी
▁बिह ावनो
▁गामिनि नो
▁फा थि
▁गामि ,
▁गामि यावनो
साय ,
▁रै मोना
▁लाबो ,
▁लाबो गोन।
▁रा उ
▁रा ङै
▁रा फो
▁रा भानि
ेश ना
▁बाग ानाव
मु थि
▁एम .एल.ए.
▁"न ंनाय
▁हु ख
▁हु फ्ले
फ्ला ंगोन
▁मानसिया सो
▁मानि या
▁मानि यानो
▁हौवा -हिन्जाव
▁आथि म
▁खौरां नि
▁दाय ,
▁दाय से
▁बेल ुन
▁बेल ्ट
▁ब्रह्म आ
▁ब्रह्म ।
▁ब्रह्म वा।
▁हाय ,
▁हाय ैया
▁हाय ामोन।
▁खि ग्रा
▁खि थु
▁साब ोन
▁लाखि ।
▁लाखि थों
▁गोजोन ,
▁गोजोन थाव
गो थे
▁गलʼ जों
▁गलʼ वाबो
▁फिन नो
▁फिन नायखौ
▁फिन साजा
▁मोनो। "
▁सोलाय ै
▁रे गा
▁रे गां
▁गिबि यै
▁लु ।
▁लु कुर
▁आंहा ,
▁सर स
▁गान दों
▁बयबो ,
सोम ोन
▁हाथ ा
▁खेब सʼ
▁खेब सेबो
▁होम ब्लाबो
▁गʼ वाल
▁दाह ुना
▁फे सा
▁फे हेर
▁फे ंखा
▁साय रʼ
▁साय खʼनानै
▁मुग ा।
▁नायहर दों
▁जाथाय फोरखौ
▁थाग ौ
▁मद ार
▁राजा -म
-ज ुलि
▁नायजाब ।
▁हायो ब्लाबो
▁ददेरे ।
▁राम ायण
▁राम सियारि
▁सुं थ
▁सुं थाब
नायजों ।
▁बिजिर गिरि,
▁जिराय दों।
▁सेप्तेम्बर नि
▁मन्जु ।
▁मन्जु जों
▁मन्जु मोननि
▁मन्जु बाला
▁हाल दा
उट र
▁जाब ानो
▁लाजि थाव
▁लाजि नायजों
▁थु वा
▁थु योब्ला
▁थाइ नैया
▁थायो -
▁गेजेरजों सो
▁खोथा ,
▁नखर ,
▁थाव ा
▁थाव खौ
▁थाव जों
▁गर मा
▁गोरा सिन
▁बांसिन सो
यान ,
यान फोरा
▁साइ ब
▁साइ खं
न्थ ाया
▁अजित जों
▁नʼवाव ।
er )
er iv
▁बेद त
▁अफ ्रि
▁बेखौनो थʼ
▁सुलुं नि
▁सावराय नायाव
▁सावराय गिरि
मार ।
मार ोब्ला
▁थांखि नि
▁थांखि मोन।
▁दो आ
▁दो खौ
▁हाबफै दोंमोन।
▁सोलों सालि
-आ ं
▁सिम ेन्ट
▁थान ाद
▁नार् जि
▁थिन नानै
▁बर द
▁रंज ाखां
▁सोरजि गिर
▁बिर नानै
▁बिर लांदों।
▁गेले म
▁गेले नानै
▁गेले यो।
▁गेले गिरिफोरा
▁फोथाय थि
▁गसं द
▁गसं थे
▁दाम दों
▁दाम ोन।
▁दाम ग्रा
▁दाम ोल
▁आखायाव ।
▁सार ोन
▁सार ्ट
▁सार फाव
▁सार फ्राव
▁सार ्टि
▁दाख िन्
▁लाइजाम ।
▁के हेर
▁जोहोलाव फोर
▁गाहाइ याव
on s
on t
▁बिफा ङा
▁लिं नो
▁3 2
▁3 4
▁3 6
जे न्ट
▁दाउ ,
▁रों नांगोन।
▁साल ,
▁साल ान
▁साल िया
▁साल ायनो
▁गाख ोम
▁डा टा
▁थाय ोनो
▁थाय नैया
▁बिफां ।
ज्रि ं
▁पि ,
▁भारत निफ्राय
▁माहाजोन ाबो
▁सुर ो
▁सान्थ्रि या
▁सान्थ्रि फ्रा
▁बाइ क
▁गस र
▁गस ाइनि
▁बिखा ,
▁गांसे खौ
▁आल ्ला
▁आल फानि
▁खन् थाय
▁खोमसि खौ
▁मन्थ्रि ,
▁खिन्थ ाला
▁खिन्थ ालां
▁खिन्थ ाबाय।
▁खिन्थ ाहैनो
▁टे बो
▁टे लि
पार ्टि
▁अखा फोरा
▁है नायनि
▁है गोन।
▁बुंदों दि,
▁जाम िया
▁घ ,
▁घ रिया
▁जाव ख्लाब
▁टि उ
▁टि क
▁टि फिन
▁टि किट
▁गोरोब ै
▁गोरोब नाय।
▁"नों खौ
▁"नों सोर
▁गुर ब्ला
▁गुर ुद
▁नोगोर ारिफोरा
▁खुं नायाव
▁बेव ाइ
▁अब थिर
▁थाल िया।
▁बुर ला
▁बुर ्जा
पुर ी
▁बिस ाल
▁"म ाबा
▁थाखो -
▁गुन्द ाजों
▁फरायसा फोरखौ
▁रामनाथ नि
▁रामनाथ जों
फाय ाबो
स्ल ुं
▁गाय नाय
▁आथिं ,
▁प्रे छ
▁खां बाय
▁खां ख्ला
लांनाय सै
▁ट्रे न्
▁उदां स्रिनि
पा ति
पा त्र
फिन् दों।
▁माद ैया
▁जालां दों
▁दानाय ।
▁दानाय खौ
▁दानाय -लु
▁जौग ानायनि
▁सावगारि जों
▁जोम नानै
▁जोम ैनि
्राइ क
ीर ाम
▁इउ जार
▁लान ो।
▁थो यो।
▁मिथिगौ ना
▁बाबु ,
▁लो हो
▁सोमजि यो
▁सोमजि नायनि
▁सोमजि होयो।
▁थुनफावथाइ ।
▁थुनफावथाइ गिरिया
▁बें कनि
▁बें काव
▁मोसा दों।
▁खोनासं नानै
ुव ाया
ुव ार्ड
▁आन्द ायाबो
▁दां नो
▁बोलो ,
▁........ ................
जिर ाय
▁सिन ।
▁आगान से
▁आगान नैसो
or t
▁बाथ्र ाबो
दिनि ।"
▁कम िस
▁होबाय -
▁चि त्र
▁अजय ,
▁एफ ाबां
▁देरह ानायनि
▁दुं खां
▁स्ट रे
▁खुलुम नाय
▁गोमो यो।
▁गोमो हाबनानै
▁होफै नाय
▁होफै बाय।
▁आथोन खौ
▁बुंहर दों
▁लाख िया
▁मेथाइ जों
▁गाबोन नि
▁रʼ मान
▁नायगिर नो
▁नायगिर दों
▁नायगिर ना
▁नार्ज ारि
▁बह ानिफ्राय
▁दुब गां
▁दुब -दुब
▁बेरखां होनो
▁बडʼ सा
▁खें नो
▁रोखा ।
▁रोखा -रो
▁सिमां सो
▁रिंसार थिजों
▁हान नानै
▁हान जाखौ
▁हान जा,
▁बेला सेयाव
▁लि ङो।
▁जाहोन ांगौ।
▁हिनजाव सा
▁बिम ाद
▁बिम ायनो
▁रान नाय
▁बागै बो
▁अलक ाजों
▁साजा ।
▁फाल ानि
▁कि क
▁नाजा ।
▁रायज्लाय नाया
▁ति ता
▁ति ब्ब
▁गनाय नो
▁जाफुं गोन।
▁नाजानाय ावनो
▁बाख ि
▁दाबि नाय
होनाय ,
त्र ी,
▁लोब ्बायारि
▁10 ,000
▁गोसोम ,
▁हायाखै ब्लाबो
▁स्क ुट
-ख ान्
▁हाइ नारि
▁सोमोन्द ो।
▁सोमोन्द ोनि
is c
is h
is sion
▁सोलो यै
▁सोलो वारि
▁खुगा खौ
▁7 5
▁आसि याव
▁खहा ।
▁मुलि फोरखौ
▁उजि यो।
▁थेले फाया
▁'' अ
▁'' नों
▁मिथिया ।"
▁सिबि नायनि
▁सिबि नायखौ
▁गेव नानै
▁अनि मानि
-थ सि
▁S p
▁"अ न्नानै
▁सुथुर ।
▁सुथुर जों
▁खोमदोन नि
▁हुगार बाय।
▁th is
▁हाजार खि
▁हाजार बार
▁जार लायाव
▁बिजौ खौ
▁थब सिया
▁थब स्रʼ
▁कल्पनाया -
▁s h
▁s er
▁हाव -हाव
▁दख रा
▁थिक ादार
फ्लां दों
टे ड
▁A :\>
▁नोम ब
▁बेग पाइ
▁गोलै दों
▁साना -ह
▁फैफिन नो
▁नेर खां
▁नंखाय खौ
▁फारिया ,
▁फारिया ।
▁लाव गि
▁नोंहा ।
▁साननाय मोन।
▁साननाय सै,
▁माहाजोना ।
▁बन्द ानि
▁गुरै ,
▁खुन से
...... ।
▁गोरलै यैनो
▁नागा फोरखौ
▁आंखाल खौ
▁सिथ ्लानि
▁जाहै नाय
▁फाग्ला बादि
▁फाग्ला स्रोम
▁साज ानि
▁नुहर ा।
▁थिङै नि
▁सोद्रोमा फोरखौ
▁सोद्रोमा फोरनि
ंग्रा /
▁सुफुं नाय
▁सुफुं नानै
▁सुफुं नायनि
▁फाफ खौ
▁थाद ो।
▁पे के
▁बादियै नो
▁गोथै खौ
-बे खौ
नांगोन ,
▁लै थ
▁ककराझार निफ्राय
▁खानाइ ,
▁माल गा
▁हमथ ाबाय
▁जाथार दों
▁जाथार दों।
▁फालांगि ,
▁फालांगि खौ
▁ब्रा स
▁राह ागिरि
▁सिब ै
▁सिब िनां
▁गन्थ ङा
▁सोलोंथाइ खौ
फ्ले नाय
▁थिनहर बाय।
▁साबसिन ।
▁जेसेबां खि
▁खनसे यैनो
▁P C
▁P ain
▁P ad
▁P ractical
▁गुसु थै
▁बिजि द
▁बिजि या
▁फसं नानै
▁ओजों बो
▁फिसौ फोर
ग्रो यो
▁ष्ट ेज
▁दʼ हाय
▁रेब तिया
▁खुदिया फोरजों
▁फाथ ्रि
ाखैमोन ,
▁थाइलालि ।
▁गौ मा
▁थगाय नाय
▁थगाय सुला,
▁इनाय ै
ज्ल ायो।
▁फालि नो
▁"ग ोदान
▁मुस ल
▁दाहोना ,
▁दाहोना फ्रा
▁फावथिना फोरा
▁बाल न्दा
▁थाहै यो।
▁थाहै नाया
▁होआ खै।
▁नायबिजिर सं
▁मिनिट सोनि
le ct
▁जाद ु
▁बिसार नि
▁हाबि लाखौ
▁जानां बाय
▁जुजि नो
▁जुजि यै
स्लाब ाजासे
▁कासार ाव
▁नुजाथि दों।
▁फोनां नायनि
▁11 .
▁m y
▁हनै ।
▁दाद ेर
▁रम ेश
▁रम ेनखौ
▁रम ान्टिक
▁मोनै लाय
▁बोख ोनानै
▁बोख ावनो
▁दावग ानाया
▁दावग ानायनि
▁अजिता -
▁बाम ोना
▁गोबा से
▁अलका ,
▁सोनाब ारि
ड़ ा
▁M y
▁रबि बाराव
स्त ाननि
▁जथुम नि
▁दुम फ्ला
▁खब ै
▁बिनाराम खौ
▁जोंथि याबो
▁जाथों ,
▁सरक ारि
▁सरक ारी
▁खालार निफ्राय
▁मेलेम खौ
▁नुनाय खाय
▁में नो
▁रिंग ुद
▁बिमाय ानो
▁फजʼ नो
▁फजʼ नाय
▁थाया ,
-गो सो
▁जाल ायनो
▁मावथि फोरा
▁मुंराय :
▁मुंराय ।
▁फारनै याव
▁स्नि थि
▁लेंहर नाय
▁गाबो ,
▁सिथार नानै
▁मिन्थि गौ
▁खोब थेनानै
▁खुरै याव
▁बेराय नो
▁बेराम नि
▁सुग ्रा
▁थोन ाया
▁ओंखारलाङो। ]
▁रुप सिं
▁रुप ा,
▁198 6
▁स्कुल नि
▁f rom
▁खान् दा
▁सिस्टेम खौ
ग्ल ायनो
▁राख ें
▁गिलिर ै
......... !
......... ।
▁लाबोनाय नि
ot e
▁सुमि लाखौ
▁आयं ।
▁काप ाव
▁काप नि
▁काप से
स्ला बा।
▁होनांगौ ।"
हालागै बो
▁सान्द ्रि
▁क्ला साव
▁बोद लानानै
▁h our
▁h ave
न्ड ेल
▁मोनाम नाय
▁मोनाम सु
▁खुदुम नानै
▁रेन्ज ार
▁फादोर नि
▁थांदो ,
▁होसो बो
▁जिंग ्रि
▁थिं निफ्राय
▁बिमा-बिफा खौ
मो सौ
▁"स ाहा
▁थाङ ामोन
▁थाङ ाखै।
▁, बि
▁H ab
▁बिबाय नानै
▁एइ स
▁एइ स.
▁उथ्रि नानै
▁(ख ुलुम
▁नङामोन ,
▁n ame
▁साग ु,
▁मोख्र ानि
▁दैम ारीया
▁खनसाय खौ
▁क्ल स
▁मावफारिया फोरनि
द्‌ ला
द्‌ लाम
▁गेर ेज
▁माउ सनि
▁देग्लाय बो
▁माइरं खौ
▁मोनदां थि
▁सानथाम सो
▁मावरि जाजों
▁सोंलु वा
▁आगो ल
▁आमाइ ।"
▁जांख्रिथाइ या
▁रामोन्दा ,
▁माम ाइ
▁खाब थानानै
▁ब्लाउ स,
▁मनि राम
▁थाह ो
▁मोन्दां नो
▁अग र
▁सेक ्रेट
▁टाइ ट्‌
.......... ।"
▁खोख्लै नाय
▁हाथार ा।
▁बारि -बाग
▁गालां नानै
▁लक्ष ्मी
▁खुगाजों नो
-बा दां
▁आप ुनि
▁हामब ुरनि
▁जाम्बि ।
▁दिल्ली निफ्राय
▁ओनसोल ारि
▁नांगोन। "
▁खोनाबाय ,
▁बिथांखि खौ
▁जाबाव नांगौ
▁बिगुम ैया
▁थायनै याव
▁थायनै निफ्राय
▁जय राम
▁थफ ीया
▁उसु खुथु
▁बिबʼ वा
▁रोजाब ै
▁भुम ाव
▁गारा ङा
▁गैलिया ,
▁थुब ्रा
▁हरा सै।
▁'म ानो
▁लाइट खौ
▁शि ल
▁आवराय जेननाय
-बिस ोर
स्लि ं
▁R ev
▁नांगोन ,
▁फरे इनाव
▁फान्दाय नानै
▁मुसाह ारीया
▁नन्द ेश्वर
▁नन्द ʼवा
▁थुं सुं
▁लांग ाब
▁जोंनानै ]
▁माइथाय निफ्रायनो
▁बाजियाव सो
▁बिसायखʼ थिनि
▁छ ,
▁छ ि:
▁बामोन नि
▁मिस ्टि
▁जाफु ङा।
▁जाफु ङाखिसै।
▁थाखोम ानाय
▁50 ,000
-न ङा
▁दमासु खौ
▁बिया द
▁उइ लखौ
▁परिष द
▁परिष दा
▁बाथ्राय ाथʼ
▁बारहुं खाया
▁हेल मेट
▁जोबस्रां नायनि
▁नांलाय -खम
▁गʼला प
▁बुदार ुनि
▁नायग्रा फोरखौ
▁राइजो-र ाजाया
▁बिगोम ाया
▁बिगोम ाजोआ
▁दाबा श्री
▁फिर ाय
▁"जों थि
ग्रोन ांगौ।
▁नंलिया ,
▁अनुले ख
-फा स्ट
▁ई सान
▁थफ्ला -थफ्लि
▁रथʼ ।
▁नांजाब फानाय
▁बाजार निफ्राय
▁गांनै खौ
▁सावरायज्लाय नाय
▁जामार बाय
▁नालिस ाव
▁हिं सा
▁हाजासे ।
▁थिन् नाय
▁गिथाव -बाथ
▁मुंराइ :
▁मुंराइ खौ
▁गायसन नो
▁सुजुग्रा खौ
▁बाखनाय नाय
▁दागाब सै
▁बिग्रायारि फोरखौ
▁साबु कजों
▁गुस् थियाव
▁बबेयाव बा
▁नारसिन नानै
▁खिरखि खौ
-हा -हा
▁आइक ʼना
▁आगर वाला
▁बिब्दिब्ला थʼ
▁दाखालाम ।
▁लेबʼरेट ʼर
खागौ ।
टक ेस
▁असि द
▁गाबखʼ वा
▁हासु दै
▁नोंथांमोन नो
▁साब्रै सो
▁गʼसाइ या
▁बिमाइ नो
▁सेंग्रा-सिख्ला ,
▁बक ुल
▁सोलेर नि
▁खिथेर खौ
▁हालोद खौ
फैया खै।
▁महा त्मा
▁लखʼ बा
▁लाग ैनो
▁लाग ोनि
▁गोरान जों
▁सावख्ल िनि
▁अबिना स
ʼल जि
पारा ,
▁l i
▁आलाय -सिलाय
▁खृष्ट ीयान
▁"र ाजा
▁नायनाय साय
▁दंबाव यो
▁दानसोरां नि
▁दानसोरां खौ
▁खावलाइ ,
▁जोख्लोब नानै
se )
▁ठ ,
▁जरा से
▁बिस्क ुत
▁मोनजाया खै
▁बोस्रां नानै
▁बयनि ख्रुयबो
▁प्रशान्त वा।
▁आलुमि ंगिया
▁फाहामसालि खौ
▁असमिया फोरनि
▁राइजो-राजा फोरा
▁राइजो-राजा फोरनि
▁हुर ागासे
▁सुनाय नो
▁प्रदि प
▁प्रदि पखौ
▁फिदिं नो
▁प्रेक तिकेल
▁गान्ध ी
▁रामोन्द ानि
▁सेनापति ।
▁ढ ,
▁गाग ्लाब
▁खाला स
▁गोखै ,
▁सिखां दो
▁मास्थार नि
▁हाग्र ानिफ्राय
▁शर् मा
▁गरद से
▁दाङाब ाजिनि
▁नबेम्बर ाव
थेब नानै
▁बौ है
▁हब गाया
▁दोमै लो
▁दोमै लु
▁मास्ट ारा
▁जिगाब नि
▁मावख ुलि
▁मावख ुंगोरा
▁देंख ो।
▁देंख ोनि
▁सुबि ध
फिना सै।
-गि दि
▁बागान ।
▁बैसोआव नो
▁थरथिं से
▁एम्बु खौ
▁आगोलाव नो
op le
▁जालिया ।
▁आजाय नाय
▁थेब ्रे
▁(P ron
▁गुद ुनि
▁गोदोन ानि
▁गोग्ल ैनो
▁दौदिनि या
▁दाउबʼ वा
▁स्टे जाव
▁सुखु-दुखु ,
▁यै लाबोर
▁आमु खाया
▁नांग ोल
▁दंखाय ोमोन।
▁बेब हार
▁बुंफब नाय।
▁समि लाया
▁बिबथै खौ
▁दानसʼ नाय
▁प्रम प्ट
▁प्रम ीला
▁संनाय -खाव
▁बिलिद बाय
▁बि.टि .ए.
▁खान्थाल ,
▁गाजा-गोम जायै
▁गाड़ी जों
▁कास्तमार फोरखौ
▁ऋ ,
▁ग्ल ब
▁थिस ʼन
▁खबʼ से
▁आरांग ानि
▁उथुम ाय
▁क्रि मिन
▁मावा -दाङा
▁थिफु द्ला
▁खुदि यानि
▁थारुन खौ
▁जाब्र थायाव
▁अन्जि मा
▁हगारसार नानै
▁ट्रेइ निं
▁हस् पितालाव
▁नाजाब ाव
▁खुम ्बी
▁रिन दाव
▁गोफोन ,
▁"मान े
▁दैदे न्नाय
▁मुजि थाव
▁सोमोनां थाव
▁धम क
▁सायख ङा
-रे -रे
▁खरथें नि
▁बिजाथि फोरा
▁बालां स्रि
▁बक्स ीं
▁नल बारी
▁फ्ला स्क
▁इले क्ट
▁इस्ल ारिया
▁बाक सु
▁सें सौ
▁हमख्र ब
▁हाग्राम ानि
▁हाग्राम ायाव
▁फारा -फारि
▁लेन्थ न
▁संदान नो
▁बागदाव खाङो
-खुर मा
▁नोम् फानि
▁word s
▁कारजि ।
▁गनतन्त्र बादि
-मा फा
▁u p
▁बस् थायाव
▁खफा थिया
▁फें फोना
▁बेब्दि नो
▁एटा सि
▁सानथ्रʼ हायै
▁(मो दै
▁बारग नो
▁गैजारो ङि
▁राण ीनि
▁फेजे न्नानै
▁लुबैयाखै मोन।
▁दैमा-दै सा,
▁रुबि लानि
▁नारा-नाथ ा
▁फेब्रुव ारी
ff ix
▁जम् मु
▁जम् मुनि
▁सिन्दु कनि
▁एसʼ चिय
▁दुइन म्ब
▁बैराग ि
▁संबिजिर नि
▁नेप ालि
▁पाउ दार
जागौ मोन।
▁हौव ाजों
▁जिबारेल िन
▁ण ,
▁it s
▁मोर ोन
▁हंख ्र
▁दरा खौ
▁एदाव ब्ला
▁दोनखुम ानो
▁संराज ानि
▁बिहोम ाया
▁गʼगा प
राइजो फोरा
▁नाथ्रोद नानै
▁गस्वाम ीया
▁द्रे सिं
▁बिध ान
▁(थां हां
▁(सिङाव )
▁पसम ी
▁नायगं नानै
▁लोगोर ि
▁दिंग ्राय
▁लिरबि दां
▁रां- खाउरि
▁मेगावा ट
▁मुलु कनि
▁मही ध
▁साबाइ खर
▁बिलाइस्रि या।
▁Sc en
▁pe ople
▁रिंगासो याव
▁थामोन ्
▁रमि व
▁उम ेश
▁माष्ट ारा
▁मिज्लि उ
▁जिख्लाब से
▁'फुं खा
▁दिप क
▁गार्ल स
▁नʼटिस खौ
▁धर्मे न्द्र
▁माइक्रʼ सफ्ट
▁ब्राह ्म
▁तर ुन
▁राक्ष स
▁दामो ल,
▁सिने मानि
▁गेदेर-उ न्दै,
▁नरकास ुरनि
▁sen se)
▁रबिल सना
▁क्लʼ डिया
▁खोरोमदाउ -
▁क्रʼर पति
▁ठा क
▁"बुजि बाय
▁कनष्टेब ल
मिन् टन
▁सदब नो
▁दिन् थ
▁खनो )
▁अखन बा
▁(हाबनानै )
▁बास्रि नाय
▁बारांग ाबारी
▁फावद ुरा
▁शची पात्र
▁माइर ं,
▁आलाइ-सि लाइ
▁ताम ुल
▁तामि ल
▁साखोन -सि
▁गायदे या
▁गोदो-ग ोद
▁लिबार ेसन
▁मुंमा+ गोथे
▁हाबिलद ारा
▁बृहस्पति बारखालि
▁हारामजा दि
▁Jul y,
▁जालिजौ नि
धाम ाल
शां क
हाला ग
▁माबाय दि
▁(था ङो)
▁इड ुवार्ड
▁सोलास ्लिब
▁'बाव दा
▁सोमजाय ग्रा
▁खोनाम ारनो
▁चाइ डिं
▁धाली गाव
▁गोहो-बो लो
▁थाम् फै
▁रामचि यारी
▁बिखा-बिख्ल ो
.एफ .
▁Acc essories
▁नेर्स ोन।
▁खुनोर ोखोम
▁www .
▁एक्सप ्रेस
▁मुर् ख
▁ग्रेण ेड
▁डेनम ार्कनि
▁बसुमा त
▁खिरि मिन
▁रना- रनि
सिदे न्ट
▁सिम्प ान्
▁सममिथि सʼ
▁पिं पिं
▁सेन्दे ला
▁गोर्ब ्बो
▁भेनि टि
▁अबथिर ानो
▁बेगपाइ पार
▁Pain t
▁Hab ild
▁टाइट्‌ ल
▁(ब रʼ
( 19
+ दै
- बाय
- राय
- थिं
- हाय
- का
- थाम
- डि
- नों
- मोन,
- ग्रोम
. डि.
2 8
3 7
7 6
= ह
S C
W W
b le
c e
d i
e -
f ace
f orm
g ram
i g
i i)
l as
m in
o ot
p p
r it
t ed
u e
w o
ʼ आ
ʼ द
ʼ राव
ʼ बनानै
आ ,
आ द
आ री
इ ड
ओ इ
क था
ख ालाम
ख ांगोन
ख ्लिब
ख ान्दा
ग ुन
ग ैया
ग ामि
ग ड़
ङ )
ङ ोमोन
ङ ोमोन।
ङ ामोन।
ङ ाखैमोन
च ,
च ार
च ाइ
ज ।
ज ाख
ज ामा
ज ननि
ज ारनि
ज ुरा
ज ानां
ज ्रेम
ट ी
ट िसन
ड ार।
थ क
थ ल
थ ी
थ ।
थ ाह
द '
द ं
द ला
द ाज
द ाख
द बा
द -फ
द ुवा
न ं
न ान
न नो
न ानो
न जों
न ानिफ्राय
न ारीया
न ाइनि
न डर
फ निफ्राय
फ ल,
फ र्म
फ ाहाम
ब ी
ब नो
ब नाय
ब िर
ब ारीनि
ब ालʼ
म .
म ारि
म ाला
म िस
म ालि
म ोनि
म न्त
य त
य ु
य ारा
य ोमोनब्ला
य ानिफ्रायनो
र ण
र ौ
र ायाव
र िन
र ीनि
र ीखौ
व ेल
व ाखै
व ाखिसै।
व ाखैमोन।
व ाबो।
श ु
स ीया
स ानिफ्राय
स ीनि
स ागि
स ाली
स न्नानै
ह क
ह ाइ
ह ानाय
ह ोना
ह ʼर
ह ्रायाव
ि ज
ि य
ि याव
ी प
े खर
ै यै
ो ;
् फा
् सा
। ]
▁ al
▁ +आ
▁ very
▁ 03
ाय न
ाय णा
▁ब ना
▁ब ले
▁ब ाबाय
▁ब बि
▁ब ोना
▁ब न्थ
▁ब लेर
▁ब सʼनानै
▁ब लात
ान ाथ
ान ांगोन
ान ाथा
ाव नानै
▁स लाइ
▁स ाग्ल
▁स कि
▁स ्रेम
▁ग त
▁ग नानै
▁ग ्ला
▁ग ानाय
▁ग ुल
▁ग जेन
▁ग िनां
▁ग बोयो
▁ग ुलिनि
▁म ,
▁म ट
▁म दा
▁म ाराम
▁म गʼ
▁म ार्च
▁म नाखौ
नि '
नि सो
नि पा
▁ज ,
▁ज खा
▁ज ग्र
▁ज ोनो
▁ज ोनाय
▁ज थु
▁ज फानाय
▁ज दाम
▁ज निल
ार '
ार न
ार ाजा
▁ह ाह
▁ह िन
▁ह ै।
▁ह नाय,
▁ह ो।"
▁ह ायावनो
▁आ बां
▁आ थो
▁आ मार
▁आ जे
▁आ लायनानै
▁आ न्स
▁आ धा
ला जि
ला खि
ला ङै
ला -म
ला ङाखै।
ला ंगासिनो
▁न ाह
▁न ायाव
▁न ुर
▁न ुन
▁न ै।
▁न सिम
▁न ोरोम
▁न ेसन
▁न ख्रां
▁न ावखौ
▁न भेल
▁द ्रा
▁द िर
▁द हर
▁द ार्
▁द गʼ
▁द ्राम
▁द ाबादि
्र ाव
ां नि
ां सि
खौ बा
नो लाय
नो थʼ
▁बि ं
▁बि सिनो
▁बि लायनानै
▁बि उटि
▁थ प
▁थ ुग
▁थ ेल
▁थ ायाखै
▁थ ान्दा
ाब नाय
ाब ाथाय
▁ख ्रा
▁ख ाद
▁ख िया
▁ख ाथʼ
▁ख थानि
▁ख फʼनि
ानै नि
नाय सिम
▁फ ाजि
▁फ ्लां
▁बे स
▁बे ह
▁बे बʼ
▁बे टे
▁बे न्दो
▁र ल
▁र ुल
▁र ायै
▁र दʼ
▁र ोमो
▁र जं
▁र न्जित
बो गौ
से यारि
▁गो मोना
▁गो फार
▁गो बायो।
▁गो हैलो
ाम ्ब
▁ल ,
▁ल म
▁ल हर
▁ल केट
▁ल न्थि
▁ल ं,
▁ल टारि
दों लै
सि जेन
सि भारखौ
सि न्दों।
दि याया
न् सार
न् थिनि
न् याव।
बाय नि
बाय नो।
ाज ी
ाज ʼव
▁मोन ह
▁मोन खां
▁मोन नायसै।
▁मोन नायजों
▁मोन खानाय
▁मोन ोमोन।
▁मोन हैनो
▁मोन फिनबाय।
▁मोन गौमोन
▁मोन जायै
▁मोन खादों
▁मोन ोमोनब्ला
▁मोन ज्लायनाय
फोर ावनो
फोर ाथʼ
ाथ ै
▁अ ट
▁अ थ
▁अ बे
▁अ .सि
▁अ ग्रि
▁अ ब्रामा
ाग ारा
ाया खिसै।
▁आं लʼ
▁आं जोंनो
▁आं ग्रां
ाल ायो।
▁सि य
▁सि फोरखौ
▁सि फ्ला
▁सि मायाव
▁सि थावना
▁सि क्स
▁सि नि,
▁सि ग्रि
ेर ा
ाह ाया
ाह ोनानै
बा शी
▁ला ङ
▁ला खा
▁ला सिनो
▁ला ब्लानो
▁ला हैनाय
▁ला खादों
▁ला ङो,
▁ला खादों।
▁ला ंगासिनो
▁ए द
▁ए ना
▁ए ण्ड
▁ए थे
्रा खौ
सो बाय
सो लाय
सो लों
िर ाद
िर ामि
्ल ायनो
मोन नाव
मोन खौ।
▁नों सि
▁नों ।"
▁नों दानि
▁? ...
ब्ला इ
▁मो दाउ
▁सान ,
▁सान ग्रा
▁सान सिम
▁सान फोराव
▁सान बाय,
▁सान ोमोन
▁सान फुनाय
▁सान ाखै,
▁सान ोमोन-
िस नि
ायाव ,
▁उ ह
▁उ ग्र
▁उ इन
▁उ जिनांगौ
▁" ....
▁" हाय
▁" थु
▁" शान्ति
ुब ,
▁होन ै।
▁होन बाथाय
िन व
िन ारि
▁क ट
▁क फिनि
▁: :
▁बुं सै
▁बुं गासिनो
▁बुं नांगोन।
▁बुं लांबाय
▁बुं गोन,
▁बुं फिननाय
▁बुं सनो
ङा -फ्र
▁खालाम ।"
▁खालाम ाब्ला
▁खालाम दो।
▁खालाम ा,
▁खालाम जानानै
▁खालाम खांनायनि
▁गाव लाय
▁गाव नाव
▁गाव थʼ
▁गाव हाबो
मा सि
ांग ा
▁जाय जों
▁जाय फोरनि
▁जाय ाबालानो
▁जाय ोमोनब्ला
लʼ नो
लʼ सै।
लʼ थार।
लाय नो।
▁सम ायो
▁सम फ्ल
ले ज
ले निया
ले न्ड
▁- ए
▁मा सु
▁मा उरिया
ुल नि
▁! ''
▁थां ला
▁थां खांनानै
▁थां नांगोन।
▁थां नांगोन
▁थां फानानै
▁थां फायो।
▁मि जʼ
▁मि लायनानै
ान् दु
▁हाब दों।
▁हाब बाय।
▁हाब ाजों
▁हाब लांनाय
▁जों सो
▁जों दों।
.... ?"
जि ,
जि नाय
जि -क
जि .पि.
▁फै बाव
▁फै जोब
▁फै फिन्
▁फै खांबाय।
▁जा फ
▁जा सिन
▁जा फैनाय
▁जा फैबाय
▁जा सिगौमोन।
▁मान -स
ंख ि
▁हो फिन
▁हो थे
▁हो लांनो
▁हो दोंमोन,
▁हो थारबाय
▁हो गोन।"
▁( M
▁( N
▁( V
▁( l
▁( च
▁( फ
▁( सा
▁( गि
▁( मु
▁( गो
▁( गिदिं
▁( भु
▁( In
▁( ?)
▁( ङ)
▁प िस
▁प र्
▁प ुलि
▁प ुरनि
▁प इन्ट
▁प ण्डि
▁प िरामि
▁प लेनिया
▁जे ना
▁जे नो।
▁जे ब्ल
▁जे हेर
▁जे न्नानै
ाथाय नि
खा ङा
खा ङाखै।
▁इ नाव
▁इ यार
▁इ यारिं
▁इ चन
▁इ स्कुल
▁बु यो
▁बु हा
▁बु गʼ
▁बु श्व
हर ।
हर दोंमोन।
हर फिन
▁नाय ना
▁नाय नांगौ
▁नाय ग्रानि
▁नाय ख्लें
ोग िरि
▁नु नायनि
▁नु फै
▁नु थायनि
▁नु यो,
▁नु थायखौ
▁नु जानायनि
▁नु फिनबाय
▁नु ग्रोन
▁नु फेरै
▁गे ज
▁गे ब्ला।
▁गे वा,
▁सो है
▁जि .
▁जि नाय
▁जि बादि
▁जि थायाव
▁जि ब्रै
▁जि लानि
▁जि गु
▁दं लै
▁दं फाय
▁दं ना।
▁दं सोगार
▁बा :
▁बा प
▁बा सिन
▁मे क
▁मे ट
▁मे क्
▁मे न्दा
▁मे म्ब
▁मे लाखौ
▁मे ब्ला।
▁मे न्दां
दा सनि
▁सोर नो
▁सोर हा
▁सोर बि
▁सोर बां
▁सोर नोबा
खां दोंमोन
था .
था ङो]
ुग ा
ुग ुर
▁नाथाय ....
▁फिस ाला
▁फिस ाजों
▁फिस ानिफ्राय
▁फिस ायनि
▁बो दों
▁बो जों
▁बो दोंमोन
▁बो हाब
▁बो फ्ल
▁बाथ -रुम
▁सा कर
▁सा स्ति
्ट ा
▁राव ाबो
▁राव यै
ांगौ मोन।
▁बरʼ वा।
▁बरʼ फोराबो
▁गि बाय।
▁गि दोंमोन।
▁गि हु
▁गि याना
▁बाय दों।
▁बाय नाया
▁बाय लुं
▁बाय देम
▁-- नर
बि ,
बि क
बि नि
बि ला
बि लनि
▁मानसि नाव
▁मानसि सो।
▁मानसि फोरनो
▁दै खौनो
▁दै थु
▁दै सानि
▁दै साखौ
▁दै खरा
थार ो।
थार ाखै
थार गौमोन
▁से ,
▁से नि
▁से म्
▁से नो।
▁से क्टर
▁से टखौ
थाय नाय
जां ।
जो ,
▁माव दोंमोन।
▁माव नाय।
▁माव होनो
▁माव गोन,
▁माव ग्ल
▁माव ग्राया
▁माब ोर
▁माब ्लानिफ्राय
लाइ नाय
▁सु दों।
▁सु नायनि
▁सु ति
▁सु लात
लि द
▁थाखाय ो।
▁बादि नि
▁बादि बो
फै ,
फै खो
फै दो
फै माल
▁दा दों।
▁दा फो
▁हर नाया
▁हर गोन।
▁हर नांगौ
▁हर ाखै
▁हर जानाय
▁हर ाखै।
▁हर सेनि
गा ,
गा फा
▁बार ै
▁बार ब्ला
▁बार दों।
▁बार ्ड
▁बार खांनानै
▁बार ब्लानो
▁दे न
▁दे लों
▁दे द्ला
▁दे ग्लायनो
▁दे द्‌लाम
ङाव ।
है दो।
है नि।"
▁गु फु
▁गु दिया
आव नो
आव बो
▁बिब ाननि
▁अन स
▁अन लायनाया
▁गोर ि
▁गोर ाज
▁गोर ाजो
▁गोर ोबो।
▁' जों
▁' रि
▁' बार
▁' मान
▁' मि
▁' हार
▁' हे
▁' मे
▁' जावलिया
▁' खौ'
▁सलʼ गिरिनि
खि खौ
रि ।
▁मु सि
▁मु फुर
▁मु दुम
▁हम दोंमोन
▁हम थे
▁हम ज्लायनानै
▁दिन बाव
▁उनाव थʼ
▁--" आ
जेर ै
▁गुबुन खौ
▁गुबुन फोर
▁गुबुन फ्रा
▁फोर ्द
▁फोर जानि
लां ।
लां दोंमोन
लां नाया
लां नांगोन।
फोरनि बो
गोन खि
गोन लै
▁बाथ्रा -फ
▁मिथि स
▁मिथि ब्ला
▁मिथि सʼनो
▁मिथि स्लाबा
▁गेजेर ।
▁गेजेर निफ्राय
▁गेजेर -गेजेर
बे ं
▁गोद ना
▁जेर ि
ख्र ुरै
▁थानाय ानो
सार नायनि
▁थि नि
▁था फाव
▁था फ्ल
▁था फानाय
▁था फादेर
▁फो लाबाय
▁फो जोबो
▁ट िस
▁ट ्राब
वाव ।
▁जानाय ाबो
▁ड 0
▁ड ाइनिं
▁ड िरे
▁सोम ब्रʼ
▁गा फै
▁गा स्नि
हो दोंमोन
हो यो,
▁गोनां फोरा
▁ना -बे
▁ना छानि
▁जाबाय मोन
▁गाब बाय।
▁गाब नायाव
▁गाब दोंमोन।
▁गाब खाङो।
ेन ʼ
ेन ।
▁गैया थाय
▁गैया मोन,
ाब्ला बा
ाब्ला सो
ायो -
▁बेनि खाय
▁हाया -
▁फाव थाय
▁एसे ,
▁1 ,
▁जो लानि
▁जो बा।
▁जाग ार
▁जाग ायनो
▁जाग ोना
▁हा फ
▁हा दों,
▁हा सिगोन।
▁हा फौ
▁हा सिल
▁हाबा -खेर
स्र ानानै
▁सासे ,
▁सासे याबो
▁सासे यानो
▁हे न्द
▁मुं राया
▁दाव खाया
▁दाव खोनाय
खु वा
▁राइ जो।
ेट खौ
▁ओंखार ना
▁ओंखार दोंमोन।
▁ओंखार नायखौ
▁ओंखार नायसै।
▁ओंखार लांदों।
▁बोर ला
▁बोर ्ला
▁बोर सिया
▁नाग ाजों
▁नाग ा।
▁भ ,
▁भ ल
▁भ ेर
▁भ ेट
▁भ ्राम
▁भ ेज
▁भ टाव
▁दोन स्लाय
▁दोन हैदों।
▁जेरै नो
▁जेरै हाय
▁बै ,
▁बै ष्ण
्रे त
▁मानो खाय
▁सोद ोर
▁जौ थायाव
▁जौ स्रां
▁जौ मोना
▁जौ मोनखौ
▁लिर बाय।
▁लिर स्ल
▁लिर स्लाय
▁महर ै।
▁महर ैनो
्लि उ
▁गार नाया
▁गार ोब्ला
▁फराय थि
▁फराय गोन
▁फराय ग्र
▁फराय साया
▁थै नाया
▁थै गोन।
▁थै नांगौ
▁थै दो
▁थै हाब
▁थै खांनायनि
▁नि या
▁नि खाव
▁नि जिर
▁नि ख्रुइ
▁जिउ गोनां
▁आफ िं
▁हारि मा
▁हारि फोरा
▁हागौ ब्ला
▁आब ारी
माय नानै
जाब नि
जाब ावनो
▁जेबो ला
ग्र ाखाय
▁आइ औ
▁आइ नो
▁आइ दियाया
▁नʼ ,
▁नʼ प
▁नʼ स
▁नʼ खरा
सु जुग
स् था
स् मि
नांगौ मोन
फिन दों
फिन दोंमोन।
फिन नांगौ
▁जोब ि
▁जोब नाय।
▁नोंनि ।
▁नोंनि याव
▁गै ल्
▁गै जाय
▁गै थारा
▁रां खि
▁रां खाउरि
▁रां -खाव
▁रां खावरि
जु ,
जु त
ाना ,
▁सों दों।
▁सों नायखौ
▁सों फ्राम
▁सों हरो।
▁सों नायसै-
▁सुबुं खौनो
▁सुबुं फोरजों
▁सुबुं साइनि
▁दिन्थि ना
▁दिन्थि यो)
▁नां दोंमोन।
▁नां नायखौ
▁नां देर
▁नां ला।
▁नां सिगौ
▁नां फैदों।
▁गेजेराव ,
ब्र ाया
ब्र ानि
▁अर जों
▁अर जाब
▁अर फे
▁अर गे
▁अर ्दार
▁आन दाज
▁गोबां ,
▁लाइ ननि
▁लाइ टा
▁लाइ मोन,
▁लाइ -लथर
▁मेग ाजिन
▁फिसा फोरनि
▁फिसा सिन
▁फार फा
▁फार नैया
▁आखु मा
▁आखु -आ
▁आखु थाइनि
▁आखु मा।
▁लां ।
▁लां दोंमोन।
▁लां नो।
▁खार न
▁खार नानै
▁खार बाय
▁खार ग्रा
▁खार गासिनो
▁खार दिं
▁खार होनो
▁खौ बो
▁माबा ,
▁माबा सो
▁आंखौ लʼ
▁आंखौ लाय
▁मिनि खʼ
▁मिनि हां
▁मिनि स्रां
▁मिनि माइ
▁मिनि बाला
▁बाव यै
▁बाव ाखै।
▁बाव लांबाय।
▁खोम ानो
▁खोम ा,
▁खोम दोन।
जोब ाब्ला
▁खालामनो बो
▁बिफ ाव
▁बिफ ाया।
▁बिफ ान,
▁बिदि नो।
▁बिदि खायनो
▁गं फ्रोम
▁बाज ैनि
बर दार
▁माह ारी
▁माह ामै
▁[ राइजोफोरा
▁नो थाङा
▁सान् ना
▁सान् नायाव
▁सान् नायसै
▁जाथ ्रा
▁हाद ान
▁जान बुं
▁जान नु
▁आग ्लाय
▁आग ाननि
▁मोन् नायाव
▁मोन् नैया
▁आफाद ानो
▁आफाद निफ्राय
▁हिन्जाव साया
▁हिन्जाव सानि
▁हिन्जाव साखौ
▁नागिर ब्लानो
▁नागिर बाबो
ाखा से
ाखा ङो।
▁दान नाय
▁दान ब्ला
▁दान नै
▁दान फाय
▁दान थामसो
गार बाय।
गार नायसै।
▁बाद े
▁बाद ाव,
▁बाद ारि।
▁खु नानै
▁खु ख्रि
▁खु सिया
▁खु न्दु
र् कनि
▁श ्र
▁श ्या
▁श ेखर
खोम ाबाय।
▁दुखु बो
▁मोद ाइनि
▁गोम ायो
▁गोम ो,
▁गोम ानां
▁बां लायाव
▁जाया सै
▁बिख ुम
▁जाह र
▁जाह ाराव
▁मन् थ्र
▁मन् चा
▁हाज े
▁हाज िरा
▁नङ ाथʼ
▁नङ ाहाय
▁खोन ाब्ला
▁खोन ायो
▁च छ
▁च ै
▁च िन
▁च ार्
▁च ार्भ
▁च रण
▁खाथि -खाल
सं सार
▁देर नाय
▁देर गा
▁देर फुनाय
▁बिमा -फि
▁जोंनि सिम
▁फोरमाय नायखौ
ाबा सो
▁लों गोन
▁लों दो
▁लों जोबो
▁आस ल
▁आस ानि
▁आस ारिया
▁खो थायानो
▁होन्नानै ,
▁होन्नानै ।"
बार खौ
बार ्ट
बार ुवा
▁बेफोर जों
▁बेफोर निफ्राय
▁बेफोर हा
ष्ट ेल
ष्ट बिन
खौबो ।
-फ ारा
▁जु नानै
▁जु वा
▁जु जाय
▁जु निया
▁जु वान
▁माइ फ्रि
सिं निफ्राय
▁बिज ार
▁बिज ाद
▁सिगां ।
▁सिगां नाय
▁मह ि
▁मह ाज
▁मह ेन्द्र
▁मह ेस्वर
▁"आ फा
▁"आ यʼ
▁बय सियाल
▁फावथाइ याव
▁प्र व
▁प्र ु
▁प्र सि
▁प्र मʼ
▁प्र डा
▁प्र जेक्ट
▁प्र ग्रामा
▁बोसोर निफ्रायनो
▁बोसोर बासो
ेस नि
▁हानाय ।
▁हानाय बो
▁हानाय मोन।
▁फु स
▁फु जानि
▁फु थियाहां
▁बिब्दि याव
जानाय ,
▁रु इ
▁त ालु
▁बिन ेश्वर
▁बेर ामि
▁ले बेन
▁ले खायाव
▁ले थ्रा
▁ले बेना
न्दा साव
सालि निफ्राय
▁बाहाय ना
▁बिसि ।
▁बिसि फोरनि
▁मोस ायो।
▁मोस ौवा
▁मोस ानायनि
▁सेर नानै
▁सेर ेब
▁सेर थे
▁सेर ्जा
▁फि जि
▁सिं थिं
▁ने यै
▁ने हात
▁फारसे निफ्राय
▁सै म
▁सै नानै
▁सै थान
▁नाज ाबो
▁नाज ाव।
▁नाज ायाखै
का श
का ता
▁नोंथां नो
▁नोंथां ।"
▁नोंथां मोनखौ
▁बबे सिम
▁दर लाया।
▁बिथां नो
▁बिथां मोनखौ
-म द
-म ाख
-म ाथा
-द ʼ
-द र
-द ाह
▁सिरि मोन
▁खरʼ सा
▁खरʼ सिम
▁दुर ुङा
-स ों
-स ाल
-स ाख
-स म्प
▁अज याबो
-ब ान
-ब िस्
▁आद ाल
▁आद ्रि
▁आद ुम
▁गोजौ आव
▁गोजौ -गाहाय
▁बाहागो फोराव
▁बाहागो आनो
▁थार ,
▁थार ्ला
▁थार खायाव
▁एर नाय,
▁बान से
▁बान ाइ
▁बान साल
▁गां थाम
▁उन निफ्राय
▁उन खालि
▁दाब िया
▁दाब -दाब
नां दोंमोन।
नां खो
नां सिगोन।
नां सिगौ
▁मोदोम ,
▁मोदोम नाय
▁मोदोम ारि
▁जागोन ना
▁थाब था
▁थाब ्लानो
▁माथ ोब्रा
▁माथ ावरि
▁हाम ा।
▁हाम गौमोन।
▁मुलुग ाव।
▁खाव बʼ
▁खाव यां
▁फं नै
▁हांखो निफ्राय
यारि ,
▁माब्ला ,
▁माब्ला दि
▁जेरै- आ
▁उन्दु यो।
▁उन्दु लांबाय
▁रि थि
▁रि ता
▁रि सिभारखौ
▁लुबै दोंमोन।
▁नुनानै बो
▁गंसे लʼ
सʼ यै
▁माखा ,
▁खै सिं
▁खै फो
▁खै रोम
▁खै नालै
▁थाबाय ग्रा
▁थाबाय नाय,
▁सिनाय लायनाय
▁सौ नानै
▁सौ सि
▁सौ ग्रा
▁सौ सिनानै
▁जʼ खाय
▁बिह ारनि
▁बिह ारु
खाय नानै
्राय ानो
▁गामि ।
▁रै माल
▁लाबो दो
▁लाबो आखै
▁गोग्लै दोंमोन।
▁गोग्लै जोबो।
▁आफा ङाव
▁आफा फोर,
ेश ्व
▁समाज जों
▁समाज खान्थि,
▁बाग दाउ
मु वा
▁एम ावनो
▁एम .ए
▁"न ु
▁"न ङा,
▁हु :
▁हु हुर
▁हु स्लि
▁हु दाखौ
▁दसे लʼ
▁थांनाय थिं
▁आसाम ि
▁आसाम नो
▁आसाम जों
▁आसाम िया
▁आसाम िखौ
▁बेयो ,
फोराव ।
फोराव सो
▁बेनो लʼ
▁मानसिया ।
▁मन रन्जन
▁मानि यो।
▁हौवा फोरा
▁हौवा फ्रा
▁खौरां लाइ
▁बेल ुन,
▁सेंग्रा फोराबो
▁हाय ।"
▁खि से
▁खि सिम
▁सानसे याव
▁लाखि ना
▁थुनलाइ या
▁गोजोन बाय।
▁गोजोन थों।
थुम नाय
▁थाम ,
▁गोथ ैनो
▁गलʼ नो
▁गलʼ लʼ
▁लानो सै
-ह ालि
-ह िनजाव
राव बो
▁लासै -ला
▁खाय ला
▁खाय लें
▁खाय दायै
▁रे गे
▁गिबि ,
▁गिबि फोरा
▁लु ङि
▁नं -
▁नं नाय
▁नं नायनि
▁सर थे
▁गान बाय
▁गान फब
▁मोनो -
▁हाथ ʼ
▁खेब थाम
▁खेब खांनानै
▁खेब ज्रां
▁होम बाना
▁गʼ लाय
▁दाह ो।
▁दाह ाल
▁दाह ारा
▁दाह ाराव
▁दाह ारखौ
▁फे नाय
▁फे ले
▁फे न्द
▁फे स्व
▁अल -क
▁स् पर्ट
▁साय ख्ल
▁मुग ाया
फोरजों ।
▁बिलाइ फोरखौ
▁नायहर गासिनो
▁रावबो थʼ
▁गाहाय खौ
▁बसुम थार
▁माथो ,
ंगा ,
▁राजा ।
▁राजा -फोर
-ज ार
-ज ायै
▁ददेरे ,
▁बोहै बाय
▁बोहै लांदों
▁फिसाजो जों
▁राम चिय
▁सुं द
▁बिजिर नाय,
▁बिजिर गिरिफोरा
स्ट ʼ
▁हाल िया,
▁हाल -साल
▁जाब ां
▁थाइ गिर
▁थाइ लेण्डनि
▁गेजेरजों ।
▁खोथा फोरखौ
▁महार ानि
▁नखर ारि
▁थाव ।
▁थाव गुबै
▁हें थायाव
▁दिहुन ग्रा
▁दिहुन जानाय
▁दिहुन गिबि
▁गर त
▁गर ानि
▁गर फा
▁फान दाय
▁गोरा खौ
▁बिग ्रि
▁आलाइस्रि ।
लाया खै
▁साइ द
न्थ ,
▁रोखोम सेनि
er c
er it
▁मोननाय सै
▁मोननाय मोन।
▁खोना फा
मार ो
मार दों।
मार बाय।
▁दो आव
-बि गुर
▁साहा -म
▁डि ङा
▁डि टे
▁डि ग्री
▁सिम ब
▁सिम नानि
▁थान ाया।
▁सलʼमा फोरनि
▁अन् नाय,
▁अन् नाय।
▁नार् सा
▁नार् भा
▁हादोर खौ
▁हादोर ारि
▁थिन दों
▁थिन बा
▁थिन ब्ला
▁बर बर
▁बर मा,
▁दम ै
▁मोजा ङानो
▁रंज ुलि
▁सोरजि दों।
▁सोरजि नाय,
▁सोरजि नाय।
▁सोरजि लांनाय
▁लाय बाय
▁लाय होनानै
▁गैयै खौ
▁बिर लाङो।
▁जानांगौ मोन
▁गेले नायनि
▁गेले नाय।
▁फोथाय नाया
▁खाफाल ।
▁गसं बाय
▁फाग ा
▁दाम सिखौ
▁"आं थʼ
▁दाख ʼ
▁दाख न
▁गोलाव जों
▁लाइजाम ा।
फ्रोम ावबो
▁के न्द्र
▁के कखौ
दे त
दे ।
दे ।"
▁बिफा ।
▁लिं थि
▁लिं ना
▁आनारी याबो
जे माखौ
▁दौ स्रेम
▁दाउ ल
▁दाउ फोरनि
▁दाउ ज्ला
▁दाउ मा-दाउ
▁देहा ,
▁रों नो
▁5 th
▁सह ʼखौ
▁जाथाइ फोरखौ
▁जाथाइ खौनो
दार खौ
▁दानो ,
▁बाजि ।
▁बाजि सो
▁बान् दी
▁आबौ मोननि
▁जेब्लाबो ।
▁महाराजा ,
▁सावग ारिनि
▁नार ायणा
▁नार ानाथा
▁पि ष्ट
▁दङʼ मोन।
▁हाख रनि
▁बिहा उ
▁माबोरै थो
▁मुवा ।
▁मुवा -बे
▁माहाजोन हा
▁सुर हाब
▁सुर लाङो।
▁खाबु नि
ाहै बाय।
▁गय ,
▁सान्थ्रि खौ
▁सान्थ्रि फोरनि
▁बाइ काव
▁बाइ ह्रायाव
▁गस ्लाया
▁खोमसि ,
▁उद ायै
▁इं ।
▁टे प
▁टे ष्ट
▁टे बोला
▁टे म्प
▁मोसौ ।
▁हेफाजाब खौ
▁हेफाजाब जों
▁है नाय
▁है बाय
्री म
▁फोरों गिरिफोरा
▁200 3
ʼव ार
▁मोनबाय दि
न्द्र ानि
▁गुदि खौ
जाया खै
▁अलʼक नो
▁जुन ारनि
▁हायै खाय
▁बुंदों दि
▁बोराय ।
▁बोराय जों
▁बोराय -बुरै
▁बिखायाव ,
▁साम ʼ
▁साम ु
▁साम लाइ
▁साम लाउ
▁साननानै नो
▁बेनिखायनो थʼ
ब्रा ,
▁घ न
▁घ िक
▁जाखां बाय।
▁जाखां फैयो।
▁तुलाराम ।
▁गोसोआ रि
▁गोरोब नो
▁गोरोब थानि
▁गुर ो
▁गुर स्लाय
▁खर सानि
▁खुं थाय
▁खुं गा
▁खुं ख्रा
▁सोमाव नानै
▁खान ा।
▁अब ङा
▁दैदेन गिरिनि
▁मदद नि
▁बुर ्
▁उन्दै यावनो
▁गोख्रों थार
नोसै लै
▁बिस खौ
▁बिस ुं
▁बिस ाना
▁बिस ाइनि
▁"म ालाय
▁थाखो से
▁धोरोम ारि
▁धोरोम जों
▁गुन्द ै
▁अम रनि
▁अम ल,
▁गाय दा
▁गाय ग्रा
▁गाय दां
▁गाय दाङा
▁आथिं -आखाइ
▁बेनिफ्राय सो
▁फोजोब ना
▁ट्रे ड
▁खे फ
▁खे न्दा
▁उदां ।
पा स
फिन् दों
▁जालां नायसै।
▁जालां नायमोन।
▁जौग ालां
▁जोम नायखौ
▁फंबाय ाबो
खन साया
▁मोना सै
▁थो ङै
▁थो लो
▁बुजि नाय
थों ,
▁बाबु नो
▁लो ब्ला
▁नाङा ।"
▁खʼ ना
▁खʼ थाखौ
▁सोमजि नो
▁सोमजि नानै
▁सोमजि नायाव
▁सोमजि होनो
▁नोंथाङा ,
▁बिदा -बि
▁बें क,
▁आइजो फोराबो
▁खोनासं नो।
▁आन्द ानि
▁बुथार दों
▁बुथार ग्रा
▁नुजा दों।
▁नुजा फैनाय
▁बोथोर खौ
▁दां फाम
▁"मा "
▁हाजʼव ारिनि
▁बादला ।
▁........ ........
▁सिन थायनो
▁होन् नाया
▁बाथ्र ाजोंनो
▁चि लाराम
ʼर ,
▁व ार
▁फिसाइ फोरा
▁खोनानानै बो
▁कल्पना ।"
▁आलासि फोरा
▁आलासि फोरनि
ou se
▁अजय जों
▁दुर्जां जों
▁दुर्जां नाव
▁गुवाहा टि
▁अमा खौ
▁दावबाय ारिफोरा
▁कम्पिउटार ,
▁खन्थाइ खौ
▁आफादगिरि नि
▁स्ट ेट
▁स्ट ेसन
▁स्ट ेसनाव
▁गोमो बाय।
▁फिसाज्ला ,
-सि गां
-सि खान
▁होफै नानै
▁होफै बाय
▁गोरोन्थि फोरखौ
ar y
▁... ।"
▁बुंहर बाय-
▁मनजु ।
▁लाख नि
▁होयो -
▁मेथाइ ।
▁गाबोन बो
.ए न
▁दोर सोन
▁रʼ ग
▁रʼ ।
▁रʼ दाव
▁नायगिर ै
▁नायगिर दों।
▁बह न्नानै
▁दों थाम
▁फां नानै
▁फां नै
▁सिखार नाय
स्रा उ
▁लोम जाब्ला
▁रिंसार थिनि
▁हान जाया
▁बेला -
▁बेला सिनि
▁लि दार
▁गुदुं नि
▁जाहोन ांगौ
▁जालाय दों
▁जालाय दों।
▁जालाय बाय।
▁हिनजाव ,
▁बिम ाया।
▁रान खां
गाव राव
▁गोब ौ
▁गोब ाब,
▁रायज्लाय दों।
थाल िर
▁ति ल
▁गनाय गोन
▁गनाय नांगोन।
▁जाफुं नाय
भि ल
होनाय ।
▁दिल्ल ीया
▁गाबज्रि नाय
▁गाबज्रि नानै
▁गाबज्रि यो
▁जाब्ला सो
▁फार् म
▁फार् निसार
▁गोजां नायाव
▁खायसे फ्रा
▁C O
▁C h
▁गेदेर ा
▁सानस्रि ,
▁सानस्रि नो
▁इय र
▁इय ुना
▁हाइ थु
▁दाजाबदा ।
▁दाजाबदा फोरा
▁हिसाबै सो
is )
is ed
▁बुङ ाब्लाबो
▁बुङ ाहां
▁सोलि यो
▁बायदिसिना खौ
▁"बे फोर
▁"बे फोरखौ
▁मासि निफ्राय
▁सोलो खौ
▁सोलो जोंनो
▁फोरमान लाइ
▁आसि खौ
▁खहा ,
▁हे: ।
▁हाजो खौ
▁खुर लु
▁अख्रां खौ
▁उजि दों
▁थेले फानि
▁थेले बनि
▁सिया लखौ
▁मिथिया खै
▁नागार नाय
▁नागार ा।
▁निउ य
ब्लि द
▁सिबि नायाव
▁सिबि नाय,
▁सिबि यारि
▁मिजिं ।
▁मिजिं थिनो
▁गेव लांनाय
▁देंखो आव
-थ ै
-थ ेर
▁S h
▁सोब नानै
▁फान् नाय
▁फान् था
▁"अ न
▁"अ ह
▁"अ जय
▁फैया खिसै
▁देव बार
▁'आ ं
▁आयदा ।
▁मुगै नाय,
▁हुगार ो।
▁हुगार बाय
ो) ।
▁साह स
▁साह ानि
▁साह ाजों
▁दान्दिसे यावनो
▁थौ जासे
▁W ell
▁W ord
▁जार ें
▁जार ौवा
▁एल ब
▁जादोंमोन ,
▁जादोंमोन -
▁बेवहाय ।
▁गम्भीर सिं
▁सिखाव फोरनि
▁जायाखै ब्लाबो
▁s w
▁दख ्
▁दख ानाव
▁दख नानि
▁दख ना,
फ्लां बाय।
▁9 0
▁9 4
▁A .
▁A n
▁नोम ाया
▁नोम ाजों
▁नोम फाय
▁बेग रनि
▁रजि ,
▁गोलै दों।
▁गोलै सोनानै
▁लिंहर ो
▁लिंहर ामोन
▁गाखो हैयो।
▁गाखो हैयो
▁नेर सोन।
बोला बो
▁लाव थिखौ
▁आबʼ ।"
▁दुग ैनो
▁बिष ि
जायो ,
▁नागा खौ
▁नागा फोरजों
▁आंखाल ।
▁सिथ ला
▁बारगʼ नाय
▁जाहै नानै
▁जाहै गोन
▁फाग्ला ।
▁बिहामजो आ
▁सिनायथि नो
▁हारसिं नि
▁सोद्रोमा फोराबो
▁होब ोनाय
▁दाग ।
▁"ब ै
▁"ब ाथ
▁"ब िसोर
▁खावलाय खौ
▁माय ाजे
▁थाद ेरनाय
▁टा स्क
▁बेखेवफा फोरखौ
▁बेखेवफा खौनो
▁गोथै बारियाव
▁गाग्लोब नानै
▁लै खोन
▁फैयो ब्लाबो
फार ेन्स
▁नाम ैनो
▁लें नानै
▁माल ्
▁माल ्टि
▁बिलाय नो
▁बिथा ङानो
▁प्ल ट,
▁जाथार नाय
▁जाथार बाय
▁थेफेन ।
▁थेफेन नि
▁कमाण्ड ा
▁कमाण्ड फोर
▁सोरखौ थो
▁आवगाय नानै
▁आवगाय लाङो
▁थर नै
▁थोर सि
▁थोर -थोर
▁खेव ना
▁थिनहर दोंमोन
▁जाबो दोंमोन।
▁हांग ारिनि
▁सोङो ,
▁हʼ लनि
▁हʼ ष्टेलाव
▁थाथ े
▁मोनलाय नाया
▁जिल्ल ाया
▁हाजʼवारी खौ
मे दि
▁बिजि खौ
▁बिजि -फिस
▁फिसौ ,
▁15 .
▁फरायसालि मा
▁फरायसालि निफ्राय
ग्रो दों।
▁ब्ल े
▁ब्ल ाव
▁ब्ल कनि
▁दʼ बा
▁रोङ ाबोला
▁खुदिया खौ
▁खुदिया फोर
▁बाब ेन
▁थगाय नाय,
▁थगाय सुला
▁थगाय -थसि
▁"बि थां
▁होखार नायनि
▁गोख्रै थिजों
▁पि. इउ.
ज्ल ौ
▁फालि खौ
▁लाउ दांग
▁नोंबो थʼ
▁"ग ोर
▁"ग ाहाम
▁दाहोना -रुवा
at ural
▁बाल ्ब
▁बाल न्दा,
▁खेर ाय
▁the y
ागोन। "
▁मासे या
▁नायबिजिर नाय
▁नायबिजिर गिरिफोरा
le t
गुर िनि
चि ड
चि टि
चि येल
▁t elegram
▁w ho
▁w ith
▁बिसार ाव
▁लान् स
▁लान् थ्रियै
▁हाबि ला।
▁बावदिया "
▁बावदिया ,
▁जानां नाय
▁जुजि नायनि
▁जुजि बाबो
▁सहेन नि
▁सहेन खौ
स्लाब ै
▁c an
▁बोनाय सै
▁सिला खौ
▁कर् पर
▁नुजाथि दों
▁नुजाथि यो।
लाम् फानि
▁नाइ दाव
▁फोनां नो
▁एव नो
▁एंगार नायखौ
▁कʼ ट
▁अनाथी खौ
खोमा दों
▁m an
▁लाह ाखि
▁बोख ानानै
▁बोख ्लाब
▁गिनानै ।
▁भुट ाना
▁दैदेनगिरि फोर
▁दैदेनगिरि फोरजों
▁D I
▁D o
▁"औ ,
▁बुद ्रु
▁फोसाब नाय,
▁हाबफैयो। )
▁बद मास
▁गला प
▁गला दार
st em
र्ट ा
▁रबि बारखालि
▁बुरै ,
▁खब से
▁दंफां ,
▁रोङै खौ
▁बावदि याबो
▁दिहु नो
▁फाग्लि बादि
-ल ं
▁नाल ेनि
नायानो थʼ
▁बुंदोंमोन ब्लाबो
▁सोरखार नो
खिनि खौ
▁खालार सिम
▁मेलेम जों
▁दहाय सो
▁(ग ोब
▁(ग ाबो
▁सफै बाय।
▁हय तʼ
▁बिमाय ं,
▁फजʼ हैबाय
▁आबै -आबौ
▁सौफै ब्ला
▁बिथिङाव )
ुद ्रु
▁आदै ।"
▁थाया सै।
▁एक सिदेन्ट
▁गोदै सिन
▁जाल दाब
▁फटʼ नि
▁गावथार नाय
▁इंख्रि खौ
▁फारनै बो
रं ज
▁रौ नियानि
▁बिगियान ारि
▁मिन्थि नो
▁असमीया ,
▁मेर ेजनि
▁बेराय ग्लां
▁धोन सिं
▁बेराम जों
▁सुन सिनि
▁सुन -सान
▁थोन नाय
▁थोन -थोन
▁बेफ्रु होनानै
▁बेफ्रु होनाय
▁बुंथि नानै
▁नुव ाब्ला
▁दोनथʼ नायनि
▁मोन्नै याव
▁रुप ा।
▁198 3
▁198 4
▁आजाव नाय
▁आरति ।
▁होनब्ला सो
▁मावग्रा ,
▁मावग्रा -हालि
▁दाहार जों
▁दाखालि नि
▁सिगारेट खौ
▁नुज ाबाय
▁डिस् काव
▁प्रग्राम नि
▁प्रग्राम फोरखौ
▁हाबफैयो ]
▁a m
▁a s
▁नाथ ाइ
्रʼ ल
▁फुल िया
▁कन ट
▁कन ट्रा
▁मुङै सो
▁आयं ।"
▁काप -प्ल
▁माख ्ला
▁सलʼम ुं
▁उन्दुग ासिनो
▁उन्दुग ्लां
▁बिहोमा खौ
▁बिथ राय
▁बिथ ाजों
▁सान्द ाया
▁क्ला सम
▁पाब्लिक ेशन
▁बाउ सोम
▁बोद ्ला
▁लाइमोन फोरखौ
▁गंनै खौ
▁h e
▁h im
▁जुरि जेननाय
▁मोनाम नाया
▁कार जिया
▁जात नि
▁आखाय जों
▁हाउ लाद
▁खुदुम ो।
▁रेन्ज ारखौ
▁औवा ,
▁खुंथाइ यारि
▁इन्टार चिटि
▁जुग नि
▁बिलिर नाय
▁थʼ से
▁हावरिया ।
▁लोरबां थि
▁थाङ ाब्ला
▁रासिन सो
-क ाम
ation ,
▁बिबाय ारिया
▁n oun)
▁साग ुलु
▁सर् सा
▁फैमाल ।
▁दैम ारिनि
▁फोरमायथि दों।
▁फोरमायथि यो।
▁बाग्दाव नाय
▁बाग्दाव नानै
em ent
▁माला ,
▁माला खौ
▁नम्बर ी
▁दान् थार
▁थिसन नायनि
▁लʼ ।
▁क्ल रʼ
▁क्ल िनि
▁क्ल ार्क
▁दैमा सिम
▁देगार जों
▁'ब रʼ
▁बुब्लि खौ
▁सिलाइ नि
▁माउ जिया
▁सुइ सखौ
▁रंफाल ीया
▁सायखʼ जानाय
जागोन बो।
▁नरेश खौ
-दै लो
▁बृ टिस
▁मोनदां नो
▁कन्ट ्राक
▁बुजाय नानै
▁बुजाय बाय
▁बाट नखौ
▁थाफ ्लि
▁थाङा सै
▁थाङा सै।
-दाव रा
▁आमाइ ।
▁साग्लोब नो
▁रमा ।
▁होग्रा ।
▁अनज ाली
▁बैसाग िया
▁ब्लाउ स
,000 .00
ज् यो
▁थाह ोनो
▁खिन्थि गासे
▁"नै ,
.......... ।
▁खोख्लै हर
▁बाहायनानै :
▁दावहायाव ।
▁गोमोन ाय
▁लाया सै
▁लाया लाबासिनो
▁लक्ष ्म
▁एसि बां
▁एसि टिक
▁फैदो ,
▁अनसुं थाय
▁अनसुं थाइनि
▁(आ साम
▁इस लाम
ख्रुब नानै
▁नाङ ि
▁नाङ ाखिसै।
▁खोन्दो आव
▁इउनि भार
▁इउनि टाव
▁B od
▁B ut
▁in h
▁in v
▁गंग ना
▁दाल ान
▁बेन् साव
▁रजʼ नाय
▁अह ं
▁अह ं,
▁एक्स प्ल
▁एक्स टारनेल
▁सुथार नाय
▁गाबनाय -मिनि
▁बाहेर ा
▁रांखान्थि ,
▁जाबाव गोन
▁बिगुम ैनि
ri ve
ri ght
ri end
▁थफ ानै
▁थालां बाय।
▁उसु न्दायाव
▁हाबलाङो। )
▁जासि नाय
▁बिबʼ -बिनानाव
▁रोजाब नाय
▁रोजाब गिरि
▁निजोम ,
▁लाइन मेनखौ
▁जुनाद नि
जाम खौ
जाबाय ,
▁.. ।
▁रह स्य
▁प्रि न्सि
▁लाइट ाव
▁लाइट नि
▁लाइट जों
-खु सि
ख्लाय नानै
▁गुग ्रुब
▁मुर दा
▁मुर दाबाद
▁थाथʼ नानै
लिय टनि
▁अरखि खौ
▁मुसाह ारिनि
▁हरबिला सा।
▁झ ,
▁नन्द ʼनि
▁मोसानाय खौ
-दे नाय,
▁थानांगौ ब्ला
▁बामोन मारा
▁सारि आ
▁गिया खै
▁मʼ हर
▁थाना ङो।
▁रुब ु
▁सिफ ाइ
▁जाफु ङै
▁ची ना
▁ची नाव
▁बट लखौ
▁दन्द ाया
▁दन्द राव
▁रान्दि खौ
▁अखानाय ब्लानो
▁सोरब ानि
▁गिलुं -गि
▁बिफान नो
▁बादाय लायनायाव
▁बहाबा फोर
▁ब्रेक -फास्ट
▁सहै नायसै।
▁नायग्रा फ्रा
▁दाका तनि
▁हरसे खौ
▁देब दार
जिस ्ट
▁कक्राझार ाव
▁सोंखारि नाय
▁आगसि थिं
▁हाखि म
▁इन्टारनेट नि
▁अनुले खा
▁(ब ाज
-हां मा
▁बोग ासिनो
▁बोग दाद
▁सैया ,
▁सैया -सै
▁मथर -गारि
▁जाज ानो
▁थफ्ला खौ
▁सानबोला उरिया
▁बुंनांगौ ब्ला
▁हमथा ।
▁नांजाब नाय
▁खोन् थ
▁खोन् था
▁सावरायज्लाय नायनि
▁सालाइ खौ
▁लाहार-फ ाह
▁सान्दुं ।
▁मेनेजार :
▁आन्जाद खौ
होन ो।
▁सार् भिस
▁अस ुबि
▁अक् सिजेन
▁नोंस ाज्ला
ब्ले नानै
▁उनथिं जाय
▁हायि याव
▁196 3
▁गायसन नाय
▁किटसे ननि
▁बिग्रायारि फोरनि
▁बीर ,
▁सन् मान
▁सन् माना
▁लाहै गोन
▁देवान ीया
▁सादोर ,
▁हालाय ै
▁अन्दर ।
▁सिद दा
▁बुन्दि नि
▁फोरबो नि
▁ट्रेइन जों
मेट िक
▁हाबहै ब्ला
▁होया खै।
▁फोज ोन
▁फोज ाहै
▁गोमालां बाय।
▁बिखुं खौ
▁197 4
▁197 7
▁लानां दों।
▁बेखेवगास्नि नि
▁साया -म
▁बिसुखे या
▁नुयै लाय
▁सोलेर ा
▁टाउन -स
▁शंकर खौ
▁सानबोलाउरि नि
▁सानबोलाउरि जों
▁बिख्लो खौ
▁Y our
▁नंख ाइ
▁लग ्
▁सिरां ,
▁जोंब्ल ावनि
▁पजʼ नि
▁27 5
▁आखुथाइ फोरखौ
▁शनि त
▁थेख्र ेया
▁दामनाय -देनाय,
▁डाक्त ारा
▁जोंरु हा
▁अगेन -अ
-1 5
im ax
ʼल न
फुरि याव
▁बम ब्र
▁मथ न
▁माज ां
▁जार् मानि
▁हाराम जाद
▁एम्ब ुनि
▁दैखर नि
▁'र ाजा
▁बेरफ्रु नाय
▁खोनास ंग्रा
▁गोबाख ्रबनानै
▁जथुम् माखौ
▁खबरदार ,
-बार ुद
नाग ा
बै से
▁बिजा थिया
▁लांखार जानाय
▁बोखाव नाय
▁असमिया फोरा
▁बालाब ारियाव
▁बालाब गासे
▁मोगथा ङारि
▁मारुटि याव
▁प्रिन्ट िं
प्ट ाह
▁हमा सै
▁आग्रा ङारी
▁नोमा खौ
▁एराय नो
▁सानबो लावरिनि
▁बुदुं -बादां
▁मिनिखै रे
▁रेडि अʼ
▁हार्ट नि
▁पाटि ला
▁पाटि लखौ
▁केम्प नि
▁जोंरू वा।
▁धोन-दौ ल
▁भुगि नो
▁अलिम्पि काव
-खाव ै
▁गाग ्लि
▁ग्रा फिक
▁बिल्डिं नि
▁खाला इ
▁फ्रि जनि
▁रन जित
▁"हाब ाब
▁"थौ दो
▁कुम ारनि
▁गावजें ,
▁(मे हेर
▁सेन्ट ि
▁बिबनां खौ
▁"आदा ।"
▁हुखुम ोरनो
▁कम्पान ीनि
▁बिसान ।
▁गायसं नानै
▁हार्ड वेर
▁"कल्प ना,
▁हब गा
▁लागायनानै ,
▁मास्ट ार
▁मास्ट ारनि
▁हाबाव गोन
▁फैस ान्दि
▁इट ाली
▁बायह ाजार
▁निद ानाव
▁दोहो नि
▁बिथराइ ,
▁दलर ै
!! !
ru el
▁बोब ोनानै
▁फिन् नानै
▁होख्रां हरनो
▁जिबार ेलि
▁जानुव ारी
▁साइख ेल
▁साइख ेलखौ
▁आलम र्टा
▁टेक् सि
▁स्टे न्द
▁बैसागि खौ
▁सम्प द
▁बांलादेशी फोरनि
▁सिंखाव रिया
▁सिंखाव रिनि
सुल ी
▁अक्त ʼ
▁एन्ट िस
▁"मोन से
▁बुंफब नाय
▁दिग दार
▁आब्रु थि
▁आब्रु थिनि
▁आब्रु थिखौ
-गे देर
▁गʼस ाइनि
▁गʼस ाथी,
▁थुलुंग ाखां
▁जोबथेसालि निफ्राय
खुं ग्री
नाथाय ,
▁ग्ल ोम
▁गोस ायै
▁लख्रा ,
▁आरांग ायाव
▁क्रि केट
▁मिलौ हाब
▁जागि खांनानै
▁चेन्ट ारनि
▁रेजि मेन्ट
▁थालो आव
▁स्क्रि नाव
▁St yle
उरी टि
▁माग ा
▁हस् पिटालाव
▁बिय ाय
▁बिल् दिं
ाबाव ो।
▁बुंफोर नाय
▁(र ोन
▁देहाय ाबो
▁थिंगिनि या
▁दोनखार लां
▁आबहाव ाया
▁ता स
▁नाजान ांगोन।
▁नाजान ांगौ।
▁औव ारी
▁st ate
▁(198 4)
▁आनज्राय नानै
▁e x
ाब्रै सो
▁"उ न्दु
▁"दा सो
▁"जाय खि
▁इले क
▁फोजों नानै
▁भग बान
▁मन्जुल ानि
▁महिल ारीया
▁फिथ राव
▁नेपाल नि
▁नंथार गौ
▁थुनफावथि ना
▁com e
▁com m
▁फिरफि लाखौ
▁बरगयारीया ।
ho o
▁बस् था
▁ब्याव हा
▁दखʼ रा
▁अभ िनव
▁सिकि त
▁सिकि उरीटि
▁एटा स्ट
▁"सार ,
▁बुदां नि
▁गाहेला फोरा
▁गैजारो ङ
-बेर खाय
▁दाबोर से
▁रुमाल खौ
▁कल्पन ानो
▁केडार फोरा
▁जै-ज ै,
▁खुनुम थै
▁मेनेज मेन्ट
▁हामबुर खौ
▁mean ,
▁दुखुनां थाव
▁दुखुनां थावना
▁ग्रु प
▁हस पिटाल
▁हस पिटालाव
▁बि.ए .सि.
▁लरे त
▁"डा क्त
फ्रे नानै
▁हाब्रां खौ
▁पार्क ाव
▁बिबौ नि
▁जाग्र ोन
▁मिनिग ्ला
▁राङानो थʼ
▁हिन्द ी
▁बिष्ण ु
▁ग्रोम -ग्रोम
▁दावराव-दाव सि
▁फैसाली "
▁जिबारेल िननि
▁हाग्रा-बंग्रा ,
-गा सिबो
▁गुं ग्राय
▁आवा ति
▁सिथोर -बाथ
▁कʼर्ट -कास
▁बुंलाङो -
रिग दै
▁लांसु निया
▁मिनिखुसि यै
▁आसथाम खौ
▁रिक्स ायाव
-हि -हि
▁लुफुं नायनि
▁फानज ारियाव
▁बरुव ानि
▁केम् पे
▁अबस् ये
▁बिथिंजाय निफ्राय
▁खुनुरोखोम ै
▁स्लगान जों
▁सेकेण्ड ारी
▁हरिभुष न
▁ओन्सो लाव
▁आइलि-जाइ लि
हाम जो
▁दंग ʼ
▁थन थ्रʼ
▁लख ब
▁"है द,
▁बोल ोगोरा
▁मोजां-गाज्रि ,
▁डी लनि
▁"आद सा
▁हामार गोन
▁पाक् का
▁हाजʼवारीनि याव
▁इनाइ नो
▁जीब -ज
-एन ला
▁बिजामाद ैनि
▁(ओंखार लाङो)
▁मेघाल यनि
▁सद बांसा
▁सन्द ेर
▁सारिया लि
▁गाग्ल ेम
▁अग्र न
▁सानफेर ाखैमोन
▁उल था
▁गोराय ुं
▁टमेट ʼ
▁नास्र ाय
▁सोदेर नानै
▁निस् सय
न्टि यार
▁तद बि
-गर मि
▁फिदि ङो
▁जोनोमफुरि खौ
▁इराग्दा उ
▁बोराय-बे न्थʼ
▁इउटि लिटि
▁गोबालाय नानै
▁थाथेर नो
▁अबंलावरि खौ
▁सम्बार ुनि
▁रायजो-र ाजानि
▁लाफांग े,
▁उखुन्द ैखौ
▁kn ow
▁रिटाय ार्ड
▁ल्दाम ैनो
-ड ाइ
osi tion
▁id eal
▁होर लां
▁आति का
▁बेकेट ा
▁बेहु स
▁एंगोन ाया
▁मोसे बनानै
▁कालाम ा
▁कहि ध
▁कवार्ट ार
▁जाफ्लाय बाय
▁(दु खु
▁गोसोथ ोनाय
▁मानसि-दुम सि,
▁दैबान ाजों
▁फोरान नानै
▁बैसोम ुथि
▁बिदिन् थियाव
▁थुन-फाव थाइनि
▁नोजोरथाव दि,
▁हामगौमोन ।"
▁जेने भायाव
ुंगोर ा,
▁Sy stem
▁'आफा '
▁बुद्रै नि
▁सेक्सपि यारनि
▁गेरे जाव
▁बिलोग ोनि
▁सेंग्रा-सिख्ल ानि
▁हालिव ग्रा
▁गांनाय-उखै नाय,
▁Inter face
▁निर्माल िया
▁शुक्र बारखालि
बोन ांगौ
▁स्म ाग
▁बिजाव जालि
▁खेम था
▁एखु था
▁थांनां नोसै
▁इछ रʼ
▁इखान -सिखान
▁बाथे नो
▁हाकि म
▁भार्च न
▁गैमार ा।
▁दानसोरा ङा
▁दुर्ल ्लाइ
-बांग ाल
▁रेष्ट ुरेन्ट
-रिन सि
▁अमृ नडर
▁सांग्रे मा
▁To ol
▁Pl ay
▁मुसुर नाय
▁कर्निया खौ
▁"ओह ो।"
▁भिट ामिन
▁सातजार ्ला
▁जमि दार
▁जलद ब
▁आशि फ
▁नाद ाय
▁नखʼ रनि
▁लण्ड नाव
▁नोंग ुम
▁नुजाद ेर
▁मेज ेम
▁ओलै स्रो
▁मुजाह िद
▁सानै-ह यै
▁सानै-साथाम सो
▁महाम ाया
-बाथे द
▁राजा-म हार
▁गरमा -गरमि
▁सार्टि फिकेट
▁गुरुद ेब
ission er
▁फाथ्रि ंगि
▁रिंगुद ामसा
▁अनुलेख ामोननि
▁आगरवाला खौ
-गिदि र
▁बि.टि.ए. डि.
▁क्रिमिन ाल
▁इलेक्ट ्रनिक
▁Scen e
▁Habild ar
▁बलात कार
▁जथु मा
▁जदाम ब्लेनानै
▁दाबादि याव
▁बेटे लिय
▁अग्रि म
ङा-फ्र ुं
▁मान-स न्
▁(भु ँइ
▁पुरनि मा
▁इनाव निपा
▁मेक् सिम
▁--नर ेना
▁फोर्द ान
▁चार्भ िस
▁तालु क
▁फेस्व न
▁अल-क ाइ
▁नार्भा स
▁मुवा-बे साद
▁सामलाउ थि
▁सागुलु न्दि
▁Bod o
▁सैया-सै या
▁जिबारेलि ना
" .
' -
' आव
) ;
+ था.
- "
- 4
- था
- थार
- गां
- थे
- जाय
- प्र
- इं
- ख्रेब
- ब्रुं
- }:
. C
. S
. डि
/ 4
/ 6
/ 30
/ ww
0 1
0 /0
1 2
1 6
1 ),
1 0.
2 0
5 00
8 ),
9 3
: /ww
= गो
A T
E R
I I
P Y
R A
T o
a g
a st
a tive
b al
e a
e e
e f
e ed
e as
f y
i on
i el
j ect
m ar
n al
n ess
o in
o ic
p :/ww
r d
r an
r el
r ol
r ound
t y
u c
u d
u esday.
w .
~ अ
~ माब
ʼ रि
अ न्थाइ
अ मला
इ क
इ च
इ स
इ ला
इ या
इ ना
उ दां
उ लाफाद
ओ ं
क "
क श
क ाया
क िर
क ार्
क ारा
क ुमार
क ʼलजि
ख ाथ
ख ेव
ख ांगोन।
ख ुरि
ख ाजोब
ख ारि,
ख ाथार
ख ांग्रा
ग ायाव
ग ुलि
ग ोमा
ग दाव
ग रिनि
ग ोरा
ग ामिनि
ङ ायाव
ङ ाखिसै
ङ ाखै।"
च ाम
च िं
च ्‌
च ुगाव
छ म
ज -
ज ै
ज ाला
ज ोनो
ज ्य
ज ाब्लाबो
ज ीर
ज ाखां
ज ं,
ञ ा
ट स
ट ।
ट ेन
ट लनि
ट रिया
ट मेन्ट
ड ै
ड ायाव
ड ार,
त ान
थ ुं
थ ाख
थ ाबो
थ ाबाय
थ ्री
थ ्रा।
द ोर
द ारि
द ानो
द ना
द ाया।
द ्राया
द ान्दिसे
द ं।
द ्दिन
ध ि
न निफ्राय
न ोना
न जु
न ीनि
न ारि,
न बादी
प ल
प ्राय
फ ाबाय
फ ालि
फ ेव
फ र्
फ ʼन
फ ैया।
फ ्टि
फ ायोब्ला
फ िसा
ब ह
ब ाह
ब ुल
ब ारी,
ब ाजि
भ ाव
भ िनि
भ ा।
भ ेन्ट
म "
म ैया
म ारनि
म ते
म ाखासे
य य
य ाराम
य रा
य ारिया
र ार
र ों
र ानि
र ेम
र ी,
र िस्रां
ल '
ल न
ल ।
ल बा
व बो
व ाथʼ
व ाखैमोन
व ाखि
श ननि
श ्म
स न्
स याव
स रा
स न्नाय
स पे
स .सि.
स टेम
स ंगिरि
स ङो]
ह य
ह ोब
ह ुम
ह ारी
ह ाजों
ह ारिनि
ह ैया।
़ ,
ि ।
ि जों
ि लनि
ी ग
ी ट
ी ब
ी न्द्र
ु थ
ु य
ु दै
ु इच
े फ
े नाव
े सार
े -ब
े क्स
े स्व
े सिस
ै लʼ
ो '
ो दै
् क
् नै
् थां
् थोर
▁ निफ्रायनो
▁ en
▁ at
▁ et
▁ qu
▁ res
ाय ार
ाय ाथʼ
ाय ोमोन
▁ब ुल
▁ब ालि
▁ब खालि
▁ब ोन्
▁ब ाबाय।
▁ब न,
▁ब स्ति
ान ाया।
ान ांगोन।
ाव सो
▁स :
▁स प
▁स ो।
▁स ामा
▁स सेयाव
▁स ाग्रा
▁स फैयो।
▁स ारियाव
▁स ारि।
▁स ्लिब
▁स सियेल
▁स ख्लʼ
▁स भायाव
▁ग द
▁ग थि
▁ग बाय
▁ग ाया
▁ग ानानै
▁ग न्द
▁ग यो।
▁ग ायो।
▁ग ायो
▁ग ार्
▁ग बर
▁ग र्
▁ग ुलुं
▁ग हां
▁ग ुरि
▁ग लानि
▁ग ाथे
▁ग बोनानै
▁ग ल्ड
▁ग ग्रायाव
▁म छ
▁म ध
▁म जा
▁म रि
▁म ायो
▁म र्
▁म ुरि
▁म ागोन।
▁म ान्द
▁म ध्य
▁म ाबोला
▁म ुरि,
नि य
नि खौ
▁ज बा
▁ज ङा
▁ज लाय
▁ज था
▁ज फै
▁ज ाजा
▁ज हैयो।
▁ज ाबादि
▁ज ्यो
▁ज थेरनो
ार े
▁ह बा
▁ह िन्
▁ह नाया
▁ह ाजों
▁ह ान्दि
▁ह ख्राव
▁ह ल्ट
▁ह ंखा
▁ह -नै
▁ह प्टाह
▁आ क
▁आ त
▁आ से
▁आ याव
▁आ जि
▁आ था
▁आ सिन
▁आ या।
▁आ लियाव
▁आ श्र
▁आ जोला
ला श
ला उरि
ला -हु
▁न ग
▁न ारि
▁न थिं
▁न खौनो
▁न ालै
▁न याराम
▁द थि
▁द िया
▁द लि
▁द ाब्ला
▁द िरि
▁द लाम
▁द ्रेस
▁द ीप
्र ायै
ां ।
ां खौ
ां बि
खौ ।"
ोर ों
ोर खौ
▁बि नायनि
▁बि थार
▁बि यै
▁बि लां
▁बि खʼ
▁बि र्
▁बि नोबो
▁बि ग्रो
▁बि थानि
▁बि खʼनानै
▁बि नावनो
▁बि दांखौ
▁बि जु,
▁थ म
▁थ ेन
▁थ ोनानै
▁थ ारा
▁थ ाबा
▁थ ं,
▁थ ननानै
▁थ र्स
▁थ बेना
ाब ।
ाब खौ
ाब ाला
ाब ्लि
ाब ा।
ाब ोरै
▁ख बाय
▁ख ुब
▁ख वा
▁ख थʼ
▁ख ण्ड
▁ख ाखां
▁ख ्रु
▁ख ्रें
▁ख म्ब
▁ख ्रिं
▁ख खाब
▁ख दाल
▁ख ्लोब
नाय थि
▁फ ट
▁फ ालां
▁फ ामि
▁फ र्सनि
▁बे फ
▁बे नाव
▁बे गा
▁बे थिं
▁बे दां
▁बे क्ट
▁बे न्दे
▁बे थिंजाय
▁बे डिं
▁र ग
▁र ेन
बो द
बो लै
बो ला।
बो यो,
से जों
से रनि
या ल
या सै
या खिसै।
▁गो फा
▁गो लो
▁गो सायाव
ाम िस
ाम ांसि
▁ल ै।
▁ल थायाव
▁ल िस्ट
▁ल हानि
दों )
दों सै।
दों सो।
दों लʼ।
सि र
सि सा
सि लनि
सि यान
सि केल
सि टिनि
थि फोरखौ
दि स
दि ्‌
दि नैनि
दि हुन
न् या
न् थाय
न् थ्रि
न् थायाव
न् दि,
ाइ याव
बाय )
बाय दों।
बाय सै
बाय ाव।
.. आं
▁मोन ,
▁मोन जों
▁मोन ाबो
▁मोन जोब
▁मोन सʼ
▁मोन लाङो।
▁मोन लाया
▁मोन लिया।
▁मोन थों
▁मोन बावनो
▁मोन होनाय
▁मोन फैयो।
▁मोन हैबाय।
▁मोन नायावनो
▁मोन खांनायनि
▁मोन फैयो
▁मोन फिननो
▁मोन होदों।
▁मोन नैया
▁मोन जाग्रा
▁मोन मारनो
▁मोन फेराखै
फोर सो
फोर मान
▁आर ʼ
▁आर ाव
▁आर जि
▁आर सा,
▁आर ो।"
▁अ इ
▁अ त
▁अ ख्र
▁अ फि
▁अ थे
▁अ खानि
▁अ खं
▁अ जा,
▁अ ल्दा
▁आं न
▁आं गा
▁आं गि
▁आं लायनो
▁आं गोनि
▁आरो ,
ाल ी,
ानि ।
ाख ाव
ाख ोमा
▁सि याव
▁सि ंग
▁सि राय
▁सि सु
▁सि माखौ
▁सि कार
▁सि ंग्रि
▁सि टाव
▁सि सटेम
ेर ाव
ेर नि
ाह रु
ानो सै
▁ला गि
▁ला खांनानै
▁ला ंगौ
▁ला खानाय
▁ला लायनानै
▁ला होनानै
▁ला सिगोन।
▁ला बाय-
▁ला हैयो।
▁ला फिननो
▁ला सेनो
▁ला गे
▁ला ङो)
▁ला खोमानानै
▁ला मायानो
▁ला द्रा
▁ए :
▁ए फोरनि
▁ए खायनो
▁ए चि
▁ए .सि.
्रा ङाव
्रा छा
सो लʼ
सो लै
ानाय जों
ानाय सै
ानाय सै।
िर ङा
्ल ाव
्ल ायो
्ल ायै
मोन से
मोन बादि
▁नों सो।
ना स
ना सि
ना ।"
▁मो सेब
▁सान जों
▁सान लाइ
▁सान थिं
▁सान थाव
▁सान दो
▁सान नाय,
▁सान नाय।
▁सान ज्लाय
▁सान दों-
▁सान द्राय
▁सान ्दां
▁सान ालाबानो
▁सान थावा।
▁सान जानिफ्राय
ायाव बो
▁उ फे
▁उ ब्रे
▁" O
▁" P
▁" घ
▁" खौ
▁" ..
▁" जु
▁" नां
▁" सम
▁" थाब
▁" कि
▁" जाथ
▁" के
▁" जाम
▁" नाङा
▁" गोसो
▁" सासे
▁" दानिया
▁" जिराय
▁" थालिर
▁" रंज
ुब ै।
फ्र ुवा
फ्र ावबो
▁होन दोंमोन
िन ी
िन ै
▁क ड
▁क ाला
▁क बि
▁क रा
▁क रम
▁क ुर्
▁बुं -
▁बुं खौ
▁बुं थार
▁बुं देर
▁बुं ब्लानो
▁बुं फेर
▁बुं खाङो
▁बुं जाथाव
▁बुं फिनबाय
▁बुं खांना
▁बुं नागौ
▁खालाम न
▁खालाम बाव
▁खालाम थाव
▁खालाम फिन
▁खालाम खांनानै
▁खालाम नायसै।
▁खालाम होनो
▁खालाम ाखिसै।
▁खालाम बाय-
▁खालाम हैयो।
▁खालाम ग्रो
▁खालाम नायावनो
▁खालाम हरो।
▁गाव ना
▁गाव नायनि
▁गाव लायनायाव
▁गाव खुं
ाद नि
ाद ्र
ाद ्रि
ोब नानै
ुन नि
ांग ासे
▁जाय ामोन।
लाय थार
लाय ैनो
लाय गासिनो
लाय लाङो
▁सम ब
▁सम ाबो
▁सम ष्ट
▁सम सेरा
▁- 1
▁- स
▁मा सै
▁मा सेयाव
▁! ...
▁! आं
▁थां फा
▁थां बाव
▁थां नाय,
▁थां ब्ला,
▁थां नांगौ।
▁थां होनाय
▁थां फाया
▁थां सिगोन
▁थां दो।"
▁थां जासिम
▁थां जोब्बाय।
▁थां ब्रब
▁थां थोंसै
▁थां ज्रेम
▁मि ग्रि
▁हाब ,
▁हाब ना
▁हाब नायनि
▁हाब ायाबो
▁हाब ्बाय।
▁हाब लांनानै
▁हाब हैबाय
▁जों ।"
▁जों नाया
▁जों खौबो
▁जों नाय,
▁जों दाव
▁जों खाङो।
▁जों हालाय
.... !
.... ?
जि )
जि .
जि द
जि खौ
जि याबो
जि उनि
सोर ,
वा सै।
▁फै बानो
▁फै खांबाय
▁फै खादों।
▁फै मारनो
▁फै योमोन
▁फै याब्लाबो
▁फै मारबाय
ंग ्र
▁जा ।"
▁जा थिनि
▁जा दिया
▁जा ता
▁जा फ्राम
▁जा फैदों।
▁जा सिगोन।"
▁जा सुल
▁मान ो।
▁मान जा
▁मान -अ
▁मान हानि
ंख ायनो
▁हो सिन
▁हो लो
▁हो खांनानै
▁हो ज्रि
▁हो लायनानै
▁हो थाब
▁हो दों।"
▁हो लांबाय
▁हो लांबाय।
▁हो लायनो
▁हो लांदों।
▁हो जोबो।
▁हो बोदों
▁हो लांदों
▁हो त्
▁हो सोनाय
▁( E
▁( m
▁( v
▁( क
▁( नाय
▁( बा
▁( लाइ
▁( गा
▁( सार
▁( सु
▁( जौ
▁( थै
▁( दम
▁( हांमा
▁( 9)
▁( दिहुन
▁प ौ
▁प ाव
▁प न्
▁प ांग
▁प बि
▁प ेस
▁प ेश
▁प र्ट
▁प ाहार
▁प ेरि
▁प न्च
▁प न्जि
▁जे ंग
▁जे ङा,
▁जे वारि
खा दों,
▁इ र
▁इ या
▁इ न्द
▁इ लु
▁इ बसे
▁बु ट
▁बु थ
▁बु नायनि
▁बु यो।
▁बु सा
▁बु खार
▁बु थुर
▁बु लायनाय
▁बु फाय
▁बु जाह
▁बु दि्‌
हर नायाव
हर ो)
▁नाय >
▁नाय दि
▁नाय दों।
▁नाय ।"
▁नाय यो।
▁नाय नायाव
▁नाय ब्लाबो
▁नाय नो।
▁नाय सʼ
▁नाय बानो
▁नाय स्रा
▁नाय लांनो
ाबो द'
दोंमोन लʼ।
ोग ोनां
ोग ोनो
ोग ्रो
▁गोसो याबो
▁गोसो खौ।
▁नु गा
▁नु ग्रा
▁नु फिन
▁नु हां
▁नु दों,
▁नु बोला
▁नु बोदों
▁नु वा,
▁नु गाब्रै
▁नु थारदों।
▁नु गाथाम
▁गे जेन
▁गे टा
▁सो बो
▁सो ङा
▁सो बाय।
▁सो यै
▁सो ङै
▁सो लाया।
▁सो बायो
▁जि म
▁जि या
▁जि गि
▁दं फा
▁दं नो।
▁दं सै,
▁दं जायो
▁दं हैयो।
▁बा ,
▁बा ङै
▁बा क्
▁बा स,
▁बा क्सा
▁बा ध्य
▁मे वा
▁मे न्ट
▁मे थाया
▁मे लेट
▁मे इल
जा '
जा ता,
दा स्ट
िया स
िन् स
▁सोर ।
▁सोर बाय
▁सोर गि
▁सोर जिस
खां ।
खां बाय,
खां बाय।"
ुग ै
ुग ाव,
ुग ीज
▁फिस ायखौ
▁बो बाय।
▁बो खा
▁बो लांनो
▁बो स्लाय
▁बो खांनायनि
▁बो ल्द
▁बो जब
▁बो जाबनानै
▁बाथ ेद
▁सा त्र
▁सा ङि
▁सा फायाव
▁सा सपे
▁राव खौनो
▁राव फ्रा
▁राव खौ।
▁राव जोंनो
▁राव नावबो
▁बरʼ )
▁बरʼ फोर
▁बरʼ राव
▁बरʼ फोरजों
▁बरʼ लेण्ड
▁गि ल
▁गि ना
▁गि खʼ
▁गि लुब
▁बाय बाय
▁बाय दोंमोन
▁बाय दों,
▁बाय गर
▁बाय ग्रेब
ालि फोरा
ालि याबो
▁-- गावराव
थाइ ,
थाइ यारि
बि सि
बि लाइ
बि ब्दि
▁मानसि ं
▁मानसि बो
▁मानसि निफ्राय
▁मानसि फोरनिफ्राय
▁दै बाय
▁दै यो।
▁दै रि
▁दै स्र
▁दै दिं
▁दै ज्ला
थार गौ
थार ैनो
थार ा,
थार नांगौ।
▁से मि
▁से नि,
▁से लाइन
▁से प्ट
▁से सनाव
यै '
यै बो
▁गुब ु
यो। )
ारी याबो
जो बा
जो होलाव
▁लोगो या
▁लोगो फोर
▁लोगो फोर।
▁माव ,
▁माव ।
▁माव खां
▁माव ग्र
▁माव फु
▁माव दो।
▁माव बोनाय
▁माव ोमोन
▁माव जाथ
▁माव खाङो।
▁माव ग्रोन
▁माब ाव
▁माब ्रै,
लाइ ज
▁सु त
▁सु ला
▁सु जों
▁सु यो
▁सु न्द
▁सु यै
▁सु जाब
▁सु थे
▁सु हाबनाय
▁सु सिनानै
▁सु टकेस
▁सु स्मि
▁सु जाता,
लि उ
लि ना
लि फां
▁थाखाय ब्लाबो
▁थाखाय नो।
▁थाखाय सो।
▁बादि ,
▁दा ,
▁दा फ
▁दा फै
▁दा ङै
▁दा फर
▁हर खौ
▁हर बा
▁हर फा
▁हर नायसै।
▁हर दो।
▁हर नांगौ।
▁हर ाव।
▁हर मʼ
▁हर खादों।
गा ङा
▁बार ।
▁बार खौ
▁बार दों
▁बार गा
▁बार नाया
▁बार ग्रा
▁बार खो
▁बार नायजों
▁बार गासे
▁बार थारबाय
▁बार दाउ
▁बार ननानै
▁बार ्लि,
▁दे क
▁दे थ
▁दे खाय
▁दे फ्रु
▁दे न्था
▁दे खोन
▁दे मुख
▁बिनि याव
▁बिनि थिं
है दोंमोन।
है नाया
है दो।"
▁गु नि
▁गु मा
▁गु दाम
▁गु थाला
▁नङा "
▁मोनसे खौनो
आव ,
बाव दोंमोन
बाव गोन
बाव खो
बाव ा।
बाव नायसै।
▁अन लाइ
▁अन लि
▁अन नायजों
▁अन खांनाय
▁अन न्त
▁अन ार्स
▁अन सुला,
▁अन ारु
▁अन सुला।
▁गोर ो
▁गोर ान,
▁गावनि खौलʼ
▁' A
▁' ख
▁' प
▁' ल
▁' बो
▁' रा
▁' सु
▁' हाय
▁' हाब
▁' दे
▁' मो
▁' जोंनि
▁' फाग
▁' फैमाल
▁सलʼ आ
▁सलʼ खौनो
रि '
रि याया
▁आंनि या।
▁मु द
▁मु ला
▁मु से
▁मु थासे
▁मु लाम्फानि
▁हम लाय
▁हम गोन
▁हम गोन।
▁हम नो।
▁हम दों,
▁हम फ्लां
▁हम सनो
▁दिन ।
▁दिन नाय
▁दिन ावनो
▁उनाव ।
▁--" बे
म् बे
म् पिउट
ङो। )
▁बिसोर -
▁बिसोर लाय
▁बिसोर खि
▁बिसोर खौनो
▁बिसोर खौ।
▁बिसोर हाबो
▁बिसोर नावनो
▁गुबुन नो
▁गुबुन निफ्राय
▁गुबुन ारिनि
▁गुबुन सो।
▁फोर माया
▁फोर जा,
लां नोसै
▁मोजां मोन
गोन खौ
▁बाथ्रा सो
▁बाथ्रा ।"
▁मिथि दों
▁मिथि नायाव
▁मिथि नांगौ
▁मिथि खानाय
▁मिथि सिगौ
▁मिथि सिगौ।
▁मिथि नानैबो
▁गेजेर सिम
बे याव
बे साद
▁गोद ोनानै
▁गोद ्‌
▁गोद ोनाया
▁जेर बाया
ख्र ेम
▁गोज ोरै
▁गोज ायैनो
▁थानाय जों
▁थानाय सै
▁थानाय ाबो
▁थानाय मोन।
▁थानाय ावबो
सार नाय
सार नानै
सार ्ट
ोना ङै
▁दि व
▁दि ङाया
▁थि ब
▁थि नानै
▁थि दों।
▁थि ये
▁था उ
▁था दों।"
▁था फिनो।
▁था सिगोन
▁था फानानै
▁था फैनो
▁था फैबाय।
▁था फैदों।
▁था उननि
▁फो ल्ला
▁फो जोबो।
▁फो लाउ
▁ट ाव
▁ट ां
▁ट र्सनि
▁जानाय मोन
▁ड ्रे
▁ड ेरि
▁सोम ।
▁सोम ब्ला
▁सोम बाय।
▁सोम स्रि
▁गा सो
▁गा साखौ
▁बायदि फोर
▁बायदि ब्ला
हो ब्ला
हो यै
हो यासै।
हो वाखिसै।
▁ना उ
▁ना ङो,
▁जाबाय ;
▁जाबाय ब्ला
्द ोन
▁गाब ब्ला
▁गाब नाय,
▁गाब नाय।
▁गाब नायजों
▁गाब फ्राम
▁गाब ्बाय।
▁गाब ्रʼ
▁गाब खाङो,
▁गाब ख्राउ
▁गाब ्बाय,
▁बाह ायोब्ला
▁बाह ान्दारि
नाया सो
ेन ारि
▁गैया मोनब्ला
सिन नो
गिरि फोरनो
▁हाया ;
▁हाया सै।
▁फाव ै
▁फाव ।
▁फाव गिरिफोरा
▁बेखौ लाय
▁एसे ल
▁एसे नोसै।
▁एसे यैब्लाबो
▁1 st
ालाय ,
ग्रा सो
▁जो ला,
▁जो लैया
▁रो सि
▁रो दाया
▁रो दाजों
▁जाग ु
▁जाग ्रो
▁हा सि
▁हा स्रि
▁हा फां
▁हा उरिया
▁हा फ्लं
▁हाबा ,
▁हाबा फोरनि
▁हाबा खौ।
▁सासे जों
▁सासे लʼ।
▁हे ,
▁हे --
▁हे ल्प
▁हे बनानै
▁हे ब्रे
खो ला,
खो -मो
▁जानो लʼ
▁जानो -लों
▁मुं फोरा
▁मुं फोरखौ
▁मुं आव
▁मुं खौनो
▁मुं सुं
▁मुं फ्राम
▁मुं सेबो
▁दाव खि
▁दाव रा
▁दाव थु
▁ओंखार ब्ला
▁ओंखार नाया
▁ओंखार ाखै।
▁ओंखार ाखिसै।
▁ओंखार बोनो
▁बोर ायनो
▁बोर ो,
▁भ े
▁भ जʼ
▁भ ंगि
▁भ ʼज
▁भ बानि
▁भ ाइज
▁भ ʼग
▁भ ुटि
▁दोन दोंमोन
▁दोन फै
▁दोन दोंमोन।
▁दोन दो।
▁दोन फिनो।
▁दोन हैबाय।
▁दोन फिनबाय।
▁दोन लांदों।
▁दोन खादोंमोन।
▁गाह ै
▁गाह ाइनि
▁दु खारि
▁बै नि
▁बै नो
▁बै यो
▁बै श्य
▁मानो सै
▁मानो बाव
▁खाम ि
▁खाम नाय
▁खाम फा
▁खाम थाव
▁खाम जानाय
▁जौ सो
▁जौ -जु
▁महर -मोखां
्लि द
थिं जों
थिं निफ्राय
▁राइजो ,
▁राइजो जों
▁राइजो फोराव
▁राइजो याव।
रा खौ
रा ङाव
रा झार
▁गार ो
▁गार बाय
▁गार ाखै।
▁गार हरनाय
▁गार ʼ,
▁फराय ै
▁फराय दों
▁फराय ब्ला
▁फराय नायखौ
▁फराय सानि
▁फराय गासे
▁फराय जोबनो
▁फराय हैनाय
▁फराय साल
▁थै बा
▁थै ना
▁थै याव
▁थै फ्राम
▁थै नायनिफ्राय
▁थै बाय।"
▁थै साम
▁नि बो
▁नि हिर
▁नि ंनि
▁नि ज्रा
▁नि मुख
▁जिउ ,
▁जिउ माया
▁सिख ोन
▁आफ ाखि
▁आफ ्रिक
▁आफ ामोना
▁आफ ामोनखौ
गौ मानि
▁हारि ।
▁हारि यानो
▁हारि -हारि
▁हागौ ;
▁हागौ बा
▁आब ुर
▁आब ारीखौ
जाब ोनाय
▁जेबो ।
ग्र ोनानै
ग्र ोद
ग्र ामोन।
▁हां ख्राइ
खौनो थʼ
▁आइ ।
▁आइ खौबो
▁नʼ आ
▁नʼ ।
▁साव ा
▁साव बाय
▁साव नायबादि
्लाय ाबो
स् थाया
स् कि
नांगौ -
नांगौ वा
फिन ।
फिन दोंमोन
▁जोब ै
▁जोब ।
▁जोब ना
▁जोब दों।
▁जोब नाया
▁जोब गोन।
▁जोब खांनानै
▁जोब ्राब
▁जोब नानैबो
▁गै लाय
▁गै थारा।
▁गै खाया।
▁गै खाला
▁रां खौबो
▁रां -र
▁रां खिनि
▁रां जोंसो
▁आले याबो
मानि खौ
मानि फ्राय
▁सों ।
▁सों बाय।
▁सों थाइ
▁सों गोन
▁सों दोंमोन।
▁सों थे
▁सों फिनो।
▁सों बावो
▁सुबुं थि
▁सुबुं फोराबो
▁दिन्थि दों
▁दिन्थि यि
▁नां ना
▁नां जा
▁नां थʼ
▁नां नायाव
▁नां सार
▁नां थे
▁नां दों,
▁नां ब्लानो
▁नां लाया
▁नां फैयो।
▁नां फैबाय।
▁नां फादेर
▁गेजेराव सो
ब्र ाइ
ब्र ोम
ब्र ाजों
ब्र ै,
▁अर ै
▁अर ।
▁अर नाय
▁अर ाइ
▁अर खा
▁अर ्ग
▁दं। '
ति क
▁राय दों
▁सायाव ,
▁सायाव नि
▁सायाव लʼ
▁गोबां सायानो
▁लाइ सिनि
▁लाइ सेन्स
▁मेग नै
-- --
▁फार ब्रै
▁फार नैनि
▁आखु फोर
▁आखु निफ्राय
▁आखु वानो
▁लां ब्ला
▁लां फा
▁लां नायखौ
▁लां दो
▁लां फिननानै
▁लां फायो
▁खार ग
▁खार नायनि
▁खार हो
▁खार खो
▁खार जोब
▁खार लाङो
▁खार लांनाय
▁खार लांबाय
▁खार लांदों
▁खार बोयो।
▁खार ग्लुं
▁खार फालां
▁खौ लो
▁मिनि बाय।
▁मिनि नाया
▁बाव ा
▁बाव ना
▁बाव लाय
▁बाव लाङो।
▁बाव दा।
▁गोदान नो
▁खोम ाया
जोब नायनि
▁गासै बो।
▁बिफ ानिफ्राय
▁सोदोब आव
▁सोदोब थिखौ
▁सोदोब -बि
▁बाज ानाय
▁बाज ारि,
▁जादों ना
बर ,
बर द
▁माह ाराजा
▁[ ख
▁सान् नै
▁सान् दोंमोन।
▁सान् थिनि
देर नो
देर बाय।
▁आग ्द
▁आग ्लायनाय
▁खामानि ,
▁खामानि फोरा
▁खामानि यानो
▁गथʼ नो
▁गथʼ फोराबो
▁आफाद ।
▁आफाद जों
▁हिन्जाव ाबो
▁नागिर बाय।
▁नागिर ग्रा
▁नागिर ा।
▁नागिर ाखै
▁नागिर गासिनो
▁नागिर ोब्ला
▁दान खʼ
▁दान स्ल
▁दान ो।"
▁मले नि
गार खौ
गार दों
गार ्ल
गार बोनाय
▁खालामनानै नो
........ !
........ .........
▁बाद ानि
▁बाद ारि
▁खु थु
▁खु स्रा
र् ‌
▁श ा
▁श शांक
खोम ाना
▁दुखु )
▁दुखु ,
▁दुखु वै
▁दुखु -सु
▁दुखु -जाल
▁गोम जायै
▁बिख ाया।
▁गाज्रि ब्लाबो
▁गाज्रि यानो
▁जाह ोन।
▁हाज ि
▁नङ ाम
▁नङ ालै।
▁खोन ाज
▁खोन ाहां
क् सि
क् का
▁च ार्ट
▁च रन
सं )
सं नाय
▁देर ाया
▁देर दों।
▁बिमा -
▁बिमा -फिसा
▁जोंनि नो
▁जाख ोनो
▁जाख ागोन
▁जाख ागोन।
▁फिसाज ्लायाबो
▁फोरमाय ।
▁फोरमाय नायाव
▁फोरमाय लु
▁फोरमाय दोंब्लाबो
▁फोरमाय बावनाय
दां नाय
▁लों जोब्बाय।
▁मुल िया
▁आस ाया
▁आस थामा
▁खो लि
बार ,
▁राज ेन्द्र
▁राज बं
▁राज उलाफाद
▁बेफोर ,
ष्ट नि
ष्ट ्रि
ष्ट िक
ष्ट टलनि
▁ध ा
खौबो थʼ
-फ ेर
-फ ुट
▁जु त
▁जु फि
▁जु दा।
▁जु वा,
▁जु तानि
... आं
खर ां
खर नानै
▁माइ -माइ
▁माइ नारा
▁माइ थाइयाव
▁बिज ्ला
▁बिज ौवा
▁सिगां ,
▁सिगां निफ्राय
▁सिगां ङाव
▁सिगां लाङो
▁मह ारा
▁मह ेश्वर
ब्ल ाव
ब्ल िनि
ब्ल ेमा
▁नोजोर ै
▁नोजोर -सान
▁"आ ब
▁"आ य
▁"आ गै
▁"आ फाया
▁"आ माइ
▁जायो दि
▁बेख ाय
▁फावथाइ गिरिफोरा
▁प्र ʼ
▁प्र च
▁प्र फ
▁प्र भु
▁प्र मिला
▁खन ला
▁खन ानि
▁खन थाइ
▁खन ाजों
▁बोसोर खौ
▁बोसोर निफ्राय
▁बोसोर नैनि
▁बोसोर बानि
ेस ,
ेस ाव
▁आलाइ स्री
▁फु क
▁बिब्दि यैनो
▁रु ध
▁रु सनि
▁रु टिन
▁ब्र ʼ
▁ब्र ेव
▁बुंनो ,
▁त िनि
▁त ागि
▁बिन ोनो
▁बेर ला
▁होनानै ।
▁होनानै बो
▁होनानै सो
-ग ैया
-ग ामसा
▁ले वा
▁ले जिस
▁ले बेलाव
न्दा खौ
▁गिदि राव
▁बाहाय ।
▁बाहाय दों
▁बाहाय नांगोन।
▁बिसि फोरखौ
▁बिसि याबो
▁जिर ायो
▁बाथ्राखौ सो
▁बाथ्राखौ थʼ
▁सं नायखौ
▁सं कर
▁मोस ायो)
▁सेर माय
▁सेर ियास
▁फि ठ
▁फि था
▁फि फां
▁फि फ्टि
▁सिं नो
▁ने उ
▁ने बावनो
▁आय खां
▁आय लि
▁आय ेन
▁आय -आ
▁फारसे लʼ
ामोन निफ्राय
▁आव ाजा
▁आव साव
▁आव ारामा
▁मै खौ
▁मै खारि
▁नाज ाथ
▁नाज ाना
का खौ
▁नोंथां आ
▁नोंथां नाव
▁बबे वहाय
▁मोखां फोरखौ
▁दर ं,
▁लानाय ानो
टि ,
टि ंग
▁बेखेव ना
▁बेखेव नायनि
-म ोदोम
-म ागा
-द ाला
-द ुर
▁थे ंग
▁थे खा
▁सिरि खौ
▁सिरि था
▁मेगन ेटिक
▁खरʼ सायाव
-स ʼ
-स न
-स ाम
-स ्रा
-स ुर
-स ुबि
-स द्‌दा
▁नोंसोर -
▁नोंसोर नाव
जित ,
-ब ुं
-ब िर
-ब ुरि
-ब ाजार
-ब ख्लʼ
▁आद ोर
▁आद ानाव
▁आद ारखौ
▁गोजौ सिन
▁बाहागो वा
▁बाहागो फोरा
▁बाहागो फोरखौ
▁थार बाय।
▁थार मोन।
▁थार जानि
▁एर खांनानै
▁एर सन
▁एर खांनाय
▁एर खांनो
▁गां लाब
▁गां जेमाखौ
▁उन ।
▁उन दु
▁उन हालागै
लिया ।"
▁नै -
▁नै ।"
ानिफ्राय ।
▁गोहो या
▁जोन ्थोर
▁बुंबाय ,
▁दाब सा
नां नायनि
▁एन ालʼ
▁मोदोम ै
▁मोदोम निफ्राय
▁मोदोम ावनो
खार लुं
▁जोनोम खौ
▁जोनोम निफ्रायनो
▁नवाव सो
▁जागोन "।
▁थाब नो।
▁थाब थानानै
▁हाम ाखिसै
▁हाम िनारि
यावनो थʼ
▁मुलुग ।
▁खाव नाय
▁खाव रिया
▁खाव लायनानै
▁खाव निया
▁फं स्ल
▁ओंखाम बो
▁ओंखाम जों
▁ओंखाम -ओ
ुलि ।
थाम नि
▁माब्ला ब
▁माब्ला बो
▁उन्दु दों।
▁उन्दु बाय।
▁उन्दु स्रि
▁उन्दु हाब
▁उन्दु लाङो
▁उन्दु सोनानै
जाय ारि
▁रि उ
▁रि ड
▁रि हा
▁रि लि
▁रि क्
▁रुम थिङै
▁रुम फारसे
▁लुबै याब्लाबो
▁समाय नि
▁समाय नाय
▁समाय फ्ले
▁समाय स्रीनि
▁नुनानै नो
▁गंसे ।
सʼ नि
सʼ नो।
▁थाबाय ,
▁थाबाय ो
▁थाबाय ो।
▁थाबाय ।"
▁थाबाय नांगौ
▁थाबाय ग्लां
▁सिनाय ो
▁सिनाय ो।
▁सिनाय बाय
▁सिनाय खायो
▁सौ नो
▁सौ फैयो।
▁सौ फैयो
▁सौ धुर
▁सौ वो
▁जʼ आ
▁जʼ नाय
▁जʼ थाय
▁जʼ फादेर
▁जʼ थारला
▁बिह ारि,
▁बिह ार,
्राय बाय
▁गामि फोराव
साय नानै
साय ाबो
▁सोरबा ,
▁रै मोनखौ
▁लाबो फादों
▁माखासे मानि
▁रा स
▁गोग्लै दों।
▁गोग्लै हां
▁समाज तन्त्र
▁बाग ाननि
▁एम ब्र
▁एम सायाव
▁"न ं
▁"न ङ
▁"न ाला
▁"न ʼवाव
▁हु नाय
▁हु से
▁हु खा
▁हु यै
▁हु दायानो
▁हु ख्रेम
▁आसाम ।
▁आसाम खौ
▁थायो। ]
दʼ खौ
ोमा ,
▁दाय निफ्राय
▁दाय लग
▁बेल ।
▁बेल ार
▁बेल श्रीया
▁ब्रह्म नो
▁हाय ेननि
▁हाय नाम
▁हाय ोमोनब्ला
▁हाय ाबाबो
▁हाय नामुलि
▁खि थ
▁खि नाय
▁खि ना
▁साब ै
▁साब नाय
▁साब िया
▁साब जानाय
▁साब सिनै
▁लाखि दों
▁लाखि यो
▁लाखि गोन।
▁थुनलाइ जों
▁गोजोन ै।
▁गोजोन गोन।
थुम ना
मान ,
मान ो।
▁थाम नि
▁थाम थियाव
खायनो थʼ
▁गलʼ गथʼ
फाल ʼ
मि हिर
मि डिया
-ह ाया
-ह ाला
-ह ाद
-ह सिया
▁सोलाय ो
▁सोलाय बाय
▁सोलाय नायखौ
▁सोलाय नाय।
▁रे हाय
▁रे जे
▁रे गुलार
▁लु नो
▁लु ना
▁लु स्
▁लु थुर
▁लु दुर
▁लु सोमनानै
▁नं दोंमोन
▁नं ब्लाबो
▁नं ला।"
▁सर नो
▁सर लाखौ
▁सर लायाबो
▁गान नि
▁गान बाय।
▁गान नायाव
▁गान होनो
▁गान होनाय
▁गान स्लायनो
फु थार
फु नायावनो
▁मोनो खोमा
▁मलेन नो
▁मलेन ाबो
▁मलेन ालाय
▁मलेन ाथʼ
▁मलेन ानो।
▁मलेन मोना
▁मलेन मोनहा
▁सिख्ला जों
▁सिख्ला साया
▁हाथ ाया
▁खेब नानै
▁खेब ब्ला
▁खेब खां
दिया ,
▁गʼ दाया
▁गʼ स्वाम
▁गʼ थायनानै
▁जागोन। '
▁लाब ्रा
▁लाब ोना
▁लाब ोनायाव
▁लाब ्रा,
▁फे न्दायाव
▁अल ,
क्ट रा
▁स् कि
▁स् ने
▁स् भेट
▁मुग ाजों
▁मुग ानिफ्राय
▁मुग ायावनो
फोरजों सो
▁बिलाइ याव
▁बिलाइ स्रिनि
▁नायहर नो
▁नायहर नाय
▁नायहर दों।
▁गाहाय ,
▁थाग ासिनो
▁मद ्‌दा
▁राजा फ्रा
-ज ौ
खान्थि जों
▁नायजाब फोरनि
▁नायजाब फोराव
▁सेप्त म्बर
▁ददेरे जों
▁बोहै गासिनो
▁बोहै ग्ल
▁बोहै बोयो
▁बोहै ख्लाय
▁राम ,
▁राम चन्द्र
▁कम् बल
▁सुं ग्रि
▁अब्ला ।
▁बिजिर थि
▁जिराय ना
▁जिराय हैबाय।
▁जिराय फिनबाय।
▁हाल े
▁हाल खौ
▁हाल साल
▁का ति
▁हान् नानै
▁हान् जासे
▁गोबाव ।
▁गोबाव जों
▁गोबाव सै
in k
in al
in ess
▁पुलिस फोरखौ
▁पुलिस फोरजों
▁जें नि
▁जें नानिफ्राय
▁जाब ोर
▁जाब खो
▁जाब -ज
▁जाब ्रʼ
▁जाब ्रब
▁लाजि खांनाय
▁लाजि या,
लाङो। "
▁थु थुर
▁थु हरनानै
▁थु -थु
▁थु ज्रेद
▁थाइ +
▁थाइ से
▁थाइ ब्रै
▁थाइ जानि
▁थाइ स्रिया
▁मोननै याव
▁मोननै खौबो
ुरा ,
▁गेजेरजों बो
ोरोम दाउ
▁थाव नि,
▁दिहुन बाय
▁दिहुन गा
▁दिहुन गानै
▁दिहुन गाबा
▁गर ज
▁गर सि
▁फान से
▁फान हर
▁फान नायखौ
▁दाजाब नायाव
▁गोरा सिन।
▁जायगा ।
▁इराग दाव
▁गोसोआव ।
▁आलाइस्रि या।
▁साइ खʼ
▁साइ न्स
▁साइ स्‌
▁बिजाब निफ्राय
▁बिजाब फोरा
▁अजित निफ्राय
▁अजित ाबो
er v
ुवा ।
▁गारां खौ
▁बेद त,
▁खोना दों।
▁खोना फै
▁खोना दोंमोन।
▁खोना फैनानै
▁नङाब्ला ।
▁नङाब्ला लाय
▁सिगाङाव ,
▁थांखि ,
▁थांखि नाय
नाथ ʼ
-बि ला
-बि बौ
▁साहा -
▁साहा -बिस्
▁हाबफै दों
▁हाबफै दों।
▁सोलों नांगौ
▁सोलों थायनि
▁डि ग्रि
▁डि ंग्रि
-आ जाय
-आ रिस्रां
▁सिम नायाव
▁मानसिनि ख्रुइ
▁इराग्दाव ।
▁थान खौ
▁सलʼमा खौनो
▁सलʼमा फोराव
▁अन् त
▁अन् थाइनि
▁नार् सिन
▁जेन नायनि
▁जेन नांगौ
▁हादोर फोरनिफ्राय
▁थिन नायखौ
▁बर नाय
▁बर सा
▁बर मायाव
▁बर दास्ट
▁दम य
▁बिबार ब
▁रंज ानानै
▁फुं खा।
▁फुं खाखौ
-र ोम
▁सोरजि दों
▁सोरजि यो।
▁सोरजि दोंमोन।
▁आला दायै
▁फारि यानि
▁लाय दों
▁लाय बाय।
▁लाय ोमोन।
▁लाय थां।
▁गैयै लाय
▁बिर ल
▁बिर नाय
▁बिर दाव
▁गेले यो
▁गेले दों।
▁गेले नाया
▁फोथाय नानै
▁खाफाल ,
▁खाफाल ावनो
▁गसं ना
▁गसं थानो
▁हायो। "
ंगौ मोन।
▁गाहाम ।"
▁गाहाम सिन
▁जाखो सै
▁दाम ब्रि
▁"आं दि
▁"आं नाव
▁सार े
▁सार खो
▁सार न्थाइ
▁सार अन
▁दाख थार
▁दाख ालै
▁दाख ्लाम
▁गोलाव नि
▁गोलाव सिन
▁लाइजाम जों
▁के क
▁के न्सार
▁जोहोलाव ारि
▁जोहोलाव जों
▁जोहोलाव फ्रा
on ology
फ्ल रʼ
फ्ल ायो
▁लिं बो
▁लिं थिया
▁लिं हैनो
▁लिं हैनानै
▁जेराव बो।
▁3 ,
▁.... !
▁19 19
▁19 11
जे उ
जे ब्ला
▁बादल नो
गʼ नो
▁दौ से
▁दौ रि
▁दौ रि,
▁दौ वो।
▁दाउ खा
▁दाउ खाया
▁दाउ -अ
▁देहा फाहाम
▁रों बाय।
▁रों गʼ
▁रों लिया।
▁5 5
▁सह ʼ
▁जाथाइ फोरा
दाव ,
दाव लि
दार ।
▁साख थि
▁साख ्री
▁बाजि नो
▁साल थे
▁डा ष्टबिन
▁हगार ो
▁हगार बाय
▁हगार दों।
▁नार खो
▁नार खे
▁थाय बा
▁थाय ब्रै
▁थाय ोमोनब्ला
▁थाय सेखौ
▁बिफां -लाइफां
खे नानै
ज्रि त
ज्रि द
▁बेयाव ।
▁पि यन
▁दङʼ -
▁हाख ाव
▁हाख ʼराव
▁कले जा
ti v
ti fication
▁मुवा ,
▁मुवा फोरजों
▁भारत खौ
▁माहाजोन नो
▁माहाजोन निफ्राय
▁सुर बाय।
▁नायनानै )
▁नायनानै ।
▁नायनानै सो
▁औ -
▁गय नि
▁बाइ बेल
▁बाइ नारि
▁गस ंखां
▁गांसे या
▁गांसे याव
▁गांसे लʼ
▁खन् नानै
▁खन् नै
▁खन् थायगिरि
▁खालि निफ्राय
▁खालामनाय ाबो
▁खालामनाय बादि
▁टे क्स
▁टे न्दार
पार ायाव
ोमोन ,
▁सोमबोर ।
▁मोसौ नि
▁मोसौ -मो
▁है नायाव
▁है नायसै
▁है दिन
▁फोरों ग्रा
▁अफिस ,
▁अफिस ारनि
▁अफिस ार,
▁बैसो या
▁बैसो याव
जʼ बनानै
जाया ,
जाया ।"
जाया खिसै।
▁बोराय ाबो
▁बिखायाव बो
फेर ि
▁साम ाव
▁साम लायो।
▁घ टि
▁घ ुस
▁घ ाब्राय
▁गोरोन् थियाव
▁टि प
▁टि म
▁टि उटर
▁जाखां फैबाय
▁जाखां जोबबाय।
▁तुलाराम ,
▁तुलाराम ाबो
▁मार ʼव
▁फाह ायनानै
▁बिबान ।
▁बिबान गिरिफोरखौ
▁गोरोब फ्ले
▁गोरोब थाखौ
▁गुर ुब
▁गुर फा
▁गुर ्लाब
▁गुर ब्ले
▁गुर जेउ
▁नोगोर ाव।
▁खर थे
▁खर साखौ
▁खर सा।
▁खुं नायनि
▁खुं ग्रा
▁बेव हा
▁खान जं,
▁अब श्य
▁दैदेन नो
्य मान
▁नंगौ लै
▁नंगौ -नङा
▁थाल ायनो
▁आखल ,
▁गिदिर -उ
▁गिदिर -गिदिर
▁जेंना ।
▁जेंना फोरनि
▁जेंना -जे
▁बुर खां
पुर ी,
▁थाखो आ
▁धोरोम ।
▁जै '
▁उदै ,
▁फरायसा ।
▁रामनाथ ाबो
ख्रि ं
फाय ानो
▁फोसाव दों
▁फोसाव ग्रा
▁फोसाव नायखौ
▁अम लनि
▁अम रेन्द्र
▁4 1
▁4 7
▁4 0.
▁गाय स
▁गाय खौ
▁गाय ज्राब
▁गाय ागौमानि
▁प्रे क्टि
येट ार
▁गावखौ सो
▁फोजोब गोन
▁खैफोद जों
▁बानाय ,
▁बानाय नो
▁सांग ्रेम
▁खां बाय।
▁खां नायाव
▁ट्रे खौ
▁ट्रे नाव
▁गैय ाबाबो
▁खे ंख्रि
▁खे याल
पा ट
▁माद ्राछा
▁जालां नि
▁जालां नानै
▁जौग ाहोनो
▁सावगारि याव
▁सावगारि फोरा
▁जोम ै।
ीर ेन
▁मोना ।"
▁इउ रियानि
लेर नि
▁जोबोर ैनो
es is)
▁आम लाय
▁लान जाय
▁थास ्लि
▁थास ारि,
▁थास ्लिम
▁गोथौ नि
▁थो यो
▁थो लाय
▁थो आ।
▁थो लायनायाव
▁थो खो-मो
▁मिथिगौ -
▁मिथिगौ दा
an gu
जेन दोंमोन।
थों ।"
▁बाबु या
▁बाबु ।"
▁लो लो
ाथाम नि
▁सोमजि दों
▁सोमजि दों।
▁सोमजि खां
सिना ।
al ity
▁बें नायनि
▁लेखा खौ
▁मोसा -मु
en ry
▁आन्द ामोना
▁बुथार ना
▁बुथार दों।
▁बुथार नायाव
▁बुथार जानाय
▁नुजा फैयो
▁दां ब्ला
▁दां नाय,
▁दुल ुनि
▁दुल ुत
▁मोन्नाय खाय
▁बोलो आ
रे क
रे त
▁सोमावसार नानै
▁सोमावसार ग्रा
्व ार
▁रिं हाब
▁आगान नै
or ,
or th
or ation
थाब मा
▁होन् दों
▁होन् दों।
▁बाथ्र ाहा
▁बाथ्र ामोन
▁बाथ्र ायावनो
बावनो ,
▁कम फि
▁चि .
▁व ,
▁व ेल
▁व ्दार
▁व ेसिस
▁फिसाइ नो
▁आलासि खौ
▁आलासि फ्रा
▁आलासि फोरजों
ou ld
▁दुर्जां मोनहा
..... "
..... हि
▁दावबाय ारिखौ
▁कम्पिउटार नो
▁खन्थाइ याव
▁खन्थाइ मा
▁फाहाम नो
▁एफ .
▁एफ ेलिया
▁दुं नाय
▁दुं खाव
▁दुं लुब
▁साला फोर
▁साला फोर।
▁स्ट ेज
▁खान्थि ।
▁खुलुम बाय
▁मेहेर गोनां
▁गोमो दै
-सि ख्ला
-सि देम
खिसै ,
▁गोरोन्थि ।
ar t
▁... !
▁... आं
▁आथोन ,
▁बिथिं ।
▁मनजु आ
▁मनजु लाखौ
▁साख्रि खौबो
जार ,
▁लाख ,
▁नोंनो लाय
▁नोंनो थʼ
▁मेथाइ -
▁मेथाइ खौ
.ए .सि.
▁दोर ्फा
▁रʼ ड,
▁लामायाव नो
▁नायगिर दोंमोन।
▁नायगिर ा।
▁रोखोमनि --
▁सांग्रां ।
▁सांग्रां नि
▁सांग्रां खौ
डि मा
▁दुब ्लिनि
▁सिखार दों
▁सिखार बाय
▁सिखार हां
▁बिलिफा ङाबो।
▁खें बाय।
▁खें स्ल
▁लोम जादों।
▁एस -2
▁सिमां सिम
▁हान ांगौ
▁हान ांगोन।
▁हान जाजों
▁लि लि
▁जाहोन ानो
▁जाहोन ावनो
▁हिनजाव फोरनि
▁रान बावनो
खाङो -
▁अलक ामोना
▁साइकेल ।
▁साइकेल निफ्राय
बाद ल
बाद खौ
▁कि उ
▁कि ड
▁नाजा दों,
▁गोब ाना
▁गोब ाबाय।
▁इन ष्टि
▁रायज्लाय नायनि
▁रायज्लाय नायाव
▁कलेज खौ
ाव। ।
▁गनाय थाव
▁गनाय जानाय
▁खाल म
▁खाल ै
▁खाल ौ
▁खाल ानि
▁खाल ायनो
▁खाल ारा
▁गावसोर खौ
▁गावसोर बो
▁रंजा फुनायाव
▁रंजा -रं
▁नाजानाय ,
▁नाजानाय सै।
▁गाबज्रि नो
▁गाबज्रि बाय--
▁हादर ,
▁हादर ।
गै यै
▁जाब्ला ,
▁फार् मा
▁फार् ष्ट
▁गोजां दों।
▁गोजां नाया
▁गोजां नायखौ
▁गोजां नाय।
▁गुन्दा फ्रा
▁गाइखेर ा
▁C D
▁C or
▁C op
▁फाइ न
▁फाइ खि
▁फाइ नेल
▁फाइ की
▁गोसोखां थि
▁गोसोखां थिया
▁फैगौ ,
▁गेदेर ,
ाजोब ।
ाजोब नानै
-सान राइ
▁समबार खालि
▁हायाखै मोन,
▁स्क ट
-ख ावनो
-ख दाल
▁हाइ स्कुल
▁दाजाबदा फोर
▁सʼना थि
▁थों ब्रै
▁सोलि ग्रा
▁सोलि फु
▁सोलि योमोन।
ra ph
थौ खौ
▁जिन ाराम
▁जिन ज्रि
▁"बे नो
▁फोरमान जों
▁बिदिनो सै।
माल नि
राम ,
राम नाथ
▁साखा -फारा
▁आसि गुर
▁हे: ।"
▁फिथाइ -साम
दानि ,
▁खुर ु
▁अख्रां निफ्राय
▁नʼखर ाव।
थ्र ोत
▁नर ह
▁नर ्ट
▁नर ेन
▁नर ेननि
▁'' औ
▁'' कल्प
▁'' लाखि
स्लाय स्लाय
▁खम लायनाय
▁सिबि यो
▁सिबि ग्रा
▁देंखो यै
▁देंखो जों।
▁S ub
▁o h
▁सोब नो
ाजि ,
▁"अ ʼ
▁"अ हʼ
▁फैया खिसै।
▁सोरां जों
▁सोरां सै
▁सुथुर ,
▁'आ बारी
▁खोमदोन ,
▁खोमदोन -
▁आयदा फोरखौ
▁मुगै नायजों
▁th ere
▁दान्दिसे नो
▁थौ ,
▁थौ ।
▁थौ बाय
▁हाजार से
▁एल ार्ट
▁बिहाम जो।
▁मिर जाह
▁थब गां,
▁खोमा खौ
▁s ec
▁स्र ुब,
निया लाय
▁सुखु ।
▁सुखु वा
▁सुखु वाबा
फ्लां दों।
▁9 5
▁A b
▁A ct
▁नोम फ
▁नोम ाय
▁नोम बाज
▁खालाय नांगौ।
▁बेग ,
▁बेग निफ्राय
▁गोलै ना
▁गोलै यो।
▁फैफिन बाय
▁माइथायाव नो
▁लिंहर दों।
इन ,
▁नेर सोना
▁नंखाय -ब
▁साननाय मोन
▁साननाय ाबो
▁साननाय -हनाय
▁गावजों -गाव
▁जाग्रा ,
▁जाग्रा ।
▁आबʼ वा
▁सोमोन्दै बो
टार ,
▁बिष माव,
▁मोननानै बो
▁बानजाय नायनि
▁बानजाय नायाव
▁बानजाय फुंनाय
जायो ब्ला
▁असम िया,
ालिया ।
▁8 00
▁बारगʼ नायनि
▁बारगʼ लांनायनि
▁जाहै खो
▁रंजानाय खौ
▁थामहिनबा ,
▁साज ायनो
▁नुहर ो
▁नुहर बाय।
▁बाजै खौ
▁बाजै यानो
om inal
▁होब ोनो
▁दाग खौ
ामि ,
▁मोनथि यो
▁"ब डʼ
▁"ब ुब्लि
▁सुफुं थि
▁12 .
▁बुंबाय-- "
▁खावलाय ,
▁माय थायाव
▁थाद े
▁पे ग
▁पे न्च
▁पे सेन
▁पे इन्ट
▁पे सेन्ट
▁बादियै ब्ला
▁रोजा सो
-बे लासे
▁मोनफा -मोन
▁फैयो -
▁फैयो ब्ला
▁आंजों ।
▁ककराझार आव
▁हांमा ।
▁हांमा -हां
▁खौरांग ा
▁खानाइ याव
▁माल दारा
▁माल -माथा
▁बिलाय ,
▁बिथा ।
▁जाथार गोन
▁थेफेन ,
▁थेफेन ाबो
▁आवगाय लाङो।
▁माहाजोननि याव
▁जाला ंगोन।
▁थर फनिफ्राय
लेट र
▁खुसि ।
▁सोलोंथाइ ,
▁सोलोंथाइ या
▁T uesday.
▁गोल ोन्दा
▁नेम नि
▁सैमा ,
▁सैथो थि
▁सैथो जों
▁थिनहर ो।
▁थिनहर ।"
बारी "
बारी याव
बारी निफ्राय
▁स्रि ं
▁जाबो ला
▁जाबो यो।
▁हांग ारि
▁जेकेट ।"
▁बाराय होयो।
▁गग ल
▁गग ै,
▁गग ैनि
▁बेसेन गोनां
▁खनसे नो
▁खनसे बाव
▁थाइला लिया
▁P ri
▁मोनाबि लिया
▁गुसु ।
▁गुसु जों
▁गुसु वाव
ने क्स
▁गुन ु
▁गुन ।
▁गुन नि
▁गुन खौ
▁बिजि जों
▁फसं था
▁मोनथाम ।
▁15 00
▁15 ,000
ग्रो बाय
▁जांख्रि थायाव
▁जांख्रि खांनाय
ed ies
▁ष्ट ेम
▁ष्ट ेशन
▁ष्ट ेशनाव
▁ष्ट ्राइक
▁नुयो बा
▁रोङ ाखै
▁ओंखारबो ब्ला
▁गाम्ब ारि,
▁गाम्ब ारिखौ
▁अरुना चल
▁"ह ानाय
▁"ह िन्जाव
▁"ह ाजʼव
▁मावनाय ाबो
ाजासे नो
▁गोहोम ाव
▁बाब द
▁बाब ाजी
▁गौ रां
▁गथाय ो।
▁थगाय सुलि
▁"बि नि
▁होखार नानै
▁मेले मा
▁रंजालि ।
▁फालि दों
▁लाउ सिन
▁लाउ खार
▁लाउ थिखौ
▁"ग ाज्रि
▁मुस ाहारि
▁हेम ब्र
▁हाथाइ -बाज
▁दाहोना ।
▁दाहोना फोरखौ
▁फावथिना खौ
प्र भा
▁I t
▁थाहै नानै
▁थाहै बाय।
▁डे पु
▁हायाखिसै ।"
▁जिराद ानो
▁सानसेखालि नि
▁the ir
▁the me
▁ग्र द
▁ग्र ुम
▁बुह ुत
▁नायबिजिर नानै
▁20 थि
le as
गुर ीयाव
चि ष्ट
▁w e
▁w as
▁w ell
▁बिसार ा
▁लान् थानि
▁हाबि ला,
▁हाबि लाया।
गासे ,
▁अरुन नो
▁अरुन ाबो
▁अरुन मोना
▁जुजि नानै
▁गिदिद ।
▁खलथा खौ
स्लाब ाखिसै
स्लाब मोनै
हि त
▁बाला गाव
▁बांग ्रा
▁माखौ ,
▁माखौ थो
▁गोर्बो जों
▁थेलेफा खौ
▁c h
▁c haract
▁c ruel
▁बोनाय खौ
▁फाख ो
▁फाख ायनानै
▁सिला गाङा
▁बिनह ारीनि
▁रागाजों नो
▁कासार खौ
▁नुजाथि दोंमोन।
it t
it er
रो ङा
▁नाइ नानै
▁नाइ टिंग
▁एव नाय
▁एव नाय,
▁एव खांनाय
▁एव स्रांनानै
िस् क
▁कʼ क्र
▁कʼ कराझारनि
▁केस ।
▁केस ाव
▁मानोबा ।
▁बेखेवग ादʼ
▁थुलुंगा ।
नों नि
मʼ जम
▁दाद ा
▁दाहा ।
ायाखै मोन।
▁बोख ानो
▁बोख ्लायनानै
▁बोरैबा सो
▁दैदेनगिरि ,
रां नि
▁D OS
▁मखʼ जानाय
ाखिसै ,
▁"औ लै
▁दावग ालां
▁दावग ाहोनाय
▁बाम ुना
▁बाम ब्लेमा
▁गला ब
▁गला फोरा
▁गोबा ङै
▁गोजौवाव ।
▁रबि लʼ
▁मावफुं नाय
▁सायाराम खौ
▁सायाराम ाबो
ol ic
re at
▁जथुम नाय
▁आबाद ,
▁दुम सिया
▁दंफां -लाइफां
थारबाय मोन
▁18 54
▁बिनाराम मोनजों
▁दिहु नो।
▁दिहु न्नायाव
▁थांनोसै लै
▁ओरै बो
▁Window ।
-ल ना
रु ध्द
हाव रिया
▁b )
▁b y
▁b ut
▁b oy
▁बथ ला
▁साथाम बो
▁साथाम -स
....... !
▁बिबुं थिनि
▁फोथार ा
▁मेलेम ाव
▁मेलेम निफ्राय
▁खाना खौ
▁(ग ु
▁(ग ुरै
▁नुनाय लाय
▁नुनाय बादि
▁में नानै
▁में नायजों
▁हार्सिङै )
▁एबसु ,
▁सफै दों
▁सफै ब्ला
▁गम था
▁बिमाय ारि
▁मावनानै बो
क्त िनि
▁सौफै बाय
▁होमबा ।
▁बसुमतारी ।
▁स्रां ।
▁स्रां खौ
▁एक से
▁गोदै -गोब
▁खौसे थि,
▁मोदाइ खौ
-गो जोन
▁लुबैयो ;
▁जुलि येट
▁कमि उनि
▁गावथार नो
▁इंख्रि याव
▁सलʼवाव ।
▁जिबौ खौ
▁थियेटार ाबो
▁लेंहर दों।
▁बिगियान गिरिफोरनि
▁d eg
▁d rama
▁दाला जों
▁दाला फोरखौ
▁बेसाद नि
▁मोनहा स
▁मोनहा ।
▁मिन्थि सʼ
▁सुबुंफोरा ।
▁आदाया लाय
फब दों।
▁मेर ाव
▁जाजोब ्बाय।
लाबाय नो
लाबाय ो।
▁खोब नाय
▁बेराय दों
▁बेराय बाय
▁मैदेर ,
▁मैदेर जों
▁जʼरा खौ
▁जʼरा से,
▁जैबोर ।
▁बेफ्रु थाय
▁ए. जि.पि.
▁नुव ाखै,
▁जिनि द
▁अनजि मानि
▁अनजि माखौ
▁अनसाय नाया
▁रुप सिं,
▁एम. पि.
▁198 5
▁f riend
▁थाब्ला सो
▁होनब्ला ।
▁होनब्ला थाय
▁सिस्टेम ।
▁सिस्टेम नि
ग्ल ेम
▁थाला ङो।
▁पार्ट ीनि
▁गिलिर ।
▁डिस् कखौ
▁आखुथाय फोरा
▁आखुथाय फोरखौ
▁प्रग्राम ,
▁प्रग्राम ।
▁ब्रै जि
▁दुगै नाय
▁दुगै नानै
▁दुगै स्रां
▁हास्थाय नाय
मेन्ट ाव
▁a )
▁a f
▁सन ीया
▁सन दे
▁सन जी
▁कन सार्ट
▁दैथाय हरनाय
▁मुङै नो
▁हांख्राय नायाव
▁काप नै
▁गस्ला -गामसा
▁घन्ट ानि
▁ब्रे ष्ट
▁माख ु
▁एम् फौवा
▁"ओ ंखाम
▁मेल आव
▁रुजु नायाव
▁रुजु न्नानै
▁बेलासि बाय।
▁बिथ ङै
▁सान्द ुङा
▁"ए से
▁क्ला सिकेल
▁जोंथिखौ ।
▁इण्ड ल
▁बाउ दिया
▁बाउ न्दो
▁बोद ्‌ला
▁जावलिया खौ
▁h tt
▁संग ्राय
▁साबाय खʼर
▁फुन नानै
▁फुन से
▁बेम ारा
▁बेम ारिया
न्ड ʼ
▁मोनाम ब्रुं
▁कल काट
▁हाउ ल
▁हाउ सा
▁हाउ ली
▁ओंखारलां ब्ला
▁ओंखारलां नायनि
▁ओंखारलां नोसै
▁लोंनाय -
▁इन्टार न
▁इन्टार फेस
▁जुग े
▁जुग ुम
▁जुग ामि
▁होसो यो
▁जिंग ाया
▁जिंग ादा
▁गिनाय बो
▁गुबुनारि फोर
▁थिं -थिं
▁फांथे ना
▁जाफुंसार दों।
▁बिमा-बिफा फोरा
▁लोरबां थिखौ
मो खां
▁लर गʼ
▁बुथुम ना
▁थाङ ाबा
▁डज नि
▁हादों ब्ला
▁जाहो दों
▁जाहो दों।
▁फानलु नि
▁गोलोम नाया
▁सन्देह ʼ
▁H enry
▁सरा सʼन
▁हाथाय निफ्राय
▁बिबाय ारिखौ
▁थेर ʼज
▁खिर फिन
▁खिर खिनि
▁मोब्ल ावखौ
▁उथ्रि नाय
▁"द ं
▁"द हाय
▁"द ाखालि
▁सिलागां ।
▁साग ्राम
▁सर् ब
▁सर् मानि
▁सर् माखौ
▁सन्थ ला
▁फेस ्लायै
▁सिफाय नाय
▁बुंबाव नायसै-
▁गिसि ख
▁गिसि खानाय
▁दैम ारीनि
हैयो ब्ला
▁फोरमायथि यो
▁मोसाह ारीया
▁मोसाह ारीनि
▁गुलि जों
▁दब थायनानै
▁दान् नो
▁रन्जन ,
▁मावफारिया फोरनो
▁आगोर नि
▁बुब्लि खौनो
▁फाइल फोरखौलʼ
हुं खा
▁गेर िय
▁दाइ रिया
▁इन् डि
▁सुइ स
▁13 .
▁लाइफां ,
▁रंफाल ी,
▁सायखʼ ,
▁नरेश नो
-दै रोम
नु पी
▁खाजा दों
▁खाजा -ब
▁मोनदां थिया
▁सानथाम ,
▁बाट ला
▁सुख -स
▁थाफ ावनो
▁थाफ ्लियाव
▁थाफ सिखौ
▁दोनथुम नाय
▁दोनथुम ो।
▁सोंलु ।
▁सोंलु नि
▁जीउ आव
▁स्रा -स्रा
▁साग्लोब ना
▁माम ला
▁आसार नि
▁आसार खान्थि,
▁खाब ्रां
▁मावरिया ,
▁14 .
▁खुन्द ायाव
▁फारसेथिं निफ्राय
▁दाबसे थिङै
▁लैथो नि
ज् जा
▁थं खौ
▁थाह ैया
▁थाह ाबनानै
▁कैला सा
▁टाइ पनि
▁दोन् दों।
▁खोख्लै हरनानै
▁गोगोम ैनो
▁हाथार लिया।
as k
▁रान् नायाव
▁लक्ष ी
▁उल् थां
▁उल् थायै
▁(स )
▁(स लʼ
▁चे याराव
▁थावनि याव
▁जाम्बा ,
▁हाइजें नि
▁खाख ानाय
▁खाख ्रबनानै
▁फेर े
▁मोनाखै ।"
▁सिल ं
▁इस ल
▁मेम्बर ,
▁मेम्बर ।
▁'अ '
▁नाङ ाब्ला
▁नाङ ामोन।
▁रुव ाजों
▁दोलो फोरा
▁जाम्बि फोरखौ
▁नार्जारी खौ
ec ial
▁L aw
▁{ -
▁{ बि
▁मानै या
▁खुलि नानै
▁बेन् दों,
▁रजʼ यो।
▁अह ʼ
▁अह ाजासे
▁गंस्रि यो।
▁सिगांआव बो
▁जाबाव नो।
▁बिगुम ाया
▁बाख्नाय बाय।
▁बाख्नाय थाव
▁थादʼ ग्रा
▁जय फल,
▁बिद ाम
▁बिद ानो
▁थालां दों
▁फर ाया
▁फाय खारि
▁मोनथार दों
▁मोनथार बाय।
▁उसु -गु
▁जासि नो।
▁रोजाब नानै
▁गैलिया मोन।
▁लाइन मेन
▁जुनाद फोरखौ
▁जौगानाय जों
▁जारौ ,
▁गौथुम फोरनि
▁डेभि दा
▁.. ?
▁गन ेश
▁जग ायनो
▁जग दी
ाहर ो।
▁"फ ाग
▁हरा सै
▁सावथाल फोरनि
▁सावथाल -बरʼ
▁फुजि यो
▁आवराय नानै
▁डाक्ट ारनि
▁स्ल ुइच
▁मुर ाबादि
▁हज्रि ख्राव
▁फ्र ाव
▁"थ ांगोन
▁गिलि द,
▁रायजो नि
▁फान्दाय नाय
▁मुसाह ारी
▁मुसाह ारिया
▁नन्द ʼ
▁नन्द ʼखौ
▁बिलो नि
▁बिलो निफ्राय
▁बिलो आव
▁फावथाइगिरि ,
▁बिसि-फिस ाइनि
▁हिन्दु फोरनि
नाइ याव
▁N ow
▁N ote
▁बामोन खौ
▁बामोन ाबो
▁सय -सम्प
▁गिया ति
▁गिया -लना
▁मʼ ना
▁मʼ हन
▁मिस ्ट
▁थाना ङो
▁थाना सिम
▁रानि नि
▁रानि या
▁थाखोम ाबाय
▁'ह ाग्रा
▁फोरजा -
▁फोलाव नो
▁आइयै ,
▁"आर सा,
▁गान्दु वाव
▁गान्दु सिङाव
▁अलकेश ा।
▁फैगोन नि
▁सुव ामी
▁दाफोद ारा
▁बारहुं खानि
▁बिबाज ैया
▁बिबाज ैनि
▁जोबस्रां नाय
▁दरबासि ,
▁दाबुं सै।
▁बुरखाय नानै
▁मोगथां निफ्राय
▁इनफरमेसन फोरा
▁जन क
▁जथाय नाय
▁नुब ाव
▁नुब ानो
▁नुब ाथाय
▁नुब ोनाय
ाब्रा ,
▁गावस्र ालाय
▁बुदार ु
▁रावखान्थि ।
▁'ग ोदान
▁'ग दʼखौ
▁राइजो-र ाजानि
▁सुबुंसाइ ।
▁फुथु नो
▁फुथु ब्ला
▁फिननाय सै,
▁लिभ ारा
▁दाबा श्रीया
▁सानथ्रि याव
▁पार लिया
▁पार ्लिया
▁पार मिट
▁नुथाय फोरा
▁सोर् गोनि
ग्रोन ांगोन।
▁माइनाव ।
▁लोमसाव जानाय
▁इन्टारनेट ा
▁इन्टारनेट खौ
▁(ब यबो
कु न्त
▁बोग ्रा
▁मथर जों
▁जाज ेन
▁जाज ्लाय
▁थफ्ला ।
▁उर ाल
▁उर नायाव
▁-" नों
ुलु स
▁फैसालि खौ
▁हालो -दैलो
▁जामार बाय।
▁हांगार जों
▁मखʼजाथाव दि
▁केरानि नि
▁आमेरिक ान
-बो खा
-दा ङै
▁सार् कनि
▁बुध ्द
▁बुङा सै।
▁गोरबो जों
▁गोरबो आव
▁जोबथ ाहैयो
▁रुजुन ना
▁196 8
▁सोद्रोम ानि
▁सौग्राव नानै
us iness
▁O b
▁बीर स्र
▁साबु क
▁गाथाम ाव
▁जोर सार
▁जथाइ खौ
▁मोनहै ब्ला
▁सिन्द ुरनि
▁कार् पेट
▁दैमु नि
▁दैमु वा
▁'द ाबोद'
▁सोमदोन ,
▁निस्थार ,
▁बेंक फोराव
▁देवान '
▁गगल् सा
▁दाइरि खौ
क्र ेट
गुरि ,
जर त
▁सादोर जों
▁बिथʼ राय
याखै मोन
▁अन्दर खौ
▁अन्दर निफ्राय
▁सिद ोम
▁नोंथा ङालाय
▁नोंथा ङालʼ
ंखां नायनि
▁बुन्दि खौ
हरो -
▁गिला सनि
▁गुजु नाय
▁गुजु स्रोम
▁फोरबो आव
▁फेदेर नो
▁फेदेर दों
▁दाखालाम सै।
▁....... ।"
▁ट्रेइन फोरनि
▁ट्रेइन फोराव
▁लोमजानाय ,
▁प्लेट ाव
▁मेडाम ।
▁आलि नि
▁नम्ब रि,
▁रेस '
▁रेस म
▁रेस ्ट
▁रहे लाजों
▁असि त
▁बासि या।
थारदों लै
▁गोमालां नाय
▁आवाज खौ
▁साब्रै -स
▁सेंग्रा-सिख्ला फोरनि
▁माया -जे
सिब ल
▁क्र स
▁क्र मʼजम
▁जेथो ,
▁नुयै बादि
▁अनसुलि ,
▁खाम् फानि
--- !
--- "
▁गंब्रै सो
▁आगष्ट खालि
▁संनो -खावनो
▁खिबु वाव
▁199 3
▁199 7
▁सोनारनानै नो
▁किउरिय ʼखौ
▁शंकर ।
▁डाइरेक्ट रिनि
▁बिख्लो आव
ul t
तन्त्र नि
फ्रि ,
फैया सै
▁सुम ु
▁बिला खार
▁बिला ती
▁बिला ताव
▁फʼन जों
▁बेफारि नो
▁अन्द ाया
▁अन्द रनि
▁उरिष ्यायाव
▁"ख ोनासं
▁पलि अʼनि
▁मेव ाब
▁गथʼ-ग ʼ
▁गथʼ-ग थाइ
▁हामफे या
▁नंमार गौ।
▁दाखोर -दाला
▁सामलाय नायनि
▁जिब-जुनाद ,
▁स्टार्ट खौ
▁दासान्दि ।
▁खास्रि-बिस्रि यै
▁बम ब्राय
▁नाव ाव
▁खाज ायो।
▁फ्ल पि
▁आरज लाइखौ
▁सानसु थिर
▁दंबाव यो।
▁दैखर ाव
▁बिबां खौ
▁बेरफ्रु जानानै
▁गोबाख ्रʼब
▁कʼक्राझार ,
-थि म
ir it
नाग िरि
▁ठ ै
▁सती स
▁गदʼ नि
▁गदʼ वा
ाहो यो।
▁लांखार नाय
▁देनां ,
▁गोदोना खौ
▁बोराब नानै
▁प्रशान्त वा
▁सेरे फ
▁लुबैदों ब्ला
▁अलख दाव
▁फाहामसालि निफ्राय
▁सप्ताह आव
-नाय दा
▁लेट ्रि
▁एराय नानै
▁बुदुं -बु
▁मेसे ङाव
▁मेसे ंनि
▁मुहिनि या
▁खोनानाय लाय
▁प्रदि पा
▁फुख्रि नि
▁बरप ेटा,
▁गोब्राम नानै
▁दावबायारि फोर
▁प्रेमधर खौ
▁फोनांजाब नाय
▁बङाइगाव नि
-थु खि
▁ढ ालि
▁बिल्डिं खौ
▁फब नाय
▁बेसोर खौ
▁"हाब ानि
▁मास्थार ा।
▁हाबो ला
▁मेन ाज
▁शर् मानि
▁हुखुम ोर
▁गिदिंबाय नानै
▁हार्ड न
▁बिमायं खौ
▁मोब्लाव ानो
▁मोब्लाव ा।
▁बैसागु वाव
▁रहेल ानि
▁रहेल ाया।
▁"कल्प नाया
▁मोखथां नि
होग ोन।
हैया सै।
▁मड ेलनि
▁हब गानि
▁न-बां ,
▁दाजा ।
▁रोग ां
▁अंग नबादी
▁काज िरङा
▁कृष्ण चन्द्र
▁नुहुर नो
▁बायह ्रा
▁हमदों सैमोन।
▁बाहागि ,
▁गामाखालि नि
▁सिखोम ानो
▁आबहावा खौ
▁आइ-आ फानि
▁बोसोरसे खालि
▁फुट सो
▁सिंह खौ
-सम ाज
-सम ब्रि
▁बिहाव -बि
▁थाइनै निफ्राय
-आरि हां
▁ट्रेजे डि
▁पेकेट निफ्राय
▁खेराइ सालियाव
▁बदमाइ स
▁सुइसाइ ट
▁गोजांस्रिव ो
▁नेवसि नानै
▁खेंख्रा -खे
▁डाइरेक्टरि खौ
ट्‌ स
▁बर् सा
▁बर् जन
▁साथ ामा
▁गबʼ नानै
▁हक ारनि
▁दांग्र ोमै
▁खोर ोन
▁लांख ोम
▁दाक्ट ार
▁राइफ ल
▁फरायग्रा फोरा
▁खैसार ाव
▁साइख ेलजों
▁टेक् न
▁बिमुं खौ
▁सुखु-दुखु नि
▁नाम्बार ,
▁दारʼ गानि
▁दारʼ गाया
▁भि. आइ
▁एप्रि लाव
▁प्रदेश ाव
ab le
oc al
आले खौ
▁U ser
▁मस ाहारी
▁मरनि ं।
▁आमु खाखौ
▁दंखाय ोमोन
▁खाथ ब
▁खाथ ्रि
▁अना सार
▁फैयै याव
▁'बि बार
▁मुव ाजों
▁मुव ाबादि
▁ट्रि पाल
▁आसʼ खान्दा
▁गʼस ाथी
▁थाइजौ ,
-रो हो
▁गसङो। ]
▁ट्रेन्स फार
▁थुलुंग ाजों
▁जथुम्म ाव
▁सादु ।
▁लक्षीम पुराव
▁जात्राग ाननि
फान ांगोन।
फिस ाया
मै देर
▁आदि बाशी
▁आरांग ा
▁अमि त
▁उथुम ाइ
▁उथुम ायाव
▁कन् फारेन्स
▁नुथाइ खौ
▁राव-थुन लाइ
▁राव-थुन लाया
▁राव-थुन लाइनि
थʼव ाखै।
▁मिथिखागौ ।
▁थिखिनि याव
▁हेड क्ल
▁गोमाज ानानै
▁चेन्ट ार
▁फेजेन नानै
▁सायना सालि
▁जाब्र थायजों
▁फुंबि लियाव
▁थालो जाब
▁स्क्रि ननि
▁हाग्रा-ब ंग
▁आरिमु ,
▁इन्जिनियार ,
▁बुर्लुंबुथुर नि
नागौ ।
▁हब्र ानाय
▁नाजाब ाबो
▁थोब सेबो
▁रिन सि
▁लुग ्राया
▁(अ नाथ
▁पान बाजार
▁लोगो-ल ोगोनो
▁फोल ोम
▁हासुं नि
▁धम न्द
▁फुद ला
▁फुद लि
▁लेबेल खौ
▁औव ारिनि
▁सांग्रा ङै
▁"बिब्दि ब्ला
▁मिलिट ारी
▁मिलिट ारि,
▁हालमाजि खौ
▁लामा-सामा फोराव
▁नल बारि
▁दहम ैनो
▁रया थिया
▁उलाफाद नि
▁होनथे यो)
▁जेखि यानो
▁सा- का
▁सा- खोला
▁जाहाज खौ
▁हानायमानि खौ
▁फिथ ोबाव
-सौ सि
▁हामथार लिया।
▁गʼदाय खौ
▁कमिसन ारनि
▁word s)
▁नाइट ।"
▁गोलोमदै जों
▁झालु ,
▁दांग्रोम नानै
▁u n
▁बख नो
▁सां खा
▁मस्ट ʼ
▁दखʼ ना
▁बिप्ल बनि
▁फाम ु
ामानि खौ
▁सिलिं नाय
▁(मो स
▁बाथुवा खौ
▁अरु ण
▁अरु प
▁अरु णा
▁धुना ,
▁नाजागोन। "
▁रुमाल जों
▁कल्पन ामोननि
▁राण ीया
▁साबेसे या
▁काछ ार
▁बिरहा ङा।
▁खिन्थाहर ो।
▁अमर नाथ
▁खुनुम ो
▁दैमा-दै सा
▁रुबि लाया
▁October, 200
▁बानबुंथि दों।
▁बानबुंथि यो।
▁नारा-नाथ ार
▁फेब्रुव ारि
▁गगै आ
▁ग्रु पनि
▁मागि नानै
▁गोबाय ै
▁"डा .
▁कालि चरण
▁कान्त ेश्वर
▁मिजि ङा
▁हाबो। )
▁पार्क िं
▁राव-हारिमु खौ
▁दैमाल ुवा
▁दुइन म्बर
▁महर-मु स्रिया
▁दिन्थिथि -
▁नांज्लाय -खम
▁[आ खाइ
▁[आ नारीया
▁धन बोर
▁जुना दा
▁रंजाल ीया
▁जाम्ब ानि
▁बिष्ण ुनि
▁थाथाव गौ
▁दावराव-दाव सि।
▁दुमफे ,
▁गंग्ल ायो।
▁गंग्ल ायै
▁No .A
ak e
▁बेले -बे
▁बेदिं खौ
▁एरि ष्टटलनि
▁माध ब
▁थांफानाय सै।
▁मिञ ाया
▁मिञ ानि
▁जापान ी
▁नायदिं -नायदा
▁मेद बनानै
▁फोरो ङो।
▁सोमद्रि या
▁फावदिन्थि नाय
▁हेन्देल खौ
▁राइज ोनाङै
▁लांसु निया,
▁बाज्रेद -बाथेद
▁श्व ाहरु
▁मन्दि र
खारु -दु
क्टि भ
▁खुंख्र ामांसि
▁हाइब्रि डनि
▁फ्रान् च
▁हरिभुष ण
▁स्रोत ै
▁प्रदीप ा।
▁ओन्सो लनि
▁सित्रां फानि
▁सित्रां फाया
pi ra
द्ल ानानै
▁बस न्त
▁थन थ्र
▁लख बनानै
▁मोनज्लाय नाया
▁एख म्बा
▁"गो जोन
▁केब िनेट
▁बुंख ानाया
▁मिसे स
▁मिसे सा
▁नायगं ना
▁सेहेर ाखौ
▁मुथु नानै
▁डी लखौ
▁दुमा -दुम
▁गाराइ खौ
▁निजोर ा
▁रायखां थावनादि,
▁शिब साग
▁खोन्द ोनि
▁चिर ु
▁राजथान्दै खौ
▁मही धर
▁हामथारबाय लै
▁गेलेमु वाव
▁और सयाव
▁घरि खौ
▁जार्ला खौ
-एन ला,
▁हाउस आव
▁मालाइ नि
▁बाटन -
▁फेरलेब से
▁कंग्रे सा
▁कंग्रे सनि
▁नोंसाजो खौ
▁ग्रीमउइग ,
▁अटʼरि क्स
▁"कल्पना ।"
▁इरामुती खौ
-ख्र ों
आर .पि
▁गिस ं
▁बेट मिन्टन
▁रिस ार्च
सिड ेन
सिड ेन्ट
▁आर्टि फि
▁अडि टरिया
▁एंग ारनानै
▁एक् सिडेन्ट
▁उर् मि
▁"बो है
▁"बो सोरनि
▁इम फ
▁नायगिदि ङो।
▁माबे याव
▁बारसʼ लामा
▁लाइफा ङा
▁[ग सङो]
▁बिखुन जो
▁सरब ताव
▁सरखार जों
▁इराग्दा उनि
▁साइके लाव
▁उदख ारि,
▁जावैसो खौ
▁इउटि लि
▁आमथे खायाव
▁स्रोब -स्र
▁रेबसुं खौ
▁मेल-मि थिं
▁शिव राज
▁बांलादेसि फोर
▁"आरति ।"
▁खासिबारी सिम
▁गोबाख्रब ना
▁एडभ केट
▁काजल गाव
▁रिटाय ार
▁लाइब्रेर ी,
▁बिरोंदाम िन
▁बिरोंदाम िननि
ati s
हांग ार
▁on e
▁ro ot
▁ग्रि न
[...]
