[UNK]
[SEP]
[CLS]
!
"
$
%
&
'
(
)
*
+
,
-
.
/
0
1
2
3
4
5
6
7
8
9
:
;
<
=
>
?
[
\
]
_
a
b
c
d
e
f
g
h
i
j
k
l
m
n
o
p
q
r
s
t
u
v
w
x
y
z
{
}
~
ʼ
ः
अ
आ
इ
ई
उ
ऊ
ऋ
ए
ऐ
ओ
औ
क
ख
ग
घ
ङ
च
छ
ज
झ
ञ
ट
ठ
ड
ढ
ण
त
थ
द
ध
न
प
फ
ब
भ
म
य
र
ल
ळ
व
श
ष
स
ह
ा
ि
ी
ो
ौ
।
॥
॰
√
##ा
##फ
##ि
##न
##ग
##ौ
##ब
##ल
##स
##ो
##ज
##र
##भ
##ट
##त
##य
##द
##ख
##म
##प
##ʼ
##ह
##।
##u
##n
##i
##s
##h
##इ
##व
##थ
##क
##उ
##ी
##ङ
##ष
##o
##ए
##च
##ड
##झ
##आ
##4
##ण
##r
##m
##p
##t
##y
##श
##ध
##c
##9
##8
##a
##l
##f
##7
##0
##6
##1
##e
##b
##d
##ठ
##v
##x
##g
##5
##घ
##2
##छ
##3
##ञ
##k
##w
##अ
##ओ
##q
##ढ
##ः
##औ
##j
##ळ
##z
##ऐ
##॥
##ाय
##ान
##ाव
##ोन
##नि
##ार
##ाब
##खौ
##ोर
बि
##ला
##नो
##नाय
##ो।
##ाम
##ाग
##नान
##ाद
##िय
गो
##ाथ
##रा
##ाख
##ास
##ोम
##बो
##ाज
##ाइ
##िन
मोन
##रो
##फोर
##ानाय
##ाल
आरो
##रि
##ानो
##राय
##बाय
##जो
##ानि
##ाह
सि
##ा।
##थि
##िस
##बा
सान
##ाला
नो
##ारि
##लाय
##सि
##सो
मो
##ोन।
##िया
##ानान
##दि
##दो
##ाबो
##यो
होन
जाय
जो
##ाङ
##ालाम
##बला
##ाया
##ायाव
##या
गाव
खालाम
बर
##ना
सम
##ाबाय
##लʼ
##िर
##फराय
##ादि
सो
##ाफ
##नद
##ागौ
##ोनि
मान
मि
हो
##लि
मा
जि
हाब
##सोर
##ाथाय
नाय
##दो।
लो
थाख
##जा
##निफराय
##हर
बियो
##मा
##बाय।
##वा
##ावनो
##हा
##जि
नङ
दिन
सोर
फिस
आख
गोसो
##ोना
बो
##गो
##ियाव
नाथाय
##बल
बाथ
##राव
##दोम
##दा
##फा
##नाव
##खा
##था
गब
हाय
बरʼ
राव
##खार
##ासि
बाय
अन
##फोरखौ
थानाय
##गरा
##गि
##थाइ
##याव
##फोरा
##थʼ
##थाय
माब
##ारी
लोगो
बार
##ाजो
गि
##लाइ
मोनस
दर
बस
थाखाय
##गा
##थार
बिनि
जाद
एबा
बिब
हम
##नायनि
##ालि
##यो।
##ोनो
##बर
गावनि
माव
गोर
आनि
##ालाय
गज
बादि
सलʼ
##आव
##ामा
##मोन
मल
गोज
फोर
हर
##खर
##गोन
एस
मानसि
बिसोर
गबन
##ाबाय।
बाथरा
रो
##खाय
गय
##फोरनि
जानाय
लानान
फो
##ागोन
##बाव
गस
सोम
##नायाव
उनाव
दि
मग
गाब
होननान
जर
दख
बाह
##गिरि
मोजा
##दर
बनि
बङ
गोद
फाव
बखौ
##वाव
##बि
##सा
##नज
##ाहा
##हो
##ोनाय
##ाबला
सास
आल
##बलाबो
##गौ
दा
दाव
फार
महर
##ाङा
थि
सर
नाग
सब
जानो
मिथि
##ाथि
मानो
राइ
बायदि
गार
बोर
खर
##सर
गास
ओखार
जायो।
##लो
खन
##माय
दान
##गार
##नाया
दोन
##गर
गाह
फराय
##स।
##जाव
आफ
##ागोन।
आब
##ाराम
##ागौ।
नि
गाम
जौ
खाम
थाय
राज
बनो
##लाव
बब
जानान
##सार
लिर
##ोनान
बिज
जिउ
##टार
##गोन।
गोना
##नायखौ
हिन
##ङाव
बाद
##िनि
द।
आइ
हाद
नङा
##फर
##मोन।
गर
जबो
पर
समाव
जोब
नʼ
##ाना
##दोमोन
हाबा
हिनजाव
साव
खोन
##सरि
##खौनो
नोनि
खौ
सिख
##ाखो
राय
कल
##फरा
लाइ
हा
##फिन
गोदान
अर
##सिन
##खʼ
##ाबा
ना
राइजो
##थाव
##जाय
फिसा
##ननि
सोदो
हारि
##दोमोन।
सायाव
खार
जाबाय
गोबा
बाज
बान
उनद
##ामोन
मिनि
आखौ
लाय
खालामनो
थानो
थन
##मानि
##जोर
नाज
गाज
खोम
फोरमाय
बख
जन
##ोमोन।
आद
##ादो
##टि
रज
##जोब
कम
##नो।
##ाख।
गथʼ
जादो
आन
जाथ
गजराव
रा
##ागरा
खो
सोदोब
बिफ
मह
माह
जान
दिनथि
माबा
आर
हार
होनाय
बय
गजर
आफाद
##गल
##हाय
नङा।
गोम
खालामनान
आस
बिथ
##ङो
आय
बिखौ
##गाय
बफोर
बिख
##िया।
लाख
##ादो।
बाव
बाहाय
बिदि
जोनि
##राया
जाह
दम
गाजरि
गान
##ङो।
##ानायनि
##दाव
##बार
##ोमोन
आग
##खि
##ङा
##खोम
बिमा
आखाइ
नागिर
मनज
आलाइ
गल
माइ
##थिया
##बादि
##थो
##ोबला
##ासिनो
##ति
मोस
नोथ
फारस
##सन
##खौबो
##ाखिस
गया
##खो
फावथाइ
उन
नोजोर
आथि
होनो
##कट
##खायनो
बनाय
रम
सा
बोसोर
##ाजाब
बङो
बल
##हन
थानान
नार
बिबदि
##ाङाव
जा
जादो।
लब
दस
हाज
मोद
##ासो
आव
बबाय
मन
##लनि
गिदि
##थर
लानाय
##हम
##थरि
होनान
दङ
हानाय
मोननाय
सिग
मोख
##राइ
जोन
##नट
बाथराखौ
जाबाय।
थाब
फि
गया।
बाहाग
जाख
थाङ
##मबर
##ासिन
##ारिनि
##णड
##री
##सिया
गद
##नागौ
##थायाव
##ाथो
खामानि
एन
##ानिफराय
##नदा
दाब
##जाब
जायो
उद
##िना
बा
मगन
खाथ
##ाजा
नोसोर
हागौ
एम
खरʼ
दो
एर
थार
खब
बाग
मद
बखव
गम
अज
माख
हाम
हान
##लाया
खान
##जित
फान
##रनि
ओख
गोजौ
हौ
##राग
##थिय
खाव
फस
मोज
सप
सिरि
गोस
रि
लानो
मोदोम
आदा
गव
लोगोस
पल
बिह
जागोन
##लाब
खिन
ननान
बिसि
सानस
बिफा
##साव
जोनोम
##सिम
समाय
हागौ।
ओखाम
##लायनाय
जोबो
##का
कलप
##गायाव
##ारा
बिद
लास
सगरा
आ।
##ोद
मालाय
हाख
गोहो
लि
बाहागो
सौ
लामा
लाम
सल
साब
##गिर
हगार
##डʼ
##00
सिङाव
बयो
गोगल
नोखौ
जाफ
खाय
सिगा
मानोना
मलग
थान
दाय
लाब
मोनन
जʼ
##पि
##ानत
गोथ
सिनाय
नवाव
गामिनि
सोरबा
हाया।
मोखा
आलया
साख
##थाम
##षट
##गासिनो
बसबा
##फि
##नखौ
##ारनि
माखास
बद
समाज
खौरा
आसाम
सद
गोन
थनलाइ
नामा
हाया
##ाजि
अबला
राग
##लानि
थाबाय
थाफ
##कल
फिन
बारा
सिखला
माहाज
थाम
हाथ
हाखो
##मत
नागौ
गोरो
बङो।
थायो।
##ारिया
##ीया
बिग
गोजोन
नज
साय
##बरा
##ोमा
##फोराव
बरहम
ननो
##लानो
खाथियाव
बिस
##थिनि
साननान
सोलो
आफा
लाबो
सार
##थम
सख
जिराय
अल
गलʼ
ददर
दाह
बडʼ
बिसोरनि
##ाखिस।
गʼ
राजा
सोमोन
##ाननि
माथो
बयबो
##रिया
मोनो।
दिहन
##खानान
मानसिया
सपत
थल
होम
##खालि
गाहाय
##खानाय
खि
##कस
##बोर
##थिखौ
दरज
##ाउ
बिलाइ
##ागि
फबाय
बिलि
##ागर
बला
दाख
##जानाय
##माया
गासि
जागोन।
राहा
जाथाइ
##नाय।
थो
बोह
लाखि
हौवा
बनान
##जलाय
बिन
आनारी
खल
खाफ
जाथाय
थफ
रावबो
जाब
जोबोद
हाल
फिसाजो
राम
गन
सफ
19
##लाराम
गासिबो
थाइ
आहा
इस
था
##दिस
मिह
मोनो
लाइज
##मिन
डि
##ाङो।
पलिस
थिन
फिसाज
बसमत
थाव
##खान
बिजिर
##लाबो
##साय
सोलाय
फर
##मान
##फोरजो
सानदो
##बलानो
##गोर
##सनि
##खौ।
बबादि
महार
सन
अजित
गोबाव
##सरी
बाब
##या।
बिनान
अनगाय
गोरा
##जोनि
##ालाव
##लायाव
खफ
साइ
##बनान
##ोरोम
नायजाब
अफ
इन
लाफ
थव
दाजाब
मानि
##ारामा
मार
हारसि
आबो
इराग
दल
##हाब
मोननो
गोसोआव
बादिबला
रोखोम
जारि
अलʼ
खाब
##er
##लाम
##ाङो
##नदर
हाबफ
##ासिम
दद
नर
आला
मास
##ादोमोन।
सपतमबर
##ाथʼ
बखौनो
दौ
फाग
##बो।
##लाङो।
गासबो
सावराय
टि
लान
जायगा
बिबार
साहा
हि
##ानाव
##खरा
खोथा
इरागदाव
साफ
##करा
गिबि
मानसिनि
आबौ
नʼवाव
##गरि
##मार
कर
##ित
बासिन
बिजाब
गजरजो
पि
बफ
होनना
जोम
##लानाय
जाखो
दाम
##साल
सिखार
अराय
जराव
दब
##फाव
##नाथ
हादोर
हाबाफ
सोरजि
फोथाय
खिनथ
जबला
सिन
##पर
आथिख
टर
##खल
समावनो
सानबो
जोहो
बयाव
बबाव
##नसो
##ास।
नायहर
गाहाम
बिनानाव
##ाक
जिउनि
फनान
होयो।
गारा
गोसोनि
सलआव
लाइजाम
जोहोलाव
खद
दाबो
गोख
हायो
हायो।
दाउ
मोजाङ
सदʼ
अस
##उटार
जारिमिन
बदो
लाजि
बिर
खालामनाय
आखायाव
गाहाइ
थवबो
नगौ
गोलाव
दानो
भार
##नादि
##सो।
गनद
रान
लाह
साल
##थोर
सानथरि
फाह
##ʼव
##निफरायनो
सिगाङाव
कमपि
##सोन
##in
गोसोखौ
थायो
बादल
हारिनि
बज
##सरा
गोब
दरह
कमपिउटार
बन
मस
हफ
हिस
##ाथार
आनो
जना
बह
##on
##नायजो
नङाबला
##ारीया
मलन
थास
##ियान
##ारिखौ
थाखि
मोसौ
थाल
##फानि
बरʼनि
माबोर
नखर
##गʼ
गोल
दहा
##सʼ
##नानि
माहाजोन
थब
##फाय
गावनो
##सालि
फिसाइ
200
जाम
##थाया
##ला।
गाय
जाल
##नायस।
मोनबाय
थाखो
दङʼ
बाइ
##सल
सलʼमा
जबलाबो
थर
बिथा
बोराय
भारत
बदर
नायनो
आम
थिय
जाया
नायनान
##सरिया
गामि
नाङ
गोखरो
अखा
दानाय
साम
सरा
बिखा
मवा
मसरी
सज
सोन
##फल
##ीन
##ti
अफिस
खालि
सʼ
##खराव
##रायाव
मलना
सोमबोर
बहा
##बोनाय
##पार
फल
बव
##टा
ददन
हफाजाब
जाव
सक
##िरा
जायगायाव
गोरोन
रोङ
##कराझ
अम
दह
बानाय
मावनो
##गानि
##जन
##ादोमोन
ससार
##ली
##लायनान
खोनास
अलʼक
मखʼ
सिम
बनिखायनो
जाग
##रिय
##िसि
साननाय
आखल
बिफानि
बिखायाव
हास
##ारीनि
नोजोरथाव
आनज
##जोनो
बिथि
नोगोर
##फरोम
##गिरिया
तलाराम
फदो
##खानि
##ामोन।
मिथिनो
गिदिर
दनदा
##दार
जिल
##थायनि
सानो
##गाव
##ाजोब
##ʼर
गोसोआ
दरजा
सोमाव
फोरमायनाय
मनथरि
मदद
आथ
इउ
शानत
##ाली
आफादनि
##लाबाय
##खम
बिबान
हमनान
धोरोम
सग
एसबा
नोथाङा
महाराजा
फाल
##जरि
##टी
##लास
##लाङो
##ाथाम
मोननान
रामनाथ
बनद
बनिफराय
##वा।
##निबो
थनफाव
नोजोरथावनादि
खाथि
##नागौ।
##दोन
##रिनि
फोजोब
खनस
बिदिबला
##सालियाव
माद
सह
##लिया
##ाराव
गिल
जौग
बरा
##मि
##ाबलाबो
गावखौ
खामान
आगो
बाल
बिहा
गोरोब
लाग
##लोब
फरायसा
आलाइसरि
सोमोनदो
इनद
##लाबा
मोनबाय।
लिरनाय
सावग
खाफाल
थाबाय।
बथार
सानबाय
नोथा
सोरखार
माबार
फोसाव
##सिय
सोल
राइजोनि
जोबोर
##ीर
जिब
हमनो
सव
होबाय
##गौ।
खोमसि
बफोरखौ
गोथौ
आनजाद
दग
दय
राख
गोरल
लखा
नाङा
बिदा
जादोमोन।
सलʼम
रख
रव
##ाथाव
बोलो
बावद
बिलिफ
थागोन
रब
##es
##ानो।
थनफावथाइ
खʼ
जालाय
अजय
##खन
गोबर
बोथोर
जानायनि
लायो।
हाजʼव
अनगायबो
अब
गाइ
दासिम
मनि
नारज
कलपना
दरजाङा
th
फाला
रिस
सनि
##फनाय
माबलाबा
हिसाब
फाथ
##यावनो
##लाखौ
जोथिया
बोख
खग
बसो
बियो।
बिमानि
नागार
खनथाइ
थाङो
बखवग
खलम
आनद
##दब
##ra
गोह
##ाथी
मोना
होदो।
सलʼनि
फोरमायदो।
मोखाङाव
खम
##टʼ
बाथराया
बायदि।
आगान
आलासि
सोमावसार
जस
थादो
मथाइ
##नि।
##लाय।
##लायनो
समबार
आइजो
रमाव
##कराझार
एफ
एल
जार
दोर
##लिनि
बिथानि
रागा
##en
गोथार
सोदर
अनस
फोरो
रʼ
बिमाया
थाखायनो
##खरइ
फावथाइनि
##खानथि
कि
थाह
फनाय
साला
##नस
##मनि
थानायनि
खोनानान
हानज
खफोद
फाहाम
बवहाय
आह
बराय
लाबाय
सिय
बरख
गाबोन
बादला
गवाहा
हारसिङ
गदि
सोरनि
दावबाय
##खाब
##गिरिफोरा
थियटार
हल
नोनो
बाख
बाला
##टर
##याबो
##ालनि
होफ
मावफ
रायजलाय
आफादगिरि
बाहायनाय
10
अमा
फाफ
##कत
लोब
गोमो
गाग
बजि
हथा
##ियावनो
समा
परम
कलज
बानजाय
बनायस
आथोन
उदा
ओर
नव
फफिन
मीन
आलखौ
आदा।
मिहिरा
आथिखालाव
का
जाला
डा
थौ
नम
बथ
बास
हागोन
##होनो
##ाइनि
होयो
लामायाव
गोरोनथि
##फरोमबो
इय
फनो
##राम
##कनि
##सिनि
मोसा
रावखौ
बिसोरखौ
सिखाव
बाजि
नाजानाय
जानागौ
गवाहाटी
नह
हाग
##सट
##वर
समनि
सलʼमानि
दमन
रोखोमनि
सावगारि
रखाथि
गनाय
लोम
हामा
##पा
##ोनाव
फोल
सोमजि
दावह
आनाराम
गोजा
साननो
हाबनान
बिबदिनो
अलक
फा
फन
फज
फारि
##ाराय
##ियारि
जिगा
आलनि
मिहिर
जनान
सनद
##ou
##ियो
बायदिस
रोखा
थिउ
हादर
गोबराब
खगा
जोर
नबाय
##al
बिम
मोनदो
##फोरनो
समान
सोबाय
##हरबाय
दिल
सबनि
मिथिगौ
गारि
जिन
बग
##रोद
बिसोरो
गमभ
गोसोम
गला
गदर
लाबाय।
हरा
##ावा
गावसोर
मिजि
खबस
गग
बजाय
रखा
सट
##लणड
##खरि
##शानत
बिल
बिनो
गोदो
रावनि
अजया
खायस
होमबला
हादोरनि
ओनसो
खाल
पार
फाइ
##बावनो
##ाखमोन
अननाय
हमबाय।
जाबला
दव
सोनान
##कर
हाबानि
आसामनि
अखरा
इरा
फय
##लिय
##थाब
##डि
सिमा
दावहा
साजा
##लियाव
##थिना
##or
##ाखि
##जोबो
सिब
दखो
बिदिनो
गनदा
थाबला
थादो।
मसरि
लोनाय
सागरा
हराव
##ानद
जायखौ
खालामो।
खालामदो।
फोरमान
साखरि
साइकल
कास
खानाय
फाख
##फला
##टनि
##ाबि
##ाखमोन।
जिउखौ
गोमजोर
हारिम
जिर
सराव
हन
हाव
हाइ
हाजो
हागरा
##सखौ
##थिया।
मोननायनि
##गिदि
गोजाम
दङ।
बसमतारी
दिलली
दनान
साह
##जर
##ता
##कि
नायगिर
दानदिस
चि
मर
माय
साज
##लखौ
##होनान
होदो
दरब
हमथ
गोजानाव
मानसिखौ
थिख
दलाराय
दयाराम
रिसार
दास
नब
नोम
फगौ
सथर
##बलि
##लब
##भि
##ायो।
मोनगोन।
थाखोनि
फिसौ
हरखाब
महरसि
राजानि
गाखो
सरि
##ादा
आरोबाव
रोदा
फिथाइ
हानजा
खोथाखौ
the
दहाय
नखाय
##यार
##ियाबो
मोनह
होननान।
##नजन
निउ
लिरगिरि
बिजौ
##फराम
दाबि
##फिनो।
दाजाबदा
खालाय
जास
##ियो।
होननाय
दानिया
थाङो।
बिहाम
अनि
फदो।
##लाबाय।
##यानो
##दाय
##खारि
##ʼन
होबाय।
थानायाव
होनायनि
खामानिखौ
मालायनि
सोमोनद
ककराझार
रानि
लाव
लागोन
##नोबो
मोनज
##मोननि
थिक
दोननाय
खोमदोन
हाजार
गवार
बाइदि
बायदिसिना
तित
दमोन।
##नारि
बिष
##ालʼ
सोब
##ाफरा
##लिक
रावाव
उनावनो
मलगनि
असम
खहा
जागरा
सनान
##जौ
##तर
##ʼनि
गोसोख
माबला
बलसरि
मलगाव
समाजनि
गमभीर
आसि
एफा
कार
मया
मिर
हय
##th
##ागरि
जादोमोन
##बराम
मनजनि
12
नाम
राह
##ोनायाव
##नायस
##फोराबो
गाहायाव
बबखानि
दाग
दाहा
नाल
फयो
भट
##ल।
##om
गोखर
##रिक
हरनि
मानसिफोरा
आबʼ
माइथायाव
ददरया
उजि
खव
गथाय
थोर
पा
मिन
सोनाय
##जो।
##जिर
##ती
##यारि
##थियाव
##ow
##ar
सानजो
गावजो
हाबाखौ
रायलाय
खोमा
दिनथिनो
बोसोरनि
हाजʼवारी
गाइखर
##लद
##हिन
##नोस
##ियानो
जायनि
हायाख।
गाबजरि
मनजवा
थामहिन
गलʼवा
फिसाजला
आजो
कमा
लादो।
##ाथा
साना
सोलि
दरसिन
आयदा
हाबाफारि
2008
दासो
मम
लर
##फार
##रम
##इन
##शरी
##el
मोनथि
मोनदो।
बाराय
गोजान
थिङ
नागा
आयद
आलाइसरिया
थाबनो
मोदोमाव
सिखारनान
सालिस
मादाव
थामहिनबा
of
जदि
दʼ
दफा
बम
बावनो
मथ
मङा
##ासरि
मोना।
जायखि
हाबह
गोसोजो
गामियाव
बादिय
बिथाङा
बिनाराम
##tion
परमध
थिउरिया
जोनो
दमोन
नयो
रफ
रस
##साब
##साइ
##ानति
##ाखा
मोनद
नोहा
जोखौ
माबलाब
बारगʼ
एसबो
नोथानि
आवगाय
सिनायथि
साफा
15
अपार
फद
माल
रजा
##बानो
##टखौ
##nd
जाया।
मिथिय
दिननि
फारिया
खानथि
खावलाय
लिहर
बरहमनि
सʼना
खानान
थगाय
बक
मलि
ममा
##बारि
##भा
##रा।
##ाफोद
सोरखौ
हमबाय
मावनाय
मलननि
मगनाव
खौराग
बिफाननि
दिनथिगरा
माहाजोना
गनथ
नखरनि
शानतिया
एखन
गाख
मोनफा
खालामनायनि
मानसिफरा
खोनानो
मिनिसल
खानाइ
साबसिन
लाखिनो
माहाजोननि
रवाथि
सोदरोमा
नग
फबाय।
##नागोन।
##रल
##पी
##ाथिया
जोथिनि
दिनथिय
गारनान
##गरी
दिनथिनाय
बखवफा
सोलोथाइ
नाङा।
##दबानि
इराज
कमाणड
जाबो
जथम
लाज
##लानान
##ारियाव
मोनथाम
##ाहारि
सानसरि
सासया
महन
जानागौ।
जाहोन
जरावबो
दासिमबो
बिहामजो
साग
##सयाव
##हाबो
##होनाय
##थौ
##थाल
##ाबाव
सिबि
##िसन
रोजा
फोथ
निम
जाथार
हौव
जागाय
इनदिस
बिलिफाङा
अदबानि
कन
जकट
दानि
लादो
हʼ
मोनलाय
मोनगोन
जायाख
सोङो
##बलाव
अनज
##बिजिर
आदब
माहारिनि
बडʼलणड
गागलोब
फोन
हाबो
##गोम
##भार
बिलाय
बिगर
##ामि
सिनि
खालामबाय
हाबाब
##बावो
फारिय
बानथा
समायना
थाइला
फागला
जिलला
इनाय
रग
मोनाबि
खालामो
बोराया
कमप
बिखाया
फारसथि
हाजव
एरनो
दङʼ।
नाथ
नालाय
##ायाबो
गोथा
साननि
##ालाग
जायाख।
मलनखौ
अरना
##ामोननि
बिफाया
लाबोनान
लाइजामखौ
रामनाथा
20
गौ
जग
थागोन।
नहर
लाउ
##सोम
##टाव
##हरो
##is
##वार
##कष
बिजि
सानद
नोलाय
फिसाया
माबर
गोदोनि
##गरानि
फरायसालि
हादो।
हादरनि
जाखरि
मीनाराम
खसि
गा
जय
फनि
लख
सय
हथाय
##जास
##खाव
##माल
##ायनो
##ियानि
अनाथी
बसन
रजानाय
गाननाय
सौफ
गोहोम
दोरसोन
इनदिसरी
11
आङो
थोन
फालि
राद
रबि
##मोना
##te
##लाउ
##ादोर
मोग
जायोबला
खालामना
समि
होखार
दावग
मिथिबाय
ओखारबो
##जायो।
हाथाइ
होमबा
खदिया
दखनि
थनलाइनि
एगार
खगायाव
जल
थाना
दाला
नयो।
रौ
##बस
##शन
##रास
सिथ
सानजा
नोबो
जोहा
माखौ
हाबि
लोग
दिनसिम
जरबो
बोराइ
##फिननो
हारिखौ
काम
जासि
टराइ
डिस
ननाय
बदि
सकस
##वाबो
##थानि
##an
##ाजास
गावबा
होआ
##लिम
हायाखिस।
##गिरिनि
दोननान
कलपनाया
##फिनो
खामानियाव
ओजो
कलि
जखम
फयो।
बमा
मव
मबला
रजि
सशानत
##जानान
बिबो
बिमाय
रजालि
बिखानि
गिदिद
सानसखालि
गोनाथि
सोनाब
अलʼका।
टराइबल
अग
थाद
था।
थाला
दाइ
नाइ
मज
सथो
साथाम
##दान
##ाव।
##खौसो
##नानो
##ानाया
##ालानो
सानदोमोन
##लायो।
गावब
होय
सोरगिदि
बादिनो
दावराव
लायो
जनाद
खायफा
थाफिन
थिनहर
##ind
##गोना
उख
दन
फास
बफर
रामोन
लोर
सथ
सहाय
हद
##गाब
##गराया
##रʼ
##खाया
##निया
बिसार
सानो।
मिथिया
##लिद
हायाख
बायजो
अनजि
गसनान
आखाइयाव
जात
लाबोनो
जाथाइनि
बोहथि
198
##लामफा
अबलाबो
जव
टबि
निस
बबो
सनाय
##लिया।
##टल
##re
बरखा
नायबिजिर
गोरबो
बिनह
अजिता
नायजाबनि
तितागरि
18
आरि
दाद
बोनाय
बहम
सनो
सथि
सहन
##गरो
##ic
##था।
##षटार
##शा
##le
खालामदो
आखाल
हायाखिस
हरनो
फावथिना
सोदोबनि
हारिया
गजरावनो
बिमाखौ
खलथा
महाराज
फागलि
जारिमिनारि
ददनगिरि
जिराद
##जाया
##खाबाय
##ाबो।
##ानायाव
सिला
##ाङा।
खालामबाय।
नायबाय
रावआव
गिनान
हमल
दाननि
माइथायनि
दोह
बिदाय
दायनि
अलका
थलफा
जसबा
लोबबा
30
डाक
बथि
मासि
शानति
##जाथाव
##राक
##फोरानो
##फोरनिफराय
सानराइ
##लायो
जोह
सोरा
रावजो
जानायाव
फोसाब
मानोबा
मानोथो
अरन
फिसाजोखौ
जिबौ
थाइलालि
wind
उल
गियान
डाइ
बाम
बदोमोन
बखायनो
मड
मराय
हक
हागोन।
##फाया
##ीनि
##ायो
सिफाय
गिब
राजखानथि
जोबथा
##जायो
कमि
बिफाखौ
हाबफयो।
बाखनाय
आलाय
कʼ
जी
दार
नथि
मङ
रल
रप
सस
##गास
##बनाय
##खाङो
##ol
बिजो
##ासार
सिसट
जोला
फिसानि
आखनि
बसोनि
फोथार
मगननि
##गराम
आबाद
हिनजावनि
लबयो
बबायदि
गोजौवाव
सायाराम
कला
थागि
मखौ
हजो
##फानाय
##ख।
##ायनान
##ारच
##लादो।
##फोर।
मोबलि
जिनि
##लाइन
बबबा
गथʼखौ
आलाइया
थलगा
थफना
window
अबराम
इसि
एव
खाना
जजि
थादोमोन।
रमा
हायाव
##फराव
##ारखौ
##रिखौ
खालामगोन
बरखाय
दिननिफराय
बरʼफोरा
मगल
गाबा
फावथि
नʼखर
थानोस
बिथोन
रागाजो
फालो
उस
गाबो
टाउ
नानाय
मटर
षट
सना
हस
हालाम
##थन
##नायनिफराय
##ाथियाव
##िसो
बाथर
##थारबाय
##खरानि
फावथायाव
सरक
खनसाय
गथʼवा
गलिया।
बिदिन
बाहागोआव
दहाखौ
बावदिया
जिनाहारि
महनला
निमाहा
जोथि
25
आङो।
गलि
गफर
जब
डर
थगरि
लानायनि
##ोङ
##il
##ाबानो
##ाबादि
##लादो
सिगार
फिसारच
बोरबा
दानस
आफाया
राजाया
खौस
कलजाव
आरति
##कटर
बिसिखौ
दाहोना
खालार
दोस
खाख
जरि
दइ
दखाय
पाक
बगोन
लह
लोनो
हाफ
हागर
##टन
##टिनि
##दाया
##खा।
##हनो
##शवर
गावथार
गावखौनो
अनथाइ
बसाद
मावनान
बाथरा।
जानायखौ
आलो
##खʼनान
राखौ
माहारि
आफादा
मोदाइ
थाङोबला
बागदाव
गोजोननाय
खाफालाव
हानजानि
फजʼ
##पीय
in
धोन
नानान
##मनट
##ʼखौ
##बोदो।
##रोब
सिबाय
होनबला
##ाफिन
फिसाखौ
बयावनो
हगारनान
अजितनि
सगराया
खामानिया
ओरनो
आगरा
खनद
गबला
दानान
फटʼ
बहरबाय
##खाङो।
##ागासिनो
##बोदो
##लʼ।
बसाग
मावथि
सलʼवाव
##मोनहा
गयि
परस
मिनिट
आरत
गनदाया
हासथाय
बिथिङाव
जिललानि
आलाइसरिनि
सोरनिबा
दरबासि
असमीया
ओथि
खोनाय
जबोर
थालाय
दमा
दखर
हाबाय
##फौ
##सोनान
##आबो
##ायानो
##ाबलानो
लोङ
बरʼफोरनि
रावा
अनसाय
अनलाइन
थानायखौ
मावगरा
दखना
बोरो
निफराय
नʼनि
लाइमोन
राइजोआव
आदाया
##टिक
जाथाया
माबाफोर
बिगियान
बबादिनो
इनटार
नरसोन
थासारि
फालागि
##फरामबो
सकसपीय
भि
##नागोन
##हयो।
##ियार
##रिष
सिथार
##लायबाय
बराम
हाबाया
महराव
लाइफा
##जोबनो
कमार
नोथा।
मोखाङ
खरʼवाव
खावस
लामाजो
गोना।
जिरायनान
थोजो
नायहरनान
जावलिया
सलʼमायाव
अजयनि
नारजारी
com
जथाय
बासि
##नी
##जानो
##रखौ
##दनि
##दिय
##खब
##खानायनि
##मब
##हालाग
##st
##ङावनो
##आरि
##ct
##ाया।
##ासा
##ाजानाय
सोह
होगोन
##हरो।
मलम
लिरनान
हाउ
दाबस
मदाखा
दाहार
फिसाजोनि
हाबफयो
दरजाखौ
इखरि
चनदर
पाब
बलाय
बफोरनि
रह
राफोद
##नजो
##रब
##बोला
दरख
##मोनखौ
ओखारलाङो।
दोनथʼ
गरन
राइजोखौ
##जोबो।
जाहो
गोगलनान
खौराखौ
नजाथि
बफारिया
भारतनि
सोरखारा
इराजी
हाजवनि
एक
ओइ
जलि
दथाय
मोनबला
मोनहा
होब
बोद
रावखौबो
जाथो
खोखल
बाहायनो
नोसोरनि
हाखोनि
लाबोनाय
साखाथियाव
जाथायखौ
इरागदावा
बिनहारी
आथʼ
ओखायनो
गोनो
रनज
सोनो
सालाय
##सला
##जानि
##दानि
##ासनि
मोननि
सिलाइ
##िसत
सानथौ
##ारि।
हाबायाव
आखथाय
बायनान
गरम
बिहोमा
दिहननो
गिलिर
काप
रादाब
सिसटम
इणड
कनट
नो।
नाफ
मला
लफ
हब
##गाया
##दाब
##ʼवा
##हा।
##ed
##ावबो
##ामोना
##िनागौ
जोख
##ाफा
जिवाव
गोसोयाव
##फोरखौबो
गिनाय
सरलाया
खनल
मोखाङा
एमब
हाखराय
दाखालि
जाथायनि
##हाबनान
अलʼका
लाहार
खनसाया
खगानिफराय
सनदह
माबलाबानो
16
अकट
एइ
खथाइ
घनट
थनाय
थनायनि
ननि
पास
फरा
फमाल
बबल
बगरा
मलामफा
लाना
सागर
##फयो।
##िब
##बोनान
##दम
##ार।
##ाबालानो
##खौलʼ
बिनिफराय
##ालास
नोजो
जोथिखौ
होसो
माउ
##हरनाय
आखाय
आखवा
बारह
बखौबो
सबफोरा
फरायनाय
निज
खामफ
परगराम
जाउ
एमफौ
हाखर
थानागौ
मोखाखौ
थामथि
मारजित
गाहाम।
दासान
मोबलिब
अह
खना
खबर
दयाव
नौ
नय
नोन
माथ
मदर
रोम
रासिन
साबाय
##दश
##मायाव
##पट
##it
##ीम
##आनो
बिय
सानराय
साननाया
##दिनि
बाथौ
##थार।
हमो।
सलʼवा
##खरब
मानसि।
गसाइ
ओखारलाङो
दोननो
हादो
##फिननान
##फिनबाय।
खोला
गोमोर
##खोमा
बाउ
बिहाव
थानद
समाजाव
बिगराय
बलास
आलादा
अरायबो
खदम
थबन
बिलिर
जाखरिथाइ
पाबलिक
मिस
इसोर
एकस
औवा
जखाय
जाजोब
थʼ
थागरा
दगार
हाथाय
##खादो
##खादो।
##वानो
##वारि
##काव
##णी
बिबाय
बिलो
मोनाम
##लाया।
जायगानि
मिथिया।
##जिनि
बोसोन
मानसिफोरखौ
गामबारि
##फरम
##फराबो
राइजोफोर
आखाइनि
नागिरनान
मोसाह
लासनो
जाफसार
नजाफ
आनारीया
बसमतारीनि
##िसिम
सियाला
गावसोरनि
अपारटि
आसार
ओथिया
थिसन
दना
फादोर
बगर
बथम
या
रपा
ला
लङ
सइ
सला
##बरि
##बाबो
##सलि
##खाबाय।
##ादर
गोथो
##ासिया
मोनदोमोन।
##ानायखौ
सिनिफराय
होनागौ।
##ागौमोन
##हरदो
बिनिखायनो
मलाव
गबनारि
गयाबला
##गौमोन
थारनो
##थियारि
फोथायनाय
अखाफोर
ससाराव
पाकिसत
and
कस
थबाय
दनि
बदो।
मब
माला
लʼ
##ोदाव
##मी
बि।
##ाइस
##ाहर
होदोमोन।
माषटार
##दाउ
गबय
बरʼवा
##गिबि
##ालाय।
हरनाय
हरबि
मानसिफोरनि
##बावो।
उनावसो
मगानि
फाराग
राजखान
##सिना
उनदनो
गथʼफोर
बयनि
जाहाथ
##बारखालि
माइर
लबनाय
लामाखौ
थफन
पलिसनि
जनाखौ
गोलोम
आमाइ
जौगाख
फाइल
मिनथि
##माव
13
to
उथरि
खिर
दाल
नागौ।
बट
लोनान
लाङो।
##बाबा
##रोम
##टक
##दिन
##ot
##ारोङ
##राखौ
मोननाया
मोनदोमोन
##ाहो
सानफरोमबो
मानसिय
##हरनान
नङामोन
बिसोरनो
रोङा
ओखारनाय
आफानि
हिनजावा
रजाल
आथिङाव
बिलिफानि
सोनार
अमला
##जननाय
खाथिनि
थागिबि
खला
निर
नखराव
ब।
बरि
बानान
सरोद
##गान
##बाद
##ve
##ोनाया
##ादार
सिलि
सानथाम
सोङो।
##हरनो
जानाया
गाबनाय
हिनजावखौ
##थावना
बानदि
लायनो
महरा
दमना
आगोर
आखाइजो
नोथामोन
रिगायाव
पलट
दिहननाय
फाहार
दहानि
हानजाया
फोलर
रामोनदा
सहायनो
सिगारट
14
24
उननि
जाइ
डज
थाबो
दफ
फथ
मखल
लनान
हलाराम
##बा।
##बोनि
##जरा
##रियाव
##कखौ
##os
##at
##ac
गोगोम
मोनफरोमबो
##सिनो
होनायाव
खालामा
खालामनायाव
थाखाय।
हिनजावसा
सिखलाया
सिखलानि
लाइफानि
गथʼनि
खोब
बयनिबो
नागिरदो
##सनस
सिगानि
फानल
कलपनानि
अबलाउ
हाथर
सायखʼ
बलाउ
बिजाबखौ
दरहासार
जामबि
मावफारिया
हावरिया
लखराया
गावबराया
नौनारि
22
23
आप
गाल
जाना
दप
नदो
नमबर
नमार
रोन
रनजन
शि
हानायनि
##िनो
##गलि
##सलाब
##जार
##मन
##ʼनो
सिखा
##थिजो
होनागौ
##ायावनो
समाया
सोलायनाय
फिसा।
रावनिबो
गिखर
जराम
##होदो।
##ोनायनि
##गौमोन।
सबङा
खरब
दोनथम
फरायनो
हिनद
##जोबबाय।
मोदाय
खरʼखौ
खिनथाय
##ागिरि
थावनि
आथिखाल
##सालिनि
खʼथायाव
नहाथ
ओनसोल
हाइज
एखनबा
जीउ
pr
you
अक
खथायाव
गिसि
जम
टक
दोम
नवा
बोनान
मारि
राङ
सथार
##ना।
##जलायनाय
##यानि
##दराय
##दा।
##दिया
##खानो
##पति
##ʼना
##ङा।
##डार
##नान।
##ाइगाव
सिल
##थिङ
मिलि
होगरा
नङामोन।
हायोबला
गसला
मगना
दखानान
##नायखौनो
खोनदो
मिनिनाय
गानद
खिनथा
सिनायनो
बिलिफा
इनफरम
मासियाव
दौनागौ।
दगलाय
जारौ
##फारस
सिलागा
साबायखर
टाइ
भकत
माम
रमाय
लन
##लस
##टस
##हबाय।
##ation
गोथाव
##बोयो
सानजौ
सानफरामबो
मोगा
गावराव
नायहरो
बाथरायाव
##ासिगोन।
##थायारि
मावरि
फोरजा
हरनान
फोज
गाबनान
गोदोनायाव
महरखौ
थिग
मिथिगानि
बोरमा
आइय
माहार
आसारि
बाहायनान
नारसिन
##ानिफरायनो
फानदाय
##ागराब
मसाह
मखʼनो
इनदपर
जाउनाव
दपसाव
000
अजा
आनाव
गबल
थनो
थिर
दाफ
दनद
सालि
##फोन
##गय
##गराय
##लन
##सलाय
##टारि
##as
##ियाया
गोमोन
##ासो।
सिलानि
जोथ
जिग
बाथराय
##याव।
माबादि
सलʼखौ
एसलʼ
सोमख
थायोबला
बानदो
मिनिनान
खोमोर
जाथाव
सोदोबखौ
जाखा
गवला
जोबोत
बदद
हाथार
दरजानि
196
आथिखालनि
फिसाइनि
इउनि
बिबानखौ
माबार।
राखान
दावहायाव
बाइदि।
अनजिमा
कमपिउटारनि
17
21
आनदा
इज
गट
गिय
टराक
फगोन
बहन
मथर
ममबर
लकष
हरो
##फो
##िरि
##ननान
##बʼ
##रण
##टिस
##ʼब
##नाया।
##ाजोनो
मोनथाय
मोनाबला
होबला
जिवा
##निफराय।
बोखार
##ासिगोन
##गराफोरनि
गबननि
##गराब
आफा।
खोनाबाय
अरख
##जोबनान
आयʼ
दमास
आखाइखौ
रमनि
आसामाव
गोनादि
गाहायनि
बोहथिया
बिनारामा
अजितखौ
थाखिनान
थालायाव
जालाबाय।
अफिसार
धोरोमनि
फालाग
एफागराब
फोरोगिरि
जोरवा
रफाली
एखनबला
सागलोब
होबथ
एब
एप
ओहो
खलि
जयो
थादि
थाथो
दबावो
नी
पन
फखा
बजो
बाङ
बना
मट
लादोमोन।
लादोमोन
हानि
##दोना
##वानि
##शव
मोनबा
मोननायखौ
मोनाख।
सानखौ
##दिनि।
##ाङाबो
खालामनागौ
नायबला
नङाना
आखखौ
थानाया
मोनसलʼ
रोजाब
दिखानान
नʼखराव
नाजाब
जनʼ
दिनथिनान
गाननान
मनजखौ
फावथाइखौ
बलद
मोदोमनि
खिनथि
गोहोखौ
गोबानान
जामबा
फोसावनाय
सियाल
बजिनो
बानजायनाय
डाः
नगब
हालामनि
बाथरानि
निजोम
आसो
आदि
करि
खनायाव
खाजा
खासरि
गारिनि
गाथाम
डभि
थाङा
दया
फाय
बारि
बलायाव
मत
लथो
ससर
हो।
##यनो
##खाना
##मथ
##हदो।
##ec
##ाखस।
##ाइल
मोनथार
##ानाय।
सिआव
##सिगोन
##सिगोन।
मोगि
जोल
बिबारि
मावजि
सलʼमाया
मानसिफोर
गयामोन।
दखजो
सरब
नागोन।
ओखारनान
लिरगिरिया
रजिया
बिफान
बिथाखि
##ोमोनबला
नागिरो।
मनʼ
रिग
बिसिनि
लामानि
सिगाआव
सार।
सखरि
ददरखौ
जाथाइजो
##गोरा
##ing
सकर
थियटारनि
साजाय
उजिगिबि
गौथम
दायनिगिरि
नʼखरनि
आया
आगर
आजाव
इल
कष
खफोर
खासि
ची
जला
थाथʼ
बथʼ
बगल
बहाय
लादा
हानो
##ाखौ
##िखौ
##िरो
##साया
##ोल
##वाल
##चि
##ोनो।
बिसिया
##नायबादि
##िनाव
मोनजाय
सिफ
##लायनायाव
गावबरा
हाबलाङो।
थाखोम
नङाबा
मावरिया
गोरिब
मानसिजो
मगायाव
गाबनो
बङाइगाव
दाका
सरनि
सबारी
फरायसालियाव
राजथाव
सावथाल
लाइन
बाजियाव
फोरमायथि
##टिभ
जानागोन।
आरसा
जाहोनाव
नोजोरनान
बिबदिबला
गदियाव
मगनजो
गलʼनि
ददरनि
गʼला
बबावो
दरहाग
थबसि
बोरायनि
थियारि
शानतिनि
कलपनाखौ
फाफलियाव
गनदाखौ
हयथʼ
लोरबा
जातरा
बासिनानो
सानजौफ
राजथावनि
एसि
खा
खस
खोनान
गाद
गगर
गगल
जदा
दाङ
दसा
दमानि
दलाम
नथाय
नागोन
पकट
फलाय
बगा
शकरा
हजरि
##सानि
##यि
##ur
##डनि
बिखायनो
##ादराय
मोनफ
नोङो
होगोन।
नायो।
##यावबो
##थायनो
बारनान
बारानद
गिलास
एसयाव
बाथराखौनो
रोखाय
रोगौ
##होयो।
नागिरो
##ाथिनि
##फिनबाय
अरखि
बाजार
गाजा
नागिरनाय
माइथाय
आवराय
जाखानान
फसबो
मोदोमखौ
सायख
बिसाय
सनथ
लाफिन
हाबाफारिखौ
अफिसाव
अफिसनि
##ent
मीनारामा
हागार
दरबासिया
परमधरा
गाखोनान
दिनथियो।
थादʼ
कʼकराझार
फोथाराव
बिगरायारि
50
उइ
एख
औ।
कलास
खख
खथ
गाथ
जाज
जोनान
थनान
थादोमोन
दनाय
दरा
ननद
नथार
बबला
मादि
मराइ
रोनाव
सभ
साद
सारि
##गराव
##लौ
##हनान
##वाया
##gu
##छा
गोसा
गोबार
##ाथीया
##बायमोन।
##थि।
सानथर
दिनबो
बायनो
बायनाय
##थʼ।
दरग
हमदो।
हरबाय
सोमदोन
सरनान
खनथाम
निदान
जोबनाय
सावनान
सावगार
राइजोफोरा
राइजोफरा
फोरमायो।
माइनाव
माइगाब
##राइभ
उदयाव
खाथियावनो
बागाल
फाननान
गोगलयो।
बिगोमा
दिहननान
जाबाव
खफोदाव
इनजिनि
हादोरगिरि
हाबाफारियाव
अलʼकखौ
##ess
आनदाया
बजिबाय
अखराङाव
सिथलायाव
उलथा
फावथिनानि
महनलाला
00
st
एबस
खनो
गफा
तल
थख
नट
नलिया।
परिष
बनागौ
रय
सत
सया
हजर
।।
##नल
##नाम
##बारी
##बोनो
##जखौ
##जिया
##दी
##ायनि
##ाबनान
गोखा
##बोयो।
मोनबर
##रिनान
##ाङावनो
बरक
सोदोम
##ोनिफराय
होव
##थाइनि
माबि
##ालिनि
गोराया
##मोननाय
एसयावनो
फारन
बोरसि
गासखौबो
आबह
आबङ
बादलनि
##सरिनि
नाजाव
आनदो
सोदोबथि
जानगार
गलिया
फावथाइगिरि
नारजा
गदमा
मगननिफराय
गोगलनाय
अबलासो
हाखोखौ
अरायनि
गनदानि
##फायो।
सजगराया
बानायसो
मखʼजाथाव
आखलखौ
सोरखारनि
नागारनान
गोहोनि
सोदरोम
फाहामसालियाव
इयन
ममʼ
समिलाया
इनफरमसन
बिसायखʼ
आज
आमाय
चित
जनो
थदो
दाया
नानो
पज
फसा
फाथो
लाङ
सानाय
सराय
सबि
हाबाय।
##फनो
##तार
##दʼ
##कार
##आ।
##धर
बिसरि
##नोस।
##नायाबो
गोलाउ
सिलाराम
सानज
सानदो।
##लायबाय।
जायफोर
गावबो
खालामबला
नङाबलाबो
आखलनि
बाथि
अननायनि
गिलिद
बिबारनि
मावखʼ
गोजासरि
##खरय
बिसोरबो
गयामोन
लानान।
सरखार
गारनो
##सरोम
थाया।
लिरनो
बादाय
हादराव
परिन
जोबथ
लबय
मोखाजो
बखवनान
बिगोम
बलासि
जाथाइखौ
नरश
बहाबा
सलʼमा।
ओनसोलाव
ओनसोलनि
दवान
दिललीयाव
मोनाबिलि
सशानतवा
बहमनि
नहाथारि
माहारियारि
is
अद
अʼ
अनद
अखानाय
आच
आसा
उर
गाला
जज
थस
थाग
थाज
दबर
दाफोद
न।
नाला
नाथार
फजा
फलाव
फगोन।
फङाव
बाना
महा
लखरानि
शकर
सखʼ
हाला
##तखौ
##ʼज
##od
##ानागौ
बिबा
मोनाखिस।
##ालियाव
##िसा
साननसो
नोस
नायो
नायगरा
नङाल
सोरजो
##दाखौ
बायदिय
अनल
अनारि
लोगोआव
बारियाव
बिबाज
आइनि
गोदाननि
सोदोबा
सायावनो
नाजादो।
जनबा
रजʼ
खोथाया
नागिरदो।
मनजलाया
लबयो।
दसनि
दोलो
खबन
अजया।
फसला
बिगम
बसमतारि
बिजिरनान
खिनथाह
कमपिउटारखौ
दहाया
मखʼनादि
##ʼरट
आलाइसरिखौ
खगाजो
किउ
बानजायनो
दावहानि
हमथानो
माबलाबाबो
खौरागिरि
बडʼलणडनि
डिसक
दादरि
डाकटार
इनटारनट
अप
आबा
कौ
ककराझ
गारिखौ
थाया
थरोब
दजो
नखौ
नबला
नजि
पान
फ।
फया
फजि
बबाय।
भगि
लथ
सकल
##फानो
##बनि
##सराव
##पनि
##डा
बिला
##लाफ
##नायानो
##नानबो
गोगो
##राख
##फोरा।
##जोसो
##ाहाय
सिरिय
सानन
##लायखो
##योबला
होना
जोथिया।
बरया
समखौ
##ागौमोन।
नायगिदि
##माखौ
गबर
बारादराय
बिबʼ
मावनायनि
गोरबोनि
फोरबो
महरनि
सरजा
सबफोरनि
सबसाइ
ओखारदो
बबनि
बबलि
बादराय
जोबनो
जोबथार
रायजो
थनलायाव
फोरमायनो
आदार
आनारामा
बयखौबो
बिखलो
जाहार
दमननि
##बादि।
थाबाव
बाट
एमाव
बिहारि
लाबोयो
बिलाइखौ
सफनो
199
##ितय
बनदो
गायसन
बिथाखौ
आमरिक
नोगोरनि
शानतिया।
सहना
रवाथी
थनफावथाइनि
अनसला
सालाइ
आहार
बजायो।
कासारनि
भटिया
खौरागास
दिनथियो
जिनिस
सोहोर
घनटा
पाकिसताननि
जोथोन
खषट
गानाय
जोनाय
थय
थाथ
थबर
थाथार
दखौ
पस
फदर
फङावनो
भग
मʼ
रन
लाद
लाल
सहर
##िद
##बानि
##बासो
##तरा
##खगरि
##हनाय
##थरोद
##डी
##et
##ानी
##ामनि
गोसार
मोनलो
##रि।
सिमान
सानया
नोथʼ
नायोबला
थाखिया
मोनसया
मावो
मावो।
गोरान
गजारोङ
गोजाव
हरो।
गाराय
##सरानान
दानसोर
बबयाव
गरस
खोमायाव
आफादाव
बिथामोन
आय।
आगसि
बोसोराव
बाहागि
बागरि
फसालि
बिसिनायाव
हाखि
गोनाथार
हालोद
197
बिजिरनाय
दबफ
हाबाफारिनि
नायहरो।
फिसाइखौ
मवाफोरखौ
बनदिया
बालाब
बावदियानि
हाजʼवारीया
##खरइबो
गोमोथाव
बथल
लोमसाव
अलकाया
मिहिरनि
दागाब
दालाइ
महाराजा।
बामन
कमिटिनि
टाउनाव
आनान
उरा
कगर
खाज
गरा
गलाम
गलायनान
थक
थखौ
थाहा
दाथ
फट
बध
मशरी
राजो
सरो
साजो
हट
##नाङ
##लानायनि
##जनि
##तन
##खो।
##खिनि
##im
##कसा
##अʼ
मोननागौ
##लायाबो
##दोबलाबो
खालामनाया
बरगय
समाजा
जिबा
नायनाय
नायदो
नायबाय।
लोखा
अनाथीया
##फोरखौनो
गिथाव
गिजरा
##थारा
##थारदो
हमनाय
बादि।
हरस
हरदो।
रोग
रोहो
फोलाव
गाबनि
गाबबाय
सासनि
सासलʼ
दावला
सरथ
मिथिगौ।
थायन
बिजाम
##दोमोनबलाबो
बाजराम
राणी
बिफाना
जाहोनो
आगदा
मोसानाय
आवथायाव
सिगाङावनो
हामफ
मोजा।
साबर
जʼरा
सोरबाफोर
समाजारि
सदम
बरहमवा
लाबोदो
खिब
लाखिनान
फिसाजोआ
बसमतारीया
सोलायनान
नायजाबाव
दलर
सावरायजलाय
साफरोम
खिनथानो
सानबोलाउ
लाजिनाय
जामार
सजगरा
रोङा।
ससारनि
अलʼकनि
बोथोरनि
अनसथाइ
बालादश
कलजनि
रखाथिनि
लोमजानाय
साहितय
नालिस
खवनान
आयदायाव
बमारि
रसम
अनजालि
फरायसालिनि
मोगथ
दोहोरोम
लङाइ
हरबिला
इनदपरभा
मटरिक
तलारामा
##लम
आबर
उसाव
खनाय
खनान
खाइ
खबाव
गला।
जिस
जगाय
जागि
दारि
दाइनि
नाव
नास
नखʼ
पलि
फफ
बʼ
बबि
बीर
मउ
लग
लप
वार
##जला
##जाइ
##द।
##दला
##दानो
##खोन
##पत
##हदो
##हयो
##थान
##कन
##ङानो
##ay
##ain
##ate
##ाबर
बिथिखौ
##बाया
सिथाब
साननायखौ
सोफ
लोङो
सोरखारि
हायनारि
अननायाव
अननायखौ
थानायस।
बारस
बसʼ
हमना
हमनायस।
उनावबो
दिखार
थिफ
##सरीया
बादा
आइन
##फिननाय
फोरमायनान
आदरा
कमल
खोल
जानो।
गजरनि
##गलाब
आलाइनि
फावथाइगिरिया
उनथि
फिदि
नोसोरखौ
गमर
माखन
लिभ
सौगराव
थानागोन।
फिननाय
हाथायाव
सायारामा
गʼसाइ
बाब।
आबौ।
सोरजिनाय
सिनमा
बिनानाव।
जारिमिनखौ
भारतारि
दानायाव
दहाव
फोजोबनो
खनथाइगिरि
बखवगासनि
खफोदनि
आहाबो
बरखादो।
कासार
हमथानान
निउकल
असमिया
गाइखरखौ
निसथार
अलकाखौ
डाइर
##मबराव
बोदोर
##ालासनो
खिरखि
एबसनि
डभिद
बारानदायाव
40
अबलानो
अनदर
इनज
खथा
खोरोम
जखौ
जथाइ
जाबा
थखर
दत
दबल
दालाय
बोनो
बनायखौ
बामोन
बथर
बकस
भारा
माया
हनाय
हासि
हालाय
##बथि
##बाथाय
##सोनि
##राब
##याख।
##परनि
##थो।
##चिय
##ap
बिथʼ
##ाखालि
##बोल
मोनाख
##ाहोनो
##थिर
##िसिन
##सिखौ
सोखारि
##ाफर
##लि।
हायनि
हायाबला
##थारा।
##बरानि
##मोनबला
एसगराब
##खायो।
दिउ
गाबर
सबफोरखौ
मिथिनान
ओखारलानाय
दानसʼ
फरायनान
गामियारि
जौनि
बबनिफराय
##सारा
जोबबाय।
राइजोफोरनि
बाजर
थानोस।
जनार
आरज
हाराव
आसान
आसागि
बिथामोननि
बनायसाय
लानायाव
लानायखौ
खामानिनि
उदखारि
बागान
हामो।
हानथा
मोजानि
गोहोआ
लामाया
नजाह
आनारीखौ
थफनखौ
करानि
टरइन
खोनासनो
आइजोआ
फाहामथायनि
बवहायनो
नवाख
जालाङो।
फोलरनि
मसरिमा
लिरगिरिनि
##ell
आयदानि
कामाख
अगन
दाइन
टबिल
गोनोखो
##सनसराय
अदाल
बिजामाद
##खनि
नोजोराव
26
as
re
अभि
उदर
उफल
खखरा
गह
गरि
थग
दाबा
दफानि
दथन
नप
मनाय
मखब
लनाय
लगरा
सादोर
##बन
##जा।
##जानायनि
##जासिम
##दाम
##उइ
##am
##ber
##घा
##ोनागौ
##ाबरा
गोजो
मोनखो
##ालाबानो
सानहाब
नोसिनि
मोबलाव
लोदो
दिनसो
गोसोज
##थाखौ
बायह
बारनाय
बारसोम
दरलाय
हमो
बाथराफोरखौ
##बावबाय
होननानबो
गोदाव
सासबो
दावा
फारा
थिलियाव
##ाथिखौ
खरथ
खरमा
ओखारबाय।
दोनदो।
##गरोन
आइक
गरीम
खारखोम
उनदनाय
नाजादो
रजन
महि
दिनथिदो।
हारसा
आखाइनिफराय
नागिरनो
सात
मोदखौ
आवगायाव
मनस
मनथर
सिगानो
मोखराया
बाहागोनि
##रीया
गदाय
हानथ
कलपनाया।
हगारो
बदम
बदार
##ागरानि
दाखालाम
थोजास
जाबलानो
लाइजौ
पलिसा
लाफानान
दौलद
करण
थासानद
थालानि
सरासनसराय
सकलाव
जायगायावनो
दहायाव
आनजादाव
आनदाज
आहा।
दावबायारि
होफयो।
नवावनो
सनदल
बिमाइ
साइकलखौ
फाखʼ
मलिखौ
सोरखौबा
रबिबार
हसपि
डरइ
अकटबर
खबरदार
माथो।
सलाद
दरहागराया
100
pl
tra
खानो
खराइ
गड
गवा
चीन
जख
जथो
टबल
थोनो
थाजोब
दाज
दबला
नना
फला
फरि
फबला
फनायनि
बबा
माग
रास
रथʼ
लाजोब
शनि
सलि
सती
हला
##फयो
##िक
##न।
##यान
##मना
##वावनो
##ीज
##ge
बिसिना
##ामानि
##बोबाय
मोनलायनाय
##बायानो।
सिरा
सिमानि
सिलाया
##थिस
सानथि
खालामबावनो
माना
##लिखौ
##ावनो।
बोबला
##ियाव।
##बलावा
अनाग
गिनो
बसबाबा
##थारबाय।
बिबथि
हमदो
गोजाननि
हरन
लानाननो
गाबखʼ
फावथाया
गाराजो
दानाव
दानथार
दोनो।
##नायखौ।
गरद
रायलायनाय
फिसाफोरखौ
नाजायो।
खोथायाव
जानजि
बिदिबादि
लबनायखौ
मोदजो
आवाज
गमाम
अजद
फानज
फाननो
बिहा।
जाफिन
दायखौ
##बरा।
सफट
फिसाजलाखौ
फरषट
साइक
सपतमबरखालि
साफरास
जोमया
दामनाय
सिनदर
नगौ।
रानदि
मलनजो
ददननायाव
सिमाङाव
##ram
बरखादो
बरखाङो।
हलारामा
गगया
फयाख।
##ord
राहाजो
जायखिजाया
मोनाबिलियाव
सिथला
टबिलाव
शानतिखौ
मगलसि
टाउन
दखायो।
दरबासिखौ
रजालिया
मिलिटारि
दाकात
किउरिय
गरीमउइ
27
ex
अव
अरा
असि
गफ
गथ
चन
जरा
जयो।
थागासिनो
नला
नाख
फिर
फʼन
बलि
बसोर
रिन
लम
लारि
लाक
सटार
सारिनि
हरि
##फबाय
##फदो
##नाजो
##गनि
##खादोमोन।
##पल
##ʼ।
##।।
##ut
##ul
##ig
##थिन
##op
##आख
##खौथʼ
##लादोमोन।
##फोरबो
##िस।
सानबाय।
सानति
जायग
##ाङानो
खालामगरा
होखराव
नायफिन
आखा
गोसोवाव
बाथवाया
अननान
मावनागौ
बिसोरजो
गयाबलाबो
जानाय।
गसरिनान
गाबो।
आलमि
दोनबाय।
दोनखोम
गरह
##फराख
लाइसि
नाजादोमोन।
गोमानाय
लाखार
बावदा
आगषट
मनजार
आलाइखौ
दसरा
जोनाव
##रीयाव
उदया
सिरि।
मोदोमा
सौव
गोगलयो
जिरायनो
दाहोन
गʼस
दाखोर
बाबवा
खफʼ
लानागौ
टरनस
भारताव
गोखरोङ
बिथिनिफराय
खाफालनि
नारजारीया
खगाया
अनसलि
थिउरियाफोरा
सोनारनान
हाथरखि
सोमखोर
बहननान
आचछा
दाफोदार
निउकलियार
सफटवर
जारिमिननि
45
au
ad
no
अटʼ
उप
उरिष
एड
एका
कसखौ
खरि
खाला
गिया
थयो
दासि
नदोमोन
नगासिनो
नोनाव
फब
फदोमोन
फगासिनो
मना
मागोन
याव
लट
लखʼ
शर
सगरि
हाराम
##फदो।
##लान
##लाबला
##सय
##जिय
##खायाव
##खलाब
##माना
##ʼल
##ʼस
##वाला
##qu
##ावार
##ोननि
बिखौनो
##लाङ
मोनबलाबो
मोनोबला
##रायनान
नोह
##दिम
होनाया
जोलाय
गावसिनि
बरफर
##िरिया
सोद
सोलʼ
नायगोन
सोराव
फिसि
आखथाइ
बोखानान
##खाखौ
राव।
बारनि
दरसि
बसा
थाखायबो
गोरा।
##खाया।
गसथ
दखथिया
##होबाय।
दाक
सबखौ
मिथिमोननाय
खनन
खनथायारि
दाना
गरय
गरलब
परफ
हाखौ
बाजाराव
मिनिख
बखो
जानागोन
बिखङाव
बाहायो।
नोजोरजो
बलखौ
बलसरिया
नारस
जाप
लबदो
मोखानि
थाबलाबो
थाङा।
मगनखौ
गोहोजो
लाबो।
##थामसो
नजानाय
जिरायनाय
होमब
खिथर
थफी
मानिबा
##ers
हाबफनाय
सावरायनाय
जायगाखौ
साहाखौ
जोमनाय
मोजाङनो
दरहागरानि
कमपिउटारा
थालिर
मसरीमा
जावलिय
बानायनाय
जौगानाय
सावगारिखौ
सोरखारखौ
बावदियाया
बसोआ
इयनाव
गनायथि
अलकानि
इराजि
लागोनायाव
थिउरियाफोरनि
रसारि
खानाइखौ
सोदरोमाफोरा
इनायनो
लोगो।
लोगोनि
लोगोनो
बायजोयाव
गोरबोआव
हमलट
##खबसʼ
गरनथʼ
थामथिम
दासानदि
अरखिया
खफोरथि
##gust
सावगारिया
डाइरकट
गमामायनो
august
be
अखर
अमबर
आउ
गगार
जमा
जागौमोन
टम
थया
थबल
थाजि
दथ
दालि
धोनि
नोमा
नलिया
फजन
मरा
मजि
ला।
लाङो
सखʼनान
##फरि
##नास
##नाइ
##नादो।
##जियाव
##टम
##तीया
##यास।
##दखौ
##वारी
##थनान
##कति
##उरि
##चन
##चल
##ri
##ारनो
##ाबाबो
##लागोन।
##ामी
##नानाय
##िननि
सिखौ
सिनो
सिजो
##लायदो।
##सिङाव
मोथो
##दोल
जोबला
खालामगोन।
समफ
समनिफरायनो
होदोमोन
##लिफ
थाखा
दिननो
हायि
रावखानथि
अननाया
##थायजो
##ारी।
हमदानो
मावख
सलʼ।
सलʼफोरा
जानायस।
होननाननो
बायदिनो
खरसा
##सरम
गासो
बनो।
लिरदो
बादाव
हादरि
परशानत
हिनजावफोरा
रायजित
रायलायनो
राइजोआ
हारिमनि
बानाजो
नाजादोमोन
बखि
होनायखौ
गानध
मनजवा।
बलशरी
हाजास
मोदया
थाबावनो
गदजो
एरबादि
गोजौनि
खावलाइ
सगराफरा
थनलाइयाव
##मती
गलʼवा।
##ागरोम
बिजिरगिरि
हारसिनो
खाबखौ
सावरायनो
लानथर
हिउ
इरागदावनि
साफाय
नायहरबाय
गोबाख
बनदि
गायस
सलʼमाखौ
##tive
जागासिनो
सगालि
नोथाखौ
सलʼमागिरि
बिलिफाङा।
अबिन
सोमावसारनाय
सोमावसारनायनि
किटस
आफादगिरि।
हागरायाव
बिलडि
दवानि
दाजाबदाखौ
बारगʼनो
जकटखौ
जवान
महाराजानि
सरकारनि
सागराथि
मानसियानो
गिखरथावना
दपसावफा
कौटि
हटलाव
नखʼर
गोसोजलिद
थाजिम
##कम
28
me
word
अबलाव
आनिफराय
आजाय
कान
काल
खमा
गलाय
गाफ
गिनागौ
जनानि
टा
तरण
धन
धर
धोर
नाह
नाङो
नला।
पराइभ
फलि
फाथि
फया।
फखरि
बौ
बलʼ
बफिन
बखʼ
भला
मय
माज
मसो
माजो
मगा
रा।
रफा
रोनाय
लक
लहर
लागोन।
साया
हनो
हसरि
हासो
##फानान
##सा।
##सायाव
##जʼ
##जागरा
##जादो।
##टाल
##याख
##दायाव
##महन
##हि
##हबाय
##us
##ir
##कास
##og
##धा
##ायण
##लाल
गोग
गोमा
##ासट
##ासाव
मोनायाव
##ानायस।
##िसो।
सानाव
##ालासिनो
नोखि
जायाखिस।
##बला।
##बलासो
खालाम।
बरजा
मानिना
थाखानाय
फिसाय
गोसोया
हायाखमोन
##गिनि
##ाजोबनान
दरगा
बिबौ
बिबथ
मावदो
गोराय
गयथिखौ
गसङ
दिह
मगथाव
बनिनो
गोदाना
मिथिख
मिथिगा
गारिया
गामसा
खामसालियाव
आइया
हादाब
परदि
परसन
जोबबाय
जोबनायाव
जोबसर
रायजलायनाय
लाइफ
अरह
##सिन।
बाजिनि
उनदगरा
आखौ।
खालामनो।
रजानायनि
##जोबबाय
महना
गोमसार
दमाल
नागिरबाय
रमनिफराय
लबʼरट
हाजोनि
दाबसयाव
खरʼनि
थार।
थारबला
हामला
हामबाय
मोननजो
मोननसो
जʼरास
साखा
सदान
थामफ
हाखोजो
नजागोन।
अलख
दाहानि
सपताह
सपतमबराव
थलसि
राहाखौ
लाखिनाय
थाइन
थिननाय
नरना
जोहोलावनि
बिरह
राननान
थासʼ
सामलाय
सोमबोरा
ददनगिरिफोरा
बिथिआव
नोगोरमानि
फोजोबनान
गोबराम
बोथोराव
बोखाव
बखवगान
फाहामसालि
बरायनो
बासा
अलकश
गलाफ
पारटि
कासत
पाटि
आयदाखौ
कमाणडखौ
सिबिनाय
बानथाखौ
उखनद
कलाश
हागरानि
आरतिया
सकसपीयारनि
बारहखा
मावरिजा
फालागियारि
नील
कषण
ममʼरि
गोनोखोआरि
अदालगरी
लानथरिय
भलादिम
अख
अलिम
उत
खरा
खथार
गासिनो
गाफा
जथ
टन
डʼ
दिस
दथार
दबाव
दबलाबो
दाजानाय
नबाय।
नाङो।
फाङा
बहर
मख
मरि
ममानि
रडि
शरी
सवा
सयार
हिर
##नाबो
##नोनो
##गारि
##गलाय
##गदाव
##सान
##जय
##जरिय
##जियो।
##ताव
##यनि
##दल
##पारा
##ागरिनि
##ादाव
गोबाय
##ासाद
##ाजो।
मोनगरा
##रायनो
##बायाव
##थिरा
सानसो
नोसो
गावज
बरफ
बरमा
##फरायनो
सोङ
माननि
हाबनो
नायज
लोगरा
दिनाव
आखि
बोयो
हायना
बरʼफोरखौ
रावजोबो
बायजोनि
थानायावनो
बाराव
मोनसिसि
##बरसो
गाबदो
गाबजरिय
दखखौ
गोदोन
गोदोना
आलारि
दावसि
ओखारो
ओखारनो
ओखारो।
दोनह
आफोद
गामब
राजि
बिजनी
##फरानो
पराना
परदी
सावखल
खोनानाय
##सरिखौ
रायदाव
##फराइ
लाइट
बाज।
मिनियो
खोमान
गथʼफोरखौ
##ागराफ
महिनि
बिथराइ
नागिरबला
फावथाइ।
रमान
लबया।
मनʼर
लानाया
##राइभार
जाखाफ
हामबर
खानथाल
खावनान
खावलायाव
सगराफोरा
हाखराव
थानानि
मोननबो
सिनायथिखौ
##षटर
खौराङा
थनलाइखौ
लाबोदो।
राजाखौ
थलग
बिलाइनि
थफला
डिटक
गोबावनि
दबलि
सोरजिनो
फोथायखबसʼ
टरज
बिनानावनि
दरहासाद
बहरा
बहरो
##tic
नोगोराव
बनदाया
लागासिनो
फरायसाफोरा
खाफालखौ
बिदाखौ
बखवगास
बखवगाथाम
खलमो
एफागराफ
नहाद
खानाया
खानायाव
सालिसाव
सालिसनि
हाबहबाय।
लाजिया
हौवानि
रगिना
सयाराव
टराइबलफोरनि
सनापति
आरतिया।
बिगियानगिरिफोरा
बियाद
राजखानथिनि
सिलिखार
your
थादिनि
गगरब
चिततर
कगरस
साफरासी
अमबराग
अलिमपि
al
se
एरा
एनज
काज
खसिय
गनान
गियो
टरि
दसि
दामोन
दानायनि
दागि
नस
नदो।
नसन
बनायनि
बनायाव
बगिरि
बपार
भरम
मा।
लाथ
लगाय
लथर
वब
सामा
सनट
हदा
हखा
हखम
##नथाइ
##गरायाव
##लार
##सियाव
##जाबाय
##रन
##यास
##मा।
##पटा
##id
##की
##oc
##ter
##ानागौ।
बियाव
सिह
सिगि
सान।
सानखो
साननागौ
होनागोन
जायफरा
जोङो
जोलनि
गावसर
खालामनायखौ
मिज
होबो
जिरा
जिङाव
हाबाव
लोबाय
दिन।
आखफोरा
गोसोवा
बाथरम
बरʼखौ
रावआ
##ारीखौ
लोगोफोरजो
बारनो
मोनसनि
दरइ
##थाराव
##थारदो।
बिबादि
हमथा
##बरʼ
मावा
गोरानि
आनि।
गोजोर
हरम
बिसोर।
गयाजास
गसव
##होयो
फारनजो
सरजो
सबख
जानोस
मिथिनाय
##सरानो
दोनदो
फरायगरा
जौखौ
जौसाय
बनोथʼ
लिरनायाव
जिउवाव
हादोमोन
जोबनान
हिनजावफरा
##सिनाव
राइजोफोरखौ
##थाव।
बाजा
बानदा
##ामोनहा
मिनिनो
मिनियो।
लायाबला
गाजरिय
खोमदोना
फोरमायगरा
सोदोब।
हारड
होनायस
गलाब
नोजोरा
बलक
जाति
गिदिबाय
थाबथ
खामानिफोरखौ
एरख
अजाया
खानथिनि
खायनो
सिखलाखौ
बिसान
बिसकट
साननान।
लाबोयो।
गलʼखौ
बिलिद
##जलायनान
हालम
थाइजा
फरम
दाजाबदाया
##मारनो
लाजिनान
दरहागरा
बोरायखौ
नोगोरमायाव
##मिटार
थनफावथाइया
अबथिरा
फाथनान
होयोबला
नाजानायाव
फननान
जासला
नामबार
गोजाननिफराय
फदनान
मिथियो
फोनाजाब
फारियाया
फारसथिङ
गाडी
दिनसिमबो
सथरा
आरिखा
जिरादखौ
डरयि
फटʼखौ
थोजोङ
रनजारा
कनटरल
बबलियाव
सइसाइ
बिलिफाखौ
गावरावा
एपलिक
मोनजाया।
दाङाब
आबहावा
करणिया
सटारट
##सलʼ
60
ch
cl
dos
ms
or
अगर
अभार
अखरानि
आलि
आशा
औवानि
खास
खसार
गण
गागि
गटाव
ज।
जाथि
जनिबो
थम
थगोन
दउ
दायाव
दबावो।
दागरोम
धम
ननिफराय
नगोन
पाल
फाद
फनायाव
फनसो
बदोमोन।
बमार
भाव
मबर
मङाव
मखोम
मरनि
लबल
साथ
सनदर
सनानि
सगरानि
हनद
##फब
##िनो।
##नाल
##बनो
##बिन
##बना
##लला
##सवर
##जाल
##जादो
##त।
##तिया
##यासो
##खगर
##मिना
##पराव
##si
##इनि
##कजो
##ानिया
गोय
##ाइज
मोनफिन
मोनबलानो
सिउ
सिलाय
##थिनो
##बाला
सानदोमोन।
नोगौ
होनो।
होनबा
गावसरा
खालामह
खालामदोमोन।
बरड
बरपटा
सम।
होगो
जिबार
सोरबाबा
गोसोय
गोसोखा
बोजोनि
##ासिगौ।
##थायखौ
##थायो।
बारन
गिला
थाखायसो
जादब
गोराजो
फोरखौ
हरदो
हरबाय।
##खरिया
##खायसो
गसनो
गसथि
गसङो
दखानाय
##गिरिफोरनि
आलौ
सबारीया
जानोबो
बोराब
दानथ
निद
हादोमोन।
हिनजावफोर
हिनजावफोरनि
सिखोम
##फराख।
अरग
खाराव
खारनाय
खारबोनाय
जाबायमोन।
रजाली
##जोबदो।
गजरावबो
सोदोबजो
होनायस।
गोमाज
बावनान
बावसो
बाहायनायखौ
गाजरि।
नागिरना
आलाइया।
गलम
गलनाय
फावथाइया
आथिखौ
बोसोरस
बलानाय
फिफा
जाखानाय
##ासिन।
गदाइ
उदनि
थारला
बखवनो
सपार
सानसनि
समायसरीया
बिदानि
बिदाया
बाहागोखौ
साबस
मलगखौ
जʼय
जʼनान
जʼयो।
थाबायनाय
हाथियार
सोलोथाय
गʼलाम
जाबर
जाबावनो
हालव
हालवा
बिजिरगिरिया
मानिनान
माराव
##हाबनाय
मासटार
टिवा
##सालिया
टरकटर
राननाय
जालाबाय
सजगराय
जौगाखा
आगोलनि
लागोना
लागायनान
गोरलय
बोलोजो
बसोआव
बखवगाबा
बखवगाबर
आनदासाव
हारसिङनो
नमबरि
इयननि
हागारिया
आनारामनि
गोबराब।
फाखरि
हाजोआव
लिरगिरिफोरनि
जासनो
खावलायदो।
हौवासा
सयथि
कामर
जासिगोन।
डाकतार
महनलालनि
सकसपीयरनि
comp
दोनथʼनान
गरनथ
जोखलोब
दगारखौ
मबबा
हरबिलास
राजखानथियारि
नमारगौ
थादिनि।
गगलस
गोजासरिव
पानजाब
सानबोलाउरि
बालादशी
हरबिलासा
खाइला
होमबाना
पराइभट
मनʼरनजन
डिटकटिभ
मनजलानि
an
are
for
अनो
अकत
आहम
इसारा
खोर
खरो
खगानि
गिन
गराय
गटनि
चौ
जो।
जथा
जलाइ
टरा
डक
दगा
नोर
फथʼ
फालाय
बोन
बाबा
बागरा
बारिनि
बफिनो
बटल
मण
मसर
लागरा
सलिम
हालि
##बी
##जम
##जागोन
##भल
##दाजो
##दाबाव
##पाल
##se
बिट
##लाजो
##ामो
##ामाव
##नानसो
##ियालाय
##ाखानाय
मोननाव
मोनथोर
मोनखाङो।
##बायनो
##बायदि
सिङा
सिथर
साननायनि
नोखौनो
##सिगौ।
होनलाय
होननाया
जायोमोन।
गावनाय
खालामफ
बरनाय
##नाखौ
सोला
होलाङो।
हाबला
हाबा।
नायग
नायथि
लोहो
सोरम
आखथायनि
बोयो।
गबिन
बारग
बसागि
##थारगोन
बिबानाव
मावना
मलगा
गोजोन।
##बावदो
गसङो।
गाबखराव
बङोबला
बङाखिस।
बखौलʼ
दावख
दावखो
फारस।
महर।
सबआ
गारहर
गारामा
ओखारबाय
आबरा
जौवा
खामाय
खामफा
बिजनस
जिउवा
गरलाब
परदश
समाव।
रायनो
गोदानखौ
अरखौ
अरदाबाव
बानानि
फोरमायो
आद।
राभा
आरमि
हारट
हारियाव
##खोमानान
मोसाहारि
नोथामोननि
आथिनि
रमाल
बलट
लबया
गिदिनान
##रीनि
##नागौनि
हागौमोन।
खबज
मदाराम
रिकसा
सगरा।
मालायजो
लिनान
गोगलबाय।
गोगलसोनान
जाफङ
थानागौ।
हाखोआ
नजाथ
बिसख
फबायखौ
आनारीनि
जाबोनाय
हालिया
डिजि
बाबराब
दाजाबनाय
दलद
बिजाबनि
सिखारो
खिनथाफ
##परट
सानबोलाव
जारिमिनाव
गनदरा
सालाया
बजास
थाखोआव
थरस
सजनाय
सʼनानि
अमर
अमित
आलाइसरि।
सवारिया
गोथौय
राखाउ
थनफावथाइयाव
बोखानो
खलमनान
समबारनि
समबारवा
##enc
सियाराव
मावफनो
फाफि
कलजनिफराय
काश
जालादो।
सोमजिनाय
बजायो
रिसारखौ
##लबथर
दहायनो
अनिमाय
अनिमाया
तितागरिनि
गथायनान
हाजʼवारी।
परमधरनि
नहरनान
मोगथा
होआ।
रजालिनि
अगब
अनजिमाया
जवारि
हमलटा
हमलटनि
मडाम
गिबियावनो
दारʼ
रलव
windows
खनसाया।
बिदिनथि
हाफाय
बबलियावनो
माउजि
खामफलाय
रमायना
एपरि
मनʼमहन
इनजिनियारि
आजावनो
सानजाहा
सोरजोबा
आमरिकानि
##तनतर
बरगयारी
दबलियाव
गहना
##igh
परफसार
चिततरनजन
जिबारल
अनिल
80
ac
de
dis
sh
sp
sol
wh
आना
इराम
एषट
ऐखालि
खिस
गथार
जफ
जवा
जनाया
जलिनि
डी
थ।
थरि
थोनाय
दोनो
दाङा
दलो
दस।
दगʼ
नहा
नाबाव
पट
फख
फबर
फबि
फदोमोन।
बदा
बयो।
बबर
बणड
भम
मकत
मइन
रसा
लस
साथि
हड
हबरा
##नड
##बाल
##जी
##रानि
##पाव
##पखौ
##हरा
##ङारि
##चा
##डिय
##आल
##ab
##ानथि
##ानदि
##खौलाय
बिथिनि
##लागोन
##ामानो
गोफोन
मोनबो
मोनननि
सानखालि
सानफला
नोदि
##लायदो
होनजायो।
जायाखिस
खालामदोमोन
बरलबथर
होखरा
होलानाय
##लिब
जिगाब
हाबनाय
नायनि
नायहाब
##जिक
सोरनाव
आखʼ
आखला
बाथाव
##नावबो
बारजो
दरस
##गाडʼ
मावमोन
मावगोन
मावनायाव
मलनि
मलानि
मलियाव
फोरनि
हर।
बिसोरहा
##खायो
जानायमोन।
लानानसो
##बावनाय
गसयाव
गसलायनाय
दिग
दिख
गाबदो।
गाबनायखौ
##होबाय
आलम
दावसा
गारनाय
खरनान
ओखारला
ओखारदो।
##लोबनान
खनला
गाहाया
फरायो
जौस
जौमोन
राजाजो
बबावनो
गरोम
नʼखौ
खारल
खारद
बाजया
उनदनिफराय
जनाजो
जनरल
गथʼफरा
खोथ
माहारिया
जानजियाव
हारियारि
गोमाला
आसʼ
बिथाख
बाहायनायाव
दमाया
गाजरिनि
माइकर
मोसाया
नोथामोना
##कटरनि
बलसरी
लानायस।
थाबलानो
फिफ
जाखाबाय
दोगोन
खबनि
हामबरा
##थियो।
##थियाबो
फसाली
फसथान
सगराफोर
साबाइस
दायो
थनलाइगिरि
सिखलासा
माहाजोन।
हाथाव
सखनि
गाहाय।
खिला
फबायनि
जाथाइया
खाफाला
जाबोनो
हालो
195
थाइजौ
फिसाजलानि
बसमतारिनि
सोलायनो
सोलायो।
मारटि
रोखोमस
जायगाफोराव
जोहोलाव।
बजबनान
मसखा
जनाफोरखौ
थाखिखौ
##सʼनो
##फायो
गायद
जालानाय
बाइजो
बदरनि
गामिनिफराय
मवाखौ
ससारखौ
मखʼनाय
मनथरिनि
सगिना
रामनाथखौ
लागो
बथारनो
सवामि
राखाव
रबगरा
गाइखराव
फालागिरि
बाखरि
ओरबादि
नवसि
दावहार
##our
हादरखौ
बिमाजो
गलामोन।
पारट
नायगिरनाय
थिखिनि
थिखादार
लावखार
थोरफो
लरना
मोनथिनो
परमधर
गाखोनाय
##सयावबो
गागलोबनाय
मोनाबिलिनि
रादाय
रौनिया
हाबिला
बोराइदब
मवानि
साथामसो
उखनाय
जातराग
##गासयाव
##ilo
कनटरा
एमबवा
इसोरनि
बिलोगो
##ace
राङारि
खोमोरनो
इजज
लकषीम
बोखारनान
थाथोस
चीननि
सभानि
इनजिनियार
नटवार
परिषदनि
बरकफ
सोदोमसरि
दबरद
ककराझाराव
जोबथारनायाव
साफरोमबो
उदराम
गरिद
थासानदियाव
trag
##quy
दाकटार
किटसनाव
कासतमार
गोनोखोआरिफोरा
टनसन
हिरʼ
एपलिकसन
एषटराग
70
su
अउ
अराव
खावनो
खलाब
खाउ
गिस
गटखौ
घर
जनि
टप
टबोल
ताल
थद
थनि
थला
थखरा
थनोस
दला
दथा
दहम
नथाइ
पिस
फखाया
फफानाय
मक
रावनो
राङा
रकर
लालाय
लाबला
लखरा
वा
हसिय
हथा।
##फा।
##फलि
##बखौ
##बाज
##सक
##जाह
##जाजो
##रक
##टिन
##तनि
##ʼहाय
##हानि
##क।
##ङनो
##शननि
##धय
##bm
##ver
##ww
##ोनागौ।
बिनाय
##नोबा
##ामिस
##ागाव
##बोबाय।
मोन।
मोनाखिस
##रायना
##ाहोनाय
सिक
सानना
सानसरिया
##ाला।
नोबादि
##लायगरा
##लायनायनि
##लायनाया
##सोगार
मोबलावा
##ाबोला
होनबलानो
जायहा
जोबाय
गावहा
गावबरानि
खालामा।
खालामजानाय
बरज
बरनि
समनिफराय
सोहरबाय
मानस
मानखौ
मिलौ
होबलाबो
हाबलाङो
नायगि
नायनायनि
नायगार
नायदाव
लोङा
आखालाव
गोसोखानान
नाथाय।
##नाव।
बरʼवाव
अनसि
##फोरखौ।
##गरा।
##थाय।
##थायाबो
बारʼ
बारसʼ
मावबाय
आनियाव
सलʼब
गबनजो
गयाल
मगनाय
गाबनायनि
दखवा
दखाङो
बङा
फावदर
बखौसो
थिम
सरफ
सरो।
सरावनो
मिथिहोदो।
गारियाव
बोरथो
ओखारलाबाय।
दोनबाय
##गरोम
फरायो।
आबया
निखाव
गामोन
गामाखालि
लिरगिरिफोरा
आइलि
समावबो
जोबनायनि
सावख
अरनान
फिसाफोर
खारगʼ
खारखोमा
नाजायो
जननो
रजाफ
सोदोबआ
बिफाङाव
आराग
बिखानिफराय
बावहाय
जाहोना
जाहोनाय
गाननो
##सनसरा
आथिङा
रमना
नारा
नारायण
सिगानिफरायनो
मोखरा
फिट
नोसोरनो
नोसोरबो
दोल
दोगो
एरषट
बागलाय
बखवगाडʼ
गमामा
जोनोमगिरि
ओखामखौ
सगराजो
सौह
सौरा
हगारसार
बदनाम
फिनखौ
सिखला।
नागौबला
बिगिय
बिसनायाव
सोलोजो
ददरया।
थलगानि
होमबलानो
##ाउन
बलाङो।
इसादि
बिजिरसालियाव
बाबासिन
साइखल
लाफानो
दाजाबनान
जारिमिना
नरशा
बिबारखौ
बिजाबाव
अरायथा
जरावखि
सोरजिल
राननो
बजोनो
गोबास
हिसरि
थाखिजो
गोलनान
माहाजोनखौ
फिसाइया
जालला
सामबराम
सोनायाव
जावल
सकरल
गोरोनथिखौ
रोङाखिस।
सिमना
जिललायाव
खनसबो
फोसावदो।
सवारिनि
जालायखो
नारजारीनि
सोमावसारनो
##नसोनि
रायजलायनो
बथलखौ
गवाहाटीयाव
फननागौ।
लोनायनि
साइकलजो
दिललीनि
##जराब
साजायनान
नोमफाया
हानजाखौ
खालायनान
बिषनि
आयदाया
बिनारामनि
परमधरा।
अपारसन
खानथिजो
रवाथिखौ
कमाणड।
##होनायनि
जागायनाय
गागलोबनायनि
##सोमनान
ओखारबोयो।
टबिलनि
आरिम
सिफायनान
ससकत
फावथिनायाव
खामफलाइ
##ity
बिहावखौ
बलासियाव
मोसाहारिनि
जौगाखानायनि
ओनसोलफोराव
अजाखौ
बाथरायानो
फालागियाव
हजरिखाव
एबसवा
दोलोआ
मोगथाङाव
मनथरिया
अनागारि
सावखलिया
चौध
टराषट
##ight
con
cap
it
mo
pa
un
आथर
आबराम
इट
खज
खहाब
गानो
गरोब
चा
चार
जनाय
जथʼ
जबरा
डटा
डराइभार
थबाय।
थालि
थगर
दाथाय
दाथा
धना
नाद
नाबाय
ननायाव
नाथाव
नहरबाय
फनद
फवा
बइ
बष
बश
बफा
बगार
बनदा
मडि
राब
वरल
सबाय
सबा
सगर
सथाब
हनान
हसि
हटल
##फनान
##ननाय
##बान
##लारी
##लानिफराय
##सजो
##भिस
##ट।
##दियाव
##दारा
##खादोमोन
##हार
##हाबा
##ies
##ial
##har
##वाख।
##ी।
##ीक
##ड।
##डमी
##ru
##शी
##ारस
##ारियाबो
बिरि
##ागरो
##ादनि
मोनि
मोनानि
मोनफरोम
##ानायजो
##रिनो
##ानोथʼ
सिफि
सानफा
सानसर
सानगोन।
सानननि
##सिगौ
होनथ
होनागोन।
होनोबला
जोगार
खालामखो
खालामगासिनो
बरम
##लʼसो
##नदो।
होलाङो
नायदि
दिना
सोरबाया
बोल
बोय
बोथरोद
गबʼ
हायार
हायाखमोन।
बायो।
अनफाव
लोगोखौ
लोगोफरा
दरखौ
बसदि
आनिनो
फोरोनाय
हरनायनि
गय।
जानायजो
##बावनान
##नायाव।
गाबग
जराब
दखʼ
बङाख।
फावजो
सबाइ
मिथिहोनाय
दोनखार
निह
गामबार
जौमोननि
खामगलि
बबदि
लिरो।
लिरदोमोन।
बिजोनि
बिजाथि
आइज
गरज
##फिनगोन
##खʼनाय
##थावा।
लायनान
थनलाया
नाजाय
नाजाबाय
खोमसिया
##टिकल
कमदि
सोदोबफोरखौ
बिफानिफराय
महननि
दिनथिनायाव
आरजि
आरʼज
हारा
##गलनाय
गोमाल
आसथाम
बफोरनो
लाखोम
बावय
बावखगरि
बाहायदो।
जाहोनान
गानदा
नागिरदोमोन
मोसाय
मोसानि
नोथाङ
आवथायनो
गिदिबो
लानाय।
दङमोन
हानायमानि
फिथर
उदाय
उदखार
नोसोरो
खरʼवा
दोहो
थारजा
गम।
खानथिखौ
फानथाव
गोजौयाव
फसालियाव
रिकस
मोदोमफर
##लाबादि
लासय
हगारनो
हगारनाय
खायदा
लाबाव
जʼखाय
बददि
समाजखौ
सिखलाफोर
सिखलाफोरनि
थामजि
हाखोफोरनि
बिसाइ
आफाखौ
जिरायबाय।
गलʼआ
राजाफोरनि
##खानायाव
##ागिरिनि
जाथाइयाव
बोहथिनि
जाबलाबो
सफबाय
थाइग
इसल
थिननान
नायजाबगिरिया
आबोथʼ
नरस
लानागोन।
लानथाया
खिनथानान
गाहामनो
जोहोलावा
खदरि
दाउद
बजिय
गोबा।
बनध
बहाथो
थालो
2009
2007
बदरखौ
आमो
सरासनसरा
बिखाखौ
सजगिरि
##फलानान
ददननाय
अमल
बानायनान
साननायस
नोगोरारि
तलारामनि
गोसोआबो
आगोल
बथारनायनि
रवाथिया
रबती
अजयखौ
बोथोरा
अबनि
खनथाइनि
खमजलाय
सोमावसारनायाव
आइजोफोरा
दोरोद
अनसम
रʼमान
किरि
किलʼ
थाहो
बरायनान
गाबोननो
ओरहाय
फफिननो
फफिननान
थौदो
इयनखौ
बाजिनिफराय
सावगारि।
फजानि
बगखौ
मिजिखौ
सिमाखौ
फाखा
सथरखौ
खालायनाय
मोनजारोङ
कारजि
मिनथिया
सोनायनि
हाबहनान
मोनदाथि
जथममायाव
सिबिनो
##ted
समिलानि
बोराइखौ
जासिगोन
बायजोआव
बहमाव
बथिगिरि
फोसाबनाय
गिबिसिन
फालोस
दखायो
हागरामा
##ाफिननो
आरतिनि
##cto
जाथोस
बिनहारीखौ
रादाबखौ
खामफलायाव
खनाशानत
बिहावनि
मबाइल
मावफारियाफोरा
गालानाय
नमारनो
सिखाउ
गिखरथाव
खिनथायो।
मामाय
रमायश
इजराइ
इलिस
खखला
जानगाराव
गोजासरिउ
सरखारनि
ककराझारनि
पलिअʼ
वारड
बायहरायाव
बदारवा
plot
एकाडमी
धोरोमा
लबʼरटरीयाव
नायजाबा
हालमाजि
डकमनट
मणि
गबिनद
29
date
ibm
octo
अभ
आदर
आनो।
आलाय।
इम
इमार
उथ
उलाफ
एट
ओथियाव
कडार
खराय
खानि
खवा
खानायनि
खाजि
गयो
जइ
जा।
जोना
जारा
झाल
डन
डाय
थजो
धप
निन
नानायनि
नबलानो
पलास
पावार
फथि
फाउ
बखरब
भमनि
म।
मी
मसिन
मागरा
माथा
रगा
लासि
लोनायाव
शक
सबर
हानान
हबर
हसिया
##नावनो
##ब।
##बाइ
##लिर
##सब
##सप
##सिस
##सनाव
##टमनट
##दोनि
##दारनि
##खलाय
##हो।
##हागौ
##iv
##डन
##डिस
##ment
##tain
##शि
##ानागोन।
बिना
बिमान
##लामबर
##ियासो
गोमाय
मोनदा
सिद
सिङावनो
सानाखमोन
सानाखमोन।
जायफोरा
जायाबला
जोङो।
जोबलाव
गावो
खालामनाय।
समप
##नदन
##ागौमानि
हाबबोयो
लोबला
##निफरायबो
##हरदो।
दिननिफरायनो
सोरग
सोरगो
आखजो
बाथा
बाथल
हाय।
हायनाम
##गराफोरा
लोगोआ
बाराबला
मोनस।
बसननि
थाखायलʼ
बिबसार
बिबाना
बिबारा
बिबʼनि
मावबला
##मोना।
फोरा
फोरोनो
बाथराजो
गयनि
फोदो
गसाव
मगʼ
जरम
दखादो।
बनिबो
बङाख
बङास
आलजो
दावखा
दावबʼ
फारियाव
महरना
सरम
नागिरा
मिथिगाय
गाराङ
ओखारबोनाय
खननाय
दोनखानाय
गाहला
फरायबाय
फरायनायाव
फरायगराफोरनि
बनोदि
लिरदो।
लिरनाया
सावनाय
खोनाफ
##फिनदो।
अरनखौ
फिसाफोरा
खारो
खारला
गोबाङानो
बाजिसिम
उनदबाय
उनदाहा
उनदगरायाव
नाजानान
नाजागोन।
नाजागासिनो
कमन
कमिसन
गथʼ।
गथʼफोरा
जादोबलाबो
खोबनान
बिफाजो
माहारियाव
दिनथिनायनि
बयजोबो
गोमानान
लाखियो।
बाहायनायनि
जाहनो
जाहाज
जाहदो।
गानहो
##बारियाव
आग।
नागिरदोमोन।
माइल
##थोस।
##कटिस
बलाबाय
नारगरी
आवाराम
आवगरि
मनाल
फिल
फित
जाखादो
##णडार
हागौमोन
बागराय
मदन
मदरा
गमया
हामथार
##थियो
मोजोम
बिहार
जोनोमनि
समायसरी
सौसि
साखि
गोनानि
थाफानो
हाखोआव
सायनास
दाहो
गʼदाय
राजाफोरा
दरजाजो
थोआ
हालिया।
सफनाय
सफायाव
डिभ
डिमा
थिननायाव
फिसाजलाया
फराम
थवबलाबो
मारति
मारती
मासनि
साफि
करट
बफारि
दबथाय
खिनथानाय
सिनद
टरयाव
बबावबा
लाइजामनि
लाजिनो
गोलाव।
लाहारीनि
सानथरिनि
सिगाङाव।
बहस
सोनाया
##फलाबाय
##गावनि
##टीयाव
बनदानि
बरा।
गोरोबनाय
आनजादखौ
दयारी
राखब
रबतीया
मनिपर
नागारनो
खलमबाय।
##ration
जसखि
जारला
फोरोगिरिया
फाहामथाय
दावबायनायनि
गोमोयो
काछ
बाजिबाय।
लोमजानान
अलकशा
फारिलाइ
##oun
बिमा।
फाइलनि
हारिमवारि
साहाब
नबमबर
नोमफानि
मोनहाबो
मोनजानो
जादोमोनबलाबो
राहाया
दाहाखौ
भटान
आबʼ।
सोनायस
हाबाफारिजो
मोनथिगौ
सालिसा
हाबहयो।
रफाथिया
मालाया
लिहरनान
जाबोदो।
कनसल
एरनोथʼ
गोदोनिफरायनो
##tem
दावगानाय
खदियाफोरा
होआख
सशानतवा।
रामोनदाया
लोरब
नायबिजिरनो
थाइलालिआ
सिफायनो
गिबियाव
सरकार
थगरिखौ
##ill
आरतिखौ
खालारखालि
दइसिन
लहना
फजʼनान
##ाफिननाय
सिथारनो
खोखलनो
गसाइया
जाजोबबाय।
थिसननान
पाकिसतान
बयनिखरइबो
जौगाखानाय
उथरिनो
थिराथा
इउनिट
राखानथि
राखानथियारि
ससरानो
गाथोनाव
आबहाव
भगिन
सिथाबनान
बाजरद
दरलायनि
आइकʼन
बदमाइस
फिरफि
उदयाचल
नोहालाय
अलखद
नीलकम
भलादिमिर
अलिमपिक
एनजर
करणियाखौ
निदाननि
अनिमाया।
solilo
बिथाखिनि
रावनोबो
बिगियाननि
किलʼमिटार
october
soliloquy
500
bo
he
my
not
our
will
yes
अखार
उह
उकि
उवाल
एला
एखर
एखम
कच
कपि
खाबाय
खखरि
जागौमोन।
जमती
झार
डबलि
तला
थिस
थसि
थनायखौ
थाथाव
दा।
दागरा
नख
नाब
नदोमोन।
नादो
नखायनो
पिय
परि
पाउ
फाम
फनाया
फकन
बोनाया
भल
मोर
मकट
मसरिया
मलिनि
माफा
मयानि
यमना
रदि
लद
लिस
लदि
लाथि
लखि
लवार
सङ
सानि
सदो
साबा
ह।
हवा
हयो।
##फबाय।
##फाबा
##नत
##सत
##सबो
##जग
##भष
##भाया
##तʼ
##तरी
##याबला
##पलब
##हानो
##हनो।
##ix
##किन
##उनि
##ीखौ
##षटि
##चनि
##ven
##ायार
##ायारि
##ायालाय
##ायासो
##ानस
बिनद
बिलाय।
बिपलब
##ामिन
##ामायाव
##बोदोमोन
##बोदोमोन।
##बोगासिनो
मोनखौ
मोननायाव
मोनाखमोन
##रोखोम
##ानोस
##राया।
सिगलाब
##थिजाय
सानफ
होननो
जायनो
बरथि
बरसा
बरखायनो
समफोर
##िराम
सोदोमोन
सोगोम
##ाफराव
मिञ
होगर
हाबलानो
लोख
लोखानान
नङास
नङादा
सोरखि
आखाया
आखलाव
बाथवा
अनगा
अनारिया
अनलायनायाव
##फोरखौलʼ
##थायगिरि
बारफनाय
बसना
बिबना
हमास।
मावदो।
गजाय
सलʼजो
##मोनबलाबो
##खरियाव
##खरबनान
एसनो
मानसिनो
जानायलाय
जानायखाय
##बावदो।
गसर
दिगरि
जरज
जरʼ
दखनाथ
बाहा
बङा।
फावनि
सास।
फारनि
महरारी
सरʼ
मिथिबाय।
##ाथिङ
राइट
राइफल
गारबोनाय
##सरिया।
गासखौ
खननान
दाननो
आफामोन
आबारीनि
थायाख।
जानानबो
हादरा
नʼआव
##फिनदो
नाʼ
हारिफोरनि
खारदो
उनदना
##ामोनबला
आखौबो
लायाख
नाजाबलाबो
खोमसियाव
##जोबगोन
जाथायाव
सोदोबमा
बयनोबो
आफादखौ
बिथायाव
##ङोबला
बिखौ।
बफोरबादि
दमफ
दमसि
दमारी
##बारनि
आगोमा
मोसाफ
साप
बलनि
लबनाया
दसनो
हानाया
मोननाय।
मोखथा
##नटनि
फिउ
जाखानायनि
गदनि
गदङाव
गदʼखौ
दाबोर
##जाबनान
उदासरि
बाटन
एमल
बखवनाय
हामगोन
##थियानो
फसनाय
रिट
रिख
बिसिजो
सानसम
##सिम।
सगराखौ
सगराफोरनि
साबगौ
नोखौ।
थानागोन
माखासया
बदल
थनलाइयारि
नजानो
बिसति
लाबोफ
लाबोबाय
सारनान
##थमनान
अलसिया
दाहायाव
दिहननायनि
खिथा
खिथिर
बिनदो
गनतनतर
इसबो
इसबा
इसलʼ
लाइजामा
थिनबाय।
सोलायनायनि
फरलब
सनमान
अजिता।
नायजाबखौ
इनसट
मारकट
दौल
दौनान
दौबलाबो
दौदिनि
करम
बिजाब।
बिजाबफोरखौ
हादोरनाङ
हाबाफारिया
बयावहाय
दाउसा
बिरहा
गनदामि
सानथरिफोर
##ine
गोलनाय
थबलʼ
2000
थरसि
सोनागौ
गोरोनथिनि
अमबरा
ससारा
जागा
##ाजोबबाय।
सगलाय
फोजोबनाय
बिदिबला।
आगोलाव
बालानो
फरायसाफोरनि
बथारनान
##सियल
जिबखरि
खोमसिनि
सलʼमागिरिनि
खʼना
जालायो।
that
आनदाय
जारड
दोरफो
थियटारा
रायजलायबाय
फफिनबाय।
जानागौबला
गनायनान
जोरवा।
बगलि
खायसबा
फयामोन
गोमजोरा
फिथाइखौ
मोनजाया
कारबि
नालिया
उजिगासयाव
मिनथिना
सोलिनो
बिनारामा।
गाखोनो
बिहामजोखौ
हौवाया
हʼगार
अनजाल
कमपानी
गौहा
लाउदम
खसिजो
फालिनायनि
एगारनाय
सशानतनि
गावबागाव
थाफिननो
दनदि
##गरोयो।
दोहोन
मासिखौ
##राकसन
डाइन
बबायदिनो
जजिगोन
सरकारा
खौसथि
मिनिटसो
खोनायो।
रहला
एइस
खोलाहा
बिलिरनान
बिबायारि
बथमनो
बयनिखरइ
गोलोमद
आमाइ।
##दिनथि
सानथामनि
जाइलि
जाइली
नौनारिफोरखौ
अकसिना
टाइम
दनदी
गोमोनान
जिगा।
दमासवा
सियालफोरा
जलाफि
बहायनो
सानथरʼहाय
सोमदोननि
अपमान
हाखिमा
सरोत
लगन
##घाट
सतीश
साइकलनि
किउरियʼ
गरीमउइगा
चनटार
आलमिगि
हारामज
मिनिखरो
डाइरकटरि
अबिनास
जवानफोरा
mean
words
परसनजित
बपारति
हरमʼन
##ency
एपरिल
इरामती
रकरड
हसियार
मडिकल
वरलड
हसिखराव
सिफिनिफराय
इजराइलनि
इमारजन
नीलकमल
डबलिउ
35
98
do
pe
sc
आलʼ
आवा
आखौनो
इख
इनि
इखनि
उम
उराय
उसि
एराय
एगोन
और
कालि
कानत
खसर
खगर
खादो
गिर
गगा
गराइ
गनखौ
गलास
गथाल
चयार
जत
जद
जासिन
जगाव
जलिय
जाजानाय
तरि
थबला
थगि
थबलाबो
थजासिम
थरायना
दाजा
दइन
धरम
नखरा
नलब
पपार
फʼ
फना
फनिफरायनो
फलास
बबलाबो
बनाया
बकट
बखʼनान
भबन
मघ
मसि
मनद
मदा
मथाय
मागि
माथाम
रक
राफ
रसार
लाया
लबार
लागर
लाथार
शव
शाला
सफा
सखा
सबिजिर
सरोब
हव
हथ
हलाव
##फदोमोन।
##नाबाय
##गब
##बासि
##सोमोन।
##ोत
##जाबाय।
##रबनान
##भानि
##टिया
##टियाव
##तिनि
##तरनि
##याम
##यदा
##योमोन।
##दस
##दत
##खागोन।
##खोनान
##माननि
##पस
##ʼप
##ʼनद
##ʼबनान
##ure
##इननि
##वौ
##थनो
##थानान
##आख।
##ry
##cell
##day
##ारक
##ारा।
##ाबारी
##ाबासिनो
बिसो
बिनाव
##लाद
##राज
##ाजिया
##ाइन
मोनाबा
मोनगासिनो
मोनमार
मोनबोनाय
##ालाबासिनो
##रिजो
##ानोबो
सिआ
सिदो
सानान
सानबलाबो
सानखौबो
सानगासिनो
साननायजो
साननिबो
##लायानो
मोबाय
होनबलाबो
जायामानो
जोगोन
##ाङारि
खालामाख।
समब
##लʼग
##नदोमोन।
मानिय
मिल
होफनाय
होबोदो।
जिखि
हाबो।
नायबा
नायथा
थाखिय
थाखियाव
आखान
आखवाव
बोग
बोथि
बोथो
बोथिस
##गोद
हायलाय
हाययाव
बरʼफरा
##ासिगौ
##ासिनो।
##थाइखौ
##थायो
लोगोजो
##ाजोबो।
मोनसिन
दरनान
बसर
बसबादि
बसमथ
##थारनो
##ालिगाव
##बरी
मावसोम
हरदम
##खरबो
एसबानो
रोज
जानायबादि
फोस
##बावबाय।
##बावनागौ
गस।
गसबो
गसलाय
गसलाखौ
##नायावबो
दिथा
दखाव
बाहराव
बनिखरइ
आलफा
दावगा
थिखानान
थिखानाय
सरला
सरनो
सरखाय
सरलानि
जानोहागौ
मिथिखा
खरखौ
ओखारलानो
ओखारलाबाय
दानथाम
दोननायस।
आबारि
आबारी
आबारीया
निखा
जौगा
थायाबला
थायोमोन।
लिरगरा
लिरनायखौ
बिजाबा
बादो
आइ।
आइननि
आइदिया
परश
परकटिस
जोबसरा
नʼवावनो
सावसब
नोनिफराय
रायफ
रायथि
##जाया।
सायाव।
सायावसो
खारसन
बाजल
बानखौ
बानबथि
उनदला
उनदनान
लायनाय
लाया।
खोमानान
बखन
जनता
रजननान
##जोबनाय
गजराव।
राण
सोदोबथिया
बिफा।
माहि
जानवारि
दिनथिथि
आरो।
हारावा
गजरजोनो
बिखौबो
बावनाय
बावसरोम
बाहायखानथि
आखाइया
मनज।
गलनो
रमाया
बोसोरारि
बलन
नारनान
गिदित
फिथि
फिनो।
जाखो।
जाखाबाय।
गदद
दाबियाव
जायोबलाबो
उदवा
एरनाय
थारखौ
बखवफाया
गमरखौ
अजन
हामनाय
फसनो
रिलिफ
समायखौ
कलपना।
मालायखौ
बाहागोआ
लामा।
जाफनाय
खायफाया
मलगना
गोथाङ
साखाथि
साखʼनद
##षटल
सिखलाफोरा
हाथरा
गोरोबनान
बिगमा
खाथियाव।
बिसम
आफाफोर
अलबार
गʼगा
थलगाया
##खानाय।
खिनो
लाखिनायनि
लाखिगोन
##जलायो
हालद
191
192
पलिसफोरा
फरस
लाफा
मानिमनि
हाबफनान
सावरायनान
सावरायनायनि
लानथा
##गरिनि
बफार
बफयो
सिखारो।
दबथायनो
सोरजिगिरि
खिनथाजोब
खिनथाहर
नायहरबला
बिनानावखौ
बजिस
बजिया
गोबाथार
दरहानाय
गोलल
गोलोन
फिसाइजो
2006
जामब
जालानो
##सलाबा
अखाफोराव
सामलायनो
हफाजाबाव
सकि
गोरोनथिया
रोङि
बानाया
बिथिजाय
धोरोमखौ
फालला
##दोनो।
फोजोबसर
सहखौ
खाफालानो
बथारनाय
सोलर
खोमसि।
गोथौव
आनजादनि
राखबा
बोलोखौ
खʼनायाव
जालायनाय
जालायबाय
बोथोर।
रिसारनि
##ral
##end
फोरोगिरिनि
खफोदखौ
बरखाङो
दावबायनो
दावबायनायाव
थौल
बथालि
बाजिनान
नाजानाया
दावहाया
##ound
पारटिनि
फाइलखौ
दखोआ
मसरिखौ
रिसारआ
नबीन
नोमफाय
फिसौफोर
बिहामजोनि
बिषण
सोबखʼ
नामा।
गोखरय
खवनो
पाप
##लदानान
बारायनाय
लिहरदो
सानसरिनि
फोथाना
जागायजन
मोनलायनायनि
जायाखस।
नाथाबनान
नालायनाय
लाउथि
होखारनो
ओखारबोयो
एगारनो
##शनल
बदिनो
बमाखौ
मवाया
थादर
1980
फोसाबनो
हकम
बाखनायथाव
दारनदर
रपसि
दानसलायनाय
खौसय
लहोर
परसाद
दखरस
comm
हाउसाव
इणडियान
अकटʼ
लाभ
फारागा
गोलोमसराव
अबलाउरि
मोदायजो
गिसिब
मारिनान
सथारनो
मसाहारीनि
नीलामबर
साजायनाय
थाखोमानान
खोनाना
जोबथसालियाव
जजाइनि
थागार
खौरागिरिफोरनि
बाटनाव
सोहोरनि
गलामनि
जागिला
लपनट
खोरोमदाउ
आरजलाइ
ass
हसपिट
जखाइ
फानजाम
excell
आउट
जोबलाउ
परदीप
सजगराया।
कामरप
हालिव
डिजिटाल
नाबावगौ
जातरागान
इजजत
नटवारक
बारʼलामफा
निखावरि
captain
होनथयो
अनफावरि
गामबारिया
खनाशानतिया
फिलटार
एखमबा
लाथिखʼ
दखनाथाव
फारनिसार
इनसटराकसन
इनिथौ
excellency
78
75
god
ii
ma
ro
us
www
आजि
एनि
एदाव
एनट
काब
कलʼ
खदा
खमाय
गख
गियो।
गियानि
घि
जक
जबाय
जथि
जाहा
टबलाव
ति
थाउ
थसʼ
दश
दोन।
दाथʼ
दिरिया
नबा
नगरा
नाबाय।
नाबला
नकल
नथियाव
फखो
फलिनि
बड
बसिम
बनिफरायनो
बोनायाव
बहरदो
भा
भन
भर
माफ
मामोन
ममाया
मखन
मजर
रखानि
लय
ल।
लफाव
लहरदो
लहरनान
होर
हखर
##ननो
##नाथाय
##नालाय
##नाबाय।
##नादो
##नाङो।
##बोन
##बियो
##लजो
##लदार
##सम
##सव
##समोन।
##जियो
##रखम
##तय
##यन
##यल
##यायाव
##यालाय
##खिया
##खाबला
##मनान
##पिय
##परी
##ह।
##ual
##ip
##वासो
##थामा
##चर
##per
##ys
##and
##ff
##em
##ect
##xt
##ोरा
बिरोद
बिशव
##ामखौ
##ागास
##ियारी
##ाखस
##ाखाय
##बोथʼ
मोनजायो
##ाल।
##बायो
##बायो।
सि।
सिथोर
सितरा
साननायाव
सानहाबनान
नोलाय।
नोगोद
होनदो
जायोमोन
गावो।
गावसो
खालामाख
बरखौ
बरला
बराथी
बरडनि
समर
समपत
सोबला
##ोनि।
मानास
मानिया।
मिलिय
होत
होगासिनो
##लिख
##लिउ
माध
जिगानि
नाय।
नायदो।
##जिबा
सोराङाव
आख।
आखथाया
बोज
बोबाय
हायन
हायिनि
रावफोरनि
बायदो
अनी
अनार
##थायानो
लोगोफोरखौ
बारथ
बारआ
बारबाय।
बारासो
बारानिफराय
गिनाया
मोनसखौ
बसम
बसरि
##थारनि
##थारगोन।
बिबाव
बिबोना
##ालायनान
गजरा
सलʼफोराव
मलमनि
हरगोन
रोङो।
फोजाव
सोमो
सोमजियो।
दिदोम
दिङा
दिगरी
गाबनाया
जरखा
दखरा
दखवाव
##गिरिफोरखौ
गोदाय
फावदिनथि
बखौथʼ
##होदो
सासखौ
आलनो
दावदाब
फारौ
फारनखौ
थिनो
सरज
सरनाय
सरखो
सरजानि
सबफरा
मिथिथार
बोराइनि
खरस
ओखारबोनान
खनरोखोम
खनरखम
##मायाबो
फरायखानान
फरायफनाय
फरायगरानि
गामिया
खामहाब
बबाद
लिरनायनि
##नायखौबो
बादोर
बादिसो
गरीक
परभ
परफल
नʼनिफराय
हिनजाव।
खोनाबाय।
खोनादो
सिखाङो
रायज
रायखानान
रायलायनान
कलका
लाइबर
##सिननान
राइजोयाव
सोदोबाव
खारनो
खारबोनान
बाजारि
बाजलʼ
बाजारनि
उनदयो
मिनिय
आखौसो
लायोबला
लायाजास
नाजाबाय।
बखानान
जननान
आदानि
कमब
कमफि
खोलो
सोदोबफोरनि
बिफानाव
माहारिखौ
जानाबाय।
जानाङो।
दिनथिफ
आरय
आफादफोरा
##हाया।
बिथामोना
बाहायजानाय
गाजरिसिन
गानह
गानथि
गाननाया
##बाराव
##खोमाबाय
मनजला
गलगरा
फावथाइयारि
उनथाराव
नोजोरखौ
बोसोरबा
लबनायनि
मोदान
आवनाय
मनदि
गिदिनाय
##नटाव
फिफानि
##णडा
##नागौबला
एनला
दाबोनो
उदखौ
उदास
बाकस
बापा
बाकसा
हागौमानि
एमनिफराय
हामसिन
हामथारबाय
खानथ
खानथिया
खानथियाव
मोजाथार
सपिद
सिरिस
रिफि
आदाखौ
बिहोम
जागोननि
जागोनखौ
ननान।
सानसयारि
सगराफोरखौ
मालायनो
मालायनाव
हाखो।
गोहोगोरा
लिटार
बाहागोयाव
लामाथि
सलगान
सिङाव।
जाफबाय।
जाफहोनो
सिनायाख
सिनायथिया
बदिन
रागजो
थाबायनो
थाफनाय
थाफानाय
फिनबाय
बाराखौ
सिखलाफरा
हाखोफोरखौ
गोजोनगलाय
##बराज
##फोरावबो
सोलोसालिनि
जिरायथʼ
दाहालाग
गʼथाय
थलब
खिथ
खिफि
फबाया
बलाङो
दाखि
दाखाल
बोहथिया।
हौवाखौ
हौवाफोरनि
##जलायनो
जाबजो
रामचिय
थाइलिर
डिजाइ
पलिसनो
थिनबाय
थिनदो
नायजाबारि
इनपट
इनसप
टिउ
लानो।
लानागोन
लानजाइ
बफब
बफारिनि
##लानायस।
दामनो
सिखारबाय।
फोथायनो
खिनथाबाय
सिनखौ
टरस
बदोदि
नगौना
रानी
सालियाव
बादलखौ
गोबाब
बनथ
बनथʼ
मसला
थासारिया
थासारिखौ
थासारियाव
##नानिफराय
थबनो
2004
जालिया
थरथि
भारता
आमथा
सʼना।
जावनान
सकणड
बिखायाव।
हासलाब
सगरायाव
महाराजाखौ
जौगानायाव
सोमोनदोआ
दयारामा
राखा
बिलिफाजो
रबिन
रिसारा
सनिया
खलमनो
गोहो।
गोहोमा
खमलाय
सोमावसारनायखौ
जसनो
हानजाजो
सियालनि
होफनो
फफिननाय
जालाङो
बासायनो
मोसाखौ
नहबाय
मिहिरखौ
बायदिसिन
गमभिर
गावसोरनो
सटʼर
सटाइल
##लणडनि
खायसया
होमबलालाय
फयाख
##लियाम
खानायखौ
हारिमखौ
हाइबरि
##किउ
नायगिरो।
मरगानि
थिखलि
हरखाबनो
अनिराम
लागोनानिफराय
गोसोखाबाय
गोसोखाङो
नालिया।
गोखरनो
सोलिबोनाय
दʼस
बमब
मोनदानो
मिथियो।
थगायनाय
थगायसला
सोदरोमाफोर
जाबोदो
जथममानि
कनया
आदबखौ
फोनानान
रगङाव
नाथरोद
##ist
खदियाफोरनि
जलम
माखौबा
हाबिलाया
हाबिलदार
गोनाथिखौ
मजबला
थाफिनबाय।
सथोनि
1984
गोरबोयाव
बिनहारीया
बथिनाय
कलाशा
थलगाखौ
इसिङाव
फावथिनाया
बिदिनथा
बिदिनथि।
जबद
जबाब
##टनसन
inter
बसागो
बसागनि
परससि
खोनायाख
बरामाव
नारजारी।
दरखङाव
खोखलनान
हाखरायनाय
बबलिया
बाउनाय
पाबलिकसनस
थिसननाय
गबनारिफोरखौ
निरामिस
बरिटिस
नोथामोनहा
थाबोला
बलाउस
नौनारिफोरनि
शिबराज
खिनथायो
जीउनि
अकसिन
आइय।
मसाहारी
बानदोल
रिगानिफराय
खासिबारी
बगली
फोरमायथिनो
सानजौफनि
पकटनिफराय
माइथायनिफराय
आनदोआव
जानगारनान
इनफरमसनखौ
सबिदा
महाभार
नोसाजो
भगिनानाय
रनसाय
लादाय
सहराव
दानसोरा
गरसबो
हाखिमनि
गोनाथार।
इनजराव
बकसिस
बाजरामा
हारावनि
फाखʼनाव
रासाय
शनिबारखालि
सिमाङावबो
गरीमउइग
हरिभष
जायगानिफराय
टरनसफार
अबलावरिनि
लकसार
गामबारिनि
खोमानानाय
##tical
जिरात
दउल
##sion
सिखोमानान
सोरमाङा
अमिता
बबराब
फिफटि
लकषीमपर
बरकफासट
##गरोमोना
नरसोन।
किरिरि
मिथिगायारि
इमारजनसि
31
em
go
li
sen
vow
अथ
अबल
अमत
आक
उफरा
उथम
उजर
एरि
काली
कटन
कबिन
खत
खनज
खिनि
खगल
खसाब
खाजानाय
गथाम
गलायाव
चाहा
चनदन
जह
जबल
जालि
जखि
जङा
जरास
टार
टकस
टावार
तद
थाबा
दनो
दिर
दलि
दारिया
दनदर
दाराय
दराखौ
नाया
ननायनि
नादो।
नवा।
पय
पषट
फक
फासि
फनदा
फबलानो
फमार
फगौ।
फवार
बानि
बनज
भब
मथा
मिसि
मकर
रहम
रगʼ
लनो
लसि
लना
लाखो
लणड
लफनाय
शच
शराइ
सादा
हाजोब
हजम
##फट
##फबला
##नाङा
##गस
##गम
##गानाय
##गिया
##लदा
##सोनो
##जिस
##जकट
##रनो
##रिया।
##टारी
##तरि
##ताया
##तमा
##याल
##मो
##मद
##मास
##पन
##पान
##पाइ
##हनायनि
##इल
##थानद
##थिनागौ
##ीता
##ङाबो
##चार
##चनदर
##डखौ
##डिया
##डिनि
##ak
##ara
##jec
##ान।
##ानियाव
##ोनागोन।
##ोरो
बिभ
बिश
बिध
बिया
बिनो।
बियावनो
बियार
##लाला
मोनहोनो
मोनाखमोन।
##फोरबादि
##ानोस।
##रायाबो
##ानि।
##ाहार
##ाहोनायनि
साना।
साननिफराय
सानथाव
सानोमोन
साननिफरायनो
साननसोनि
##ालाइ
##ालाखौ
##ालाङो
नोलʼ
##ारिनिफराय
##सिनो।
##दोसो
जायखार
जोजो
जोबाय।
जोबलावा
##ाङाख।
##बलालाय
गावनान
खालामोबला
खालामनागौ।
बरखानाय
बरबाद
सोफिनो
मिटि
मिथन
होबलानो
जिद
जिव
हाबर
हाबहा
हाबबोयो।
नायख
लोगोन
लोगोर
लोहोनान
##निफरायसो
##हरनायनि
फिसिनो
आखफोरखौ
बोस
बोसर
बाथद
बाथोन
बाथोर
हायखौ
बरʼ।
बरʼफोर
रावनिफराय
बायबाय।
अननाय।
अनधर
##गराखौ
बारजा
##ाजोबो
गिह
गिखानाय
गिगलनाय
मोनसबो
दरनो
दरबा
दरलाया
बसोम
##थारनाय
बिबदिय
हमदोमोन।
हमनायस
आनिया
गजसरम
सलʼफोरनि
सलʼगिरिया
सलʼगान
##मोननो
##मोनजो
मलक
गोजवौ
फोरोनान
हरखि
एसम
एसनोस
गययाव
गसनाय
गसरि
गसरम
##नायावसो
उनावहालाग
मगावा
गाब।
गाबखाङो
होननानसो
जरोम
दखान
दखानो
बाहो
बाहरायाव
गोदना
फावखगर
##साफोरखौ
##नजानाय
आलहा
##गौबा
महरजो
थिनो।
थिगिनि
सरिय
नागाफरा
मिथिस
मिथिसʼ
मिथिगाया
गाराइ
गारजानाय
बोरला
गासनि
दानो।
दोननायनि
दोनखम
##गरोनो
फरायसलि
आफायाबो
निजोर
थायननि
राजय
राजथानद
बबथि
लिर।
लिरबि
लिरनाय।
बिजन
जिउना
आइफोर
आइजोनि
जोबो।
नʼसिम
हाबाफोरखौ
हिनजावफोरखौ
##खौनो।
खौनो
सिखरि
सिखानान
##फरा।
##फिननायनि
अरखाव
##खʼनो
##जायि
हारिजो
खारलाङो।
खारसलि
बाननान
उनदलानो
मिनिथाव
मिनिटनि
थनथर
नाजा
खोमा।
फोरमायदो
आदसा
##जोब।
गथʼफोरनि
राउ
राकष
खोथा।
बिफानो
बिफायाबो
मही
जानादो।
आराम
होनायजो
##हाय।
गोमजा
गोमजाय
लाखानायनि
बावाख
बावगार
बाहायनाया
जाहयो।
आगद
##खोमायो।
##खोमायो
नोथाजो
रमि
रमखौ
रमननि
बोसोरन
थानानबो
नारसि
नारखल
लबनान
हाजिर
मनबार
हानायाव
फिलम
जाखार
नोसोरहा
नोसोरबादि
खरʼयाव
दोफा
दोखो
थारन
मदत
मदʼ
मदारामा
माखा
हामा।
हामगौ
हामगौमोन।
हाननान
##थियारी
मोजाबला
सिरिनि
मोदोमजो
पलटखौ
बिदखौ
##ोदान
साबिखौ
हगारबाय
खायफाबा
मलगनिफराय
थानो।
थानसालियाव
थानादार
गोथनि
सिनायथिनि
साखोन
साखरियाव
##षटबल
बदत
बदलाव
सिखलाफोरखौ
गोजोननो
सायो।
सारिय
जिरायनायनिफराय
बडʼनि
खिलि
दरजाङाबो
बलासनि
दाखा
थोगोर
बोहनाय
बोहलानाय
बोहबोनाय
खाफर
फिसाजोया
सफनान
सफगरा
फिसाजो।
फिसाजला।
थावरिनो
फरान
सना।
साइख
इनाइ
मानिखौ
##ere
नरकास
फागलिया
बिबार।
खोथाखौनो
करपर
करटाव
दामि
दामोल
सोरजिनायनि
सोरजिनायाव
फोथायो
फोथायथाव
जबलासिम
सिनथा
बयावहा
लाइजामाव
खदियाया
हायोदि
दाउसरि
दाउबʼ
जारिमिन।
बिरलानाय
लाहो
लाहारी
सानथरिफोरखौ
सानथरिफोरा
##ʼवा।
दरहानो
##ong
मलन।
मोसौखौ
थालला
##सालिनिफराय
गायनो
थाखोखौ
बदरया
गामिखौ
गोखरोसिन
सामोल
मवाफोर
मवाफोरा
अफिसनिफराय
सोमबोरनि
बवनो
जावरि
सिमाङा
आथोन।
बिबाननिफराय
खाथिनिफराय
मादावनो
सहि
बालनदा
फोसावनायनि
सोलोनो
सवारि
बफोरखौनो
बिलिफाङाबो
हाजʼवारीनि
अबस
मनिपरनि
नारजारिनि
सनिराम
खमबो
खफोदनिफराय
आहालाय
बरायनाय
गाबोननिफराय
फाफा
फफिनाख।
हागोनखौ
सिखावफोरा
लोमजानायनि
##ous
गगलायनान
खालाराव
##ory
दखोजो
##ाबिला
हनदि
साहाया
दानदिसनि
दासोम
नोमफा
लावथि
थिकखौनो
मिरनि
राहाय
राहानि
दागा
##ome
माइथायाव।
खवनाय
गथायनो
गथायनाय
पाट
##ard
रायलायबाय
रायलायनाया
सोलिनाय
सोलिगासिनो
लरड।
बारायनान
सालिसखौ
थिउरियाफोरखौ
आवगायनि
अपारशन
थगायनो
गनथङाव
नगास
बखवफाखौ
इराजनि
लाजियो।
सानसरिखौ
जागायजननाय
मोनलायनायखौ
कमपाउ
फरायसालिफोराव
गाडʼ
फालिनाय
मोगामो
दावगानो
ओखारबोदो
हाथाइयाव
डिसमबर
रजिखौ
फासय
बफरथायजो
नायबिजिरनायनि
आरिसरा
##ical
महाराजाया
ददनगिरिफोरनि
दोहौ
जिबौजो
थाइलालिखौ
मडल
मडिया
मडामनि
जीब
##olog
थागिदायाव
मोबलिबारि
मगलबारखालि
बिदिनथानि
बावदियाखौ
जोथिहा
आरति।
जरिजन
मोखाङावनो
हाउस
दथायहरनो
बोदलानान
रनजार
##दाबाद
एकसटनसन
मालाइ
बयनिखरबो
मानसियाबो
अबलाउरिया
आपनि
##सलाबनो
होनागौनि
सिलङाव
इनदपरभाया
बाथरायाबो
मोनथायखौ
होबथानो
होबथानान
बाङाइ
बाङाली
आसोल
ससरानायनि
रिगासो
दायनिगिरिफोरखौ
दलामनो
गिलासस
रोगौथि
इनफरमसनफोरखौ
बिसायखʼथि
##खरयबो
सरखारा
बादायलायनाय
नरशा।
अनदराव
गालादो।
थागरो
अनलखाया
बिगमखौ
भटियाफोरजो
खषटान
रनजित
सहरनि
रोगथि
दारिमिन
##खोनदो
##खोनदा
इनजर
हासिब
##ाफराबो
दानसʼनान
कामाखया
कामाखयानि
दाबाशरी
##ame
महिल
मागा
नाखरब
रिनसि
उरिषया
लखʼबनि
जावलियानि
फजननान
फाथिनान
गलाफी
बायजोनिफराय
गाबजरियो।
टरजदि
all
लगायनान
दाङाबाजि
सानबोलावरि
acc
लससा
बाइजोआव
एषटरागʼना
नायगिरो
बइजि
मीना
शकरनि
डिमापर
जरʼखा
बिसतिबार
जारडारीया
मघाल
जोगोनार
फोसावनो
हसपिटालाव
बदिनखालि
रासायनारि
vowel
मोगामोगि
08
34
32
ab
but
id
jul
kn
kac
king
on
po
pra
ser
ver
well
अध
अखन
अडि
आयाव
आमार
इनट
इकल
इलणड
इखरिया
एउ
ओथिखौ
औव
करा
काइ
कसा
कसनि
कʼरट
खनि
खाङ
खागरा
गनो
जगरा
जयाव
जखानि
जनायनिफराय
जफायो।
टकनि
टलिफ
डाब
थप
थलʼ
थखʼ
थामोन
थजानाय
थनायजो
थजन
थखन
दखार
दामा
दफाय
दजोबो।
धबरी
नानि
नबाव
नसा
नजायो
नफबाय
पाग
फआव
फराइ
फनाय।
फबनान
फफिनो।
फखरियाव
बाथाय
बालाय
बगोन।
बटि
बराया
बासिनो
बगासिनो
बहरनाय
बʼब
भो
भत
मष
मश
मफर
मारा
रड
रनि
लड
लटि
लदाम
सखौ
सो।
सनज
सादो
सटि
सनो।
सानायनि
सखि
सहाब
ससरा
सियान
सीज
हत
हख
हदो
हदोमोन
##फाल
##फिस
##फायाव
##ननिफराय
##नासिगोन।
##गाबा
##लल
##लिन
##लगाव
##सना
##ोबो
##जाहा
##टरि
##टसन
##दद
##दरा
##दसि
##खाम
##मʼ
##मारा
##पटि
##ʼम
##ʼवाव
##हारि
##um
##ural
##ition
##थरा
##थानो
##कसन
##काबिला
##ीब
##झार
##आयदा
##णा
##णाक
##pi
##ptem
##शना
##ax
##age
##fic
##eg
##ाना।
##ारिय
##ारिया।
##ाबनि
##ाबरा।
##ोरनो
बिफोर
बिखाय
##नायखाय
##ामाया
##ागा
##ागार
##ागिरिया
##ादʼ
##ियाथʼ
गोबोर
##राख।
##ाजार
##िनागोन।
मोनना
मोनथाव
मोनथिय
मोनखानाय
मोनजानाय
मोनजलाय
मोनास।
मोनथारबाय
मोनफरामबो
##रोङ
##फोरालाय
##ालिया
##रिका
##रिडिस
##रायबाय
##ाहयो।
सिथि
सिफला
सिजौ
सिलिम
सानख
सानाख।
नोसरा
##लायना
##लायगोन
##लायोबला
##लायगासिनो
जायफोरखौ
जायखल
जायाखमोन।
जोगा
##ायाव।
गावदा
खालामनागोन।
खालामनागोन
समिन
समजो
समानि
समसर
समसिम
सोथि
सोहर
मानगोना
मिउ
मिटार
मिबथि
##लिटि
जिबि
जिखलाब
हाबस
हाबरा
हाबबाय।
हाबसोनान
नायफ
नायसि
नायलʼ
नायसन
नायबलानो
नायगोम
लोदो।
लोबाय।
##हरदोमोन
नङनि
दिनदा
सोरब
सोराङा
सोरहाबा
फिसाफरा
आखफोरनि
##गोदान
##बलानि
बाथलनि
गबना
रावखान
रावहाबो
बायना
बायोबला
अनथाय
अनथाव
अनजलाय
##थाया।
लोगोफोर
बाराग
बारलामफा
गिरि
गिदो
##लाइनाय
दरबाय।
बसनखौ
बिनिनो
बिनिया
##नायनिबो
मावगोन।
मावनायखौ
##ालायो।
सलʼगिरि
गोजोम
फोरान
एसबलाबो
मानसिहा
बिसोरो।
बाथराफोरा
रोगौ।
गयखौ
गयखाय
जानायस
जानायफोरखौ
फोलानो
गसब
गसनि
गसाया
गसाथिया
सोमहाब
सोमसरिया
सोमहाबनान
मगयो
मगया
मगली
गाबबाय।
गाबहा
गाबगासिनो
जरब
दखाना
दखाङो।
बाहर
बङाबानो
बङालाबानो
फावखौ
आली
दावमा
थिजाय
नागरा
नागानि
सबजि
सबङारि
जानोसो
मिथिग
मिथिगोन।
मिथिसलाब
राइज
बायदिफोराव
गारो।
गारगोन
बोरसिनि
खरम
खरिया
ओखारलाय
ओखारलादो।
खनाथि
खनथिया
खनमथ
##मायानो
दाननान
##गारबाय।
##गारनायस।
##गरामोन
फरायगासिनो
आबसा
जौ।
खामायनो
थायस
थायोमोन
थायनखौ
राजखगर
बबलिनि
जानान।
लिरना
लिरनागौ
जिउजो
आइद
गरफा
परगर
जोबाख
जोबादि
नʼवा
नʼटिस
रायख
रायथाइ
रायखानो
##फिनगोन।
राइजोफोरनो
सायावबो
खारा
खारबो
खारबाय
खारलानान
जाबायल
बाजियावनो
उनददो।
उनदयाव
उनदनिफरायनो
मिनिगल
लायाख।
थानोबो
थनलाय
नाजानायनि
बखालि
बखननान
आदाल
आदगारि
रजनान
रजानो
##जोबगोन।
कमभ
गथʼवाबो
आनच
आनथा
आनथोर
जाथो।
सोदोबफरा
जानानायनि
दिनथिनाया
हारिसा
आयना
आयथा
आयनायाव
बिखाजो
बाहायथि
जाहबाय।
गानस
गानदो
गानगरा
##खोमा।
नागिरनाया
मनजलाया।
गलनायाव
माइन
##थोस
##तिखौ
##सनखौ
##हनागौ
दसटर
मोद।
मोदनि
मनतरी
लानायमोन।
मोननायस
सिगरि
सिगाथि
फिनो
बाहागो।
जाखर
##नागौमोन।
उदिस
उदाङ
खरʼनिफराय
दोब
एरसो
एरिया
एरबादि।
मदार
हामार
फाननाय
ओखरि
फसथ
फसलʼ
मोजासो
सपर
सिरिनाय
रिजार
लानोस
गवसार
पलटा
##लाबनो
सानसबो
समाया।
कलपनायाबो
लासनिया
हाखन
लिरो
लामाजोनो
हगारो।
जाफनो
खायदाजो
लाबानो
मोननखौ
मोननयाव
जʼयो
नवाव।
साखाथिनि
गोनासिन
थनलाइगिरिफोरा
थाफानान
थामि
हाथाइनि
नागौमोन
गोजोननायनि
सायायाव
लाबोआ
लाबोबाय।
लाबोगोन
लाबोदोमोन।
सारक
सारणडार
जिरायदो।
गʼलाय
गʼसला
दिहनबाय।
दिहनगिरि
बिलाइसरिया
बोहथिखौ
हौवाफोर
जाथायजो
जाथायफोरा
रामसिय
डिम
पलिसजो
बिजिरनाया
बिजिरनायखौ
##फोरजोबो
सनथाल
अजितनो
बाबनि
लाफाग
इरागदाउ
नरथ
दौव
दौरि
सावरायनायखौ
टिक
लानागौ।
बिबाराव
गिबिनि
आबौनि
आबौवा
करच
करकट
करʼर
##लानायखौ
जाखोबरा
दामानि
दामबरा
दबी
दबान
दबरि
सोरजिनि
सिनथायनो
टरइनि
टरजिक
नायहरबाय।
जोहोलावजो
खदाल
सदʼय
लाजिफोन
बिरला
लाहारि
लाहारिनि
गोबासिन
कमपिउटार।
बनागोन
मसट
मसलिम
हफल
हिसा
हिसान
हिसायारि
##सʼन
2005
जालʼ
दङʼमोन
##सली
बिथाआ
आमथ
अखाफोरनि
सामलायनान
सामफरोमबो
सरा।
##फलनान
खालिनि
##बोनायनि
जावसो
सकनद
रोङाबला
बानायसो।
##रियानि
हासद
हासनो
हासानि
सानोबला
##ʼरियाव
इउटि
जौगानो
बराहम
##मिक
गोरोबथा
सोमोनदोखौ
बथारदो
फोसावजायो
जिबनि
दगलाइ
बावदिय
थनफावथाइखौ
जालायनान
नारजारिया
खलमो।
आइजोफोरनि
एफनि
जारमान
रʼड
बरखानो
थियटारखौ
बालादसि
होफदो
होफयो
होफदो।
फाफलि
समाखौ
आथोननि
बाजिबायमोन।
नाजानाय।
गनायना
लोमज
फोलराव
सोमजिहोदो।
आनारामखौ
जोरनि
बिमानो
समान।
गारिजो
हराख
गगलाय
गगनद
बजायनो
##बावनो।
##थाबनान
सिबनो
सिबसरा
सागराङा
फाखाय
फाखरा
हारिमवा
जिरादा
##किट
साजाया
दासानद
सथरनि
सथरनिफराय
गाखोबाय।
दहायारि
अनिमा
ककराझारनिफराय
बलसरि।
##ther
राहाबो
नालया
पापी
हाजʼवारीया।
हाबाफारिफोरखौ
बारायनायाव
नयोबला
रफाथि
मालिस
मालदार
खावलायो।
खौरागाबा
मिनिसलय
जाहोनखौ
फोथनो
फोथानान
जाथारबाय।
हौवास
जागायनान
कनसार
जकटा
जकटनि
आदबनि
गागलोबनो
##भारखौ
जिललाफोराव
कमपानि
नालाय।
201
मोगथानि
खदियाफोरखौ
जासिनान
डिसकनि
##ant
मवाब
रजालिखौ
थालाखौ
दाइरि
दाइरियाव
सथोआ
होयि
होयास।
थिनहरदो।
दना।
##ree
गोरबोजो
##गरोदो।
सिलाग
हमलटखौ
दोहोननि
फोसाबनान
जिबौवा
मरायनि
गिबिया
बाखनायनाय
मङानो
आबादारि
षटट
हालामाव
खनसायनि
गावथारनान
हासथायनाय
अनसायनाय
एकसि
बोदला
जाथोस।
आखथायखौ
गरमसा
इणडिया
बारहावा
खनाश
नोनो।
माथाउ
इसोरा
मोसाहारी
आसारखानथि
लङाय
मबलाया
थफन।
दालायाव
##ाहोयो।
निरनजन
निरमाल
थाबोदो।
अबलाउरिनि
सायखʼनाय
नमबरनि
शिव
दोनथमगरा
सिलारामा
गानदखौ
गावरावनि
फानदायनान
जोथरोद
आनदाखौ
गटजो
गियाननि
रिगद
दायनिगिरिखौ
बिबदिबलाथʼ
गʼलाप
गिलासखौ
सनथलाया
गाथोन
दनायमानि
नथारगौ।
सतय
।।आयदा
पजʼवा
लाङास।
मावखʼनि
बिगोमानि
बिगोमाजो
नाथारगौ
बिबाङा
अनलखानि
नजिबा
थाथो।
मʼकाबिला
बधदि
बधबारखालि
साबरसो
हरबिलासनि
बʼहा
बसʼहाया।
थिफदला
बबनिफरायबा
उदरामा
हसपित
मागो
लाकीया
##फराखमोन
गʼसाथी
टरनसपरट
उपनदर
उरिषयानि
एडभ
एकाउ
दासि।
जावलियाया
टमटʼ
गानधीया
अबिनासा
हसरिखाव
बोखावनान
अलकशनि
खरासिन
साफरासीफोरा
septem
सनटरल
सइसाइद
मोसाहारिनो
खबजबनान
सोरनावबा
चौधरीया
चाणाक
सानसरियाव
निहोर
बावयसो
जʼखायस
आदरश
डिभाइस
उकिल
पाउदार
लदिज
रिटायार
कारबिआल
गौहाटीयाव
मोबायजोबो
निखाउरि
आउटपट
##लिखत
परफलल
कमबकत
डिजाइन
##jective
##ology
kachar
भोट
रिजारभ
september
चाणाकय
36
47
90
95
fi
la
noun
txt
अना
अजाय
अवार
आति
इनदर
इलिय
उदि
कफ
कट
कालाम
कजि
काना
करनि
कफि
कवार
कहि
काउन
खह
खारि
खाया
खबाय।
खाङो
खसाल
खसरा
खसिनि
खियो
खियो।
गइ
गनि
गरो
गबाय
गना
गादि
गननि
गिया।
घट
चिन
छि
जबर
जखौबो
जागर
जसल
जमि
ठाक
ता
ताम
तामि
थिया
थयो।
थथर
थागर
थलाखौ
थासिगोन
दलाय
दखा
दाबला
दजला
निय
ना।
ननाया
नगोन।
नफर
नथायाव
नखल
नाथा
नाहर
पक
पड
पला
फलʼ
फोना
फसन
फथिय
फनायस।
फफिनो
बाफ
बनदर
बफिनो।
बहरो।
बशव
बफिनबाय
मजो
मनायाव
मलायाव
मफरोम
मजरि
यव
रनान
रवा
रटि
लाला
लवा
लमन
सालाम
सावनो
सोना
सथा
सलाइ
सनायनि
सति
सकट
सया।
सटर
सागरि
साथा
सभा
सखरब
हाह
हयो
हʼर
हासिगोन
हदिनि।
##फʼ
##फलाम
##ि।
##नʼ
##नसि
##गड
##गाम
##गाग
##गासिनो।
##बत
##बासिन
##बारिनि
##लआ
##लनिफराय
##लानो।
##सनान
##ोदा
##जागोन।
##टरा
##टलनि
##तति
##यामोन
##योमोन
##याथʼ
##यानो।
##यालʼ
##दोन।
##दियानो
##मिनि
##पʼ
##पक
##पजो
##हानाय
##हबला
##होनायाव
##हराख
##।2
##un
##ited
##इनट
##वन
##वाख
##वाया।
##थाद
##थास
##थाजो
##कानि
##काइनि
##ीरा
##षा
##of
##otion
##ph
##ch
##ctical
##ati
##lo
##vel
##54
##ानागोन
##निक
##नियानि
##ाबाथाय
##ाबोनाय
बिघ
बिफोरखौ
बिसर
बिलाया
##लादोमोन
##नोसो
##नायावनो
##ामार
##ामारनो
##नानो।
##ासर
मोनयाव
मोनफला
मोनथिया।
मोनबानो
मोनखाङो
मोनखादो
मोनाखस।
##रिफ
##बायल
##बायारि
##बायमोन
सिनान
सिहाब
##थिनान
सानाख
सानाबो
सानबर
सानगोन
सानबो।
सानयाबो
नोदा
नोदाया
नोसिनाव
##लायनायखौ
मोफलाम
##दिनिया
##ाबोयो
##ाबोदो।
जायख
जायामोन
जायाखमोन
जायगाया
जोफोर
जोदो
खालामबलाबो
खालामामोन
खालामबलानो
खालामहोनान
बराद
बरवा
समत
##ाबायमोन।
सोबा
सोदो।
सोबाय।
सोलाव
सोसन
##ाफनाय
##ाफारा
मानबाय
मिथिना
होसार
होखो
होफिनो।
होखानायनि
होसयावबो
##लिनाय
जिरि
जिगरि
हाबबाय
हाबलाय
लोहोनो
थाखोमा
##जिद
नङागोन।
दिनजो
दिनलाय
सोरथो
फिसायानो
आखालनि
गोसोथ
बोखा
गबङ
गबलाया
बरʼवानो
बायो
बायगर
अनाली
थानायखाय
माबबा
लोगोयाव
बारहा
बारसिन
बारायो।
गिनायजो
दरलब
बसगराब
##थारला
बिबानि
हमखि
हमसʼनो
गावनिनो
मावह
मावजिया
मावजागरा
गोरब
##ालायबाय।
सलʼफोरखौ
##मोनदो
मलरिया
फोरमाना
हरावनो
##गोनखि
मानसिखौनो
बिसोरनाव
बाथराफरा
रोजास
रोखा।
गयथिया
जानायफोरनि
लानानबो
##बाव।
##बावगोन।
गसटि
सोमजाय
मगलिय
गाबख
गाबजो
जरावनो
जरबादि
दखय
बाहोनो
फावगिरि
फावसाय
फावथायारि
फावथिन
##साफोरा
##नजार
##होगरा
##होगोन
आलया।
दावथ
दावरा
दावसरि
दावजला
महरथि
सरग
सरस
सरद
नागाल
नागाया
सबनान
जानोबा
गाराव
गारजा
गारनागौ
##सरʼ
ओखारहा
ओखारनायनि
##लोबो।
खनखानान
दानदा
दानसनि
##गारनो
दोनगरा
दोनास।
दोनहयो।
फरायदो।
फरायनायनि
##जावज
आब।
आबनि
आबिर
आबदल
निलिखत
जौथाय
जौसा
जौखोनदो
बिजोनो
गोनाखौ
बादारि
आइजो।
गरब
गरत
जोबाख।
हिनजावफोरजो
सावथ
सावथन
सिखोन
रायनाय
रायफोर
कलाबाव
लाइटार
लाइटखौ
##फिनबला
अरनि
अरनो
अरजाया
अरडार
##खʼबाव
##थावथाव
खारो।
खारनान
खारसा
खारखो
खारलाङो
खारखाना
गोबाङनो
बाजौ
बानब
बानथाया
मिनिदो।
मिनिखर
लायदो
नाजावनो
नाजागोन
खोमोन
फोरमायनायजो
जनतर
आदबा
##टिफि
रजनाय
रजाख
##जोबदो
##जोबनाय।
सोदोबखौनो
सोदोबमाया
सोदोबफराव
बिफाङा
महक
जानाङ
जानादो
आरट
आरटि
होनाय।
होनायमोन
बयहाबो
बिथाजो
बफोरो
बिखाव
लाखिय
लाखादो
जाहनाय
गानो।
##खोमानाय
##खोमानो
मनजबाला
आलाइसरी
आलाइयाबो
गलब
गलबाय
गलियाव
मोसायो
नोथाङाबो
नोथाङानो
फारसबो
फावथाइगिरिनि
उननिफरायनो
नोजोर।
##कटʼप
रमावनो
बोसोरि
बोसोरथाम
बोसोरफरोमबो
नारभ
नारखो
लबसला
हाजोनिफराय
दङमोन।
हानायानो
मोननायस।
सिगागरो
##राइनि
थाबथायो।
फिद
फिगार
जाखाङो।
जाखाङो
##णडि
खामानि।
##ानिफराय।
दाब।
दाबाव
दाबखा
##जाबाव
उदराय
मगनाबो
नोसोरलाय
खरʼस
खबʼ
खबनान
हामबाय।
हानथि
खानज
खानदा
खानथियारि
फानड
फानगरा
गोजौनिफराय
खावया
खावलायनाय
फसानि
मोजाङा
गोसो।
रिजाल
रिभल
गवाल
बिहाबो
##लाबाव
जोनोमफ
बिदजो
बिदिसो
लास।
मालायफोर
लिबार
सौगर
साबि
साबकनि
साबकखौ
साबदराय
साबिद
हगारदो।
हगारबाय।
दाय।
दायो।
मोननया
जʼनो
गोथसालियाव
मोखाआव
साखरिनि
माखासखौ
बदरा
खौरालाइ
गोनाङ
गोनाबला
गोनाङा
थाफायो।
बरहमखौ
बिसव
सखय
ददर।
दाहाया
दाहाजो
गʼयो
खिरि
दरजाया
दरजाङानो
बलादो
बलादो।
दाखोन
##जानाया
##जानाय।
लाखिदो।
लाखिनायाव
हौवाफोरजो
आनारी।
खलथाया
जाबसिन
थाक
थिनदो।
फिसाजोनो
बिजिरस
बिजिरनो
##साय।
सनमि
साइटʼ
साइरʼ
नायजाबफोरा
इनदि
दाजाबफानाय
दाजाबदानि
मारस
मारक
दलत
गोसोआवनो
फागलाया
सावरायनाया
लानस
बिबारजो
##खराउ
इरागदावखौ
जोमनायखौ
दामनान
सिखारनो
दबन
हादोराव
सोरजिगिरिनि
फोथायो।
सिनजो
बयावबो
बबावो।
बबावदो
बिनानावा
गोसोनिफराय
जोहोलावफोर
दाउब
दाउला
असत
असानति
लाजिनाया
बिरगʼ
सानथरिफरा
बजबना
कमपिउटाराव
थासारिनि
मोसौवा
थालानाय
थालिया।
नखरखौ
गोलानान
##सालि।
थरफा
थरथिस
आमि
नाङनो
सजग
सजगरानि
##फलनाय
सोमबोरखौ
फलर
रोङाख।
बानायाव
आखल।
हासार
इउरिया
इउरʼ
धोरोमाव
फालाया
फोजोबसरानो
खनसयनो
सहबला
जौगानायनि
##मिट
##मिला
बालनद
गोरोबहोनान
लागाय
लागरो
फोसावनान
फोसावगिरि
##सियाल
सोलोनाय
बोलोआव
खʼहा
खʼनाजो
जालायदो।
सनिखौ
थाङोबा
खलमबाय
आलासिफोर
आलासिफोरखौ
मथाइनि
आइजोफोरखौ
रागाखौ
रʼद
थाहनाय
थाहोनो
गदिनिफराय
दावबायनाया
बाखरियाव
रायजलायो
रायजलायनायखौ
लोबबायारि
गोमोबाय
गोमोयो।
नवाख।
नवसिनो
जालादो
जालागोन
जालाखो
थौ।
नम।
नमखौ
नमखानथि
बथाली
बासाव
बासरि
बासजो
नाजानायखौ
गवाहाटीनि
नहरा।
फोलरा
फोलरखौ
फारि।
गमभीरा
खबसलʼ
सटनद
पारलियाम
फाइनाल
दवना
दवाननि
साजाखौ
सिबिस
दखोखौ
फोरमानखौ
साखरिवाला
हन।
हावरिय
बसमतारीखौ
साहाबा
नायगिरनान
मरगाया
रिसारथि
नोमब
सथर।
फिथाइनि
नखायखौनो
मोनहनाय
दाबिखौ
दाबिनायनि
सोबगरा
गोसोखादो
गोसोखाथिखौ
आसिजो
कारनट
नामखौ
नामाबरा
राहा।
##लदाबाय
सोलिबाय
दरसिन।
ममखौ
ममा।
ममʼरियाव
लरननि
मोनथिबाय
बमफा
दमोनबलाबो
आवगायलाङो
फदला
सʼनाफलि
ममाखौ
साबसिन।
सोलोथाइनि
लाजिस
जाहोननि
फोथानो
हʼवा
आदबजो
थाइलालिनि
कमपान
नाथाब
जगाज
नहरो।
##कषा
बिजिनि
जाखरिखानाय
अनाथीनि
गोहोमखौ
खदियाफोरनो
एगारनायनि
एगारनाया
हाबिलास
हाबिलद
सकसपिय
##anc
रजि।
रजिजो
रजिषटर
बिमायाबो
मजद
गावबढ
जनादनि
थिनहरनान
थिनहरदो
हदा।
बिसारखौ
हायाखस।
नायबिजिरस
बोनायनि
##ick
फागलि।
जिरादफोरखौ
दायनिगिरिया
डाकत
मासिनि
गियानखौ
डाइलʼग
कमिटि
कʼकराझ
रपानि
सिसटमा
सायारामनि
थागिरि
जिनिसखौ
एवनो
एवनाय
उसख
जोथिहा।
दानसयारि
हाफला
बसादफोरखौ
मोदाइजो
बागदावखाङो
फजʼनो
धोनसि
##ाफिननान
हासथायनायखौ
खोनायो
दखनाखौ
लाइमोनफोरा
इनटारनल
फालागिनि
जथायखौ
हाउली
इराजीयाव
सिलाइखौ
##edy
दासान।
जाखरिथाइनि
जाखरिथाइयाव
पाबलिकसन
इसोरखौ
एकसपर
मोनामनाय
बोसोनखौ
बथमनान
जौगाखानायाव
फाइलफोरखौ
##ाहोयो
नङामोनबला
सोनारो।
फथनान
हिनजावसाखौ
##मनत
दोनथमनो
हिनदी
दोमल
दोमो
राङानो
दगलायनि
मावरिजा।
नारसिननान
गबलजो
जिगासि
राखानथिनि
लकषमी
दमासखौ
पनच
बाङाय
खाजाखौ
फायारि
सरबशवर
बिफानजो
गौथमनि
आजावनान
दाकाति
फोरमायथिनाय
दरहागराया।
माइथायसिम
थादʼनाय
बिगरायारिफोरा
खथानिफराय
ननदशवर
खनथामसो
##essor
सोदोमसरिनि
होवाख।
होवाखिस।
नाजावनान
आनदोयाव
फावथाइगिरि।
नोसाज
सरजाखौ
जोबथारनाय
बिहारिफोरा
फदरनान
मोनलोङा।
दागाबस
बरगयारीया
हरसमानि
फोलावनान
दोहोरोमनि
बबिलि
बारसनान
खिरखिजो
थखरनि
हासिगौ
ओखारलानायस।
नजाहनो
reven
खरथङा
लाइजौवा
थासानदियाव।
दावबायारिफोरनि
1000
##rama
किउरियʼनि
असिला
रिनदाव
उपरा
फबाइ
लखʼब
सोदानाय
फिसिनाय
जापाननि
अखरामा
थबलद
समफथि
मावखगोरा
रायजितखौ
गानधी
गोबाखरब
कानाइ
धरणी
मिथिखागौ
भलादिमिरा
दथारो
परदीपा
रमानटिक
बाथरमाव
बिबादिनो
हादोमोनबलाबो
बिलिदनान
chara
हनदल
गदाइया
##बीबा
नजाथियो
दारʼगा
जिबारलिन
पटरिडिस
बणडजखौ
मावमोनथायनि
हालोदा
रादायखौ
कनटराकटर
सलʼबाथ
सलʼबाथा
खजब
थालिद
बशिक
मोनफरोमखौबो
बरमण
बोथरोदनान
कारजि।
उथजग
डनमार
हायनामलि
आवगरिनान
सायनासालियाव
बहसपति
scen
दइनमब
सिदोब
आखानथियाव
बिसमबि
मिलियन
जालिजौ
रहमान
शची
बिभी
एसमबलि
खारसलिउ
राकषस
रमिव
practical
इकलटिक
आनचलिक
माथाउरी
हसपितालाव
कवारटार
तामिल
##टिफिकट
साइटʼकाइनि
revenge
charact
##मट
03
61
65
at
act
br
col
en
fr
lim
now
oh
pc
pos
tel
up
अबर
अबाव
अमानि
अवाल
आश
आफोर
आथा
इछ
इगि
इखान
इसिनि
उव
उखम
ओनद
ओहो।
कक
कड
कबि
कराइ
काउ
ख।
खोना
खखर
खखाय
खʼर
खसट
खहा।
गत
गमा
गथा
गनायनि
गलिनि
गफरोमबो
गथारा
गीता
चम
चाइ
जराय
जबा
जनायाव
जगार
जलाव
जजाय
जथर
जबरानि
जकति
जाजोबनान
डस
डराइभ
डलार
तास
ताला
तसर
तिब
थखा
थखो
थबरा
थगरी
थजास
थयोबला
दक
दबो
ददि
दसर
दोमोन।
दनो।
दरायाव
दानिफरायनो
दराइभ
धाली
नक
नान
नबो
नजा
नोना
नबलाबो
नजायो।
नसिङाव
नशनल
नगरोमोना
पʼ
परा
पाइ
पिन
पनट
पटल
फनिफराय
फहा
फनायखौ
फथर
बाया
बाबाय
बकल
बगरि
बगाव
बकनि
भनि
भारि
मनो
माबाय
मजा
मणड
मलाम
यो
रना
रमानि
रोमोन
लथा
लहम
लाथʼ
लहरनाय
लोनागौ।
वाइ
वाइल
वरक
शश
सजो
सयो
सदो।
सखार
सखर
सलनि
सराइ
सानिफराय
साजि
हबाय
होन।
हमा
हबाय।
हनायाव
हनाया
हनायखौ
हखराव
हालाग
##फ।
##फान
##फादो।
##फलाङो।
##नदो
##नासिगौ।
##बालाय
##बाखि
##लनो
##लाना
##लीया
##लकस
##लपर
##सनो
##सारि
##सया
##सोनाय
##सोमोन
##सकार
##जाद
##जायाव
##जनो।
##जिनागौ
##रनान
##रनजन
##तत
##तानत
##यर
##यबलाबो
##यालाय।
##दव
##दाद
##दारि
##दाबो
##दालि
##खला
##मखौ
##मालाय
##मिसन
##ममद
##ʼग
##ʼय
##ʼनान
##ʼचिय
##हाव
##हारा
##ion
##ith
##इना
##इनाव
##वादि
##थब
##थनि
##कʼ
##कानत
##कीया
##कटिकल
##ीला
##ीयाव
##ीयान
##ङाख।
##चरण
##डर
##डिन
##डनट
##ress
##शनाव
##शनखौ
##धन
##ave
##ld
##70
##eal
##33
##अनथाइ
##ायोबला
##ानदा
##ोना।
##ोनागोन
##ारन
##ाबनाय
बिलायाव
बिघा
बिजावज
##लामा
##नोलाय
##नायमोन
##ामीया
##ागो
##ियट
##ियादि
##ाथियावनो
##ाखबलाबो
##ोमानि
##ाजी
##ाजिन
##ाजिनि
##िनस
मोनख
मोनास
मोनथायनि
मोनजायो।
मोनफिननो
##फोरहा
##फोरजोनो
##ानायस
##ालाबाय
##ालीया
##ानोबा
##रायो
##रायानो
##बायनान
##ाहयो
##ाहोनान
सिर
सिबाय।
##थिसʼ
##िसानि
सानलʼ
सानदा
सानथार
##सि।
मोसरोम
##ाबोथʼ
जायाबो
जोबा
जोसो
जोबल
जोखाङो
गावलʼ
गावजखौ
गावहानो
खालामथार
खालामखानान
बरव
बरामा
बरसरा
समबरा
समबरि
सोथ
सोबाव
सोलास
##नदार
मानोमोन
मानदार
होबा
होफिन
होखानाय
माघ
जिला
जिबर
जिगासिनो
हाबाथि
नायलाय
नायजानो
नायहाबनान
लोङो।
थाखम
##हरबला
##हरबाय।
##हरनायाव
##हरनायखौ
बियोदि
##जिबि
नङि
नङाबलानो
नङाहाय
दिनखालि
सोर।
सोरानाय
सोरानि
सोरनिफराय
सोरमोन
फिसरि
फिसासिन
आखखौनो
आखनि।
बोला
बोदो।
बोसरानो
बोलदानान
नाथायबा
बाथʼ
बाथायाव
बाथवानि
बाथवाया।
बरʼजो
रावना
रावफोरखौ
बायबाय
अनारी
अननायजो
थानायस
थानायानो
थानायमोन।
##थाइयाव
##यावसो
लोगोफोरा
बारबाय
बारनायनि
बारासिन
बारलाबाय।
गिबाय
गिजि
मोनसयाव
मोनसलाब
दरल
दरननि
दरफनाय
बसʼनो
##थारस।
बिबथिखौ
हमबला
मावाख
मावबाय।
मावाख।
मावगासिनो
मावनायजो
मावफनाय
गोरासिन
सलʼवानो
##आव।
##मोनहाबो
फोरला
फोरदान
हरफिन
एसनि
मानसिङा
मानसिफोरजो
मानसिफराबो
##खायाबो
जानायनिफराय
फोथा
फोजानान
गसयावनो
गसथियाव
सोमखि
सोमसरिनि
सोमसरिखौ
सोमजियो
दिम
दिखानो
दिगराय
मगलद
मगनानो
गाबला
जरबायाव
दखो।
दखगोना
दखʼना
मोजाखौ
##दरनान
बङाबालानो
गोदौ
फावा
फावाव
फावथाय
फावखगरि
##होदोमोन।
##ाबला।
दावद
दावराय
दावजो
दावसिन
दावथरोद
फारम
महराबो
थिनि
थिरा
थिलि
थिगि
सराब
सरजाब
सरहाब
सब।
सबजो
सबखानान
जानोस।
##ाथिजो
गारो
गाराया
गारना
गारबाय।
गाराङाव
गारलस
खरल
खराग
गास।
खनथि
खनथाय
खनोरो
दानना
दाननिफराय
दोनबला
दोनजानाय
दोनफनाय
फरायदो
फरायनोबो
फरायसला
जौजो
जौसिन
जौथाइनि
थायनजो
राजानो
बनोबो
बनोलʼ
बबखौ
लिरस
लिरबाय
लिरदोमोन
लिरगिर
जिउ।
गोनाफोरनि
बादाम
बादिया
आइऔ
आइखौ
आइटम
हादान
##फरनान
गरजा
परट
परण
परसि
परकटिकल
समावसो
जोबजासिम
नʼसिङाव
हिनजावसाया
हिनजावसानि
खौबो
खौरानि
सिखान
सिखादो
सिखलायानो
रायो
रायगलि
कलखʼ
कलखिनि
लाइस
लाइनाव
गोदानजो
अरज
अरण
अरदाब
नापि
राइजोआनो
हारिफोर
हारिहा
खारा।
बाजनि
बाजखौ
बाजवा
उनदनि
उनदलाफ
##ामोनबलाबो
मिनिसरा
मिनिगलाब
मिनिगाग
लायनो।
नाजलाय
जनक
जननाय
जनबो
जनारनि
आदया
आददा
आदामोन
कमबल
आनखि
सोदोबफोरा
महममद
जानानाय
दिनथिफनाय
आरोमा
हारसाया
होनायानो
##गलार
गोमाना
गोमाजानाय
आयौ
##गायो।
बफोर।
बफोराव
बफोरनाय
बफोरहा
बिखि
बिखनजो
बावला
बावबाय
बावदो।
बावाख।
बावलानाय
बावलाबाय
बावगोम
बाहायो
बाहायगरा
जाहाद
दमायाव
दमालनि
दमगलाय
गाजरिखौ
गाजरिमोन
गानखौ
गानबाय
गानहोनान
##खिरा
नागिरनायाव
मनजजो
मनजवाबो
मनजआबो
गलहोनाय
मोसानो
मोसानान
##खोल
आथिम
आथिजो
आथिनिफराय
##कटरा
रम।
रमनखौ
साक
साध
सातर
बोसोरसो
लबदोमोन
लबʼर
आवबा
हानायसिम
मोखा।
मोखोना
मोखाथि
##नटियार
फिथ
फिरि
फिथा
फिथो
गदाया
गदायनि
दाबारी
##जाबलाबो
एरखानाय
खबनाय
खबाम
खबʼस
बागानाव
बागालनि
मददाव
बखवथि
हामानि
हामफला
हामिद
हानजाय
खानदिस
फानलनि
ओखामा
खावनाय
खावनायनि
फसनान
सिरिजाहा
गोसाय
रिप
रिता
रिपरट
लानोबो
गवनाय
लोगोसनो
बिहावनो
बिहारी
बिहाराव
##लाबो।
सानसयाव
सानसमानि
बिफाफोरा
समायखिरा
कलपानाया
लासखौ
सौनान
सौदाव
लामास
साबाइ
साबित
हगारहर
गोगलबाय
जाफदो।
जाफगोन।
जाफलानाय
दायल
दायस
लाबरा
जʼफ
जʼ।
जʼगार
सिनायमोन
नवावबो
गामिनि।
साखाफारा
साखाथियावनो
##षटलाव
खौराफोरखौ
सददा
सदबनो
अबलासिम
रागाया
रागायाव
थाफिनो
फिनस
फिननो
फिननान
फिननायखौ
फिननायस
फिनजराब
हाखोफरा
नागौनि
बिगियानि
गोजोनथो।
सायो
बरहम।
बिसाल
बिसना
बिसकत
बिसखनि
सारसरि
सारभि
सारअनथाइ
सखखौ
जिरायह
जिरायबाय
दाहाल
गʼवाल
सोमोनाथाव
दिहनना
दिहननायाव
होमबा।
खिनाय
खिगरा
दरजाङ
दरजायाव
बिलाइजो
बिलित
दाखार
##जानायाव
थोङ
थोथोर
थोबस
थफलि
थफीया
हालिस
हालोदाव
सफबाय।
सफगोन
थाइस
थाइजाजो
डिगरी
थिनहरबाय
थावा
बिजिरखʼ
बिजिरसालिनि
सोलायबाय
फरग
सनटि
साइट
लाफानाय
लाफाबाय
मारका
खाबथानान
हाबफबाय।
नरखा
मासबो
मासथारा
सपतमबरनिफराय
दौनाय
फागलानि
सावरायजलायनाय
हिमाल
साफायनान
आबौमोननि
नʼवाव।
करल
बासिन।
बफदो
बफारिखौ
बफबनाय
जोमनि
##लानायस
दामदो
सिखारदो
अरायदिन
दबलाय
सोरजिनान
सोरजिगिर
खिनथाला
टरड
नायहरदो
लाइजाम।
दाउमा
असबि
असथाद
बिरगो
आखायावनो
लाहारिया
गोबाथ
गोबानो
मसबो
बहयो
थाखि।
नखर।
गोलनो
गोलयो
माहाजोना।
थबना
थबगा
2003
गायनान
बाइक
थरन
थरनाय
नायनोबो
आमरिका
अखाफोरा
दानाया
सामव
सामाज
##बोनायखौ
फलिया
ददननो
हफाजाबगिरि
सकलनि
सकनड
सकरिफ
अमक
अमासि
खोनासबाय
साननायाबो
आनजराय
बिथिङा
नोगोरखौ
##दारखौ
गोसोआ।
मददखौ
मददजो
आथाल
फालथा
थनफावथिना
खनसलʼ
मादा
बराफारस
खामानियाबो
लागाम
फरायसाफोरनो
सोरखारजो
सोलोनान
सोलरनि
सोलियो
सवालि
बफोरखौबो
आनजादा
राखिनि
गोरलयनो
सलʼमागिरिया
रबजो
##est
##esday
थनफावथाइगिरि
खʼथा
खʼथानि
this
फाथाल
बोखलाय
बसोआबो
नागारा।
खनथाइमा
खलमनाय
आनदार
खमलायनाय
आगानस
सोमावसारनाया
जसबानो
रमाव।
दोरोङ
बिथानिनो
गोथार।
अनसमा
रʼय
फाहामसालिनि
गदि।
थियटाराव
होफबाय
रायजलायगरा
फाफनि
गोमोहाब
गोमोथावना
गागलम
परमपट
बानजायफनो
फफिनबला
नमसकार
बथन
हागारि
हागार।
लोमसराव
दावहा।
फजनान
मिहिराबो
सनदलखौ
गारिनिफराय
बगाल
गदरथार
बिलदि
होमबलासो
खालम
खालानि
##लियाल
##लियाबो
##थाबनाय
##orm
सिबिना
सिबियो
##ानदारि
साखरिखौ
##फलाङ
जिरन
हावलाद
बसमतारीया।
साहस
नायगिरदो।
नोमान
रोदाखौ
them
they
नखायखौ
बिजौवाव
दाबिनाय
अनिलनि
##दायानो
लावदाब
लावथिजो
लागोनानि
कारड
गाहायावनो
भटाननि
##omp
पाति
रायलायनायनि
गाबजरिबाय
गाबजरिनायाव
ममबाइ
लरन
थिङ।
नागाफोर
दʼबा
दʼहाय
बमाजो
बमारिखौ
मथास
फदनो
मालटि
लिहरनाय
थगायनान
थगायसलि
बकार
गनथङा
रवाथिनि
कमाणडफोरखौ
जाबोबाय।
जथमनि
जथमनाय
जथममा
फोथनान
जाथारदो
जाथारदो।
कनषटबल
फोनानायनि
बिगरजो
फागलासरोम
नहरनो
लाउद
##वारड
सानदरि
गोदोनिफराय
मीनारामनि
गाणडा
सौफबाय
समिलाखौ
ओखारबोबाय।
जलगा
खामानियाव।
बिमायखौ
सोनाबनि
साथामनि
बफरनाय
लोरि
सथब
हदाया
##गाबर
हायाखस
अनजिमानि
1988
1987
1981
1985
1983
##गरोदो
ददनगिरिफोरखौ
दायनिगिर
बथिनान
फोसाबनायनि
जिबौनि
उलथाय
गिबिय
कमिटिया
रपाया
रपनाथ
ससौ
लबयोबला
एवनान
बरखायनाय
नʼखरखौ
टाउननि
षटडिय
##ild
हाफौ
गावथारनाय
बसादनि
बागदावनान
inf
फटʼगरा
थासारिजो
सकसपीयरा
सकसपीयारा
भिट
मलमजिबि
दाबसियाव
रहलाया
दोनथʼनाय
नजाथिनाय
रनजारनि
सानथौनि
कापखौ
कनटर
कनटराक
खथाइखौ
खथाइया
माउस
थानागौबला
अहʼ
रोमो
बाथौनि
खदमनान
मोसाहारिया
नजाफनो
नजाफयो।
फारागखौ
मिनथिगौ
उथरिनान
रजालिया।
सानथामसो
फोलरारि
बलाउज
जामबिफोरखौ
नौनारिफोरा
आपकनि
शिल
pron
pros
prog
टकसि
##दरायबला
टाइप
टाइटल
मामाइ
लनथ
लनथन
##लसना
फानदायनायाव
थनोस।
बाथरायाथʼ
बानदोलखौ
हाथारनाय
1963
इउनिभार
अनजिमाखौ
होबथानाय
आदिबासि
फायार
बलायावबो
मताम
लथोआव
इलकटरनि
चीफ
सिफियाव
गावबराखौ
बङाइगावनि
शकरा।
लाफिननो
नथारगौ
मराइनि
##gue
दरगानाय
दरगानान
निदानखौ
गोगलयो।।
परिषद
सतिस
पजʼ
परिनट
बलासि।
गालाङो।
जजिय
नाथारगौ।
बिबाआ
नोसाला
अनलख
डाकटारा
फोरबोआव
गायसननो
भटियापार
सोहोराव
खषटीयान
गोरानजो
बागरिखʼबाव
नायनायसाय
सावरायजलायनो
जामारबाय
दोहोरोमारि
आबरथिनि
नासय
नपालि
आइकʼ
सातजार
दाखालाम।
रासियानि
गरदस
फानजारियाव
फरषटनि
बसोरनि
लाकीखौ
आलमिगिया
सौवो।
दाहोनाफरा
adver
adjective
शरमा
बसात
जापान
अखरामायाव
दथननि
फजननो
मरालिखौ
मजिथाव
##उरिटि
टाटा
बफिननायस
लहरदो।
गोगग
परदिप
सदाननो
बिरहाङा
गलाफीनि
पाटिलनि
उततरा
दबावयो
गावजङा
गाबजरियो
हामबरनि
काजलगाव
मिजलिउ
बिलिदबाय
फरमट
खासोर
फादब
गिलासाव
गोराजोआ
सजगरायाबो
गिनागौ।
परदशनि
काशय
disc
फबरवारी
दाकटारा
sub
घरना
##बाजार
मानसिया।
दोलोनि
हगारसारनान
थगरिया
नादाय
गबʼनाय
बबदिनो
आसथामखौ
खदरिनाय
आमोखिया
रमायशरिया
मणिपरनि
उलाफादाव
एटासि
पलासटिक
फथिहा
गोमायो।
सोरगोनि
बिबसारनि
कमिसनार
लोरबाथि
फिरफिला
आफामोनखौ
बयावहायनो
उसिफाव
नलबारी
साखʼनदरा
root
बिरोदामिन
समपतति
लाइबररी
कमफिउटार
दाखालिसो
रामचियारी
इनसपकटर
बायदिसिना।
हाइबरिड
महाभारत
emotion
sense
शराइन
नायखखर
साखरियावला
कमपाउनद
##fication
##egram
नायगोमो
बारागाबारी
मगलीयान
थनलायारि
एकाउनट
करनिया
कहिध
खसालिय
फथियाहा
मफरोमखौबो
सागरिद
नागालणड
महकमानि
असताद
रजिषटरशनखौ
डाकतारा
##essories
from
limited
telegram
डसकटʼप
माबायदि
वाइलड
वरकशव
शशाक
##तानतरिक
सिरिजाहात
दोरोङारि
adverb
09
33
300
55
81
94
ar
can
cop
di
da
der
ep
fri
hal
hab
hour
have
lit
man
ne
name
ph
par
pain
pers
tw
we
with
अनो।
अखानि
आराव
आपार
आशि
इड
इषट
ईसान
उगर
उजिर
उजियो।
एद
एयार
एकटर
ओजोबो
औवारी
कहर
कथा
कʼर
ककखौ
खाद
खाह
खथाय
खनाया
खङो
खादोमोन
गानान
गलायनाय
गाउ
गफरोम
घन
चय
चक
चिर
चिनि
जिया
जागौ
जहर
जाजो
जगर
जनो।
जबलानो
जलिया
जलद
जनिया
टल
टबो
टनस
तिनि
तरन
थहा
थनायाव
थनाया
थजर
दज
दरि
दबाय
दथि
दहर
दफर
दादा
दालाय।
दराइभार
नफ
नत
नारि
नलाय
नसि
नथʼ
नाना
नजोब
नखो
नाथʼ
नथाया
नालनि
नासिगौ
फौ
फव
फाज
फबा
फानान
फराव
फथार
फादा
फखाङो।
फʼना
बसि
बखाय
बमाया
बामोननि
बजोबनो
भौ
भाग
भाइ
भमाव
मौ
मच
मध
मछ
मराव
मालि
माथाव
मलाखौ
मखारि
मबलानि
यलाब
रङ
रगि
रोनो
रिसि
रथʼ।
रदʼ
रषटर
लव
लोन
लथि
लकट
लिना
लकल
लकर
लयार
लाथा
लगराया
लासिगोन।
लटारि
वाल
शिब
स।
ससि
साङ
सनायखौ
सनागौ
सजाब
सारा
सानाया
हदो।
हहर
हथʼ
हनायनि
हगोन।
हदाखौ
##फनिफराय
##फनायाव
##फनायस।
##नबाय
##नामा
##नासो
##गोनि
##गालि
##बास
##बजो
##बोनायाव
##बासा
##लट
##लया
##साद
##ससो
##सननि
##जज
##जोम
##जादोमोन।
##जास।
##भला
##भनट
##टट
##टड
##टʼर
##तम
##तव
##ताब
##तपर
##याखस।
##दलाब
##खनो
##खागौ।
##खगरी
##मल
##मला
##मथि
##मया
##मारी
##माजो
##माइज
##पास
##पथि
##हास
##हगोन
##हरायाव
##हनि।
##ii
##ia
##iti
##ious
##sh
##ho
##वाबा
##वाखिस।
##थ।
##थाह
##उटि
##ङारी
##डस
##आन
##आरो
##min
##tr
##yle
##धाम
##ath
##ail
##la
##bar
##छानि
##35
##अʼनि
##ानथ
##ानखौ
##ानाथा
##ारियानो
##ाबस
##ाब।
##ाबावनो
बिआ
बिलʼ
बिगरा
बिनायाव
बिकास
##नायबो
##ागी
##ादी
##ादिया
##ादारा
##ियल
##ियाबला
##ियोमोन।
##ियालʼ
गोला
गोदि
##ासालि
##ोमनि
##ाइट
##ाइत
##ाइड
##िनी
मोनला
मोनसि
मोनबाव
मोनफर
मोननो।
मोनथिया
मोनबादि
मोनगरो
##रोङा।
आरोबा
##रिकस
##रायो।
##बायनाय
##ाहबाय।
##ाहारी
सिस
सिदम
सिरियाव
##थिबो
##थिलि
सानबला
सानावनो
सानगरा
सानथिनि
सानथाया
सानफनाय
सानफिनो
सानजाथाव
सानजानि
सानफराखमोन
नोलो
नोखौबो
नोहाबो
नोहा।
##लायनो।
##लायजास
##सोलाय।
मोबल
मोखरानि
मोखरब
##दिल
##ाबोबाय
##ाबोदो
##ाबोदोमोन।
होनदोमोन
होनबानो
होननाबो
जायोना
जोहाबो
जोथियाबो
गावन
गाव।
गावनिफराय
गावलायनाय
खालामबा
बरग
बरद
बरलाव
बरागि
समोन
समजित
सममि
सममथ
##लʼस।
सोबो।
सोखानो
##ाफारस
##नदरनि
मानाव
मानया
मानियानो
मिब
होख
होला
होथʼ
होबाव
होसरा
होसोनान
होलान
होथनान
माप
जिह
जिखौ
जिथाम
हाबाबो
हाबाखालि
नायना
नायथʼ
नायगिरि
नायनाया
नायनागौ
नायगराफोरनि
लोजोबबाय।
थाखानान
थाखिनि
##जाखौ
##हर।
##मात
नङाथाय
दिनबा
सोरनो
आखथि
गोसोदि
गोसोखानाय
बोसरानान
हायामोन।
रावा।
रावारि
बायहर
बायनागौ
बायगलि
अननो
अनारिखौ
अनार।
थानायथि
थानायबादि
माबलानिफराय
लोगोफोरनि
बारद
बारो।
बारानि
बारदो
बारदो।
बारगा
बारसलाय
गिनायाव
गिनायखौ
मोनसरा
मोनसनिफराय
दरयि
बसनो
बसरा
बसथा
बसथो
बसति
बसथायाव
बसमात
##थारल
##थारस
##थाराख
हमास
हमजानाय
हमलायनान
हमखरब
##बरबनान
मावस
मावनाया
मावरिय
गोरि
गोरजिया
आनिथि
##ालायनो
गजन
बादिखौ
सलʼवाबो
सलʼगिरिनि
सलʼमायानो
##आवला
##मोनाबो
##मोननाव
मलल
मलखौ
मलकनि
गोजानायाव
फोरजाया
हराबला
हरसखौ
हरनायस
हरशवर
हरागास
##खरर
##गोनना
एसʼचिय
बिसोरनिफराय
गबन।
गबनफरा
बाथराखौबो
रोबाय
रोगा
रोदानि
रोङोबला
जानाया।
फोजो
फोजायो
गसद
गसाइनि
सोमद
सोमदर
दिङ
दिखा
दिबर
दिखाना
दिपक
मगनो
मगा।
गाबदोमोन
जरय
जरबा
दखोन
दखोनि
दखनाया
बङाहा
गोदनायाव
##साफोरनि
##नजोनो
सासयानो
आलफानि
फारिया।
महरफोरा
थिनाय
थिनिफराय
थिफाय
सरमा
सरमानि
नागोल
सबफोरनो
मिथिगोन
राइजलाय
बायदिखौ
बायदिबला
बायदिफोरखौ
बायदिफोरा
गाराम
गारबाय
गारदो।
गाराङा
गारसोम
गारसोनान
बोरसिया
खरफा
खरयाव
##सरानाय
गासा
खनास
खनदो
खनथायगिरि
##मायारि
दानन
दाननाय
दानफाय
##गारो
##गारो।
दोनफ
दोनदोमोन
दोनहदो।
##गरनि
##गरो।
##गरियाव
##गरोनाय
फरायस
फरायगिरि
फरायसाल
आफगानि
आबो।
निजि
निखरइबो
गामियावनो
जौसरा
खामसालिनि
थायोनो
थायास।
राजन
राजखगरि
बबव
बबोनाय
बिजार
बिजाद
बिजिया
जिउखौनो
##टारखौ
##टारनल
##नायखौलʼ
बादो।
आइदिय
गराम
गरबला
गरमा
गरणड
गरदब
परन
परव
परच
परछ
परनि
परबल
परचि
परकति
जोबा।
जोबगोन
जोबजानाय
खोनाबा
खोनाजोब
खोनामारनो
नोनि।
नोनिनो
खौऔ
सिखो
सिखरा
सिखानो
सिखाङो।
रायबाय
रायदो
कलस
कलख
कलाब
##फरासो
लाइटा
हाकि
##फिन।
अर।
अरजो
अरदार
##सिनदो।
##सिनबाय।
##खʼर
नाखौ
नाकि
राइजोफोरजो
राइजोआरि
फिसाफोरनि
खारन
खारदि
खारहो
खारनाया
खाराख।
खारलानो
बाजाय
बानस
बानसाल
बानशवर
उनदह
उनदगल
उनदलाबाय।
मिनिशरी
मिनिबाला
लायबाय
लायदो।
लायफिन
थनागौ
नाजा।
नाजाबाव
खोमाना
बखोम
बखाबाय
जनभ
जनथ
जना।
जननायनि
आदाय
आदान
आदाब
कमिस
राखौबो
राभानि
बिफाव
जानन
जानाबाय
हारिय
बयबो।
बयसियाल
आफादफोरनि
आफादगिरिया
##हायि
गोमान
गोमाबाय।
गोमोद
खालामनानसो
आसियाव
आससा
बिथराय
बिथा।
बिथाङ
बिथाया
आयन
आयाबो
##गायाबो
बफोरजो
लाखा
लाखनि
लाखानाय
लाखानान
लाखादो।
बावदो
बावबाय।
बाहायदो
दमनि
दमफला
गाननायाव
##खोमादो
नागिरनायनि
नागिरबलाबो
नागिरनायखौ
मनजमोननि
मनजमनट
आलाइसर
गलनान
गलिय
गलयो।
गलगिरिफोरा
माइखौ
माइरखौ
##बादिनो
मोसादो।
नोथानो
नोथाङा।
फारसनिफराय
फावथाइफोरा
नोजोरनि
होनोबो
##कटरिक
बनायस।
बनायमोन।
साउ
बोसोरबर
बोसोरसालिया
बलाबाव
नारसा
बिबदिखौ
बिबदिनो।
लबन
दसानि
दसलʼ
हाजि
हाजास।
मोदाया
मनरनजन
लानायस
लानायानो
हानायखौ
मोननायखाय
मोननायबादि
सिगाब
सिगा।
##राइक
बाथराखौ।
फिथाया
जाखि
जाखमा
जाखागोन।
थाङास
थाङामोन
थाङाख।
गदरा
##नागौमोन
दाबल
दाबराय
जायोबा
बाप
खाथिर
नोसोर।
हागौबला
दोत
दोआ
दोखौ
एरसोनान
थारनखौ
थारखायाव
खबथाम
खबसʼ
बागनि
बागबो
बागदाउ
बखवफानि
गमथा
अजानि
हामिन
हानो।
खाना।
खानदि
फानस
फानथा
गोजौथि
खावन
खावना
खावलाया
फसब
मोजलाय
मोजामोन
सिरिमोन
रिउ
रिगा
गवनान
गवलानाय
##लाबानो
ननानबो
सानसʼनो
जोनोमा
ओखामनि
कलपनाजो
बिदया
लासिसि
हाखा
लिनो
लिङो।
लिहरो
बाहागोखौनो
सौनाय
सौथार
सौगदाव
साबोन
साबकजो
जाफिनो
जाफङा।
जाफराख
जाफिनो।
खायो।
थानादो।
थानाङो
जʼर
गोथखौ
सिनायनाय
सिनायनान
गामिनिनो
##फिक
बदारनि
समाजखानथि
गोनाबो
गोनाथिया
थाबायनान
थाफदो।
थाफयो।
थाफिनो।
हाथास
हाखोखौनो
गोजोनथाव
नजानान
सायखल
सायरʼ
सायखʼनान
बरहमआ
बरहमवा।
साननाननो
सोलोय
सोलोसालि
सोलोवारि
लाबोगोन।
सारज
सारोन
सारफाव
सारफराव
सारभिस
सखया
जिरायदो
गलʼजो
गलʼवाबो
ददरʼ
दाहना
बडʼसा
गʼलायाव
सोमोनदो।
दिहनबाय
दिहनदो
थलफाया
होमबलाबो
##कसट
बिलाइयाव
बिलाइसरिया।
बलादोमोन
बलासिनि
बलासयाव
दाखिन
गासिखौबो
थोयो
थोयो।
बोहग
बोहाब
लाखि।
लाखिथो
बिनय
बिनशवर
जाथायफोरखौ
जाबानो
हालदा
रामायण
गनसो
सफबला
सफनायनि
190
इसकल
इसलाम
##मिनाल
##मिनटन
डिगरि
थिनबा
थावखौ
थावजो
##खानागौ
बिजिरसालिया
सोलायो
फरनट
फरइनाव
सनीया
अजितजो
खफाथिया
साइन
साइद
साइबर
नायजाब।
लाफायो
दल।
हाबफदोमोन।
ददला
ददलाम
मासिया
मासथारनि
सपतमबरनि
बखौनोथʼ
दौदिनिया
फागलाबादि
सावरायनायाव
सावरायगिरि
टिफिन
टिकिट
लानदा
##मार।
करसा
बासिनसो
गजरजोसो
जोमखौ
जोमनान
##लानाया
दामोन।
दामगरा
सोरजिदो
सोरजिदो।
फोथायथि
खिनथाबाय।
सिन।
सिनमानि
##खलनान
बयाव।
खदियानि
हायोबलाबो
दाउजला
लाजिथाव
लाजिनायजो
लाजिगस
बिरनान
बिरलादो।
आखायाव।
गाहाइयाव
नगौथʼ
गनदाजो
लाहोनान
सालथ
सालान
सालिया
##ʼवार
गोबानि
दरहानायनि
बनागोन।
मसल
जनात
बहत
बहबाय
बहानिफराय
थाखिमोन।
थालाबाय
गोलदो
माहाजोनाबो
थबसिया
थबसरʼ
जामिया
गायनाय
जालिया।
मोनबायदि
दङʼमोन।
बोराय।
बोराया।
भारतनिफराय
आमखाया
गामि।
दानाय।
दानायखौ
सराजानि
सʼन
बवाइ
जावखलाब
खोनासनान
खोनासदो।
सिमासो
सिमबलि
सिमपान
जागरो
जागराया
जागोदान
##रियानो
##रियाजो
साननायमोन।
हासा
बिथिङ
सोमावनान
इउजार
##लाबायनो
बिबानगिरि
फालानि
रामनाथनि
रामनाथजो
सहʼ
सहननि
बिहाउ
गोरोबनाय।
लागा
लागार
लागनो
लागोनि
फरायसाफोरखौ
बथारगरा
सोलिया।
राइजोनिफराय
##ीराम
सवार
खोमसिखौ
दगलायनो
गोरलखौ
बोलोगोरा
रबतिया
##ese
थनफावथाइ।
थनफावथाइगिरिया
जालायबाय।
अबथिर
मनिराम
सनिथि
फाथरि
बोखावनो
बोखलाइ
बोखोनान
खगाजोनो
आनदायाबो
खमथा
खमबीबा
आगाननसो
जसबाखि
थादोल
मथाइजो
जारलायाव
अनसाइ
रʼ।
किक
किटसन
थाहनो
थाहनान
थाहयो।
थाहनाया
सालाफोर
बरखाहोनो
गाबोननि
हलपार
बाखाय
होफबाय।
रायजलायनाया
फाफखौ
गोमोबाय।
गोमोहाबनान
गागलाब
परमीला
बानजायफ
आथोनखौ
डाटा
थौबाय
बासाय
सिखावा
नाजानायावनो
नहरो
नहराख
सावगारिजो
गनायनो
गनायथाव
##पातर
सोमजिनायनि
सोमजिहोयो।
अलकाजो
सनदला
बायदिसो
खगाखौ
बिमाद
मोनदोबलाबो
सोबायो
मिथिगौना
बगपाइ
हरास।
मिजिथि
खबसबो
गगना
सटजाव
सटसन
पारसन
##ाखमोनबलाबो
दवार
##थाबादि
##ort
थाबलासो
फोरमानलाइ
कासाराव
##फलादो
दिललीनिफराय
नायगिरनो
नायगिरना
मरख
मरदा
मायाज
साजानि
साजा।
हमथाबाय
रिसारथिजो
दासा
नबमबराव
नोमफ
दहायसो
मोनहनान
मोनहयो।
निउबि
बिजौखौ
अनिमानि
लावगि
मोनजलायनाय
मोनजाथार
थिकादार
खोमदोननि
हाजारबार
हाजारखि
तिता
मलगाव।
राहागिरि
दागो
उजिदो
पाटी
सोनायखौ
गाबजरिनाय
सोलिगरा
लरत
थिङनि
नागाफोरखौ
मथन
हाबहनाय
बादियनो
बिनारामखौ
मोनदाथिखौ
158
मालगा
बकाव
मलिफोरखौ
गाखोम
सोदरोमाफोरखौ
सोदरोमाफोरनि
सोलोथाइखौ
लाजिन
जाहोनागौ
जाहोनागौ।
सिबिनायनि
सिबिनायखौ
निमख
हौवाजो
कनफार
जकट।
फोनानो
फारसथिनिफराय
नाथाइ
गौमा
जगनि
नहरबाय।
लाउखार
##ish
##ission
बिजिद
फरायसालिमा
गाड
जयराम
थोनाया
फालिखौ
फालिनो
रबिलानि
रबिलसना
दावगानायनि
दावगानाया
खदियाफोरजो
जलदब
सिथलानि
हाबिलाखौ
कामक
ननायखाय
बदिखौ
होआख।
कलिका
बिमायनो
बिमायानो
सोनाबारि
नाइट
मजम
मजाह
जनादफोरखौ
थाफिनदो।
थिनहर।
थिनहरबाय।
दनथ
रामोनदानि
सथो।
सथबनान
बिसारनि
हायाखबलाबो
जातनि
1986
1982
निसाया
सनायनो
##red
नायबिजिरनाय
दादर
##गरोयो
आखालखौ
फावथिनाफोरा
ददनगिरिफोर
दोहोनि
थाइलालि।
उलटा
बामोना
बामबल
मराय।
कलासाव
इसिबा
एवसरा
जजिनो
जजिनाय
उसनद
षटज
सनापत
बाथराबो
सरकारि
सरकारी
खनसायखौ
सिगारटखौ
खालारनिफराय
खाखल
खाखला
जरिजननाय
दखायोमोन।
हागरामानि
हागरामायाव
मोदाइ।
फजʼनाय
inh
inv
बसागिया
मावथिफोरा
मिनिटसोनि
खोनायोबला
फालागिखौ
सिथारनान
बरामनि
##हालागबो
मलमखौ
मलमजो
इखरिखौ
जाहोदो
नजाथिदो।
एकथ
खोखलनाय
लाबोनायनि
सालायनो
सिलाइनि
सानथौखौ
गिलिर।
कापस
कापाव
कापनि
सिसटमखौ
लफनट
जोखलोबनान
एमबखौ
सागरमा
होसोबो
माउसनि
बारहाव
बारहखाया
नोनियाव
माथरा
जाखरिथाइया
मिसस
मिसटि
जखायस
जखायनाय
बिबायनान
थिसननायनि
फादोरनि
##ादरो।
लʼ।
##ाहरो।
माषटारा
बयनिखरयबो
खिरफिन
मानसियासो
##बादी
##बादिय
नोथामोननो
खोबथनान
जामबि।
मावफारियाफोरनि
गालानान
रोनागोन।
ओनसोलारि
गिसिख
जमम
जममनि
टकन
दोमलो
दगलायबो
मावरिजाजो
फोजोन
फानदायनाय
मसाहारीया
दनदाया
गोमोनाय
हाथारा।
1968
1960
1962
गियाना
रोजाबनाय
नाजाबफानाय
खिनथिगास
करिमिनाल
बिथाखिखौ
रिगदाम
आगरवाला
थाथʼनान
##चिटि
थाखोमानाय
लाइनम
बाजियावसो
गʼलादार
एसिद
एसिबा
खाप
खाता
बाजारनिफराय
माइथायनिफरायनो
आवरायजननाय
सायखङा
सनथाली
लाफिनदो।
बिगरायारिफोरखौ
उइल
उइलखौ
एखथा
ननदʼवा
मराइखौ
सानथरिया
जाबावनागौ
state
style
परिषदा
फारनयाव
बिसायखʼथिनि
गयामोनबलाबो
परिनटार
जोबथसालिनिफराय
लबयाखमोन।
बिगोमाया
थाजानो
नाला।
महातमा
सखʼनो
##ानागौबला
नायगराफोरखौ
इनटारनटनि
1994
गायसननायनि
सालाइखौ
पसमी
फदरनो
मोनलोङा
दानसोरानि
दानसोराखौ
बबयावबा
बिथामोनखौ
बिथामोनहा
हालोदखौ
1974
1977
दाथा।
थायनया
थायननिफराय
थायनयाव
हामफया
सजगराखौ
नालिसाव
मोगथाङारि
नासराय
फफोना
बसʼनान
फिदिनो
फिदिङो
गʼसाइया
असमियाफोरनि
खिरखिखौ
थखरया
बकसी
दानसʼनाय
बागान।
aspi
नपाल
खरथनि
आइकʼना
बदमास
बिमाइनो
रबिबाराव
हसपिटाल
play
दाजा।
लाजोबनो
सतीस
गाबखʼवा
रानदिखौ
दाकातनि
275
exp
असिद
##ople
लाखारजानाय
गʼसाइनि
अटʼरिकस
उपन
लखʼबा
##ʼलजि
##लाङाख।
सोदोर
मिनिखसिय
खिथरखौ
नोमाखौ
परशानतवा।
गोबाखरʼ
आजायनाय
कानधाम
नाहाब
बौह
बिबथखौ
परदिपखौ
जोबसरानायनि
हामबायस
सदाननान
थाइनया
फाहामसालिखौ
गोदोनानि
आफोदनि
सनापति।
##oci
मिजलौ
गसवामीया
गाडीजो
दाङाबाजिनि
धमक
भावथिना
जाबरथायाव
मासटारा
बसोआवनो
नोरखो
मसरनाय
नायगनान
बारगनो
जाफङाखिस।
काशमी
who
what
नहात
फखरिनि
फबिलि
##आलया
जिगाबनि
माइकरʼस
गायदया
गायदाङा
थोरफोआव
बरकफास
tragic
कासतमारफोरखौ
खाउरि
सिकित
मिलौहाब
बारसʼनान
सावखलि
सावखलिनि
आरागानि
बावहायनो
its
pad
इटाली
दखʼरा
बिजाथिफोरा
गोमालानाय
इसलारिया
आगोलावनो
उथमाय
सबरन
सिददा
सिनदकनि
boy
थिसʼन
पियन
भलनटियार
मोरोन
सानफामानि
गनतनतरबादि
हारामजादि
people
उमश
एगोनाया
धरमनदर
राफोत
सबिजिरनि
समबधन
रायफोद
राणीया
राणीनि
गʼगाप
गोलोनद
हालिवगरा
आजिरा
एदावबला
कलʼडिय
घिउ
होरला
##ffix
बोजबनान
रायजलाया
उदासरिनि
बफबनाय।
नाथरोदनान
खगलबनान
भबश
बिधान
लोगोरि
मगावाट
दोनखमानो
लिरबिदा
महीध
नरकासरनि
रिगासोयाव
accessories
july
अखनबा
टलिफʼन
लदामनो
जिखलाबस
रामसियारि
करʼरपति
खनाशानति
बिगोमाजोआ
इनदरपर
काउनसि
जमिदार
ठाकर
सोमजायगरा
लिबारसन
खिरिमिन
बासरिनाय
हाबिलदारा
उसखथ
डनमारकनि
बहसपतिबारखालि
जालिजौनि
शचीपातर
character
अबरामा
धालीगाव
भनिटि
मलामफानि
बिजावजालि
सोलासलिब
थिगिनिया
खनोरोखोम
मिनिगागलाब
लबʼरटʼ
साबाइखर
फिनसाजा
हिमालय
भिटामिन
इलकटरनिक
नादायदा
deriv
habild
paint
लयारटिस
सममिथिसʼ
आफगानिसत
परकतिकल
अबथिरानो
बगपाइपार
##मिस
48
46
41
5th
62
77
73
am
bod
bus
cd
cor
cle
cru
del
dec
dri
drama
end
him
iv
let
mer
mor
ob
res
sy
sw
sec
sys
tim
vol
अत
अय
अइ
अथा
अगरि
अखाया
आजा
आसर
आगल
आलायनान
आजोनो
आलायनो
आजार
आधा
इ।
इश
इला
इलि
इनाव
इचन
उबर
उइन
उरब
उजिय
उजिनागौ
एग
एथ
एच
एना
एणड
एरायनो
ओन
ओनदा
ओलस
कब
कव
काला
कस।
करी
कनदर
कलिनि
खथि
खजा
खगरा
खनायनि
खाबाय।
खफर
खनो।
खणड
खसिया
खागर
खलाम
खनानि
खलोब
खथानि
खरिखौ
खालास
ग।
गाया
गहा
गथाइ
गारी
गगोन
गाहा
गागरा
गहन
गबोयो
गाउन
घाब
घरिया
घिक
चछ
चरण
चनल
जता
जफानाय
जदा।
जदाम
टला
टास
टिस
टलि
टषट
टाक
टकि
टबोला
डल
ड0
डार
डिर
डाइनि
तन
तर
तम
थानि
थागौ
थवा
थगोन।
थहाब
थखानायनि
थनायखौनो
थासिगोन।
दी
ददो
दजि
दथʼ
दयो।
दगर
दखौनो
दाखो
दादो।
दराया
दलनि
दसोगार
धि
धत
धोत
धालिगाव
नल
नायाव
नासि
नयाव
नाथि
नसार
नफिन
नसिम
नोरोम
नादोमोन।
नथायनि
नबोला
नफिनबाय
नगरोन
नभल
नसलाबा
नकसट
पिर
पलनि
पणड
पटर
पइनट
फत
फम
फफा
फननि
फनो।
फाजि
फनस
फखाबाय
फखाबाय।
फखाया।
फाजिया
बी
बोना
बनाव
बखार
बालि
बाबाय।
बलाव
बमानि
बजोब
बलायनाय
बजानाय
बबलानो
बगʼ
बडि
भइ
भराम
मलʼ
मफोरा
माराम
मराया
मनदा
मागर
मवा।
यर
यी
याद
रट
रद
रइ
रामा
रजाय
रजायो
रटिन
लभ
लार
लखर
लासिनो
लटर
लागौमोन
लासिगोन
लोनागौ
शरि
शखर
शयाम
षटर
सिया
सबाव
सनाया
सजोब
सखो
सकरा
सकटर
ससियल
हप
हइ
हबा
हथायाव
हखल
हासिगोन।
हदायानो
##फस
##फलनि
##फलानाय
##फटा
##फबनाय
##नाङो
##नादोमोन।
##नयाव।
##गन
##गला
##गथʼ
##गीज
##ौ।
##बलाय
##बबर
##बाथʼ
##बालʼ
##लव
##लारि
##लनखौ
##लनस
##सफ
##साइनि
##सिसा
##जञ
##जान
##जाम
##जाख
##जामा
##जाथार
##जियाबो
##जनदो।
##रटा
##टनट
##टिसन
##तान
##तानि
##तियाव
##तकार
##य।
##यारी
##याखिस
##याखिस।
##दनट
##दलानान
##खाइ
##खोनाय
##खमोन।
##म।
##मजो
##मबा
##मोनि
##मालि
##मित
##पटार
##ʼद
##ʼआ
##ʼसन
##हक
##होम
##होना
##हाथʼ
##हʼर
##हारखौ
##होनाया
##हदिनि।
##ue
##ud
##iz
##son
##वालाय
##वाखमोन।
##वाबो।
##थाफ
##उला
##ील
##ङाख
##ङाबला
##डल
##डियान
##डार।
##आरी
##po
##ce
##fe
##face
##61
##16
##13
##ble
##20
##30
##ायन
##ावनान
##निपा
##ारट
##ाबा।
##ाबदो।
##ाबालाय
##खौबा
बिहर
बिलायनान
बिलायनो
बिउटि
##नायमोन।
##ामासि
##ागारा
##ादियाव
##ादारनि
##ियन
##ियनो
##ियामनि
गोफा
गोफार
##ाथो।
##ाथायाव
##ाखर
##ाखʼ
##ाखोम
##ाखानो
##ाखायनो
##ाखालिनि
##बोआख
##ाजानो
##ाजा।
##िनव
##िनखौ
मोनल
मोनोमोन।
मोनजोब
मोनखानान
मोनफिनबाय।
मोनगौमोन
मोनोमोनबला
##रोबला
##रोङा
##फोरसो
##फोरावनो
##फोरनाव
##बायदो
##बायदो।
##बायगरा
##जोबा
##ाहानि
##ाहा।
सिट
सिदोम
सिथा
सिफोरखौ
सिकस
सिलाखौ
सिथावना
सिकार
सिकिउ
##बाशी
सानग
सानलाय
सानफर
सानसिम
सानफोराव
सानखानाय
साननाय।
सानफरोम
सानबस
नोसिन
नोदानि
##सिजो
##सिनिफराय
##सिबल
##सिजन
मोल
मोखर
मोदाउ
##दोलʼ
##ाबोबाय।
होनदो।
होनबाथाय
जायास
जायजो
जायफोरनि
जायाबालानो
जायोमोनबला
जोदो।
जोफर
जोलानि
##बलाइ
##बलाथाय
गावनाव
गावथʼ
गावहाबो
खालामस
खालामाबला
खालामथाव
खालामजानान
खालामखानायनि
बरिया
बरहा
बरथा
बरामि
बरवानि
बरदल
समय
समʼ
समाग
सोगोन
सोदोमोन।
सोङा
सोबनान
सोफराम
सोफिनो।
सोबावो
सोहरो।
##ाफाग
##ाफयो।
##नदरा
##नदोमोन
मानियो।
मानसिनाव
मिला
मिरि
मिलाय
मिलायनान
मिथिनागौ
होथ
होवा
होलायनाय
होलानो
होखानान
होबोनाय
होलायनो
होथारबाय
होलादो
होबोदो
होगदाव
##लिनान
##लिनिफराय
जिम
जिनाय
जिबादि
जिथायाव
जिलानि
जिगाया
हाबदो।
हाबाजो
हाबलानाय
हाबराखौ
##ाथायनि
नायाख
नाययो
नायदा
नायनायाव
नायनो।
नायसरा
नायगरानि
नायहरा
लोफ
लोजोबो
थाखरि
##जाता
नङाम
नङाथʼ
दिननाय
दिनावनो
दिनबाव
दिनथिया
दिनथिना
सोरहा
सोरबि
सोरबानि
सोरनोबा
फिसाला
फिसानिफराय
फिसायनि
आखमा
आखथाइनि
आखमा।
आखानथि
गोसोस
गोसोखौ।
बोदो
बोगौ
बोदोमोन
बोखो
बोगासिनो
बोबोनान
बोबथि
##बलनान
बाथनो
गबराय
हायया
हायियाव
हायखाय
बरʼवा।
बरʼफोराबो
रावय
रावाबो
बायल
बायदो।
बायदम
अनलायनाया
अननत
थानाय।
थानाया।
थानायाबो
##थʼनो
माबासो
बारखौ
बारबला
बारलि
बारहो
बारखानान
बारबलानो
बारगास
गिबाय।
गिदोमोन।
##लाइया
दरनाय
दरोम
दरहाय
दरङा
दरलाया।
बसिन
थाखायो।
##थारनागौ
##थारनागौ।
##थारोङ
##थारगौमोन
जादोना
बिबारिया
बिबाननि
बिबʼवा
बिबनाखौ
बिबदियाव
हमखर
हमदोमोन
हमजलायनान
##बरब
##बराब
##बरोम
मावज
माव।
मावदोमोन।
मावनाय।
मावहोनो
मावगराया
गजʼ
गजनाय
गजरि
बादिनि
बादिबो
##मोनखौ।
##मोनबो।
मलिया
गोजादो।
फोरजानि
फोरबोनि
हरफ
हरबाव
हरनाया
हरगोन।
हरदोमोन
हरबादि
हरनागौ
हरजानाय
हरसनि
##खरावनो
##गोनखौ
एसयबलाबो
मानसिफोरनो
बिसोरखि
गबनखौ
गबनफोर
बाथराजोनो
रोद
रोदो
##खाय।
##खायनि
गयथि
गयाथाय
##फोरनिबो
जानायाबो
फोथाया
फोलाबाय
##बावबला
##बावदोमोन
गसखौ
गसबाय
गसलʼ
गसरिय
सोम।
सोमसरि
सोमबरʼ
उनावथʼ
दिहनो
मगाया
मगलिनाय
मगाजिन
गाबनायाव
गाबदोमोन।
गाबखाङो।
जरनो
जरहाय
दखबो
दखारि
दखानाव
दखनानि
बाहरा
##दरनाय
बनिखाय
बङाबलाबो
गोदसिन
फावदरा
##वाव।
##बिक
##बिलनि
##नजो।
##होआ
##होबला
##होदोमोन
##ाबलासो
सासप
सासयाबो
आल।
आलला
दावखि
फारफा
महरनो
थिखा
सरत
सरसा
सरलाङो।
नागर
नागरि
नागा।
नागाजो
सबफोर
सबखौनो
सबफोरजो
सबसाइनि
मिथिबला
मिथिङाव
मिथिखानाय
मिथिसिगौ।
मिथिसʼनो
राइजो।
राइफलनि
गारʼ
गारह
गारड
गारदो
गारनाया
गारोबला
गारजिय
खरोम
खरबा
खरसानि
गासया
गासयाव
ओखारबला
ओखारना
ओखारनायखौ
ओखारदोमोन।
ओखारनायस।
ओखारलाबला
ओखारलाङ
खनाल
खनबरसो
##मायनान
दानबला
दानननि
##गारनान
##गारदो।
दोनदोमोन।
दोनसलाय
दोनखादोमोन।
##गरोनान
##गरामोन।
फरायाव
फरायथि
फरायगोन
फरायनायखौ
फरायगास
फरायसाया
आफि
आफाङाव
आफाखि
आफरिक
निरा
निबो
निखरइ
गामबारी
जौथायाव
जौमोना
जौमोनखौ
खामि
राजा।
राजाफरा
##लावरि
बबस
बबसिम
लिरबाय।
बिजला
बिजलि
बिजाथिया
जिउगोना
##टार।
##टारनि
गोनाफोरा
बाद।
बादला।
बादारि।
आइनो
##फरय
गरप
गरजि
गरबल
गरजाव
गरमि
गरभा
गरसलाय
जबोला
परता
परजकट
जोब।
जोबगोन।
जोबनाय।
जोबनानबो
नʼस
नʼखरा
##दोमोननो।
हिनजावस
हिनजावाबो
सावबाय
खोनाफा
सिखिरि
कलन
कलरʼ
कलारक
लाइननि
लाइटनि
लाइटाव
##फिनदोमोन।
अरफ
अरप
अरजाब
अरडार।
नाछानि
राइजोया
हारिमा
हारिफोरा
खारफ
खारग
खारसि
खारगरा
खारगल
खारगासिनो
खारलाबाय
खारखम
खारहोनो
खारलादो
जाबायबला
जाबायमोन
बाजिसो
बानथ
बाननि
बानाइ
बानदर
बानदी
उनदबाय।
उनदयो।
उनदगासिनो
उनदलाबाय
उनदयावनो
मिनिहा
मिनिखʼ
मिनिमाइज
आखौलाय
आखौलʼ
लायास
लायहोनान
लायथा।
लायालाबासिनो
खालामनोबो
##मानिखौ
नाजर
नाजान
नाजानो
नाजाव।
नाजानागौ।
नाजानागोन।
गाजर
खोमानो
खोमदोन।
फोरमायनायखौ
फोरमायथियो।
बखनो
बखिनि
बखाना
बखाङो
जननागौ
आदरि
आदानाव
आदायालाय
##टिकनि
##जोबाबला
कमारनि
गथʼवा।
जाथरा
खोथिया
खोथायानो
बिफायानो
बिफाया।
महाज
महारा
महनदर
महसवर
महामाया
माहाम
माहारी
जानादोमोन
जानवारी
दिनथिदो
हारटनि
गजर।
गजरनिफराय
गजरजो।
आफाद।
आफादानो
आफादनिफराय
##गलाबाय
आसल
आसानि
आसिया
आसाया
बिथङ
बिथानो
बिथाङानो
आया।
बफोरनिफराय
बिखनि
बिखखौ
लाखाबाय।
लाखिना
लाखियो
बावा
बावगोन
बावलाबाय।
बाहाय।
बाहायना
बिदिनो।
बिदिखायनो
जोनिनो
जाहनान
जाहगोन
जाहाराव
दमवा
दमारिनि
दमासिम
दमारीया
दमारीनि
गाननि
गानसो
गानफब
##बारट
##बार।
##बारखौ
आगाननि
##खोमाबाय।
नागिरह
नागिरबलानो
नागिरबाबो
मनजआ
आलाइ।
गलोम
गलानि
गलयो
गलनायनि
गलनाय।
मोसानायनि
मोसबनान
मोसायो।
मोसानायखौ
फारसलʼ
##सन।
##सननान
फावथाइयाव
उननिफराय
उनखालि
बनाय।
रमन
रमा।
रमोना
साकर
बोसोरनिफरायनो
बोसोरबासो
बल।
बलाबो
बलकनि
बलरʼ
##हनागौ।
नारजि
नारानाथा
लबना
लबदोमोन।
हाजिरा
मोदला
मोदाइनि
मनचा
हानाय।
हानायबो
हानायमोन।
मोननायानो
मोननायमोन।
सिगानाय
मोखास
जोनथोर
जोनिसिम
फिराय
फिथाय
जाखोम
जाखाजोबबाय।
थाङाबला
थाङास।
##ासिनदो।
##रीटि
गदʼ
गदिया
दाबिया
दाबादियाव
उदा।
बाधय
खाथा
खाथरि
एमावनो
खरʼसिम
दोआव
दोथाम
एरखʼ
एरखानान
खबख
खबखानान
खबजरा
गमार
गमारा।
माखला
माखलि
खानसरि
फानफ
फानहर
गोजौआव
खावबʼ
फसानदि
फसवन
मोजादि
सिरिथा
रिथि
रिमोनदो
मोदोमनाय
बिहारनि
जागोनना
##लाबाबो
बिसि।
बिसिनो
बिसिफोरनि
जोनोमफरि
समायो
##काश
कलपन
कलपनानो
बिदानथ
सगराफोराबो
हाखराइ
हाखरनि
लिग
लिदार
बाहागोफोराव
बाहागोआनो
सौध
सौनो
सौगरा
सलफ
हगारदो
गोगलनो
गोगलदोमोन।
गोगलजोबो।
जाफबाय
जाफलायबाय
खायल
खायदाय
मलगनाङ
थानानाय
थानदा
थानाङो।
लाबलानो
मोननखौबो
जʼथाय
गोथनो
सिनायो
सिनायलायनाय
साखर
साखथि
बदानि
बददनि
समाजजो
आसामि
आसाम।
आसामनो
आसामजो
आसामिया
आसामिखौ
सदबासा
थनलाइया
रागाजोनो
थाबायगरा
थाफा
थाफलि
थाफादर
हाथʼ
गोरोबो।
बिगरि
बिगमनि
गोजोनबाय।
गोजोनगोन।
नजाबाय
नजादो।
नजानायनि
##फोराव।
##फोरावसो
##लानोस
बिसखौ
बिसाना
बिसाइनि
सोलोखौ
सोलोजोनो
लाबोफिननो
सारन
सारटिफिकट
##थमनाय
सखलʼ
जिरायफ
जिरायो
गलʼनो
गलʼलʼ
दाहो।
दाहा।
दाहारा
दाहाराव
दाहारखौ
दिहनगरा
दिहनगा
दिहनगिबि
दिहनगाबा
थलफानि
थलबनि
गाहायखौ
##कसखौ
दरजानाव
बिलाइफोरखौ
फबायाबो
##ागरियाव
बलातकार
दाखʼ
जाथाइफोरखौ
जाथाइखौनो
थोबर
थोलो
बोहबाय
बोहलादो
लाखिदो
लाखिगोन।
हौवाफोरा
आनारीयाबो
थफान
थफननि
थफलाखौ
रावबोथʼ
जाबोर
फिसाजोजो
गन।
सफल
सफदो
सफयो।
थाइसरि
थाइगिर
थाइलणडनि
डिज
डिप
डिङा
थिनबला
थाव।
थावगब
##खानदा
##खानागौ।
सनस
सनास
सनसिनि
सनमाना
बाबन
बाबर
गोराखौ
खफʼनि
साइखʼ
इनटि
इनषटि
लाफाय
लाफायो।
लाफिनो
थवबो।
दाजाबदा।
मारौ
मारच
मारʼव
मारदार
मारटियाव
हारसिनि
दलब
रोखोमसनि
खाबनि
खाबरा
##erit
हाबफदो।
ददग
मासया
दौसरम
फागला।
टिम
लानादो।
लानमी
बिबारबारि
##ानाव।
खोथाफोरखौ
गिबिफोरा
##मारबाय
करिय
पिपि
पिषटल
बफबाय
जोमफब
दामो
दामसिखौ
सिखारनाय
सिखारबाय
दबदार
हादोरखौ
हादोरारि
सोरजिनाय।
सोरजिलानाय
टरन
टराब
टरजि
बबावबाय
नायहरगासिनो
##ाकत
गाराखौ
लाइजामजो
लाइजामा।
दाउथ
दाउखा
दाउफोरनि
मोजाङानो
असख
बिरनाय
बिरलाङो।
नगौल
गोलावजो
भारचन
रानना
लाहनाय
लाहगोन
लाहाखि
सानथरिखौ
सानथरिफोरनि
फाहार।
बजाया
##सराउ
गोबौ
गोबालायनान
बनार
बनसाव
बनदिनि
##one
नङाबला।
थासलि
मोसौ।
थालाबाय।
माबोरथो
नखरारि
गोलदो।
गोलसोनान
##सʼनान
माहाजोनहा
फिसाइफोरा
गायगरा
जालदाब
जालानायस।
थाखोस
बाइनारि
बाइकाव
बाइहरायाव
सलʼमाफोरनि
थरद
बोरायजो
बोरायाबो
नाङि
नाङाखिस।
गोखरोथार
सामʼ
सामलाइ
सामलाउ
##फलाबाय।
##फलाना
फलक
फलडार
हफाजाबखौ
हफाजाबजो
सकटार
रोङखौ
रोङाबोला
अमलनि
अमरनि
अमनड
##जनस
खोनासदोमोन।
खोनासनो।
अलʼकनो
मखʼथाव
सिमायाव
सिमनानि
बनिखायनोथʼ
जागार
जागोना
##रियाबो
नोजोरथावदि
आनजरायनान
##फरोमावबो
तलाराम।
तलारामाबो
गिदिर।
##दारथ
जिललाया
##ाजोब।
गोसोआरि
मददनि
बिबान।
धोरोम।
धोरोमजो
धोरोमारि
सगराय
बनदʼ
बनिफराय।
बनिफरायसो
थनफावथि
फोजोबसरा
खनसयावनो
बिदिबलाथʼ
मादरा
मादया
सहनो
सहनायस।
सहʼखौ
जौगाल
बरास
खामानिया।
बालायाव
गोरोबनो
गोरोबथानि
लागाब
सावगारिनि
खाफाल।
बथारदो।
नोथाआ
सोरखारनो
सोलरा
सोलवा
सोलोनागौ
सवर
सवामी
गोथौनि
गोथौसिन
दगनो
दगनान
गोरल।
बावदियाबो
बिलिफा।
बिलिफाङ
रबस
खʼथाखौ
जालायदो
अजयजो
अजयाबो
बोथोरखौ
हाजʼवारिनि
अबङा
अबसय
नारजारि
रिसटʼर
हिसाबसो
बोखलाब
बोखलायनान
बसोयाव
नागारनाय
खनथाइखौ
आनदानि
गोहलो
आलासिफोरा
आलासिफोरनि
मथाइ।
समबाराव
आइजोफोराबो
एफाबा
एलब
जाराफाग
दोरफा
सोदरनान
अनसथाय
अनसथाइनि
फोरोदोमोन
फोरोगिरिफोरा
रʼग
रʼदाव
थाहोनाय
फनायस
खोनानानबो
हानजास
बवहाय।
बरायबाय
बरायदो
गाबोनबो
गदिखौ
बाखि
बालासरि
होफनान
रायजलायदो।
आफादगिरिनि
अमाखौ
गागलोबनान
बजिनाय
नवाबला
काट
थौजास
बथला
बासिया
गोरोनथि।
गोरोनथिफोरखौ
इयर
इयार
इयारि
इयना
सिखावफोरनि
सिखावरिनि
बाजि।
जानागौमोन
हागारिनि
गनायगोन
गनायनागोन।
फोलोम
सोमजिनो
सोमजिनान
सोमजिनायाव
सोमजिहोनो
फननो
फनदि
##out
##ouse
हादर।
जोरखौ
जोरहा
दिललीया
जिनजरि
बगनिफराय
गलाप
गलादार
हराख।
मिजि।
मिजिथिनो
गगराय
बजायनान
बजायबाय
सटखौ
सटसनाव
बिलडिनि
खायसफरा
खालायाव
पारकि
पारकाव
पारमिट
फाइन
अननायावनो
जाबलासो
दवी
दवबार
अखराखौ
फयाखिस
सिबियारि
दखोआव
बिदिनोस
कासारखौ
हावरिया।
हाइथ
हाजोखौ
साहानि
साहाजो
नायगिरदो
दानदिसयावनो
चिलाराम
मरजनि
मरदाबाद
हमथा।
रिसारथिनि
नबथिस
नोमाय
नोमाया
नोमाजो
सथरजो
##भिल
फिसौ।
गाखोहयो।
गाखोहयो
their
दहायाबो
मोनहनो
मोनहास
दाजाबदाफोरा
सोमोनदोनि
लावथिखौ
बायदिसिनाखौ
बिषि
बिषमाव
गोसोखालाइ
माबलादि
आसिखौ
कारजिया
हयतʼ
नाम।
नामनो
दाग।
नालखर
फयोबलाबो
भटाव
भटाना
गोखरसिन
गोखरथिजो
खवना
थोरफ
थोरसि
मिनथिय
##थियावबो
##ari
##ary
##are
हाजʼवारीखौ
गाबजरिनान
##फारस।
##शरीया
मोनथिसलाब
नागाखौ
नागाफोरजो
आयदा।
बमाफ
हाबहबला
बादियबला
रफालीया
मोनदानान
मोनदादो
बारगʼनाय
आवगायनान
सिनायथिनो
1500
फदलि
मालदारा
मिथियाख
खावलायखौ
लिहरामोन
सोरखौथो
मावनायाबो
सोदरोमाफोराबो
नगान
नगरो
बखवफाफोरखौ
बखवफाखौनो
कमाणडा
कमाणडफोर
जाबोदोमोन।
जथममाखौ
सानसरिनो
बिहामजोआ
सागलन
##ाबावो।
सिबिगरा
सिबिनायाव
जाथारनाय
जाथारबाय
हौवाफरा
जागायनो
हʼलनि
हʼषटलाव
मोनलायनाया
जायाखबलाबो
अनजाली
फोनाङो
कमपनि
कमपलकस
नाथर
गौरा
##ised
बिजिखौ
सानद।
सानदराय
सानदाया
फरायसालिनिफराय
खसि।
लखोन
लखायाव
अनाथीखौ
सौफबला
गोहोमाव
थोननाय
रबिबारखालि
मोगन
होखारनायनि
ओखारबोदो।
खदियाखौ
एगारनायखौ
दालाफोरखौ
रौनियानि
नोबोथʼ
माखौथो
हाबिला।
जासिनाय
जासिगौमोन।
डिसकाव
ननायलाय
##ाजासनो
मबला।
रजिमनट
बिमाया।
रजालि।
थालादो
नाइदाव
साथामबो
होयाख।
जनादफोरा
जनादफोरनि
थिनहरदोमोन
फासट
फासला
बफरहोनान
बफरहोनाय
सथान
हदिन
##रʼब
##रʼवा
बिसाराव
निससय
नायबिजिरगिरिफोरा
188
1854
आरिहा
बोनायस
सहनखौ
आखाल।
फागलिबादि
ददनगिरिफोरजो
गिनान।
बथिजाय
मासिनिफराय
उलट
बदोमोनबलाबो
मडलनि
हकारनि
कमिषट
बाखनायथाव।
कʼट
मङसो
रपा।
सिसटमनि
कलासा
जजिनायनि
जजिबाबो
हायावनो
नानायखौ
बिदिनथियाव
डरस
खालारसिम
खाखलारी
पाकका
लहराय
लहानि
हाफल
हागरानिफराय
##हनोस।
अनथाइनि
बागदावनाय
फजʼहबाय
होनबलासो
आगराङारी
गबला।
फटʼनि
थालायनो
दखरनि
लाइमोनफोरखौ
बिगियानारि
इनटारचिटि
बरामजो
नारजारीखौ
come
जथायनाय
सोहबाय
हाउलाद
दाहारजो
रहसय
दोनथʼनायनि
नजाथिदो
एकटि
हाखोनिफराय
रनजारखौ
बिहोमाखौ
सिसटम।
नाफदो।
लफनायनि
हबगा
हबगानि
हबगाया
एमबनि
दाखालिनि
खथाइयारि
फमाल।
सागरम
सागरानि
होसोयो
आखायजो
परगरामनि
परगरामफोरखौ
एमफौवा
नयलाय
नोनिया
नोनियालाय
रासिनसो
##पटाह
बियाय
बाउसोम
खदमो
खदमो।
बिलिरनाय
एकसटारनल
जाजोबगोन।
थʼस
थʼफला
दगारजो
बिबायारिया
बिलोगोनि
मोनामनाया
नजाफनाय
##िसिम।
आसारिया
बगरनि
बथमना
लङि
सइसखौ
सलात
कसगाव
मालाखौ
मिनथिनो
tool
उथरिनाय
दालान
बटिस
बटलिय
बटलखौ
##दिननि
##दिनखालि
सिलिनाय
नोथामोनखौ
जाइला
फथनो
##atural
सायखʼजानाय
आपल
नमबरी
हाइजनि
prop
promp
अकसिजन
राङानोथʼ
सथारनाय
होगरा।
खोनदोआव
जारौवा
टाइपनि
भकता
लनथि
फोजाह
फोजोनान
नारसिननाय
मसाहारिनि
मसाहारिया
दाफो
दाफर
दाफाम
दनदराव
##सलायगोन
इउनिटाव
दावहायाव।
गियाख
मथरजो
सागलोबनो
बाङालि
रोजाबगिरि
नाजाबनाय
सियालखौ
करिकट
सरबत
बिफाननो
सकरिनाव
आजावनाय
चीना
चीनाव
सिफाइ
फोरमायथिदो।
एसिटिक
खसटʼ
दसाखौ
नथायखौ
अरखिखौ
बिगरायारिफोरनि
जाजानो
ननदʼनि
नथारदो।
सारिआ
सानथरʼनो
माइनाव।
जाबावगोन
बनागौबला
हजर।
फारनबो
मखʼजाथावदि
पजʼनि
सबिध
गयामोनबला
बादायलायनायाव
परिनसि
परिनटि
नरशखौ
बहाबाफोर
दवानीया
अखानायबलानो
थाजासिम
शकरखौ
शकरबारखालि
नायगराफरा
अनलखा
रजʼनाय
बिगमया
खिनथाहनो
भगिनो
लथरा
बिलाखार
बिलाताव
##राखमोन
नायगिदिङो।
बबलिखौ
बिखलोखौ
बाटनखौ
1997
1993
गायसननाय
थाथर
थाथरनो
पसनजार
फदरदो
भगबान
मʼहर
गजारोङि
आगसिथि
हाखिम
बालाबारियाव
दागाबस।
गराफिक
##तनतरनि
##imax
सावरायजलायनायनि
सानबोलाउरिनि
आबरथि
आबरथिखौ
जागिखानान
नावखौ
नखʼरनि
वारक
उनथिजाय
बखवगासनिनि
असमियाफोरा
डाइरकटर
अनदर।
दबलाब
बामोनमारा
हासिल
##चियल
सोखारिनाय
टरइनजो
बिजामादनि
गहाइ
नपाली
नपालनि
बायहाजार
रजनना
बदमाइ
दावबायारिफोरा
थाजोबबाय।
फरिजनि
लाजोबबाय
शनितपर
सलिब
##आखिस।
##फराखमोन।
लाखारनाय
सौवो
हाथरखि।
सफटवरखौ
note
खालाइ
गियाति
मनाखौ
शरमि
बरफरनाय
आखथाइफोरखौ
डाइरकटरिनि
मजिरा
समफलʼ
गोबाखरबनान
गायसनान
किटसननि
अबलावरिखौ
माजन
गोगगा
बिबौनि
दिहनजानाय
मिथिखागौ।
बोखावनाय
पाटिला
पाटिलखौ
उखनदखौ
जथमा
मखजाथाव
रडिअʼ
गोबायो।
गोदोनाखौ
लाइटजो
जाखाफयो।
हामबरखौ
अलिमपिकाव
सामाफोराव
हखमोरनो
हाबावगोन
हारडवर
बिसान।
बिसकटनि
clas
climax
अगरन
दागरोमनान
आलौनाय
निदानाव
गोमाजानान
साबसया
मासटारनि
हरबिलासा।
पानजाबी
बालादशीफोरनि
form
अकतʼ
गिनाङा
##जागोनबो।
मोनथोरजो
नायगना
बसागिखौ
दावखोनाय
रमालखौ
रमालजो
नजाथियो।
सानबोलावरिनि
अमरनाथ
राखाउरि
बरगयारीया।
जिबारलिना
जिबारलिननि
disk
spir
खिसरी
डील
डीलनि
फबरवारि
फबिलियाव
होखराहरनो
दिगदार
दिखिया
आलमरटा
जालानायमोन।
कनटराकट
लकषीमपराव
tragedy
जनिल
तालक
पिसटल
मकसिम
##very
मानसिसो।
सरफागरि
आरागायाव
नारायणा
साइखलखौ
path
चारभिस
नाथावथाव
बषण
आरजिनो
गोमालाबाय।
लाखोमानो
लाखोमानान
नोथाङालाय
रिकसायाव
बजियाखिस
थालोआव
थालोजाब
नोगोरारिफोरा
अभिनव
एटासट
कडारफोरा
डायम
गोमायो
जोबलावनि
समपद
समपथि
सोरगोआव
नागिराख
गाहलाफोरा
मनालिस
हामथारलिया।
समायसरीनि
सौसिनान
काछार
आबहावाया
फिरफिलाखौ
नखाइ
मिञा
लोखना
दाबोरस
फरलबस
सानथरʼहायि
चनटारनि
peace
आवाति
जासिनदो।
जलियट
फलासक
बकटा
बोगदाद
गोलोनदा
बिथिजायनिफराय
थादरनाय
commission
फानजामथि
एनटिस
तिल
फावदिनथिनाय
हामथारबायल
बिहोमाया
सलगानजो
सकणडारी
रबिनसन
interface
हरिभषन
अमिताभ
उथमाइ
जबलाबो।
तदबि
लणडनाव
बिबदियनो
निजोरा
इनाइनो
हनदिमन
महिलारीया
मघालयनि
ideal
know
one
very
अधोरोम
थपसा
पागला
फोराननान
परगरामा
नʼटिसखौ
रायखाथाव
मिनिगलाबो
हारिसाफोरनि
दबानाजो
इउटिलिटि
लोमजाबला
एकसिदनट
निरमालिया
रिटायारड
file
आतिका
कफिनि
तामलपर
गोसोथोनाय
नारभास
जोनोमफरिखौ
दाउबʼवा
सकसपियारनि
कʼकराझारनि
नोसाजला
scene
दइनमबरि
साइटʼकाइनिन
ओनद।
गीताखौ
दरललाइ
परटगीज
आथिमगल
फिथराव
program
अनलखामोननि
करनियाखौ
9435
friend
two
आशिफ
इडवारड
रङिया
रिसिभारखौ
आइदियाया
परनिमा
हाकिम
जनभायाव
फाथरिगि
कनफारनस
कलिकात
मजाहिद
उसनदायाव
आगरवालाखौ
लाइनमनखौ
कानधामाल
सिकितसा
habildar
cruel
drive
system
अगरिम
इनावनिपा
ओलसरो
जदामबलनान
टासक
पिरामि
सिकिउरीटि
सामलाउथि
अमनडर
prompt
commissioner
1st
38
37
44
400
59
56
53
64
74
84
87
800
99
92
ap
af
ag
by
bur
bri
co
cra
cur
es
gu
gra
gre
gend
ht
hen
his
here
ind
jus
le
lan
lab
long
mac
may
per
ple
rel
right
tu
te
tal
und
was
अट
अगि
असर
अराइ
अकस
आʼ
आमा
आगि
आगा
आसिन
आगाय
आथो
आलिनि
आजो।
इब
इर
इटाल
इखरियाव
एज
एह
ए।
एफोरनि
एखायनो
एपर
एफल
एरायनान
ओथिय
औल
कत
की
काफ
कसाव
कयार
खाग
खबाय
खिया
खथʼ
खादो।
खिना
खखाब
खासिया
खरायनान
खयाल
गथि
गजा
गजि
गगरा
गयो।
गिना
गनदर
गटा
गथारा।
गखाया।
घस
घरिखौ
घडी
चिरा
चकर
चतार
चरन
छा
जङ
जध
जरो
जलाय
जया
जलʼ
जदो।
जखा
जगा
जगोन
जनज
जगोन।
जननि
जफि
जोमा
जबो।
जहयो।
जाथिनि
टस
टाव
टनदार
डरि
डलि
डका
डपटि
ढालिगाव
तज
तार
तिर
तागि
थबा
थना
थयाव
थनज
थोनान
थखि
थथो
थोद
थफि
थखानाय
थफराम
थनायनिफराय
थहरनान
थागौमोन।
दराय
दबा
दिया
दराव
दगरा
दलाब
दाङो
दरोद
दजायो
दजिबा
धब
धद
धीर
नउ
निया
नगा
नाहा
नगर
नखौनो
नाथो
नबोनाय
नमनि
नबावनो
नानायाव
नासार
नथारबाय
नबोदो
नाबलानो
नादर
नदराय
नफराख।
पौ
पद
पप
पष
पश
पबि
पसन
पराइ
पाहार
फानो
फसि
फथा
फगरा
फबाव
फगार
फोनान
फाखो
फटि
फजोब
फाक
फबानो
फामि
फबनाय
फखा।
फखादो।
फादार
फमारनो
बत
बानो
बजा
बखा
बखर
बाङा
बथाव
बासो
बरायाव
बʼर
बकि
भाब
भʼज
भबानि
भजʼ
भजाल
भाइज
भʼग
मनान
मथि
मफोरखौ
मआव
माथि
मागोन।
मखौनो
माखो
माजा
मसनि
मनायजो
मथाया
मफराम
मागरि
मʼना
मधय
मइल
यम
याम
याबो
र।
रथ
रश
रध
रार
रोनान
रहाय
रति
रकट
रसनि
रʼर
रसट
रमोनखौ
रासिया
रगलार
लत
लनद
लदो।
लनायनि
लगोन
लदर
लाहा
लसर
लहन
लथायाव
लका
लकस
लता
लाथिया
लबलाव
लाला।
लसोमनान
लजिस
वाक
वदार
वसिस
शइ
शाल
सलाय
सहा
सियाव
सदर
ससा
सलाम
ससयाव
सलाइन
सारि।
सहाबनान
सहाबनाय
सजाता
हा।
हबनान
हास।
हʼन
हलिक
हनायस
हषटल
हपटाह
##फन
##फनि
##फारि
##फनाया
##फानिफराय
##फʼनि
##िज
##नन
##नार
##नबाय।
##नयाव
##नाखो
##नसनि
##नाइनि
##नपी
##नासिगोन
##नावनो।
##गारी
##गाथाम
##गामि
##गाफा
##बथ
##बाग
##बाह
##बिस
##बदो।
##बबाय।
##बराव
##बारीनि
##लर
##लय
##लो।
##लबा
##लदि
##लना
##लियावनो
##सज
##साबो
##सफोरखौ
##सखि
##सयावनो
##सलिक
##ोब
##ोस
##ोलाय
##जाथ
##जजो
##जीनि
##जनदोमोन।
##रौ
##रर
##रध
##रामा
##भब
##भस
##भिनि
##टानि
##टरिय
##टिसि
##टगाव
##ताल
##तिर
##यय
##यालि
##यारनि
##यमान
##याबो।
##दोर
##दनान
##दावनो
##दोनो
##दिया।
##दिना
##खथाइ
##खोनो
##माख
##मारि
##मवा
##मारनि
##मजानान
##पद
##परा
##पराय
##पʼर
##पमनट
##ʼला
##ʼराव
##ʼबो।
##हाया
##हाजो
##हगोन।
##हदोमोन
##हित
##हावा
##हयाख
##हागार
##uc
##nal
##ness
##ie
##इच
##वल
##वो
##वरा
##वामी
##थल
##थी
##थखौ
##थला
##थनाय
##थगरा
##करि
##कसि
##उट
##उलाफ
##ीड
##ीनदर
##ङि
##oic
##डम
##आदि
##40
##round
##man
##ps
##ple
##tp
##ty
##शय
##शनस
##ction
##cil
##94
##90
##ad
##len
##fi
##fy
##bal
##dition
##vid
##gree
##26
##छि
##अमला
##ject
##ायल
##ायनाय
##ानानाय
##ानथिजो
##ोनाल
##ोनाङ
##ोनदा
##निनो
##ारो।
##ारजो
##ाबाला
##ाबदो
##ाबलि
##ोरखौ
बिथार
बिनायनि
बिसिन
बिखʼनान
बिखाया।
##नायसो
##ामारा
##ामिननि
##ागनि
##ागरी
##ाद।
##ियायाव
##ियाजो
##ियारिनि
##ियाखिस।
##ियाबो।
गोलो
##ाथानि
##राखि
##ाखल
##ाखान
##ाखाव
##ाखा।
##ाखाबाय
##ाखायो।
##ासन
##ासल
##ोमा।
##बोखो
##ाजानान
##ाजोनि
##ाइद
##ाइ।
##ाइखौ
##ाइना
##िनागौ।
मोनजो
मोनाबो
मोनोना
मोनथाइ
मोनथʼ
मोनहो
मोनोमोन
मोनलाङो।
मोनलिया।
मोनबोदो
मोनखानायनि
मोनफयो।
मोनखादो।
मोनहोदो।
मोनफोन
मोनमारनो
मोनथियो
मोनदोनो।
##रोत
##फोराथʼ
##फोरजो।
##ानायावनो
##बायनि
##बायनो।
##बायनोस
##बायाव।
##ाहाम
##ाहाबो
सिराय
सिबर
सिगल
सिमबर
सिटाव
##थिङाव
##िसनखौ
सानदि
सानखा
सानलाइ
सानलाबाय
सानफिननो
सानखादो
सानबानि
सानालाबानो
सानबावबाय
सानथावा।
##ालाङो।
नोसो।
नोगौ।
नोगम
##ारिजो
##ारिफोरा
##ारिफरा
##लायावनो
##लायसिन
##लायलाङो
##लायाजास
##लायसलाय
##लायथारबाय।
##सिब
##सिरा
##सिकल
##सोल
##सोलो
मोहर
मोखो
##दोबला
##दोसो।
##ाबोयो।
होननायाव
होननायखौ
होनाजास
जायगाय
जायास।
जायामोन।
जोङ
जोगरा
जोबि
जोदाव
जोखि
जोखौबो
जोखाङो।
जोगलि
जोबराब
##ाङोबला
गावलाय
गावदो
गावना
गावनायनि
गावखरब
गावलायनायाव
गावखथाइ
खालामनि
खालामहर
खालामाखिस।
खालामहोनो
खालामगरो
खालामबोदो
खालामहयो।
खालामहरो।
खालामहदो।
खालामसिगोन।
बरब
बरल
बरह
बराग
बरजि
बरषट
बरजन
बरगाव
बरसिय
बरमायाव
बरीज
##नाट
समन
समाबो
समखि
समषट
समसरा
समपति
##लʼनि
##लʼनो
##िरङा
##ादिनि
सोय
सोव
सोबो
सोखार
सोथाइ
सोखो
सोलनि
सोलाब
सोफनाय
सोबावो।
सोबावबाय
##ाफाहाम
##नदल
मानो।
मानबो
मानसो
मानजा
मानहानि
मिगरि
मिषटार
होलो
होसरि
होसिन
होलायनान
होलाबाय
होजरि
होखाब
होथाब
होलाबाय।
होलादो।
होजोबो।
होखादो।
होसिगोन।
होसोनाय
##लित
##लिङा
जिथि
जिगि
हाबना
हाबनायनि
हाबलानान
##सोरा
नायफा
नाययो।
नायबाव
नायबलाबो
नायसʼ
नायबानो
लोलाय
लोलो
थाखाया
थाखागोन।
थाखादो
##हरफिन
##हरदोमोन।
##ावनोस
##हाट
##जिल
##जिका
नङाबादि
दिनथʼ
दिनथिन
सोरास
सोरबाय
सोराजो
सोरजिय
सोरजियो।
सोरजियो
सोरजिस
फिसायनो
आखफोर
आखनिफराय
आखवानो
गोसोखाब
गोसोयाबो
बोड
बोजो
बोबाय।
बोगरा
बोलानो
बोफल
बोलद
बोजाबनान
##बलखौ
##बलाबो।
बाथाम
##खाउ
गब।
गबोनान
हायननि
हायास।
हायोमोनबला
हायाबाबो
बरʼराव
बरʼफोरजो
बरʼलणड
रावादि
रावखौनो
रावफरा
रावखौ।
रावजोनो
रावनावबो
बायस
बायगरा
बायनाया
बायदोमोन
बायफलनाय
अनलि
अनलाइ
अनगोन
अनखानाय
अनारीया
अनासार
थानायजो
थानायलाय
थानायनिफराय
थानायमोन
थानायखौनो
##गरासो
##गराफरा
##थाइ।
माबाव
माबयाव
माबलाबो
लोगोया
लोगोफोर।
बारो
बार।
बारायाव
बारगरा
बारनाया
बारखो
बारलानाय
बारनायजो
बारथारबाय
बारदनि
बारदाउ
बारननान
गिज
गिखʼ
गिरि।
गिदिना
##लाइज
##लाइनि
मोनसखौनो
दरम
दरजो
दरदो।
दरयार
बसाव
बसो।
थाखायबलाबो
थाखायनो।
थाखायसो।
##थारो
##थारखौ
##थारो।
##थारनान
बिनिथि
जादिया
बिबथिनि
बिबगोरा
हमफ
हमि
हमह
हम।
हमबर
हमगोन
हमगोन।
हमनो।
हमखानान
हमजन
हमसनो
##बर।
##बरखौ
##बरबनाय
गावनिखौलʼ
मावदोमोन
मावगल
मावोमोन
मावबोनाय
मावनागोन।
मावहनो
मावखाङो।
मावसला
मावगरोन
गोरासिन।
आनिया।
##ालायो
गजसरोम
सलʼआ
सलʼखौनो
##आवनो
मलमा
मलआव
मलनानो।
गोजानाय
गोजायनो
गोजानाया
गोजानायखौ
गोजानाय।
हरखौ
हरबा
हरना
हरबलाबो
हरजोब
हरनायस।
हरनागौ।
हरखादो।
##खरी
##खरनान
##गोनल
##गोनबो।
एसल
एससो
एसमब
एसनोस।
मानसिबो
मानसिनिफराय
मानसिफोरनिफराय
बिसोरलाय
बिसोरखौनो
बिसोरखौ।
बिसोरहाबो
बिसोरनावनो
गबननो
गबननिफराय
गबनारिनि
गबनसो।
बाथरासो
बाथराहा
रोसि
रोबाय।
रोङो
रोगʼ
रोलिया।
रोदाया
रोदाजो
रोबजो
गयलाय
गयारी
गयिनि
गयाबा
गयाबाबो
जानायमोन
जानायफोरनो
फोजोबो
फोलाउ
गसजो
गसना
गसवाव
गसलाया
गसफनाय
सोमबला
सोमबाय।
उनाव।
दिव
दिहनान
दिजाइ
मगाजो
मगानिफराय
मगनायजो
मगायावनो
गाबह
गाबबला
गाबनाय।
गाबनायजो
गाबफराम
गाबखराउ
जरबाया
दखि
दखव
दखराव
बाहानदारि
##दरज
##दराब
बङास।
गोदोनान
गोदोनाया
गोदायनि
फाव।
फावफोरखौ
फावगिरिफोरा
बखौलाय
बखौखि
##बि।
##साखौ
##होय
सासजो
सासति
सासलʼ।
आलवा
आलियाव
आलारी
आलयाबो
दावखाया
दावसिखौ
फारबर
फारननि
फारषट
महरगोना
थिब
थिनान
थिदो।
सरबाय
सरबाय।
सरमाय
सरलाखौ
सरमाखौ
सरलायाबो
नागरो
सबथि
सबफोराबो
सबफोरा।
सबसायाव
जानोलʼ
मिथिमोन
मिथिनायाव
मिथिहो
मिथिनानबो
मिथिसलाबा
मिथिरोङा।
##ाथि।
मानोस
मानोबाव
मानोबा।
मानोखायनि
बायदिफोर
गारल
गाराख
गारा।
गाराख।
गारहरनाय
गारनादो।
बोरदि
बोरदोन
बोराबनान
बोरबासो
खरख
खरनो
खरफिन
खरसा।
##सरन
गासलʼ
गासबो।
गासाखौ
ओखारनाया
ओखारदोमोन
ओखाराख।
ओखाराखिस।
ओखारबोनो
ओखारलानायनि
खननो
खनथा
खनाजो
खनबर
खनथिय
खनथम
खनमो
दान।
दानलाय
दानथारदो
दानथामसो
##गारगोन।
दोनलानाय
दोनफिनो।
दोनलादो।
दोनफिनबाय।
दोनहबाय।
##गरब
##गरोनि
##गरानिफराय
फरायबला
फरायना
फरायगर
फरायनाय।
फरायजोबनो
फरायसानि
फरायहनाय
फरायसा।
आफानो
आफामोननि
आफामोना
आबारीखौ
निनि
गामाखालिनि
जौन
जौव
जौसो
खामला
खामनाय
खामथाव
खामफानि
थायबा
थायबर
थायाखिस।
थायसखौ
थायोमोनबला
राजब
राजनदर
राजउलाफ
बनोल
बबʼ
बबहारखौ
##सारनि
##सारनायनि
लिरसलायगोन
##ोनानाव
बिजिनस
जिउव
जिउमाया
##नायखौसो
हिनदि
बादानि
बादालि
आइला
आइना
आइखौबो
हादत
हादगरा
हादोबला
##फरनो
##फरियाव
##फराथʼ
गरनो
गरबो
गरिन
गरसि
गरपनि
गरजनि
परदाखौ
परमिला
जोबना
जोबदो।
जोबनाया
जोबखानान
जोबबायमोन।
नʼ।
नʼआ
नʼनिफराय।
हाबाफोरनि
हाबाखौ।
हिनजावसो
हिनजावफोराबो
सावा
सावनायबादि
खोनथ
खोनाज
खोनाबला
खोनागोन।
खोनादो।
खोनाथो
खोनादोमोन।
खोनादोमोन
खोनदोनि
##खौनोथʼ
खौर
रायजोनि
कलजा
लाइनखौ
लाइसिनि
##फिनना
गोदाननो
अरनाय
अरखा
##सिनबाय
नाउ
राइजोजो
राइजोफोराव
राइजोयाव।
##जायारि
हारि।
सायावनि
सायावलʼ
खारनायनि
खारजोब
खारलानाय
खारनोस
खारबोयो।
गोबाङ
बाजानाय
बाजयानो
बाजरम
उनद।
उनददो
उनदसरि
उनदहाब
उनदलाङो
उनदसोनान
उनदहदो
उनदलाङ
मिनिबाय।
मिनिनाया
लायनि
लायबाय।
लायोमोन।
खालामनोस।
थानोसल
थननान
थनथिनि
नाजाथ
नाजाना
गाजमाखौ
खोमस
खोमाया
खोमथा
फोरमायल
फोरमाय।
फोरमायनायाव
फोरमायदोबलाबो
फोरमायबावनाय
फोरमायथियो
बखनान
बखलʼ
बखानाया
जनर
जनादा
आदम
आदोर
आदारखौ
आदʼब
आदगारी
##टिगल
रजानान
रजलि
रजनायाव
रजाखानाय
कमला
गथʼआ
गथʼनो
गथʼमोन
गथʼफोराबो
आनाबो
आनयाव
आननदर
आनसलिक
गजरावसो
खोबनाय
सोदोबआव
सोदोबथिखौ
महशवर
जानबनि
दिनथिगोन
दिनथिगास
आरʼ
हारियानो
हारसानि
गजरसिम
आफादजो
##गलनान
##गलानाय
गोमाबाय
गोमोना
गोमागोन
गोमानायनि
खालामनाननो
आसन
आसथामा
आयलि
आयखा
##गायो
##गाया।
बिखङा
बिखानथि
लाखाबाय
लाखोमा
बावलाय
बावलाङो।
बाहायोबला
बाहायनागोन।
जाहर
जाहबाय
जाहोन।
जाहखो
दमग
दमख
दमसिया
दमयन
गाजरिबलाबो
गानया
गानबाय।
गानहोनो
गानहोनाय
गानसलि
गानसलाय
गानहोयो
##दावलि
##बारा
आगोनि
आगलायनाय
आखाइयावनो
नागिरबाय।
नागिरगरा
नागिरगासिनो
मनजर
मनजखौ।
मनजलाखौ
मनजार।
आलाइसरिया।
गलानो
गलया
गलदो।
गलगोन
गलनाया
गलडन
माइगर
माइथाइयाव
##ति।
मोसाजो
मोसादो
मोसानाया
नोथान
नोथाहा
नोथानाव
##खौबोथʼ
फावथाइगिरिफोरा
उन।
उनफार
उनहालाग
उनफिननान
##खायनोथʼ
रमबा
रमशा
रमथिङ
रमफारस
बोसोरखौ
बोसोरनिफराय
बोसोरननि
बोसोरसनि
बोसोरनसो
बोसोरबानि
बलड
बलार
नारख
जाता
लबबाय
लबदो।
लबगरा
दसाया
दसारी
हाजा
आवथाय
आवाजा
आवसाव
आवारामा
मनटल
गिदिराव
गिदिफिननान
लानायजो
लानायमोन
होनान।
होनानबो
होनानसो
हानायमोनबला
मोननायजो
मोननायनिफराय
मोननायावनो
सिगासिन
सिगानिफराय
मोखथ
मोखथानि
जोनाबो
जोनाया
##नटस
बाथराखौसो
बाथराखौथʼ
थाबानो
थाबालाय
थाबनो।
थाबरब
फिठ
फिफाया
फिजखौ
बाहागोनिफराय
जाखोनो
जाखागोन
जाखायो
थाङाख
थाङाबा
##रीखौ
गदʼनि
गदʼवा
खामानिफोरा
एनालʼ
##नदाखौ
दाबफा
दाबसा
दाबस।
जायोल
जायोदि
उदाया
उदनद
उदयास
बाण
बाखौ
मगनटिक
खाथार
खाथिसिन
नोसोरनाव
नोसोरनिया
हागौबा
एमबरा
एमबस
एमसायाव
खरʼसायाव
एरʼ
एरखा
एरसन
एरखानो
थारबाय।
थारमोन।
थारजानि
खबबला
खबजा
खबावनो
खबसनि
खबदार
बागाननि
बागलारी
मदम
मददा
मदबनान
बखवना
बखवनायनि
गमथि
हामब
हामनो
हामाखिस
हानागोन।
हानदिल
खानसिसा
फानथि
फाननायनि
फाननायखौ
गोजौसिन
खावरि
खावनायाव
खावरिया
खावलायनान
खावनिया
फसलाय
फसाया
सिरिखौ
सिरिथा।
रिफ
रिड
रिलि
रिहाब
रिपर
रिखाङो
रिहास
लानोस।
मोदोमारि
मोदोमनिफराय
मोदोमावनो
गवा।
पलटाव
बिहाली
##लाबलाबो
ननाननो
बिसिफोरखौ
सानसमा
सानसथिर
बिफाफोरनि
जोनोमखौ
जोनोमनिफरायनो
समायन
समायनि
समायनाय
समायफल
ओखामबो
ओखामजो
##लायनाय।
##गायावनो
बिदाम
बिदानो
बिदा।
बिदिसो।
हाखाव
हाखʼराव
गोहोया
लिरा
लिबो
लिरि
लिलि
लिथिय
लिलानान
लिहनो
लिखʼनान
लिहनान
बाहागोफोरखौ
बाहागोफोरा
सौबाय
सौथनान
लामायानो
लामाजो।
सलन
सली
सलखौ
सलनिफराय
सलनज
सलइच
साबक
साबनाय
साबजानाय
##गिरियानो
हगार।
गोगलय
गोगलया
गोगलदो।
गोगलहा
गोगलगोन
गोगलदोमोन
जाफनान
जाफराम
मलग।
थानाव
थानखौ
थानासिम
थानानोस
दायना
दायनिफराय
लाबोन
लाबोना
लाबोनायाव
मोनन।
मोननलʼ
मोननागोन।
जʼनाय
जʼरायाव
जʼराखौ
जʼथारला
जʼआन
गोथबारियाव
सिनायो।
सिनायबाय
सिनायगौ।
सिनायखायो
नवावसो
मोखाफोरखौ
##षटनि
##षटटलनि
माखासमानि
समाजतनतर
समाजतानतरिक
आसामखौ
सदराय
थनलाइजो
अबला।
थाबायो
थाबायो।
थाबायनागौ
थाफर
थाफाव
थाफनो
थाफबाय।
थाफावनो
थाफादो
थाफलियाव
थाफायो
थाफसिखौ
थाफानायस।
सिखलास
सिखलाजो
सिखलाफोरजो
सिखलासाया
थामनि
थामथियाव
हाथाया
हाथारा
हाथरखौ
नागौस
नागौबा
बिगाब
बिगरो
बिगमाया
गोजोननायखौ
गोजोनथो
नजननाय
सायराब
बरहमनो
बिसियाबो
सोलोदो।
सोलोथायनि
लाबोदोमोन
लाबोआख
सारियाव
सारखो
सारकनि
सारनथाइ
सारभनट
##थमटिक
सख।
सखजो
सखवा
सखरिनि
सखवाबा
जिरायना
जिरायफिनबाय।
जिरायहबाय।
अलदा
गलʼगथʼ
ददरजो
दाहारनि
गʼब
गʼल
गʼनाय
गʼदाया
राजाफोर
दिहनगान
दरजामोनहा
बिलाइसरि
बिलाइसरिनि
दाखलाम
जाथाइफोरा
थोखो
थोलायनायाव
थोआ।
बोहगासिनो
बोहबोयो
बिनावनो
बिनोनो
खलब
थफला।
जाबखो
जाबरʼ
जाबावनो।
हालखौ
हालवानि
गनश
सफथि
सफदो।
सफलनि
गासिबोखौ
थाइबर
थाइसरिया
थाइजानि
##मिनट
पलिसफोरखौ
पलिसफोरजो
थिननायखौ
फिसाजलायाबो
##खानागोन।
बिजिरथि
बिजिरगिरिफोरा
सोलाया।
सोलायनायखौ
फरय
फराद
फरङा
फरसनि
फरामनि
##फोरजोसो
सनय
सनप
अजिताबो
अजितनिफराय
गोबावस
गोबाव।
गोबावजो
बाबद
बाबनो
बाबरि
बाबया
बाबवा।
बाबाजी
खफथा
खफाथि
खफोदा
साइनस
नायजाबफोरनि
नायजाबफोराव
अफरि
लाफनो
लाफनाय
लाफा।
लाफदो
लाफबाय।
लाफयो।
लाफादो
लाफिनो।
दाजाबनायाव
मानिनाय
मानिजाथाव
मोननोबो
गोसोआव।
हाबफदो
नरन
नरट
नरह
नरसि
नरननि
आलादाय
मासयाव
मासथारा।
दौस
दौला
दौनागौ
फागा
फागन
टिप
लानाबाय
लानजाय
जायगाफोर
इरागदाव।
साफायाव
साफराम
मानसिनिखरइ
##मारो
##मारोबला
करस
करसʼ
करटनि
बिजाबनिफराय
बिजाबफोरा
गजरजोबो
बफाय
बफादर
जोम।
जोमनो
जोमफोरखौ
जोमनायनि
जोमनाया
जाखोस
दामनायाव
दामसर
दामबरि
सिखारहा
जरावबो।
दबलिनि
हादोरफोरनिफराय
हाबाफरा
सोरजिदोमोन।
फोथायनान
फोथायनाया
फोथायनाय।
फोथायसला
खिनथाया
टरक
टरखौ
टरनाव
टरसनि
बबावगोन
बबावनायस
नायहरनो
नायहरनाय
नायहरदो।
गाहामसिन
फनान।
जोहोलावारि
जोहोलावफोरा
जोहोलावफरा
दाबोद
दाउसिन
दाउखाया
असबादि
लाजिखानाय
बिरल
बिरना
बिरदाव
खालामनायाबो
खालामनायावनो
खालामनायस।
खालामनायबादि
गाहाइनि
गोलावय
गोलावनि
गोलावसिन
गनदाफरा
गनदरिखौ
गनदराखौ
रानथ
रानिया
रानखा
राननायाव
रानबावनो
लाहयो।
साली
फाहायनान
सिगाङावबो
##ink
##inal
##iness
थायोबलाबो
बादलनो
बजालि
बजिना
बजाथाव
गोबाबाय।
गोबाना
कमपिउटारनो
मसौ
मसथा
मसङाव
मसमबर
मसटʼ
##ाथार।
##ाथारगोन।
आनोथʼ
जनाफोरनि
बहल
बह।
##onology
नङाबलालाय
मलननो
मलनाबो
मलननिफराय
मलनाथʼ
मलनमोना
मलनमोनहा
थासʼनि
थासलिम
थासानदि
##ियानो।
थाखिनाय
मोसौनि
गोलना
गोलयो।
##सʼनो।
##सʼननान
माहाजोननो
माहाजोननिफराय
##फाया।
##फायाबो
फिसाइनो
जामफ
जामबा।
जामबानि
गायखौ
गायो।
गायदा
गायजराब
गायागौमानि
जालानि
जालानान
थाखोआ
दङʼना
बाइबल
सलʼमाखौनो
सलʼमाफोराव
थरला
थरथाम
थरगʼ
थरफनिफराय
भारतखौ
आमलाय
आमखाखौ
नायनान।
नायनानसो
गामिफोराव
नाङाल
नाङामोन।
सामाव
सामथाइ
सामलायो।
सराखौ
मवाफोरजो
##tiv
##tification
अफिसारनि
खालिनिफराय
सʼनास
सोमबोर।
##पारट
##पारानि
##पारटमनट
फलम
फलड
फलपि
बवहा
ददनगिरिनि
सकसन
गोरोनथिय
गोरोनथियावबो
रोङाख
दहयो।
दहाफाहाम
बानायो
बानायखौ
बानायनो
खोनासङो।
मखʼजानाय
सिमनायाव
सिमनट
सिमलायाव
सिमासिम
जागला
##रियो
##िसिमनि
साननायमोन
बिखायावबो
हासनि
हासरि
बिथि।
नोगोराव।
##दार।
इउनाइ
इउरियानि
##लाबायो।
##लाबायनान
बिबानगिरिफोरखौ
फाललानि
##जरित
##जरिद
##टीनि
##ाथामनि
मोननानबो
रामनाथाबो
बनदक
बनदराव
फोजोबो।
फोजोबना
खनसनो
खनसबाव
मादनि
सहरा
सहराखौ
गिलबाल
जौगासार
जौगाहोनो
##मिडिया
गावखौसो
खामानियानो
बालटि
गोरोबफल
गोरोबथाखौ
लागाव
खाफालावनो
बथारना
बथारबाय।
बथारनायाव
बथाराख।
बथारजानाय
फोसावबाय
फोसावदि
फोसावदो
फोसावगरा
फोसावनायखौ
##सियावनो
सोल।
सोलियोमोन।
जोबोरनो
सवालिनि
दगनाय
दगसरा
गोरलयाव
गोरलसिन
लखाखौ
रवाजो
बोलोआ
बावदा।
रबग
रबसखौ
##esis
खʼथ
जालायनो
अजय।
##खनसाय
अबशय
गाइखरा
there
सनिबार
हिसाबखौ
फाथना
बोखानायनि
बसोया
खनथाइयाव
बखवगादʼ
आनदामोना
##ran
##rag
खमबरा
आगानन
आलासिखौ
आलासिफरा
आलासिफोरजो
सोमावसारनान
सोमावसारगरा
मथाइखौ
समबारखालि
एलन
एलारट
जारमानि
जारलाखौ
दोरबि
सोदरनाय
अनसला।
फोरोगरा
फोरोङो
फोरोङो।
थाहाब
थाहबाय।
थाहाबनान
सालाखौ
सालाका
सालाफोर।
##नसजो
खफोदजो
फाहामनो
बवहायनो।
बरायो
बरायदो।
लाबायमोन।
बरखाहो
दावबायनाय
दावबायारिखौ
थियटाराबो
हलम
हलटगाव
नोनोलाय
नोनोथʼ
बाखा
बालागाव
होफ।
मावफनायाव
रायजलायदो
रायजलायनायनि
रायजलायनायाव
फाफिन
लोबसरा
गागरि
बजिगरा
परमʼसन
कलजखौ
बानजायनायनि
बानजायनायाव
बानजायफनाय
ओरबो
फफिनबाय
काटा
जालागोन।
डाषट
डाकटरनि
बथलनि
बथलस
बासिया।
हागोनदा
लामायावनो
सिखावरिया
बाजिनो
नाजानायस।
हागाद
गनायजानाय
लोमजादो।
##पाट
फोलला
फोलावनो
सोमजिदो
सोमजिदो।
सोमजिहो
अलकामोना
फननाय
फजनो
फजियो
जिगाखौ
सनदस
##ould
थिउरि
थिउरिय
गोबराबसिन
जोरसार
##all
बिमखौ
मिथिगौदा
जिनाराम
जिनहारि
बग।
बगरो
गलाफोरा
गलाघाट
हरास
हरा।
गावसोरखौ
गावसोरबो
मिजिनि
मिजिङा
गगआ
गगनि
गगला
गगरायाव
गगलायो।
सटट
बिलोनिफराय
बिनोबो
बिनोथʼ
होमबलालाय।
खालौ
खालारा
पारमिसन
पारटीनि
फाइखि
फाइनल
फाइकी
##कररा
अखराङा
फयर
फययाव
फयोमोन
फयाखिस।
फयाबलाबो
##थाबमा
##डिआव
दखोय
दखोजो।
बिदिनोस।
सागरा।
सागराङ
सागराखौ
हराव।
फोरमानजो
साखरिखौबो
साइकल।
साइकलनिफराय
कासारियाव
फाखायनान
गोमजोर।
गोमजोरनो
हाइथा
हाइनारि
बसमतारी।
##जरब
नायगिरदोमोन।
दानदिसनो
मराबादि
मरगम
मायो
मायथायाव
साजरा
साजायनो
हमथनान
थिखङो
नबद
नबानो
नबाथाय
नोमबाज
फिसौजला
महरसिखौ
गाखोबाय
सरि।
नखाय।
मोनहा।
मोनहबला
मोनहबाय।
मोनहोनाय
बिजौवा
दाजाबदाफोर
खालायनो
खालायनागौ।
जासलाब
बिहामजो।
अनिरध
##यानोथʼ
##दायाबो
थानायावबो
थानायावसो
सोमोनदबो
ककराझारआव
रानिनि
मोनजाबाय
मोनजागरा
हाजारस
##ालʼ।
सोबनो
सोबानो
सोबानान
सोबबावो
जागरा।
गोसोखाफ
गोसोखाथि
गोसोखाथिया
गमभीरसि।
कारखाना
मिरजाह
123
नामास
दागखौ
नालाया
फयोबला
भटनारि
##ominal
##रिकसा
आबʼवा
माइथायावनो
खवो
गथायो।
गथायफोरखौ
थोरबा
पात
पापि
रायलायखानान
खोमाखौ
गाबजरिनो
आजोला
सोलिफ
आयदाफोरखौ
ममबार
लरद
लरबाय
लरगʼ
##eld
बारायो
बारायहोयो।
बमारा
बमारिया
मथनान
मथरा
हाबहबाय
बिनाराममोनजो
परमधरखौ
नयोबा
नयोसो
मोनदानाय
मोनदाथिया
मोनदाथिनि
बारगʼनायनि
बारगʼलानायनि
आवगायलाङो।
अपारशननि
फददा
मिथियाबला
खानथि।
खानथिफोरखौ
लिहरदो।
थगायबोदो
बकफोराव
खानाइयाव
माहाजोननियाव
नगाथाम
नगाबर
दिनथियि
सोलोथाइया
जाबोला
जाबोयो।
जाबोदोमोन
जथममाव
लाजियो
मोनथाम।
मोनथामसो
जाहोनानो
जाहोनावनो
सागलाव
##थौखौ
सिबिनाय।
फोथाफिननो
जाथारगोन
जाथारगोन।
हʼल
अनजवा
अनजालनि
हाबोला
थाइलालिया
हाजवारी
अरनाचल
205
20थि
जगम
जगामि
जगदी
नहरनाय
लाउसिन
लाउथिखौ
##कषतरनि
बिजिजो
सानदजो
सानदङा
माबरथो
फरायसालिआव
जाखरिथायाव
जयनो
जयफल
जयमती
लखब
लखबनान
##खावनान
बसनत
बसनगोना
रजानायाव
रजानायखौ
सौफयो
सौफयो।
इनदिसरीनि
फालिदो
फालिगोन
रबिलʼ
रबिलाया
होखारनान
दावगाहोनाय
ओखारबोबला
खदियाफोर
एगारनान
जलसखि
दालाजो
दालाफोरा
##शनार
हाबिलानि
हाबिलाया।
कामाननि
जासिनो।
डिसकखौ
ननायालाय
ननायबादि
ननायाथʼ
मवाजो
मवाबादि
बिमायनि
बिमायारि
गिदिद।
सानसखालिनि
थालाङो।
दाइरिखौ
दाइरि।
नाइनो
नाइनान
नाइट।
नाइटिगल
सथोजो
सथोथि
##दानिया
##दानदिस
थाफिनबाय
थाफिनगोन।
थिनहरो।
उखनायखौ
बिसार।
जवायाव
नायबिजिरनान
गोरबोआ
बिनहारीनि
बोनायखौ
फावथिनाखौ
खलथाखौ
जिरादनि
जिरादानो
जिरादफोरनि
थलफाखौ
अरननो
अरनाबो
अरनमोना
जिबौखौ
बामना
सिफायनाय
कमिक
कमिउनि
कमिशनार
बाखनायबाय।
बाखनायजानाय
कʼकररा
मङनो
ससनाव
ससमित
##olic
फोथारा
गोजौवाव।
सायारामखौ
सायारामाबो
कलासनि
कलासिकल
जिनिद
window।
एवसर
एवखानाय
एवसरानान
खानाखौ
जजिनान
बरखायनान
मगलबार
षटम
षटशन
षटटमनट
षटशनाव
षटराइक
हसलिम
बाथरामोन
बाथराबाव
##थारबायमोन
गलिजो
जबान
सिगारटनि
दाहोनाफोरखौ
खाखानाय
खाखलम
खाखरबनान
जरिनो
जरिफिनबाय
जरिमाना
दखायोमोन
हाफा
गावथारनो
अनथाइजो
मावनानबो
मोदाइखौ
मोदाइजो।
बागदावनायजो
होनबला।
होनबलाथाय
आगराखौ
खनदास
खनदायाव
बसागवाव
बसागिनि
सलʼवाव।
हासथायो
हासथायनान
दरबासिमोनहा
जबोरा
जबोर।
हाबायाबो
लोङा।
अनसायनाया
निफरायनो
बिगियानगिरि
बिगियानगिरिफोरनि
इनटारन
नरसोनखौ
खावससो
जावलियाखौ
##हालाग।
मलमाव
मलमनिफराय
हाउसा
हाउरिया
दाबसथिङ
रहलानि
रहला।
रहलाया।
रहलाजो
जाहोदो।
जाहोदोमोन
नजाथिदोमोन।
एकसन
दथायहरनाय
होबोनो
खोखलहरनान
ओखायनोथʼ
सानथौवा
आखथायफोरखौ
आखथायफोरा
कापन
इणडल
नाफबाय।
नाफयो।
नाफादर
हबरायो
##edies
गिनायबो
हाखरायनायाव
सनदहʼ
घनटानि
सागराम
जोथिखौ।
माउरिया
माउजिया
बारहखानि
निजरा
परगराम।
एमफौनि
अहाजास
नयाराम
नयबादि
मदरखौ
मदरजो
साबायखʼर
बाउदिया
बाउनदो
बिहावजो
थानदखौ
थानदया
खदमबाय
पाबलिकशन
पाबलिकशनस
मिससा
एकसपल
थʼफ
हाथायनिफराय
हाथायजाब
बिबायारिखौ
बिलोआव
बोसोननि
मोसाहारीया
मोसाहारीनि
जाफसारदो।
नजाफयो
नजाफदो।
आसारनि
थिसननो
सइस
गबनारिफोर
मालाइनि
माषटार।
थफनाबो
गोलोमनाया
फाइलफोरखौलʼ
मिनथिगोन
मिनथिसʼ
खिरखिनि
बटइननि
बटमिनटन
##ाहोखो
रजालीया
सोनारो
निरबा
बरिफ
##बादखौ
आगोरनि
रामोनदाखौ
डजनि
दफब
फथला
फथबला
गोगोमनो
मावफारियाफोरनो
नमारगौ।
शिबस
सोलायनाय।
दोनथमो
दोनथमनाय
दोनथमो।
हिनदफोरनि
थावनियाव
जीउआव
टक।
मिलिटारी
गसलाफरा
गानदवाव
गानदसिङाव
इनफरमशन
मामला
मामनी
नारसिननो
नारसिननायाव
आनावबो
##गरायाबो
##ase
##ask
##asure
जिगाद
बाथरायावनो
हाथारलिया।
1965
इउनियन
इजजो
गियोबला
फगोननि
ममबर।
सागलोबना
खलिनान
जयोति
थाथोस।
पनजिका
फखाखौ
रोजाबनान
नʼखराव।
नाजाबाबो
आदिबाशी
गाथामाव
डभिदा
फायखारि
ससरानान
##ecial
मोनथारबाय।
सरबताव
सिगाआवबो
सकरिन
सकरिननि
गौथमफोरनि
इलकटरिक
##वालाबानो
##चिषट
मोनजायाख
सिफरि
थाखोमाबाय
सावथालफोरनि
लाइनमन
गगलसा
नथायफोरा
हजरिखराव
मोनफयो
नागिरोबला
आवरायनान
सनथला
लाफिननान
हागारजो
थादʼनान
थादʼगरा
उइक
उइलस
ननदʼ
ननदʼखौ
सभायाव
सभटल
साद।
##guage
सानथरियाव
सावगारियाव
story
थखलायसिन
नटवर
रयाथिया
हजरत
फारनया
नाजावनाय
मखʼजाथाव।
सोदरोमानि
इनफरमसनफोरा
आजखानथि
चितरल
सबिजि
सबिधा
सबिजिद
सानजानिफराय
सरखारजो
जोबथाहयो
लबयाख
लबयाबलाबो
बलासिबाय।
नरशनो
अनदो।
अनदरनि
उरनायाव
उरमि
उरफलनान
थसब
थसाम
थाजागोन
थाजरम
दबरत
दाफोदारा
शकर।
सखʼफिननो
हाला।
बिबाखौ
नङाल।
बिबाजनि
बिबाजया
रजʼयो।
दोलोस
दोलोफोरा
इनटारनटा
इनटारनटखौ
पानबाजार
लथोनि
बिलाती
##नायानोथʼ
सिरियास
गबरसो
सबसाइ।
बबलिखौनो
बिखलोआव
बाटला
1992
बनदोङाव
आमरिकान
थाथारनागौ
थाथारनागोन।
मʼहन
लादरा
##ety
मोनलोगोन
दानसोराङा
फसालिखौ
1979
1978
1972
लोमसावजानाय
उराल
उराङा
कगरसा
कगरसनि
खाजादो
खाजायो।
गराउ
दाथास
दाथास।
फटसो
राजोसो
##खिनिखौ
##थारदोल
खिबवाव
सानबोलाउरिया
जामारबाय।
मोगथानिफराय
जगायनो
जगायनाय
नावाव
पलिअʼनि
अननायाव।
उनथिनिफराय
लिभारा
सौगरावनान
अनदरखौ
अनदरनिफराय
इनजरनि
जथाइखौ
दतत
दतमा
बामोनखौ
बामोनाबो
बिथʼराय
सोखारिनान
सोखारिदो
##ाफरानो
करानिनि
टरइनफोरनि
टरइनफोराव
अगनबादी
अदालगरि
reti
अभिदा
सादोरजो
सानहाबबाय
मोबलावखौ
मोबलावानो
मोबलावा।
बायहरा
##गरोनागोन।
##गरोनागौ।
रजननो
महिलारी
बदारवा।
दाखालामस।
दौलदनि
दौलदखौ
दावबायारिफोर
खराइसालियाव
जखियानो
हमदोसमोन।
आवाजखौ
साइकला
साइकलाव
साइकʼलजि
सिनदरनि
मिलिटारिफोरा
दाकातफरा
किउरियʼखौ
असित
फʼनजो
बसोरखौ
सटारटखौ
##ult
##ign
जायगा।
आगषटखालि
दाहोना।
गʼसवामी
सोनारनाननो
novel
अटʼरिकसा
उरिषयायाव
एडर
फबसिन
शरमानि
सगरिनि
##लानागोन
##लानागोन।
बरफरजानान
गसथानो
मिनिखसि
जापानी
लबदोबला
थालिरखौ
जौगानायजो
दासानदि।
डाइरकटरिखौ
अखरानिफराय
समफथिखौ
रावखानथि।
मावखलि
खरसाखौ
परशानतवा
बलशरीया
गोबाखर
बनदिखौ
गायसनो
बिलडिखौ
बिलडिङाव
गोसोजलिदजो
measure
जनानिफराय
धनबोर
फखरि।
फखरिनिफराय
##जʼबनान
फिसायखौ
दिहनज
दिहनो।
परदिपा
जोबसरानाय
लाइफाङा
दमालवा
अलखदाव
सपताहआव
थाइननिफराय
बिरहानि
बिरहाङा।
सामलायनायनि
गोबरामनान
फाहामसालिनिफराय
अलकशा।
दबावयो।
बहरनायस
##सानदि
दावसि।
गामबारिखौ
खोनानायलाय
महिनिया
जाखाफनाय
जाखाफबाय
थलगा।
थलगाजो
काजिरङा
टरिगार
टरिपाल
हखमोर
##ocal
सिहखौ
गसवामी
फरायगराफोरा
गाजरियानो
हारडन
गिदिबायनान
थाबथानान
एरखनान
फोनाजाबनाय
सइसाइट
आबहावाखौ
खसाराव
दउरी
धमनद
धमखि
मरनि।
लबलखौ
साथामा
हनदलखौ
गिलासनि
सिखोमानो
गलमवाव
बोसोरसखालि
जाबरथायजो
कामरपाव
compound
गोजासरिवो
सानबोलाउरिजो
आहमदाबाद
खोरोन
सोरमाङ
गारहरदोमोन
परदशाव
रिकसाआवला
बिसखया
खिनथाफबाय
अमरनदर
##ence
मडाम।
दारʼगानि
दारʼगाया
एपरिलाव
action
degree
she
short
special
इरामतीया
गथारला
डीलखौ
बणडपार
मकतिनि
मकतियारी
हडकल
##जीखौ
##able
बरलबथरनि
आलमिरा
आसʼखानदा
राखावरि
नवसिनान
थिखिनियाव
जातरागाननि
गिसरोम
दहमनो
नथाइखौ
लालायनान
नायगिरा।
बारसʼलामा
रजाफनायाव
आरागा
साइखलजो
गोबासायानो
चौधरी
mother
फनदायाव
बइबो
बगारबाय
बोलोनि
गबʼनान
निहिर
गरजउ
नोथाङालʼ
हानायमानिखौ
रिकसानिफराय
बददिखौ
इसलारीनि
नरसोना
हालमाजिखौ
इमफ
उलाफादनि
सबरनथाइ
हबरानाय
##ments
नागिरा।
खोनाफनान
बाजिसिम।
कमिसनारनि
जाहाजखौ
सायनासालि
गʼदायखौ
बफारिनो
दबथायनान
होआखमोन
लोरबाथिखौ
कचगाव
खखरिखौ
थाथावगौ
लिसटि
बिपलबनि
मिञानि
मिञाया
होगरानान
बाथवाखौ
राइफलखौ
मोसाफनायाव
दाबोराब
लाबोफादो
मारकटाव
दौलत
करमʼज
गोलोमदजो
इरामतीखौ
औरसयाव
कालिद
कालिचरण
कानतशवर
खसरखौ
गिरजा
गिरजाब
जतानि
दइनमबर
नलबारि
मदापि
मागिनान
शवाहर
रोजासो
दखावनाय
ओखारलानोस
बानबथिदो।
1919
1911
1926
खिनथाजोबबाय
खिनथाहरो।
बिषणनि
जागायजननान
आरजलाइखौ
assam
परदीपा।
हालिवगराफोरनि
दखनाथावना
फारनिसारखौ
7833
user
आजिखालि
थाउननि
भरत
माफिया
##बोनादो
बिरोदामिननि
सितराफानि
सितराफाया
माधब
कलकाटा
बखानाननो
मनदिर
बाकसवाव
गʼथायनान
टिउटर
हाइबरिडनि
बमबराय
खासिबारीसिम
नोसाजोखौ
हरिभषण
अमिताभा
life
उथमायाव
एरिषटटलनि
एरिथमटिक
कबिनट
फमारबाय
बाथोर।
मिथिसʼव
गाराइखौ
राजथानदखौ
बिजनसाव
थनथरʼ
महीधर
सारियालि
फरानच
जावरिखानाय
हाजʼवारीनियाव
हाउसआव
दाबाशरीया
महिलारी।
मघालय
post
अडिटरिय
औवारिनि
काइदानि
बʼबबा
मशरि
सनजीब
गोबोरखि
मोनजलायनाया
मिटारसो
राइजोनाङ
खाराप
गानसलायनो
माइनारा
डिमासा
इरागदाउनि
दौवो।
आमथखायाव
जावसोखौ
इउटिलि
बालादसिफोर
कनसारट
सिलागा।
सिलागाङा
शिवराज
एडभकट
कमबकता
law
अवारनट
इलियटनि
कालामा
कानाडा
जसलनान
पकजज
##गामिनि
##atis
बिघास
बिसरिय
जायखियानो
सरसती
रायफोरनाय
बानबथियो।
रिजालट
गवालपारा
दबनागरि
इउरʼप
कमपानीनि
जगाजगनि
एकसपरस
गोबाखरबना
कानाइलाल
बिभीसनखौ
इगित
खखरामासि
चाइडिआव
जजायनि
जथरनो
तसरफ
तिबबत
दसराथि
फोरदाननान
मगलदनि
बादामालि
लाइसारी
फिथोबाव
दाबारीमोननि
साबितरी
दायलग
सारभिच
बिलितनान
थोबसबो
बिजिरखʼजानाय
सनटिमनट
असबिधा
सकरिफाइस
theme
मालटिमिडिया
कनषटबलफोरखौ
फागलासरोमनि
षटडियामाव
शिलचर
pronominal
मतामत
सातजारला
उसिफावनाय
वरकशवप
adverbs
dire
liter
person
एकटरस
चयाराव
जलदम
टबोलनि
थजरद
दहरम
भौमिक
मचिन
ससिनान
##ities
##hoo
बरदासट
बारानिखर
एसʼचियशना
सोमदरिया
दिङाया
बबवहाय
उनदगलानान
हारियाना
गलियामोन।
बलाबावो
हामिनारि
साबोनजो
ददलामागरा
सʼनाथि
सिमपानजी
लाजिनाथाव
बामबलमा
inherit
फोजोननो
रिगदामसा
काशमीराव
माइकरʼसफट
महीधरा
इनदरपरभा
काउनसिलनि
derived
bodo
business
time
इचननपी
कवालि
चछमानि
डिरकटर
पणडित
भरामयमान
यीश
##हʼरो।
समागलार
सोरबिथि
मावजाथा
गसरियो।
ओखारलाङास।
कलपनामोननि
सौगराउ
हाथʼफला
मादराछा
बिलिफाङाबो।
मोनथिसलाबाजास
proper
परिनसिपाल
spirit
मकसिमाइज
तदबिद
रायखाथावनादि
पिरामिड
great
gender
http
henry
language
tuesday
इटालियान
एफलिया
लदरग
लजिसल
वदारनदर
##माखास
गावखथाइयारि
समषटिनि
होलोखो
होजरिखाव
सोरजिसला
बोफलोम
एसमबलिनि
आननदराम
एनालʼग
बफादरबावो।
इउनाइटड
जगदीश
बाउनदोङा
specialised
##दोस
मिसटार
01
02
3r
4th
51
52
68
67
63
6th
79
72
700
83
8th
97
96
93
affix
ble
cr
coun
don
des
dir
doc
dial
dip
et
ed
ele
every
fa
fe
gl
get
gram
gut
glo
hon
has
hap
hand
hist
house
im
lo
local
men
mar
mel
met
nar
nation
night
natural
op
oth
out
pd
pas
polic
qual
rome
sa
sing
sound
some
soci
satis
tell
tww
task
ven
vers
voic
wed
way
want
ya
अरो
अखाय
अबि
अषट
अमान
अतय
आध
आबल
आलायनाय
आथम
आमाया
आरिनि
आभि
आघा
आसरम
इभ
इरि
इजि
इनायनि
इसर
इहि
उउ
उराव
उगल
उवार
उपनि
उकिन
उषा
एभ
एलʼ
एबर
एबार
एकट
एराइ
एमबर
एकर
एडि
एवार
ओखर
ओथिनि
ओजोनि
ओखरिया
औʼ
औगरि
औवाया
कय
कप
कनि
किन
कानि
कसि
किर
कासि
कलाइ
कबर
कका
कित
किरा
कनस
कयान
कतʼ
कनजार
खय
खा।
खलʼ
खदो।
खियाव
खबल
खागोन
खगोन।
खथम
खाङो।
खालाव
खथाया
खाजोब
खलिनि
खाखि
खजर
खहोनान
खहाबो
खथा।
खखरानि
खिसिम
खसलाय
खसालिया
खिसिमनि
गभ
गछ
गबा
गाबाय
गराव
गदा
गनज
गनाया
गङो
गादो।
गराया
गानायनि
गङा
गरोद
गानायखौ
गशव
गथामसो
घा
घब
घरि
घटक
चल
चप
चनि
चलि
चनट
चणडि
चनदरनि
जट
जजो
जसि
जदो
जबाय।
जदर
जाजा
जजित
जास।
जलियाव
जइन
जाजास
जखाया
जहबाय।
जथरोद
जबायाव
टथ
टड
टराय
टाया
टिनि
टसट
डट
डप
डड
डान
डाङ
डजा
डारक
ढाल
तत
तक
तिन
थत
थह
थी
थबो
थफा
थनाव
थगरा
थाथि
थगार
थजोब
थगल
थाजाब
थपि
थलानो
थया।
थलायाव
थखल
थजानान
थगोना
थहाबनान
थमन
थोनायनि
थथनो
दष
दयो
दलʼ
दादि
दनिफराय
ददा
दथाइ
दनायनि
दागोन
दलाव
दादो
दङो।
दथायाव
दलायनाय
दनखौ
दबरा
दबोर
दलायाव
दहाब
दारिखौ
दलाय।
दनस
दरा।
दलायो।
दखरानि
दिसत
दफयो।
दफायो।
दलायदो।
दसरम
दफायो
दलायगरा
दभला
दमायनान
धार
धला
धिक
धानदा
नन
नद
नदा
नफा
नथाव
नजाय
ननो।
नासिन
नषट
नखानाय
नादोमोन
नलाबाय
नानो।
नटʼ
नता
नसलाब
नटिस
नफनान
नफबला
नफराखमोन
नलियाल
नजोबा
नोनानाव
पग
पी
पाव
पहर
पजि
पारा
पाजि
पालनि
पसट
पइन
पदम
पटक
पडा
पदारथ
फाब
फावनो
फथाय
फोनो
फबलाबो
फफरा
फलनि
फनट
फनागौ
फारिखौ
फखानि
फनागौ।
फलाय।
फरास
फलायबाय
फखादो
फदोमोनबलाबो
फखादोमोन।
फखोमानान
बा।
बथा
बगि
बथाय
बाङो।
बटा
बलाय।
बफिननो
बलायो
बखायो
बथियो।
बथायो
भज
भिय
भाल
भिया
भदर
भराइ
भाजि
भटनि
भानदारि
मबो
मलाय
मदि
मबलाबो
मिना
मलाया
मबरा
मनानि
मरायाव
ममनि
मबलि
मयानो
मʼन
मथियाव
मिसन
मामि
मकति
मथायखौ
मालिगाव
मनानिफराय
मफाल
ममायारि
यस
यगा
री
रण
रघ
रबा
राबो
रलि
रगो
रसन
रासो
रसखौ
रकि
रइन
राङा।
ररब
रटस
रगिनि
लयो
ललि
लखार
लालि
लबर
लगर
लटार
लथम
लागि
लनाय।
लदिस
लगरि
लखानि
लदब
लनोबो
लफार
लगरानि
लादर
लोनाया
लाजोबनान
लजिक
लनदन
वल
वान
वाला
शभा
शाकत
षटि
षटा
सी
सा।
सबला
सबाय।
सजि
सगि
सयो।
सगोन
ससरि
सथिया
ससन
सथिय
सनखौ
सथिनि
सथम
सनाय।
सीन
सलायनो
सतर
सानायाव
सानायखौ
सीता
हलʼ
हादि
हलि
हगा
हगोन
हसा
हखʼ
हनो।
हणड
हानिफराय
हलाया
हलानि
हनायस।
हखन
हयार
हफराम
हकटर
हाहर
हजरा
हथरोद
हखायाव
हहोबाय।
हजग
हखराउ
।आ
##ाषट
##ाटक
##फत
##फाइ
##फलाय
##फथा
##फाहा
##फाथि
##फखो
##फारा
##फबनान
##फलाङो
##फरिनि
##िम
##िजो
##नय
##नथ
##नङ
##नाग
##नबा
##नना
##ननायनि
##ननायाव
##ननायनिफराय
##नागिरि
##ग।
##गी
##गलाइ
##गति
##गलायनान
##गलादो
##गनल
##गियारी
##ौस
##ौर
##बबाय
##बनिफराय
##बोना
##बगरा
##बयाव
##बराया
##बथर
##बारिखौ
##बिसि
##बसट
##बोनाया
##बिनाव
##बानी
##बोनागौ
##बामानि
##लक
##लसो
##लजि
##लसन
##सरो
##सानो
##सटार
##सखौनो
##सानिफराय
##सशानत
##सयारि
##सामि
##ोज
##ोस।
##ज।
##जयो
##जाना
##जिया।
##जानिफराय
##जारनि
##जागासिनो
##जासिगोन।
##जनदोमोन
##रय
##रव
##रार
##रिन
##रजो
##रसि
##रʼनि
##रिनाव
##भज
##भय
##भारि
##भारा
##टमबर
##टीया
##टमनि
##तायाव
##तनिफराय
##तननि
##तारनि
##ताननि
##तिराम
##याय
##यबो
##याया
##यादि
##याबा
##याखमोन।
##याबलानो
##दन
##दौ
##दाल
##दरि
##दजो
##दना
##दवा
##ददा
##दगा
##ददर
##दियावनो
##दाखा
##दलायो
##दारि।
##ददिन
##दखोन
##खालाम
##खाफ
##खलि
##खावनो
##खाजो
##खमाय
##खामोन
##खणड
##खाथार
##खरिनि
##खबस
##खाफिन
##मनो
##मरा
##मानो
##माला
##मासि
##मबार
##परि
##पसन
##पाबि
##पता
##ʼक
##ʼनाय
##ʼबो
##ʼननि
##ʼखान
##ʼजन
##ʼबनाय
##हʼ
##हनि
##हाल
##हनाया
##हागौ।
##हासो
##हारिनि
##हिरा
##हबावनो
##हाखि
##हरास
##होनो।
##होनागौ
##हयास
##ns
##net
##nesday
##iec
##itive
##ses
##hth
##इड
##वि
##वाय
##वान
##वनि
##वनो
##वो।
##वाम
##वबो
##वाबला
##वाथʼ
##वास।
##वाखमोन
##थोन
##थाख
##थानाय
##थाना
##थरा।
##थलिब
##कान
##कबा
##किया
##कलʼ
##कनिफराय
##काजो
##कआव
##कलाव
##कसाव
##कमार
##उजि
##ीया।
##ङालाय
##ङास।
##ङाखमोन।
##षि
##षण
##षठ
##षटिक
##other
##ogue
##एगार
##चाइ
##चिया
##चननि
##डरनि
##डाक
##डनी
##डाइन
##झिया
##आस
##आलाय
##आस।
##res
##ror
##mon
##mar
##mese
##pe
##tle
##tural
##शर
##शरि
##शलनि
##धि
##धना
##act
##ative
##ly
##ll
##lin
##lish
##ful
##64
##15
##da
##der
##den
##glish
##24
##छम
##ञचन
##ke
##ket
##wor
##ward
##ओनदा
##ओखाम
##ायाख
##ायाख।
##ायानो।
##ानोनो
##ानस।
##ानाखि
##ानीनि
##ावनाय
##ावरि
##ावसो
##ावजा
##निज
##निनि
##निखर
##निखरइ
##ारबाय।
##ारकनि
##ाबार
##ाबनो
##ाबानि
##ाबारि
##ाबोनो
##ाबरनि
##ाबाखि
##ाबलिक
##ोराब
बिड
बिरा
बिदो।
बिसा
बिनाया
बिखʼ
बिलनि
बिजित
बिबलानो
बिनिफरायनो
बिपल
बिथायाबो
बिलावरि
बिकाश
##लाह
##लागरा
##लागार
##लाफरा
##लाखो
##लाफिनो।
##लासिनो
##लागौमोन।
##नायसिम
##ामो।
##ामजो
##ामबल
##ामनायनि
##ामिनि
##ागलाय
##ागोरो
##ादखौ
##ादिय
##ादरो
##ादोना
##ियाम
##ियाहा
##ियोमोन
##ियानिफराय
##ियारनि
गोखो
गोबरा
गोयि
##ाथन
##ाथियाबो
##राल
##राजो
##राणड
##ाखरि
##ाखारि
##ाखाबाय।
##ाखाङा
##ाखङाव
##ाखाना
##ाखबो।
##ासरा
##ासथʼ
##ासोमोन।
##ासरी
##ासालियाव
##ोमबा
##बोबला
##बोगौ
##ाजौ
##ाजनि
##ाइजो
##िनथि
मोनग
मोनया
मोनाबाय
मोनालाय
मोनगिरि
मोनफरा
मोनामोन
मोनथो
मोनजाब
मोनला।
मोनफल
मोनलाबाय
मोनलिया
मोनाबलाबो
मोनफनाय
मोनबावनो
मोनफराम
मोनफिनो।
मोनखाबाय
मोनबोदो।
मोनगौमोन।
मोनजोबबाय।
मोनसिगोन
मोनसिगोन।
मोनफिननाय
मोनबाथाय
मोनफराख
मोनजलायनान
मोनथामा
##फोराबा
##ानायखौ।
##ालनो
##रिफोरनि
##रिटि
##ानोलाय।
##रायदो
##बायबलाबो
##जोल
##ाहनाय
##ाहनान
##ाहरो
##ाहाजो
सिगरा
सिनायनि
सिसरि
सिबनान
सिनिफरायनो
सिदा।
सिबरʼ
सिजोम
##थिबाय
##थिथि
##िसाव
##िसिनि
##िसटर
सानहर
सानथाय
सानहो
सानस।
सानखौनो
सानफिन
सानथो
सानथिय
सानखानान
साननायस।
सानखानथि
सानफराम
सानजायो।
सानखाबाय
सानगास
सानखानो
सानफोन
सानबरसो
सानतिया
सानखोमाबाय
##ालादोमोन।
नोबो।
नोसाल
##ारिफोरखौ
##लायल
##लायबो
##लायथार
##लायदोमोन
##लायदोमोन।
##लायोमोन।
##लायलाबाय
##लायालʼ
##सिगा
##सिङा
##सिटिनि
##सिगौमोन
##सिगौमोन।
##सिडन
##सोबाय
##सोलाय
##सोल।
मोलल
मोजाबलाबो
##दिनो
##दोब
##दोलाय
##दोदि
##ाबोस
होनबाय
होनबाय।
होननागोन।
होनजास
होनागौमोन
जायलि
जायखौनो
जायाबलाबो
जायाबानो
जायालास
जायालासनो
जायालासिनो
जोगो
जोथʼ
जोदोमोन।
जोखो
जोलाखौ
जोफब
##ाङाबला
##ाङाखिस।
##ाङास।
##ायावबो
##याप
गावस
गावद
गावदि
गावगोन
गावनायाव
गावथाव
गावनो।
गावथो
गावजानान
गावनायबादि
गावसरानान
गावनावनो
गावथावथाव
खालामफर
खालामफिन
खालामोमोन।
खालामजोब
खालामथो
खालामला।
खालामामोन।
खालामफनाय
खालामलाबाय।
खालामफिननो
खालामखाबाय
खालामगौमोन
खालामहबाय।
खालामसिगोन
खालामोमोनबला
खालामफायो।
खालामफनो
खालामहदो
खालामनादो।
खालामजोबबाय
खालामजादो
खालामबावनागौ
बर।
बरी
बरफोर
बरानि
बरफोरनि
बरनायाव
बरगʼ
बरइन
बरादार
बरननान
बरवाया
बरजिबा
बरलिन
समबो
समलि
समफोरखौ
समासो
समफोराव
समनाथ
समलिया
समपा
समफराम
समहालाग
समकखौ
समषटि
##फरायो।
##ादिनि।
सोयो
सोहो
सोलाया
सोगाब
सोहनो
सोफिनबाय
##ाफनो
##ाफयो
##नदाव
मानफरा
मानदाव
मानबायनो
मानदालि
मानहोय
मिम
मितर
मिथिन
होजो
होया
होहर
होखा
होखाय
होगार
होफर
होजोब
होदाव
होखोम
होफाय
होवा।
होबावनो
होबानो
होटल
होखाबाय
होदिनि।
होदोमोनबलाबो
होखायो।
होफराख।
होथावा।
होथनो
होवालाबानो
##लिव
##लिफोरनि
##लिषट
माझिया
जिप
जि।
जिनिफराय
जिजि
जिथाय
जिराइ
जिलिद
जिगास
जिवानो
जिदʼ
हाबबो
हाबसो
हाबगोन
हाबनाया
हाबफिन
हाबखो
हाबासो
हाबलाबो
हाबलाबाय
हाबफिनो।
हाबलाबाय।
नायस
नायखा
नायबि
नायसर
नायथाव
नायखो
नायगासिनो
नायलानो
नायसाय
नायखल
नायनायस।
नायखम
नायनागौ।
नायफला
नायलायो
नायनागोन
नायबोला
नायफबाय
नायगदाव
नायबावदो
नायफलाबाय
नायलदा
लोखौ
लोबाव
लोदर
लोदोमोन
लोखोम
लोखो
लोबलानो
लोगरानि
थाख।
थाखो।
##जाफोर
##हरजानाय
##हरनायस।
##हरनागौनि
##माचिषट
##जिब
##जिरि
नङाह
नङादि
नङालाय
नङागोन
नङाबरा
नङाबोला
नङाना।
दिनखौ
दिनथगरा
सोराङ
सोरमोन।
सोरबा।
सोरजियाव
फिसानो
फिसायाबो
फिसाया।
फिसालाखौ
आखय
आखियो।
आखफोराबो
आखवाबो
आखफोरानो
गोसोबो
गोसोस।
गोसोबादि
गोसोखौबो
गोसोयावनो
बोथ
बोसन
बोसाव
बोखानाय
बोबोर
बोसरा
बोलानान
##गोबा
##गोसो
##गोसा
##बलानान
##बलाबाय
##बलानिया
बाथिनि
बाथाव।
बाथाखौ
##खाटारि
गबोनाय
गबथब
हायर
हायास
हायाबो
हायथा
हायनायाव
हायनाया
हायाबलाबो
बरʼलʼ
रावसो
रावबला
रावफोरा
रावआबो
रावनिफरायबो
##खारला
##ासि।
बायख
बायबला
बायखा
बायगोन।
बायनायखौ
बायमोन।
बायहोनान
बायदियाव
बायखोनदा
अनबाय।
अनारिनि
अनारनि
अनारीनि
अनखाबाय
अनारि।
अनतत
थानायसाय
थानायनिबो
थानायमोनबला
##गराफ
##थाइया
##थʼदो
##थʼवाख।
##थायाबालानो
माबौर
##ारीआ
लोगोबो
लोगोस।
लोगोयाबो
बाराह
बारा।
बारिया
बाराया
बारगोन
बाराथार
बारबोनाय
बारलानान
बारबोनान
बारखोनान
बारानदा
बारडस
गिबा
गिदो।
गिगरा
गिनायनि
गिखाबाय
गिखाङो
गिफट
##लाइखौ
मोनसʼ
मोनसरि
मोनसारी
मोनसयानो।
दराग
दरबाय
दरदो
दरहा
दरदा
दरथाय
दरनायनि
दरबलाबो
दरनायखौ
दरखʼ
दरसरा
दरबोदो
दरमाव
दरबोबाय
बसत
बसनि
बसाङाव
बसलाब
बसाया।
बसाखौ
बसरिनान
##गाखौ
##थारसो
##थारनाव
##थारमोन
##थारदोमोन
##थारदोमोन।
##थाराख।
##थारनागोन।
बिनि।
बिनियाव
जादर
जादला
जादराय
जादिया।
बिबोन
बिबनिफराय
बिबवाव
बिबारिनि
बिबʼखौ
बिबनाङा
हमाव
हमलाय
हमनायनि
हमनायखौ
हमोबला
हमजलाय
हमसʼ
हमनागौ।
हमथायो।
हमखरबनान
हमथायो
##बरनि
##बरानाय।
गावनिखौ
मावबो
मावरो
मावा।
मावथाय
मावबि
मावाबला
मावबलाबो
मावोमोन।
मावाखिस।
मावखानान
मावला।
मावाखमोन
मावगरानि
मावनागोन
मावखानायनि
मावखरबनान
गोरलनि
गोरसवर
गोरीब
आनिबो
आनिजो
आनिसो
##ालायबाय
गजटाव
बादिनो।
सलʼनिफराय
##मोनद
##मोनबा
##मोनदा
##मोनथाय
##मोनबादि
मलटार
मलिना
मलनानो
मलरियाजो
गोजा।
गोजोना
फोराव
फोरो।
फोरानो
फोरसि
फोराबो
फोरोना
फोरथा
फोरसा
फोरखौबो
फोरोनायनि
फोरजा।
हरʼ
हरण
हरला
हरजो
हराबो
हरबला
हरफा
हरगरा
हरथʼ
हरथार
हरमोन
हरगौ
हरनायखौ
हरदोमोन।
हरखालि
हरनसो
हरनागोन
हराबालानो
हरखादो
हरबावबाय
##गोना।
एसा
एस।
एसखौ
एसबो।
एसʼखौ
एसलʼ।
एसʼवा
एसामिस
मानसिआ
मानसिलʼ
मानसिफोराबो
बिसोरसो
बिसोरथʼ
बिसोरहा।
गबनथि
गबनाबो
गबनफोरा
गबनखौबो
बाथरालʼ
बाथराफोराव
बाथराफाव
रोह
रोदि
रोगोन
रोगोन।
रोदोमोन
रोजोब
रोखानाय
रोलिया
रोदा।
रोजा।
रोदायाव
##खायनान
##खायामोन
गयानो
गयया
गयखि
गयथिनि
गयारीया
गयारीनि
गयाबलानो
गयसरिखौ
##फोरनिखरइ
जानायानो
जानायावनो
जानायखौनो
जानायनिफरायनो
जानायनिबो
जानायबादि।
लानाननो।
फोजौ
फोगरो
फोलागोन
##बावगोन
##बावखो
##बावसो।
##बावनायस।
गसनायाव
गसदर
गसमानि
गसथिखौ
गसफिनो।
गसफयो।
गसदʼ
गसफयो
गसफदो
गसलायनायनि
सोमोना
सोमदोना
सोमजिय
दिगि
दिखादो।
दिखाबाय।
दिपाव
मगनान
मगबाय
मगदो
मगगोन।
मगलनि
मगलिया
मगबासिन
गाबादि
गाबबर
गाबबलाबो
गाबखो
गाबनागौ
गाबहोनो
गाबरʼ
जरानि
जरिना
जरियो
जरबानि
जरहाट
दखल
दख।
दखयाव
दखादो
दखʼर
दखाबाव
दखाहर
बाहाया
बाहाना
मोजाखौनो
बनिखर
बनिफराइ
बङनो
बङाबला
बङोमोन
बङाखमोन
बङालासनो
गोदानाय
गोदोनो
फावफोरा
फावथायानो
बखौ।
##बिनि
##होगोन।
##होलाबाय
सासबाव
सासखौनो
सासखौबो
आलनिफराय
आलदा
आलखौ।
आलटरा
##गौमानि
दात
दाफोर
दाडि
दावनि
दावखौ
दावथाय
दावराइ
दावसिया
दावखानि
दावदाया
दावखायाबो
दावथिङाव
फारा।
फारफरोम
फारमाचिषट
महरी
महरबो
महरानो
महरसो
महरावनो
महरफोरखौ
महरगिरि
महरगिरिनि
थिबर
थिबाव
थिखल
थिथिथि
सरन
सरानि
सरफा
सरागरा
सरदार
सरखारि
सरलाया।
सरजा।
नागासिनो
सबनो
सबा।
सबखानाय
जानोल
मिथिला
मिथिनायनि
मिथिबलाबो
मिथिजोब
मिथिखो
मिथिजानाय
मिथिला।
मिथिहोनान
मिथिखाबाय
मिथिजानो
मिथिथारा
मिथिथारा।
मिथिसिगौ
मानोलाय
राइजोनो
बायदिनि
बायदिफोरनिफराय
गारफ
गार।
गारायाव
गारफा
गारखो
गाराजाब
गारनागौ।
गारनोबो
गारनागोन।
गारलानान
गारहरो
गारसोमनान
गारादनि
बोरियाव
बोरमा।
बोरदावलि
खरय
खरद
खरान
खरला
खरजो
खरसि
खरना
खरवा
खरका
खरखानाय
##सर।
##सराबाय
##सरियाव
##सरोनान
गासखौनो
गासनिबो
ओखारबा
ओखारगरा
ओखारगोन
ओखारोबला
ओखारखो
ओखारनागौ।
ओखारलानान
ओखारलादो
खनथ
खनजो
खनना
खनफा
खनफोरखौ
खननाया
खनसनि
खनबस
दानक
दानाइ
दानागौ
दानागोन।
दानसरि
दानखʼ
दाननिफरायनो
दानसरा
दानहरो
दानदाखौ
दानखलाब
दानदायाव
दानियासो
दानाजा।
##गारल
##गारबाय
##गारदो
##गारखो
दोनान
दोनाख
दोनसो
दोनहा
दोननायाव
दोननायखौ
दोननो।
दोनाख।
दोनखो
दोनलानो
दोनहनो
दोनखादो
दोनखाबाय।
गाहाब
फराया
फरायनाया
फरायदोमोन।
फरायोबला
फरायलायनाय
फरायलायनान
फरायसोम
फरायलायबाय
फरायगान
फरायसली
आफाया।
आफोदाव
आफायासो
आफोदा
आबादि
आबारिया
##ारामोन
निलि
निगर
निथौ
जौबा
जौजोनो
जौवानो
खामार
खामबला
खामसाव
खामजानाय
खामबलाव
खामफाया
खामदलाब
खामाखायनो
थायास
थायाल
थायजौ
थायबायाव
राजनि
राजाबादि
बनोस
बनोसो
बनोस।
बनोमोन।
##लावनान
बबजो
जानानान
जानाननो
##सारड
##सारनाय
##सारनान
लिरथम
लिरजानाय
लिरलानाय
लिरसरा
लिरलाबाय
लिरफिननो
लिरहरनाय
लिरहरदो
लिरजननाय
लिरथाइनि
बिजो।
बिजिन
जिउखौ।
##टारा
##टारट
##नायखौलाय
बादर
बादोमोन।
बादोमोन
बादलाबो
बादियानो
बादाव।
बादिसो।
आइनखौ
हादोद
हादगोर
हादाराव
हादरिखौ
##फरनि
##फरानान
गरल
गरोन
गरिय
गरानि
गरबा
गरखा
गरगरा
गरबर
गरटार
गरबार
गरनसो
गरीन
गरगलि
गरानिया
जबोखौनो
परʼ
परनाय
परहर
परति
परटʼ
परशा
परडा
परबन
परटिन
परदत
परहित
जोबाद
जोबबला
जोबहा
जोबनागौ
जोबास।
जोबसलाब
जोबहनाय
नʼट
नʼफारस
नʼपथि
हिनजावखौनो
हिनजावसो।
हिनजावफोरनो
हिनजावफराबो
सावफ
सावन
साव।
सावो।
सावरि
सावननि
सावफल
खोनाख
खोनाह
खोनाया
खोनदो।
खोनथा
खोनाहा
खोनागर
खोनास।
खोनाफरा
खोनाबलानो
खोनाफर
खोनथाखौ
खोनथानो
खौलʼ
खौलो
खौसल
सिखनान
सिखालाय
सिखिरिया
रायखौ
रायो।
रायनान
राया।
रायदोमोन।
रायटि
रायखो
रायजानान
कलकल
कलौस
कलगारल
##फराङो।
लाइभ
लाइथन
लाइसनस
लाइसिखौ
लाइखनि
लाइमथि
##फिननायाव
##फिनाख।
##फिनथो
##फिननागौ
गोदान।
अरस
अरानो
अरबाय
अरहा
अरगोन
अरननि
अररोम
अरजाया।
##सिननो
##सिनदर
नाकस
राइजोखौ।
राइजोफोरनिफराय
##थावा
##थावि
##जायनो
##जायनान
##जायाख
##जायोबला
फिसाखौ।
फिसाफोरनो
हारिखौनो
खारसार
खारनायखौ
खारसʼ
खारसल
खारबोदो
खारनागोन
खारलानायस।
खारफाल
खारʼखान
जाबायथʼ
जाबायानो।
गोबाङा
बाजट
बाजोना
बाजारिया
बानाव
बाननाय
बानवा
बानस।
बानथानि
बानथा।
बानदिनि
उनदस
उनदलाय
उनदबला
उनदया
उनदनायनि
उनदनायाव
उनददोमोन
उनददोमोन।
उनदलाङो।
उनदनायनिफराय
उनदलादो
उनदलादोमोन।
##ामोनाबो
##ामोननिफराय
मिनिबाय
मिनिदो
मिनिबला
मिनिनायनि
मिनिगोन
मिनिषटार
लायन
लायबला
लायनायाव
लायगोन।
लायाबा
लायनागौ
लाययानो
लायफिननो
खालामनोबला
थानोबा
थानोबला
थनाबाय
थनागोन
थनथाव
थनलायाबो
##मानिफराय
नाजाबो
नाजाया
नाजाबला
नाजलायनान
नाजावा
नाजाया।
नाजासिगोन।
नाजानागौ
नाजानागोन
गाजला
गाजरिया
गाजरब
खोमानाय
खोमानि
खोमादो
फोरमायबाय
फोरमायना
फोरमायनायनि
बखत
बखानाय
बखना
बखाबाय।
बखादो
बखावनान
जननायखौ
जनथर
जनबा।
आदयाव
आदारनि
आदामोननि
आदामोनहा
##ादोबलाबो
##टिका
##टिउट
रजज
रज।
रजनो
रजा।
रजया
रजाबाय
रजागोन
रजादो
रजियाबो
रजʼनो
रजानागौ
रजाहोनो
रजासालि
रजागलाय
##जोबबा
##जोबबला
##जोबनायनि
कमारी
कमाजो
कमदियाव
गथʼजो
गथʼबादि
गथʼफोरजो
गथʼफोरनो
गथʼफोरानो
जादोला
जादोया
आन।
आनछ
आनला
आननद
आनाबो।
जाथिया।
जाथʼनो
राफोर
खोलि
सोदोबानो
सोदोबनिफराय
सोदोबफोरखौनो
बिफावा
बिफामोना
बिफाफराव
महिर
महरा।
महिनो
माहारीनि
माहोज
जाननि
जानला
जानोनो
जानाङा
जानादोमोन।
जानाङा।
जानजिया
जानʼवार
दिनथि।
दिनथिबाय।
दिनथिगान
आरबाव
आरजाय
आरटनि
आरमिनि
आरोमा।
हारस
हारमनि
हारिसानि
होनायलʼ
होनायमोन।
होनायबादि
गजरथि
गजरिया
गजरलʼ
गजरहालाग
आफादाबो
##हायानो
गोमानो
गोमादो।
गोमबोर
खालामनान।
खालामनानान
खालामनानोस
आसारी
आसगर
आसारि।
बिथियाव
बिथराया
बिथानिफराय
बिथाङाबो
आयखौ
आयगनि
बफोरथि
बफोरबादि।
बिखम
बिखजो
बिखा।
बिखनिफराय
बिखनज
बिखसिम
बिखथिङ
बिखानथिजो
लाखखौ
लाखनिफराय
लाखिनागौ
लाखानिफरायनो
बावा।
बावना
बावनायनि
बावसिन
बावनागौ
बावला।
बावलिया
बावसोम
बावलिया।
बावलादो
बावखगरी
बाहायज
बाहायनाय।
बाहायजानो
बिदिखौ
जोनिखौ
जोनिथि
जाहयो
जाहिर
जाहगोन।
जाहाजा
जाहारनि
जाहोनायनि
जाहयाख।
दमल
दमस
दमाजो
दमारो।
गाजरिसो
गाजरिनिफराय
गाजरिथार।
गाजरिदराय
गाजरिसिन।
गानदो।
गानहोयो।
गानडा
गानफरायो।
##दावनाय
##बारवा
आगन
आगत
आगय
आगलायनान
आगयावनो
आगसिनि
आगमोनखौ
आगदानि
##खिनो
##खोमाना
आखाइ।
आखाइफरा
आखाइजोनो
नागिरस
नागिरनाय।
नागिरहनो
नागिरहयो।
नागिरहबाय।
मनजआ।
मनजलायाबो
आलाइसरीया
गलदो
गलबल
गलगिरि
गलगर
गलनायखौ
गलदोमोन।
गलानिफराय
गलनाया।
गलगिरिफोरखौ
माइनि
माइबा
माइलन
माइफरिनि
##बादिबला
##तिल
##तिक
##तिआ
मोसाग
मोसाद
मोसाबाय
मोसाबला
मोसागरा
मोसायाबो
मोसानागौ।
नोथाना
फारसखौ
फारससो
फारसनिफरायनो
गयाखौनो
##खोला
फावथाइजो
फावथाइबादि
फावथाइयानो
उननान
उनफिन
उनथिनि
उनथिङ
उनफारस
होनोबा
होनोसो
होनोबोला
बनायबादि
रमयाव
साट
साकष
सापत
बोसोरावनो
बोसोरावबो
बोसोरथामसो
बङोदि
बलत
बलनद
बलसर
बलसरीया
नारो।
नारबाय।
नारगा
नारसखौ
नारथरोद
नारथानान
बिबदिबा
बिबदिखायनो
जाखौ
लबाद
लबबला
लबबाय।
लबनायजो
लबथारदो
दसल
दसय
दसक
दसबा
दसमाय
दसरा।
हाजौ
हाजो।
मोदायाबो
आवनि
आवला
आवलि
मनत
मननान
मनाज
मनजि
मनका
गिदिनो
गिदिगरा
गिदिनायनि
गिदिफिनो
##थरनो
लानायखौनो
##हमारनो
दङबला
दङना
हानायबादि
मोननायलाय
मोननायाबो
मोननायादि
मोननायफोरखौ
मोननायमोन
मोननायजो।
सिगन
सिगाबो
सिगलि
सिगादो
सिगालाङो
मोखराखौ
##राइजो
जोनो।
जोनिया
##नट।
थाबथा
थाबथायाबालानो
फिजि
फिटा
जाखाबला
जाखलायाव
जाखायो।
जाखोनदा
थाङानो
##णडनिफराय
##रीम
##रीयावनो
गद।
गदङ
गदाम
गदङा
गदमाया
गदियावनो
गदिसिम
##ाथोस।
एनड
दाबन
दाबार
दाबो।
दाबाजो
दाबथाम
दाबाथी
दाबलिद
##जाबथ
जायोल।
उदनिफराय
उदयानो
उदिसा
बाश
बाघ
बापर
बातिल
खाथब
खाथनान
खाथिस
खाथिसिम
नोसोरजो
हागौदा
एमनि
खरʼबो
खरʼसा
खरʼखौनो
खरʼवाबो
खरʼसानि
दोबा
दोफरोमबो
एरनान
एरनो।
एरखलाब
थारा
थाराय
थाराव
थारनि
थारबाय
थारदि
थारना
थारनोस
थारनागोन।
खबो।
खबफा
खबनसो
बागला
बागसो
बागसा
बागाली
बागरम
बागलारि
मदना
बखवो
बखवगोन
बखवफा।
गमस
गमनि
गमखौ
गमगरा
गमसाव
अजाजो
हामनायनि
हामगोन।
हामलायनाय
हामजाया
हामगौमोन
हामजायि
हानागौ
हानागोन
हानागौ।
हानटि
हानासिगौ।
खाननि
खाननान
खानागौ।
खानदा।
फानो।
फानदाव
फानगरानि
फानहनो
फानजोबनान
हौवा।
##रागदा
खावय
खावथ
खावो।
खावगोन
फसदो।
फसथाय
फसजानाय
फसालिनि
मोजाबो
सपसल
सपटमबर
सिरिबा
सिरिबला
सिरिमोननाय
गोसाह
गोसायाव
गोसाथार
रिखा
रिथा
रिखाव
रिचार
रिगलार
मोदोम।
आदाफोर
गवला।
पलन
पलनाव
पलीज
बिहालाय
बिहासो
बिहावा
जागोनदि
जागोनथʼ
##लाबनाय
##लाबासिनो
##लाबलानो
बिसिगि
बिसिनानिफराय
सानसनो
सानसलाब
बिफाफोर
बिफाफोरखौ
##साव।
जोनोम।
जोनोमजो
##सिमबो
समाय।
ओखामखौनो
##काटा
बिदयाल
सगराफोरानो
मालायफोरा
हाखʼर
हाखरखौ
गोहोगोर
लिनाय
लिथि
लिनायाव
लिखʼ
लिथिया
लिमिन
लिलाङो।
लिगरि
लिहरबाय
लिपस
लिमिट
बाहागोलʼ
बाहागोवा
बाहागोफरा
सौख
सौथ
सौहा
सौखा
सौनायनि
सौफनाय
सौहनान
सौहनाय
सौहबाय
सौजलायो
सौजागोनबो।
लामनाय
लामासिम
साबफ
साबनान
साबिया
साबना
साबासो
साबखानान
साबारामा
साबʼर
साबदारि।
हगारा।
हगारना
हगारनायनि
हगारगोन
हगारगोन।
हगारफिन
हगारहरनो
हगारफिननाय
##डʼलनस
सिङावबो
गोगलदो
गोगलबला
गोगलगोन।
गोगलनायखौ
गोगललाङो।
गोगलनादो।
जाफल
जाफर
जाफाव
जाफदो
जाफनायाव
जाफफिन
जाफलानान
जाफलादो
जाफहोदो।
जाफलाबला
खायसो
खायफानि
खायखʼनान
खायलाबाव
मलगजो
मलगआरि
थानाबाय
थानोनो
थानाबाय।
थानादो
थानानिफराय
थानसालि
थानादोमोन
थानसालि।
थानादारनि
दायरि
दायानो
दायसो
दायया
लाबलाबो
लाबोनो।
लाबोनागोन
मोननागौ।
जʼदोमोन।
जʼराया
जʼगासिनो
जʼखानि
जʼथानि
जʼनायनिफराय
गोथारि
गोथसालि
गोथबारि
गोथसोनि
गामिनिफरा
मोखाआ
मोखाखौनो
साखला
साखलि
साखरिया
##थामनि
##षटनट
##फिउ
बदन
बदा।
समाजनिफराय
समाजावनो
खौरा।
खौराङाव
खौराखौनो
खौराखौ।
आसामावबो
गोनदो
गोनाङाव
गोनाखाय
थनलाइ।
थनलाइनिफराय
थनलाइयानो
##ाजिक
अबलाथʼ
रागखौ
थाबायलाय
थाबायनायाव
थाबायलानो
थाबायफानो
थाफदो
थाफागोन
थाफलिया
थाफगरामोन
##कलसन
फिनाव
फिननायस।
सिखलाखौ।
सिखलासो।
सिखलासा।
हाथराव
हाथफला
हाखोफोर
नागौखौ
नागौनो।
नागौबादि
नागौबलानो
गोरोबा
गोरोसिन
बिगाबा
गोजोननान
नजागोन
नजलायनाय
सायनो
सायमना
सायबसट
बरहमजो
बिसनि
बिसोना
बिसमब
सोलोआ
सोलोदो
सोलोथायाव
सोलोथाया
सोलोसालियाव
आफाखौबो
लाबोगासिनो
लाबोफानाय
लाबोफिनबाय।
लाबोफानो
लाबोहोबाय।
लाबोगोदान
सखल
सखलाइ
सखवा।
सखरिखौ
जिरायो।
जिरायनायनि
जिरायनायस।
जिरायफानाय
जिरायसलाब
जिरायहदो।
अलमाय
अलराइ
अलसिय
गलʼवानो
ददरबो
ददरयाबो
ददरमोननि
ददरमोना
ददरमोनखौ
दाहोनाय
दाहोनाया
बडʼफा
गʼबला
गʼयो।
गʼलानि
गʼबोयो।
गʼदरज
राजाफोर।
माथोल
माथोवा
माथोबरा
दिहनथाय
दिहनगिरिनि
दिहनगाबर
##खानाननो
सपतास
थलला
थलानाय
होमबानो
होमबासो
होमबलानिया
##खालिनो
खिरा
खिथि
खिलाखौ
खिथौ
खिजानि
##कसनाव
दरजानो
दरजा।
दरजासो।
बिलाइफोर
बिलाइफरा
बिलाइसिम
बिलाइफोराव
फबायजो
बलाषट
दाखव
दाखरा
दाखराय
दाखथार
दाखʼन
राहाखौबो
जाथाइआ
थोब
थोबो
थोया
थोवा
थोया।
बोहयो।
बोहलाङो।
लाखिबाय
लाखिनाया
लाखिदोमोन
लाखिगासिनो
बनानाय
बनानबो
आनारीखौसो
खलथानि
खलथा।
जाथायफरा
जाथायखौ।
थफल
थफनजो
रावबोआनो
जाबनान
जाबादि
जाबरब
हालला
हालसाल
हालदखौ
फिसाजोला
फिसाजोवा
फिसाजोआबो
रामचनदर
रामायन
गनाबो
गनजि
गनखौबो
गनका
सफारि
सफनायाव
1930
थाइनजो
थाइजायारि
इसान
##दिसो।
##दिसिना
मोनोदि
मोनोखोमा
डिराक
पलिसखौ
थिननो
थिनदोमोन
थिनदोमोन।
थिनह।
फिसाजलानो
फिसाजोनाव
थावा।
थावनिया
##खानथिनि
बिजिरनायनि
बिजिरगोन
बिजिरगोन।
बिजिरगिरिनि
सोलायि
सोलायनाया
सोलायथायनि
सोलायहोनो
फरर
फराबो
फरियाव
फरनस
फरमाव
फरनसि
फरतति
सानदोबला
महारानि
सनʼ
सनागौ।
सनसरी
सनसरा
सनकानि
सनील
सनजिब
अजित।
अजितहा
अजिताथʼ
गोबावसिम
गोराफोरा
##लायावबो
खफरि
साइस
साइटनि
साइराब
इनभ
इनसि
इनडि
इनडिया
इनडियान
लाफदो।
लाफगोन
लाफाबाय।
लाफागोन
थवबोनो
दाजाबनो
दाजाबफा
दाजाबफानान
मानिनो
मानिस।
मार।
मारवाव
मारवारि
मारकिन
दलराय
गोसोआवबो
रोखोमस।
अलʼखौ
खाबवा
खाबबर
##ery
##erv
##erial
##लामबार
हाबफबला
हाबफनायनि
हाबफनायखौ
हाबफफिनो।
ददनज
ददनदोमोन।
आलादा।
मासल
मासथार
##ाथʼ।
दौदो
दौबला
दौरिया
दौरिनि
फागाजो
फागलास
गासबोखौ
सावरायो
सावरायो।
सावरायबाय
सावरायदो
सावरायगोन।
सावरायलायनाय
सावरायलाबाय
सावरायगिरिफोरा
लानथि
लानाबाय।
लानथानि
लानथायाबो
लानथाया।
लानजायाव
बिबारफोरखौ
बिबारबादि
हिरा
खोथाखौ।
साफर
साफायनो
साफिनो
आबौमोन
##मारो।
##मारबाय।
करʼ
करलानि
करानी
करानिया
करपʼर
बिजाबआ
बिजाबजो
बिजाबफोरनि
पिप
बफयो।
जोमाव
जोमजो
जोमगरा
जोमनायाव
जोमावा
##लानायाव
जाखोल
सिखाराख।
सिखारनोस
दबानि
दबाबो
दबगा
दबाना
दबाखारि
हादोरफोरनि
सोरजिनाया
सोरजिनायखौ
सोरजिदोमोन
सोरजिगिरिया
सोरजिथायनि
फोथायना
फोथायनायनि
फोथायनायखौ
फोथायखबस
खिनथा।
खिनथादो
खिनथानो।
खिनथालाङो
सिननान
सिनहा
सिनदा
सिनगरा
सिनसरि
सिनटम
##परनिफराय
टरय
टरइननि
टरइना
##खलनो
सानबोदो
गाहामखौ
गोसोनि।
लाइजामाबो
लाइजामखौ।
जोहोलावजोनि
खदजो
दाउल
दाउस
दाउनि
दाउजो
दाउवा
दाउसरिया
असभय
जारिमिनजो
जारिमिनाव।
लाजिग
लाजिनायखौ
लाजिबासिन
बिरलानो
बिरलाबाय
बिरलाङो
बिरलाबाय।
बिरबोनान
बिरजय
खालामनायमोन
थवबोखि
नगौखौ
नगौमोन
नगौथʼ।
गोलावा
दानोबो
गनदक
गनदला
गनदरि
गनदानिफराय
गनदरिया
गनदायानो
रानदो
रानगरा
रानजोब
रानखानान
रानलानाय
रानथाब
रानदिया
रानसराव
लाहनान
लाहदो।
लाहोनो
लाहोनाय
लाहदोमोन।
लाहारीया
लाहिननि
सालला
सालायाव
सालबारि
फाहाय
##ʼवासो
##ʼवालाखौ
बादलजो
बादलहा
बजानो
बजʼबनान
बजʼबो।
गोबानाय
गोबाबाय
गोबाजो
दरहाबाय
दरहागोन
कमपिउटारहा
कमपिउटारफोरनि
बनला
बनास
बनजा
बनथा
बनथानि
बनʼवा
मसब
मसखानि
मसाहारि
हिसानि
##ाथारनो
आनोबो
आनोलाय
बहा।
बहिया
बहादि
बहोनाय
बहोनान
बहारा
मलनालाय
मलनबादि
मलनासो
थासा
मोसौसो
थालिया
माबोरौ
नखरनो
नखरनिफराय
नखरफोरा
नखरफोराव
##गʼनो
##गʼलला
गोलबाय।
गोललनि
माहाजोनजो
##फायार
##फायोबला
फिसाइ।
फिसाइनाव
2001
जामनि
जामनो
जामथा
गायो
गायदो
गायसʼ
जालानायनि
जालाबलाबो
दङʼबला
बाइकनि
थरसिनि
थरबथर
थरʼजन
बोरायनो
बदर।
आमिस
आमटक
आमबलाय
थियो
थियारि।
जायाखौ
गामिबोर
नाङाबला
नाङाख।
नाङाखिस
गोखरोय
अखाखौ
अखाफोरखौ
दानायफोरखौ
सामायाव
सामलायनाय
सामलायनायाव
सामफथा
सामाजिक
सराङाव
सराजाया
मवाखौनो
मवाफोरबो
सजिर
सजगर
सजकि
सजगरामोन
##फलखौ
##फलबाय
##फलरʼ
##tial
##timent
##tish
अफिसा
अफिसावनो
अफिसारा
खालिनो
खालिबो
सʼफायाव
##बोनायस।
फल।
फलार
फलरनि
फलमती
बवाइनि
ददनलानो
ददनगिरिया
हफाजाब।
जावनाय
जाववा
सकाल
सकति
जायगायाव।
जायगायावबो
रोङनि
रोङाबलाबो
अमरा
अमास
अमलखौ
अमासिया
दहाजो
दहायावनो
बानायनाय।
मावनो।
##ादोमोनबलाबो
ससार।
##लायनान।
##लायनानबो
##लायनानसो
खोनासदो
खोनासथाव
खोनासगासिनो
अलʼकखौ।
मखʼबोनाय
सिमला
सिमा।
सिमाना
सिमफला
सिमफरि
##रियल
##रियावनो
साननायानो
साननायबादि
आखलफोरखौ
आखलखौ।
हासिस
हासलाबा
हासʼवा।
हासʼनान
नोगोरनिफराय
नोगोरमा
नोगोरफोराव
नोगोरमाखौ
तलारामखौ
##दारजो
##गावाव
##ʼराम
गोसोआनो
फोरमायनायलʼ
मददबो
मददगिरिनि
आथोना
इउरियाजो
शानतियाबो
आफादनिबो
##लाबायदो
बिबानाबो
बिबानगिरिया
बिबानगिरिफोरनि
सगलायनाय
सगलायो
महाराजाफोरनि
फालो।
फालिया
फालसिन
फाललाखौ
##लासनो
बनदनि
बनदोनि
बनदरनि
थनफावथिन
खाथिखौ
खाथिथाराव
फोजोबदो।
फोजोबगोन
फोजोबनायाव
फोजोबनायखौ
फोजोबनाय।
फोजोबसरानान
मादार
सहार
सहनान
सहबाय
सहबाय।
सहयो।
सहनो।
गिलङ
जौगागोन।
जौगाहोनायनि
बराउ
खामानियावनो
बालब
बाल।
बालानि
बालाबाय
बालसिन
गोरोबनायखौ
गोरोबथायाव
गोरोबलायनाय
गोरोबलायो।
आलाइसरिनो
सोमोनदोबो
लिरनायफोरखौ
सोरखाराबो
फोसावयो।
फोसावजानाय
सोलखौ
सोलो।
सोलोना
सोलियो।
सोलरखौ
सोलोनायनि
सोलोनागोन।
जिबखरिनि
सवान
सवाख
सवाहा
सवारिखौ
बफोरखौ।
बफोरखौथʼ
गोथौ।
दगदो
दगनाया
दगसरानान
दयाबो
दयावनो
राखय
बावदिया।
रबीन
रबीनदर
थनफावथाइजो
थनफावथाइयावनो
खʼनानि
जालायनायनि
जालायगोन
जालायगोन।
##खननान
बोथोरावबो
अनगायबोदि
अबटार
अबदान
गाइसन
दासिमबो।
नारजारिखौ
नारजारिया।
then
these
फाला।
सनिल
माबलाबाफोर
फाथनि
फाथनो
फाथरा
फाथबो
बोखाबाय।
बोखाङो।
बोखाङो
बोखलायनो
बसोखौ
बसोयावनो
बसोलायो।
नागारना
खनथाइ।
खनथाइफोरनि
बखवगाननि
खलमदो
खलमदो।
आनदास
##rative
##rated
मोखाङाव।
खमब
खमला
खममोन।
खमखि
खमलायनो
खमावबो
आगानफोरखौ
आलासि।
सोमावसारो।
सोमावसारदो
सोमावसारनाय।
सोमावसारगराफोरनि
आइजोया
आइजोआबो
आइजोआ।
एलरि
एलखायाव
एलगरिनि
जारक
जारमाना
जारमाननि
फोरोजानो
किबा
किडनी
थाहदो
थाहदो।
थाहगोन।
फनायथि
फनायमोन।
फनायबादि
सालाद
साला।
थानायनिखरइ
खोनानान।
हानजानिफराय
खफोदसो
बवहायबो
आहाखि
आहारखौ
आहʼम
बरायनि
बरायगरा
बरायगोन
बरायहनि।
बरखाहोनाय
गवाहाटि
गदिनि
गदिआव
दावबायफ
दावबायनान
दावबायारिया
थियटारखौबो
बाखरिखौ
बालासरिया
बालासरिखौ
होफगरा
होफनायखौ
मावफनान
मावफागरा
रायजलायनान
रायजलायदोमोन
##कतरा
लोबोनान
गोमोखौ
गोमोहाबो
गागलि
गागलोबो।
बजिनान
बजिदो
बजिबाय।
हथाफोरखौ
परमद
परमप
बानजायफदो
आथोनारि
ओरबायदि
नवाबलानो
फफिनगोन
काति
कापर
काञचन
जाला।
जालाखार
जालालद
थौबाय।
नमारा
नमसक
बथलन
बासन
लामायाव।
गोरोनथिफोरनि
इयानद
मोसाफोरबादि
सिखावनि
बाजिनाय
बाजिदो।
बाजिलाबाय
नाजानायानो
जानागौमोन।
गवाहाटीनिफराय
नहरास
##सटनि
##सटलाव
दमनआ
सावगारिफोरा
गनायनाय
गनायथिखौ
हामाखौ
##पाति
फोलाना
सोमजिगोन।
सोमजिहोनाय
सोमजिफानाय
दावहाबो
दावहानिफराय
अलकायाबो
अलकामोननि
अलकामोनहा
फननाय।
फनलदानान
फजायाव
फजिना
फारिलायाव
मिहिर।
मिहिरनो
मिहिरहा
थिउरिनि
थिउरियाव
हादरफोरनि
जोरनान
जोरगोन
जोरवाबो
जोरहा।
नबायथʼ
बिमङ
बिमजो
बिमालनि
गारिफोरनि
गारिफोराव
जिनजिरि
बगनि
बगाना
बगराया
बगलोब
गोसोम।
गलाफोरखौ
गलामोन
गलादारा
गलादारनि
गदरनि
गावसोरसो
मिजिङाव
मिजिथियो
खबसखौ
खबसनो
खबसबाव
खबसयनो
गगगल
गगलायो
बजायह
बजायनाय
बजायनायनि
सटज
सटप
सटक
सटाइ
सटिस
सटाफ
सटनʼ
बिलोनि
गोदोसो
ओनसोला
पारटन
पारभज
दवाना
##करट
##करनट
अखरा।
अखराआव
फयास
##लियानि
सिबनाय
सिबियो।
सिबखाबाय
गनदाफोरखौ
गनदाफोरा
मसरिखौ।
हरावबो
##ानदी
फोरमान।
फाखा।
फाखाथि
फाखʼन
##ाबि।
जिउखौरा
हारिमजो
जिरखʼनाय
सराव।
हाइला
हाइसक
हाजोयाव
गोजामसिन
साहबा
साहाथि
##किउरिटि
दानदिसलʼ
चिल
चिप
चिटि
चिभिल
चिगनल
मरन
मरोम
मरावनो
मरगा
मरजाद
मायखौ
मायानि
मायबा
मायगाब
साजोनो
दरबबल
गोजानाव।
थिखादारा
दयारामनि
दयारामखौ
रिसाराबो
रिसारफोरनि
दासनाय
नबखौ
नोमानि
नोमबखौ
थाखोनिफराय
महरसि।
महरसिङा
गाखोह
गाखोदो
गाखोफिननो
गाखोफिनबाय।
गाखोहबाय।
गाखोहनान
गाखोहबाय
हानजाफोरा
मोनहानो
मोनहबाय
मोनहनायस।
निउज
निउयर
लिरगिरिफोर
लिरगिरिहा
लिरगिरिफोरखौ
बिजौसिम
खालायनाया
जासलि
जासयावबो
होननायलाय
होननायखाय
अनिमाखौ
##यानोबा
##दाय।
लावस
लावथाय
लागोनाथि
लागोनासिम
मोनजागोन
थिकानो
हाजारबा
हाजारसो
गवार।
गवारसिन
गवारथिनि
तितागरियाव
बिषालि
##ालʼसो
सोबफ
सोबाज
सोबबाय
असमभब
गोसोखानो
गोसोखा।
गोसोखाहोनो
बलसरिनि
बलसरिखौ
आसिमा
आसिरब
कारपट
कारबन
मिरयाव
##thing
##thology
120
122
नामाबरा।
दागथारनाव
नालाब
नालिसा
##oman
गोखर।
आबʼहावा
उजिनाय
उजिगोन
खवगोन।
गथायो
थोरसिनि
पाका
पापनि
सोनायमोन
##own
सानजोलʼ
रायलायदो
रायलायना
रायलायगोन।
हाजʼवारीयाबो
हाजʼवारीमोनखौ
हाजʼवारीमोनखौ।
##लदानाय
गाबजरिहर
आजोलि
सोलिनान
आयदाफोर
आयदाफोरनि
ममबरा
लरब
लरनखौ
मोनथिनाय
मोनथिसिगौ।
मोनथिखागौ।
बाराय।
बारायनो
बारायगा
गोजान।
गोजानावनो
गोजाननिफरायनो
थिङनो
नागाफोरनि
आयदाफरा
दʼथायाव
बमाखाङा
मथनि
हाबहनो
गामियाव।
बिनाराम।
थिउरियाफोर
थिउरियाफोरजो
रफाया
रफाराम
रसगʼलला
मोनदाबाय
मोनदाङो
मोनदाहाय
जोखौलाय
बारगʼलानाय
नोथानिसिम
आवगायला
आवगायनो
आवगायबोयो।
159
अपारसननि
फदनाय
फदा।
मालति
मिथियाल
मिथियाख।
खावलायहरदो।
लिहरनो
लिहरो।
लिहरनायनि
लिहरदोमोन।
हमबायमोन
हमबायमोन।
मावनायानो
मगनाव।
खौरागाननि
दिनथिगरा।
गनथजो
गाखोना
खानाइजो
खानाइया
रवाथि।
रवाथिमोनखौ
सोदरोमाफोरजो
नगन
दिनथियाख।
##गरीनि
##गरीयाव
कमाणडनि
कमाणडफोरा
जाबोबाय
जाबोगौ
मोनथामनि
मोनथामबो
सानसरिनान
सानसरिजो
महनन
महना।
जाहोनाबो
बिहामजोया
सागलोबनान
##होनाय।
सिबिनाया
सिबिजाथाव
फोथना
फोथगोन।
फोथानायनि
निमावजा
जाथारदोमोन
हौवायानो
जागायो
जागायजनो।
कनषट
कनफि
कनसाल
कनडʼलनस
हʼमाव
हʼमनान
हʼबरानाय।
हʼसटलाव
मोनलायो
मोनलायो।
मोनलायबाय
मोनलायदो।
मोनलायोमोन।
सोङोबला
अनजाथाव
अनजालिनि
आदब।
बडʼलणडाव
गागलोबदो
गागलोबथाय
गागलोबनायाव
फोनाङ
फोनाबाय
फोनाङो।
फोनालायनान
बिलायनायनि
बिगरनि
बिगरखौ
बिगरफोरखौ
फारियानि
रगा।
कमपावनो
फारसथिजाय
एरनोबा
नाथाद
नालायबाय
जगत
जगाब
जगजो
जगदार
नहरदोमोन।
लाउथाइ
लाउथिजो
लाउथि।
##ism
##ise
##isation
##कषतर
सानदनि
फरायसालिखौ
फरायसालिमानि
हादरनि।
जाखरिखानायाव
गाखौ
लखाबो
लखागोरो
सयत
अनाथी।
रजानाया
सौफनान
सौफबाय।
सौफनायनि
सौफगौ
सौफयाख।
इनदिसरीया
थोनहर
थोनखौबो
फालिनान
फालिनायजो
रादायनि
रबिलसन
मोगियाव
समिज
समिला
समिलाया।
समिकʼ
होखारबाय
होखारगोन
दावगाल
दावगाबाय
दावगाफ
दावगालाय
दावगाफनाय
ओखारबोफिनो।
हाथाइखौ
हाथाइनिफराय
जलिस
जलपाइ
थानाखौ
रौनि
रौना
हाबिलायाव
कामशवर
ननायमानि
ननायखायसो
सकसपी
##ank
होआस
होआस।
होआजास
##लिमनान
ओजोहाय
मवायानो
रजिषटार
रजिमोनहा
गोनाथिनि
सोनाबहा
टराइबलफोरा
अगियान
अगदाब
थादʼवा
थालाइ
थालागोन।
थालाङो
दाइरिया
नाइबला
नाइलʼ
मजदर
सथोखौ
साथामजो
सानदोमोनदि
सानदोमोनबलाबो
होय।
होयनो
होयास
दावरावखौ
जनादखौ
जनादजो
थाफिननाय
थाफिननान
थाफिनदो
थाफिनगोन
थाफिनास।
थिनहरनो
थिनहरनाय
उखनाया
उखहाब
दनथा
बफरगरा
बफरथाय
बफरनायनि
बफरयो।
लोरगि
सहायनान
सहायनानाय
बिसारा
बोहथिमोननि
बोहथिमोनखौ
1989
जवाहर
निसा
निसायाव
निसथर
निसारनि
बबोगौ
तितागरिनिफराय
187
183
आरिखौ
दादाव
दादानस।
सथि।
सहन।
##गरोबाय
##ict
##ice
##lec
बिदाय।
अलकाखौनो
बथिदो।
बथिगिरिया
मासिफोरनि
शानति।
शानतिपरनि
शानतिमोननाव
जोहा।
सोराखौ
सोराआव
उलथ
गियानजो
डाइट
डाइरि
बामनायाव
बामननि
बामखानान
मडामा
मरायखौ
मरायजो
हकी
हकार
हकारा
सिफायो
बाखनायो।
दारगा
रलकस
रलगारि
ससाया
ससयावनो
##गासनो
##olar
##ologue
बसोनिफरायनो
फोथार।
##गरामाव
सायाराममोना
कलागार
कलाकषतरनि
##फोर।।
जिनिर
इसिङारि
जजिनायाव
रमाखौ
##फरावबो
षटलाव
षटसन
षटसनाव
हसइना
हालामा
महनलालखौ
जोथि।
गलिखौ
गफरसाफोरनि
जबराया
थगरिजोनो
सिगारनाय
बोरबाफोर
दानसनान
खौसथिखौ
दाहोनाफोरनि
दाहोनाफोरजो
दोसजोनो
खाखराय
खाखमा
खाखवा
खाखराइ
खाखलोबनान
जरिनान
जरिबाय
जरिगोन।
लहननि
हाफाव
हागराब
गावथारदो
बसादफोरनि
माहारिजो
बागदावो
बागदावखाङो।
बागदावखादोमोन
फजʼयो।
फजʼनान।
int
धोनिया
होनबलालाय
ओरनोबा
आगराआरी
खनदखौ
फटʼवा
गयिखाय
परससन
परसकरि
मिनिटस
मिनिटबासो
हासथायबाय
हासथाया।
हासथायनाया
दरबासिआ
दरबासिजो
ओथिब
खोनाया।
दमाखौ
हाबाया।
लोङाबला
लोङास।
अनसायगरा
मावगराखौ
मावगराजो
बोरोथो
लाइमोनसरिनि
राइजोआव।
बिगियानफोरनि
इनटारफ
सिथारो
सिथारदो
सिथारगोन
लाइफाखौ
मोखाङ।
खरʼवावबो
खावसलʼ
थोजोय
comic
comedy
जथायनान
##नीधर
##मबसर
##ctr
हाबफयोबला
बलायावनो
दरखआव
दरखसिम
दोनथʼनो
जाहोयो
जाहोगासिनो
नजाथिनान
नजाथिगोन
नजाथिगोन।
नजाथिफयो।
जलिखौ
दथायनो
दथायनाय
खोखलदो।
खोखलयो।
खोखलहरदोमोन
लाबोनायखौ
सालायनाय
सालायनायनि
सालायनायाव
गिलिरय
गिलिरथिखौ
रादाबखौनो
इणडिरा
इणडाषट
नाफाम
नाफबाय
नाफानान
नाफदो
लफामनायनि
##edi
जोखलाय
जोखलाब
जोखलोबो।
एमबजो
हाखरायदो।
हाखरायनायखौ
दाखालिबो
खगानिफरायनो
161
अकटʼखौ
घनटान
घनटास
घनटासो
घनटासनि
थनायहालाग
होसोगासिनो
होसोलाङो
माउसजो
आखायनि
आखायनिफराय
बारहखा।
फरायनायानो
फरायनायाबो
खामफायाव
परगरामखौ
एमफौनो
एमफौफोरा
हाखरनिफराय
थानागौमोन।
नोनाबो
मदरनि
बियटरि
बियाबनि
बाथौवा
गसाइ।
गसाइखौ
गसाइगाव
गसाइयासो
गोमोरला
गोमोरलाबाय
गोमोरलाङो
गोमोरलादो।
बाउनान
बाउखगरि
थानद।
खदमनाय
खदमनायनि
बिलिरो।
बिलिरबाय
जाखरिथाइखौ
मिसा
मिसना
जखायो
जखायदो
जाजोबनाय
जाजोबबाय
दगारनि
हाथायनि
बिलोखौ
मोनामस
मोनामसनान
मोसाहारियाबो
जाफसारनायखौ
नजाफनायस।
आसारा
बगरारि
बगरामोन
बथमनायाव
गबनारिफोरा
गबनारिफोरनि
अखाफोरावनो
कसारीनि
लʼभ
##ालाय।।
बयनिखरय
थफनमोना
थफनमोनहा
गोलोमफर
जौगाखानि
मिनथिखा
मिनथिजोब
मिनथिगौ।
मिनथिसिगौ।
132
13th
उथरिनायनि
उथरिसार
दालब
दालार
दालानि
दालाननि
बटलनि
रजालियानो
रजालियालʼ
सोनारना
खलागार
बानाननि
सरोदय
##बादनि
सिलिखा
सिलिङाव
बानदि।
बानदिजो
बानदिखौनो
नोथामोननाव
पलटस
जाइथा
जाइलि।
थाबोदो
थाबोलाबो
थाबोला।
दफयो
मखलफोर
हलारामखौ
##ack
होनायावसो
खालामनायावबो
हिनजावसाफोर
हिनजावसाफोरनि
खोबना
सिगानिजोनो
सिगानिखरइ
अबलाउरिनाव
सायखʼनो
दरहासारनाया
हावरियाखौ
238
आपʼस
गालाब
रोनसोन
मोदाय।
मोदायनि
मोदायजोनि
नहाथारिया
ओनसोलफोरखौ
priz
prologue
गिसिखानाय
गिसिबखौ
जमद
जमाइ
जमबाय
टकवाख
दोमदो।
मारिथ
राङाथʼ
##जलायनायस।
सिलारि
मिलिट
मिलिजोबबाय।
खोनदोस
जारौरौ
टाइगार
भकतखौ
मामरसि
गावरावा।
नायहरोसो
मावरिजाया
मावरिजायाव
फोरजाखौ
फोरजाफोर
फोजाखानाय
थिगखौनो
इनदपरभानि
दाफ।
दनदरा
दनदराय
सालिखौ
सालिखʼ
##फोनादोमोन
##गयि
##ash
जिगाजो
जिगजौ
जिगाबाव
बानदोखौ
खोमोरनान
गवलाङ
हाथारलाय
हाथारगोन
1964
1967
इउनिटा
इउनिटनि
राखानथियारी
गटफोरा
ममबरखौ
ममबरखौबो
लकषम
लकषी
लकषमि
##रणमनट
##ʼबनाय।
बोखारनो
अरखिनि
दमासवाबो
अफिसारफोरनि
फोरोगिरि।
होबथानायनि
जयोबलाबो
नीलामबार
पनसाय
##शवरनि
खालामनागौनि
नाजाबलाबो।
खिनथिनान
नगबयाव
खाजाफोरखौ
फायारिनि
मतलबा
मतपाबि
लथोया
लथोयाव
ससराना
##ech
मोनथारो
मोनथारो।
मोनथारा।
मोनथारदो
##सिगोननि
जोलदि
जोलया
जोलदा
मानसिफोरा।
मानसिफोरनाव
सरबशि
मनʼज
मनʼकमार
सिगाआवनो
सकरबार
सकरटारी
साजायनायखौ
गौथमफोरखौ
गौथमफोरा
आगरोम
आजावो
आजावना
खासिखौ
थाथʼयो।
##चिपाल
मोनजायाख।
सिफलिनान
थाखोमानो
गोरिबनि
बङाइगावाव
दाकाती
लाइनमना
बाजियाव।
##टिभ।
बिबदिबला।
एसिदनि
एसिषटनट
खातिर
खसजो
खसथʼ
खोनानबो
गादरा
गादबनान
गादबनाय
गादलन
गगलस।
गगलसनि
गगलसखौ
नथायफोरखौ
पकटाव
पकटखौ
बगाखौ
##urd
मोनफदो।
मोनफबाय।
आवरायबाय
सायखखौ
सनथालनि
सनथलाया।
लाफिनदो
लाफिनबाय।
थादʼयो।
कʼकराझार।
उइकाव
एखथ
कलासमट
खखराय
खखराया
गाथोननि
जाजाय
जाजाबाय
नथारा।
बबलालाय
मराइजो
रोनावनाय
सभज
सभाया
दरगाथाव
दरगानाया
दरगानायजो
खनथाम।
माइनावखौ
खाथियावनो।
बिगोमाखौ
जाबावनायस।
str
परिषदखौ
रयाथि
रयाथिनि
रयछम
।।फ
##बारीनिफराय
सोदोमसरी
सोदोमसरिया
होवालासनो
फारनयावबो
नाजावो।
नाजावना
सोदोबथिआव।
बानायसोखौ
सोदरोमाफरा
ममʼरिया
ममʼरिखौ
ममʼराणड
बिसायखʼथियाव
आजा।
पजʼखौ
फसाखौ
लाङाख
लाङोबला
लाङाखिस।
लाङाबानो
गिलिद।
मावखʼवाव
मावखʼगिरिफोरा
सरखारखौ
परिनस
परिनटाव
परिनचिपाल
जोबथानाय
बिगोमा।
नरशनि
ओनसोलावबो
दवानखौ
दवानिया
अनदाया
दाफोदारनि
फजाखौ
शकरबार
शकरदव
##ode
##odrama
साननसोआव
नायगराफोरा
लोगोआवनो
रजʼयो
रजʼङाव
खिनथाहदोमोन।
डाकटारनि
इनटारनटाव
अपरा
अपमाननि
अपमबा
कौशलनि
नबलासो
फ।।
फजिनाय
फजिनायाव
भगिनान
लथोम
नायगिदिनो
नायगिदिगिरि
गोरबोनिफराय
1996
आमरिकायाव
सालाइया
भटियाफोरनि
खौरागासयाव
खषटगिबि
थयाबला
थाथारगोन
पसनद
मʼहक
लादाइ
लालस
गोसारनाय
गोसारनान
गजारोङिनि
गोजावला
बिथामोननो
फसालिथि
बालाबारिनि
बालाबाथिया
बालाबगास
बालाबारि।
बथलनो
बथलजो
लोमसावनायजो
बधद
मशरीया
##खो।।
बरगयारीनि
रोगानान
सरथनान
खिबयाव
सावरायजलायनान
सावरायजलायनायखौ
जामारो
जामारो।
लोमजानाया
लोमजानायखौ
नालिसखौ
अनजालिखौ
दोहोरोम।
मटरिकखौ
खनायावनो
खाइसनि
जिसनि
जगायदो।
जगायगरा
नावजो
नासराइ
पलिज
बʼबा
बीरन
बीरसरन
लगननि
##कनसनि
##ated
सिथाबना
दिखाराव
दिखारजो
थिफद
खोलोम
खोलोमनि
गजरनिनो
##गलाबनो
लिभाव
लिभारनि
गʼसाइनाव
भारतारिफोरनि
आहाबोथʼ
बोदोरिया
खिरखिथि
खिरखिफरा
जथाइ।
थखरया।
थखरराम
दतमायाव
बनायखौबो
भाराखौ
मायाखौ
हासिगौ।
##ape
बिथʼनि
सोखारिनायखौ
सोखारिनायजो
जनारजो
नजाहबावनो
करानि।
करानिखौ
टरइनफोरखौ
##ello
कामाखयाव
कामाखयायाव
बिजामादया
requ
अभिजञ
गरिब
थगियो।
लगरा।
##जासिम।
सानहाबनो
सानहाबबाय।
गोसोजलि
बारसोमनाय
बारसोमनान
बारसोमदोमोन।
खरथङा।
खारखोमानो
रजननाय
रजनकरनट
आवगायावनो
मनथरी
बदारनाव
लाइजौ।
लाइजौमोननि
दौलदजो
करणाटक
दावबायारिफोरखौ
बिमाइखौ
रबिबार।
अकटबरनिफराय
खबरदार।
train
tradition
दबलाइ
फरिजाव
फबलाथाय
रासकल
लाजोबदो।
शनिबार
सलिउ
मोनलायनाय।
हमदोस।
गाबखʼ।
गाबखʼखौ
बिदिबादिनो
जाफिननाय
जाफिनदो।
फरषटाव
साफरासीया
सिनदरखौ
रानदिगरा
अवान
अवारिनि
अवालनि
गफफर
गथाला
गथवा
चनलनि
चननाइ
लमखौ
लमपट
लाकी
##पलमा
##आखमोन।
जायगासिम
आलमिगिनि
दोनखोमाय
दोनखोमानाय
दोनखोमानो
दोनखोमानान
लाइसिफोराव
लाखारनायनि
आगषटनि
दाहोनाजो
गʼसाथीया
दाखोरबारिनि
खफʼएगार
सफटवर।
admin
notification
नोनावलाय
लटारी
शरमाया
सगरिखौ
##सयानो।
##ʼसव
नोहादि
बरफरयो
सोदानायनि
आखथाइफोरा
दरसि।
गरनथʼखौ
टमपर
दथना
दथनखौ
धोनिनि
मरालि
मजिहाब
##नाइज
##कतिखौ
समफलाखौ
हादरिबाला
रायजित।
रायजितनि
नाजादोमोनबलाबो
बलशरी।
बिजिरगिरिखौ
साफायनायाव
साफायसालिनि
बनदिजो
गायसजानाय
सलʼमागिरि।
सलʼमागिरिफोरा
बिलडि।
दवानि।
दवानिखौ
आजायनायनि
आजायनायाव
गाफनो
तरणराम
धरनीधर
फाथिनो
बौद
बौनाय
बफिनदोमोन
बफिनाखस।
बखʼयो
बखʼयो।
मयदा
मयानिफरायनो
रफाखौ
हसरि।
##हिउ
गोगगानाय
बिबौवा
दिहनदो।
परदिपनि
लाइफाङाव
गोमसारो
गोमसारनाय
गोमसारो।
अलखत
सपताहनि
सपताहसनि
थाइनासि
बिरहाग
नोगोरमानिफराय
कासतमारनि
उखनदया
मावरिजाखौ
कषणचनदर
अदालगरीनि
अखाथ
अखाबो
अखनद
उतखारि
उततर
उततम
दिसमबर
दथारो।
दबावोमोन
दाजानाय।
रडिअ
शरीमती
शरीमनत
बरफबादि
सोङाबा
सोङाख।
सोङाखिस।
आखिनाय
गोदोनानिफराय
आलारिफरा
सावखलियाबो
खोमानानायनि
हामबरानो
थलगाख
थलगाखा
दबलिनिफराय
टरजडि
टरजदियाव
alround
टरिटमनट
दामोनस।
दामोनसल
नससनि
नसनबा
नसनलिषट
बपारतिनि
लाथरʼ
लगायना
लथरफोरखौ
सिगिनान
सिगिखर
गावसरानाय
गावसराबला
मिजलिव
मिजʼराम
होबोबाय।
होबोदोमोन।
होबोगासिनो
जिरातखौ
हाबावगौ
बिबादिखौ
सबखाज
सबखाफिननाय
बनोथʼल
एरखनाय
बिसानखौ
बिसकटजो
हालमाजिया
नोगोरमायाव।
फोनाजाबनि
गाडीखौ
एपलिकसनस
दाङाबाजिया
click
अभारटक
गणतनतरनि
थमक
पालच
भावनागिरि
सनदरसि
##बिनद
गावसरालायनो
गिलासन
बोराबनाय
अरगङाव
रजालीया।
गोमाजानो
गʼलाम।
गʼलामहाखि
जाबरथाय
हालवनाय
जौगाखाआरि
हाजोआवनो
सयथिबो।
कामरपनि
डाकतारनाव
compe
compact
हरबिलासखौ
हरबिलासाबो
नमारगौना
गगलसजो
बालादशीफोरखौ
any
area
अनोबला
अकतनि
आहमद
आहमदाब
नोरजिया
बोनथमनान
बोनथमनाय
लागरा।
खालामफनाया
बरनायनान
बरनायथि
सोलाथलिब
हाबलासो
बारगʼव
##थारगोनखि
दावखोनान
दावखोदो।
बिजनसफोर
रमालीया
नजाथिय
खिनथाफयो
मोगथाआव
मडामा।
death
should
spe
soli
खिसाव
जफाद
दोनोबला
फबिलिनि
फबिलि।
बणडज
भमका
मकता
लससामि
##हरास।
सानफलादोमोन।
होखराहरनायनि
नायहाबबाय
मावमोनथायखौ
आलमारि
आलमारिनिफराय
खोथासो
खोथालʼ
गोमालाङो।
गोमालाफिनो।
बिथाखिया
माइकरʼ
बलसरीनि
फिफागर
सिखलासाखौ
1959
1950
मारटिखौ
गायदाङा।
पारटिया
पारटीया
लावखारा
थोरफोया
परमधराबो
परमधरखौ।
##ilogue
इजजतखौ
tragical
कासतमारखौ
हिरʼह
super
suffix
दथाफोरा
पिसासा
राङापार
लखरा।
हसियारि
सिकारखौ
##सोगारो।
बरजजा
बरजाबला
मिलौदो
मिलौनायखौ
नायदावनान
निखावरिनि
खारगʼनो
रजाफनाय
रजाफानो
नारायणखौ
बदनामनि
जिललायावबो
अपारसनखौ
आरिम।
खामफलाइखौ
हजरिखावनान
टराषटाव
cons
contr
most
move
univ
unix
इटालिनि
चारकल
चारटिफिकट
डराइभारफोरा
दाथायनि
फनदाजो
राबन
राबनखौ
सगरिया
हटलावनो
##rust
जोगारनो
बरमोद
नायदिगिरि
बोलाना
अनफावर
दखʼरनि
दोनखारला
बिजाथिफोरनि
बिजाथिफोरनिफराय
नाजायाख।
नाजायाखमोन
आरजिनान
गोमालाबाय
बावयसोनो
मोदोमफरवा
लाबावो।
लाबावदो
सफबायानो
थाहोदो
मोनजारोङनि
मामाय।
रमायशरि
मणिपर
मणिपरी
अभयाप
कडारफोर
जइलाव
पलासटिकनि
फाउदर
फाउणड
बखरबनो
मसिननि
##दोनि।
बिमानाव
सोरगोनिफराय
हायनामलिनि
मगʼली
मगʼलिय
जाहाजाव
जाहाजनि
माइलथाम
नारगरीयाव
मोजोमाव
गʼदायनि
बफारिफोरा
दबथायना
सिनदकाव
काछारि
काछारनि
फारिलाइयाव
सरकारजो
आबहावानि
आबहावाजो
भगिनाङो।
hear
उकिलनि
उवालखौ
एलासि
एलाखाखौ
खाबायमोन।
झारखणड
थिसनजानाय
नाबलाया
पियना
मोरोना
मोरोनाव
लदरा
लिसट
बिपलब।
सोरखिनान
गजायि
दिगरिखौ
जरजट
जरʼखाय
राइफलजो
उदासरिखौ
रिटाइ
रिखाफयो।
लाबोफादो।
बिनदोआव
दौलतखौ
आनदायनाय
कमपानीफोरा
गौहाटी
लगनया
चनटारखौ
आलमिगिखौ
हारामजादा
अबिनासा।
हरमʼन।
इरामतीनि
रकरडस
औरसाव
गराइनि
जाजानायफोरनो
धरमनदरा
नखराखौ
बकटरिया
लागरोनाया
सबिजिरनाय
मोबायजो
होफनायस
आखानथिनि
बोथिफा
बोथिसनि
बसमथारि
बसमथारी
निखाउ
आइदियाखौ
रायथिनाय
खारसनह
फिथिखा
साखʼनदराया
1913
1924
बजिसʼनो
बजिसयावबो
जामबिया
सकिदार
नोमफाया।
नोमफायाथʼ
खवनोबला
थादरबला
रपसिङा
common
commit
गोलोमसरावबाय।
गोलोमसरावलायबाय।
थागारनायस।
associ
नटवारकफोरा
फारनिसारफोरखौ
इनिथौ।
7813
mad
mag
गखाला।
जथिबो
लफावनान
हखरत
##perity
##ysis
सितराफा
अनारसयाव
गजराट
दिङाखौ
गोदायनिफरायनो
फावदिनथिनाया
बबादिय
बबादिया
कलकाटानि
कमफिटिसन
गानहोनागौ
गानहोनागौ।
मनदिराव
मनदिरनि
मोजाथार।
रिफिनाय
रिफिनायाव
रिफिखादो।
जिरायथʼदो।
दाहालागबो
खिथवाव
लानागोनदि
थरथिस।
हासलाबनाय
थिखलिखौलʼ
बमबरायनो
##istration
हाबिलदार।
बसागोआव
अकसिननि
लकसारार
going
sentiment
अबलानिया
कबिनदर
खनजʼ
जबलानाखि
टारग
टकसियाव
टावारफोर
टावारफोरनिफराय
तदनत
दारायलाय
फकसार
बनजीर
मिसिलनि
रगʼदगा
शराइघाट
##ake
##akes
सानथावा
हाबरवाव
लोगोरिनि
गजसरमनान
मलकआव
बाहोयो।
सरियास
मिथिसʼवा।
मिथिसʼहाय
फरायसलिफोरनि
निजोरानि
राजथानदनि
लिरबिद
बिजनसनि
राउनद
आगदाथि
जाखारफिनथो
बदलावा
फरानसनि
करपरशननि
दाउबʼखि
जावरिखाङो
दासोमनान
राहानिगिरि
पाटनाय
फासयनान
जरिजननो
रनजारजो
खषटानफोरनि
दारिमिनफोरखौ
बिसतिबारावनो
vowels
about
juli
kings
poin
serv
serious
अडिअʼ
एउसरा
औवारीनि
करासिन
काइनट
टकनिक
डाबल
थामोनथाखौ
दफायोमोन
पागल
सादोबला
सटिल
बिखायादि
सिथिसो
सिथिबर
समिनार
हाबराङाव
रावखानथिनि
रावखानथिखौ
अनजलायनायनि
गोजोमनो
गोजोमनान
थिजायनि
मिथिगा।
मिथिसलाबा।
गानसलायनान
हामारगोन
गवसारो।
सनथालाया
सनथालीया
टिकनदर
दबानानि
आमथखा
बराहमन
बराहमी
बराहमण
बावदियाहा
हौवासानि
कमपानिनि
2010
2012
मवाबराय
निरमालिया।
उपनदरनाथ
आदरशखौ
कारबिआलआव
परफललवा
डिजाइनार
उदिश
कानाड
घटना
जागरोनागोन।
नाहरबाय
पलाश
बनदराम
बशवखौ
सटरज
हʼरो।
##हराखिस।
##oft
मोफलामनाय
बरादानो
सोसननो
होसारनान
गोसोथोनायनि
बायगरब
गोरबबो
गोरबबोनि
सावथननि
सावथालनि
लाइटारजो
खारखोलाय
बानबथिखौ
रजाखाङो।
आरटिफिस
उदरायनागोन।
खबʼफा
हानथिनायाव
जोनोमफरिनि
बिसवजित
बिसवनाथ
जाबसिनना
बिजिरसनाय
सनमिल
सनमिलन
इनदिरा
दबनागिरि
असानति।
गोलानान।
सोलोनायखौ
खʼहाखौ
पारलियामनट
पारलियामनटाव
हावरियाया
लाजिसलि
कमपानीया
जगाजग
गावबढाया
डाइलʼगखौ
कʼकराझाराव
धोनसिङा
जिगासिबाय
पनचाय
पनचनखौ
कानाइलाला
सलʼबाथानि
scenery
बिभीसन
एसमबलिनिफराय
रमिवʼ
रमिवʼनि
0361
brit
colour
english
position
positive
आशरय
इछरʼवा
उवालनि
कराइषट
खʼरʼसव
तिबब
थबरास
दराइभारा
नबोलानो
पनटाल
रोमोनथि
वाइकबा
सराइघाट
मोनखागोन
सानथारो
सोबावयो
होफिना
हाबाथिलिया
थाखमानान
अनारीया।
बारासिनसो
दावथरोदनान
फारमवर
लिरसलाया
आइटमखौ
परसिकिउ
अरदाबनि
नापिट
गलहोनाय।
फिरिगास
फिथोब
रिपाबलिक
लामासमानि
बिगियानिफोरा
बिसालथिया
सारसरिनान
दरजाङाथʼ
दरजाङानो।
फरगखौ
सनटिमिटार
बिरगोसरि
बिरगोशरी
गोबाथमनान
सामवनो
सकरिफाइ
अमासिनि
रʼयाथिया
बगालर
##ormation
नोमानया
दायनिगिरफोरखौ
फटʼगराफ
pronoun
prose
prosperity
लनथननि
इउनिभारसिटिनि
मतामतखौ
नासयनाय
आइकʼनखौ
गोगगाथाव
काशयपा
subject
कमपाउनदनि
खसालियाय
art
copy
david
half
phonology
कहरला
जाजोबा
टलषट
टनसना
दजलानि
फवाथि
मालिकनि
माथावरिजो
यलाबोर
लोनथि
साङियाव
मोबलावनो
होसराहरनागौनि
गोसोदि।
बसमातारीनि
गसदयो।
दिबरगर
दिबरगराव
फरायसालीयाव
परविन
परबलम
परचिड
सिखोला
जनथनसो
कमिसना
साउथ
जाखिजाया
खाथिराव
जाफराखमोन।
हाथासीया।
सायखलम
सारजननि
सारफावना
सारफरावनाय
दाखिनथा।
बोहगलायो।
साइबरिया
मसलमान
जावखलाबनाय
सिमबलिक
लागारनायस।
बासायारिनि
पारसनल
दवारनदर
निउबिला
मोनजाथारा।
पाटीला
मालगाडी
गाखोमारनो
गाडीनि
दादरगरा
सनापतिया
सनापतिनि
खाखलबनान
invad
बारहावाया
टकनʼल
खापसारा
सनथालीनि
परिनटारस
aspiration
aspirated
expl
सोदोरमा
भावथिनाखौ
बरकफासटखौ
उथमायखोला
कलʼडियासनि
लबʼरटʼरीयाव
corpo
clear
mercil
more
अथात
आसरमाव
उइनडʼ
उरबसरी
एगदावनो
एचियान
ओनथाय
कालासन
कनदरपारा
खागरानान
टिसार
टाकानि
डारलि
दीप
नसारल
नगरोनमोना
पलनिय
पटरʼल
यरकनि
यादब
लारज
लटरिन
हइला
मोनलोनान
सानफरोमबोनि
नङामाथो
##थारोङा।
हमखरʼबनान
रोदानिफराय
गारजियन
फरायथिनायखौ
निराला
गरभाषा
परताप
परजकटनि
बानथाबो
बानाइसो।
जाखोमादो
फानफव
दिहनगाफोराव
टराबल
फलकबि
मखʼथावनादि
थनफावथिनानि
सवरगियारी
जाराफागलानि
जिनजरिजो
गोसोखालाइयाव
मिनथियामोन
सागलनदि
उलटासो
toolbar
बटलियननि
दाफोथाय
डाइरकटरियाव
खालाइसि
classi
format
तालकदार
बषणब
डायमालनि
एनटिससियल
अमिताभा।
इउटिलिटिफोर
कलिकातासिम
टासकबारनि
burmese
british
cray
graph
please
text
under
अटʼवालाखौ
अकसाइड
आगिक
आथोफ
इबसन
एहद
एपरचिय
खागोदान
छातर
जोमाखौ
धीरन
पपारनि
पसनट
भबानिपर
भाइजान
मफरामखौबो
हलिकपटार
##बिसोर
##सजगराया
नोगमया
बरसियारखौ
नायबावनि
सोरबायाबा
गोसोखाबाव
बारदाउलि
खनथियायाव
खनमोथ
आदमबरा
दमयनती
गलडनषटार
फिठाइ
एमबसादर
एरसनगरा
हामबलायनाय
लिथियाया
सनयासि
दौलात
सʼनासरी
फोसावदिगरा
हलमटनि
थिउरिटिकल
फयरादि
नबदय
लरबायबाय
रबिलʼसन
कʼकरराझार
षटटमनटनि
इनटारनशनल
थʼफलाखौ
शिबसागर
इजजोतखौ
सभटलना
आजखानथिजो
सबिजिदनि
बणडपारटिनि
इमफसिबल
करमʼजम
दइनमबरी
शवाहरख
अडिटरियाम
मशरिमा
इउरʼपियान
inheritor
लजिसलटिभ
होजरिखावनाय
docu
diphth
etc
grammar
guttural
melodrama
narrative
othello
pdp
passion
policy
wednesday
yahoo
अतयासार
आघात
उकिनावा
कयानीया
कनजारभ
खाखिला
गनजर
चनटरल
चणडिगड
दभलापमनट
धिककार
भराइटि
रकिबल
हफरामनागौ।
##जयोति
बिपलबा
नोसालानि
हमजलायनायनि
गयखिलि
हादगोरानि
परटʼकल
परबननाथ
खारʼखानदाय
सापताह
बागरमबा
बिदयालय
गोहोगोरासिन
साबʼरडिन
बिसमबियाव
फरनसिक
आमटकायाव
जालालददिन
नमसकार।
इयानदाब
पारटनार
आसिरबाद
समिकʼलन
prize
टकवाखना
सरबशिकषा
चननाइयाव
administration
भावनागिरिफोर
control
association
corporation
diphthong
हलमट
05
2nd
370
49
42
43
58
57
5थि
66
600
76
71
7th
88
86
85
91
900
9th
bl
bra
bre
blo
back
cu
car
cut
cri
card
cult
code
dra
dent
dru
div
down
dash
era
fo
fl
fra
fol
fate
fut
ful
fight
fem
fla
fall
frust
gr
got
ho
her
how
har
hel
hol
hit
ips
irag
jo
less
lap
line
luc
mu
md
mic
mat
mone
mouse
nas
num
oper
old
pu
pal
pre
pil
pur
pap
phar
pard
pun
pick
pred
piec
qu
ru
rh
ren
ric
ros
rec
rab
race
rak
redi
rape
si
sx
sent
sim
sanc
sign
ter
try
tree
test
tail
take
um
val
vii
vari
wr
win
wor
war
wess
wick
woman
अ।
अश
अला
अबा
अलि
अवा
अहा
अफा
अगा
अस।
अहाय
अफि
अमाया
अपर
अगʼ
अकनि
अटन
अदाब
अदम
अकाव
अʼनो
अडार
अखायाबो
आट
आघ
आस।
आथाव
आजित
आपि
आकस
आमिन
आसिनि
आजौ
आगरानि
आगराब
आलिखौ
आगिनि
आणडार
आसरʼ
आराल
इथ
इयो
इया
इथा
इनाया
इस।
इनायखौ
इनाय।
इटा
इबस
इषटार
इलन
इगिनि
ईद
ईश
ईशवरनि
उनि
उलनि
उरिनि
उलिया
उखन
उसखौ
उगान
उगलि
उवारी
उयन
ऋण
एनान
एलि
एथʼ
एगर
एननि
एबरा
एथम
एगरि
एटʼ
एकत
एगोना
एगदाव
एवारड
ऐबार
ऐदिनखालि
ओह
ओ।
ओजा
ओखाय
ओलो
ओमब
ओथियाबो
ओथियानो
ओलो।
औम
औहाय
कइ
कथ
कोर
काह
किस
कया
कजा
कवा
कारी
कसर
ककनि
कसट
कलिक
कबस
करास
कदम
कबी
कट।
कजिबा
खप
खक
खिय
खबो
खलाय
खयो
खाथाय
खजि
खराव
खाबला
खागोन।
खनायखौ
खाखो
खदोमोन।
खबार
खथिया
खाजाब
खथर
खजाब
खलायनाय
खलानि
खासिम
खादोमोन।
खरायाव
खजरि
खनि।
खलायनो
खागासिनो
खखब
खसलि
खटक
खथायारि
खागराब
खबाया
खाहोनो
खजʼ
खहाबनाय
खहानि
खजराब
खहाबा
खयल
खनानिफराय
खगायाबो
खङाबला
खहनोस।
गबो
गदो
गाङ
गदो।
गाजो
गालि
गालाय
गखर
गागोन
गवाव
गोनाय
गाङा
गलाया
गषट
गागर
गाजोब
गालनि
गादा
गपी
गगरानि
गानाया
गालानो
गानायाव
गिसो
गहाबनान
गादर
गनायखौनो
गथाइनि
गाफर
घण
घोन
घार
घरा
घटि
घरी
घरिनि
घटन
घरियाव
घरिनान
चट
चह
चाय
चारि
चाया
चकट
चणड
चरम
चइन
चकाव
चतरी
चटट
चकतिखौ
छन
छल
छार
छलनि
जड
जिय
जाङ
जनिफराय
जावनो
जहा
जियाव
जनायखौ
जखʼ
जति
जखायनो
जलनि
जखानान
जगʼ
जनायस।
जरायाव
जवा।
जभि
जफराम
जियानो
जवाबो
जफयो।
जदिया
जकार
जनायानो
जसिखौ
जफयो
जफदो
जहरा
जागौमानि
जाजोबो।
जाजोबो
जमायनान
झत
झम
झथा
टो
टालि
टरनि
टपि
टनसो
टमनि
टनी
टायार
टयल
ठनाय
ठिक
डब
डम
ड।
डरा
डथि
डबल
डगार
डगर
डिनि
डाबा
डराइ
डराग
डजन
डʼन
डाउन
डलिर
डानस
डजनस
तय
तान
तरा
ताइ
तबल
तगर
तीर
तलब
तयारि
तासनि
तराखौ
तलस
तलाबादि
तलिख
थथ
थरा
थोन।
थलि
थाथाय
थदो।
थमा
थङाव
थखौनो
थजाब
थिना
थाजा
थखानान
थबलानो
थसनि
थलाम
थलाङो।
थमार
थʼर
थलाङो
थनोबो
थागरि
थाजास
थखाबाय
थागौमोन
थलायखो
थथारदो
थबोल
थजानायनि
थलागोन।
थागौमानि
थानि।
थाथायनि
दट
दध
दरो
दसो
दाबाय
दोनि
दबाय।
दवा
दारी
दलाइ
दनायाव
दबि
दाथि
दागोन।
दननि
दजोब
दिया।
दोमोन
दङा
दनागौ
दानिफराय
दगासिनो
दलानि
दागर
दया।
दोरोम
दपर
दीन
दलायनो
दवर
दजोबो
दाफरा
दशरी
दकष
दथा।
दाफिन
दबोला
दायावनो
दटस
दगराफोरनि
दोनिफराय
दिसा
दरि।
दगलाब
दबायाव
दाफिननाय
दगराखौ
दगायो।
दजनस
धस
धाब
धाइ
धिर
धनद
धसा
धाना
धटि
धति
धोद
धाउ
धाक
धजन
धबरि
धनाजो
नइ
नड
नलʼ
नगो
नबल
नखा
नालि
नआव
नाबा
नथो
नति
ननागौ
नजाब
निना
नफोराव
नसनि
नसरा
निसि
नगाव
नफनाय
नावा
नलिय
ननायस
नटखौ
नगरानि
नाव।
नानाया
नबोदो।
नाहो
ननिफराय।
नासिगोन
नसिगोन
नसाया
नलिखौ
निननि
नानागौ।
नगराफोरा
नगावनि
नताया
नसʼन
नजाबाव
नफलाङ
नभला
नफराखमोन।
पत
पथ
पठ
पाय
पाम
पानि
पना
पजा
पिनि
पानद
पसखौ
पकि
पʼनि
पाइन
पनदल
फानाय
फाथाय
फहर
फगो
फोनाय
फगर
फाना
फङा
फारिनि
फरी
फाजा
फफि
फनखौ
फथम
फखानाय
फलाम
फास।
फनायजो
फफानि
फाजोब
फवा।
फखन
फदब
फनि।
फफरोमबो
फायो।
फबावो
फलाउ
फगरो
फखाङो
फहरनाय
फणी
फजननाय
फबा।
फजोबबाय।
फडार
फसिगोन
फʼज
फखायो।
फफराख
फमिना
फथारगोन
फबावदो
फसिगौ
फनागौबला
फइल
फफरा।
फगासिनो।
फबावगोन।
फखरी
बरो
बाबो
बोनि
बलाइ
बागोन
बहो
बाबला
बागोन।
बजाब
बनखौ
बजलाय
बहाब
बाङो
बारिखौ
बगानि
बलायनो
बजोबो
बरिक
बामि
बगरानि
बारि।
बहरनो
बजोबबाय।
बʼना
बनायखौनो
बजोबनान
बडनि
बलि।
बजलायनान
बथावा।
बथियो
बजलायनो
बतति
बराइनि
बउला
भव
भी
भाय
भाद
भिस
भिर
भटार
भटि
भाजा
भानद
भलब
भाथिया
भीम
भादर
भमन
भागा
भादʼ
भषण
भकसनाव
मफ
मप
मइ
मफोर
माबो
मायाव
मबल
मफा
मखार
मनायनि
मफोरनि
मबि
मसा
मनाया
मटार
मखि
मथायाव
मानिफराय
मथिय
मया।
मनदर
मला।
मजोनो
मथायनि
मʼर
मʼनि
मवार
मसिना
मराखौ
मयान
माबोला
मणडा
मइनट
मपास
माथायनि
यब
यज
यनो
यानो
या।
यकष
यगी
रनाय
रिय
रानाय
रजो
रसि
रसो
रानान
रायाव
रहर
रमोन
रहो
रपि
रोमा
रानाव
रफानि
रली
रनस
रकत
रकनि
रदाय
रमोननि
रभार
रकाव
रोनायनि
रयनो
रडनि
रतन
रकम
रबारट
रभिनि
रालʼ।
लौ
लज
ली
लिन
लरि
लबाय
लागौ
लजा
लदा
लखाय
लाङा
लनाया
लनायखौ
लफर
लाबा
लाख।
लखोम
लसन
लथरि
लसाल
लमनि
लकत
लडि
ललद
लनोस
लसाइ
ललानान
लसोनान
लवानि
ललौ
लसिखौ
लचन
ललला
लभल
लानि।
लाजोबो
लारिय
वि
वक
वटि
वालनि
वलस
शल
शभ
शय
शकन
सघ
सादि
सथाय
साबाय।
सनायाव
साबला
सफर
ससिन
सननि
सामोन
सङो
सादो।
सङो।
सनदा
सजित
सलायनाय
सका
सागि
सादोमोन।
सारिखौ
सरायाव
सगाव
सटी
ससखौ
सथियाव
सबावो
सगराम
सटिक
सबायाव
सथौखौ
सचाइ
हथि
हबला
हना
हगरा
हथार
हखाय
हबि
हबलाबो
हगर
हाना
हनागौ
हनदा
हपि
हखानान
हजोनि
हʼव
हथाया
हखानि
हनागौ।
हलाखौ
हसट
हबलि
हाफरा
हबनाय
हखाबाय।
हहरनान
हाहोयो
हषटलाव
हगालि
।नाथाय
##ाखौ।
##फबो
##फाला
##फलʼ
##फाजो
##फनायनि
##फगोन
##फाबाय।
##फगौ
##फागोन।
##फिनि
##फफिन
##फसिन
##फागरा
##फानायनि
##फनागौ
##फादोमोन
##फटनि
##फयार
##फʼन
##फलायो
##फरिखौ
##फबायमोन।
##फनायावसो
##फकसन
##िल
##िरायाव
##नफ
##नाख
##नलाय
##नालि
##नगर
##नसार
##नारा
##नीया
##नास।
##नामोन।
##नबानो
##नाङा।
##नासा
##नालाय।
##नमास
##गफ
##गखौ
##गनो
##गो।
##गलʼ
##गनिफराय
##गबि
##गलाव
##गसन
##गास।
##गारिखौ
##गलादो।
##गाहाय
##गबन
##ौसो
##ौवा
##ौयबलाबो
##बाथ
##बिर
##बफोरखौ
##बाजो
##बखौबो
##बानिफराय
##बासिम
##लनाय
##लबाय।
##लवा
##लफोरा
##लमान
##ललाया।
##लिसिम
##लानागौ
##लगावनि
##लानाव।
##सह
##सास
##साह
##साला
##सनद
##सनिफराय
##सोना
##समोन
##सला।
##सटʼ
##सलायनो
##सीम
##सोनायनि
##ोयो।
##ोबलाबो
##ोखि
##जब
##जत
##जबो
##जाज
##जारि
##जबला
##जया
##जना
##जाफ
##जागौ
##जलि
##जावनो
##जारी
##जाखो
##जनट
##जालʼ
##जाफरा
##जोनो।
##जागौमोन।
##र।
##रो।
##रानान
##राबो
##रबाय।
##रवा
##रावनो
##रोनाय
##रियान
##रबनाय
##रफरम
##रद।
##भरा
##भाराव
##टराव
##टफर
##टरनि
##टिसो
##टगरामाव
##तल
##तक
##तला
##तजो
##ता।
##तया
##तगिरि
##तियाबो
##तरास
##यट
##यड
##यआ
##यला
##योम
##यथि
##यलाय
##यसो
##यिर
##यारा
##यामोन।
##याराव
##याबलाबो
##यालाग
##यशन
##यरक
##दग
##दाथ
##दाख
##दास
##दबो
##दबा
##दबला
##दनिफराय
##दारी
##दामोन
##दागरा
##दारिया
##दबनान
##दानाव
##दियाबो
##दरा।
##दलायो।
##दायावनो
##दपरनि
##दपराव
##ददारनि
##खस
##खखौ
##खनान
##खाद
##खाथ
##खाज
##खिस
##खिर
##खागौ
##खोनि
##खमा
##खोना
##खनाव
##खगरा
##खालाय
##खागोन
##खाथि
##खङाव
##खासो
##खषट
##खास।
##खियो
##खावा
##खाफरा
##खागौमोन
##खिस।
##खाफिननो
##खाङारि
##खालायबाय।
##खाहोनान
##खासिनदो।
##मरि
##मसो
##मिर
##मनिफराय
##मबि
##मलाव
##माबा
##मासिन
##मीन
##मीर
##मनि।
##मागरि
##मनी
##पआ
##पाम
##पना
##पथिनि
##पकनि
##पलियाव
##पतर
##पटाव
##पखाखौ
##ʼट
##ʼलʼ
##ʼगा
##ʼदर
##ʼनो।
##ʼनखौ
##ʼनाथ
##ʼलन
##हला
##हाद
##हाइ
##हाबाय
##हालाय
##हाबला
##हादो
##हनाय।
##हनायस
##हरा।
##हगौमोन
##हयास।
##हबलासो
##होनागौ।
##हयाबला
##हगरोनान
##ution
##uation
##ner
##natural
##io
##iy
##ite
##sday
##ha
##hara
##इ।
##इनखौ
##वला
##वाग
##वास
##वामोन
##वाखि
##वाबालानो
##थफ
##थइ
##थाली
##थाखि
##थबʼ
##थाखाय
##थराखमोन
##को
##कय
##कश
##काब
##का।
##कारि
##काबो
##कफर
##कबार
##कीनि
##कʼखौ
##उब
##उ।
##उनान
##उनाव
##उनदर
##ीण
##ीति
##ङादि
##ङोमोन
##ङासो
##ङानो।
##ङाखमोन
##ङामोनबला
##षʼ
##षायाव
##षीम
##षतियाव
##oe
##ok
##एफ
##च।
##चा।
##चियाव
##चनी
##चछा
##चामनि
##चाइड
##चनदरनि
##डज
##डारनि
##डल।
##डीनि
##डसव
##डनटाव
##आलखौ
##आमोनबला
##आदाम
##44
##48
##णटि
##rit
##ros
##rent
##rim
##mi
##mes
##men
##mail
##pc
##pon
##pos
##pres
##ton
##tri
##try
##tree
##tary
##tysis
##yal
##शम
##शनि
##शरा
##शानति
##शिरि
##धब
##धान
##धदि
##cop
##cii
##cise
##95
##av
##li
##lel
##lic
##light
##fac
##06
##03
##66
##10
##ea
##eth
##eet
##etic
##bor
##blic
##beth
##gh
##gg
##grim
##घली
##21
##छन
##छदपरनि
##ञा
##ञानि
##अन
##अर
##अखौ
##अखानाय
##अपार
##ओजो
##ja
##ाय।
##ायखौ
##ायाम
##ायना
##ायादि
##ायदो।
##ायामोन
##ायाथʼ
##ायास।
##ायाखि
##ानन
##ानाथ
##ानबो
##ानजो
##ानसि
##ाननद
##ानजा
##ाननिफराय
##ानावनो
##ानफोरखौ
##ानाजो
##ानालाय
##ानिया।
##ानथिया
##ानसनि
##ानाङो
##ानियाबो
##ानशवर
##ानडखौ
##ावा।
##ावदो
##ावरी
##ोनखौ
##ोनाबाय।
##ोनमोना
##ोनागौमोन।
##ोनाल।
##निय
##निखौ
##निथि
##निलʼ
##ारो
##ारद
##ारण
##ारनान
##ारबाय
##ारसि
##ारका
##ारिसिम
##ारियाया
##ारडसव
##ाबʼ
##ाबाद
##ाबबाय
##ाबाया
##ाबोनान
##ाबासो
##ाबारिनि
##ाबोनागौ
##ाबलाबो।
##खौरा
##खौबो।
बिदो
बिबाय।
बिगि
बिगा
बिनायखौ
बिगल
बिसाव
बिलायनाय
बिगासिनो
बिनदर
बिटा
बिलास
बिडि
बिहरदो
बिथʼ।
बिहरदो।
बिरोखोम
##लादिनि।
##लाहानि
##नोलʼ
##नायनो
##नायनाय
##नायफोरखौ
##नायालाय
##नायसाय
##ाम।
##ामाबि
##ामिस।
##ागय
##ागानाय
##ागिर
##ागोना
##ागरनि
##ागरायाव
##ागासिनो।
##नानलʼ
##ादला
##ादाया
##ादया
##ादाफ
##ादरा।
##ादबी
##ियʼ
##ियाय
##ियाब
##ियाबा
##ियालाय।
##ियताब
गोदो।
##ाथनि
##ाथाइ
##ाथारि
##ाथिया।
##ाथिना
##ाथारा
##ाथारनि
##ाथिसो
##रालाय
##राजखौ
##ाखरा
##ाखबो
##ाखाङो।
##ाखरियाव
##ाखबारी
##ासब
##ासान
##ासियाव
##ासयाव
##ोमाव
##ोमानाय
##बोहाय
##बोलानो
##बोलाबो
##बोला।
##बोलʼ।
##बोखादो।
##बोयाख।
##ाजत
##ाजरो
##ाजियाव
##ाजाबा
##ाजाथाव
##ाजिनाव
##ाजननाय
##ाइनाय
##ाइयाव
##ाइनज
##ाइलाव
##ाइसरिनि
##ाइगामि
##िनʼ
##िनागोन
##िनदर
मोनाल
मोनसो
मोनजा
मोनहर
मोनियाव
मोनखाय
मोनहाय
मोनासो
मोनडʼ
मोनफानि
मोनगʼ
मोनलायनान
मोनलाङो
मोनलायनो
मोनहोनान
मोनदाय
मोनलादो।
मोनहाबनान
मोनखाबाय।
मोनजननाय
मोनबा।
मोनायावनो
मोनानिफरायनो
मोनगराफोरनि
मोनफिनबाय
मोनबानि
मोनथिन
मोनखाया।
मोनहोबाय।
मोनलागोन।
मोनालासिनो
मोनबावदो
मोनलागोन
मोनथियो।
मोनथोस।
मोनबावनागौ
मोनगरोमोना
मोनथोस
मोनजाबाव
मोनमालाय
मोनामोनबलाबो
मोनाबलि
##फोरबा
##फोरगो
##फोरमोन।
##फोरनो।
##फोरासो
##फोरमान
##फोरसो।
##फोरहाबो
##फोरनोनो
##ानायमोन।
##ालड
##ालानाय
##ालसो
##ालवा
##ालिया।
##ालियानि
##ालानागौ
आरोस
##रिल
##रिद
##रिखौनो
##रिखौबो
##रिसिम
##रिअखौ
##ानोल
##ानोलाय
##ानोलʼ
##रायबाय।
##रायारी
##रायनायनि
##बाया।
##बायसो
##बायनायाव
##बायदोमोन।
##बायबो।
##ानिम
##ानिखौ
##ाहो।
##ाहाया
##ाहदो।
##ाहदोमोन
##ाहारिनि
##ाहारा
सिङ
सिसि
सिहर
सिबल
सिदा
सिफोरा
सिमोन
सिदर
सिनाया
सिटि
सिदाव
सिथो
सिलनि
सिजानाय
सिमाया
सिटर
सिकर
सिमोननि
सिबराम
सिलायाबो
सिकन
सिखरिया
सिथमनान
सिकषा
सितान
सिजिल
सिकिउरिटि
##थिक
##थिनाय
##थिलिनि
##िसर
##िसट
##िसख
##िसार
##िसना
##िसटा
##बाउ
##बाङा
##बाला।
सानम
सानआ
सानास
सानबा
सानसि
सानालाय
सानबाव
सानदर
सानबि
सानसार
सानजाय
सानोमोन।
सानाखिस
सानलायनाय
सानजानाय
सानजलाय
सानबोनाय
सानथायनि
सानखम
सानलायनो
सानयानो
सानहाबो
सानबावो
सानहरो
सानफराव
सानजानो
सानावबो
सानहरनाय
सानफिननान
सानहरनान
सानगान
सानबासो
सानालासनो
सानखादोमोन।
सानजलायनान
सानजाबनान
सानगरोयो।
सानथामा
सानतरि
सानखʼनो
सानरोङ
सानलायगासिनो
सानहराख
##ालाङ
##ालासि
##ालादो
##ालादो।
##ालागोन
##ालाइनि
नोफ
नोइ
नोबा
नोसि
नोफा
नोसर
नोसार
नोङो।
नोलायनो
नोल।
नोजो।
नोफाया
नोसिना
नोदाखौ
नोबाज
नोसिनिफराय
नोफानिफराय
##लायाख
##लायास
##लायगौ
##लायगोन।
##लायासो
##लायनागौ
##लायखानाय
##लायलाङो।
##लायानो।
##लायलाबाय।
##लायदिनि
##लायखोमा।
##सिभ
##सिट
##सिव
##सिनाय
##सिनान
##सिबा
##सिरिया
##सिङावनो
##सोलʼ
##सोदो।
मोव
मोक
मोसर
मोजाय
मोजाब
मोफौ
मोखरबनान
मोहरनायाव
मोथाख
##दित
##दिखौ
##दिफोरखौ
##दोखौ
##दोस।
##दोलʼ।
##दोसमोन।
##ाबोदि
##ाबोगौ
होनन
होनद
होनाबाय
होनहा
होनदा
होनगरा
होननायनि
होनोनो
होनगोन
होनाबाय।
होनाङा
होनदोमोन।
होनादो।
होनजानाय
होनाङा।
होननागोन
होनजास।
जायि
जायाल
जायाथाय
जायाना
जायाबा
जायखौबो
जायाजास
जायाबलानो
जायिखौ
जायोनो।
जायालाबानो
जोफ
जोइ
जोदि
जोखा
जोसा
जोलाव
जोसार
जोगोन।
जोथिय
जोगासिनो
जोखानाय
जोखौ।
जोफाव
जोजोनो
जोफनाय
जोलखौ
जोल।
जोखाव
जोखाबाय
जोखरब
जोफलानान
जोथियानो
जोखोल
जोदलाब
जोसिनबाय।
जोदबनान
##ाङादि
##ाङासो
##बलाङो।
##याटार
##याका
गावल
गावगरा
गावबर
गावनाया
गावसरि
गावदोमोन।
गावबादि
गावखौबो
गावसो।
गावबोनाय
गावलायनान
गावजोनो
गावजरि
गावजर
गावगास
गावहासो
खालामखौ
खालामला
खालामलाय
खालामानान
खालामहो
खालामगर
खालामाबा
खालामोमोन
खालामलानो
खालामलाङो।
खालामलानाय
खालामबानो
खालामगराया
खालामजाथाव
खालामजानो
खालामजोबो।
खालामफयो।
खालामफिननान
खालामखादो
खालामखाबाय।
खालामगौमोन।
खालामदिया
खालामहयो
खालामबोबाय
खालामफदो।
खालामहोनायनि
खालामफलानान
खालामबोदोमोन
खालामबोगासिनो
खालामखोमायो।
खालामफलाङ
खालामखानागौ।
बरन
बरस
बरत
बरनान
बरदो
बरलʼ
बरनायनि
बराथि
बरसिया
बरखानान
बरयाबो
बरादा
बरलाउ
बरडा
बरतन
बरबरानि
बरानदि
बरागी
बरखानागोन।
बरानसनि
समल
समार
समानो
समबाय
समा।
समायाव
समना
समलʼ
समजि
समबर
समजाव
समाना
समखौनो
समफल
समहोनो
समफला
समाबादि
समहालागबो
समबायनि
समजायनान
##ाबायनान
##ाबायबो
##ाबायाहाय
##लʼराव
##लʼजिनि
##िरनि
##िरजो
##िरागर
##िरामनि
##फरायो
सोथार
सोबलाबो
सोथाव
सोथिनि
सोखानान
सोखानाय
सोफाव
सोखराव
सोलाबाय
सोलाबा
सोदब
सोबावनो
सोथियाव
सोहरो
सोखाव
सोफिननो
सोफिननान
सोखोमा
सोहरनान
सोथिजो
सोदानो
सोथाइखौ
सोगरोदो
##ाफाल
##ाफायाव
##ाफाफ
##ाफदो।
##ाफबाय।
##नदनि
##नदानिफराय
##नदारस
##ागौनि
##ागौबो
##ागौबला
मानन
मानज
मानद
मानख
मानआ
मानला
मानिन
मानजो
मानिया
मानजि
मानखौबो
मानयाबो
मानियो
मानहोनाय
मानिनागौ
मानजार
मानगय
मि।
मिश
मिगर
मिलायो
मिजʼ
मिषटि
मितमा
होस
होद
होलाय
होथार
होखर
होसर
होखʼ
होथाव
होथो
होसो।
होला।
होखम
होबावो
होखाव
होफिननो
होफिनो
होलायो।
होगराया
होजाथाव
होजायो
होलायबाय
होबोला
होखोमा
होखादो
होखाबाय।
होगौमोन
होखाना
होहोयो।
होखो।
होफिननाय
होजासिम
होबावबाय
होबोबाय
होलादोमोन।
होलागोन।
होलायदो।
होजादो।
होथाव।
होलायदो
होफलानान
होजाबाय।
होथारनो
होबावनागौ
होसोनो
होगारबाय।
होथावथाव
होदरनान
होखरावनो
##लिफोरखौ
##लिङाव
##लिबो।
##लिगरी
##लिजम
##लिपस
मातर
मातरा
जिनो
जिनान
जिदो।
जिखा
जिथाइ
जिमाय
जिराया
जिखौबो
जिगʼ
जिफल
जिगाव
जिवारि
जिथाइनि
जिथिनो
जिबायदि
जिपजो
जिखनो
जिगायावनो
जिडाइन
हाबाख
हाबदो
हाबावनो
हाबगर
हाबफर
हाबनो।
हाबाख।
हाबाखिस।
हाबहोनो
हाबहोनान
हाबफिननान
हाबखोमा
हाबखाना
हाबनायबादि
हाबलानायनि
हाबगरोन
हाबबायानो।
हाबखोमानान
हाबसʼन
हाबबलाथाय
हाबसʼननान
नायथ
नायखौ
नायहो
नायाबला
नायगर
नायगोन।
नायजोर
नायखोम
नायाखिस।
नायनाय।
नायास।
नायगिरिया
नायबावनो
नायफिननो
नायगराया
नायालास
नायफिननान
नायखोमा
नायसलाब
नायदिनि।
नायफनो
नायसरानान
नायफिननाय
नायगरोन
नायहबाय
नायालासिनो
नायगासयाव
नायगरोयो।
नायखोमाबाय
नायजलायनो
नायखलनान
नायहराखिस।
लोप
लोक
लोला
लोबो
लोहा
लोबलाबो
लोथो
लोबोर
लोबनान
लोला।
लोफनाय
लोफला
लोहोनाय
लोगोम
लोखा।
लोखाङो।
लोजोबनान
लोफनो
लोलला
लोहाबनाय
लोखोनदा
लोहोनाया
लोदोर
थाखोन
थाखखौ
थाखनो
थाखाल
थाखानायनि
थाखिना
थाखियावनो
थाखथियारि
थाखाफिननाय
##जाट
##जाति
##निफरायनो।
##निफरायसो।
##हरबा
##हरबानो
##हरबावो
##हरमारनो
बियोबला
##ावनोथʼ
##जिरा
##जिषट
##जिरोबला
##जिलिङाव
नङो
नङ।
नङान
नङाब
नङाद
नङाख
नङिनि
नङाबानो
नङालाय।
नङालायो।
दिनार
दिनफोरखौ
दिनालाय
दिनफरा
दिननो।
दिनसो।
दिनथिया।
दिनारखौ
दिनथनो
दिनथिनागौ
सोरल
सोरानो
सोरा।
सोरदि
सोरानायनि
सोरलाब
सोरोद
सोराव।
सोरजिया
सोराहोनो
सोरजिनागौ
सोरखियो
फिसाख
फिसाल
फिसाहा
फिसानाव
फिसियो
फिसाखʼ
फिसाफरानो
आखो
आखव
आखबो
आखला।
आखʼब
आखवासो
गोसोथो
गोसोफोराव
गोसोखायो
##ोनाफोरखौ
बोब
बोलाय
बोसि
बोलि
बोथाय
बोगार
बोसिन
बोथर
बोलाङो।
बोजर
बोसोम
बोजायो।
बोसलि
बोसलाय
बोयोबला
बोबायानो।
बोलला
बोबथ
बोथाबमा
बोजʼबनान
बोधदि
बोफोरगो
##गोथ
##गोबाव
##गोलाव
##गोथो
##बलब
##बलत
##बलजो
##बलाबाय।
##बलाना
##बलानायाव
बाथार
बाथिया
बाथाया
बाथलखौ
बाथाबनान
##रावनि
##दाफोरा
##फात
##फातरा
##फाउरि
##नावसो
##खात
##थाक
गबस
गबजो
गबयो
गबया
गबदा
गबनाव
गबथर
गबरम
गबʼना
हायज
हायथ
हायला
हायाल
हायाथाय
हायनाव
हायाबा
हायामोन
हायोद
हायया।
हाययावनो
हायाजास
हायाबो।
हायनाजो
हायाबाथाय
हायदरायबला
बरʼनो
बरʼहा
बरʼमोननि
बरʼवाबो
बरʼफराबो
बरʼसाफोरखौ
बरʼवादि
रावानो
रावलʼ
रावावनो
रावालाय
रावबो।
रावजो।
रावफोर।
रावथन
##खारो
##खारखौ
##ासिगौमोन।
बायनायाव
बायगल
बायोमोन
बायखो
बायखानान
बायखानाय
बायजानाय
बायलाङो।
बायफल
बायहोनो
बायरम
बायजानो
बायहोदो।
बायदिया
बायथो।
बायसनान
बायनिक
बायजाबथ
अनक
अनला
अनाम
अना।
अनदो
अनबला
अनगर
अनथायाव
अनलायनाय
अनीया
अनखानान
अनजानाय
अनसल
अनबोदो।
अननाइ
अननाइनि
अनसिननो
अनशम
अनासान
अनफाउरि
##फोरखौसो
थानायबो
थानायसो
थानायाथʼ
##गराफोरखौ
##गराखौनो
##गराफार
##गिब
##थाइनो
##थʼनाय
##थʼखा
##थʼवाखमोन।
##थायनाय
##थायफोरखौ
##थायनायनि
माबल
माबरा
माबलाव
माबलानो
माबलिद
माबालायनो
माबामाबि
##ारीनिफराय
##ारीयाव
##ारीखौ।
##ारीयाबो
लोगोवाव
लोगोखौनो
लोगोआनो
लोगोफराबो
लोगोफोरा।
बारम
बारड
बारिय
बारसो
बारफा
बारगोन।
बारनायखौ
बाराबा
बारदोमोन।
बारगल
बारगासिनो
बारलानो
बारलाबाय
बारजर
बारबोदो
बारगान
बारदराय
बारलानायनि
बारहोबाय।
बारायाव।
बारनदानिफराय
##ाजोसो
##ाजोलʼ
गिलि
गिबोला
गिजियाव
गिलायलाङो
गिनिज
##लाइजो
##लाइयाव
##लाइनायनि
मोनसा
मोनसय
मोनसआ
मोनसजो
मोनससो
मोनसायाव
मोनसमोन।
मोनसयावनो
मोनसयानो
मोनसयनो
मोनसानदि
मोनसिसिनि
दरन
दरो।
दरदि
दरबला
दरामा
दरनाया
दरङाव
दरसरि
दरबार
दरथाम
दरबोनाय
दरलाङो
दरखरि
दरशन
दरनानबो
दरामनि
दरनाबो
दरसलʼ
दरबोबाय।
दरगायो
बसाय
बसार
बसखौ
बसाया
बसनाव
बसरनि
बसायावनो
बसिनाव
बसलाबनो
बसाहारा
थाखायनि
थाखाया।
थाखायलʼ।
##थाराल
##थारिया
##थारना
##थारनायाव
##थाराबला
##थारगौ
##थारमोन।
##थाराखिस।
##थारसल
##थारावबो
##थारसिगोन
##थारजाहा
बिनिबो
बिनिसिम
जादनि
जादथा
जादलाबायनो
बिबनि
बिबखौ
बिबथिया
बिबारिखौ
बिबदिया
बिबथियाबो
बिबदियावनो
हमन
हमद
हमनि
हमा।
हमदा
हमलणड
हमफला
हमकि
हमहोनान
हमजायो।
हमहनो
हमजोबनो
हमखाबाय।
हमथʼ।
हमफयो
हमानायस।
हमजागोन
हमजाबनान
हमथमनान
हमनाबाय
हमजाबाय।
हमसलाबनो
हमजाफ
##ालि।
##ालिनि।
##ोनोबा
##बरस
##बरट
##बरम
##बरनान
##बरʼनि
##बरती
##बरीज
##बरडखौ
##बरगड
गावनि।
गावनिथि
गावनिलʼ
गावनिसिम
गावनिखरइ
गावनिखरय
मावखौ
मावफा
मावफिन
मावोबला
मावखो
मावलानाय
मावनाथ
मावनागौ।
मावबावनो
मावसाब
मावबोदो।
मावजोबो।
मावदिन
मावसालिनि
मावलायखो
मावलानायनि
मावरीया
मावबोबाय
मावखादोमोन।
मावसयावबो
मावगलनाय
मावबोदोमोन।
मावरिया।
मावनासिगोन।
मावफलाना
मावसोलो
मावलानागोन।
गोरो।
गोराग
गोरास
गोरानो
गोरसि
गोरोनि
गोराननि
गोरानाव
गोरदोन
गोराफरा
गोराजोनो
गोराजोनि
आनिखौ
आनिखर
आनिसो।
आनिखरइ
आनियाबो
आनिथानि
आनियाव।
आनियावबो
##ालायनो।
##ालायदोसो।
गजनायनि
गजनखौ
गजखʼनो
बादिग
बादिखौनो
बादिलʼ।
बादिमाला
सलʼसा
सलʼबादि
सलʼसो।
सलʼनथाइ
सलʼमायाबो
सलʼसाफोरा
##आवबो
##आवलाय।
##मोनलाय
##मोननिफराय
##मोनथाइ
##मोनदर
##मोननो।
##मोनहा।
मल।
मलला
मलनिफराय
मलका
मलियानो
मलकखौ
मलटारि
गोजोनो
गोजाङा
गोजामोन।
गोजावबो
गोजानायजो
गोजाजोब।
फोरस
फोर।
फोरजो
फोरनिफराय
फोरखौनो
फोरलाब
फोरजोनो
फोरानो।
फोरथाब
फोरोनायाव
फोरावबो
फोरखौलʼ
फोरनावनो
फोरजाख
फोरजाफरा
हरल
हरख
हररा
हरबो
हरसि
हरदोम
हरनायाव
हरफर
हरोमोन।
हरनो।
हरहाय
हरसिम
हरनखौ
हरखानान
हरनाय।
हरबलानो
हरनोस
हरनागोन।
हरथौ
हरफिननो
हरफानाय
हरबोला
हरफानो
हरावनो।
हरनायखौ।
हरदोल
हरजोबदो।
हरसयावबो
हरबावनान
हरजाबाय।
हरदोनो।
हरनायखौबो
हरनागौबला
हरबावगोन।
हररर
##खरबो।
##खरबनाय
##गोनल।
एसिस
एससिन
एसखिनि
एसगोबाव
मानसिमोन।
मानसिबादि
मानसिहाबो
मानसिफोरानो
मानसिफराथʼ
बिसोरबा
बिसोरलʼ
बिसोरखौबो
बिसोरहानि
बिसोरनासो
गबनसो
गबनफोरखौ
गबनारी
गबनफराबो
बाथराल
बाथरास
बाथराफोर
बाथराफोराबो
बाथराफोरनिफराय
रोबा
रोबला
रोदो।
रोदोम
रोथाइ
रोसिन
रोबावनो
रोखाया
##खायसो।
गयह
गयबो
गयरि
गयजो
गयसो
गयादि
गयाराम
गयति
गयखायनो
गयारिया
गययावनो
गयथिजो
गयाहाय
गयसरीया
गयालासनो
गयालासिनो
गयतिया
गयतिनि
गयतिखौ
##फोरनिखर
जानायबो
जानायखौबो
जानायाव।
जानायखायसो
लानानसो।
फोलाय
फोजाय
फोजोनो
फोजायो।
फोसराव
फोजानायाव
फोददा
फोलाफरा
##ागोनना
##ागोनखि
##बावसो
##बावनायनि
##बावगौ
##बावनाया
##बावनाय।
##बावनागौ।
##बावदिनि।
गसा
गसट
गसय
गसदो
गसया
गसहा
गसफोरा
गसथʼ
गसाथि
गसदोमोन
गससिन
गसदोमोन।
गसथिया
गसलानि
गसथिनि
गसला।
गसाथी
गसनोबो
गसखाङो
गसायानो
गसहनान
गसथान
गसफायो
गसायासो
गसथायो
सोमब
सोमल
सोमह
सोमनान
सोमबाय
सोमबा
सोमजिया
सोमहाबनाय
सोमदोन।
सोमबरोम
दिफ
दिभ
दिच
दिबा
दिवा
दिगा
दिखानाय
दिजन
दिखाबाय
दिखाङो।
दिटक
दिघा
दिगरियाव
दिफʼनि
दिघली
मगास
मगयो।
मगथो
मगजानाय
मगासिम
मगलखौ
मगनान।
मगगनि
मगʼल
मगयाख
मगयाबला
मगनजोनो
गाबफ
गाबिन
गाबसि
गाबोन।
गाबाबो
गाबायाव
गाबगरा
गाबहो
गाबाख।
गाबखोम
गाबासो
गाबखानान
गाबनायस।
गाबलाबाय
गाबखम
गाबनायनिफराय
गाबखादो
गाबखादो।
गाबनायखौ।
गाबफलाबाय
गाबखोमाबाय
गाबगायो।
गाबखरावनो
होननानलʼ
होननानथʼ
जरइ
जरदो।
जरबलाबो
जरखि
जरथिबो
जरबायाव।
दखाख
दखोम
दखसो
दखआव
दखनायाव
दखानायनि
दखारिनि
दखखौ।
दखजोनो
दखानायाव
दखमोननाय
दखवावनो
दखाजोबो।
दखाबोनाय
बाहार
बाहाइ
बाहानाय
बाहारि
बाहगो
बाहोनाय
बाहरनि
बाहिरा
बाहोनायनि
बाहरानि
बाहिरायाव
##गिरि।
##गिरिफोर
##दर।
##दरबला
##दरजानि
बनि।
बनिसो
बनिखरय
बङोमोन।
बङाखिस
बङाखस।
बङाबाबो
बङाबरा।
गोदस
गोदोनाय
फावथ
फावा।
फावावनो
फावथम
फावखौ।
फावगिरिया
फावदार
फावगिरिनि
फावथायाबो
फावथायगिरि
फावदत
फावदद
फावदरा।
##बिह
##बिदि
##बिदा
##बिजाब
##बिथिनि
##बिलास
##बिल।
##साफोराव
##नजनि
##होबो
##होखो
##होफिननो
##होबोदो।
##होआखिस।
##ोनायखौ
##ाबलालाय
##ाबलासिनो
सासा
सासथि
साससो
सासननि
सासटि
सासथोर
सासनिया
सासकति
आलन
आलआ
आलिया
आलना
आलनाव
आलआव
आलङा
आलीया
आलला।
आलता
आलयानो
आलभा
आलफाया
आलयालʼ
आलावरि
दाʼ
दाखौ
दाअन
दाआवलाय।
दावल
दावराया
दावसन
दावलाबाय
दावखम
दावसिनि
दावलाबाय।
दावसाया
दावलायाबो
दावसा।
फारल
फारव
फाराय
फारला
फाराख
फारसि
फारखा
फारमाव
फारलन
फारखङाव
महरआ
महरारि
महरनिफराय
महरखौनो
महरगोसा
थिʼ
थि।
थिफिन
थिखʼ
थिखि
थिगरि
थिथोर
थिलिया
थिलिनि
थिलि।
थिपस
सरर
सरश
सरना
सरनायाव
सरनाया
सरनायखौ
सरका
सरनदर
सरनानि
सरजन
सरजाया
सरलादो
सरजननाय
सरदʼ
सरावनो।
सरजाबनान
सरमिला
सरलया
सरनदाखौ
सरलक
नागारा
नागायालाय
सबफ
सबन
सबम
सबह
सबलाय
सबाबो
सबनिफराय
सबसा
सबफोरानो
सबआबो
सबखाना
सबङानो
सबङाबो
सबखाटारि
सबासब
जानोबला
जानोबलाबो
जानोहागौ।
मिथिज
मिथिनि
मिथिफोर
मिथिबा
मिथिदो
मिथिदो।
मिथिआव
मिथिसार
मिथिजाय
मिथिनो।
मिथिङा
मिथिखानान
मिथिहोनो
मिथिखा।
मिथिजोबनो
मिथिहोयो।
मिथिसय
मिथिगारि
मिथिदोबला
##ाथिनाय
##ाथिलियाव
मानोथʼ
राइख
राइलाय
राइथाया
राइजʼ
राइजलायनान
बायदिजो
बायदिफोरनि
बायदिफोरजो
बायदिमया
गारस
गारबो
गारानि
गारबला
गारनायनि
गारबलाबो
गारगार
गारनो।
गारिया।
गारबलानो
गारलाङो।
गारलानाय
गारादा
गारबोदो।
गारजोबनो
गारहरनान
गारबोनो
गारायनि
गारसराव
गारनाङ
गारनासिगोन
गारलायथार
बोरब
बोराव
बोरनाय
बोरजो
बोरदो
बोरगा
बोराबो।
बोरसियाव
बोरबासिन
खरत
खर।
खरइ
खरी
खरनि
खरनाय
खरिय
खरबाय
खरनिफराय
खरियाव
खरखा
खरनायाव
खरवाव
खरसरि
खरजाब
खरसाय
खरलब
खरखाव
खरबायनो
खरादाफ
##सरनि
##सरादो
##सरलाया
##सरियानो
गासव
गासोम
गासबाव
गासयावनो
गासयावबो
ओखाराख
ओखारथʼ
ओखारगोन।
ओखारबलानो
ओखारनायजो
ओखारला।
ओखारबायमोन।
ओखारहयो
ओखारफयो
ओखारफादो।
जायो।जर
##लोद
##लोगो
खनʼ
खनबाय
खनबा
खननायनि
खनगिरि
खननसो
खनथिया।
खनफिननान
खनथि।
खनथमनान
##मायो
##मायो।
दानब
दानख
दानथि
दानावनो
दानहा
दाननायनि
दानबलाबो
दानगार
दाननाया
दानिया।
दाननसो
दानसयाव
दानाव।
दानखʼनान
दानबाबो
दानसरिनि
दानियालाय
दाननसोनि
दानखʼनाय
दानफायाव
दानागार
दानदालि
दानीराम
दानखलनो
##गारा
##गारनायबादि
दोनला
दोना।
दोननिफराय
दोनहर
दोनगोन
दोनोमोन।
दोनखानान
दोनलाङो।
दोनसरा
दोनलाबाय।
दोनजायो।
दोनहरो।
दोनहा।
दोनखोमा
दोनखादो।
दोनगौमोन
दोनहनान
दोनहदो
दोनफयो
दोनफदो।
दोनखादोमोन
दोनबोथʼ
दोनसलायनो
##गरिया
##गराबो
##गरोनायनि
गाहाग
गाहना
फरायबाय।
फरायखा
फरायगोन।
फरायनो।
फरायखानाय
फरायबलानो
फरायनायजो
फरायलाङो
फरायहोनान
फरायफिनो।
फरायखानायनि
फरायजोबनान
फरायनानबो
फरायगिरिफोरनि
फरायगाबा
फरायलानायखौ
फरायथिनान
फरायगाबर
फरायगाथाम
फरायगरायाबो
आफादि
आफगा
आफाहा
आफटार
आफामोनहा
आफानोबो
आफाखङाव
आबग
आबय
आबाल
आबदा
आबया।
आबʼव
आबʼनि
आबदाल
निक
निजर
निगरी
निबाया
निलामबर
नितय
निदराब
निकलसन
गामी
गामिस
गामीनि
गामियारी
गामायल
जौल
जौबो
जौया
जौखौनो
जौसनि
जौथाया
जौथायनि
जौसाइ
जौसयाव
जौवाबो
जौसिन।
जौसिनाव
जौदरायबला
जौखोनाय
खामनो
खामो।
खामनान
खामबाय।
खामायनान
खामसालिनिफराय
खामथारजाहा
थायखौ
थायाख
थायफा
थायगरा
थायामोन
थायथाम
थायनसो
थायसʼ
थायसयाव
थायफरि
थायसलʼ
थायसजो
थायाखस
राजभ
राजान
राजयो
राजना
राजोनो
राजायाबो
राजायानो
राजदत
राजगड
राजखगरी
राजाखान
बबरा
बबानो
बबयो
बबाथाय
बबाराव
बबहार
बबिसार
जानानसो
जानानलʼ
##सारज
##सारनो
##सारसाइ
##साराखौ
लिरथाइ
लिरगोन
लिरसा
लिरफरा
लिरामोन
लिरोमोन
लिरगासिनो
लिरहोनान
लिरनोबो
लिरफिनो
लिरजानान
लिरलादो
लिरबोदो।
लिरनायखौनो
लिरगराफोरनि
लिरथमनान
लिरथाइखौ
लिरजानाय।
लिरहरदोमोन।
बिजय
बिजञ
बिजाथिनि
जिउनिफराय
जिउमा
जिउयाव
जिउवाबो
जिउनिफराय।
जिउसाफोरखौ
##टाराव
##टारिया
##टारनिफराय
##टारसार
हिनाज
हिनदनि
बादनि
बादबो
बादाया
बादवा
बादाली
आइम
आइबो
आइथि
आइबल
आइखा
आइयाव
आइनायाव
आइखौ।
आइयाबो
आइमोना
आइराखि
आइबलखौ
हादोना
हाददाव
हादगोरा
नङाʼ
नङाखौ
##फरनाय
गर।
गरी
गरनि
गराब
गरनाय
गरनान
गरजो
गरवा
गरङा
गरनट
गरबलानो
गरसनि
गरमनट
गरद।
गरबला।
गरजय
गरबरसो
गरीड
गरानिया।
जबोलाबो
जबोआनो
जबोफोरमान
परी
पराग
परजा
परसर
परसार
परसनि
परटन
परʼल
परकास
परभाया
परतय
परकाश
परडाक
परानशवर
जोबाब
जोबदो
जोबगरा
जोबनायखौ
जोबमोन।
जोबदोमोन
जोबदोमोन।
जोबोमोन।
जोबथायाव
जोबगौ।
जोबयावनो
जोबजास
जोबलिद
जोबहयो
जोबसलाबनो
नʼफोर
नʼथि
नʼखौनो
नʼनिफरायनो
नʼथिङ
##दोमोनदि
##दोमोनलʼ।
हाबाखौनो
हाबाफोर।
हिनजावानो
हिनजावा।
हिनजावखौ।
सावो
सावलाय
सावदो
सावबाय।
सावदा
सावखा
सावनायनि
सावजायो
सावहनो
सावहबाय।
सावताल
सावगलनान
खोनथाय
खोनागोन
खोनाथार
खोनथाया
खोनथा।
खोनागरोम
खोनाजोबनान
खोनथायो।
खोनाजोबबाय।
खोनाबोनाय
खोनालिया।
##सरि।
##खौनोबा
नोनिखौ
खौफ
खौना
खौसयाव
खौलौ
खौबाल
सिखि
सिखोन।
सिखिर
सिखाबाय।
सिखाना
सिखाथाव
सिखाफिन
सिखलाया।
सिखलायाबो
रायनागौ
रायथायाव
रायलाया
रायमत
रायखानाय
रायजानाय
रायसल
रायहरबाय
रायफिननो
रायखाबाय
रायहरनो
रायथायारि
रायदोबलाबो
रायखादोमोन।
रायजाबाय
रायहरनायखौ
रायमालि
रायफलखौ
कलम
कली
कलनि
कलरा
कललि
कललाइ
कलसिय
कलतर
कलमब
कलाबनि
कलरफरम
##फरालाय।
लाइख
लाइना
लाइदो।
लाइसरि
लाइसन
लाइमोननि
लाइमथ
लाइसियाव
हात
हाक
हाफोरखौनो
हाकिन
##फिनाख
##फिना।
##फिनबा
##फिनाबला
##फिननायखौ
##फिननो।
##फिननायस।
##फिनबावनो
##फिनजोबो।
##फिननायखौनो
गोदानल
गोदानाव
गोदानमोनखौ
अरʼ
अरनाव
अरगा
अरनायनि
अरनायाव
अरसिन
अरकि
अरनानो
अरजादो।
अरखरबनान
अरगौबा
अरणा
अरफरय
अरसʼनान
अरलय
अरबिनद
##सिनदो
##सिननायनि
##खʼखौ
##खʼना
नाटक
नाछा
राइजोफराबो
##थावबा
##जायाबो
##जायया
##जायाबला
##जायाख।
फिसाखौनो
फिसाखौबो
फिसाफोरनिफराय
फिसाफोरखौबो
फिसाफोरजोबो
हारिनो
हारिनिफराय
हारिफोरजो
हारिखौ।
हारिफोर।
सायावनो।
सायावसो।
खारजो
खारथि
खारलाय
खारदो।
खारयाव
खारथाय
खारदर
खारगोन।
खारदोमोन।
खारनागौ
खारजाब
खारथाया
खाराखमोन।
खारनागोन।
खारफिननो
खारलादो।
खारबोदो।
खारबोला
खारबोयो
खारबोनो
खारसराव
खारलानायनि
खारबोबाय
खारलान
खारलाबला
खारहोबाय।
खारदोल
खारथायजो
खारहोबाय
जाबायद
जाबायबलाबो
बाजा।
बाजारा
बाजयाबो
बाजावा
बाजʼनो
बानल
बाना।
बानानिफराय
बानलानाय
बानसखौ
बानदाय
बानदाया
बानदिय
बानदिया
बानदोनि
बानथाजो
बानदिसो।
उनदय
उनदबा
उनदहा
उनदनाया
उनदगर
उनदलानाय
उनदनायस
उनदलानान
उनदलादो।
उनदजोबबाय।
उनदहबाय।
उनदयावबो
उनदलाबला
उनदवाख।
उनदयोमोन
उनदाहानि
##ामोनखौ
##ामोननो
##ामोनबा
##ामोनहाबो
मिनिगरा
मिनिनाय।
मिनिनायजो
मिनिहोनाय
मिनिबावो
मिनिटाव
मिनिटन
मिनिनान।
मिनियास।
मिनिबास
मिनिसोरा
आखौथʼ
लाय।
लायगरा
लाययाव
लायथʼ
लायनायनि
लायोमोन
लायाखिस
लायाबलाबो
लायनि।
लायबावनो
लायाखमोन
लायनोस
लायाबालानो
लायालास
लायालासिनो
लायहोयो
लायबरबनान
खालामनोल
खालामनोस
खालामनोसो
खालामनोलʼ
खालामनोबरा
थानोबरा।
थनागोन।
थनथरि
थनथरा
थनथला
नाजाफ
नाजागरा
नाजाबोदो।
नाजाबोबाय
गाजानिफराय
गाजलिया
खोमाजो
खोमलाव
खोमादोमोन
खोमथाफ
खोमसियावनो
फोरमाया।
फोरमायगोन
फोरमायोबला
फोरमायलादो।
फोरमायजोबनो
फोरमायाबालानो
फोरमायसिगोन।
फोरमायबावदो।
बखल
बखिय
बखरा
बखिया
बखयो
बखाबला
बखानायनि
बखिनो
जनस
जनाइ
जनबला
जनहा
जनगोन
जननाया
जनारखौ
जनजाति
जनथʼखा
आदाम
आदानो
आदवा
आदाजो
आदालाय
आदबाव
आदानिफराय
आदता
आदायाबो
आदामोना
आदायासो
आदयाथʼ
आदाखाव
##टि।
##टिजो
रजत
रजाह
रजबला
रजाया
रजनायनि
रजनाया
रजङाव
रजादो।
रजाथाव
रजलिनि
रजनी
रजʼवा।
रजसटार
रजासालियाव
##जोबनि
##जोबाबो
##जोबनायाव
##जोबथारनायाव
कमारा
कमपा
कमडि
कमता
कमारच
कमानडखौ
गथʼसो
गथʼखि
गथʼसाय
गथʼखौ।
गथʼयाबो
गथʼसा।
गथʼसाफोरखौ
गथʼफिस
जादोल
जादोसो
जादोदि
जादोबला
जादोथाय
आनन
आनारि
आनगाय
आनरनि
आनकि
आनथा।
आनमोनहा
आनथाखौ
आनारस
जाथʼ
जाथ।
जाथनि
जाथिया
जाथियाव
जाथारनि
जाथियानो
गजरावबला
राच
राफोरखौ
राषट
राधा
राधि
##ागराखौ
खोय
खोठ
खोदोम
खोथाय
खोथिय
खोल।
खोथानि
खोथाया।
खोफसिन
सोदोबावनो
सोदोबबलाबो
सोदोबमानि
सोदोबखौबो
सोदोबफोरानो
सोदोबमाखौ
सोदोबमाजो
बिफाफरा
बिफाङाबो
महाब
महारि
महिना
महनखौ
महकम
महाजार
महिनी
महानदी
महानिम
महाफाफ
माहर
जानज
जानखौ
जानाइ
जानथा
जानथायाव
जानाङो
जानजिनि
जानानायखौ
जानथाइनि
जानानोस।
जानारो
दिनथिगिरि
दिनथिगोन।
दिनथिनायखौ
दिनथिदोमोन।
दिनथिलानो
दिनथिनोबो
दिनथिबानो
दिनथिफनो
दिनथिनायखौ।
दिनथिफबाय
दिनथिहरा
दिनथिखʼनाय
दिनथिगाबा
आरिया
आरलि
आरमा
आरियाव
आरनायखौ
आरसा।
आरबी
आरटिकल
आरजायि
आरलिन
हाराय
हाराजो
हारिया।
हारियान
हारसिय
हारदिनि
होनायबो
होनायलाय
होनायनिफराय
होनायफोरखौ
होनायखौनो
बयि
बयाम
बयकट
बयबस
बयनावबो
आफादारि
आफादफोराव
आफादसालियाव
##गलानान
##गलदोमोन।
गोमो।
गोमाह
गोमोनो
गोमाखो
गोमाफरा
गोमालानो
गोमखाङो।
गोमानाय।
गोमजा।
गोमाहयो।
आसो।
आसरा
आसलि
आसनाव
आसालि
आसारिखौ
आसारी।
आसलजो
बिथखौ
बिथोन।
बिथाबो
आयउ
आयनि
आयजो
आयनाव
आयननि
आयनानि
आयङा।
बिखौलाय
बिखौसो
बिखौलाय।
बफोरबो
बफोरावनो
बफोरथʼ
बफोरमानि
बिखब
बिखाजो।
बिखमजो
लाखम
लाखा।
लाखिया
लाखादोमोन।
लाखादोमोन
लाखायावनो
बावो
बावयो
बावथार
बावनायाव
बावगोन।
बावदोमोन
बावदोमोन।
बावसिया
बावलानो
बावनाय।
बावलादो।
बावजोबनो
बावथारदो
बावजोबबाय
बावथारदो।
बावजोबदो।
बावथारला
बावनासा
बावबोयाख।
बाहायल
बाहायगोन।
बाहायदोमोन।
बाहायनायजो
बाहायबोनाय
बाहायजायो।
बाहायफिननो
बाहायफानाय
बाहायबोदो।
बाहायनायखौनो
बाहायजागरा
बिदिबा
बिदिखौनो
जाहदो
जाहबला
जाहनायाव
जाहदोमोन
जाहनागौ
जाहया।
जाहनायस।
जाहनोबो
जाहाबनाय
दमज
दमारि
दमबाय।
दमारिया
दमबरा
दमारिखौ
गाजरिबो
गाजरिबला
गाजरिखौनो
गान।
गानहा
गाननायनि
गानगोन
गाननायखौ
गानफरा
गानदोमोन।
गानथिखौ
गाननाय।
गानलानाय
गानदाखौ
गानाहाय
गानफरानान
##दाव।
##दावो।
##बारह
##बारआ
##ोमोनथाय
आगाख
आगफोर
आगलाय
आगानाव
आगदाजो
आगलायनायखौ
आगरायारी
##खोमानाय।
##खोमाहोनान
बिमाखौ।
आखाइलʼ
आखाइजो।
आखाइनिफराय।
नागिरबा
नागिरहन
नागिरलानो
नागिरखानान
नागिरबानो
नागिरहनागौ
मनजहा
मनजारा
मनजवानो
मनजवादि
मनजवाबो।
आलाइमोनहा
गलफ
गलय
गलबा
गलगोन।
गलदोमोन
गलनो।
गलहोनो
गलफला
गललायो
गलनायनिफराय
गलफयो।
गलान।
गलबोनायखौ
गलहोनाया
माइह
माइखौनो
माइलनि
माइरनि
माइसालि
माइफराम
माइनारि
##ोबला।
##तिभ
##तिपर
मोसब
मोसबो
मोसा।
मोसाला
मोसानाव
मोसाबादि
मोसानाय।
मोसानागौ
मोसबबर
मोसाखाव
नोथानिफराय
नोथाबादि
नोथाजो।
फारसट
फारसजो
##सनल
##सननायाव
##खोहा
फावथाइफोरखौ
फावथाइयाबो
उनला
उनफोराव
उनजोल
आथिसिम
आथिजोनो
होनोस
होनोस।
होनोबलानो
##कटाव
##खायनोबो
बनायबो
बनायलाय
बनायावनो
बनायखाय
बनायाथʼ
बनायबादिनो
रमश
रमाली
रमसिङाव
रमनाबो
रमफारस।
साता
बोसोर।
बोसोरबो
बोसोरजि
बोसोरबरसो
बोसोरनसोनि
##ाजाबनो
बङोल
बङोबा
बङोबलाबो
बलान
बलदि
बलदा
बलफोरा
बलिया।
बलखौ।
बलनस
बलकाव
बलजिय
बलयारा
##हनाबाय।
थानान।
थानाननो
नारच
नारसो
नारना
नारखर
नारसनि
नारहरबाय
नारखलाय
बिबदिबलाबो
जाʼ
जाक
जाषट
जाती
जादो।।
लबनो
लबगोन
लबनखौ
लबसल
लबथावना
दसाव
दसबो
दसराय
दसिया
दसाबो
दसायाव
दसियो
दसियो।
दसाबो।
दसराखौ
हाजʼ
हाजलाया
हाजाराव
मोदसो
मोदफरा
मोदया।
मोदयाबो
मोदोनाव
मोदजो।
मोदानथि
##ासोलाय
आवलाय
आवथा
आवगय
आवहाबा
आवथायगिरि
आवसारि
आवआदाम
आवथाइनो
बबायल
बबायदोमोन
बबायदिय
मनी
मनाम
मनास
मनबो
मनसो
मनाबो
मनयो।
मनतर
मनाजार
मनाखबारी
##लनि।
गिदिला
गिदिदो।
गिदिरनि
लानाया।
लानायाबो
लानायनिफराय
लानायबादि
लानायाथʼ
लानायनिफरायनो
दङबलाबो
दङोमोन।
दङनो।
हानायजो
हानायावनो
हानायस।
हानायासो
मोननायबो
मोननाया।
मोननायमोनबला
मोननायानोथʼ
सिगाबाय।
सिगाङा
सिगननि
सिगासो
सिगाथिङ
सिगाङोबला
मोखानिफराय
मोखरा।
मोखाथिङ
##राइड
जोनावनो
जोनियाव
जोनियाबो
जोनजाल
##नटन
##नटरʼ
बाथराखौबा
बाथराखौलʼ
थाबिस
थाबाबो
थाबाथाय
थाबोनाय
थाबरोम
थाबोनायनि
थाबथारोङ
थाबबरोम
थाबिज
फिज
फिदा
फिटि
फिलिम
फिलौ
फिथाखौ
जाखाय
जाखानो
जाखोना
जाखादो।
जाखलाब
जाखारा
जाखादोमोन।
जाखानाय।
जाखलाजो
जाखालायबाय।
थाङि
थाङनो
थाङोमोन।
थाङाखिस।
थाङाखमोन
थाङाखमोन।
थाङाबलानो
##णडाव
##णडनटस
##रीजो
##रीया।
गदत
गदखौ
गदराय
गदनिफराय
गदसिन
गदमा।
गदमासिन
##नागौसो
##नागौवा
##नागौबलाबो
##थायावनो
खामानिफोर
खामानिजो
खामानिनिफराय
खामानिखौबो
खामानिफोराव
खामानिखौ।
खामानिफराव
एनग
एनार
एनखौ
एनटि
एनगारनो
एनटारखौ
दाबसि
दाबथार
दाबिनि
दाबहाय
दाबलानो
दाबारीया
दाबासरि
दाबद।
दाबरायनो
दाबारीखौ
जायोबरा
जायोलाय।
जायोलायनो।
उदआ
उदला
उदनो
उदासि
उदायनो
उदवाबो
उदखौसो
बाटा
बाकार
बाधा
बाशी
मगन।
खाथनाय
खाथिय
खाथʼबनान
नोसोरो।
नोसोरसो
नोसोरथʼ
नोसोरनाव।
हागौल
हागौनि
हागौखौ
हागौदि
एमफ
एमन
एमबल
एमिनि
एमिनʼ
दोहा
दोसनि
दोखला
एरइ
एरनायाव
एरियान
एरखʼनान
एरलायखो
एरखानायाव
एरसोनो
एरखोमानो
थारस
थारथि
थारगोन।
थारनागोन
थारलला
थारमʼ
थारखाजो
खबरा
खबबाय
खबदो।
खबहा
खबखा
खबथा
खबबर
खबनाया
खबʼन
खबफरामबो
खबबरसो
खबफाबा
बागाव
बागाला
बागलाव
बागलायबाय
बागाहो
मदल
मदाम
मदाख
मदायाव
मदराव
मदथाय
मदननि
मदरा।
मदन।
मदियामनि
बखवदो।
गमबाय
गमदो।
गमखौनो
गमथाखौ
अजा।
अजगर
अजागिरि
अजगबि
माखरि
माखाङ
माखना
माखोनि
हामज
हामखौ
हामाख
हामाल
हामलाय
हामना
हामजा
हामखर
हामगौ।
हामजानो
हामथारा।
हामसिगौ
हामागौमानि
हामबलाइ
हानटार
हानथिय
हानथिनो
खानखौ
खानथरि
खानथिय
खानदाखौ
खानथियारी
खानसरियाव
फानन
फानह
फानाव
फाननि
फानबा
फानसो
फानसिन
फानहरो।
फानलायगरा
फानफरनान
फानगलनान
ओखरिनि
गोजौ।
गोजौथाराव
##थियाख।
खावबला
खावखा
खावनायखौ
खावखानाय
खावसनि
खावफल
खावरिनि
खावसयाव
फसल
फसा।
फसनायनि
फसङो।
फसलायनान
फसायाबो
फसजायो
फसायानो
फसफदो।
फसलिमनान
फसायदो।
मोजानो
मोजाङाव
मोजोमा
मोजानो।
मोजासिन।
सपा
सपि
सपस
सपनि
सपरि
सपारा
सपʼरट
सपपल
सपसियल
सपथाह
सपचियल
सिरिनो
सिरिनान
सिरिजो
सिरिआव
सिरिलायनाय
सिरिहोयो।
गोसोमा
रिज
रिक
रिदि
रिफर
रिथाव
रिषट
रिखानाय
रिखाबाय
रिटन
रिखादो
रिडार
रिजनि
रिफरि
रिखादोमोन
रिहार
रिताया
रिहारि
लानोसो
मोदोमाबो
मोदोमगरा
मोदोमफल
मोदोमफराव
मोदोमनाया।
गवो।
गवानि
गवलाय
गवहा
गवगोन
गवारनि
लोगोसय
लोगोसो।
पलग
पलपि
पलषट
पलनखौ
पलयार
पलचनि
बिहिनखौ
जागोनल
जागोननो
जागोनदा
जागोनानो।
जागोनदा।
##लाबनान
खिनथिखौ
खिनथारोङा।
ननानाय
ननानसो
बिसिनान
बिसिफोर
बिसिगरा
बिसिखौ।
बिसिफलनान
बिसिनायावनो
बिसिमबि
सानसो।
सानसोनि
सानसवाव
सानसबलाबो
सानसथो
सानसालियाव
##सावलिया
जोनोमबो
जोनोमनिफराय
जोनोमगिरिनि
जोनोमपरी
##सिमलʼ
समायदो
समायाबो
समायगोन
समायनाया
##लायनायसो
##काटि
बिद।
बिदआ
बिदनि
बिदथि
बिदिया
बिददा
बिदाजो
बिदसाव
लासा
लासन
लासट
लासयनो
सगराइ
सगरासा
सगराफोरजो
सगराफोर।
मालाय।
मालायहा
मालायफोरखौ
मालायफोरनि
मालायखि
मालायबादि
हाखानाय
हाखना
हाखवा
हाखाबाय।
हाखायो।
गोहोखौनो
गोहोजोनो
गोहोआ।
लिह
लिदो।
लिगा
लिहो
लिङो
लिथम
लिभार
लिभारखौ
लिखला
लितगिरि
बाहागोया
बाहागोबलाबो
बाहागोआबो
बाहागोसया
सौय
सौराय
सौबला
सौवा
सौहाय
सौका
सौजानान
सौथारबाय
सौजाबाय
सौनाङा
लामाखौनो
लामार
लामाबो
लामबर
लामानिफराय
लामडि
लामायारि
लामाथिङ
सलभ
सलद
सलथ
सलफा
सलखा
सलानो।
सलनथाइ
सलफिस
साबास
साबा।
साबजाय
साबका
साबसरा
साबखाङो।
साबजकट
##गिरिया।
हगारा
हगारनायाव
हगारदोमोन।
हगारखानान
हगारहरनाय
हगारबावबाय।
हगारखोमायो।
गोगलना
गोगलनायाव
गोगलनाय।
गोगलसोन
गोगलफनाय
गोगलहयो।
गोगलनायबादि
गोगलयाख।
गोगलसोनाय
गोगलफनायस।
गोगलनाखो
गोगलसोनायनि
नोखौसो
नोखौदि
जाफा
जाफरा
जाफयो।
जाफगोन
जाफदोमोन।
जाफजोब
जाफङा
जाफलाबाय
जाफायो।
जाफʼब
जाफथोस।
जाफराख।
जाफलाना
खाया।
खायखʼ
खायसो।
खायदाखौ
खायफा।
खायसिब
खायफाहा
मलगआ
मलगारि
मलगावनो
मलगखौ।
मलगदाखा
थानाङ
थानानायनि
थानानायाव
थानाङा।
थानासिगोन
दायि
दायमानि
दायगोना
दायरक
लाबाथाय
लाबावनो
लाबारी
लाबराखौ
लाबोनाया
लाबोनागौ
लाबोनागोन।
लाबरʼब
लाबलिङा
मोननाइ
मोननाबाय।
मोननागोन
मोननादो।
मोननाङो।
जʼदो।
जʼथा
जʼनो।
जʼरा।
जʼफिनो
जʼहयो।
जʼयोबला
जʼरानि
जʼखाइ
##ानतियाव
##ानतिनि
गोथाजो
गोथबादि
गोथाङाव
सिनाया।
सिनायगौ
सिनायोमोन
सिनायथियानो
सोरबाफोरा
मोखाफोरा
मोखाखौबो
मोखाखौ।
साखरी
साखरब
साखरीयाव
##षटा
##षटट
##षटरि
##गासिनोसो
##फिल
माखासनि
माखासफरा
बदध
बदला
बदराय
बदिया
बदना
बदसरा
बदसम
बदनामा
बदमिनटन
बदलाबायदो
समाजानो
समाजाबो
समाजबादी
आसामनिफराय
आसामावनो
आसामआव
आसामिनि
सदगति
गोनल
गोनास
गोनास।
गोनाबादि
गोनासिन।
थनलाइयाबो
थनलाइखा।
थनलाइयावबो
रागाव
रागाज
रागानि
रागासो
रागादाव
थाबायबला
थाबायदो।
थाबायथा
थाबायगोन
थाबायनायखौ
थाबायलाङो।
थाबायलानाय
थाबायलाबाय
थाबायलादो
थाबायहनो
थाबायबोनो
थाबायलादोमोन।
थाबायबायो।
[...]
