{"Ġfut":5519,"ĠAct":3570,"à¤ħà¤¹Ê¼":4392,"ederation":8799,"Ġv":2089,"144":5683,"Ġà¤Ĺà¤°à¤²Ê¼":8766,"Ġ---":1360,"à¤²à¤®à¤¹à¤¨":4727,"Ġ!\"":590,"keting":10364,"ĠĠĠĠĠĠĠĠĠĠĠĠĠĠĠĠĠĠĠĠĠĠĠĠĠĠĠĠĠĠĠĠĠĠĠĠĠĠĠĠĠĠĠĠĠĠĠĠĠĠĠĠĠĠĠĠĠĠĠĠĠĠĠĠĠĠĠĠĠĠĠĠĠĠĠĠ":9695,"Leptit":10738,"à¤°à¤ļ":1454,"à¤":256,"'à¥¤":1289,"à¤¸à¤¬":1157,"ĠĠĠĠĠĠĠĠĠĠĠĠĠĠĠĠĠĠĠĠĠĠĠĠĠĠĠĠĠĠĠĠĠĠĠĠĠĠĠĠĠĠĠĠĠĠĠĠĠĠĠĠĠĠĠĠĠĠĠĠĠĠĠĠĠĠĠĠĠĠĠĠĠĠĠ":5697,"Ġcorrect":10996,"à¤īà¤µ":915,"à¤¸à¤¤":2010,"oration":3539,"ĠIode":8888,"à¤¨à¤¸Ê¼":2255,"ĠSimple":5937,"ert":8260,"à¥ģ..à¥¤":6789,"Ġ..........à¥¤\"":9733,"Ġà¤¤à¤°":1214,"is":744,"Ġà¤Ĺà¤°à¤¦à¤¥":9680,"Ġ:-":686,"1969":9850,"à¤Ĺà¤¥Ê¼à¤®":2625,"Ġappeal":10627,"à¥Ģ?":7383,"Disk":4528,"Ġhave":2869,"Ġà¤¹à¤²à¤Ĩà¤µ":5419,"ĠWindows":1893,"tity":5283,"Ġ....à¥¤":2426,"à¤®à¤§à¤°":936,"à¤īà¤ª":4010,"Ġhowea":9176,"Ġà¤ªà¤ķà¤¬":9713,"ö":178,".......\"":8951,"Ġà¤²Ê¼à¤¹":2521,"Ġà¤¬à¤¡":555,"25":1502,"ahoo":3718,"à¤ŀà¤¤":5616,"181":9578,"à¥Ĥ,":5607,"Ġà¤ľà¤ķà¤¥":6994,"Ġclear":10598,"Ġ47":3553,"à¤ľà¤¹":3867,"56":6068,"à¤²à¤¨":431,"80":2320,"Ġà¤ľà¤Ĺ":795,"mese":4425,"-à¤¾,":6022,"à¤ĩà¤«à¤²à¤¬":8154,"Ġà¤«à¤µ":7170,"à¥ģ=(":10192,"à¤ĩà¤¦à¤¬":1604,"à¤¦à¤²à¤°":8066,"Ġ59":8410,"ness":3277,"Ġà¤ıà¤«à¤ľ":8259,"ĠEnglish":4477,"Right":6217,"6":21,"present":4627,"ĠSTROCK":8658,"à¤¿à¤Ĥ\"":7440,"à¤¿à¥¤........":7730,"Ġà¤®Ê¼à¤¹à¤ķ":10127,"Divide":10725,"à¤µà¤ĸÊ¼à¤¨":1953,"à¥ĭà¥¤............":3946,"Ġà¤Ĺà¤®à¤ľ":6841,"à¤¨à¤«à¤¬à¤¦":7768,"Ġà¤ħà¤ŁÊ¼à¤¨":3657,"Ġà¤ıà¤ªÊ¼à¤²Ê¼":9254,"JANASAN":10737,"War":6246,"Ġà¤ļà¤°à¤¨":3484,"Colle":6125,"Ġà¤Ĩà¤°":310,"à¤Ĺà¤¨à¤«":6933,"Ġà¤ĭà¤£":9770,"à¤ľà¤§":6911,"1999":9973,"Ġà¤ıà¤¦à¤ľ":7372,"à¤ķà¤ŁÊ¼à¤ªà¤¨":10076,"udy":5849,"Ġà¤Ĺà¤¸à¤°à¤¦":5218,"à¤²à¤®à¤¤":3321,"Committe":5825,"CUI":6124,"à¤¦à¤²Ê¼":3839,"Ġà¤«à¤¸à¤ľ":8723,"ĠThey":5699,"Ġà¤«à¤ŁÊ¼à¤¨":3223,"Ġà¤²Ê¼à¤¥":3016,"à¤¬à¤§":6641,"à¤ĩà¤Ńà¤®":8968,"à¤ģ":1580,"Ġà¤¬à¤¸à¤¨":2487,"Ġ46":8567,"à¥Ī;":1509,"à¤¾=":2201,"à¤°à¤ľ":358,"P":47,"à¤¿à¥¤à¥¤":1809,"ĠOfficer":11102,"à¤µ":274,"Ġ26":1532,"Ġ\")":7681,"Ġà¤¥à¤°à¤²":3919,"à¥Ī)":729,"ĠAll":5395,"Ġà¤¦à¤ĻÊ¼à¤¬":3524,"à¥įâĢĮ=":8222,"ĠĠĠĠĠĠĠĠĠĠĠĠĠĠĠĠĠĠĠĠĠĠĠĠĠĠĠĉ":10041,"Ġheritage":11053,"à¤¯à¤¸Ê¼à¤¨à¤¨":10080,"ues":6476,"Ġà¤ĩà¤īà¤¨à¤ĸ":8971,"Ġglobaliz":11107,"à¤ĸÊ¼à¤¬à¤¨":8252,"ĠThursday":5771,"Ġà¤ªà¤¥":5044,"Ġà¤ľà¤Ĺà¤¤":4217,"à¤²à¤°à¤«":4723,"à¤¦à¤Ļ":6811,"à¤¤à¤¸à¤°":7416,"Ê¼à¤ĸ":1006,"Ġless":9593,"iati":6351,"nt":6401,"à¥ĩ)":2488,"phoneties":11117,"Ġpart":8833,"ĠCap":1887,"Ġà¤¨à¤ĸ":523,"Ġanother":9954,"178":9575,"à¤ĸà¤®à¤²":3333,"à¤¹à¤Ĺà¤¨":7124,"à¤°à¤¥à¤°à¤¦":7994,"à¤ĵ":668,"ĠBusiness":4316,"à¤µà¤µ":1666,"Ġà¤ıà¤ķà¤¸Ê¼":8484,"à¤¯à¤ĸà¤°à¤¨":5033,"Ġà¤®à¤¨Ê¼à¤µ":7933,"à¤·à¤£à¤¸":10007,"à¤°à¤ħ":3309,"Ġways":10424,"à¤Ĩà¤µ":383,"à¤¿-}":5153,"à¤¹à¤°à¤®":2559,"gue":2637,"à¤¾'-":5302,"Ġarrangement":5980,"Ġà¤ĸà¤®à¤¸":7155,"Ġà¤°Ê¼à¤Ł":8552,"bankof":5919,"¹":117,"Ġà¤ªà¤ķà¤°":7593,"à¤°à¤®à¤ĸ":7714,"İâģ":6544,"à¤¿..":2206,"à¤Ĥ-":673,"Ġà¤®à¤Łà¤°à¤«":4796,"(>":6008,"sancharnet":6459,"à¤¥à¤²Ê¼":3875,"ĠBurmese":4475,"Ġà¤¨Ê¼à¤ĸà¤°à¤¬":8858,"Ġjus":3295,"à¤¬Ê¼à¤¬":3803,"ĠWednesday":4466,"à¥ĭ--'":9154,"Ġ136":9486,"ĠScenery":10165,"Ġà¤ħÊ¼à¤ľ":7302,"Ġ94351508":10356,"Ġà¤¸à¤®à¤¬à¤¦à¤ľ":10393,"ĠCleopatra":10399,"Ġà¤¬à¤ľÊ¼à¤¬à¤¦":10545,"Ġà¤¦à¤¹à¤®":2069,"Ġ{}[":9310,"ĠDoctorate":10674,"Ġà¤ĩà¤īà¤¸":7650,"ĠHouse":5554,"à¥ĩ:..à¥¤":8370,"à¤ıà¤°":1813,"ĠHalversud":11062,"Ġà¤¶à¤ļà¤®":9967,"Ü":152,"à¤¿.....":1845,"Ġà¤§à¤°à¤¨":3102,"climax":6294,"ĠAndronic":10583,"Ġà¤²à¤ķ":942,"à¤īà¤¨à¤ļ":7971,"...........à¥¤":7998,"à¤®à¤ĹÊ¼":8149,"à¤¬à¤²à¤¬":8214,"gid":6327,":][":10702,"à¤¯à¤¸Ê¼":2551,"à¥ĩà¥¤\"":1238,"ah":6255,"à¤µà¤ĹÊ¼à¤¯":7821,"ĠElect":9411,"org":8466,"à¤ıà¤ĸ":5220,"à¥ĩ'à¥¤\"":9755,"Ġprogramà¤ĸ":11125,"à¤ªà¤¬":4006,"hat":3724,"à¤¯à¤¹à¤°à¤¦":1415,"Ġà¤ĵà¤²":2046,"Thw":10505,"comic":9799,"ĠNEP":9424,"ĠWess":8727,"Ġmist":8937,"Ġmore":5476,"à¤°à¤Ĩ":1122,"à¤¬Ê¼à¤¸":8814,"),":834,"à¤°à¤ķà¤ĸ":6595,"106":9249,"Ġ2006":2160,"à¥Ī..........?":10546,"à¤ĵà¤¹":1495,"Ġ/":2334,"à¤ľà¤¯à¤ĹÊ¼":6925,"Ġwron":8870,"Ġà¤®à¤¬à¤°à¤«":9242,"à¤ĩ":302,"Ġà¤ķà¤¬":2257,"Ġà¤Ĩà¤ĩà¤°Ê¼à¤¨":5236,"Ġapp":5533,"Ġà¤®à¤¨à¤¹":3863,"Ġà¤¸à¤®à¤«":1283,"Ġà¤¤à¤²à¤¬à¤ĸ":8060,"à¤¦à¤Ĩà¤°":6820,"Ġà¤¥à¤®à¤²":7142,"Ġà¤µà¤«":8416,"ł":254,"Ġà¤¦à¤¹à¤¯à¤¨":8663,"Superlative":10768,"Ġà¤Ĺà¤£à¤¤":9995,"Ġà¤ľà¤Ĺà¤¤à¤ªà¤¤":10411,"à¤¬à¤¬":499,"109":9252,"à¤Ĩà¤Ĺà¤¯":9687,"Ġà¤Ĩà¤ĸà¤²à¤¯":8383,"à¤¹à¤°à¤¨":619,"Ġsay":8671,"Drag":6129,"à¤¾à¥¤....\"":10559,"à¤ĹÊ¼à¤¥":2361,"Ġold":8638,"Ġà¤¬à¤°à¤«à¤Ĩ":9726,"Ġà¤¦Ê¼à¤®à¤ľ":9150,"]":60,"à¤ĸà¤°à¤¸":6757,"Ġmere":8939,"à¤¨à¤²Ê¼à¤¨":6567,"Ġà¥¤à¥¤.........\"":9714,"à¥Į...\"":7006,"Ġ--\"":388,"Ġà¤ķà¤¸à¤¨":7472,"ĠĠĠĠĠĠĠĠĠĠĠĠĠĠĠĠĠĠĠĠĠĠĠĠĠĠĠĠĠĠĠĠĠĠĠĠĠĠĠĠĠĠĠĠĠĠĠĠĠĠĠĠ":2309,"à¤īà¤Ł":561,"Pathetic":5914,"Ġal":2937,"Ġà¤Ĺà¤µà¤¬":6837,"Ġwoven":10981,"Ġà¤ľÊ¼à¤ľÊ¼":5278,"à¤²à¤¬":819,"à¥ĩ..........à¥¤":6697,"à¤µà¤ĸà¤¬à¤ľ":7795,"DP":3709,"ĠRhymes":11090,"à¤Łà¤¸à¤«":8688,"Ġà¤¨Ê¼à¤¸":1337,"ĠTheir":9697,"à¥ĩ'":1617,"à¥Į)":2364,"Ġhop":9168,"à¤¯à¤¦à¤¬à¤²":7583,"Ġà¤°à¤¸à¤Ĺà¤²":9531,"Anari":10481,"à¤µà¤¬Ê¼":1598,"ĠE":1217,"Noun":4542,"à¤«Ê¼à¤°":4841,"à¤¹à¤®à¤¨":4870,"à¤¯à¤ļà¤²":6614,"à¤°à¤®à¤¹à¤¨":7722,"Erase":10489,"Ĵ":240,"\"......":4482,"Ġfather":11037,"ĳ":239,"Ġà¤ľà¤¬à¤°":6985,"ĠBin":9279,"Ġne":3617,"à¤Ĥ'":2949,"Ġ1996":5680,"Ġà¤°Ê¼à¤¦à¤¯":8557,"esert":8405,"ĠLiterary":10453,"ĠĠĠĠĠĠĠĠĠĠĠĠĠĠĠĠĠĠĠĠĠĠĠĠĠĠĠĠĠĠĠĠĠĠĠĠĠĠĠĠĠĠĠĠĠĠĠĠĠĠĠĠĠĠĠĠĠĠĠĠĠĠĠĠĠĠĠĠĠĠĠĠĠĠĠĠĠĠĠĠĠĠĠĠĠĠĠĠ":8002,"Ġbec":9020,"Ġà¤ľà¤¤à¤¦":4438,"ĠĠĠĠĠĠĠĠĠĠĠĠĠĠĠĠĠĠĠĠĠĠĠĠĠĠĠĠĠĠĠĠĠĠĠĠĠĠĠĠĠĠĠĠĠĠĠĠĠĠĠĠĠĠĠĠĠĠĠĠĠĠ":2631,"Ġà¤ķà¤¦à¤®à¤¤":7482,"âĢĮ...":8212,"ĠVI":9653,"à¤¯à¤ĸÊ¼à¤°":3430,"Ġà¤¸à¤¬à¤ĸÊ¼à¤Ĺ":6877,"Ġchords":10337,"Ġdisposses":10612,"Ġ[":464,"Ġà¤ľà¤¡":6976,"Ġà¤¦à¤¨à¤¨":4863,"Ġà¤Ĩà¤«à¤Ĺ":2408,"ira":6345,"à¥Ī............":6724,"ud":3286,"Ġà¤ħà¤ľà¤¤":7942,"à¤¨Ê¼à¤Ĺ":8988,"1961":9847,"à¥ĭ/":2203,"Ġà¤²à¤¡":2381,"Ġà¤Ĩà¤°à¤¸":1626,"Ġà¤Ĩà¤ĺ":3368,"Ġà¤ĩà¤¨à¤¬à¤°":7657,"Ġà¤¬à¤¨à¤°à¤Ĺ":8329,"Ġ??'":9842,"Ġ*********":10278,"Ġà¤ħà¤¯à¤¨":7292,"ought":8492,"Ġà¤ĸà¤¨à¤¦":2754,"Ġà¤ĸà¤°à¤µ":3562,"191":8746,"à¤°à¤«à¤¬à¤¨":7906,"à¥ģà¤Ĥà¥¤'":9094,"ĠHigh":9210,"Ġà¤®à¤¦à¤¦":629,"tel":4635,"Ġ..\"":9352,"à¤®à¤¬à¤²":3062,"Ġspirit":10045,"à¤§à¤«":8075,"Ġà¤¤":484,"à¤®Ê¼à¤¹à¤ķ":10384,"ĠNEPCO":11097,"Ġstatebankofindia":11154,"¯":107,"à¤īà¤¸à¤¨":1802,"Ġà¤¨à¤¬à¤¦":3904,"à¤ħà¤¨à¤«":7884,"à¤ŃÊ¼à¤°":7832,"Ġà¤¥à¤Ĺ":782,"à¤¨à¤¸à¤ľ":4973,"ĠIAS":8885,"09":2657,"NW":6182,"02":3242,"Ġà¤ĵà¤ĩà¤Ł":7643,"à¤¾à¤Ĥ)à¥¤":3900,"and":970,"à¤£à¤ĸ":4081,"ctober":1831,"Ġà¤Ĺà¤°à¤®à¤¸":5557,"207":9541,"ĠUneducated":10110,"à¤°à¤¤à¤Ĩ":5249,"ĠĠĠĠĠĠĠĠĠĠĠĠĠĠĠĠĠĠĠĠĠĠĠĠĠĠĠĠĠĠĠĠĠĠĠĠĠĠĠĠĠĠĠĠĠĠĠĠĠĠĠ":5550,"ĠGentleman":11068,"Ġà¤«à¤ľÊ¼":1354,"ĠWessxer":10946,"à¤¦à¤¨":447,"à¤²à¤¬à¤¨":2957,"Ġà¤ĩà¤°":665,"à¤¸à¤ĹÊ¼":6744,"Ġà¤ħà¤®à¤«":7297,"Ġ1913":4158,"à¤¾à¤ĤâĢĮ":7070,"ĠTREE":8782,"......?":8696,"à¤¾à¤Ĥ--":2999,"Cer":6117,"à¤¥à¤ķ":2507,"à¤¹Ê¼à¤ĸ":7129,"à¥Ī+":2103,"ild":2626,"22":1988,"Ġà¤ķÊ¼à¤¯":5619,"Ġà¤Ńà¤¹à¤°":7859,"ĠTree":8779,"Ġà¤Ŀà¤²":9217,"Ġà¤°à¤¹":926,"Ġà¤¦à¤Ļ":493,"Ġà¤ķà¤ŁÊ¼":7474,"Ġà¤®à¤¤":1168,"Ġà¤Ĩà¤¹Ê¼":4259,"Ġà¤ıà¤¨à¤²":4963,"Ġà¤ıà¤¤Ê¼":7376,"Ġà¤Ķà¤¬":8345,"Ġmelod":4256,"Ġà¤Ĩà¤¯à¤¬":4844,"1500":9440,"ĠIVà¤¯":10427,"tivitam":10314,"Ġbits":9039,"à¥Ī........,":6728,"à¤¡à¤ª":3439,"Ġà¤Ĺà¤§":6846,"Ġà¤®à¤²":457,"Ġà¤®à¤ĸÊ¼à¤¬":3186,"à¤¨à¤Ĩà¤ĸ":6562,"N":45,"ĠFair":9625,"à¤µà¤²":443,"à¤¾.":805,"à¤®à¤¨à¤«":7398,"ĠCant":8604,"Ġà¤«à¤¯à¤°":3931,"à¤ľà¤ĹÊ¼à¤¯":6926,"35":2197,"ask":3618,"Ġstory":5728,"Ġà¤¥à¤²à¤¥Ê¼à¤¬":10074,"à¥ĭà¥¤..........":3945,"Ġ.......!\"":5667,"....?":7571,"à¥ĭ.....\"":9772,"à¤ŁÊ¼à¤ĸ":2597,"Ġà¤¥à¤°à¤ĸ":7137,"AT":3256,"round":3284,"alue":5304,"ĠUniver":5811,"Ġmaster":11006,"Ġpoec":8836,"Ġà¤¦à¤²à¤¤":3169,"Ġà¤ĹÊ¼à¤¬à¤¸":8429,"Ġ17":1531,"Ġà¤ıà¤µà¤¸":1797,"à¤¦à¤ª":2217,"à¥Į\"":2363,"à¤Ľà¤µ":8534,"Ġà¤ıà¤¬":374,"Ġ...............":5359,"Ġà¤¥à¤¬à¤¨":2245,"Ġà¤°Ê¼à¤Ĺ":2837,"ust":6477,"Ġ...\"":8519,"à¤¨à¤¹":424,"Ġà¤¬à¤¥":1124,"Ġamong":5842,"Ġà¤ħà¤²à¤¸":1792,"end":1751,"à¤¥à¤ľ":2237,"Ġà¤¬à¤ĸà¤¨":2345,"à¤¥à¤°à¤Ĺ":6962,"à¤ľà¤«":1552,"Ġ1930":4157,"q":80,"OG":6191,"Ġà¤°à¤¤":4915,"à¤¯à¤ĸà¤²":7531,"Ê¼à¤Ĺ":1326,"ĠTaskar":10416,"Ġà¤¸à¤¥":1589,"Ġà¤Ńà¤Ĺà¤¬":3081,"formation":4432,"à¤ĸÊ¼à¤«":2157,"Ġà¤¦à¤¨à¤ľ":4864,"Ġà¤¬à¤ĸÊ¼à¤¹":6683,"Ġmany":10234,"à¤¿à¤Ĥ/":7441,"ASAN":10068,"Ġà¤¶à¤¶":3482,"à¤Ĥ.......":6621,"Ġà¤¹à¤®à¤¹à¤°à¤¨":5656,"à¥ĭà¤Ĥ...?":7065,"diphthong":10169,"Ġà¤ıà¤ķà¤¶à¤¨":8483,"ĠĠĠĠĠĠĠĠĠĠĠĠĠĠĠĠĠĠĠĠĠĠĠĠĠĠĠĠĠĠĠĠĠĠĠĠĠĠĠĠĠ":2174,"à¤¾............":3299,"Ġà¤ıà¤°à¤¬":4961,"à¤Ĩà¤¸":813,"à¤®à¤²Ê¼à¤¨":6806,"Ġà¤®à¤¦Ê¼":2016,"186":9583,"Hum":6158,"Ġley":10274,"Ġbread":10602,"à¥ĩà¤Ĥà¥¤":1636,"am":1290,"à¤®à¤§à¤°à¤ĸ":2608,"à¤ļà¤ķà¤«":8035,"à¤Ĺà¤¥Ê¼à¤Ĩ":8955,"à¥ĭà¤Ĥ--\"":9326,"à¥ĩ......à¥¤\"":10381,"Ġà¤ĸÊ¼":1516,"Ġà¤¨à¤ĸà¤°à¤¥":8147,"Ġà¤Ĩà¤ĸÊ¼à¤¬":5069,"Ġass":5531,"Ġ0020":10813,"Ġà¤®à¤¶à¤²à¤¬":10839,"Ġà¤ªà¤¸à¤¨":4030,"à¤¨à¤¥Ê¼à¤¨":1154,"ĠCaes":8609,"ĠDear":9122,"à¤ĸà¤®à¤ľ":2709,"à¤°à¤¨":307,"Ġtell":4241,"Ġà¤²à¤²":4902,"à¤²à¤°Ê¼à¤ķ":5828,"à¤ĸÊ¼à¤¨Ê¼":8281,"Ġ......à¥¤":9359,"ĠPlayer":5847,"Ġhappiest":11049,"Ġà¤¸à¤°à¤¸":2356,"Ġà¤Ĩà¤ĩà¤¨à¤ľ":8140,"Ġà¤«Ê¼à¤µ":4900,"action":4311,"sion":1896,"Ġà¤ĸà¤«Ê¼à¤ı":4351,"ification":6352,"nsible":6408,"retirement":11010,"Ġà¤¸à¤®à¤¹":2791,"omy":5413,"Đ":204,"à¤Ĺà¤²":646,"Ġsen":2303,"ull":5654,"Ġre":1766,"$_":5998,"à¤¯à¤¹":482,"à¤¦à¤ľ":1186,"Ġà¤¦à¤®à¤¨à¤ĸ":9003,"Ġà¤ħà¤Ĺ":987,"ref":5489,"Ġà¤¹à¤®à¤«à¤²":9730,"Ġà¤²à¤¸":2756,"Ġà¤Ĩà¤ĩà¤¯":931,"Ġà¤Ĺà¤¥Ê¼à¤¯":4099,"à¤£Ê¼à¤¦à¤ĩ":10897,"Ġà¤¸à¤«à¤Łà¤µ":8443,"Ġpeasant":9975,"Ġsevens":10937,"Ġà¤Łà¤®":1873,"à¤°à¤£à¤¯":5624,"à¤¦à¤¸à¤ķ":8882,"ression":10070,"ĠCressida":10914,"à¤¨à¤¹à¤°à¤¨":1102,"à¤§à¤¦":5214,"Ġcradit":8923,"Ġknown":10257,"Ġà¤Ĩà¤ĩà¤Ķ":3115,"....":342,"à¤°à¤¨à¤«":3947,"à¤¡à¤¡":5057,"Nas":6185,"à¤ħÊ¼à¤µ":7886,"Ġoutspo":10529,"elod":4214,"Ġà¤Ĩà¤²à¤Ń":5073,"Ġà¤Ĺà¤¸Ê¼à¤²":8091,"à¥ĭà¤Ĥà¥¤...":7463,"à¤ķà¤¸à¤«":8633,"Ġà¤¡à¤ľ":1090,"Ġsound":8675,"right":3196,"mit":4616,"Ġà¤¡à¤¸":7797,"à¤¿.....à¥¤\"":9870,"à¤ĸà¤¨à¤ĸ":4741,"Ġtragedies":10062,"Ġà¤«à¤ŁÊ¼à¤Ĩ":9161,"Ġà¤Ĩà¤Łà¤¸":7048,"ato":8839,"à¥ģ'à¥¤":6787,"à¥ĭà¤Ĥà¥¤à¥¤":2392,"Ġà¤¬à¤¹à¤¨à¤ľ":8200,"à¤²à¤¯à¤°":6713,"Ġ42":8566,"à¥ĭ":261,"ĠDoctrine":5871,"idioms":9480,"Ġinternal":10454,"Ġà¤²à¤Łà¤ĸ":7208,"evel":5742,"Ġfun":9101,"à¤ĸà¤°à¤¬":6755,"Ġ(<)à¥¤":7669,"233":9740,"à¥ĭ......à¥¤":10123,"à¤¤Ê¼à¤¯":7418,"à¤ł":1426,"Ġà¤ľà¤²à¤²Ê¼":9705,"à¤°à¤®à¤Ń":7718,"ĠAdo":10408,"Ġà¤¬à¤ĸÊ¼à¤«":4713,"Ġtwo":4242,"à¤Łà¤¸":772,"Ê¼à¤²Ê¼":7215,"à¤¶à¤¨à¤¶à¤¨à¤Ĩ":8518,"à¤¾à¤Ĥ.........":7071,"ĠInformation":9851,"à¥ĭà¥¤...]":10075,"Ġvoiced":9948,"à¥Ī..........":4729,"à¤¯Ê¼à¤¨":2094,"Ġ48":8568,"Ġà¤Ĩà¤²à¤¯":4046,"à¤«à¤¬à¤¦":3891,"Ġ7833":4419,"ĠConon":10575,"Ġà¤¨à¤·":3903,"Ġwhom":10055,"ĠWeight":10587,"switch":10797,"Ġà¤¬à¤°à¤¡":5272,"Ġà¤²à¤®à¤ªà¤Ł":10865,"Ġà¤īà¤¦à¤¨":3418,"Ġ??":1800,"Ġà¤ĸà¤·":2520,"Her":6156,"und":3753,"à¤ĸà¤²Ê¼":4740,"Ġpoin":8832,"Ġà¤®à¤¹à¤¨à¤ĸ":5178,"Ġà¤ħà¤¸à¤Ń":4181,"jus":2925,"iz":4599,"à¤¬à¤°Ê¼à¤°":8690,"à¤¶à¤µà¤°":5114,"à¤²Ê¼à¤°Ê¼à¤«":7517,"à¤ªà¤¬Ê¼à¤¦à¤°à¤¨":10883,".....?\"":8476,"à¤°à¤®à¤§à¤°à¤ľ":10893,"à¤µà¤Ĩà¤µà¤¬":5655,"à¤ľà¤®":1668,"ĠTIME":10960,"à¥Į-":650,"Ġà¤Ĩà¤Ĺà¤¸":1175,"ission":2841,"ced":6279,"Ġà¤¹à¤°à¤Ĺ":1351,"à¤¯à¤ĹÊ¼à¤¨":5089,"Ġà¤ĸà¤ľÊ¼":4892,"Ġprvasive":11171,"à¤²Ê¼à¤«":7511,"à¤Ĩà¤²à¤¬à¤¤":8516,"o":78,"enc":1605,"Ġ78":2618,"+":10,"à¥Ī......":2007,"ĠBri":4313,"ĠObser":5867,"Ġgender":5676,"à¤«à¤¬":2021,"à¤ıà¤Ł":8100,"à¤²Ê¼à¤®":1407,".\"":2075,"ke":4605,"ave":2468,"Ġà¤«à¤¥Ê¼à¤¯":7195,"Ġ73":5431,"Ġà¤ıà¤°à¤¸à¤¨":7374,"ĠAnatomy":10227,"à¥ĭà¤Ĥ?\"":7060,"Ġ9954":8869,")-":2905,"à¤Ĺà¤¨à¤ĸ":1349,"Metathesis":6179,"à¤¾\",":3563,"Ġà¤«à¤¸":789,"Ġà¤Ĩà¤¨à¤¦":2024,"à¤¥Ê¼à¤«":2142,"Ġà¤¸à¤¨à¤ľ":2357,"à¤¤à¤¹":3987,"ĠĠĠĠĠĠĠĠĠĠĠĠĠĠĠĠĠĠĠĠĠĠĠĠĠĠĠĠĠĠĠĠĠĠĠĠĠĠĠ":2151,"Ġdraw":5516,"bank":4574,"à¤²à¤Łà¤²":9131,"à¤ħà¤¹":2055,"à¤¬à¤¸Ê¼":1310,"Ġ.......à¥¤":4148,"à¤¹à¤°à¤²":5083,"Ġà¤ķà¤¨à¤·":2172,"...................!":9335,"²":110,"Ġà¤Ńà¤¨":7852,"à¤¤à¤«":1436,"Ġ....!!!":4149,"lend":6375,"ise":4199,"193":8748,"à¤¾?\"":2945,"234":9741,"à¤Łà¤¬à¤°à¤¨":3033,"à¥Ī'à¥¤":5601,"à¤¬à¤°à¤«":2096,"à¤¯à¤®à¤¥":5211,"à¤¸à¤¥Ê¼":6730,"....,":7570,"03703":9908,"à¥Ī,....":7842,"à¤¡à¤ľà¤¨à¤¸":9812,"à¤°à¤®à¤§":7721,"ĠAcid":8708,"Ġà¤Ĩà¤ĸà¤°à¤ĸ":7680,"Ġà¤®à¤ĸà¤¨":6888,"à¤¿:.....":5275,"Ġà¤ħà¤¸à¤²à¤¨":8501,"794":6081,"ĠApp":8705,"à¤ķà¤°":582,"Ġ13":1284,"Ġ................":3554,"à¤¾à¤Ĥ=":3371,"à¤ĸÊ¼à¤ªà¤§":8253,"à¤ĩà¤¯":439,"133":9517,"à¤¾........à¥¤\"":6550,"Ġà¤Ńà¤ª":7857,"Ġà¤ıà¤¬à¤°à¤¸à¤¨":7709,"à¤¿)à¥¤":3593,"à¤¦Ê¼à¤ĸà¤°":8135,"µ":113,"Ġ92":5450,"Ġà¤¨à¤ĸà¤°à¤²":8146,"Ġ1990":5678,"Ġà¤¬à¤ľÊ¼à¤¬à¤¬":10544,"à¤°à¤¯à¤¨":3785,"à¤µà¤Ĺ":407,"ì":168,"ational":4302,"à¤ħà¤°à¤¨":5138,"Ġlive":5823,"tur":6466,"Ġà¤¦à¤®à¤¦":7102,"Ġ1954":8348,"mon":3733,"Ġà¤ıà¤ķà¤ľà¤¨":8481,"Ġ1993":3638,"Ġmesns":8949,"ĠĠĠĠĠĠĠĠĠĠĠĠĠĠĠĠĠĠĠĠĠĠĠĠĠĠĠĠĠĠĉ":4405,"ĠĠĠĠĠĠĠĠĠĠĠĠĠĠĠĠĠĠĠĠĠĠĠĠĠĠĠĠĠĠĠĠĠĠĠĠĠĠĠĠĠĠĠĠĠĠĠĠĠĠ":5549,"à¤¶à¤²à¤¨":4064,"à¤°à¤¹à¤¸":7783,"à¤°à¤«Ê¼à¤¨":5150,"ĠRole":9396,"à¥¤...........":4770,"ă":191,"Ġà¤¸à¤¨à¤ĸ":2983,"U":52,"ould":3542,"à¤Ĩà¤¯":1039,"timent":4154,"ĠLi":4319,"Ġà¤ĸà¤ķ":4885,"Ġtake":5453,"à¤¬à¤ķ":2698,"Ġstraight":9819,"Ġreformation":9830,"od":1216,"Ġà¤°à¤¡à¤¥":10137,"Ġinformation":9313,"Ġà¤ĩà¤¶à¤²":10143,"Ġcut":5470,"à¤¾à¤Ĥ'":7066,"à¤¯à¤Ĩ":3793,"à¤¿........!\"":10287,"à¤§":494,"à¤¸à¤®à¤¨":2009,".)":2907,"à¤¦à¤¸Ê¼":6821,"aneous":8425,"Ġà¤ıà¤¬à¤¸":960,"221":9909,"Ê¼à¤«":1073,"Ġ!\"--":5268,"Ġsatisfaction":10582,"Ġà¤ħà¤·":3401,"ĠDistrib":10622,"Ġà¤īà¤¤à¤ĸ":3419,"ĠLiter":4320,"à¥ģ+":2351,"à¤²à¤¯à¤ľ":6703,"Ġà¤¬à¤°à¤«à¤¸":9724,"à¤ªà¤§":5010,"å":161,"Ġà¤ıà¤ī":7355,"Ġà¤ķà¤¯à¤²":4004,"Ġwe":3584,"atural":3154,"Ġà¤ľà¤®à¤¥":4817,"Ġà¤Ĩà¤²Ê¼à¤ľ":4850,"à¤¸à¤®à¤«":3330,"ĠDATE":5960,"\"(":5993,"ls":6365,"........!":5182,"Cand":6118,"à¤¾à¤ģ":977,"à¤īà¤¹":2398,"Ġà¤¦à¤ĸ":986,"Ġà¤°à¤¸":1327,"hod":6335,"à¤µà¤¸à¤®":7789,"à¤¨Ê¼à¤²à¤ľ":3302,"Ġ....à¥¤'":8326,"Ġà¤ķà¤®à¤¬à¤ķ":2460,"Ġà¤ıà¤ĸà¤®":3543,"-à¥Ĥ,":6032,"163":9558,"Ġvery":2939,"mindful":5922,"Ġ]à¥¤":2282,"à¤Ĺà¤¡":2724,"rey":8980,"Ġà¤ħà¤®à¤°à¤¸":8276,"v":85,"à¥ĭà¤Ĥà¥¤":328,"à¤ŃÊ¼":5120,"anc":2429,"Ġà¤Ńà¤¦":4070,"à¤¤à¤¦":7410,"vious":6488,"36":3696,"à¤¬à¤°à¤Ĺà¤¯":4701,"Ġà¤¬à¤°à¤¬à¤¹":5707,"Ġà¤¡à¤²à¤ª":7808,"Ġà¤ıà¤°à¤ĸà¤¨":9069,"ĠEdit":9412,"Ġdiscord":10442,"à¤ªà¤¦à¤®Ê¼à¤§à¤°":10884,"Ġperfumes":11182,"mation":6388,"Ġà¤ģ,":9835,"Ġà¤¬Ê¼à¤¨Ê¼à¤Ĩ":10186,"Ġà¤Ĩà¤ĸà¤²à¤²":8384,"à¤īà¤¯à¤°":3049,"à¤ķà¤¸":754,"der":4579,"à¤Ĺà¤¯":2233,"»":119,"à¤Ĺà¤Ĩà¤µ":6932,"ia":2671,"à¤·à¤¦":1876,"Ġà¤ħà¤¦à¤²":4939,"Ġ161":9367,"e":68,"Ġhands":9175,"Ġà¤īà¤¨à¤ĸ":3436,"Ġà¤²Ê¼à¤¨à¤ľ":9509,"Ġà¤¤à¤²à¤¬":8057,"forming":10170,"à¤¯à¤¤à¤°":4686,"Ġar":1474,"à¥ĩ:,":5292,"Ġà¤¸Ê¼à¤²":4784,"Value":6243,"Ġà¤Ĺà¤®à¤¦":6844,"Ġ:(":7519,"Ġà¤¸à¤®à¤²Ê¼":5041,"Ġà¤¬à¤°à¤«à¤¬":4371,"Ġà¤¡à¤£":7802,"ĠB":1108,"à¤ıà¤¶à¤¨":8107,"103":9246,"Ġà¤ħà¤¹":1047,"Invent":10020,"à¥ĩ..à¥¤":4720,"leak":5449,"à¥ģà¥¤'":8529,"Ġà¤Ĩà¤ĩà¤¨à¤¨":1882,"Ġà¤ħà¤®à¤°à¤¬":8275,"à¤²à¤¦à¤¨":2958,"à¥¤'":1086,"à¤¾à¤Ĥ;":3370,"ĠĠĠĠĠĠĠĠĠĠĠĠĠĠĠĠĠĉ":9643,"relative":10269,"Ġenemy":10271,"à¤ĸà¤°":606,"à¤¹à¤¬à¤Ĺ":7127,"à¥Įà¥¤":372,"ĠSeptember":2318,"à¤²à¤°Ê¼":2956,"à¤«à¤¸":1669,"à¤ĹÊ¼à¤¬à¤¨":9012,"Ġà¤«à¤ķà¤²":7186,"à¤¨à¤¸à¤¦":7390,"Ġ.....":1058,"à¤¯à¤¸Ê¼à¤¹":7637,"Ġà¤¹à¤®à¤¨":488,"istration":4383,"........à¥¤\"":2576,"ĠTYPE":8786,"ĠImm":8887,"Ġ?\"]":7745,"Posi":3713,"sical":6451,"à¥ĩà¤Ĥ.......à¥¤":7578,"Ġimpos":10526,"Ġno":2636,"rece":5490,"à¤ľà¤°à¤Ń":6920,"Ġà¤¸à¤¬à¤ľ":3344,"à¤Ĺà¤°à¤¨":1783,"Ġà¤ıà¤®à¤¨":1796,"IT":4533,"à¤Ĺà¤Ĩ":4802,"à¤°à¤®Ê¼à¤¦":7725,"ę":213,"à¤¡à¤ľà¤ĸ":7626,"Ġwas":3585,"Ġà¤ħà¤°Ê¼":4938,"03":1987,"Ġà¤¹à¤®à¤ľ":1072,"01":2909,"Ġempire":5773,"Å":129,"Ġà¤¸à¤²Ê¼à¤ľ":1810,"Singleness":6233,"tists":10903,"à¤¿(":2693,"\".":3237,"Ġà¤īà¤ªà¤ķ":9567,"61":2463,"Ġroyal":5790,"à¤Ĩà¤¬Ê¼à¤µ":8373,"Ġmenuà¤Ĩ":10434,"ist":1822,"asant":9259,"ĠU":1613,"88":3705,"eace":4588,"à¤¿..............":6578,"à¤¨à¤¸à¤¹":7392,"à¤ħà¤¶Ê¼à¤ķ":7895,"ume":9917,"à¤·à¤¨":1334,"Ġà¤¬à¤¯à¤¨":740,"ĠĠĠĠĠĠĠĠĠĠĠĠĠĠĠ":1144,"à¤Łà¤¸à¤¤à¤°":8689,"à¤Ĺà¤°à¤ĸ":4803,"Ġà¤¹à¤°Ê¼à¤«":7023,"inct":8234,"à¥Ĥ:)":9426,"à¤ĩà¤¦Ê¼à¤¨à¤Ļ":8322,"Ġà¤¦à¤¬":1244,"PC":4546,"Ġà¤¨à¤ĸÊ¼à¤°à¤«":5748,"Ġà¤ľà¤ĸ":742,"Ġà¤Ĩà¤¬à¤¸":2053,"à¤¨Ê¼à¤¨":3301,"Ġ>":956,"ing":1133,"Ġà¤«à¤¨à¤«":7178,"Ġalso":10177,"à¤ħà¤ĸà¤¨":7888,"Ġà¤ĹÊ¼à¤¹":4174,"à¤ĩà¤°à¤®":7228,"ASC":10067,"132":9516,"Ivanho":10735,"à¤°à¤ŁÊ¼à¤ķà¤²":5927,"Ġà¤ħà¤¸à¤®":783,"Ġà¤ķà¤²à¤Ĺ":4092,"Ġprose":4393,"DO":6128,"Ġà¤ªà¤ľÊ¼à¤µ":2262,"Pur":6205,"à¤¬à¤¥Ê¼à¤¨":6646,"ĠDanc":9120,"ĠChanticler":10666,"Ġà¤ľà¤¥Ê¼à¤¦":9807,"Ġà¤¨à¤²à¤·":10132,"Ġà¤®à¤¹à¤¤":7980,"orthograph":10317,"à¤¹Ê¼à¤¸":7131,"Ā":188,"Humphrey":10733,".":13,"Ġà¤ĩà¤Ľà¤°Ê¼à¤¨":5802,"400":6065,"à¥Ī....\"":9773,"ĠRemenber":10634,"Ġmy":2859,"Ġà¤¥à¤²Ê¼":3007,"à¤¿:...à¥¤":8311,"à¤ķÊ¼à¤¨Ê¼à¤ľ":10870,"Ġà¤®à¤²Ê¼":6880,"à¤µà¤¬à¤¬":7659,"à¤¸à¤¥":1718,"à¤®":276,"ome":2610,"Ġà¤¬à¤¹à¤°":1915,"à¤¬à¤²à¤¨":3802,"130":6046,"ĠPARAM":10967,"541511":9943,"Ġà¤ĺÊ¼à¤¸":8362,"Ġà¤¦à¤¹":768,"à¤Łà¤°à¤ĸ":2531,"Ġà¤¨à¤°à¤ĸà¤¨":5930,"à¤²à¤¦à¤¹à¤¨":8334,"Ġà¤ľà¤²Ê¼":3880,"à¤¨Ê¼à¤¸":8986,"81":3704,"ò":174,"Ġà¤Ĺà¤¥à¤¬":8593,"Ġcont":8914,"à¤ĩà¤ľà¤ĸ":5074,"MS":2663,"Ġà¤¹à¤¸":958,"Ġ2001":4160,"ortality":10148,"à¤°à¤®à¤¦":2802,"à¤µà¤Ł":4746,"Ġà¤¨à¤°à¤¸":3373,"à¤·à¤¦à¤¨":1640,"à¤Ĩà¤ĸà¤²à¤¨":8494,"Ġinform":9311,"ĠAugu":1417,"Ġcap":5469,"ship":5800,"Ġà¤Ĺà¤°à¤¸":1278,"ĠHITAC":5965,"¶":114,"à¤¾....\"":5642,"Ġà¤²à¤ķà¤ĸ":7210,"ĠRakhau":5973,"à¥Ī...\"":9873,"Ġtraditions":10470,"Ġà¤Ĩcomplex":10848,"ĠGobinda":11071,"ĠAnarchist":11152,"à¤µà¤§à¤°":6780,"Ġà¤ħà¤°à¤ľ":1281,"Ġà¤¸à¤¹à¤°à¤ĸ":8245,"à¤Ĥ..":3315,"MBER":6180,"ream":8981,"Ġ?\"-":7744,"à¤¯à¤ĸÊ¼":1226,"Ġà¤ĸà¤¬Ê¼à¤¨":9000,"ĠThank":9974,"Ġà¤Ĺà¤Ĺà¤²":1240,"¾":122,"ariet":8511,"Ġà¤°à¤ĹÊ¼à¤¦":4413,"Ġà¤Ĩà¤Ĺà¤°à¤µ":2415,"enry":3533,"Ġunder":4385,"à¥ĩà¥¤'":5264,"ĠSubplot":10324,"India":5910,"à¥":257,"Ġà¤ħà¤Ĺà¤¤":9139,"Ġlanguage":9600,"7":22,"ĠTragical":10096,"Ġà¤¶à¤ĩà¤Ĺ":8011,"Ġà¤°à¤¯à¤¸à¤®":10556,"Ġ,":1023,"Ġ!...":3429,"à¤¤à¤°à¤¨":1522,"à¥ĭ...\"":3214,"Point":10498,"à¤ĩà¤Łà¤¸":8505,"Ġà¤ıà¤²":712,"Ġà¤ıà¤¦à¤Ń":9841,"Ġà¤²à¤®à¤ªà¤¤":10134,"à¤°à¤¦Ê¼à¤¯":7820,"Ġà¤°à¤¥Ê¼à¤¬":9464,"velope":10122,"à¤ªà¤Ł":1945,"Ġà¤®Ê¼à¤¹":2719,"Ġarran":5688,"its":8898,"Ġk":1579,"ĠCri":4196,"à¥Ī:":2104,"Ġg":1450,"à¤ľà¤ĸ":591,"à¤Ļà¤ķ":7260,"à¤¿'(":8790,"Ġà¤Ĺà¤µ":1348,"Sy":4556,"mm":4614,"ĠPublication":5947,"arted":8512,"ĠHebilder":11175,"Ġà¤Ĩà¤¬":414,"Ġsee":5881,"Ġà¤ļà¤£":3097,"ĠMy":5501,"2381511":10648,"Ġà¤Ĩà¤¹Ê¼à¤®à¤¨":10435,"15":1232,"emist":9225,"emed":9224,"Ġà¤ĸÊ¼à¤Ĺ":7166,"Ġ)à¥¤à¥¤":8042,"à¤¦Ê¼à¤ĸ":1568,"2380624":11113,"Ġserous":10157,"Ġà¤®à¤¦à¤¦à¤Ĺ":2834,"irit":3637,"mail":4617,"à¤µà¤²Ê¼à¤¨":9133,"Ġà¤Ĩà¤Ĺà¤¯":3088,"à¥ģà¤Ĥ\"":3948,"à¤®Ê¼à¤µ":4759,"Sc":6223,"à¥ĭ.....à¥¤\"":5718,"à¤¬à¤Ĺ":546,"Ġ200":625,"à¤¥Ê¼à¤¹":2800,"à¤¿}":3304,"à¥¤.................":6833,"ĩ":229,"à¤²à¤®à¤¨":3816,"Ġ370":8454,"Ġà¤®à¤¥à¤¨":5508,"Ġà¤¸Ê¼à¤¯":6874,"ĠDancing":11044,"ĠMarriage":10439,"à¤°à¤ĹÊ¼à¤¨":1050,"à¤ľà¤²Ê¼":6904,"Ġà¤²à¤ĸÊ¼":1398,"h":71,"à¤«à¤°à¤¨":4836,"à¤Ĩà¤Ĺ":1523,"Ġare":1758,"à¤¥à¤²":823,"à¤¾...?":9547,"Ġdirection":5886,"Ġ140":9487,"'à¥¤\"":6001,"à¤¦à¤¹":1667,"oe":4623,"à¤īà¤¨à¤¨":1736,"à¤¾:à¥¤":4141,"71":4502,"Ġà¤«à¤ķ":4899,"Ġà¤²à¤ķà¤¸à¤Ń":5877,"à¤¹Ê¼à¤¬":7128,"à¤®à¤£à¤ĸ":9922,"Ġà¤¨à¤ĸà¤°à¤¨":792,"à¤Łà¤²à¤¨":3962,"à¤°Ê¼":340,"176":9573,"Ġà¤ªÊ¼à¤Ĩà¤¸":10210,"146":9649,"rail":4204,"Ġà¤¦à¤®à¤¯à¤¨":3574,"Ġà¤¸à¤°à¤ĸ":1055,"Ġà¤¨Ê¼à¤«":2573,"à¤¶à¤¨à¤«":5113,"à¤¼à¤¾-":5254,"Ġface":9098,"à¤ħà¤Ń":2412,"morphology":10790,"Ò":142,"à¤¾/":1451,"Ġà¤¨à¤¹à¤¬Ê¼":10039,"Ġà¤ħà¤ĸà¤¨à¤¬":2420,"à¤ľà¤Ĩ":3868,"Ġà¤Ńà¤²":2410,"Ġà¤¦à¤¸à¤°":5235,"ĠInter":2647,"à¥ĩ...à¥¤":4718,"Ġà¤ªà¤²à¤¬":7596,"Ġà¤ħà¤¬Ê¼à¤¬à¤Ł":10899,"Ġà¤ĸà¤°Ê¼à¤ĸ":1042,"ĠHamlet":11056,"Ġà¤īà¤¨à¤ľ":4033,"Ġà¤ħà¤°à¤¨":965,"Ġà¤īà¤¨à¤¨":928,"à¤¨à¤®à¤¥":3770,"isk":4200,"à¤ĸà¤°Ê¼":2214,"à¥Į--\"":7005,"ĠLove":5579,"ĠPur":8805,"à¤¬à¤¨":344,"Ġà¤®à¤²à¤¯":7990,"à¤®à¤¨Ê¼":3039,"à¤¹à¤°à¤«":1808,"à¤ļà¤¨à¤¨":2580,"à¥ĭ.........":3777,"ĠClear":5879,"à¤µà¤¶":6770,"1826":9587,"à¤¬à¤µà¤¨":6633,"iatimes":10786,"David":6135,"Ġà¤°à¤ľÊ¼à¤Ĺ":4167,"Ġà¤¬à¤¹à¤¨":2060,"Ġseemed":10403,"à¤ĩà¤Łà¤°à¤ĸ":8506,"à¤¬à¤ĸÊ¼à¤¨":1881,"Ġà¤¬Ê¼à¤¥":4709,"ons":2832,"à¤Ĥ.................":6629,"Ġà¤«à¤¥Ê¼à¤ĸ":7196,"Ġà¤Ĺà¤°à¤§":8767,"à¤ľà¤¬à¤°à¤¦à¤¸":9923,"Ġà¤¦à¤°à¤®Ê¼à¤¹":10389,"stract":5481,"ess":1148,"ouge":5325,"ds":6295,"à¤¾....à¥¤":4346,"à¤ķà¤Ł":863,"ĠAdonis":10410,"à¤¯à¤¥Ê¼à¤¦":2856,"ĠĠĠĠĠĠĠĠĠĠĠĠĠĠĠĠĠĠĠĠĠĠĠĠĠĠĠĠĠĠĠĠĠĠĠĠĠĠĠĠĠĠĠĠĠĠĠĠĠĠĠĠĠĠĠĠĠĠĠĠĠĠĠĠ":1176,"ĠAssociation":4417,"Ġà¤ķà¤°à¤¨":7467,"à¤¬à¤°à¤Łà¤°":8053,"Ġnational":9228,"à¤¦à¤¹à¤°à¤¸":9776,"sics":10800,"ens":5306,"ĠWondows":10949,"Ġà¤ĺà¤¤":8358,"Ġà¤¹Ê¼à¤®":3172,"à¤¯à¤¸Ê¼à¤¨":4038,"Ġà¤Ĺà¤¥Ê¼à¤®":5185,"Ġà¤ĹÊ¼à¤¸":954,"Ġà¤¬à¤ķ":1139,"236":9743,"Ġà¤ľà¤¥Ê¼":1723,"inglen":5583,"ĠSyllable":10090,"à¤¡à¤ķ":2796,"188":9585,"à¤°à¤«à¤¬":7903,"à¤°à¤¤":554,"rust":4369,"Ġà¤ĩà¤Ľ":2554,"à¥ĭà¤Ĥ-\"":8171,"Ġinfancy":11081,"Ġà¤ªà¤¸à¤ĸ":7595,"Ġ1975":9614,"à¥ĭà¤Ĥà¥¤'":2042,"à¤ħà¤ªà¤®":4387,"Ġà¤Ķà¤°à¤¸à¤¯":3671,"à¤ĸÊ¼à¤Ļ":4137,"Machines":11193,"à¤īà¤²à¤ĸ":5020,"Boy":6112,"à¤°à¤ķÊ¼à¤Ł":5895,"ppo":6428,"Ġbusy":11016,"à¤¾à¤Ĥ........?\"":10849,"Candide":10715,"Ġgu":4654,"Ġà¤¤à¤°à¤«à¤¦":5210,"alf":4175,"à¥Į..........à¥¤":7013,"ors":5318,"à¤¯à¤Ĩà¤µ":3313,"Ġà¤«à¤¹à¤°":7175,"à¤µà¤ĸÊ¼à¤Ĩà¤°":5859,"4074":10066,"à¤Łà¤µ":1209,"à¤īà¤¨à¤²":5017,"YOG":6251,"Ġà¤ĩà¤¨à¤«à¤°à¤®":1150,"à¤¡à¤°":1950,"Ġà¤ħà¤µà¤Ĺ":7296,"à¤¶à¤Ĩà¤µ":7813,"à¤Łà¤ļ":7320,"à¤Łà¤¥":3956,"ominal":3572,"Ġreserv":10280,"ĠPrivatis":10333,"Ġà¤Ĺà¤°à¤®":1028,"à¤¤à¤²":1942,"Ġbre":5494,"à¤¤à¤¸":1632,"Ġidealistic":10258,"à¥į-":3805,"oman":4218,"ĠTo":2612,"à¤Ĥ..........à¥¤":6631,"alify":8441,"à¤²Ê¼à¤Ĩà¤ľ":7516,"à¤°à¤®à¤¸":7713,"à¥Ģ-[":5343,"Ġà¤¹à¤ľ":706,"à¤²à¤¨à¤¬":6702,"à¤²à¤¦à¤²Ê¼":8333,"............":1602,"32":3695,"¦":99,"Ġpro":2070,"à¥ģ=":2969,"ĠCRA":4198,"esis":3529,"à¤ľà¤Ĩà¤µ":6908,"ticism":9669,"Ġà¤²à¤®":2757,"ĠPROMP":4225,"à¤¹à¤¯à¤¥Ê¼à¤¦":7133,"à¤ĹÊ¼à¤²à¤¯à¤¡":9664,"Ġà¤²":299,"à¤ħà¤®à¤°à¤¨":5634,"à¤ĶÊ¼":5374,"à¤ĸÊ¼à¤²":2710,"Ġà¤ĩà¤¨à¤ŃÊ¼à¤ĩà¤¸":10310,"à¤¹à¤°à¤Ĺ":1742,"ĠĠĠĠĠĠĠĠĠĠĠĠĠĠĠĠĠĠĠĠĠĠĠĠ":708,"Ġà¤ıà¤¡à¤®":3634,"Ġà¤®à¤¤à¤²à¤¬":4326,"à¤ĸà¤°à¤«":4744,"à¤¯à¤¨à¤¯":7262,"Ġsoft":8678,"à¤Ĺà¤Ľ":6939,"me":2325,"à¤ĵà¤¨à¤¦":3536,"Ġà¤¸à¤ª":1114,"liqu":6384,"Ġholy":9177,"Ġà¤ıà¤²à¤¬":2601,"à¤Łà¤¸à¤¨":3031,"Ġà¤ľÊ¼à¤°à¤ľà¤¬à¤°à¤¦à¤¸":8318,"à¤®à¤¨Ê¼à¤Ĺ":7402,"à¤Ĺà¤¯à¤°":6943,"Ġà¤¹à¤°à¤®Ê¼à¤¨à¤ĸ":9637,"à¤¯Ê¼à¤¤":5637,"Ġà¤īà¤ĸà¤²":8846,"Ġà¤ªà¤°":934,"Ġà¤«à¤ŁÊ¼à¤ĸ":1576,"ble":2918,"à¤°à¤ĹÊ¼à¤Ĩ":9165,"à¤®à¤§à¤°à¤¨":1468,"Ġsentimental":5899,"Ġà¤ħà¤®à¤²":899,"Ġ1228":5446,"à¤ļà¤°à¤¨":5197,"190":8745,"Ġ?)":4979,"ĠNothing":9906,"Ġà¤ıà¤ĩà¤ĸà¤¨":10561,"Ġà¤¸à¤®à¤®":2790,"à¤¾''":3128,"à¤¨à¤¸à¤®":3981,"tist":8337,"olland":8978,"av":2667,"ĠClink":10042,"à¤Łà¤«":1191,"Ġmistakes":11004,"Ġà¤«à¤ŁÊ¼à¤µ":3224,"à¥Ī~":6715,"ĠĠĠĠĠĠĠĠĠĠĠĠĠĠĠĠĠĠĠĠĠĠĠĠĠĠ":2600,"Labio":10493,"Ġà¤°":303,"Ġà¤Ńà¤Ĺà¤¤":10568,"india":5447,"à¤²à¤¸à¤ĸ":4127,"à¤ĸà¤®à¤¬":6758,"1993":9971,"Ġà¤ıà¤¥Ê¼à¤¦":7377,"Ġx":4650,"à¤ľà¤¤":1432,"Ġà¤Ńà¤ķà¤¤à¤¨":5803,"land":6370,"Ġà¤ĩà¤īà¤ľ":2555,"783370":10262,"Ġà¤¸à¤ĸà¤¨":6867,"à¤°à¤²à¤ķ":7753,"Ġes":4652,"Ġà¤¨à¤²à¤¦":7085,"à¤ľà¤¯à¤ķ":5725,"Ġà¤Ĩà¤«à¤ĸÊ¼":7777,"Ġ300":4177,"à¤°à¤¤à¤¨":869,"Ġmuch":8944,"à¤£à¤¨":5145,"Ġà¤Ĩà¤¶à¤«":9779,"(":7,"à¤ĩà¤ķÊ¼à¤²à¤ľ":3514,"Ġdesire":9091,"87":4510,"à¤Ĩà¤īà¤¤à¤ª":10877,"Ġà¤°à¤ĸà¤®":7253,"à¤ĸÊ¼":574,"ut":1542,"à¤ħà¤¨":681,"Ġà¤¥à¤°à¤¸":1860,"Ġ652":8909,"à¤Ĩà¤¦à¤¬":3993,"ĠDavid":5530,"à¤°à¤§à¤°":6599,"ď":203,"Ġà¤ıà¤°à¤¸à¤¨à¤¬":9606,"Ġsecurity":10328,"à¤®à¤¨Ê¼à¤®à¤¹à¤¨":10205,"Ġsol":5386,"Ġsurdden":10940,"Ġà¤ĩà¤Ń":7648,"ĠChemistry":11149,"à¤°à¤®à¤ľà¤®":7724,"Ġà¤ħà¤°à¤ľà¤¬à¤¨":9483,"Ġlonger":11103,"Ġà¤ħà¤§":2251,"ĠRhodes":11092,"47":3244,"ĠC":739,"ue":2934,"Pil":4548,"Ġ!........":7524,"à¤µà¤ĸà¤°":7793,"Ġà¤ıà¤ķà¤°":3972,"à¤ŁÊ¼à¤Ĩà¤µà¤®":10396,"Ġà¤ıà¤°":538,"Ġà¤Ĩà¤°Ê¼":3399,"Ġà¤¹à¤¬":1056,"Ġspecialised":3692,"ĠTWW":4221,"Ġà¤¹Ê¼à¤¸":3171,"Ġà¤¬à¤«":4702,"à¤¼'":5253,"Ġà¤¦Ê¼à¤«":5537,"Ġà¤¦à¤®à¤¨à¤¨":1254,"à¤¬à¤ķà¤¸":4700,"à¤¬à¤°à¤¦":6638,"Ġà¤¹à¤Ĺà¤°":8316,"206":9540,"Ġ105":8713,"ĠStepmother":9795,"Ġà¤¸Ê¼à¤«":2718,"Ġà¤ĸà¤¤":2752,"à¤¾à¥¤\"":502,".....!":3131,"6706":10699,"(<)":10693,",\"":6017,"Ġà¤īà¤ĩà¤ķà¤²":9963,"windpipe":10810,"Ġà¤ĸà¤«":1004,"ace":1756,"à¤ľà¤¨à¤¨":2359,"Ġmultivitam":11003,"à¤¾.........":4660,"urity":5599,"ipl":6353,"ª":103,"Ġà¤°à¤ĸÊ¼à¤°":7251,"Ġà¤¹à¤°à¤²Ê¼":8020,"erville":10312,"à¤¹à¤°à¤¸":4871,"otation":9114,"ĠGlax":5574,"BA":6107,"Ġà¤¨Ê¼à¤¸à¤ķ":9532,"5":20,"à¤¯à¤«à¤²":3082,"63":6069,"à¤ŁÊ¼à¤Ĺ":5313,"à¤®à¤ĸà¤°":7973,"ag":3264,"pen":3743,"Ġcan":3161,"à¤®à¤ī":1321,"à¤īà¤¤":5016,"à¥ĭà¤Ĥ...à¥¤":4852,"à¤¬à¤Ĩà¤µ":2953,"Ġà¤®à¤¨Ê¼à¤°Ê¼à¤¨":9269,"à¤Ĩà¤Ŀ":7431,"à¤ħà¤®à¤²":3471,"954":6086,"ove":3742,"à¤ħÊ¼à¤ķ":7890,"Ġà¤¹à¤°à¤¹":2729,"Ġhap":9167,"pand":6423,"Ġpoc":8828,"Ġà¤®à¤¹à¤°à¤¥":2277,"à¤ıà¤¨à¤²":2153,"ĠYou":2642,"otion":2326,"Ġà¤¹à¤ª":2238,"ns":3735,"\"--":5994,"Ġà¤Ĺà¤Ĺ":831,"Ġà¤¸à¤¨à¤¦à¤¨":9997,"Ġà¤¦à¤ĸà¤°à¤¸":1978,"à¤ķà¤ĸ":883,"Ġcoun":5471,"Hy":6155,"à¤ĩà¤µ":7226,"à¤¦Ê¼à¤¬":4120,"rend":6434,"à¤¿.........":4677,"à¤¦à¤²à¤¸à¤Ĺ":8069,"Ġà¤ħà¤®à¤°":1815,"à¤ĩà¤®Ê¼à¤ļà¤¨":8526,"127":9460,"opatra":9718,"ĠPharm":5946,"183":9580,"Ġser":2847,"à¤²à¤Ĩà¤µ":2702,"Ġ..............":2838,"pon":6420,"à¤¦Ê¼à¤°":8130,"Ġ10795":8715,"ĠT":821,"lete":8862,"Ġà¤¬à¤¯à¤ĸ":1185,"punctuation":10795,"à¤ĸà¤ľ":2492,"à¤ļà¤°à¤ķ":8036,"ĠOb":3628,"Ġà¤ħà¤®à¤°à¤¨":2424,"Ġà¤¬à¤°à¤¦à¤²":2892,"Ġà¤Ĩà¤²":366,"Ġà¤¹à¤¬à¤²":4831,"Ġ.....à¥¤\"":2183,"Ġà¤ħà¤ĩà¤¥":7299,"Ġà¤¨à¤°à¤¹à¤Ĩ":10199,"iv":1994,"Ġdial":5514,"ĠPub":5428,"akesp":5751,"rtle":6439,"Ġà¤¹Ê¼à¤®à¤¨":3173,"ĠGull":9292,"à¤¶à¤ĸ":2143,"à¤°à¤¸Ê¼à¤¹":7609,"à¤¾à¤Ĥ-":536,"à¥į.........!":6654,"ĠCain":8601,"à¤Ĥà¥¤'ï»¿":10144,"Ê¼à¤¦":3017,"ra":747,"BM":1759,"à¤¼à¥Ģ-":8228,"à¤µà¤Ĩà¤µà¤¨":6778,"ĠFrailty":9622,"à¤¡à¤ľ":1738,"ð":172,"ociation":4375,"à¤¥Ê¼à¤Ń":7673,"à¤¸Ê¼à¤¨à¤¨":3143,"Ġenvelope":10272,"51":4497,"Ġà¤Ĩà¤®à¤²":2738,"Ġ24":1146,"à¤®à¤¥à¤¨à¤Ĺ":8064,"à¤¤à¤ª":2127,"Ġ205":4272,"Ġtheorist":8850,"Note":6188,"Ġà¤ĩÊ¼":7647,"Ġà¤¸à¤°à¤®":3856,"Ġà¤¦à¤¤":2514,"ĠSh":3148,"ĠMar":4275,"à¥Ī................":6722,"Ġ29":1878,"à¤ªà¤²":2397,"à¤¿-}:":4083,"Ġà¤¨à¤°à¤¬":7082,"ĠCl":2437,"Ġà¤¸Ê¼à¤µ":3860,"ĠMay":9049,"owel":2169,"Ġà¤§à¤®à¤¨":3489,"à¤°à¤Ĺà¤²":3454,"à¤Ĩà¤ĩà¤²":7427,"à¤Ĥ..........!":10536,"ĠMagnum":10611,"ĠBackspace":11067,"@":31,"Ġà¤¨à¤®":854,"ile":2673,"à¤¯Ê¼à¤Ĩ":9525,"erbal":8264,"dao":4582,"Ġmaterial":8945,"à¤®à¤¨à¤ľ":3038,"ĠWoman":5411,"iloquy":1834,"ĠGO":9285,"à¤¨à¤ľà¤¦":7675,"Ġà¤¥à¤¤":7135,"Ġà¤Ĺà¤«à¤¬à¤¦":9728,"GUI":6153,"Ġà¤Ĩà¤¬à¤¹":1173,"à¤¾'à¥¤":1819,"à¤Łà¤°Ê¼":7316,"à¤¦à¤²":490,"à¥¤.......":3337,"à¤ªà¤£":7486,"à¤¾',":1748,"à¤ľà¤²à¤Ĺ":2232,"Ľ":249,"Ġà¤ĸà¤¨":520,"Ġà¤ĵ":353,"Ġà¤ħà¤¬":454,"à¥ĩà¤¼":4715,"Ġà¤Ĩà¤Ĺà¤ľ":5166,"Ġà¤Ĺà¤°à¤²":3847,"ioms":6358,"Ġà¤¬à¤¨à¤Ĺ":6659,"Ġmission":8941,"Ġtrailing":10100,"à¤ĭà¤£":10182,"à¥Ī,":411,"ĠOper":9502,"Ġà¤Ńà¤ľ":5127,"à¤¯à¤«à¤²à¤ĸ":7880,"Ġà¤¬à¤°Ê¼":369,"à¤ľà¤¯":1721,"Ġà¤¹à¤¯à¤¸":7018,"Ġme":1646,"à¤°à¤¬à¤¨à¤¨":4020,"Ġà¤®Ê¼à¤¹à¤°":3652,"rict":4632,"à¥Īà¤Ĥ":6716,"à¤¥à¤µà¤¸":6963,"à¤¿.......":4676,"ĠUnemp":10109,"à¤ĩà¤¨à¤«à¤°à¤®":5726,"...\"":2279,"Ġà¤Ĺà¤°à¤¹à¤°à¤¨":6852,"Ġplease":5884,"à¤°Ê¼à¤°à¤ªà¤¤":2461,"b":65,"à¤²Ê¼à¤¸":1161,"ú":182,"104":9247,"Ġassimolation":10668,"Ġà¤¦à¤¯":1046,"à¤ĸà¤¥":1070,"à¤¦à¤°":516,"Ġà¤²à¤Ĺ":1057,"à¥ĥ:":4159,"1924":8752,"Ġà¤ħà¤¨à¤«":1627,"Ġà¤Ĩà¤¶":1671,"Ó":143,"à¤ħà¤ī":1957,"à¤ķÊ¼à¤ľ":7350,"à¤Ĩà¤¬à¤µ":8371,"à¤°à¤¹à¤°à¤¦":1773,"Ġquality":5851,"ĠRegister":11087,"ower":8698,"Ġà¤ĹÊ¼à¤¥":2162,".........à¥¤\"":2630,"à¤ķà¤¨à¤¨":3965,"Ġà¤ªà¤·":2793,"Ð":140,"ly":4606,"à¤¬à¤²à¤ľ":5251,"ber":1342,"à¤ĩà¤ķà¤«":5267,"Ġà¤¸à¤¨à¤¸":3854,"Ġà¤¦à¤°à¤ľ":725,"Ġà¤¸à¤²Ê¼à¤µ":698,"Ġlight":9595,"ism":4201,"Psychological":11195,"ĠScene":3233,"Ġà¤ħà¤ŁÊ¼à¤¬":5777,"Ġappo":9145,"à¤°Ê¼à¤ĸ":1463,"´":112,"laiyn":10365,"rag":1498,"cc":2082,"à¤Ĥà¥¤à¥¤":5116,"Ġ27":1533,"heritor":6339,"Ġà¤ħà¤¹à¤Ļ":9232,"Ġ................!!!":10318,"ĠDrama":9121,"Ġà¤²à¤¬":3933,"Umlaut":6237,"Ġà¤ıà¤¤à¤ľ":7375,"Ġà¤ªà¤ľÊ¼":2141,"Ġà¤ľà¤¯à¤¤":5371,"153":9433,"D":35,"rams":9568,"]à¥¤":6253,"à¤¯à¤¸à¤Ļ":7633,"à¤¥à¤°à¤«":4811,"à¤¨à¤¡à¤ĸ":6566,"à¥ģ]":6782,"ĠHealth":11058,"Ġà¤ıà¤¸à¤ª":7762,"à¤¾à¤Ĥ:":4853,"974074":10263,"Ġà¤ķà¤¹":2393,"à¥Ī,-":4068,"Ġà¤Ĺà¤«à¤¬à¤¨":3850,"à¤¾à¤Ĥ\"à¥¤":7075,"à¤¤Ê¼à¤ĸ":4988,"Ġà¤Ĩà¤¯":540,"Ġà¤¬à¤¨":612,"à¤ĩà¤īà¤°Ê¼à¤ª":9808,"phthong":4377,"Ġà¤ľà¤¯à¤«à¤²":3885,"Ġà¤¸à¤°à¤¦":3858,"Ġà¤Ĩà¤¸à¤¨à¤¨":7916,"à¤¾à¤Ĥ..........":7072,"Ġà¤īà¤µ":1357,"ĉ":197,"singular":10798,"ĠPerforming":10589,"à¤¿à¤Ĥ..............":7448,"à¤ľà¤²":2502,"Ġmov":8943,"Ġ1973":9613,"à¤¨à¤Ĺà¤°à¤¨":7773,"Ġà¤¥à¤ĸà¤¨à¤ĸ":10000,"à¤ĩà¤Ĺà¤¨":7232,"Ġhoweaver":11055,"*********":4388,"Ġ98":2177,"Ġ!\"....":8285,"Ġà¤¸à¤®":341,"ĠChrist":10218,"Ġà¤ĩà¤ļà¤¨":7652,"à¤ľÊ¼à¤ĸ":4244,"à¥Į--":2508,"Ġà¤ľà¤¬à¤ĸ":6984,"à¤ĸà¤ªà¤¤":6765,"à¤¨à¤¹à¤¯":7900,"********":1982,"Ġà¤Ĩà¤°à¤®":2034,"à¤Ĺà¤²Ê¼à¤ĸ":6946,"ER":3257,"atis":3663,"Ġà¤Ĩà¤ĸà¤²":640,"Ġà¤ıà¤ķà¤¤":5324,"lory":6377,"ill":1830,"Ġobjective":8641,"Ġcanning":10233,"à¤®à¤ĩ":4756,"à¤ĩà¤¡à¤°à¤ĸ":9404,"Ġà¤¦à¤«":1556,"à¤«à¤²":3888,"197":2442,"ernal":8265,"Ġsetting":10935,"à¤¡à¤¯":7613,"à¤¸à¤ķ":2008,"Ġà¤Ĩà¤¸Ê¼à¤¨":7918,"syntax":10804,"à¤«à¤Ł":1670,"à¤¡Ê¼à¤²":4035,"Ġà¤¨à¤ĸà¤²":2421,"Ġà¤īà¤°à¤¬":7455,"ĠArabia":8711,"à¤ĸ":273,"Ġà¤ĸà¤¨à¤¥":1032,"ĠSkrefsrud":10930,"à¤¨à¤¸":319,"à¤Ĩà¤µà¤¦":7739,"Ġà¤ıà¤ľ":2535,"Ġexpectation":11156,"à¥Ģ,":506,"Ġ53":4171,"112":9376,"Era":4531,"ĠAntony":11151,"Ġà¤ķà¤ķà¤°":890,"LS":3711,"à¤ķÊ¼à¤¤":10004,"ĠĠĠ":380,"Ġwhy":10054,"Flas":6145,")":8,"Ġ0361":4435,"ĠâĢĮ":4651,"à¤°à¤¬à¤¨":1018,"ó":175,"Ġà¤Ĩà¤ĸ":363,"à¤¾+":1235,"Ġà¤Ĩà¤¯à¤¸":7039,"à¤¿à¤Ĥ'à¥¤":7447,"Ġà¤īà¤²à¤¥":2256,"Ġ!......\"":10886,"Ġà¤ĹÊ¼à¤°":2978,"Ġà¤Ĺà¤¨à¤¤à¤¨":1814,"Ġà¤¸à¤®à¤¯à¤¤":7567,"ppon":10172,"Ġà¤īà¤¹":2129,"Ġ2010":4273,"Ġoppoutunity":10920,"Ġ800":3592,"à¤¬à¤¹à¤°à¤¬":8246,"à¤µà¤¦à¤²":8004,"Ġà¤Ĩà¤µà¤Ĺ":690,"à¤°à¤Łà¤¨":3787,"à¤°Ê¼à¤ª":2139,"//":6039,"à¤¿à¤Ĥ.........à¥¤":7451,"à¤¨à¤«à¤¬à¤¨":5093,"bur":6268,"à¤°à¤ĩà¤¦":6592,"ĠInternational":10112,"..........à¥¤\"":2875,"ĠPericles":10588,"à¤¿.)":3481,"Ġà¤¸à¤¦à¤Ĺà¤¤":5929,"âģ":6518,"à¤ļà¤²Ê¼à¤¨":8037,"ea":3268,"Ġversion":5874,"eps":9766,"ĠMyth":4277,"à¥¤à¥¤\"":4767,"123":9456,"à¤¬Ê¼à¤¹":3153,"Ġà¤¤à¤²":5206,"Ġà¤°à¤¸à¤®à¤¯":10557,"Ê¼à¤®":1862,"à¥ĩ:à¥¤":3127,"Ġsociet":5388,"Ġget":4358,"GN":6149,"Ġ.............\"":8590,"ĠSat":8647,"ĠChan":5836,"Ġà¤īà¤°":864,"ify":6355,"Ġà¤ŀ":2483,"Ġà¤¹à¤ĩ":7014,"Ġà¤¯à¤¯à¤¯":8498,"ĠWord":3571,"à¤²Ê¼à¤¤":5025,"à¤ĩà¤¸":450,"à¤¸à¤ª":709,":]":6090,"anger":8426,"Ġà¤¸à¤°Ê¼à¤µ":6875,"Ġà¤Ĺà¤¸à¤Ļ":1231,"OR":4545,"...à¥¤":1230,"ĠHP":9198,"ĠRue":9390,"Ġà¤īà¤¨à¤¸":2391,"à¤Ĺà¤²à¤ĩà¤¡":8394,"Ġà¤Ĩà¤°à¤ľà¤¬":9366,")à¥¤\"":6016,"language":6382,"à¤°à¤ļà¤¨":3791,"j":73,"able":3641,"Ġà¤¬à¤°à¤¸Ê¼à¤¨":6681,"ĠBaskbar":11066,"Ġà¤¹à¤®à¤¬":581,"Ġà¤²à¤°à¤ĹÊ¼":3390,"Ġà¤¸à¤²Ê¼à¤¬":1529,"Ġà¤¯à¤ľà¤¨":5330,"Ġà¤ıà¤²à¤ķ":5342,"Ġelements":5925,"Ġnoun":2873,"Ġà¤ķà¤²à¤¨à¤¬":7965,"à¤°à¤¹à¤¨":5100,"Ġà¤ıà¤ķ":680,"Ġà¤¨Ê¼à¤Ł":1960,"à¤¾-,":7611,"à¤ķà¤¨à¤²Ê¼à¤ľ":8381,"oment":8737,"ugu":1389,"pp":2929,"Ġà¤¨à¤Ĩà¤µ":4859,"Ġà¤ķà¤¤à¤ĸ":7477,"ĠBritish":5891,"ESI":6142,"à¤°à¤ķà¤²":6593,"Ġ350":8453,"Ġà¤¬à¤¹à¤¨à¤¹":5248,"Ġà¤ħà¤²Ê¼à¤ķà¤ľ":8291,"Ġ{":1111,"Ġà¤¨à¤ĸà¤¦":8145,"ĠDesert":9130,"Ġà¤¸à¤¨à¤¥":4780,"Ġà¤®à¤¤à¤²à¤¬à¤ĸ":9364,"Ġsecond":10327,"à¤ı":501,"Ġliterary":11104,"Ġ.........":1266,"Ġsubstantial":11170,"orre":8467,"Ġimpossible":11178,"ĠĠĠĠĠĠĠĠĠĠĠĠĠĠĠĠĠĠĠĠĠĠĠĠĠĠĠĠĠĠĠĠĠĠĠĠĠĠĠĠĠĠĠĠĠĠĠĠĠĠĠĠĠĠĠĠĠĠĠĠĠ":4284,"ters":9588,"cell":1904,"Ġà¤§à¤ª":8047,"à¥ģ',":4755,"Ġ....!":3520,"1902":8756,"Ġdifferent":11029,"Ġà¤¹à¤¯à¤¤Ê¼":3199,"sperity":4458,"Ġà¤ĸà¤¬à¤¥":7159,"à¤Ļà¤¨":7256,"ĠRichar":5597,"story":8960,"ĠĠĠĠĠĠĠĠĠĠĠĠĠĠĠĠĠĠĠĠĠĠĠĠĠĠĠĠĠĠĠĠĠĠĠĠĠĠ":1746,"à¤ķà¤Ń":3966,"Ġfiction":9110,"à¤Łà¤¯":2530,"Would":6250,"arch":8510,"Ġà¤¥à¤²":2517,"Ġalthou":10178,"à¤Īà¤Ń":10180,"Ġafter":5865,"à¥ĭ........!'":10656,"Ġknav":5787,"à¤ıà¤¬Ê¼à¤°à¤¸à¤¨":10902,"Ġreturn":11120,"à¤¶à¤®":2564,"à¤ħà¤ľà¤¯à¤¨":9355,"Ġà¤¥à¤¬à¤Ĺ":2748,"à¤Ĺà¤¨à¤ľ":1096,"à¤Ĩà¤µà¤¨":1193,"à¤Ĩà¤¥Ê¼":3992,"à¤°à¤ħà¤¨à¤¥":3687,"à¤°Ê¼à¤¨à¤¥":7548,"Ġà¤Ĩà¤¹à¤®à¤«":3165,"ĠULSI":11114,"Ġresult":10281,"Ġà¤ıà¤°à¤¹":4964,"Ġà¤²Ê¼à¤¦":5633,"Ġà¤¨à¤Ĺà¤¦":4861,"Ġà¤ľà¤¯à¤«":6980,"Ġà¤¦à¤²à¤¦à¤¸":9780,"à¤¨à¤¨":312,"à¤Łà¤ĸ":638,"Ġà¤¸à¤®à¤¬à¤²à¤ľ":7569,"Ġà¤ĸà¤«Ê¼à¤µ":9159,"Ġà¤Ĺà¤ľÊ¼":2499,"Ġà¤Ĺà¤°à¤¬":3341,"ren":6433,"à¥ĭ)":531,"Ġ;,":9407,"Ġ302":5584,"Ġà¤¸à¤ľ":6857,"Ġ9":858,"à¤¾..":1710,"Ġà¤«à¤²Ê¼":3928,"Ġà¤°à¤ľÊ¼à¤¯":2590,"ink":3509,"trag":4636,"2003":4368,"Ġà¤«à¤¥":7172,"Ġà¤¨à¤°à¤ĸ":4858,"Ġà¤¦à¤ĸà¤°à¤¨":9135,"Ġfaces":11034,"Ġà¤¥à¤¥à¤°":4880,"29":6047,"Ġà¤Ĩà¤ĩà¤¹":8137,"gh":1503,"à¤¶à¤¨à¤¨":1600,"Inidia":10023,"ĠNote":3626,"à¤¯à¤²à¤«":7938,"à¤²à¤®Ê¼":8924,"Ġà¤¬à¤¦à¤°":6666,"Ġà¤Ĩà¤¦à¤¬à¤ľ":2144,"disc":4581,"al":662,"Ġà¤¤à¤¨":5205,"-à¥¤":6021,"Ġà¤Ĩà¤Ĺà¤°à¤¸":7957,"Ġbro":9022,"à¤¦à¤¹Ê¼":9775,"DVAC":6136,"urd":5598,"Ġà¤¬à¤¨Ê¼à¤¨":5282,"With":6249,"Ġà¤«Ê¼à¤«Ê¼":10863,"Ġà¤®à¤¥à¤°à¤¥":9067,"ĠWindsor":10945,"Ġ-[":2784,"à¤Ĺà¤Ĺ":2234,"à¤¨à¤ŁÊ¼à¤²à¤ľ":9802,"Ġà¤ľà¤²à¤«":6990,"ĠColour":4463,"à¤¾à¤Ĥ]à¥¤":7080,"Ġà¤¦à¤°à¤²Ê¼à¤¬":8580,"enge":2430,"à¤®à¤ĸ":452,"à¥ĭà¥¤'":1595,"à¤Ĳ":1768,"Ê¼à¤Ĩ":2522,"à¤ĩà¤«":527,"Ġà¤ĩà¤®":1527,"Ġà¤²à¤¯":4901,"à¤²à¤¬à¤ĸ":3819,"à¤ªÊ¼à¤²":7489,"lative":6380,"à¤¾à¤Ĥ\"":2997,"ĠĠĠĠĠĠĠĠĠĠĠĠĠĠĠĠĠĠĠĠĠĠĠĠĠĠĠĠĠĠĠĠĠĠĠĠĠĠĠĠĠĠĠĠĠĠĠĠĠĠĠĠĠ":3615,"à¤°à¤²Ê¼à¤ķ":6591,"Ġà¤Ĺà¤²à¤ľ":8185,"inter":8235,"ject":3274,"Ġà¤¤à¤¥":8054,"atomy":8844,"Ġ650":8907,"f":69,"Ġà¤®à¤¨Ê¼à¤®à¤¹à¤¨":1649,"à¤ĹÊ¼à¤®":9010,"Ġlies":9594,"Ġ00":6526,"..................":3480,"à¤¾à¤ģ-":9095,"Ġturns":10982,"ĠAllegorical":10585,"à¤®à¤¯":1776,"à¤ħà¤²Ê¼à¤ķ":1409,"Ġtelegram":3160,"à¤°à¤Ĩà¤µ":2092,"Pick":6207,"mper":6391,"Ġà¤¹à¤«à¤«":7024,"Ġà¤¸à¤®à¤ķà¤ĸ":4024,"à¤®à¤ĸà¤¨":7972,"ible":6354,"Ġà¤īà¤ªà¤¨":3999,"Ġpray":8837,"à¤¦Ê¼à¤Ĺ":3110,"ig":2924,"à¤¨à¤Ĩà¤¬":3772,"à¤¨Ê¼à¤ĸà¤°":8989,"à¤Ĺà¤²Ê¼à¤Ĩ":10551,"à¤ĸà¤°à¤ĸ":4739,"aptysis":5976,"à¤īà¤²à¤«":7508,"à¤¸à¤¯à¤ľ":6732,"Ġà¤¶à¤¦":8009,"Ğ":218,"Ñ":141,"ĠĠĠĠĠĠĠĠĠĠĠĠĠĠĠĠĠĠĠĠĠĠĠĠĠĠĠĠĠĠĠĠĠĠĠĠĠĠĠĠĠĠĠĠĠĠĠĠ":1019,"Ġà¤²à¤Ĺà¤¬":9237,"Dento":10485,"Ġà¤¹à¤¨":762,"ication":2307,"ĠRichard":5975,"à¤¾à¥¤....":4951,"à¤¶à¤²":5108,"à¤ĺà¤¬":8717,"à¤²Ê¼à¤ķà¤¨":8247,"ĠDirectory":11045,"à¤°à¤ľà¤¯":3064,"Ġà¤ħà¤ĸà¤°":4115,"à¤Ķà¤¨":8630,"à¤¾à¥¤'":1224,"Ġà¤Ĺà¤¬à¤°":3342,"Ġà¤ħà¤ªà¤°":4188,"à¤ĩà¤¸Ê¼":5174,"guttural":5966,"-'":2655,"ypes":6511,"Ġà¤¡Ê¼à¤ķ":7807,"Ġà¤²Ê¼à¤ĸ":3937,"onised":8296,"66":3247,"sifi":9446,"Ġcanc":8912,"Ġà¤²à¤Ļ":3388,"ĠMAC":9053,"ick":2446,"Ġà¤Ĺà¤²Ê¼à¤¦":8194,"Ġà¤°à¤¸à¤ĸ":3943,"Ġà¤¨Ê¼à¤Łà¤ĸ":5171,"Ġ":220,"à¥ĭ'":1364,"Ġà¤¨à¤Ĺ":1927,"à¤°à¤²Ê¼":1544,"39":3697,"à¤²à¤¹":3814,"ĠDisk":9127,"Ġà¤ĹÊ¼à¤²à¤®":8794,"ĠVicar":9661,"Ġ?''":1866,"ĠDerivedd":10623,"orical":5320,"à¤ĸà¤®à¤¤":6761,"Ġmother":8940,"Ġdel":9077,"Ġprvas":10421,"Ġmodernism":11001,"utical":6480,"Ġà¤ĩà¤£":1001,"lhe":6372,"Ġà¤¦à¤ľà¤¨à¤¸":5819,"à¤ıà¤¸":841,"Ë":135,"ĠĠĠĠĠĠĠĠĠĠĠĠĠĠĠĠĠĠĠĠĠĠĠĠĠĠĠĠĠĠĠĠĠĠĠĠĠĠĠĠĠĠĠĠĠĠĠĠĠĠĠĠĠĠ":2871,"Ġà¤ĸà¤°Ê¼à¤ľ":4117,"Ġà¤«à¤¸à¤Ļ":5405,"Ġà¤ľà¤°":874,"ief":4604,"à¤Ĺà¤¯à¤ĸ":6929,"Ġà¤Ĩà¤®à¤°":8363,"à¤²Ê¼à¤ľ":2781,"Ġà¤¬à¤¡Ê¼à¤¨":5250,"Ġà¤²à¤Łà¤°":7206,"Ê¼à¤°à¤®":7216,"Ġà¤ıà¤°Ê¼à¤«":7378,"Ġà¤¬à¤°à¤«à¤¨":9723,"ĠPharmaceutical":10688,"à¤²Ê¼à¤µ":1737,"à¤ķà¤ŁÊ¼à¤ªà¤ĸ":10078,"ĠMedial":9063,"à¥ĭà¤Ĥ/":7053,"à¤ĩà¤¦":608,"à¤ĩà¤²Ê¼":2120,":\\":1836,"tical":2189,"Ġwh":2444,"à¤°à¤²à¤¨":5091,"ĠStyleà¤ĸ":10247,"à¤ľà¤µ":2230,"à¤¸à¤²à¤¨":3328,"Ġà¤ľà¤¥":652,"ĠHap":9203,"à¤¹à¤ľà¤°à¤¤":5746,"ĠAs":8701,"Ġprocess":9934,"à¤¯Ê¼à¤ĸ":2948,"27":2912,"Ġà¤®à¤ĸà¤ľ":3348,"Ġà¤¹à¤°à¤¬à¤Ĺ":8458,"Ġyes":9408,"à¤¾.............":6552,"à¥ĭ........à¥¤''":9987,"à¤¾à¤Ĥà¥¤.......":8123,"23":1610,"Ġà¤ĩà¤Ł":1564,"ĠVMS":9657,"Ġà¤®à¤²Ê¼à¤¨":6893,"inues":8242,"Ġà¤ªà¤ķ":1562,"à¤«à¤¥":1478,"46":6064,"à¤ıà¤¡":3494,"à¤ħà¤¸à¤¤":7894,"Ġà¤¹à¤®à¤¹à¤°à¤¬":9565,"à¤·à¤®à¤¨à¤¨":9966,"Pronoun":5813,"ĠUNIVAC":10650,"Ġà¤®à¤¨Ê¼à¤¹":5159,"Pron":2665,"Ġà¤ħà¤ī":3951,"onant":5271,"à¤¹à¤°":373,"ĠĠĠĠĠĠĠĠĠĠĠĠĠĠĠĠĠĠĠĠĠĠĠĠĠĠĠĠ":1970,"Ġà¤¹Ê¼à¤°à¤¨":3601,"à¤¾.....?":9720,"à¥Ī);":8575,"ature":5443,"Ġ'-":7766,"onomy":8297,"Ġ............":1973,"ĠYour":3205,"ĠSur":8651,"à¤Ĺà¤«":2112,"competi":10363,"Ġplay":9736,"à¤®à¤¹à¤¨":1466,"Ġà¤²à¤¹à¤°":3015,"Ġà¤ĸà¤°à¤«":4890,"Ġà¤¸Ê¼à¤ķà¤¨":5716,"rac":1974,"Ġa":989,"Ġcaptain":5951,"Ġà¤ıà¤²à¤¨":7365,"Ġà¤Ĩà¤¹Ê¼à¤®à¤«":10436,"à¤ĸà¤¹":6754,"Ġdanger":9092,"à¤®à¤ªà¤Łà¤«":9347,"à¤Ĩà¤¦à¤¸":2441,"Ġà¤ķà¤¥":2778,"à¤²à¤¶":1429,"Ġà¤¹à¤ľà¤°à¤¤":5340,"Ġhearth":11052,"à¤ĵà¤°":3535,"Ġà¤ĸà¤®à¤®":4251,"Ġà¤ıà¤«à¤¨":2288,"Ġà¤¨à¤Ĩà¤µà¤¨":7090,"Ġ60":1755,"Anaptysis":10482,"Ġ?...\"":3986,"inda":8848,"à¤¨à¤¥Ê¼":1009,"Ġreligion":10372,"Ġi":4649,"à¥ģà¤Ĥ--":7278,"à¤°à¤¸à¤®à¤²":7608,"acutic":9274,"à¤®à¤īà¤¡":9527,"Ġà¤¸à¤²Ê¼à¤¥":4056,"13":1315,"à¤¦à¤Ĩà¤µ":4764,"--":489,"Ġà¤ıà¤®à¤¸":3410,"Ġà¤¸à¤°à¤¸à¤¤":3228,"à¤¹à¤·":7123,"à¤ĩà¤Ńà¤¨":5485,"Ġ280":9786,"rical":6436,"ĠIV":4243,"Ġà¤ľÊ¼à¤¯":1013,":[":6089,"Ġà¤Ĺà¤¯":670,"à¤°à¤¯à¤¦":6586,"enber":8446,"000":994,"Ġà¤®à¤ĸÊ¼à¤ľ":1179,"Ġà¤°à¤¹à¤¤à¤ķ":9004,"à¤¶à¤¨à¤ĸ":2565,"Ġà¤ħà¤Ńà¤¯":5538,"à¤ĩà¤¨Ê¼à¤ķ":7702,"Ġà¤¹à¤°à¤µ":8018,"ĠASCII":8706,"Ġà¤¹à¤Ĺ":605,"Ġ198":995,"à¤Ĩà¤¶":1633,"à¤ķÊ¼à¤Ł":10003,"iction":8895,"53":6067,"Ġà¤Łà¤¨":2804,"Ġà¤¡à¤ľà¤ĸ":5104,"Ġà¤®à¤«":3861,"Ġcom":1826,"à¥ģà¤Ĥ-":907,"à¤®à¤«à¤¬":3095,"Ġnow":4304,"ĠSem":8648,"à¤ªà¤ĸ":1194,"à¥Ī...,":5743,"Ġ596":8413,"Ġ380":5310,"yrical":6512,"à¤¯à¤®à¤¯":8061,"Ġà¤®à¤¹à¤¨à¤²":953,"Ġà¤¤à¤¤":4107,"à¥Ģ;":3979,"à¥Ģ.":7381,"à¤Ĺà¤²à¤¯à¤¡":8396,"à¤¨à¤¸Ê¼à¤²":7395,"Nippon":10743,"à¤¦à¤²à¤¹":4112,"Ġà¤Ĩà¤²à¤®":1871,"Ġ.......\"":5666,"ilouge":8998,"à¤¯à¤ĸÊ¼à¤«":7535,"K":42,"ements":4443,"ĠCON":10216,"easure":3685,"Ġà¤ħà¤°à¤¡":2815,"Ġà¤ħà¤¸Ê¼à¤¦":8503,"Ġwhite":10057,"...'":5194,"ĠSpritual":11146,"Ġà¤Ĩà¤ĩà¤ķÊ¼à¤¨à¤¨":5653,"à¤«à¤ĸ":2367,"Ġà¤ĸà¤¬à¤¸":2027,"eritor":4442,"Ġà¤Ĩà¤«à¤Ł":5094,"Ġà¤ĸà¤Ĺ":7151,"Ġà¤¦à¤ķà¤®à¤ķ":10855,"Ġà¤²Ê¼à¤¸":3938,"hap":6336,"AR":4517,"à¤ľà¤¤à¤ĸ":3869,"à¤°à¤¡":2486,"ese":4169,"Ġà¤¸à¤°Ê¼à¤¨":6872,"à¤¦à¤°à¤¸":2109,"Ġ1500":3596,"Ġà¤«à¤Ĺ":4897,"ĠGroup":9294,"Bracket":10711,"2758":10167,"à¥ģà¤Ĥ......":7279,"Ġà¤Ĩà¤µà¤¸":2736,"Ġà¤ħà¤ľà¤Ĺà¤°à¤¨":7945,"à¤¸Ê¼à¤¨à¤ľ":8546,"124":9457,"Ġà¤¦à¤°à¤ĸÊ¼à¤Ļ":5454,"Ġ1776":9694,"Ġquantity":10276,"à¤µà¤ĸÊ¼à¤µ":3074,"mor":6387,"SON":6231,"à¤°à¤«Ê¼à¤ľ":5151,"ĠJul":2457,"Ġsift":8683,"Open":6196,"à¤¸à¤¯à¤¥":3329,"ĠMark":10438,"(,)":10691,"Ġà¤®à¤¹à¤¨à¤¸":7979,"ĠHeaven":10446,"à¤®à¤ķà¤°":2215,"à¤ĩà¤«à¤²":3500,"Ġà¤®à¤¨Ê¼":1103,"Ġà¤ĺà¤Łà¤¨":2428,"à¤®à¤®":1320,"ĠGree":9288,"Ġà¤Ĺà¤¥Ê¼à¤ľ":4100,"à¤®à¤ª":1141,"Ġà¤ĹÊ¼à¤²":827,"à¤®à¤²Ê¼":1621,"à¤¸à¤¨à¤«":1391,"Ġà¤ľà¤®à¤¬":3881,"Ġ540":8412,"50":1835,"Ġchandra":10335,"Ġà¤¹":288,"Ġà¤¸à¤ķ":1548,"hn":6333,"Ġà¤«à¤²à¤¨":7180,"eech":6310,"Ġà¤¸Ê¼à¤°":6863,"Ġ.............à¥¤":8589,"à¤¹à¤Ĺ":3378,"Ġà¤Ĩà¤°à¤¦":7286,"Ġ95":3583,"ĠPlease":10964,"à¤®à¤£":2012,"icer":8893,"612":6071,"à¤ľà¤®à¤ķ":6922,"à¤°à¤¬à¤«":7540,"ē":207,"ĠConsciousness":11180,"à¤¬à¤Ĺà¤¨à¤ĸ":8190,"Ê¼à¤µ":526,"à¤¼à¤¿":2155,"à¤¿=":3303,"à¤ħà¤§":7885,"à¤¬à¤°à¤ĸ":1113,"Societe":10769,"bc":6263,"Ġà¤Ĩà¤µà¤Ĺà¤¯":5331,"tal":6464,"Ġà¤ķà¤·à¤«":10880,"Ġconfliot":11172,"Ġà¤īà¤°à¤¸":2130,"à¤¨à¤ļ":2202,"Ġattention":10273,"Ġrigid":10817,"Ġcommon":10255,"108":9251,"le":857,"ĠĠĠĠĠĠĠĠĠĠĠĠĠĠĠĠĠĠĠĠĠĠĠĠĠĠĠĠĠĠĠĠĠĠĠĠĠĠĠĠĠĠĠĠĠĠĠĠĠĠĠĠĠĠĠĠĠĠĠĠĠĠĠĠĠĠĠĠĠĠ":4331,"à¤¾à¤Ĥ),":4855,"à¤ĩà¤¸à¤¬":5173,"Ġà¤¦Ê¼à¤ĸ":5536,"Ġà¤¸à¤¥à¤¬":6871,"Ġ1848":9190,"Comma":10168,"Ġforbidden":11121,"Ġantisocials":11134,"Ġà¤ķà¤²à¤¤":5172,"à¤°à¤¬à¤¦":3431,"ĠExcell":1984,"à¥ĭà¥¤ï»¿":3395,"ymbel":6510,"}[":6515,"Ġw":859,"ĠĠĠĠĠĠĠĠĠĠĠĠĠĠĠĠĠĠĠĠĠĠĠĠĠĠĠĠĠĠĠĠĠĠĠĠĠĠĠĠĠĠĠĠĠĠĠĠĠĠĠĠĠĠĠĠĠĠĠĠĠĠĠĠĠĠĠ":2451,"40":2462,"à¥ĭà¥¤-":7267,"à¤¸à¤®à¤ĸ":4736,"69":6070,"à¤ĩà¤ľÊ¼à¤®à¤¨":5858,"à¤¯à¤ĸà¤°à¤²":7533,"ĠPardon":8811,"ĠGorman":9293,"à¥ĩ'à¥¤":4719,"Ġguidence":10525,"à¤¨à¤¬à¤ľ":7579,"ĠHaplology":11057,"à¤Ĺà¤¥Ê¼à¤ĸ":4258,"Ē":206,"Ġà¤Ĩà¤¸":430,"à¤Ĩà¤ĩà¤¨":3411,"Ġà¤ªà¤¯":3433,"Ġ3":667,"Ġà¤¶à¤Ń":3483,"à¤ĸÊ¼à¤¯":1692,"à¤¿à¤Ĥ.....":7443,"Ġà¤īà¤«Ê¼à¤°":9354,"à¤¬à¤²Ê¼":4693,"Ġ......!":9356,"<":27,"à¤®à¤¸":418,"Ġ.......................................................................":10909,"$$":5997,"à¤¸à¤¨à¤¹à¤°":5157,"HEMIC":10734,"Ġsw":3567,"Ġà¤Ĩà¤ķà¤¥":4848,"Ġà¤°à¤¥":4914,"Ġhalf":5543,"unity":10029,"à¤¸Ê¼à¤«":4186,"à¥¤......":6828,"Ġ?-":3984,"hearted":9338,"à¤ľà¤¯à¤«à¤²":4801,"tain":1763,"à¤Ļà¤¹":7259,"à¤¨à¤¥à¤Ĺ":7781,"Ġà¤¬à¤¥à¤²à¤¨":2449,"à¤¦à¤°à¤ľ":2218,"1":16,"Ġà¤¬à¤°à¤¤à¤¨":6673,"bal":3267,"Ġarround":9662,"Ġà¤ħà¤®à¤²à¤ĸ":4260,"Ġà¤Ĺà¤¯à¤®":4774,"à¤ħà¤¨à¤ľ":3083,"à¥ĭà¤Ĥ--":1129,"Ġà¤ĸ":297,"à¥įâĢĮà¥¤":4135,"Ġà¤ķà¤®à¤ª":1536,"Ġà¤Ĩà¤ªÊ¼à¤¨":9262,"Ġretur":9831,"Ġà¤Ĺà¤£à¤¤à¤¨":4403,"Ġbring":9032,"à¤¯à¤¬à¤°":5070,"Ġworld":8873,"Ġà¤Ńà¤²à¤¨":7860,"ary":3137,"Ê":134,"à¤®à¤¹":528,"Ġà¤¬à¤ĩà¤¬":3809,"Ġpron":8829,"ror":3745,"ven":6483,"Ġrending":10821,"ĠCritical":10400,"Ġproceed":11124,"à¤¿à¥¤)":7728,"Ġde":3174,"à¤¸à¤¹Ê¼à¤Ĩ":9147,"position":6430,"à¤°Ê¼à¤ĩà¤¨à¤ĸ":7558,"ĠUnix":5810,"Compression":10360,"Ġà¤¬à¤°à¤Ĺà¤¹":10541,"Ġà¤²à¤°":944,"à¤Łà¤¬à¤²":3032,"oless":8976,"Ġà¤ķà¤ŁÊ¼à¤¹":10881,"ct":948,"ĠMahar":5506,"Ġcountry":5952,"à¤°Ê¼à¤¨":1306,"Ġletters":10473,"Ġà¤ıà¤µà¤¹":7368,"Ġà¤ĩà¤ķ":2265,"à¤¯à¤¥":444,"à¤¾...!":4348,"à¤¬à¤°à¤¹":4696,"Ġà¤²Ê¼à¤µ":7204,"Ġdate":9081,"uesday":3287,"Ġà¤°à¤ľà¤µ":8376,"Ġservent":10158,"à¥ĭà¤Ĥ\"":2740,"Ġsatisfy":10581,"à¤Łà¤¬":1629,"à¤¦Ê¼à¤¸":3499,"à¤²à¤ĩ":6698,"Ġà¤°à¤¨à¤¸":1727,"ĠBoot":5569,"à¤ıà¤ķà¤Ł":5226,"ong":2289,"oun":1821,"700":6077,"Ġ195":2291,"cess":6282,"Ġà¤ĸà¤µ":3008,"Subject":5917,"Ġà¤¨Ê¼à¤Ĩ":3477,"......!":8694,"Ġcomedy":9858,"à¤¿..............à¥¤":10822,"Ġà¤ĩà¤¨à¤·":2822,"à¤°à¤®Ê¼à¤¸à¤¨":3072,"à¤²à¤¡":3817,"Ġà¤¡à¤ª":5102,"tors":6470,"Ġ?à¥°à¥¥":10875,"à¤²Ê¼à¤¡":2782,"Ġà¤«à¤ŁÊ¼à¤Ĺ":2635,"à¤²à¤ľ":905,"à¤ĹÊ¼à¤²à¤«à¤Ĺ":9665,"Ġà¤Ĩà¤¸à¤²à¤ľ":5155,"sper":3751,"à¤¶à¤¹":5109,"à¤ĩà¤Łà¤®":5333,"sen":6445,"à¤°à¤¹à¤°à¤¬":1952,"Ġ!....":7523,"idence":9478,"ĠĠĠĠĠĠĠĠĠĠĠĠĠĠĠĠĠĠĠĠĠĠĠĠĠĠĠĠĠĠĠĠĠĠĠĠĠĠĠĠĠĠĠĠĠĠĠĠĠĠĠĠĠĠĠĠĠĠĠĠĠĠĠĠĠĠĠĠĠĠĠĠĠĠĠĠĠĠ":9696,"à¤ļà¤Ĩà¤µ":5199,"..":309,"Ġà¤īà¤¤à¤«":5000,"Ġà¤ıà¤¡":1403,"Ġà¤¬à¤¨à¤¥Ê¼à¤¨":8330,"à¤¯Ê¼à¤¹":6612,"Ġ720":8823,"Diphthongs":10677,"PU":6200,"à¤°à¤¬à¤²à¤ľ":7544,"OL":4543,"Struggle":11196,"Ġà¤¡à¤¬":1811,"Ġà¤¥à¤ªà¤¸":3381,"ĠInheritor":9853,"à¥ģà¤Ĥ,":980,"Ê¼à¤ķ":997,"sic":6448,"gram":2923,"à¤µà¤ĸÊ¼à¤Ĺ":2807,"tragical":10521,"Ġà¤¦à¤¹à¤°à¤®":3376,"Ĺ":245,"Ġà¤¨Ê¼à¤¥":3089,"à¤ªà¤¦":1735,"Ġbasis":11011,"ameron":9495,"à¤ħà¤Ĺ":5137,"ĠEve":9410,"à¤²Ê¼à¤Ĩà¤µ":7513,"à¤ªà¤Ĺ":5008,"à¤¸à¤ľ":1036,"ĠVoluntary":5979,"ish":2840,"Ġà¤¬à¤°Ê¼à¤¦":7696,"Ġà¤¦à¤ĸà¤°à¤Ĺ":9136,"Ġà¥¤)":8175,"à¤¹à¤¨à¤¨":7120,"Ġà¤¦à¤Ļà¤¨":3107,"cape":6293,"Ġem":2200,"Ġsub":4209,"75":4505,"à¤°à¤¨à¤¯":4933,"ĠSus":8652,"orus":8469,"Ġà¤ĸà¤®à¤¥":3926,"à¤ªà¤¸à¤¨à¤ĸ":8763,"Ġ77":8821,"Ġbur":9023,"ron":1996,"Ġà¤Ĩà¤¸à¤®":7915,"Ġà¤«à¤²à¤¡":9707,"..............à¥¤\"":5745,"à¤Ĺà¤¨à¤¸":6928,"ite":5461,"Ġà¤«à¤¥à¤Ĺ":7194,"Ġà¤Ĩà¤¯à¤Ł":8179,"à¤Ķà¤°":8631,"à¤ħà¤²à¤¸":5142,"ĠRename":9397,"Ġ1951":10008,"Ġà¤°à¤¸à¤ĹÊ¼à¤²à¤²":10639,"Ġà¤Ĺà¤¸":495,"à¤¬à¤°à¤ľ":6637,"Ġà¤¨Ê¼à¤¸à¤ķà¤ĸ":9533,"phology":9823,"à¥Į>":3886,"à¤¯Ê¼à¤¯Ê¼à¤¨":9526,"à¤°Ê¼à¤Ĺ":1374,"Ġà¤¬à¤¡Ê¼à¤«":4133,"ycle":6509,"à¤°à¤ĩà¤¨à¤«":6602,"à¥ĭà¥¤...............":7270,"FDA":6148,"Ġà¤ıà¤®à¤ĸ":7367,"à¤°à¤¬à¤Ĺ":7539,"Ġà¤Ĩà¤¬Ê¼à¤ĸ":8743,"ĠKilmhot":9945,".........!":2862,"Ġexplain":10254,"**************":10655,"Ġà¤Ĩà¤¬Ê¼à¤ľ":8744,"162":9557,"Ġlet":4449,"à¤ĩà¤ĸÊ¼à¤°":7930,"à¤¦à¤¤à¤ĸ":6822,"Ġ???\"":9843,"bankofboroda":10682,"ĠPhysics":10966,"Ġ********":3293,":)":4514,"otà¤¨":9113,";":26,"Net":6187,"Ġà¤īà¤²":837,"Ġà¤ľà¤®":1029,"si":1233,"Ġà¥¤\"":1153,"ĠMurd":9059,"à¤¬à¤¯à¤¨":3798,"à¤¥Ê¼à¤°":2403,"qual":9498,"Ġà¤Ĩà¤¦":410,"...à¥¤\"":2417,"à¥Ī...à¥¤":4730,"à¤§à¤°Ê¼à¤ĸ":8085,"Ġ1928":5289,"Ġà¤«à¤ľÊ¼à¤¦":5647,"Ġà¤«à¤¨":1302,"Ġ-":336,"Ġcode":8918,"ĠFederation":9627,"Ġà¤ķà¤²à¤ķ":2416,"Ġà¤īà¤¦à¤¯":1689,"Ġà¤°à¤ĹÊ¼":2526,"ce":2919,"à¤¥Ê¼à¤¨":790,"à¥ĭà¤Ĥ......":3899,"Ġmone":5475,"ĠWho":8728,"ĠRESI":9393,"Ġà¤ıà¤¨à¤ľ":2040,"à¤¹à¤°à¤¥":2560,"Ġà¤ĺà¤¡":2588,"à¤ļà¤²":1249,"Ġà¤¸à¤®à¤¯":2789,"Part":6209,"à¤®à¤Ł":2970,"Ġtheir":3579,"à¤ķà¤¨à¤ĸ":7342,"189":9586,"à¤¤à¤¸à¤°à¤ª":10876,"ĠGrammar":4476,"Ġà¤Ĩà¤µà¤²":2369,"à¥¤''":1431,"Ġà¤¸à¤¥à¤¬à¤«":2889,"Ġà¤ıà¤ķà¤¦à¤®":8485,"à¤Ĥà¥¤\"":745,"GIP":10491,"te":2932,"à¤²Ê¼à¤ª":5026,"(\"":6002,"Ġà¤¹à¤ĸ":1784,"Ġà¤¬à¤°à¤«à¤²Ê¼":5708,"ire":2674,"Ġ2003":3526,"Ġ!..":5032,"Ġà¤ıà¤«à¤°":8257,"discipl":10510,"ĠService":5938,"Ġà¤¬à¤ĸÊ¼à¤¯":2700,"ĠĠĠĠĠĠĠĠĠĠĠĠĠĠĠĠĠĠĠĠĠĠĠĠĠĠĠĠĠĠĠĠĠĠĠĠĠĠĠĠĠĠĠĠĠĠĠĠĠĠĠĠĠĠĠ":1980,"à¥ģ-":505,"174":9572,"Ġà¤Ĺà¤«":1588,"ĠProfession":10658,"Personel":10681,"à¤¿...à¥¤\"":6581,"Ġ58":8409,"Ġà¤¶à¤²à¤®":8012,"Ġà¤Ĩà¤Ł":7036,"1593":5612,"ĠTravel":8789,"dge":6300,"resent":4409,"Ġfac":9096,"ĠControl":5367,"à¤²Ê¼à¤®à¤¨":7512,"Ġà¤¸à¤¤à¤«à¤¤":9231,"gri":4593,"s":82,"à¤ªà¤¯":5007,"à¤¯à¤¨à¤Ĺ":4927,"Ġcountrymen":10689,"iness":3511,"à¤ĩà¤²à¤¥":3498,"à¤®à¤ľ":420,"à¤¦Ê¼à¤¬à¤¨":3111,"Ġ8":901,"û":183,"Ġinvad":4444,"à¤ħà¤¯":7881,"Ġà¤Ĩà¤ĩà¤¡":8139,"à¤¨à¤«à¤¬":3457,"Ġà¤¥à¤¨à¤¨":3380,"à¤ĸÊ¼à¤¨à¤²":5262,"niqu":6407,"Ġà¤¥à¤¨à¤¥":2118,"Ġà¤ľà¤¯à¤¸":6977,"ĠĠ":284,"Ġà¤Ĺà¤¯à¤¥":1167,"osition":3226,"à¤²à¤ļà¤°à¤¨":5765,"Ġà¤¬à¤¬à¤°":7995,"Ġbas":9019,"Ġeuix":9828,"Ġà¤ľà¤ª":6973,"à¤¾......":1769,"Ġà¤ħà¤¨à¤ľ":695,"....!":4025,"Ġà¤Ĩà¤£":4846,"Ġà¤¸à¤®à¤¸":1488,"Ġà¤Ĺà¤¥":736,"...........!":5649,"thonology":8305,"Ġà¤īà¤ĩà¤¨à¤¡Ê¼à¤ľ":5830,"G":38,"Ġà¤ĸà¤°à¤¨":2751,"à¤¿à¤Ĥ.................à¥¤\"":10142,"Ġà¤Ĩà¤µà¤¹":2737,"à¥ĩ---":6693,"à¤¦à¤°à¤«":2353,"aja":5918,"Ġà¤¥à¤ĸÊ¼à¤¯":7149,"art":3545,"à¤ªà¤¬Ê¼":7492,"à¤¦à¤¦à¤¬":5246,"ĠFolic":9621,"Vowel":3716,"Ġà¤®à¤¨à¤¬":2226,"Ġà¤¨Ê¼à¤ªà¤¥":3090,"Ġlapse":5664,"Ġà¤²à¤µ":1937,"à¥ĩ,":560,"GI":4532,"NI":4541,"Ġà¤¸à¤¦à¤°":4783,"iles":8992,"Ġà¤ħà¤¨à¤ĸ":1940,"Ġà¤Ĺà¤¥Ê¼":469,"à¤ľà¤¬à¤¨":2231,"Ġà¤«à¤¬à¤¸":2755,"à¤¯à¤«":421,"Ġà¤¹à¤¯":1169,"Th":4561,"Ġà¤¥à¤¥à¤²":4882,"u":84,"82":3252,"Ġà¤¬Ê¼à¤¸":6679,"à¤¾:....à¥¤":8271,"à¥ĩ-,":8287,"Ġà¤ħà¤¸à¤®à¤Ńà¤¬":8712,"à¤ªà¤Łà¤²":5014,"ĠRhy":9392,"Ġ223":9490,"ě":215,"Ġà¤ķà¤°":719,"Ġà¤ĸà¤²à¤¬à¤¨":9782,"ĠGulliver":11072,"Ġconstru":10429,"ĠDont":9124,"outunity":10084,"Tom":6234,"à¤¤à¤¤":3989,"ĠUNI":5713,"38":4493,"eritence":10215,"à¤ĩà¤ĸÊ¼à¤¨":3475,"l":75,"ences":9732,"ĠGraduate":11074,"..!":7281,"ê":166,"Ġ......................":8586,"Ġà¤¨à¤ķà¤²":2242,"Ġ5":655,"Ê¼à¤ļ":2523,"Ġà¤ķÊ¼à¤ħà¤ª":9469,"ĠCop":3558,"Ġà¤ħà¤ľà¤Ĺà¤°":5165,"à¤ħà¤²":2275,"Ġà¤²à¤®à¤¨à¤ĸ":5791,"à¤²à¤°à¤ĸ":6699,"CLEN":10483,"Ġtraditionalà¤Ĩ":10676,"à¤ªà¤°":1099,"à¤°à¤¬à¤Łà¤®":7545,"à¤¨à¤«":394,"à¤¬à¤¥Ê¼à¤µ":6647,"à¤¯à¤²Ê¼":950,"Ġ1968":3631,"à¤²à¤¦à¤¬":8332,"à¤¬à¤ª":6634,"Ġhim":3185,"Ġà¤ħà¤ľà¤¯à¤¨":961,"raph":3559,"à¤ĩà¤ľà¤¦":7690,"atre":8843,"Ġà¤¸Ê¼à¤ĹÊ¼à¤¬":10550,"à¤ªà¤°à¤Ł":9268,"Ġà¤¹à¤¯à¤²":4829,"Ġà¤¨à¤ĸà¤°à¤ľ":5238,"70":2464,"ĠFamily":9629,"ains":9473,"Ġ----":5077,"Ġà¤Ĩà¤¨à¤µ":7947,"Ġ......[":9358,"Ġseclu":10329,"Ġà¤īà¤¸":766,"à¤Ĺà¤¬Ê¼à¤¨":6945,"Ġcannon":10232,"Que":6213,"Ġà¤ĩà¤īà¤°Ê¼à¤ª":3167,"ĠVenice":10646,"ĠAims":10943,"Oh":6192,"à¤īà¤£":2134,"out":2599,"à¤¹à¤®à¤²":7125,"iec":3727,"Ġst":1754,"à¤¸à¤ªà¤°":2067,"à¤¾à¤Ĥ',":3901,"Ġ03":2938,"Ġà¤¦à¤ķà¤®":7114,"ĠXp":10370,"Ġà¤°Ê¼à¤¦":1971,"ĠRD":9385,"ĠĠĠĠĠĠĠĠĠĠĠĠĠĠĠĠĠĠĠĠĠĠĠĠĠĠĠĠĠĠĠĠĠĠĠĠĠĉ":10145,"à¤¯à¤Ĺà¤°":3449,"Ġà¤¥à¤°à¤¥":1397,"Ġà¤Īà¤¶":4336,"220":6055,"à¤¡à¤µ":2795,"ĠEmperor":11094,"à¤¯à¤ĸÊ¼à¤¥":1487,"rama":2455,"Ġà¤«Ê¼à¤¨":1353,"ĠDefragmentes":11201,"159":9439,"Ġà¤®à¤¹à¤°à¤Ĺ":2276,"à¤¦à¤®à¤¨à¤¨":9236,"Ġà¤ķà¤°à¤¦":7468,"Ġà¤Ĩà¤°à¤¬":3027,"ĠCD":3556,"lect":2857,"à¤µà¤ľ":485,"mind":4615,"ĠHow":9201,"Ġà¤Ĩà¤ĩà¤²":1458,"Ġà¤¹Ê¼à¤²à¤¨":2629,"à¤ŁÊ¼à¤¬à¤°":5315,"essories":2652,"Infinite":10464,"Ġ'":393,"Ġà¤ħÊ¼":1483,"?\"":1151,"Ġà¤Łà¤ķ":2271,"à¤īà¤ľà¤¨":5018,"Ġà¤¬à¤°Ê¼à¤¨à¤Ļ":8315,"CO":3707,"Ġà¤°Ê¼à¤¸":8551,"à¤¾\"]":8635,"Ġ18":1012,"Ġà¤¸à¤¹à¤ĸ":1884,"Ġà¤ľÊ¼à¤ľ":5277,"à¤ĸà¤«":6753,"Ġà¤¸à¤°Ê¼à¤ĸ":6873,"Ġà¤¨à¤ŁÊ¼à¤°":7088,"à¤¾-":350,"Ġmoment":8950,"Ġà¤ķà¤«":1868,"12":1256,"à¤¡":351,"à¤¡à¤¤à¤«":7631,"Ġwith":3159,"ĠFrank":11105,"Ġ2005":2427,"Ġà¤ķÊ¼à¤²à¤ľ":7479,"à¤Ĥ.........":4688,"à¤¯à¤¨à¤¨":2527,"225":6059,"à¥Īà¤Ĥà¥¤":6717,"à¤Ĩà¤²à¤Ļ":5337,"à¤µà¤¬Ê¼à¤«":7661,"Ġà¤Ĩà¤ľà¤Ĺà¤°":8577,"à¤¤Ê¼à¤ª":9709,"ĠAnthology":10225,"Ġunvoiced":10351,"Ġdynamic":11030,"à¤ŁÊ¼à¤Ń":8465,"Ġsociety":5940,"son":3748,"à¤®à¤«à¤¬à¤¦":8001,"à¤Ľà¤ĸ":8533,"à¥ĭ,--\"":5086,"Ġà¤¬à¤¸Ê¼à¤¨":2824,"IPS":6165,"105":9248,"Ġto":1165,"ĠWells":5838,"Ġà¤¸à¤²à¤¨":3343,"à¥Į-à¥¤\"":8398,"Pro":4549,"à¤¿à¥¤\"":750,"à¤¼à¥Ģ":1199,"Ġharmony":5962,"Ġà¤«à¤¬à¤¨":1624,"bell":6270,"à¤¦à¤¹à¤°à¤ĸ":6824,"ĠSocial":8656,"370":10018,"Ġà¤ıà¤µà¤¨":1305,"26":1655,"ther":2425,"à¤ĩà¤«à¤²à¤ĸ":5240,"indow":916,"Ġà¤¦à¤¸":517,"Ġà¤¦à¤§":7103,"amily":9496,"Ġhe":3184,"ĠProsperity":5786,"à¤°à¤®à¤¨":3308,"Ġà¤Ńà¤Łà¤¨":4071,"Ġà¤īà¤ĩà¤²à¤ĸ":2776,"ide":5622,"à¥ĩ:":630,"à¥Ī.......":2960,"!!!":2884,"tains":9826,"Ĉ":196,"à¥ĭ.............''à¥¤":9989,"Ġà¤²Ê¼à¤¡":9508,"Ġà¤¬à¤¸":532,"sp":2931,"Ġà¤¬à¤¨Ê¼à¤µ":4150,"Ġà¤ħà¤īà¤Łà¤ķ":10867,"Ġà¤°à¤ľÊ¼à¤Ļ":4168,"ĠFriday":9628,"Ġà¤¦à¤ľ":2744,"à¤°à¤ĸà¤£":3995,"day":1837,"91":6085,"à¤¯à¤¸à¤¨à¤ĸ":7634,"Ġprogram":9930,"114":9378,"à¤µà¤¦":467,"-!":3240,"less":6373,"à¤ĩà¤Ĺ":524,"à¥ĭ--\"":2633,"à¤¸Ê¼à¤¨à¤¬":8545,"à¤°à¤ĸà¤Ļ":4997,"piest":10794,"à¤µà¤ªà¤ĸ":4749,"à¤¿)":904,"ĠTemp":8783,"à¤ħÊ¼à¤¨":2411,"à¤¬à¤®":979,"Ġà¤¡Ê¼":1875,"WS":6244,"suffix":6455,"à¤¿......":4675,"esp":4170,"à¤¨à¤¥":399,"Ġà¤ľÊ¼à¤¦":2290,"raid":5370,"Ġenlight":5850,"bi":6264,"Ġunkind":10350,"Ġ783348":10466,"Ġà¤¦à¤¹à¤®à¤ľ":5385,"à¤Ľà¤ĸÊ¼à¤µ":8539,"Mob":6174,"Ġà¤«à¤°à¤®":2028,"ry":1907,"à¤¼":566,"Ġà¤ıà¤°à¤ĸ":959,"à¤¬Ê¼à¤®":4228,"à¤¨à¤¹Ê¼à¤°":7901,"pos":5815,"à¤ĩà¤«Ê¼":8151,"Ġà¤¦à¤¹à¤²":8662,"Ġà¤īà¤Ĺ":2041,"Ġ7813":4418,"Ġà¤Ĺà¤¯à¤¬":3845,"TREE":4563,"<)à¥¤":6096,"à¤Ĩà¤²à¤®":8515,"ille":8994,"Inflected":5900,"ĠCouncil":10912,"à¤¾à¤Ĥ.....à¥¤":7078,"Ġà¤Ĩà¤¯Ê¼":1177,"....?\"":4026,"à¤ħà¤¸à¤®à¤¨":7893,"à¤²à¤¸à¤¨":2101,"Ġmelodrama":4471,"ĠObject":10348,"Ġà¤²à¤¦":2247,"à¥Į''":4825,"à¤¹à¤ķ":3004,"à¤¹à¤®à¤¥":3916,"à¥ĥ--":8355,"0606":10698,"Ġà¤°Ê¼à¤²":4921,"à¤¥à¤¹":6950,"Ġà¤Ĩà¤¦à¤µ":7836,"125":9458,"pun":6427,"em":1043,"à¤ħà¤¨à¤®à¤²":8490,"Ġstyle":9817,"Ġprosperity":9931,"ious":2676,"ĠEnd":5605,"à¤¾,..":7510,"Ġany":9953,"Ġ3500":5804,"Ŀ":251,"Air":6103,"à¤ĸÊ¼à¤¦":5260,"Ġà¤¸":280,"à¤®à¤¥Ê¼à¤¹":6810,"Ġà¤¥à¤µ":7134,"~":93,"à¤Ĺà¤¦":896,"Ġà¤²à¤ķà¤¸":3935,"Ġà¤Ĺà¤®à¤¸":6840,"Ġ?\"........":7746,"à¤¦à¤¦à¤ľ":8191,"à¤Ĩà¤®à¤¬":4991,"à¤¾à¥¤\"--":5227,"à¤ķÊ¼à¤ĸ":7351,"Ġà¤¦à¤°à¤¥":4865,"ĠASSCII":8707,"à¤¯à¤®à¤¨":3792,"Ġ61":4247,"Nasa":10744,"thing":8303,"Ġà¤ĹÊ¼à¤®à¤¸":8428,"à¤µà¤¹à¤°à¤¨":2816,"ĠSub":3566,"rio":4322,"..à¥¤":1939,"à¤Ļ":304,"Ġà¤¹Ê¼à¤Ł":4281,"ĠWe":5409,"Ġà¤°Ê¼à¤®":1752,"Ġraw":6538,"Ġà¤ķà¤°à¤µ":8560,"fe":2670,"à¤¨à¤ĸà¤¦":7736,"166":9561,"Ġà¤Ĩà¤°à¤¨Ê¼à¤²":10130,"Ġà¤¨à¤Ĺà¤°":3374,"à¤¨à¤¥Ê¼à¤µ":3613,"à¥ĭ}":6568,"à¤Ĥ...à¥¤":6622,"Ġà¤ļà¤ķà¤¨":8015,"Ġà¤µà¤ľ":8415,"Ġà¤¦à¤¥Ê¼à¤ĸ":4868,"iant":6349,"à¤ĩà¤īà¤ľ":7238,"ev":1839,"ction":2471,"Ġà¤¨Ê¼":448,"ĠUniversal":10661,"\"à¥¤":1501,"tion":796,"SSCII":6232,"loin":9980,"à¤ĩà¤ªà¤¨Ê¼à¤ľ":10135,"ĠUnemployed":11145,"Ġà¤Ĩà¤¸à¤Ľ":5154,"'t":4483,"à¤¸à¤¤à¤¸":6749,"Ġ1871":9193,"à¤¨à¤¹à¤°à¤¦":1272,"ĠThen":5769,"atra":8842,"Ġà¤¨à¤ľà¤°":3906,"à¤°à¤®à¤¤":4054,"Ġà¤ľà¤¨":583,"Ġ?............":4982,"à¤¿-\"":5152,"lu":6366,"à¤«à¤°à¤°":8928,"Ġà¤Ńà¤ķ":2567,"-!!":6031,"Ġà¤ĸà¤¤à¤¬":7168,"à¤ķà¤²à¤¤":8693,"Ġ1982":4294,"ĠCoun":8603,"à¤£à¤®":3472,"à¥ĭ:....":9837,"à¤ĩà¤¯à¤²":7231,"Ġà¤§à¤ķ":8046,"Ġà¤¹à¤®à¤¥Ê¼":8444,"Ġà¤«à¤ľÊ¼à¤Ĺ":9548,"Ġà¤¹à¤®à¤¸Ê¼":9682,"ĠNo":1983,"Ġà¤¬à¤Ĺ":3317,"Ġà¤¥Ê¼à¤¸":2519,"ĠScholar":10011,"Ġ120":5445,"ĠProper":10014,"Ġà¤Ĺà¤¬à¤²":6848,"Div":6132,"long":6378,"à¤°à¤ŁÊ¼à¤ķà¤²à¤ĸ":10827,"2009":9702,"Ġpost":8830,"ĠDru":5526,"Ġà¤¸à¤°à¤¤":6864,"à¤¨à¤¦Ê¼à¤¨":7823,"à¤²à¤ŃÊ¼à¤Ĺ":9960,"à¤¦à¤¬":788,"à¥ĭà¥¤...":2528,"Ġ........":735,"à¤¨à¤µ":2002,"à¤µà¤¥Ê¼à¤¨":6777,"Ġà¤ľà¤¨à¤¨":3879,"Ġ783390":5902,"Ġà¤Ĩà¤µà¤Ĩà¤¦":5327,"à¤ľÊ¼à¤¥":6918,"Ġvoice":11129,"Ġà¤«à¤ľà¤«":7191,"1981":5692,"The":2080,"cious":6288,"à¥ģ......":6784,"à¤®à¤ļà¤°à¤£":9839,"ĠĠĠĠĠĠĠĠĠĠĠĠĠĠĠĠĠĠĠĠĠĠĠ":2270,"Ġà¤Ĩà¤²à¤ľ":4049,"Ab":6101,"à¤°à¤ĹÊ¼à¤ľ":7756,"à¤ĩà¤Łà¤²":8504,"à¤¹à¤¸":1222,"ĠDAT":5528,"Ġà¤¦à¤¨à¤¥":7099,"ı":237,"Ġmerc":4255,"Ġà¤¨à¤°":781,"Ġà¤Łà¤²à¤·":5098,"à¤¬à¤¤à¤¨":6645,"ĠTail":8778,"à¤°à¤¸Ê¼":3437,"ĠIntellectual":5982,"à¤ĸà¤¨à¤¬":2105,"Full":6146,"az":6256,"Ġà¤ıà¤°Ê¼":7356,"Ġà¤Ĺà¤²Ê¼à¤ĸ":1413,"à¤īà¤°Ê¼":7498,"Ġà¤Ĺà¤¬Ê¼à¤¹":8646,"ĠTax":8776,"Ġà¤¦Ê¼à¤Ł":9148,"ĠJohn":9891,"Ġ......":1164,"à¤ľà¤ħà¤¨":6916,"Ġà¤īà¤ĩà¤¡à¤Ĩà¤¨":10879,"64":2913,"Ġ1024":8714,"Ġà¤ħà¤¬à¤Ł":4095,"-à¥ĭ,":6025,"à¤¤à¤ľ":1485,"Sem":4557,"à¤ħà¤ĸ":1335,"Ġà¤ŁÊ¼à¤¸":7778,"à¤¯à¤ľ":377,"Ġà¤ħÊ¼à¤¸":7304,"Ġ9859":9977,"Ê¼à¤²Ê¼à¤ľ":4907,"ge":1387,"à¤µà¤¹à¤°à¤¬":4097,"Ġà¤Ĺà¤¥Ê¼à¤¬":2819,"Rip":6219,"à¤ļà¤¹à¤°":8033,"ĠDrive":9125,"ĠCapain":9880,"Ġà¤ħà¤ľà¤¦":1336,".......!":3591,"fil":6317,"Ġà¤¬à¤¥à¤²à¤ķ":9506,"ĠUTNLP":9751,"educated":5944,"à¤ĩà¤ķà¤¨":2831,"Ġetc":4450,"Ġ.........à¥¤":9471,"à¤¯à¤ĸÊ¼à¤ľ":2785,"Ġà¤²à¤Ń":3934,"ċ":199,"60":2658,"ution":4640,"à¤īà¤¸à¤¯":5341,"à¤Łà¤°":603,"VE":6239,"Ġà¤¬à¤²à¤ĸ":6667,"lack":6383,"ouqu":8491,"à¥Ī..à¥¤\"":10125,"Ġ(!),":10566,"à¤°à¤²":386,"STAR":10762,"ser":2683,"ve":1052,"Ġà¤¦Ê¼à¤¸":1979,"Ġtears":10984,"à¤Ĩà¤īà¤µ":4996,"à¤ıà¤¦":8098,"à¤²à¤·":4722,"à¤ĩà¤²à¤Ĺ":8127,"Ġour":2000,"ý":185,"à¤Ľà¤²à¤ª":8538,"Ġà¤¬à¤¥à¤²à¤«":5582,"à¤²à¤¥":635,"rment":6437,"Ġsense":2897,"Ġà¤ľà¤¨à¤ľ":4813,"Ġà¤ıà¤£":3037,"ice":4245,"Predicate":5915,"Ġà¤Ķà¤®":5285,"Ġà¤®à¤¦à¤¦à¤ĸ":2589,"Ġall":2690,"à¤ķà¤¹":7337,"à¤Ĩà¤ī":7421,"Ġ',":7765,"Ġà¤Ĩà¤Ĺà¤¯à¤«":7959,"Ġidea":10032,"Ġà¤¦à¤¬Ê¼à¤¦à¤¸":10854,"ĠLong":5576,"Ph":6201,"1980":4363,"à¥įâĢĮ,":2826,"Ġfuture":5959,"Ġĉĉ":6534,"à¥ĭà¤Ĥà¥¤''":7464,"ronic":5752,"à¤Ĺà¤¯à¤¯":6944,"à¤¬à¤°Ê¼à¤µ":3149,"Ġà¤Ĩà¤®à¤¬":3366,"Ġà¤Īà¤¸":2640,"Ġtrue":10983,"ĠĠĠĠĠĠĠĠĠĠĠĠĠĠĠĠĠĠĠĠĠĠĠĠĠĠĠĠĠĠĠĠĠĠĠĠĠĠĠĠĠĠĠĠĠĠĠ":2851,"à¤¯à¤¤à¤¨":6609,"ĠDoes":10238,"Ġcompact":5807,"une":10028,"char":6285,"ĠErrors":11095,"198":1499,"Ġà¤ıà¤«":577,"ad":1656,"Ġà¤¨à¤Ł":2115,".{-":3684,"ĠBleak":5571,"dom":6298,"Ġper":5435,"oal":6410,"Ġà¤¬à¤°à¤ĸ":6656,"à¤¸Ê¼à¤Ĩà¤¥":8550,"Ġà¤¨à¤ķ":2240,"Scan":10763,"143":9647,"à¤ĩà¤°Ê¼":2382,"Ġà¤¡à¤ľà¤¨":3075,"à¤ĩà¤ĸà¤°à¤¨":7928,"à¤ĥ":1767,"ax":2198,"à¤¨à¤¡Ê¼":3773,"Ġà¤ħà¤¹Ê¼":3189,"44":4496,"à¤¦à¤¯":800,"ĠCard":5363,"Ġà¤Ĩà¤ĩà¤¨à¤¦":8856,"à¥Įà¥¤]":7705,"à¤®à¤µà¤¨":3835,"à¤¬à¤²à¤¶":8215,"Ġepitaph":11198,"Ġà¤¥à¤°à¤¬":7138,"Ġà¤¹à¤²à¤ķ":8769,"ses":3749,"Ġà¤Ĩà¤¯à¤¨":1479,"Ġpunish":10972,"à¤°à¤¤à¤ľ":8206,"ĠGoal":9295,"Ġà¤ıà¤·":1630,"Ġ1981":3180,"à¤Ĩà¤µà¤¥":7422,"Acc":6104,"Ġà¤ĸà¤¥Ê¼":3382,"à¤µà¤²à¤¨":6771,"cruel":6291,"Ġà¤ªà¤ĸà¤ĸ":7600,"Ġoutspoken":11179,"Ġ25":1051,"thou":8302,"Ġpeople":2894,"ilogue":4373,"ü":184,"ĠKachar":2650,"Frailty":6147,"yn":3759,"à¤¸à¤®à¤Ł":8160,"à¤¥à¤¬à¤¨":4809,"Ġà¤ĩà¤¯à¤°":3139,"Ġà¤¦à¤ĸÊ¼à¤¨":2515,"à¤¯à¤¥Ê¼à¤¨":3314,"à¤¿.à¥¤":5183,"à¤¬à¤¦à¤°à¤ª":8116,"à¤Ĩà¤µà¤¸":2406,"Ġ57":8408,"à¤¬Ê¼à¤°":1204,"Ġà¤¦à¤¨à¤¸Ê¼à¤¨":7115,"ĠMad":9052,"Ġnewly":10345,"Ġà¤Ĩà¤ī":3365,"sim":5613,"ā":189,"à¤¿à¤Ĥ-":946,"Ġà¤ªà¤ª":5048,"Ġending":5875,"Ê¼à¤¨à¤ĸ":3020,"('":6003,"ĠJulier":10065,":/":3255,"Ġà¤¬à¤°à¤¸":2004,"Ġà¤¦Ê¼à¤²à¤¨":9151,"à¤µà¤ĸ":402,"oic":3279,"Ġà¤Ĺà¤Ńà¤°":3851,"à¤ľà¤ª":2720,"Ġcorre":8922,"à¥ĩ.........":6691,"Ġà¤¹à¤°à¤®Ê¼à¤¨à¤¨":5677,"Ġ=":1764,"Ġpas":4231,"à¤µà¤Ĩ":1392,"st":900,"Ġ150":9005,"Ġstates":9820,"Ġnationalities":11064,"Ġà¤ħà¤Łà¤¨à¤®":5932,"ticall":9668,"à¤ķà¤¦":2532,"as":1084,"Ġ9435974074":10358,"à¤¾à¥¤ğğâĢİâģ":10869,"à¤¿à¤Ĥ.........!":7450,"à¥ģ;":2968,"Ġretired":5897,"à¥ĩ-----":9994,"ĠGraph":4318,"Psych":10751,"Ġà¤ĸà¤¬à¤¦":3384,"war":6496,"#":2,"ate":1384,"ĠĠĠĠĠĠĠ":633,"ermination":8267,"à¤¬Ê¼à¤§":8817,"Ġà¤«à¤¥Ê¼à¤ľ":10298,"à¥ĭà¤Ĥ":291,"à¤ķ":316,"aw":2668,"à¥ĭà¥¤....":3025,"à¤£à¤ļ":7898,"à¤ĩà¤īà¤¨":3940,"à¤¯à¤¸":352,"à¤§à¤ķ":8079,"à¥Įà¥¤'":1685,"Ġà¤¨à¤µ":512,"Ġà¤Ĩà¤¯à¤¤":5243,"-à¤¿,":6023,"Ġà¤¸à¤¹Ê¼":4136,"Ġà¤¸à¤°à¤²":780,"imax":3206,"ĠCaption":9879,"Ġ68":5466,"Ġco":8910,"Ġec":6529,"Ġà¤ĸà¤®à¤«":7158,"ĠInvention":9854,"Ġ123":4235,"Ġà¤Ĩà¤¨à¤ķ":4088,"à¤¥à¤Ĩ":6956,"117":9381,"à¤¬Ê¼à¤¯":8813,"à¤īà¤ĩà¤²":5019,"à¤ķà¤ļà¤¨":7352,"à¤°à¤Ļ":3307,"anho":8422,"à¤ĩà¤¨à¤«":1741,"Ġà¤ħà¤µà¤¤":5580,"135":9519,"142":9646,"ĠVolun":5687,"Ġà¤¸à¤¬":1016,"Ġà¤Ĩà¤²à¤«":1490,"à¤ķà¤ª":2039,"à¤®à¤īà¤ĩà¤¨":9528,"Ġshoulder":10471,"à¤¸à¤²Ê¼à¤¨":6746,"eration":5263,"--\"":1440,"Ġmotive":8948,"Ġà¤¬à¤°Ê¼à¤ľ":2558,"ĠIn":1825,"logy":9981,"Ġà¤®à¤µà¤«":6885,"à¤īà¤¬Ê¼":2135,"orer":5319,"ĠSec":8649,"à¤ķà¤Ĩà¤µ":2771,"Ġà¤ıà¤ĸà¤¨":3973,"2007":9701,"anguage":3688,"|":91,"à¥ĭà¤Ĥ.......":7058,"Ġà¤ıà¤µà¤²":3970,"Ġà¤¬à¤°à¤¤à¤¨à¤«":10832,"ĠISCHEMIC":10986,"Ġ?(":3983,"Ġ98642":11135,"à¤¹à¤²à¤¨à¤ĸ":10200,"à¤¾...........":4662,"à¤ĸÊ¼à¤¨":586,"ter":1424,"Ġà¤ħà¤²à¤ķà¤¯":8323,"1977":5795,"Ġc":880,"Ġà¤¶à¤°":1410,"Quotation":10757,"name":6404,"Ġlast":9597,"Ġ1924":5287,"à¥ĩà¤Ĥ-":1375,"à¤°à¤¨à¤ĸ":7272,"Ġà¤¦à¤¥":2026,"Ġà¤¬à¤ľÊ¼":4710,"ĠPap":5426,"Ġà¤¹à¤·":2730,"à¤¨à¤¶à¤¨":4668,"à¤°à¤¨à¤²":4934,"ulture":5868,"ã":159,"HEM":6159,"à¤¯à¤¸Ê¼à¤«":7638,"timation":8339,"piration":4395,"Ġà¤¹à¤¥Ê¼à¤¸":2733,"à¤¨à¤¸Ê¼à¤«":7396,"Ġ1564":9007,"ĠRroilus":9399,"Ġà¤¥Ê¼à¤«à¤²":9900,"à¤īà¤ľ":825,"ĠĠĠĠĠĠĠĠĠĠĠĠĠĠĠĠĠĠĠĠĠĠĠĠĠĠĠĠĠĠ":2297,"Ġà¤®à¤°à¤ľ":4795,"Ġsweet":5863,"Ġà¤°à¤¸à¤¨":7246,"à¤¿--":2570,"à¤²à¤Łà¤ĸ":2212,"Ġà¤®à¤¨":434,"Ġà¤¦à¤ĹÊ¼":3002,"à¤¸à¤¹à¤°":3325,"à¤¨à¤°":643,"à¤¨à¤ľà¤¨":4044,"Ġ........à¥¤":4192,"77":4506,"Ġà¤¸à¤²Ê¼à¤«":975,"à¤°à¤¨à¤ľ":7273,"à¤¯à¤¸à¤¨à¤¦":7636,"à¤¨à¤¦Ê¼":7822,"à¤²à¤ĩà¤¡":4726,"à¤¬à¤Ĺà¤¨à¤¨":8188,"Ġà¤Ĺà¤²Ê¼à¤Ĩà¤¬":8197,"Ġsix":8674,"Ġà¤ľà¤¸":1922,"à¤ĸà¤¨à¤ľ":3827,"bor":4572,"à¥¤.............":4772,"Ġ....!\"":5281,"ĠVen":5684,"à¤Ľà¤ľ":5344,"à¤°à¤ŁÊ¼":4684,"à¤Ĺà¤°à¤¦à¤¬":6948,"Ġà¤¥à¤«":933,"à¤°à¤ĸà¤®":7438,"esday":2593,"à¤ĩà¤¸à¤®":7967,"Ġclou":8920,"...................................":10107,"Ġà¤ħà¤¦à¤®":5355,"111":9375,"à¤°à¤ĺ":6594,"Ġà¤Ĺà¤¥à¤¨":8592,"rolanus":10270,"à¤°à¤·à¤®à¤¨":10378,"99764":10701,"Ġà¤Ĩà¤¯à¤¥":1858,"à¤ıà¤²":1411,"à¤¥à¤Ł":6952,"Ġ?\"..........":7749,"ĠHe":4303,"itame":8901,"à¤°à¤¹à¤°à¤¨":1197,"157":9437,"ĝ":217,"Ġà¤¨Ê¼à¤Ĩà¤µ":2056,"à¤®à¤īà¤ĩà¤Ĺà¤¨":9529,"Ġà¤¦à¤²à¤°":1575,"Ġà¤ĸà¤®à¤¬à¤ķà¤¥":10202,"ĠNovelsà¤«":10463,"à¥¤............":4771,"à¥ģà¤Ĥà¥¤":973,"ĠCommissionerà¤Ĩ":10684,"ĠLiterature":5894,"Ġdaggers":11028,"erman":8266,"arre":8509,"ised":3146,"à¥¤....":4766,"à¥Ī'":1205,"à¤ĩà¤īà¤°":7234,"M":44,"Ġà¤°à¤¥Ê¼à¤²":9465,"à¥Į":287,"à¤¾à¥¤ï»¿":3406,"Ġà¤ŃÊ¼à¤Łà¤ľ":7869,"à¤¨à¤¬à¤¨":4666,"à¤¹à¤°à¤¥Ê¼à¤¦":5084,"Ġà¤¦à¤°à¤ĸà¤Ļ":2071,"Ġà¤Ĺà¤²Ê¼à¤ľ":2825,"à¤ķÊ¼":2253,"Ġà¤¬à¤¹à¤¨à¤¨":1414,"à¥ĩà¥¤)":3513,"Ġà¤¬à¤¡Ê¼à¤²":833,"à¤Łà¤ªà¤¨":7321,"Window":2666,"à¤ħà¤°à¤¡":3629,"à¤°Ê¼à¤ªà¤¨":5039,"à¤¡Ê¼à¤¨":7621,"Ġ145":9489,"Ġsplend":10047,"Ġà¤¸à¤°à¤¬Ê¼à¤¨":9996,"à¤¸à¤°à¤ķ":5558,"Ġà¤®à¤¨Ê¼à¤Ĺ":5567,"Ġà¤ĸÊ¼à¤¬":4891,"tice":5691,"à¤¾à¥¤..........":7333,"à¥ģà¥¤à¥¤":8530,"Ġ14":1285,"à¤¥à¤¥Ê¼":6960,"Ġ!..........":7526,"Di":4525,"Ġro":2337,"Ġdiff":9084,"ĠPROMPT":4467,"ĠMouse":9055,"(_)":10695,"à¤µà¤¸":401,"Ġ132":5625,"Ġà¤Ĺà¤²Ê¼à¤®":5247,"à¤¬à¤²à¤¤":4134,"bid":6269,"175":5661,"Ġà¤Ĩà¤¦à¤®à¤¨":7837,"Ġà¤°Ê¼à¤¥Ê¼":8555,"à¤¾...........!\"":10531,"rustration":5896,"ĠAbel":10331,"EL":3710,"Ġas":3179,"à¤·Ê¼":5132,"Root":6218,"rist":6435,"Ġà¤ľà¤¨à¤¶à¤¨":8273,"Ġà¤ĸà¤¨à¤¬":1459,"ĠAthens":8710,"Ġà¤ĩà¤¸":509,"OS":1541,"Ġpractical":5438,"Ġà¤«à¤ķà¤²à¤°":10861,"Ġsafegu":5941,"à¤¾\"-":5377,"à¤¾à¤Ĥ":292,"ĠATWWF":5943,"ton":6462,"Pronominal":3675,"Ġà¤Ńà¤µà¤¨à¤¨":7867,"à¤¦à¤ĸÊ¼à¤¨":6819,"ĠVenus":10645,"à¤¸à¤Ĩà¤µ":3822,"Ġdespicable":11031,"ĠSeminar":10923,"A":32,"Ġà¤¦":294,"du":6296,"ravel":8621,"Ġà¤¸à¤°Ê¼à¤Ĺ":4791,"à¤ļà¤¨":1020,"Ġà¤ħà¤ŁÊ¼à¤¨à¤®":5869,"94":2915,"Ex":4530,"Ġsingleness":8682,"aven":10118,"à¥Ī...,.":10653,"Ġà¤ıà¤¨à¤¥":3969,"po":2682,"ĠTuesday":3575,"à¤¬à¤¦à¤²":6640,"ĠStyleà¤¨":10246,"ĠNow":3625,"à¤¾:-":2423,"mall":6390,"ĠTwelf":8788,"165":9560,"à¤²à¤§":3820,"Ġyou":1699,"à¤īà¤Ĩà¤µ":3426,"ĠDoct":3683,"00":498,"Ġà¤Ĩà¤²à¤®à¤°":3068,"à¤°Ê¼à¤¬à¤¹":7552,"à¤°à¤¸à¤¨à¤¨":7605,"Ġà¤Ĩà¤ĩ":518,"ĠCOPY":5835,"à¤²Ê¼à¤¦":2547,"Ġà¤ľà¤¤":2991,"Ġà¤°à¤ľà¤Ļ":5294,"Ġà¤ĩà¤ľà¤°":1951,"à¤ľà¤°":1003,"à¤Ĥà¥¤...":7817,"à¤ªÊ¼à¤¸":5015,"Ġbest":9027,"Ġà¤ıà¤ķà¤®":8478,"Ġunwise":10352,"Ġà¤¹à¤¨à¤¨":7015,":":25,"Ġà¤ħà¤Ń":998,"à¤ĩà¤²à¤«":1603,"Ġà¤¸à¤Ļ":1719,"Ġà¤Ĩà¤Ĺà¤°":1745,"à¤Ĺà¤¥Ê¼à¤µ":3164,"bild":6273,"Ġà¤ĸà¤²à¤ľ":7163,"ĠBoy":5568,"ree":2860,"eath":6307,"à¤¨à¤¹à¤°à¤¥":9041,"ĠMuch":9058,"Ġ246":5586,"à¤¾à¤Ĥ........":7069,"ĠDoctor":5870,"à¥ĩ......à¥¤":10380,"Ġà¤ĸà¤¬à¤«":7157,"Ġà¤ĩà¤ī":909,"95":2659,"Ġà¤¨à¤¬à¤¦à¤¯":4461,"2380":9746,"à¥Ī.........":6720,"à¤īà¤°à¤¸":7500,"152":9432,"Ġ100":1877,"Ġà¤¦à¤¤à¤®":2375,"eleg":2609,"Ġà¤¶à¤°à¤¨":8010,"SKCO":4560,"d":67,"à¤¾\"à¥¤":2843,"Ġà¤¬à¤ĸà¤¥":6677,"à¤¡à¤Ń":7622,"reat":3595,"bjective":6272,"Ġ480":8571,"sday":4634,"ket":3730,"à¤°à¤ĹÊ¼à¤Ĺ":4296,"Ġ........?":5356,"n":77,"§":100,"à¥ĭà¤Ĥ)à¥¤":7059,"Ġà¤Ńà¤Ĺà¤«":7865,"72":4503,"ĠMonday":9062,"à¤ĸà¤¨à¤¸":1347,"à¥ĩà¤Ĥ'":7574,"Ġà¤²à¤Ĺà¤¤":9238,"sin":6443,"à¤·à¤¦à¤Ĩ":9878,"à¤¼-":8226,"ĠRevenge":3679,"Ġà¤°à¤ĸà¤¦à¤«":7255,"à¤«Ê¼à¤°Ê¼à¤µ":9899,"à¤¾.......?":10183,"ĠCouquerville":10918,"Ġà¤ħà¤Ĺà¤£à¤¤":9140,"þ":186,"à¤¬à¤¥Ê¼":4694,"Ġtraditional":5903,"à¤°Ê¼à¤¬":1681,"Ġ2500":5562,"Ġà¤¦à¤²":932,"he":1136,"à¤Ĩà¤°à¤¤":1634,"468":6066,"Ġbrain":9037,"Ġà¤Ĺà¤¹":1158,"à¤¾à¤Ĥà¥¤":510,"Ġà¤ľà¤²à¤¦à¤¬":2898,"ĠLess":9300,"RA":3260,"à¤¤à¤°à¤ŀ":9609,"à¤ľà¤ķà¤Łà¤Ĩà¤µ":10844,"à¤¨à¤ĸà¤°":3450,"Ġà¤¬à¤²à¤¦":3320,"Ġà¤¬à¤ĩà¤¨":4704,"à¥ĭ.....à¥¤":5717,"Ġpoint":10973,"à¤ĩà¤ĸ":433,"à¤¬à¤Ł":3799,"Ġà¤ıà¤²Ê¼à¤¬":7379,"à¤ĹÊ¼à¤¬à¤ľ":9015,"à¤ĸÊ¼à¤¹":2287,"Ġà¤¯à¤ķ":5329,"Ġà¤°Ê¼à¤¡à¤ľ":8559,"à¤ĩà¤¨à¤¸":3391,"Ġà¤¦à¤Łà¤ª":7119,"à¤Łà¤²à¤·":9244,"à¥ģà¥¤\"":1853,"à¤ĩà¤ĸà¤°":2812,"ĠFolk":10642,"à¥Į-\"":8397,"Ġà¤ħà¤¦à¤¨à¤¨":8582,"Ġà¤ĸà¤¬à¤¨":2378,"ands":5512,"à¤£à¤ľà¤¯à¤¤":10309,"à¤Ĺ":283,"à¤ĩà¤Łà¤«":5334,"à¤¤à¤Ĩ":3990,"Ġà¤Ľà¤ķ":9345,"ĠPl":2616,"..................................":9334,"Ġà¤¡Ê¼à¤¥":7806,"''":653,"ĠAcc":2607,"Ġ41":3552,"icate":5459,"avid":4424,"Ġà¤¸à¤«à¤¨":5305,"à¤¨à¤¥Ê¼à¤Ĩà¤ĸ":9180,"à¤®Ê¼à¤Ĩ":9838,"Ġà¤ıà¤¸Ê¼à¤µ":4059,"Ġà¤¬à¤°Ê¼à¤¨":604,"Ġà¤ĸà¤¤à¤®":4893,"à¤ĹÊ¼à¤¬":2236,"Ġ!-":5031,"Ġà¤¡à¤¨":4062,"Ġà¤¬à¤¦à¤¨":1546,"ĠVER":5685,"Ġnot":1895,"Ġà¤¸à¤ĸ":1512,"à¤²à¤¯à¤µ":9678,"rd":3280,"Ġà¤¦à¤°Ê¼à¤Ĺ":7117,"1962":5738,"pire":5762,"Ġflex":9105,"ĠLeg":9303,"Ġà¤¬à¤¬":461,"Ġà¤īà¤·":3417,"Ġà¤ľà¤ĩà¤¨":3357,"à¤¸Ê¼à¤¨":1060,"Ġ\"....":7683,"à¤ĩà¤²à¤µ":8126,"Ê¼à¤¨à¤¨":3019,"ale":8433,"Ġà¤¹à¤¯à¤Ľ":9365,"line":6376,"à¤¿...??":10185,"ĠĠĠĠĠĠĠĠĠĠĠĠĠĠĠĠĠĠĠĠĠĠĠĠĠĠĠĠĠĠĠĠĠĠĠĠĠĠĠĠĠĠĠĠĠĠĠĠĠĠĠĠĠĠĠĠĠĠĠĠĠĠĠĠĠĠĠĠĠ":4332,"ĠSylhet":11143,"à¤¦Ê¼à¤¸à¤²Ê¼":5234,"es":654,"à¤īà¤¥":1000,"à¤ªà¤¨à¤Ĩ":8093,"ĠGreek":11070,"à¤Ĩà¤®":1247,"à¤¾à¤Ĥà¥¤'":3496,"à¤¸à¤¯à¤Ĺ":6733,"Ġà¤ıà¤ĩà¤¦":4968,"à¤ķà¤«":1017,"ord":1340,"Ġà¤®à¤¹à¤²":7977,"Ġà¤¬à¤¹à¤¨à¤¦":8201,"'s":1986,"à¤²à¤¦à¤¦":6708,"Ġà¤īà¤°à¤ĸ":7454,"à¥ĩà¥¤":579,"Ġà¤Ĺà¤Ĺà¤²à¤¸":8801,"Ġ''":1119,"à¤¯à¤Ĺà¤¤":7735,"Ġà¤«Ê¼à¤ľà¤¨":9875,"Ġvitame":9952,"Ġà¤Ĩà¤ĸà¤²à¤ĸ":1101,"Ġà¤®à¤Ľà¤²à¤¬":10290,"à¤°à¤¯à¤¦à¤Ĩà¤°":10825,"à¤ķà¤·":4955,"Ġà¤Ńà¤¬":1438,"Ġsev":8673,"à¤¿..à¥¤":4679,"à¤£à¤¬":4080,"Ġà¤¥Ê¼":1515,"Ġà¤ªà¤¢":7599,"Ġà¤®à¤¥à¤°à¤¨":5509,"Ġà¤¬à¤°Ê¼à¤¸à¤®":7697,"à¤¬à¤·":6639,"à¤Ĩà¤«":875,"ument":4391,"ĠCtrl":8610,"Ġ72":8820,"Ġ4500":9902,"©à¤ĸ":6516,"ting":6465,"Ġ34":3129,"Ġà¤ªà¤¹":5045,"Ġà¤ĺà¤¨à¤¸":8357,"à¤Ĩà¤ĺ":7434,"Ġessential":10818,"à¤¡à¤¸à¤ĸ":7627,"2005":9700,"Ġà¤¬à¤¹":549,"Ġ83":5483,"nd":1292,"à¤°à¤¦":406,"à¤°à¤·":3786,"à¥¤..........":4769,"analysis":10905,"Ġ1582":9008,"osi":2327,"rogation":9340,"à¤°à¤«à¤¨":7902,"Ġ1966":5636,"ĠCGI":8606,"Ġpartner":10974,"É":133,"à¤¯à¤ªà¤ĸ":6613,"Ġà¤§à¤°":1642,"à¤¬à¤¨à¤¨":4692,"thello":4462,"Volume":10772,"Ġ-\"à¥¤":9453,"à¥ĩ:-,":10315,"à¤®à¤µ":1027,"à¤®à¤§":787,"à¤¬à¤¹à¤°à¤«":6649,"à¤ªà¤¸à¤¨":4007,"à¤ªà¤¬Ê¼à¤°":7495,"à¤ħà¤«Ê¼":7892,"Ġà¤ľà¤¨Ê¼":8272,"Ġ!'":2549,"Ġfrom":2864,"à¤®à¤®à¤ª":6804,"Ġ1989":4295,"à¤¨à¤¸à¤ĸ":7389,"Ġsit":8667,"cons":4577,"182":9579,"à¤®à¤Łà¤°à¤¨":6809,"à¤¥à¤«":1206,"radit":8622,"Ġà¤¥à¤ĸ":2244,"Ġà¤Ńà¤°à¤¤":3080,"Ġà¤Ĩà¤ĩà¤¦":1288,"à¤¹à¤®":3377,"à¤¿''":4674,"Ġà¤®à¤¨à¤¯":5158,"sification":5614,"fanc":6319,"ĠOctober":1897,"à¤ĩà¤¨à¤®à¤¬à¤°":7704,"à¤¦à¤¬à¤®":8722,"Ġà¤¬à¤¯à¤ĸà¤¤":9401,"à¤°à¤°à¤ªà¤¤":9753,"à¤ŁÊ¼à¤ķ":2065,"Ġ11":988,"à¤²à¤¯à¤¨":2346,"phone":9824,"à¤·à¤¥":7874,"Ġ1937":8350,"pect":4626,"Ġext":5732,"wly":6501,"à¤Łà¤²à¤ľ":7325,"à¤Ĥ:-":6627,"Ġà¤Ĺà¤²à¤¨":6843,"à¤ıà¤«":1643,"Ġjustify":5853,"à¤ħà¤ľ":1162,"oin":3278,"à¤ķà¤ķà¤°":1330,"inine":8236,"Ġ7600":8825,"à¤²Ê¼à¤¯":3428,"Ġà¤ħà¤ŀ":7305,"Ġà¤Ĺà¤¥Ê¼à¤¸":1961,"Ġà¤ĸà¤¬Ê¼à¤¥":9001,"à¤°à¤¯":846,"Ġà¤ľà¤ĸÊ¼":4818,"à¤¯à¤²à¤Ĺà¤ľ":7940,"à¤¸à¤®à¤¨à¤ľ":9921,"ĠDevid":11042,"i":72,"Ġà¤°à¤ľÊ¼à¤¹":5297,"Ġà¤§":481,"à¤¬à¤¦à¤®":8115,"Cl":6116,"228":9912,"à¤¿........":3305,"Ġanyth":5764,"ĠNight":9420,"à¤¹à¤°à¤ľ":3005,"Ġà¤«Ê¼à¤¨à¤¨":9874,"Ġà¤®à¤Ĺà¤²":6889,"à¤¬à¤¡Ê¼":2342,"ĠPlotà¤¨":10098,"à¤ħà¤°à¤ľ":2810,"ion":3272,"à¤Ĩà¤²":697,"issioner":3232,"à¤¯à¤¦Ê¼à¤¬":7584,"Ġà¤ªà¤°à¤°":9017,".............":2817,"Ġà¤ķà¤Łà¤¨":2544,"à¤Ĩà¤¬":632,"erived":3678,"Ġgreat":5675,"Ġinvaders":5905,"Microsoft":6178,"Ġà¤®à¤¹à¤Ļ":7978,"168":9563,"Ġchurch":10336,"Moby":10740,"ĥ":225,"Ġà¤ĸà¤¬à¤ľà¤¬":4382,"aspirated":4474,"ĠPDP":4224,"Ġadverb":5761,"à¤·à¤¸":2273,"à¤ĩà¤°à¤¨":7227,"Ġrequ":4380,"Ġà¤¥à¤¸à¤¬":7148,"Ġà¤¬à¤°Ê¼à¤Ĩà¤²":7699,"uman":5754,"à¤¯à¤¥Ê¼à¤¥":8855,"à¥ģ":275,"Ġlyrical":9601,"à¤ľà¤ķà¤Ł":6919,"Ġ37":8451,"rolo":3747,"Ġeducated":6540,"Ġ...(":8520,"à¤°à¤ªÊ¼à¤°":9676,"Ġxà¤«à¤¸":10522,"Ġà¤ıà¤°à¤¹à¤¬":10560,"Ġà¤¦à¤°à¤¦":3911,"Ġà¤ķà¤µ":2043,"à¤¹à¤®à¤¹à¤²":10856,"Ġbeloved":11019,"à¤¨à¤Ĺà¤°":4061,"Ġ135":9485,"Ġim":4655,"à¤¨à¤¦Ê¼à¤µ":7824,"à¤¥à¤µ":3354,"Ġà¤¨à¤ĸà¤°":705,"à¥ĩ----":9993,"{":90,"Ġ...!\"":8523,"à¥ĩ....à¥¤":6694,"Ġà¤ķà¤¨à¤¸":1944,"Ġà¤¸à¤¹Ê¼à¤ĸ":2827,"min":2927,"ant":2063,"ĠSim":5382,"order":5640,"Ġà¤¥Ê¼à¤¨":3920,"à¤¸à¤²à¤«":6742,"Ġmusic":11002,"Ġà¤¹à¤ľà¤®":2166,"Ġà¤¦à¤¦":563,"res":2328,"Ġà¤¹à¤²à¤¸":4830,"à¤®à¤Ĩà¤¬":6798,"Ġmod":8934,"Hyphen":10731,"of":2679,"ĠCantebury":10913,"Ġà¤¨Ê¼à¤®":7960,"à¤īà¤¨à¤¹":7503,"à¤¥à¤°":649,"quy":1652,"à¥Į.....":6999,"Ġà¤ªà¤°à¤¦":7591,"22443":10480,"Select":10766,"Ġà¤īà¤¨à¤¥":1100,"Ġà¤¨à¤¥":2743,"Ġà¤ľà¤Ĺà¤¨":4815,"Ġadvanc":9938,"Ġ?\"":385,"??":6097,"Ġà¤·à¤¤":8765,"Ġ)...":8040,"à¤Ĥ.....":3797,"Ġ1984":2866,"Ġ.....'":9239,"à¤Ĺà¤µ":3870,"rl":6432,"Ġà¤¥à¤°à¤ľ":7139,"ĠRem":5592,"Ġà¤ħà¤Ł":2123,"à¤²Ê¼à¤¥Ê¼":4013,"Ď":202,"Ġà¤Ķ":618,"Ġà¤¹à¤®":664,"ĠSund":8654,"Ġ2004":2292,"ep":1657,"à¥Ĥ":1220,"à¥ĭ''":4670,"à¤®à¤ĸà¤¨à¤¨":7975,"ĠWinkle":10948,"Ġà¤Ĩà¤¹à¤®":1827,"à¤¸à¤Ĺ":2706,"C":34,"Î":138,"ight":1995,"à¤ĩà¤¹à¤°à¤¦":4912,"ĠKing":5763,"à¤Ĺà¤¬à¤¸":6935,"Ġà¤Ĩà¤¸à¤¨":2811,"Ġà¤Ĩà¤¹à¤¤":8956,"à¤ĹÊ¼à¤ļ":9014,"ech":4312,"à¤µà¤¤à¤ĸ":6776,"Ġbus":9024,"à¤¬à¤¹":572,"Ġà¤Ĺà¤²à¤¬":8182,"alid":8436,"alisation":8440,"Ġà¤¸à¤¤à¤¬":9229,"Ġreason":9833,"ows":8697,"à¤¾à¥¤''.........":9925,"Ġà¤Ĩà¤īà¤¨":7044,"Ġwww":2620,"Ġtragical":10060,".....\"":4180,"Ġà¤ıà¤°à¤Ĺ":4962,"ĠNorth":9422,"Ì":136,"ĠImmortality":10987,"à¤¸à¤°à¤¨":2707,"à¤ľà¤Ĺà¤¡":5737,"Ġjoin":6541,"Ġà¤¸à¤¨à¤«":4779,"Ġfall":5520,"à¤¨à¤ľ":361,"Ġlike":10162,"à¥ĭ\"":1183,"Ġà¤Ĺà¤²Ê¼à¤²Ê¼":3504,"Ġ500":2294,"30":1105,"à¥Ī\"":2213,"Ġ1960":4343,"à¤°à¤Ĺà¤ĸ":4057,"Ġà¤Ńà¤°à¤¤à¤¨":7863,"Ġcommit":10256,"Ġà¤ķ":329,"Ġà¤ĸÊ¼à¤¦":5696,"Ġà¤®à¤¨à¤¨":2986,"Ġ.....\"":5563,"Ġdoer":10105,"à¤ĩà¤¨à¤°":5079,"Pers":4550,"rive":3195,"à¤µà¤°":413,"Ġà¤ħà¤°à¤Ĺ":1460,"à¤Ńà¤°":2566,"Ġ70":1889,"lectual":5821,"à¤¥Ê¼à¤²à¤ľ":7674,"undefiled":10369,"Ġ(!)à¥¤":10567,"Brac":6111,"ĠKachari":10113,"Ġà¤¬à¤°Ê¼à¤¹":4051,"ĠFOR":5673,"amp":9491,"Ġtrains":10467,"à¤¸à¤¬à¤ľ":3824,"Ġà¤Ĺà¤¯à¤«":6842,"Ġbig":9029,"à¤§à¤¨à¤ľ":8081,"a":64,"ĠĠĠĠĠĠĠĠĠĠĠĠĠĠĠĠĠ":1471,"ĠText":5422,"EN":6139,"à¤Ĩà¤µà¤²":2049,"Ġà¤®à¤¹à¤®":2574,"à¥ĩ":269,"Ġà¤«à¤¦":7171,"Ġà¤®à¤¥à¤°à¤ľ":4279,"ilation":8995,"Ġà¤°à¤ľÊ¼à¤«Ê¼à¤¬":10573,"Ġà¤īà¤ª":1406,"ful":3722,"sity":4633,"Ġà¤¬à¤²":1298,"à¤°à¤®à¤ª":2561,"oquy":6415,"Ġà¤ģ":1770,"Ġcar":5467,"à¤ķà¤¨Ê¼à¤²Ê¼à¤ľ":8382,"Ġ199":1467,"erit":3123,"Ġà¤¬à¤¡Ê¼":1382,"à¤ļà¤Ľà¤®":8038,"Ġ?...":3040,"232":9739,"à¤ħà¤Ńà¤¯":10040,"sor":6446,"À":124,"Ġà¤¦à¤®":818,"ĠVII":9658,"Ġà¤ħà¤°à¤¸à¤¦":10138,"à¤¿à¤Ĥ...........!":7452,"Ġà¤Ĩà¤¦à¤¯":7835,"thong":4144,"Cambell":10717,"à¤¦à¤°à¤²":3840,"Ġà¤¹à¤®à¤²":1724,"Ġ!''":3051,"ĠĠĠĠĠĠĠĠĠĠĠĠĠĠĠĠĠĠĠĠĠĠĠĠĠĠĠĠĠĠĠĠĠĠĠĠĠĠĠĠĠĠĠĠĠĠĠĠĠĠĠĠĠĠĠĠĠĠĠĠĠĠĠĠĠĠ":4329,"140":9644,"Ġà¤®à¤¶à¤¨à¤¨":6895,"Derived":4527,"à¥ĭ-à¥¤":7851,"Ġà¤Ĩà¤²à¤¤":3067,"Ġà¤¦à¤²à¤¨":7101,"ĠTragedy":3673,"ĠChorus":10219,"Ġà¤ĸÊ¼à¤ĸÊ¼":9686,"Ġà¤Ĩà¤¦à¤¬":967,"à¤¸à¤¯à¤¨":2490,"Ġà¤¸Ê¼à¤®à¤¬":5715,"Ġà¤Ĺà¤Ĺà¤¨":2498,"à¤¦à¤Ĩ":6812,"à¤¼à¤¿-":8227,"à¤°à¤¥Ê¼":1914,"Ġà¤¥à¤°à¤¨":2747,"termination":9591,"Ġà¤¨Ê¼à¤ĸà¤°à¤¥":4238,"à¤®à¤«":465,"Ġà¤ł":1452,"Ġà¤®à¤¦à¤¤":2624,"à¤¸Ê¼à¤ľ":8543,"Ġà¤¸à¤²Ê¼à¤¸":2563,"à¥įâĢĮ...":8224,"ĠNovel":4389,"igh":4602,"à¤¨à¤¸à¤¨à¤¬":4975,"Ġà¤¬à¤¥à¤²à¤ľ":4341,"à¤¾à¤Ĥ........à¥¤\"":7077,"Ġà¤īà¤ĩà¤¨à¤¡à¤ľ":10208,"Ķ":242,"Ġ1983":3609,"Ġà¤¬à¤¨à¤¬à¤°à¤¨":10829,"à¤ĺ":785,"Ġ1992":4360,"stru":8959,"ĠReg":9388,"ĠCopper":5862,"Ġ19878":10161,"Ġà¤®Ê¼":1920,"Ġfev":9099,"Ġà¤®à¤¦à¤°":3864,"Ġà¤§à¤¨à¤¬":3490,"resopnsible":10027,"las":2926,"à¤¶à¤ķ":5111,"à¥Į'":2020,"akes":9916,"IS":6163,"Ġà¤£à¤¤":9919,"à¤¬à¤°à¤¸":2952,"roofs":11084,"à¤¿.),":7999,"à¤ıà¤µà¤Ĺ":8102,"147":9650,"Ċ":198,"Ġà¤®à¤¦à¤¦à¤¸":8364,"à¤Łà¤¨à¤ľ":7317,"à¤¨à¤¸à¤°":7386,"ĠWind":8726,"Ġà¤ĩà¤²":1227,"ĠPleas":8807,"vent":4644,"Ġà¤ħà¤¸à¤ķ":8500,"à¥Ī---\"..":10895,"à¤¨à¤¹à¤°à¤¬":1601,"Ġdash":9089,"Ġà¤ĸà¤¬à¤°":1482,"à¤²à¤¦à¤ĸ":2586,"à¤ĸÊ¼à¤¬":1964,"à¤°à¤ķÊ¼":4325,"à¤®à¤¬Ê¼à¤¨":7663,"Ġ1907":8353,"Ġexpect":10251,"à¤§à¤°à¤¨":8077,"à¤ĩà¤¨à¤¡":5082,"wor":6495,"Ġ....?\"":8327,"Ġassamtrib":10625,"ĠPharmacutic":10687,"Windows":3676,"Ġà¤ľà¤¯à¤²":6983,"à¥Īà¥¤.........":7522,"à¤·à¤ĸ":4074,"Ġà¤¸Ê¼à¤¨":691,"Ġà¤ħà¤°à¤ĸ":771,"ĕ":209,")ï»¿":4486,"Ġà¤®à¤¦à¤¨à¤¨":4257,"à¤¡à¤²Ê¼":7618,"à¤²à¤°à¤²":6704,"Ġlong":9596,"Ġà¤ĩà¤Ľà¤²":10082,"Ġgo":2643,"Ġà¤ķà¤¡":3046,"Ġà¤ŃÊ¼à¤ľ":3466,"à¤ĸà¤²à¤«":6762,"Ġà¤«à¤ŁÊ¼à¤Ĩà¤µ":9162,"Ġgroup":9633,"à¥ĩ')ï»¿":9756,"Ġà¤Ńà¤ľà¤¨":7861,"à¤ĸÊ¼à¤¤":8249,"Ġà¤ĸÊ¼à¤°à¤¨":9685,"Ġdeeds":10236,"à¥ĭ..":2204,"156":9436,"à¤²à¤ķà¤®à¤²à¤¨":9156,"Ġà¤«à¤ľÊ¼à¤¹":2073,"à¤¥à¤¤":6955,"à¤ĩà¤Ŀ":3941,"urday":9405,"Ġà¤¬Ê¼à¤¥à¤²à¤¥":10543,"à¤Ĩà¤²Ê¼":4990,"ĠChange":10665,"ĠLuc":5577,"ĠĠĠĠĠĠĠĠĠĠĠĠĠĠĠĠĠĠĠĠĠĠĠĠĠĠĠĠĠĠĠĠĠĠĠĠĠĠĠĠĠĠĠĠĠĠĠĠĠĠĠĠĠĠĠĠĠĠĠĠĠĠĠĠĠĠĠĠĠĠĠĠĠĠĠĠĠĠĠĠĠĠĠĠĠĠĠĠĠĠĠĠĠĠĠĠĠĠĠĠĠĠ":9373,"à¤¦Ê¼à¤ķ":8131,"à¤ī":331,"Ġwordsworth":9979,"227":9911,"Abar":6105,"à¤ľà¤¨à¤¬":6905,"oram":8468,"à¤ľà¤¥":972,"Ġà¤ħà¤®":584,"Ġà¤ħà¤¯":3400,"Ġà¤¸à¤®à¤«à¤²":9484,"Ġmovements":11007,"Ġà¤¬à¤°à¤¥":6663,"Ġà¤ªà¤°à¤®":2260,"olant":8977,"à¤·à¤¸à¤¨":5135,"Ġà¤®à¤¹à¤°à¤ľ":2278,"oo":3740,"à¤¥à¤°à¤ľ":6959,"Ġà¤ľà¤¨à¤¸":6971,"Ġà¤Ĩà¤¸à¤¥":1743,"à¥ĩà¤Ĥ)":4027,"à¤Łà¤¯à¤¨":4944,"Ġà¤ħà¤Ĺà¤°":2768,"à¤ķà¤®à¤¨":7338,"Ġà¤ıà¤¨à¤ĸ":7360,"Ġà¤īà¤¦à¤ĸ":1083,"aes":6257,"ĠĠĠĠĠĠĠĠĠĠĠĠĠĠĠĠĠĠĠĠĠĠĠĠĠĠĠĠĠĠĠĠĠĠĠĠĠĠĠĠĠĠĠĠĠĠĠĠĠĠĠĠĠĠĠĠĠ":2181,"52":3700,"Ġdec":9079,"Ġà¤¡à¤¬à¤²":7804,"Abrams":10704,"Pred":4552,"à¤§à¤¨":1442,"à¥Ī)à¥¤":5354,"à¤µà¤¥à¤¬":7727,"à¤µà¤¸Ê¼à¤µ":7791,"gou":6323,"Ġà¤¥à¤¯à¤²":7141,"Ġdetect":11026,"r":81,"ĠV":1473,"à¤īà¤¡à¤¨":5023,"Ê¼à¤¬à¤ľ":7219,"Ġ1988":2634,"Es":6141,"à¤ªÊ¼à¤ķ":7493,"ĠInternal":10111,"iii":5797,"Esmond":10727,"Ġ?\"......":7748,"à¤¬à¤ķà¤ľ":6648,"à¤ĩà¤¨à¤²":7700,"à¤¬à¤§à¤¨":3804,"à¥ĭà¥¤\"--":8129,"Ġà¤ħà¤¬à¤Ļ":2575,"Ġtheme":3580,"à¤¨à¤²Ê¼à¤ľ":9836,"ctiv":4578,"ĠROME":11088,"Ġà¤Łà¤°":1565,"Seme":10503,"...................":4323,"Ġthem":4236,"à¤¶à¤¬":3460,"Ġà¤®à¤¦à¤¦à¤¬":4162,"Ġà¤Ĩà¤Ĺà¤¤":5167,"colon":5920,"Ġsour":8668,"à¤®Ê¼à¤ķ":6802,"Ġpersual":5883,"à¤Łà¤«à¤°":2769,"à¤ľà¤¥à¤°":6915,"à¤ŁÊ¼à¤Ĩ":8462,"rib":5581,"H":39,"Ġà¤«à¤£":7179,"Ġplotà¤¨":9866,"à¥ĭà¤Ĥà¥¤)":2777,"oth":6409,"ĠLetter":10632,"à¤¾":258,"Ġfl":4289,"Ġepitap":10820,"à¤¯à¤¥Ê¼à¤²":3581,"Ġ70941":11122,"Ġà¤ıà¤ĩà¤²":7371,"à¤¿à¤Ĥ.........à¥¤\"":7449,"à¥įâĢĮ'":8220,"à¤Ĩà¤°à¤¸":1524,"very":2186,"Ġà¤ıà¤ŁÊ¼à¤®":4971,"à¤°à¤Ł":1582,"Ġà¤«à¤ľÊ¼à¤«":3204,"ning":6403,"ĠĠĠĠĠĠĠĠĠĠĠĠĠĠĠĠĠĠĠĠ":1599,"24":1654,"à¤¿},":6584,"à¤°à¤¤à¤¹à¤°":8208,"à¤Ńà¤Ĩà¤µ":7829,"à¤Ľà¤Ĩ":8535,"à¤¬à¤ĸÊ¼":1880,"orist":8470,"Ġà¤ķà¤¨à¤¡à¤®":8761,"Ġwhich":10058,"Ġbyte":10339,"ĠMOVE":10605,"Ġiv":6535,"à¤ĩà¤¨à¤ķà¤²à¤ľ":10890,"à¤£à¤ļà¤¨":3474,"REE":4447,"t":83,"73":6076,"Ġà¤ĽÊ¼":9344,"ß":155,"à¤¨à¤Ĩ":1712,"à¤¸à¤Ļ":1850,"à¤®à¤§à¤°à¤Ĩ":4270,"kref":6364,"Ġà¤ĹÊ¼à¤¬à¤²":8431,"ĠWindow":955,"Ġà¤¬à¤ĸÊ¼à¤¨":1714,"Ġà¤ĩà¤ĸ":2552,"à¤¨à¤¨à¤¨":3955,"onification":8298,"Ġpresent":8834,"1000":6044,"Ġà¤²Ê¼à¤²Ê¼":9507,"Duble":10724,"ĠCh":3145,"Ġà¤ĩà¤¨à¤¸à¤Ł":9845,"Ġfailure":11038,"1854":4352,"à¥Ī":271,"ĠHab":2872,"Ġà¤ıà¤¥":2254,"Ġà¤Ķà¤¹":5286,"Ġà¤Ĩà¤°Ê¼à¤ª":10299,"à¤¨à¤¦":408,"à¤¡à¤Ĩ":7617,"Ø":148,"Ġspeer":10046,"Ġidel":10031,"203":9537,"labial":10787,"ĠTaxà¤¨":10956,"à¤°à¤²à¤²":7752,"ĠBoots":5967,"Ġà¤°à¤ľÊ¼à¤ľ":4166,"Ġ79":5432,"spir":5827,"ŀ":252,"Ġ33":5309,"ĠUser":3643,"à¤®à¤¨Ê¼à¤°à¤¨":4441,"..........":1067,"Ġà¤ĸà¤¯à¤²":7156,"Ġex":3217,"Ġboth":9035,"Ġà¤ĵà¤¨à¤¦":3059,"à¥ĭ...\"--":10245,"Ġ21":1286,"ĠSX":5381,"ao":4567,"ĠParis":10419,"ĠSuspect":10927,"Ġà¤²à¤«":3387,"à¤®à¤²Ê¼à¤¸":6805,"á":157,"-ï»¿":6030,"Ġà¤¹à¤ªà¤ķ":7022,"ĠĠĠĠĠĠĠĠĠĠĠĠĠĠĠĠĠĠĠĠĠĠĠĠĠĠĠĠĠĠĠĠĠĠĠĠĠĠĠĠĠĠĠĠĠĠĠĠĠĠĠĠĠĠĠĠĠĠĠĠĠĠĠĠĠĠĠĠĠĠĠĠĠĠĠĠĠĠĠĠĠĠĠĠĠĠĠĠĠĠĠĠĠ":8003,"ti":614,"Ġà¤¸à¤°":616,"7946706":10700,"à¤¿}:":4681,"à¤Łà¤¨à¤¨":3957,"à¤īà¤¨à¤¸":4008,"ĠLiberalisation":10452,"Ġà¤Ĺà¤²Ê¼à¤Ĩà¤¨":8196,"short":10071,"à¤ħà¤ľà¤¯":2877,"à¤¥Ê¼à¤ĸ":2556,"Ġà¤Ĺà¤ĸ":2497,"Ġat":3289,"ĠIII":10101,"à¤¹à¤²":3003,"à¤µÊ¼à¤ĸ":4748,"à¤īà¤ķ":1210,"à¤°à¤«à¤¤":7905,"à¤ĩà¤Ń":906,"ian":6344,"Ġfinish":9109,"eries":8263,"Ġcle":5468,"pes":6421,"ro":1137,"à¥ĩ.........à¥¤\"":6695,"iling":8996,"Ê¼Ê¼":4905,"Ġà¤¹Ê¼à¤¬":2732,"Pardon":6211,"Ġà¤ķà¤²à¤¨":4003,"à¤°à¤¬à¤¥":4019,"Ă":190,"à¤¨à¤Ļ":1069,"ĠLaw":3620,"à¥Ģà¤Ĥ,":7385,"Ġ....(":8325,"ĠIncome":9855,"à¤¡à¤¨à¤¨":7616,"Ġà¤ľà¤°à¤¹":3882,"à¤¡à¤°à¤¨":7615,"lecture":10159,"Ġà¤ħà¤²à¤ĸà¤¤":4359,"Ġà¤ĸà¤°à¤¬à¤ľÊ¼à¤¬à¤¨":10554,"Ġconfl":10428,"Ġà¤°à¤¨":1117,"à¤ĩà¤Łà¤¨":2121,"mbel":6398,"Ġà¤²à¤ļà¤¨":4904,"Ġà¤®à¤¹à¤°à¤ĸ":1041,"ĠPhar":5427,"Ġà¤ľà¤ĸà¤¨":6989,"à¤°à¤®Ê¼à¤ľà¤®à¤ľ":10307,"Ġà¤¦à¤ĸÊ¼à¤°à¤¸":10853,"Networ":10746,"à¤¯à¤¦":346,"à¤¡à¤²":2264,"Ġà¤²à¤¨":2029,"à¤°à¤¸à¤ĹÊ¼à¤²":7610,"à¤ĸà¤²à¤¥":1061,"cil":6281,"Ġà¤Ĺà¤¨à¤ľ":6838,"Qu":6212,"Ġwright":8871,"Ġà¤ıà¤°à¤¸":1434,"Ġà¤ľà¤¸Ê¼à¤¨":6992,"ĠClearup":10675,"ĠScience":10012,"Ġà¤ľà¤¨à¤ķ":4142,"à¤²Ê¼":333,"à¤ıà¤ī":5222,"Ġ5000":8411,"iquy":4603,"ĠStage":9790,"Ġà¤ľà¤¯à¤¬":6978,"Erases":10490,"Ġstring":5729,"Ġà¤ĵà¤Ĩ":7639,"à¤°à¤¹à¤²":7782,"Ġà¤Ĩà¤µà¤°":1128,"Ġà¤ª":347,"à¤ĭ":2941,".....":678,"./":6034,"Ġà¤ħà¤¨à¤¶":5161,"Ġoffic":8739,"Ġà¤Ńà¤°":3079,"Ġà¤ħà¤²Ê¼à¤ķà¤¬":8290,"à¤ĺà¤°":2848,"à¤ĩà¤¥à¤µ":8219,"iff":3729,"Ġà¤Ĩà¤°Ê¼à¤ľà¤²":9809,"à¤¨à¤¥Ê¼à¤¯":3612,"Ġà¤¸à¤²Ê¼à¤Ĺ":1361,"Ġà¤¥à¤°à¤«":1789,"Ġà¤¦à¤ĻÊ¼":615,"à¤°à¤ħà¤¨":3789,"Ġà¤¦à¤Ļà¤¬":2419,"ĠSoliquy":9814,"à¤¯à¤²":437,"dition":3680,"vowel":3756,"Ġà¤Ĩà¤¥à¤¬":7950,"Ġà¤ªà¤°à¤ľ":7589,"à¤Ĺà¤¥Ê¼à¤«":1135,"rel":3282,"à¤°à¤ĹÊ¼à¤¬":3073,"à¤¬à¤²à¤Łà¤°":8216,"0903":10117,"173":9571,"Ġà¤²à¤ĸÊ¼à¤¬à¤ľ":9566,"Ġà¤īà¤¨à¤¦":1563,"Ġà¤¬à¤²à¤¡":9505,"Ġclimax":8916,"Ġà¤¸à¤¦à¤Ĺ":4785,"Ven":6240,"à¤¥Ê¼":360,"Ġvariance":11130,"Ġintention":9314,"Ġtelegramà¤Ĩ":10231,"Ġà¤Ĩà¤°à¤Ł":7287,"à¥¤)":2110,"à¤²à¤¸à¤®":6707,"Ġà¤«Ê¼":1861,"à¤®à¤Ĩ":1778,"à¥Ī.....":2705,"Dental":10486,"ole":6411,"ĠSubmit":10323,"Ġà¤Ĩà¤Ĺà¤µà¤Ĺ":7958,"à¥¤..":6826,"Ġ//":5788,"Ġ?..":7403,"ĠPAR":8809,"xer":6504,"ercise":5834,"Ġshort":10155,"à¤¾....à¥¤\"":4347,"à¤ĸÊ¼à¤¨à¤¯":8280,"Ġ1000":2569,"à¤¿:....":4145,"/":14,"Ġà¤ĸà¤°à¤ľ":4889,"nder":4338,"Ġà¤ħà¤ľà¤¯à¤®":5164,"Ġà¤²à¤ĸ":716,"Ġqu":3292,"Ġanything":5984,"spo":6452,"à¤¾à¤Ĥ+":7067,"%":4,"Ġà¤ŃÊ¼à¤°":7862,"Ġà¤¨Ê¼à¤ĸà¤°à¤ľ":8860,"ĠGUI":9290,"Ġà¤¨Ê¼à¤¹":5169,"Language":6170,"ĠCreation":10910,"local":6381,"Ġ45":1972,"Dist":6130,"à¥Į:":2994,"à¤µà¤°à¤ĸ":6767,"Ġ...........":2068,"over":6413,"Al":6102,"..]":7283,"Ġ*****************":10279,"Ġà¤°à¤¯":1355,"UNWGIP":10770,"Ġcontinues":10992,"à¤¥à¤Ļ":1394,"à¤°à¤°":1615,"à¤¦à¤ķ":2216,"Ġby":3598,"siolants":11099,"om":797,"à¤ħÊ¼à¤ª":5610,"à¤¹à¤®à¤ĸ":4872,"Ġà¤¸à¤®à¤ķ":5040,"à¤ĹÊ¼à¤µ":4806,"Ġà¤Ĩà¤²à¤ķ":7687,"Ġà¤¹à¤°à¤®":1456,"Ġmet":8933,"ember":2310,"à¤Ĥ........":4687,"à¤Ĺà¤²à¤ĸ":3871,"Ġthy":5378,"1992":9970,"à¤ĸà¤¬":1852,"à¤µà¤°Ê¼":6768,"à¤°à¤¥Ê¼à¤µ":6598,"ĠProgram":4407,"à¤Ń":409,"à¤²à¤¤à¤¨":4725,"Ġwayward":10425,"Ġà¤ĸà¤Łà¤®":7167,"Ġglory":9634,"à¤Ĩà¤¬Ê¼à¤¨":8372,"à¤¯":264,"à¤ľÊ¼à¤µ":647,"à¤£à¤µ":5146,"Ġà¤ľà¤ľÊ¼":6991,"à¤ĩà¤²à¤¨":1116,"Ġ?à¥°à¥":7409,"à¥ĭà¤Ĥ---":9327,"à¥ĭà¥¤....\"":10204,"à¤¾\"!":8634,"à¤°à¤«Ê¼à¤¨à¤ĸ":7909,"ence":3640,"à¥ĭà¥į":6569,"Phonology":10749,"Ġà¤Ĩà¤ĸà¤¬":7679,"à¤¯à¤ĹÊ¼":4055,"Ġà¤Ĩà¤¤à¤°":7051,"Ġcharacters":5953,"ctory":5498,"à¤¥à¤ĸ":1350,"à¤ĵà¤¨":3130,"Ġà¤¤à¤¸à¤°à¤«à¤¨":10211,"à¤¹à¤«":3379,"Ġà¤§à¤¨à¤¶":3670,"à¤¾.....?\"":9721,"Ġà¤¬à¤¸à¤ľ":8167,"Ġ1978":4356,"Ġwhere":10056,"à¤¸à¤°à¤Ĺ":4734,"ĠĠĠĠĠĠĠĠĠĠĠĠĠĠĠĠĠĠĠĠĠĠĠĠĠĠĠĠĠ":2836,"ichar":5458,"Ġà¤ıà¤ĩà¤¡":4970,"à¤¦à¤¬à¤¨":1322,"sec":6450,"Ġbright":9030,"à¤¤à¤°à¤£":7417,"Ġà¤¥Ê¼à¤²":3921,"Ġà¤¬à¤¹à¤¥à¤¨":8202,"Ġà¤¬à¤¨à¤ĸ":4705,"gorical":6332,"Ġcommissioner":4445,"à¤ĩà¤¨à¤ķà¤²":7701,"Ġinvades":10472,"Ġà¤Ĩà¤¦à¤°":2052,"Ġà¤ĸà¤¬Ê¼à¤«":4386,"Ġà¤Ĺ":279,"Ġ62":4248,"Ġà¤Ĩà¤¬Ê¼":803,"à¥Īà¥¤......":5028,"Ġà¤ĹÊ¼":659,"---\"":2880,"Ġà¤ľà¤¯à¤Ńà¤¦":8626,"Ġbri":9021,"Ġrespon":10283,"ĠSupernatural":5939,"Rid":6215,"à¤¯à¤Ľ":6610,"à¤¯à¤ĸà¤¸à¤¬":7536,"Į":234,"à¤¬à¤¸Ê¼à¤¨":2571,"(>)":10694,"Ġà¤¨Ê¼à¤ĸà¤°":976,"WW":2917,"ĠAt":8702,"ĠTempest":10959,"à¥Į...à¥¤\"":7007,"ial":1706,"urch":9406,"arra":4183,"PY":3259,"à¥ĭà¥¤\"":513,"Ġname":2874,"Ġà¤ªà¤¸":3435,"Ġà¤¦à¤Ļà¤®":1441,"167":9562,"Ġà¤Ĺà¤Ĺà¤²à¤¸à¤¨":4335,"à¤¾........":4659,"à¤ĩà¤ľÊ¼à¤¨":7693,"Ġone":3664,"Ġà¤ľà¤¯à¤¨":3878,"Ġà¤¹à¤®à¤¸":1513,"Ġà¤¯":689,"Ġ88":8964,"à¤°à¤«à¤¦":5149,"ĠAreaà¤Ĩà¤µ":10475,"à¤¡Ê¼à¤ľ":4036,"Ġà¤°Ê¼à¤¡":2436,"ory":2163,"à¥Ģ(":3978,"Ġwant":4240,"à¤ªà¤¸à¤«":5013,"à¤°à¤¹à¤°à¤²":5631,"female":10512,"Ġdialouge":10615,"Ġ1616":9370,"997":6087,"ĠCymbeline":10917,"Ġà¤Ĩà¤§":2370,"ĠRoot":5595,"Ġà¤«à¤²":1557,"à¤¯à¤Ń":4685,"Ġà¤¹à¤¥à¤¸":4835,"ho":1840,"Ġà¤¬à¤¦":2097,"à¤°à¤¹Ê¼":7785,"ĠHabilder":10166,"ĠMeasure":4278,"V":53,"Ġsleep":10931,"Ġà¤¦à¤¨à¤ĸ":3910,"ĠBoless":9284,"à¤Ĺà¤¨à¤¬":2723,"Ġà¤«Ê¼à¤°":3929,"à¤ĩà¤ķà¤ĸ":5265,"à¤¸Ê¼à¤£":8548,"à¥ģ}":4751,"Intimation":10022,"ract":5369,"ĠHis":9200,"à¤°à¤®à¤£":7719,"à¤ĸÊ¼à¤°à¤¨":4138,"à¤Ĩà¤¯à¤¦":2128,"Dash":6137,"Ġdyn":9085,"à¤²Ê¼à¤¬":2258,"isc":2839,"Ġdiscourse":5887,"Pat":6204,"Ġà¤Ĩà¤ĩà¤ķÊ¼à¤¨à¤«":2885,"à¤Łà¤ķ":1192,"Ġà¤¨Ê¼à¤¨":838,"à¤ĸà¤¦":2967,"Ġspecial":3667,"tention":4639,"à¤Ľ":715,"Ġ<":2335,"à¤¥à¤¯":4807,"à¤²Ê¼à¤Ł":5024,"Ġtrain":4420,"ĠMaharaja":5957,"à¤Łà¤Ľ":7324,"à¤¡à¤²à¤¨":7623,"Ġà¤¨Ê¼à¤Ń":7962,"thology":8304,"đ":205,"Ġà¤ħà¤Ĺà¤¦":3953,"oot":2928,"oubt":8493,"à¤°à¤Ĩà¤¬":4683,"Ġà¤¦à¤¹à¤®à¤Ĺ":8664,"à¤Ĺà¤¦Ê¼à¤¨":8954,"à¥ĭ,-":3447,".....................":9330,"gg":6321,"Ġaf":3607,"epilouge":9768,"Palato":10495,"à¤¬à¤¦à¤²à¤¸":10828,"Ġà¤²à¤°à¤¨":7199,"ĠCharacter":4197,"à¥ģà¤Ĥ...":7277,"acity":9272,"à¤ıà¤¯":8097,"Ġtest":8877,"ru":1578,"à¤Ĺà¤°à¤®":2505,"à¤īà¤ľà¤ĸ":4011,"à¤Ńà¤ķ":5121,"Ġà¤ħà¤¨à¤¨":656,"»¿":1093,"ç":163,"à¤Ĩà¤¥":1282,"Ġà¤ľà¤¨à¤¤":2159,"Ġà¤Ĩà¤ªÊ¼à¤¸":4309,"à¤ĸÊ¼à¤¸":8248,"Ġà¤Ĺà¤°à¤«":2976,"660398":10261,"anish":8423,"Ġà¤Ńà¤ľÊ¼à¤¯":10308,"Ġà¤Ĩà¤¯à¤Ĺ":2996,"à¤¯à¤£":1427,"Ġà¤ªà¤Łà¤²":4031,"Ġà¤ıà¤µà¤ĸ":2126,"Ġà¤®à¤¹à¤¨":1163,"sh":2481,"Ġà¤¬à¤°Ê¼à¤®":3071,"ĠTribal":10953,"à¤ļ":479,"ich":8892,"Ġà¤¬à¤¦à¤¬":6671,"ĠBook":5968,"Ġcombine":9859,"ze":3761,"Ġà¤®à¤Ĺà¤¦à¤®à¤ª":10841,"à¤®à¤°":1221,"à¤Ĺà¤°à¤¡à¤²":8804,"Ġrace":10527,"Ġà¤Ĺà¤¯à¤ĸ":2715,"à¤®à¤ķà¤²":4761,"à¤¡à¤¸à¤Ĩ":9784,"Ġà¤Ĺà¤¶":3848,"Ġtradition":4421,"Ġsixes":10938,"Ġà¤²à¤ĸà¤°":7207,"ore":5317,"à¤¯à¤ªà¤¨":6607,"Ġà¤¹Ê¼à¤¨":3362,"216":6056,"à¤®à¤¹à¤°à¤ľ":8157,"Ġà¤Ĩà¤ĸà¤²à¤¨":1196,"Ġà¤¯à¤¸à¤²à¤¨":8499,"à¤¿:..":8309,"Ġ966":8868,"istic":8616,"Ġdet":9080,"ac":1106,"à¤¯à¤¦à¤¬":7580,"à¤¿à¤Ĥ........":2775,".{":3241,"Ġà¤µà¤ķà¤¶":8418,"à¤ľà¤¨à¤ľ":4799,"à¤¿.":463,"à¤¶à¤°à¤¨":5110,"Ġà¤ªà¤¦":3053,"**":814,"Ġà¤¥à¤¯":4876,"ĠLife":10450,"Ġà¤ĵà¤µ":5061,"Ġà¤ħà¤ľà¤¯à¤²Ê¼à¤¸":8301,"à¤¸à¤¨à¤¥":6735,"à¤Ľà¤¨à¤°à¤¨":8540,"Ġà¤¸à¤¦à¤¬":2717,"OCK":6198,"Ġà¤ĸà¤²à¤ĸà¤²":10860,"Ġun":3649,"ĠBur":4314,"à¤°à¤¨à¤¹":3026,"à¥ĭ-":416,"à¤¨à¤ĸÊ¼à¤¨":2562,"Ġà¤ĵà¤ĩà¤ľ":7640,"ĠTal":4220,"Ġ..................":8585,"é":165,"à¤¬à¤°":483,"ĠTam":8773,"Ġà¤Ĺà¤Ĺà¤²à¤¸à¤ĸ":8802,"Ġ1969":9514,"Ġ!--\"":7527,"Ġscenery":5942,"Ġà¤ħà¤ľà¤¯à¤ľ":2813,"Ġà¤Ńà¤¡":7858,".....'":8475,"à¤°à¤¨à¤¹à¤°à¤¨":4936,"Ġ~":2689,"Ġgood":5809,"Ġà¤Ĺà¤®":711,"Ġri":6530,"à¤ĩà¤ª":1594,"à¤¿+":2484,"riend":3197,"à¤īà¤¬Ê¼à¤ĸ":4399,"Ġà¤¬à¤Łà¤²à¤ľ":5690,"Ġà¤ªà¤¤":5047,"phonology":5731,"Ġà¤¨à¤Łà¤«":7089,"Ġ16":1174,"Ġà¤īà¤²à¤¨":7457,"orian":8474,"Ġà¤¨Ê¼à¤¸à¤ĸ":7964,"à¤ķà¤²":774,"à¤īà¤¸à¤Ĩà¤µ":3548,"Ġà¤ĸÊ¼à¤°Ê¼à¤¸":4366,"à¤¸à¤¹":990,"king":6363,"rabia":8623,"stand":8958,"text":10176,"à¤¿...........à¥¤":10286,"Ġclean":10597,"Ġà¤¯à¤Ĺ":3135,"Ġà¤¬à¤°Ê¼à¤µ":840,"Ġà¤ĸà¤®à¤²":1433,"à¥Į;":1554,"âĢ":552,"Ġpeace":4402,"à¤¯à¤¸à¤¨à¤¥":7635,"Ġà¤ıà¤¸à¤®":7760,"à¤¬à¤Ĺà¤¦":8187,"Ġà¤¬à¤·":6661,"138":9522,"Ġà¤ķÊ¼":1264,"ĠAnarch":10226,"à¤ªà¤§à¤¨":7496,"à¥¤":278,"Gesta":10730,"Ġà¤²à¤®à¤«à¤Ł":10864,"oiced":4448,"ĠExpl":5721,"ath":1903,"Ġà¤¬à¤¡à¤²":8210,"ĠPARA":8812,"Ê¼à¤¸à¤¨":2760,"à¤ķà¤°à¤¬":7339,"F":37,"Ġà¤¸à¤¹à¤Ĺ":8244,"161":9556,"Ġresign":10282,"riday":9321,"à¤¨à¤ļà¤¨":6565,"Ġthis":2844,"ĠThat":4401,"Ġà¤ħà¤¦":733,"Ġà¤Łà¤¯à¤²":5097,"à¤¡à¤¨":723,"ĠServ":5383,"à¤¦à¤Ĺ":637,"ć":195,"Ġdile":9082,"Pilgrimes":10679,"Ġà¤Ķà¤µ":812,"Ġà¤ªà¤¸à¤®à¤¨":4032,"haplogy":10785,"Ġshe":4208,"Ġà¤ħà¤¥à¤Ĺ":7308,"à¤¸à¤¤Ê¼":6748,"Ġà¤¦à¤¬à¤¥":1352,"Ġà¤¥à¤®":3917,"Ġà¤ĸÊ¼à¤µ":7160,"à¤®à¤²":491,"Ń":255,"à¥ĭà¤Ĥà¥¤\"":642,"ĠSaf":8659,"à¤¬à¤°Ê¼à¤«":2440,"Ġà¤Ĺà¤¬à¤¥":2977,"Ġà¤ıà¤ķà¤ĸ":5322,"word":6499,"Ġpower":8838,"160":9555,"Ġà¤Ķà¤°":3125,"Ġà¤Ĺà¤£":2221,"Ġà¤ıà¤¬à¤¨":7357,"Ġà¤¥à¤°à¤²Ê¼":9264,"à¥ĭ.....................":10533,"ĠDivine":11043,"à¤§à¤µà¤¨":8078,"Ġà¤¬à¤°à¤¤":6669,"Ġ---\"":2313,"Ġ............?\"":9904,"Ġà¤ĸà¤¬à¤¬":3383,"à¥ĭà¤Ĥ-à¥¤\"":8173,"Ġclouds":10994,"Ġà¤«à¤Ł":1935,"Ł":253,"Ġà¤Ĺà¤¯à¤°":5312,"anal":8420,"(âĪļ)":11190,"Ġà¤ħà¤¬à¤¸":1628,"à¤ĸà¤µ":3332,"Ġà¤ľà¤¦à¤¦":6987,"à¤Łà¤Ĩà¤µ":3403,"ĠCom":4193,"Ġblo":5495,"Ô":144,"à¤¨Ê¼":912,"Ġà¤Ĩà¤µà¤ľ":7047,"Ġà¤¥à¤¬à¤¬":7143,"à¤°à¤¹à¤µ":7784,"ĠCaptain":2194,"ĠCapacity":9881,"ĠTiyus":10961,"zation":6514,"à¥ĭ,...........":7711,"tives":10313,"'-":3239,"ograph":6417,"à¤¤à¤Ĺ":2773,"DA":6126,"Ġà¤®à¤¦à¤¦à¤¹":8367,"à¤Ĥà¥¤":405,"ĠPost":5429,"à¤¬à¤¨à¤ĸ":5042,"à¤°à¤µ":1365,"à¤¦Ê¼":515,"à¤ľà¤ķ":4797,"à¤ħà¤¸":2568,"Ġà¤ľà¤¯à¤ľ":4814,"Ġà¤¤à¤ķà¤¥":5209,"170":5660,"à¤²à¤®à¤¦":6705,"Ġà¤ĩà¤Ĺ":7646,"Ġà¤ıà¤ķà¤¶à¤¨à¤ľ":8489,"im":1423,"à¤¬à¤ĸà¤µ":8026,"Ġà¤Ĩà¤°Ê¼à¤ľà¤ľ":9810,"Ġà¤®Ê¼à¤ª":9896,"jective":2317,"à¤¯à¤¸à¤¨à¤¨":1465,"à¤¥":285,"à¤¿à¥¤âĢĮ":7732,"à¤¥à¤¨à¤¨":3355,"Ġà¤¡à¤Ĺà¤°":5105,"à¤¾..........à¥¤\"":6554,"à¤¯à¤Łà¤¨":2695,"à¤¹à¤ĸ":1788,"Adverb":3662,"à¤Ĺà¤°à¤¸":6931,"mare":10268,"Ġà¤Ĩà¤²Ê¼à¤¯":4851,"Ġà¤ĩà¤Ńà¤¨":7654,"à¤²à¤°Ê¼à¤«à¤°":10189,"Ġretirment":10460,"Semanti":10504,"itch":8902,"Ġ1994":5679,"Ġor":1709,"à¤Łà¤¦à¤°":7322,"Ġà¤¬à¤°à¤²":3807,"Ġà¤ıà¤īà¤¨":7366,"Prefix":10756,"Ġpleasent":10423,"Ġà¤ķà¤®à¤¨":1801,"Ġà¤¬à¤¦Ê¼à¤²":4714,"Ġà¤ħà¤¸":692,"Ġreti":4379,"ept":2191,"à¥ĩ...":2210,"own":4211,"Ġ240":9348,"148":9651,":)-":6094,"Ġmicrosoft":8947,"Ġà¤¬Ê¼à¤¬":1715,"ĠIt":3587,"semi":10801,"à¤¯à¤°à¤µÊ¼":9266,"à¤¨à¤Ĩà¤°":6561,"Ġà¤¹à¤¸à¤ª":1924,"Ġà¤¹à¤°à¤¦":847,"oc":1612,"z":89,"Ġà¤ħà¤¬à¤¦":3091,"ec":1107,"à¤¦à¤¸":867,"Ġà¤¡à¤²":1874,"emp":5559,"Ġ-!!":5030,"à¤ĸà¤Ļ":2011,"à¤īà¤°":521,"Ġà¤¬à¤ĸà¤¯":5617,"à¥ĭ?\"":3778,"à¤¯à¤¹à¤°à¤¨à¤¬":8629,"Ġà¤Ĩà¤ĩà¤ķÊ¼à¤¨à¤¹":9699,"201":9535,"Ġà¤Ĺà¤¥Ê¼à¤µ":856,"ĠGir":9287,"Ġà¤ķÊ¼à¤ķà¤°":1651,"Ġà¤ħà¤ŁÊ¼à¤µ":3658,"Ġmost":4254,"ĠTiy":8787,"roof":9339,"Ġà¤ªà¤ĸà¤°":7594,"Ġà¤ĸà¤²à¤¬":3927,"Ġà¤¬à¤¥à¤²":1299,"prosody":10796,"à¤Ńà¤²à¤¬":4067,"Ġà¤®à¤ķ":4793,"Ġà¤¸à¤²Ê¼à¤ĸ":1011,"Ġà¤ľà¤²à¤ª":3884,"Ġà¤°à¤¬à¤°à¤ĸ":8792,"à¤¦à¤°à¤¦":3841,"à¤¦à¤®à¤¥":6815,"à¤¦Ê¼à¤Ĩ":8132,"****":1178,"Ġà¤ľà¤¯à¤®à¤¤":2993,"à¤ķà¤¨":639,"Ġ..........":1606,"ĠStyleà¤Ĩà¤°":10248,"à¤²à¤ķà¤¸à¤Ń":10834,"à¤°à¤®":376,"ĠDo":3176,"Ġ!.............":7529,"à¤¤":323,"ients":10513,"Ġà¤Ĩà¤ļ":1259,"à¤°à¤¤à¤ĸ":3507,"à¤¦à¤ķà¤ľ":6825,"Ġà¤ħà¤¨":436,"à¤¯à¤¹à¤°à¤¨":751,"stan":5480,"Ġmourn":10998,"Ġà¤Ĩà¤¬Ê¼à¤®":4219,"Ġà¤Ĩà¤¯à¤¦":609,"qu":1293,"borhood":10508,"à¤°à¤¬à¤®":7538,"à¤¯à¤¨à¤«":7265,"ĠBridge":10447,"Á":125,"ĠĠĠĠĠĠĠĠĠĠĠĠĠĠĠĠĠĠĠ":1376,"............?\"":9731,"vival":10808,"28":2077,"Ġà¤¡Ê¼à¤¨":5103,"à¤¥Ê¼à¤¦":1807,"Ġà¤¹à¤®à¤¸Ê¼à¤¨":2190,"iter":3588,"us":1294,"---!":3632,"Ġà¤ıà¤°à¤ĸÊ¼":4282,"Ġline":5662,"Rec":6214,"Ġà¤«à¤ľÊ¼à¤¯":3203,"235":9742,"Ġvalue":9949,"Ġcomplete":10104,"Ġ30":1134,"à¤¯à¤¹à¤°":641,"ĠRape":5596,"Ġà¤®à¤¹à¤¨à¤ľ":7981,"in":568,"Ġà¤ıà¤ĸà¤¥":3544,"Ġà¥¤ï»¿":8177,"à¤¿:-":8308,"Ġà¤®à¤ĸÊ¼":1010,"Ġ1895":9189,"à¤«à¤°":887,"Ġman":3162,"Ġ.":2087,"Ġà¤¹à¤Łà¤ķ":9257,"Ġà¤ıà¤¨à¤ľà¤°à¤¬":9926,"ĠMerchant":10607,"Ġfulfil":11035,"ĠGram":4317,"à¤Ĥ--'":6630,"Ġà¤ħà¤¨à¤¬":2036,"Ġà¤µà¤ķ":8417,"à¤®à¤ĺ":4762,"Ĝ":216,"Bor":6110,"à¤°à¤®à¤¬":6588,"Ġson":8665,"ecorder":9278,"......................................................":10659,"Ġdecoration":11025,"Ġfaithful":11040,"ĠWinter":8734,"Ġà¤Ľà¤¯":9343,"Ġand":1034,"ĠChemist":10220,"Comm":2916,"Ġstate":3216,"Ġà¤ªà¤¯à¤¨":4029,"à¤®à¤¯à¤²":4758,"à¤¸à¤¯à¤¦":6729,"ĠM":949,"&":5,"Ġ450":8569,"Ġcontains":10430,"Ġà¤®à¤ª":4794,"ken":6361,"Ġpath":5437,"Ġà¤¨à¤®à¤¸":2241,".--":6037,"les":6368,"idential":9479,"nal":3276,"Ġpers":4232,"\",":1255,"edy":2443,"Ġcharacterisation":10599,"à¤Ĩà¤´":7437,"Ġ(?)":3443,"Ġadministration":4478,"Ġà¤Ĩà¤ĸà¤²à¤«":2591,"Ġà¤ħà¤®à¤¬":1864,"Ġà¤ĸÊ¼à¤¹":2246,"Ġà¤Ĩà¤¦à¤¬à¤¨":2272,"Ġà¤ľ":286,"à¥ĭà¤Ĥà¥¤.....":5001,"à¤°à¤ĸÊ¼à¤ľ":2774,"aj":4566,"Ġà¤¹à¤¦à¤²":7020,"à¤°à¤¦à¤¸":3462,"à¤ĹÊ¼":930,"Ġplan":9735,"Ġmeans":9887,"tary":4638,"Ć":194,"Ġà¤°à¤ľà¤Ĺ":8377,"ĠĠĠĠĠĠĠĠĠĠĠĠĠĠĠĠĠĠĠĠĠĠĠĠĠĠĠĠĠĠĠĠĠĠĠĠĠ":2818,"à¤¾à¤Ĥ...'":7079,"à¤¸Ê¼à¤ĸ":3142,"à¥Ģ-":713,"ĠLimited":2654,"à¥ĩ.......à¥¤":4721,"Æ":130,"à¤®à¤¹à¤°à¤®":5651,"Ġà¤ı":317,"à¤¦à¤ĸà¤°à¤¸":8563,"à¤¤Ê¼à¤ªà¤¦":9711,"Ġassamtribune":11185,"à¥ĭà¤Ĥ'":2741,"Ġà¤¸à¤®Ê¼à¤¬":7566,"à¤¹à¤¨":1115,"un":2331,"208":9542,"c":66,"à¥Ī...":1849,"Ġdevelop":11032,"(!)":6014,"Ê¼à¤°":534,"à¤®à¤Łà¤°à¤«":10193,"à¤ľà¤¬à¤¬":6912,"à¤ıà¤ĩ":3493,"Ġà¤¤à¤¸à¤ķ":8059,"Ġà¤¹Ê¼à¤·":2628,"à¤ħà¤°à¤ĸ":1641,"Ġà¤ħà¤¬à¤ľ":4094,"Old":6195,"ell":1314,"ĠFool":10640,"ĠHerman":9213,"Ġà¤¨à¤¹à¤¯":7092,"à¤¥à¤¨":1080,"ĠSol":1753,"9170":6088,"vention":6491,"à¤ĩà¤²à¤ľ":3497,"Ġà¤¦à¤ľà¤¨à¤¨":7118,"Ġà¤Ĩà¤°à¤ľ":1170,"Ġà¤ķà¤¦à¤®à¤¤à¤²":10882,"Ġhis":5542,"Ġà¤Ĺà¤²à¤®":8184,"rent":4629,"ential":5308,"ittle":5463,"Ģ":222,"ĠSy":2605,"à¤¥à¤°à¤¨":4808,"à¤¸à¤¨à¤¬":1851,".......................":9331,"à¤°Ê¼à¤¬à¤²":7551,"...........":1362,".........":962,"Ù":149,"ĠHist":5552,"Ġà¤®à¤Łà¤°à¤ľ":6902,"Ġà¤Ĩà¤®à¤¦":7041,"ĠMarketing":10440,"ĠTwelfth":10962,"Ind":4534,"Ġà¤§à¤¨à¤¸":4104,"ĠCopperfield":10670,"à¥Īà¥¤'":1948,"ĠProgress":10015,"air":6259,"Ġwill":1890,"à¤°à¤ĩ":1015,"reiza":11009,"Ġà¤ıà¤¨":507,"à¤ľÊ¼à¤¬à¤¨":2858,"Ġà¤ĩ":355,"uc":3285,"à¤¿à¤Ĥ,":927,"à¤°à¤¸à¤¬":5053,"Ġà¤":259,"Ġà¤¥à¤°à¤«à¤¨":3218,"elf":5406,"Choo":6123,"à¤ľà¤ĸÊ¼à¤µ":8286,"Ġà¤Ĩà¤ĩà¤¨à¤«":8857,"113":9377,"Ġà¤°à¤¬":824,"ĠComm":5364,"90":2466,"à¤ķà¤Ĩà¤¦":7349,"Ġà¤¹à¤°à¤®Ê¼à¤¨":1757,"à¤µà¤ĸà¤¬":7794,"iled":8993,"Ġà¤īà¤ĩà¤ķÊ¼à¤¯":9964,"Ġà¤¨à¤Ń":2513,"ĠWink":8730,"Ġà¤¸Ê¼à¤¸":4789,"revenge":8982,"....!\"":7573,"à¤ĵà¤ľ":1574,"Ġà¤ħà¤°à¤¹":1400,"ĠFrom":9617,"à¤ĩà¤ĸÊ¼à¤¬":7931,"Ġà¤īà¤ĩ":3997,"à¥į'":6651,"Ġà¤ħà¤«à¤¸":8255,"orman":5784,"ober":1760,"Ġà¤¨à¤«":2371,"He":6154,"ĠĠĠĠĠĠĠĠĠĠĠĠĠĠĠĠĠĠĠĠĠĠĠĠĠĠĠĠĠĠĠĠĠ":2577,"Ġà¤¸Ê¼à¤£":9759,"³":111,"à¤«":289,"Ġwithout":10229,"à¤¡à¤«":1464,"Ġà¤¬à¤Łà¤²à¤¨":3209,"Ġà¤Ĺà¤°à¤ľ":2716,"à¤īà¤²à¤¥":5021,"Ġfight":5521,"Ġà¤¸à¤ķà¤¨":6869,"ĠPick":8806,"à¤µà¤²Ê¼à¤¬":9134,"ĠEthonology":9417,"Ġoh":3564,"Ġà¤¹Ê¼à¤ĸ":5510,"à¤¤à¤¬à¤¯":9811,"Ġà¤®Ê¼à¤¤":9895,"Ġà¤¬à¤°à¤¸à¤ĸ":9920,"ear":2472,"ĠTragedies":10097,"Ġà¤®à¤§":2228,"Ġseclusion":11162,"à¥ĩ..":3811,"eg":1838,"ķ":243,"Ġup":2890,"67":3248,"à¥ĩà¥įâĢĮ":6688,"Ġà¤ļà¤ª":8014,"ĠConsumers":10578,"à¤«à¤¬à¤¨":1243,"Ġà¤¦Ê¼à¤¥":3375,"76":3250,"Ġà¤Ĩà¤ĩà¤ķÊ¼à¤¨à¤ĸ":4350,"Ġ....\"":3521,"Ï":139,"Ġà¤®à¤¦à¤¦à¤®":8365,"Ġà¤ıà¤ĩà¤¬":3974,"iti":2672,"à¥Ģ\",":4972,"à¥¤...":2973,"à¤Ĩà¤ĩà¤ķÊ¼à¤¨":5933,"laration":10517,"Ġo":759,"à¤ĩà¤®à¤¸":4909,"à¤ıà¤ª":4114,"Ġapple":10626,"Ġ80":1828,"ĠCle":4194,"Ġà¤ľÊ¼à¤Ĩà¤¨":4147,"à¤ĩà¤¦Ê¼":4910,"à¤µà¤¬Ê¼à¤µ":7660,"à¤ŁÊ¼à¤¯":8460,"ĠMech":9057,"Ġà¤²à¤®à¤¬":4903,"Boys":10712,"Venity":10771,"Ġà¤§à¤®":8043,"Ġà¤¬à¤ķà¤¤":6676,"PS":3712,"à¥Īà¥¤\"":587,"à¤¾à¥¤)":4949,"à¥Ģ'à¥¤":4327,"Ħ":226,"à¥ģà¤Ĥ..":3397,"à¥ĭà¤Ĥ-à¥¤":8172,"Ġà¤¨Ê¼à¤µ":570,"ĠĠĠĠĠĠĠĠĠĠĠĠĠĠĠĠĠĠĠĠĠĠĠĠĠĠĠĠĠĠĠĠĠĠĠĠĠĠĠĠĠĠĠĠĠĠĠĠĠ":2870,"Ġà¤ľà¤ĸà¤®":870,"à¥į":267,"Ġ9435660398":10357,"EM":6138,"Ġ873330":10437,"à¤®à¤µà¤¸":6794,"à¤¥Ê¼à¤¥":2268,"ĠIodex":10988,"An":4518,"oiec":6416,"à¤«à¤¨":1555,"Ġà¤Ĩà¤¹":898,"à¤Ĺà¤®à¤¥":2726,"à¤°à¤«à¤Ł":7904,"à¤ħà¤°à¤°":9510,"en":666,"utic":6478,"à¤¿à¤Ĥà¥¤":966,"Discover":10726,"à¤ĺà¤Łà¤ķ":5403,"à¤°Ê¼à¤¸":2137,"sed":6447,"ĠAn":3150,"Ê¼":300,"tt":2684,"Ġà¤¦à¤°à¤ĸ":868,"vel":2686,"Ġ0":4648,"Ġà¤¦à¤ĻÊ¼à¤¨":3491,"Ġà¤¸Ê¼à¤¬":4787,"Ê¼à¤Ń":7217,"Ġà¤ıà¤ķà¤¸à¤¨":3541,"à¤¤à¤°à¤ª":9608,"Ġà¤Ĩà¤¦Ê¼à¤¬":5123,"à¤²à¤¨à¤ĸ":3818,"Ġà¤Ĩà¤®à¤«":3897,"Ġà¤¬à¤ľ":1123,"Ġà¤ĸà¤¥à¤®":5380,"à¤ħà¤ľà¤¯à¤ľ":5587,"Ġ290":5744,"âĢĮ....":8211,"ĠCouqu":8613,"à¤¹à¤°à¤¦":679,"ĠDist":5527,"à¤¾à¤ĤâĢĮà¥¤":10850,"à¤ħà¤°à¤Ĺ":5140,"Ġà¤¬à¤¥à¤²à¤ĸ":1650,"Ġà¤¬à¤¯":1616,"Act":4520,"Ġà¤ħà¤²Ê¼à¤ĸà¤¨":10866,"ard":2165,"Ġà¤Ĩà¤¬à¤¦":5125,"à¤°à¤Ĺà¤¨":2050,"à¤ĩà¤¤à¤«":4913,"Ġopen":8640,"à¥ĭ.........\"":10374,"à¤¿;":1453,"\"....":3238,"Ġ'à¥ĭ'":5092,"à¤ķà¤¥Ê¼":7341,"ĠMirage":11023,"satis":6454,"à¥ĭ.......":3776,"Ġà¤®à¤ĸà¤®":6898,"à¤°Ê¼à¤ľà¤¨":5038,"Ġsec":3568,"mely":6395,"à¤Łà¤°à¤°":8313,"1991":9969,"ĠCompetitive":11142,"Ġ1611":9368,"à¤¬à¤£":4697,"Ġà¤¹à¤ķ":1241,"Ġà¤ļà¤°à¤£":3098,"Ġà¤¬à¤ª":6657,"Ġtragy":10059,"à¤¤à¤®":999,"Ġà¤ĩà¤īà¤°Ê¼à¤ªà¤¨":5486,"à¤²à¤ªà¤®":9325,"Ġclassification":10432,"ė":211,"Ġà¤¹à¤°à¤¥":2731,"à¤¯à¤ĸÊ¼à¤¨":1212,"Ġà¤ĶÊ¼":8346,"à¤¿..!":9990,"DECLENSION":11176,"à¤ħà¤²à¤ĸà¤¦":10896,"à¤ķà¤ŁÊ¼":2533,"Ġà¤ıà¤°à¤²":3036,"ĠAccessories":2901,"à¤°Ê¼à¤°Ê¼":7546,"à¤ªà¤ķ":1946,"à¤Ńà¤ĸ":4066,"à¥Ī-(":7847,"à¤ĩà¤¦à¤Ł":8320,"otive":6414,"à¤¨à¤¸à¤¯":7387,"ph":1761,"Ġà¤ħà¤°à¤¸Ê¼à¤¨":4942,"per":1762,"à¤¨à¤¸à¤«":7391,"à¤¸Ê¼à¤Ĩ":8544,"à¤¨à¤¥Ê¼à¤¹à¤°":9179,"Ġà¤ıà¤®":530,"Ġà¤ĸà¤«Ê¼à¤¨":3183,"à¤¬à¤¶":3801,"Ġà¤Ĩà¤¨à¤¥":3895,"99":4513,"à¤ķà¤¬à¤°":7346,"Ġà¤Ĺà¤¥Ê¼à¤«":806,"Ġà¤«à¤°à¤°à¤¤à¤¨":7844,"à¤¾à¤Ĥ)":2239,"à¤ĸÊ¼à¤²Ê¼":8251,"Ġdailogue":5517,"YPE":6252,"k":74,"Ġà¤§à¤Ł":8045,"Ġà¤¸à¤°à¤®à¤¬":8343,"©":102,"Ġà¤°à¤ľÊ¼à¤®":8378,"à¤ħà¤«à¤¸":5144,"/-)":6040,"ĠShort":5837,"ĠWell":3151,"à¥ĭ...":1614,"Gest":6151,"à¤ħà¤°à¤¹":4077,"350":6062,"ĠĠĠĠĠĠĠĠĠĠĠĠĠĠĠĠ":362,"à¥ģ--":3833,"Poin":4553,"à¤¾';":8391,"Ġdem":9078,"à¤īà¤Łà¤¸":8217,"145":9648,"ain":1269,"Ġ98541511":9978,"à¤ªÊ¼à¤°":2780,"à¤°à¤¬à¤ľ":4018,"(à¥¤)":6012,"à¤ħÊ¼à¤Ń":9429,"à¥ĩ:-":3527,"Ġinstinct":9318,"Ġà¤¢Ê¼à¤²":9704,"ĠJuliet":10064,"à¥Į....\"":10292,"Ġneed":10342,"ĠSoliloquy":1900,"Ġdire":4286,"ĠFrustration":9623,"ĠTools":5846,"Ġyour":1700,"Ġgot":5674,"NLP":6190,"Ġà¤ļà¤®à¤ķà¤ĸ":10570,"ĠConscious":10577,"Ġsincerity":10941,"200":1540,"Disc":6134,"à¤°à¤¦à¤¬":5118,"à¤¯à¤ķ":3312,"Ġà¤«à¤°Ê¼à¤¯":7197,"trl":6473,"obedient":10368,"à¤¾à¤Ĥà¥¤..........":8124,"à¥ĩ........à¥¤":6696,"ĠDocuments":10479,"Ġà¤ĸà¤°Ê¼à¤¯":1962,"Ġ1952":5781,"Ġ9707946706":10978,"Ġinjustice":11080,"à¤ľà¤°à¤Ńà¤¨":10845,"Ġà¤¸à¤²à¤¥":6868,"Ġkn":2314,"1960":4384,"ĠDeath":9129,"à¤µà¤Ĩà¤¨":4747,"à¥ĭà¤Ĥ,":476,"à¤¹à¤®à¤¹":7126,"Ġ9435150854":11166,"Ġà¤¡":403,"ner":4619,"Ġà¤¹à¤°à¤¨":519,"à¤°à¤¸Ê¼à¤¨":1637,"à¤ħà¤¦":2054,"ides":9475,"à¤ķà¤ľ":1558,"96":3253,"Ġà¤°à¤¯à¤¸":4916,"1903":8754,"Click":10713,"à¤«Ê¼à¤°à¤µ":10553,"Ġà¤®Ê¼à¤ķ":2229,"Ġacts":9146,"iation":3726,"à¤ľ":282,"Mor":4539,"plot":10119,"Ġà¤ĸÊ¼à¤°":3385,"à¤ĩà¤¬à¤¸":7230,"for":6315,"oda":9409,"à¤¦à¤®":1053,"à¤¾à¤Ĥ.....":4854,"à¤¬à¤¸Ê¼à¤¸":7912,"Ġà¤ıà¤¦":1795,"£":96,"Ġà¤ĵà¤ľ":894,"à¤¸Ê¼à¤¨à¤¸":3550,"à¤¨à¤ĸÊ¼":3451,"Ġà¤«Ê¼à¤¨à¤ľ":3650,"à¥ĩà¥¤\"--":9451,"ic":877,"):":1702,"Ġà¤¥Ê¼à¤«":1933,"à¤¨à¤ľà¤°à¤¨":7676,"Ġà¤¦à¤ķà¤¨":7109,"Ġinvalid":10244,"riotic":10457,"Ġpun":8831,"à¤Łà¤Ĺ":2386,"à¥ĭà¤Ĥ.....":3369,"Ġmour":8931,"Ġ86":8963,"à¤°à¤¹à¤°à¤ľ":5101,"à¤Ŀà¤°":8312,"Ġà¤®à¤ľà¤¬":9729,"ĠĠĠĠĠĠĠĠ":320,"Ġà¤ĸà¤¨à¤¸":598,"Common":5824,">":29,"è":164,"à¤²à¤²Ê¼":6700,"à¤¿:...":4146,"Ġth":760,"ring":3746,"à¥¤?\"":6830,"Ġà¤ľà¤ľ":2728,"tes":6463,"syn":6456,"à¤¸à¤®à¤¤":8161,"ĠCymbel":8612,"edient":8798,"Ġbound":9026,"à¤¯à¤¸Ê¼à¤¹à¤°":10081,"à¤ŁÊ¼à¤®":3537,"xo":6503,"Ġà¤¡à¤Ł":7800,"Ġà¤ĹÊ¼à¤¦":1494,"à¤°à¤¬à¤¹":7541,"ab":1611,"Ġà¤®Ê¼à¤¨":2501,"Ġà¤ıà¤¨à¤Ĺ":2536,"à¤ĹÊ¼à¤¯":4268,"olo":1891,"bt":6265,"Ġà¤¹à¤°à¤¥Ê¼":8021,"à¤¦à¤ĸà¤°à¤¨":8562,"20":1341,"SCII":5848,"à¤°à¤ľà¤¬à¤°à¤¦à¤¸":7665,"ĠUmlaut":9750,"à¤ĩà¤Ł":693,"à¤Ĥ\"":2207,"ĠĠĠĠĠĠĠĠĠĠĠĠĠĠĠĠĠĠĠĠĠĠĠĠĠĠĠĠĠĠĠĠĠĠĠĠĠĠĠĠĠĠĠĠĠĠĠĠĠĠĠĠĠĠĠĠĠĠĠ":1647,"Ġbe":1470,"à¥ĩ+":6687,"ĠCompact":10085,"External":10488,"Ġà¤®à¤®":2111,"à¤¯à¤¹à¤°à¤¬":968,"à¤¿à¥¤âĢĮ\"":10894,"ender":3647,"Ġà¤Ĳà¤¬":4262,"Ġ1964":5635,"Boro":10710,"B":33,"à¤ªà¤«":2133,"orry":8471,"à¥ĩ....!\"":10188,"à¤¯à¤¡à¤°":6616,"Ġà¤¸à¤°à¤¨":2355,"reiz":8983,"à¤ıà¤¨":1120,"à¤ĸà¤¨à¤²":1510,"à¤¤Ê¼à¤¨":4986,"à¤¸Ê¼à¤°":6740,"à¤Ĥ(":6617,"Ġ)......":8041,"Ġà¤īà¤ĩà¤¥":7460,"Ġà¤ĸà¤¨Ê¼à¤²":8144,"Ġà¤ĩà¤¨à¤īà¤ķ":8095,"ĠError":9415,"à¤§à¤¬à¤¦":8083,"1974":10050,"à¤ŁÊ¼à¤¬à¤°à¤¨":5316,"ĠHonours":11061,"à¤¬à¤ĸÊ¼à¤¬":8027,"ebur":6311,"la":3731,"à¤¦à¤¸à¤°":8881,"Ġdirectory":10441,"Ġà¤ľà¤²":1553,"à¤«à¤ľ":2368,"Ġis":1219,"Ġfiles":9111,"à¥Ī]":1277,"Ġà¤®à¤¦à¤¥":5477,"ler":6367,"à¤ĩà¤®Ê¼à¤¸":8525,"ake":3654,"à¤¦à¤¨à¤¨":4763,"ĠSeries":8661,"à¥ĩ...!":9992,"Ġ1956":10009,"à¤īà¤²à¤ľ":8927,"à¤Łà¤Ĩà¤²Ê¼":10391,"Ġà¤Ĺà¤ĹÊ¼à¤²à¤¸":8803,"Ġideal":3227,"ch":2470,"Ġgoing":4422,"ĠComparitive":11141,"à¤¯à¤¹à¤°à¤²":8386,"Ġà¤Ĩà¤µà¤²Ê¼":8496,"Ġactiv":5535,"à¤¹Ê¼à¤Ĺ":4874,"ardon":5768,"ĠTwo":5421,"à¤²à¤ķà¤¬":3610,"à¤¥à¤¡":6958,"ĠAssessories":10093,"amtrib":9494,"onis":8294,"à¥ĭ--":993,"Ġà¤ħà¤²à¤®":4132,"à¤¿.....'":9869,"Ġà¤¬à¤¤":3806,"à¤°à¤ľÊ¼à¤¯":5066,"ĠAlle":5397,"Ġà¤ĩà¤®à¤ª":7653,"à¤ļà¤°":3100,"Ġcur":8911,"Ġsh":2846,"Ġà¤ķà¤Ł":2394,"ret":8979,"Ġpre":8827,"Ġcharacter":5473,"Ġeconomy":10816,"à¤¿à¤Ĥà¥¤\"":3414,"Ġà¤ĸà¤®à¤¥Ê¼":8926,"idia":9477,"Ġà¤ħà¤°à¤¨à¤¬":9072,"Ġwho":3158,"Ġdo":2632,"Ġà¤īà¤¯":3996,"ĠTand":8771,"à¤¬à¤²":559,"Ġà¤¹à¤°à¤«":1242,"à¥Ģ)":1798,"Adjective":3661,"Ġescape":10523,"à¤ħà¤ķ":1265,"ouse":3132,"à¥Ģ=":3980,"Ġà¤ľà¤ĩà¤ķ":6988,"à¤¯à¤²Ê¼à¤ľ":9065,"Ġà¤ħÊ¼à¤®":9666,"Ġ781366":10465,"ĠHolland":9216,"ĠClimax":4410,"sw":6441,"100":2910,"ted":2933,"Ġà¤°à¤¨à¤ľ":3394,"fem":4590,"à¥ĭ..........à¥¤\"":4672,"à¤ĹÊ¼à¤²":1477,"à¤¤à¤¥":4984,"Ġà¤ħà¤¨à¤¹à¤°":5160,"Ġ?..........":7406,"ĠSunday":10928,"à¤®à¤ļ":1779,"à¥ĭà¤Ĥ---\"":9329,"Ġà¤¬Ê¼à¤ľ":6672,"Ġà¤Ĩà¤¦à¤¬à¤«":3077,"à¤īà¤¦à¤¯":3546,"Ġpe":2176,"ĠÊ¼":6525,"ous":2164,"à¥ĭà¥¤..............":7269,"060":6042,"à¤·à¤µ":7872,"arman":8513,"Ġà¤¦à¤°à¤Ļ":8579,"à¤Łà¤Łà¤²à¤¨":3666,"à¤¾..à¥¤":5722,"Ġà¤¬à¤¨à¤¸à¤®":6685,"Ġà¤ĸà¤¬à¤°à¤¦":1446,"à¤¦Ê¼à¤¯":1691,"614":6072,"yle":2687,"X":55,"à¤ķà¤ŁÊ¼à¤ª":3669,"¤":97,"Ġ1967":4345,"à¥Ī---":4069,"à¤ĸÊ¼à¤®":5259,"mhot":6394,"à¤«à¤¥Ê¼à¤ĸ":7033,"ĠClinker":11139,"nas":6402,"Po":6202,"Ġà¤Ĩà¤¸à¤¶":7919,"Ġà¤ķÊ¼à¤ķ":1486,"Ġà¤¦Ê¼":992,"à¤°Ê¼à¤¬à¤¨":1803,"so":6440,"à¤°à¤ľÊ¼":7664,"Ġpocket":10970,"à¥ĭ......":2692,"Ġà¤ĸà¤¨à¤²":964,"à¤¸à¤¹à¤°à¤«":4737,"à¥ģà¤ģ":2352,"Ġpiece":5948,"ĠPurloin":10963,"Mouse":6172,"Ġà¤ĺà¤Łà¤ķ":8361,"um":1998,"à¤ĩà¤Łà¤ĸ":2122,"\".....":4481,"Ġ170":9692,"Ġirresopnsible":10819,"à¤«à¤°à¤Ĺ":7029,"0896":9940,"ance":5792,"old":8972,"ĠDoc":4290,"Ġà¤īà¤ĩà¤²à¤¸":5766,"126":9459,"à¤¯à¤°Ê¼":2694,"Ġà¤ªà¤¯à¤¸":7588,"Ġà¤¦à¤ĸÊ¼à¤²":9137,"sport":10174,"à¤¯à¤¹à¤°à¤ľ":8051,"...!":3486,"à¤¶Ê¼à¤ķ":5115,"à¤¸Ê¼à¤¹":1537,"Ġà¤ľà¤Ļ":2990,"Ġplotà¤ĸ":9867,"Proper":10496,"Ġà¤ıà¤°à¤¦":7361,"uix":6479,"Ġà¤ķà¤°à¤¡":5347,"Ġà¤Ĺà¤°à¤¦à¤¸":2456,"ow":776,"Ġà¤Ķà¤Ĺ":4155,"Ġmadiev":10600,"à¤¸à¤®":529,"ff":1905,"Ġà¤Ĺà¤¥Ê¼à¤ĸ":891,"à¤Ĺà¤¦Ê¼à¤ĸ":2989,"Ġà¤Ĩà¤²à¤ĸ":4047,"Ġà¤ıà¤ĸà¤®à¤¬":2296,"à¤°Ê¼à¤ĩà¤ľ":7547,"à¤Ĩà¤Ĺà¤¤à¤Ĩ":9688,"à¤Ĩà¤®à¤Ł":9452,"Ġ............à¥¤à¥¤":9903,"1978":10052,"à¥įâĢĮâĢĮ":5252,"ĠSylhe":10091,"ĠMag":5505,"238":5711,"ĠComputer":5805,"Ġà¤¹à¤µ":2365,"Ġ?'":1048,"plain":10120,"Ġ-!":2783,"Ġà¤ķà¤¨à¤¨":4001,"à¤¸à¤¨à¤¹":2964,"ĠĠĠĠĠĠĠĠĠĠĠ":1799,"à¤Ĩà¤ĩà¤®":4995,"ind":850,"Ġà¤Ĩà¤µà¤«":7046,"Ġà¤®à¤¦à¤¦à¤Ĩà¤µ":8368,"à¤¨à¤Ĩà¤¦":6564,"Ġà¤ıà¤µà¤«":4967,"à¤¾à¤ĥ....?\"":9270,"Ġtrainà¤Ĩà¤¬":10468,"Ġà¤ĸà¤¬à¤ľ":1791,"à¥Īà¥¤à¥¤":2548,"ity":1698,"à¤¦à¤¶":6813,"à¤°à¤ĹÊ¼à¤²":1437,"ģ":223,"à¤¸à¤¨à¤²":3326,"mar":3275,"à¥ĭ...à¥¤\"":3644,"vas":6485,"Ġà¤¨à¤¸":1300,"Ġà¤Ĺà¤Ļ":3842,"à¤¥à¤ªà¤°":6970,"Ġà¤Ĩà¤¨":441,"à¥ĩ~":1716,"\"...":2904,"Ġà¤ħà¤ĸ":503,"ody":5603,"Ġà¤¨à¤°à¤®":7083,"âĢĮ.....":8213,"Ġset":8670,"Ġit":1999,"Ê¼à¤Ļ":3018,"Ġà¤¬à¤ľà¤¬à¤«":9323,"à¤¿à¥¤'-":9877,"igion":10171,"Ġà¤¸à¤ĸÊ¼à¤¨":6866,"25212":9675,"169":9564,"à¤®Ê¼à¤¹à¤¨à¤²":10385,"Ġà¤¬à¤¦à¤°à¤ª":10831,"ĠCPU":8608,"à¤Ĥ,":576,"Ġ700":5433,"à¤¨à¤ľà¤¨à¤ľ":7677,"ĠWake":8731,"ñ":173,"à¥ĭà¥¤..]":10558,"à¤µà¤ĸÊ¼à¤«":2806,"other":2680,"Ġà¤¬à¤ľÊ¼à¤¬":3621,"à¤ķÊ¼à¤ķ":2388,"à¤¦à¤¹Ê¼à¤°":9777,"à¤«à¤ķ":4837,"Ġà¤°Ê¼à¤°Ê¼à¤¨":4187,"Ġà¤Ĩà¤Ļ":688,"à¤¸à¤¦à¤¬":6743,"à¥Ī---\"":7849,"à¤§à¤¨à¤¶":9610,"Ġà¤ķà¤¯":4000,"à¤ĸà¤¨":588,"219":6048,"ĠDIR":5840,"Ġclassifi":10433,"Ġà¤¸à¤°à¤ķ":921,"Ġpolicy":5441,"ĠAK":8700,"ĠTimon":10955,"à¥ģ\"":2496,"Ġà¤ķà¤²à¤®":4091,"Ġà¤¥à¤Ļ":4877,"à¤¡Ê¼à¤ıà¤°":9234,"1061":9253,"à¥ģà¤Ĥ=":7276,"Ú":150,"Ġà¤ķÊ¼à¤µ":4005,"Ġthese":8645,"sis":3750,"à¥ĩà¤Ĥ,":1331,"Flash":10728,"à¤ıà¤¬":4113,"à¥Į---\"":7010,"à¥Ī>":3821,"à¤¥à¤¬à¤¸":1258,"à¤Ńà¤«":7827,"ĠTailors":10957,"à¤¥à¤ª":3874,"Ġ;":1202,"},":2688,"Ġà¤ıà¤°à¤ľ":3968,"Ġ.....!!!":9240,"Ġà¤¹à¤°à¤¥Ê¼à¤²":8023,"à¤ĩà¤ķÊ¼à¤²Ê¼à¤ľ":8279,"à¤°":263,"com":1704,"\"..":4480,"Ġ..?'":10346,"ocial":5712,"Ġ56":4172,"à¤°Ê¼à¤®à¤¸à¤¨":7560,"Ġsign":8679,"à¤ªÊ¼à¤ľà¤¡":10303,"à¤²à¤²":3813,"à¤¯Ê¼à¤µ":3795,"à¥Ģà¥¤\"":1484,"Ġother":8637,"srud":6457,"à¤ĩà¤ĸà¤¨":7926,"ĠPro":2306,"à¤¸à¤¦":1717,"à¤°à¤¤à¤Ĩà¤°":8209,"à¥ĭ......à¥¤'":10124,"..........à¥¤":3190,"à¤Łà¤°à¤¸":4945,"à¤§à¤¬":1566,"ode":5602,"viii":6493,"Ġà¤¡à¤Ĺ":7798,"Ġ400":4190,"à¤¤Ê¼à¤·":9710,"ĠPark":10418,"ĠLost":9304,"Hero":10732,"à¤¬à¤Ļ":2697,"à¥Ī.........à¥¤":4731,"Ġà¤ķà¤¤Ê¼":5006,"Ġà¤°Ê¼à¤¯":2602,"à¤¯à¤¥Ê¼à¤¯":8852,"à¤²à¤ķà¤Ľ":9155,"à¤¾)":724,"à¤°à¤¸à¤Ĺ":7604,"à¤Ĥ:":6618,"à¤ĥ-":9834,"Ġà¤Ĺà¤Ĺà¤²à¤¨":8800,"Ġburden":11015,"ur":1201,"Ġà¤¬à¤°à¤¨":2208,"sà¤«":6442,"Ġ1985":3181,"Ġà¤ıà¤ķà¤¥":2598,"cal":6278,"Ġ01":6537,"Ġà¤Ĩà¤¤":2023,"ot":981,"Ġà¤¨":293,"à¤ĩà¤¸à¤«":3478,"Ġà¤ĺà¤¨":969,"Ġà¤¬à¤ĸÊ¼":3808,"nism":6405,"Ġ2008":804,"Ġthere":3565,"Ġà¤Ńà¤Ĺà¤µ":7868,"Ġcompete":10103,"ontaneous":10147,"Ġà¤¸à¤¬à¤¨":4777,"à¤¬à¤¦à¤¨":3316,"Ġsway":10325,"Ġà¤®à¤¹à¤ķ":2148,"à¤¼,":3120,"à¤°à¤¹":400,"à¤°à¤ķà¤¨":3788,"Ġà¤®à¤¥à¤²":6891,"à¤°à¤¯à¤¸":6587,"indeclinable":10977,"Ġà¤Ĩ":290,"¡":94,"ĠPain":2853,"Ġà¤Ńà¤µà¤¨":7855,"(,":6005,"à¤¥Ê¼à¤¬":2799,"Ġ.....!":4306,"Ġà¤ķà¤¡à¤¨":7475,"Ġ1976":9615,"Cam":6120,"à¥Ī......à¥¤\"":5755,"Ne":6183,"trib":6471,"Ġà¤¹à¤°à¤²":2509,"Ġà¤¬à¤Łà¤²":1917,"Ġà¤ĸà¤°à¤ĸ":4886,"58":3702,"Ġ1901":8351,"ĠLatin":9309,"à¥Į.....!":7012,"à¥Ģà¥¤":801,"202":9536,"à¤µà¤¡":3831,"à¤¦à¤¬à¤ľ":6817,"Ġà¤ħà¤°à¤²":3029,"ĠGradu":9298,"Ġ-'":2136,"raw":4203,"à¤ĩà¤²Ê¼à¤Ĺà¤ĸ":4398,"Ġà¤¦à¤°à¤ĸÊ¼à¤¨":8884,"à¤Ĺà¤ĸ":913,"à¥ĭà¥¤.....":3944,"ĠSyndrom":10092,"Ġsource":10933,"Ġà¤¨à¤ľ":3372,"à¤¾...'":9546,"ë":167,"à¤¥à¤°à¤ĸ":1722,"Ġà¤ĸà¤¹":683,"[":58,"ĉĉ":1910,"Ġà¤§à¤®à¤ķ":2582,"à¤¯à¤ĩ":6605,"Ġà¤«à¤Łà¤°":7185,"Ġ750":5434,"Ġdilemma":11027,"Ġ15":929,"Ġ1995":9640,"à¤¥à¤Ĺ":2019,"à¤Ĩà¤ĩ":1172,"za":6513,"Ġplot":1833,"Ġrelief":5876,"1982":4364,"8":23,"Ġà¤ªà¤µ":7585,"à¤²à¤ķà¤¸":6710,"Ġà¤Ĩà¤ĩà¤ķ":1381,"Ġ!!.":8583,"\"-":3236,"\"........,":5996,"ĠDISCOMP":11153,"Ġ1963":3202,"à¥Į...........":7004,"Ö":146,"à¤°à¤¡à¤¨":3790,"à¤¦à¤°à¤ĸ":1126,"Ġà¤¦à¤Ł":7095,"ğ":219,"à¤ĸà¤®":2491,"ociet":4374,"uter":4642,"uah":6482,"',":1059,"ĠDiv":9119,"se":1448,"ĠDire":9123,"Ġà¤ľÊ¼à¤²":3883,"à¤¾à¤Ĥ....":2998,"Ġà¤¥à¤¸Ê¼à¤¬":10859,"Ġà¤¨à¤°à¤µ":5399,"ical":2178,"Ġà¤ĩà¤¨à¤Ń":3492,"Ġà¤¡Ê¼à¤¸":7809,"Ġadvanced":11128,"Ġà¤¸à¤ľà¤¨":6862,"à¤°à¤ĹÊ¼à¤¸":5541,"à¥ĩ:à¥¤\"":3528,"à¤®Ê¼à¤«":6803,"Ġà¤ĭà¤·":9769,"Ġà¤²à¤®à¤«":7202,"à¤ĩà¤ľà¤®":5075,"à¥ĭ);":8166,"à¤¯à¤ĸÊ¼à¤¯":9427,"ir":1447,"Ġderivative":5958,"Ġà¤ħà¤ľà¤ĹÊ¼à¤¬":7946,"our":1014,"...":478,"à¤ĺà¤²":5401,"ĠAgent":8709,"à¤µà¤ª":2711,"Ġà¤¦à¤²Ê¼à¤°":4867,"Ġ(\"\"":7666,"Ġmercil":4470,"à¤¾(":2942,"à¥ģà¥į":4752,"orthography":11160,"Ġà¤¸à¤²Ê¼":384,"à¤¸Ê¼":717,"!)":5991,"Ġà¤¬à¤µà¤¹":6662,"Ġà¤Ĩà¤īà¤µ":7050,"Ġà¤¨à¤¹":2372,"assification":9260,"à¤¡Ê¼":1049,"à¤¾--\"":9689,"à¤¨à¤¹à¤°à¤Ĺ":2861,"ities":3677,"Ġà¤Ĺà¤ŀ":6853,"ĠDel":9116,"(..":6011,"Ġà¤ļà¤®":5187,"Ġà¤Ĩà¤¦Ê¼à¤¬à¤¨":7840,"Ġà¤Ńà¤²à¤Ł":7864,"à¥ĩ.....":4716,"à¥ĩ),":6689,"à¤Łà¤¨à¤ª":8180,"Ġà¤Ĺà¤ª":3340,"ĠSpirit":4428,"Ġ2000":1966,"ĠTh":2173,"Ġsmall":8684,"Ġà¤ľÊ¼à¤¹":3519,"Ġ1814":9184,"epmother":9767,"à¤µà¤Ĩà¤²":6775,"0894":9939,"Ġflexible":11039,"owea":8699,"number":10519,"Ġà¤®à¤Łà¤°":940,"Ġà¤ķà¤²à¤®à¤ĸ":7966,"Ġrequiring":5898,"Ġ468":8574,"ĠDown":9128,"à¤ıà¤®":1690,"à¤¥Ê¼à¤¸":2404,"à¤®à¤¬Ê¼":7662,"........":462,"à¤¾)à¥¤":1886,"à¥Ī....à¥¤":9774,"Ġsoliquy":10580,"ĠBodos":10259,"à¤²à¤¯":1508,"Ġout":4658,"EP":6140,"Ġà¤ľÊ¼à¤¬":3518,"ĠComic":10398,"à¤²à¤°Ê¼à¤«":3323,"à¤ĸà¤¬Ê¼à¤¨":4745,"à¤£":423,"à¤īà¤Łà¤°":2422,"par":6422,"à¥ĩ...........":6692,"Ġà¤°à¤®à¤¨":7241,"ĠSc":2301,"Ġà¤Ĩà¤Ĺà¤·":1379,"ĠIBM":1976,"inite":8240,"à¤¤Ê¼à¤®à¤¨à¤®":9712,"Ġ?\"---":7750,"à¤®à¤¥à¤°à¤ľ":8063,"à¤°à¤Łà¤Ń":9722,"Ġà¤¸à¤°Ê¼":2982,"à¤¿.,":2149,"à¤Ĺà¤Ĩà¤°":3872,"à¤¥à¤¨à¤¸":6953,"à¤ŁÊ¼à¤¨":4947,"Sel":6226,"Ġà¤¨à¤ĸÊ¼à¤°à¤¸":9901,"Ġmelodramaà¤Ĩ":10478,"ield":3686,"Ġà¤Ĺà¤°à¤¨":991,"·":115,"Ġà¤¸à¤°à¤ķà¤°à¤¨":9002,"à¤°à¤¸Ê¼à¤¨à¤ľ":10304,"Ġphototypes":10975,"à¥ģ..":4753,"Ġà¤Ĺà¤¬à¤¯":5379,"ĠĠĠĠĠĠĠĠĠĠĠĠĠĠĠĠĠĠĠĠĠĠĠĠĠĠĠĠĠĠĠĠĠĠĠĠĠĠĠĠĠĠĠĠĠĠĠĠĠĠĠĠĠĠĠĠĠĠĠĠĠĠĠĠĠĠĠĠĠĠĠĠĠĠĠĠĠĠĠĠĠĠĠĠĠĠĠĠĠĠĠĠĠĠĠĠĠĠĠ":9374,"à¤ŁÊ¼à¤²":7323,"ĠĠĠĠĠĠĠĠĠĠĠĠĠĠĠĠĠĠĠĠĠĠ":2048,"ctuation":9046,"ĠChristmas":11148,"Ġking":2645,"à¥Īà¥¤....":5027,"Ġits":2893,"à¤¿\"":1184,"à¥Ī,\"":5124,"eare":5796,"Ġà¤ıà¤ĸà¤¨à¤¬":828,"Compound":5872,"Ġà¤Ĺà¤¥à¤¸":8594,"Ġcharact":5472,"Ġà¤¶à¤¨":1380,"à¤¾....?":5643,"amed":9492,"ĠĠĠĠĠĠĠĠĠĠĠĠĠ":1521,"à¤ĩà¤²à¤ĸ":1567,"Ġà¤®à¤¥à¤¨à¤Ĺ":4280,"Ġà¤ħà¤ľà¤¯à¤ĸ":1744,"ened":5307,"Ġ1998":5681,"up":6474,"1987":9674,"Ġà¤ħà¤ĺà¤Łà¤¨":10868,"à¤ĩà¤¨à¤®":1377,"Ġà¤ħà¤ľà¤¯à¤¸":7943,"à¤®à¤¤":542,"Ġà¤®Ê¼à¤²":6886,"à¤¾,":332,"à¤¯à¤ĸà¤Ļ":2400,"à¤¦à¤°à¤®":2713,"Ġfriend":3605,"Ġevery":4378,"à¤ĩà¤ĸà¤¸":7927,"à¤¬à¤Ĩà¤¨":6643,"à¤Ńà¤ķà¤¤":1378,"Ġà¤¬à¤°à¤«":1585,"à¤®à¤¦":435,"Ġà¤°à¤ľ":636,"à¤¹à¤Ĩà¤µ":2746,"Ġà¤ľà¤¯à¤°":2842,"Ġ20":947,"Ġà¤ĸà¤²à¤ĸ":7161,"à¤µà¤²à¤ĸ":7951,"à¤®à¤ķ":1547,"Ġà¤Ĺà¤ľÊ¼à¤¨":6851,"ĠUp":9748,"à¤¿....à¥¤":4680,"Ġà¤ıà¤°Ê¼à¤¨à¤¨":10871,"Īļ":6543,"Ġà¤ĸà¤°à¤¬":4888,"ĠĠĠĠ":301,"à¤¥à¤ĩ":6951,"Ġà¤¹à¤°à¤¬à¤¸":8457,"à¤¤à¤¨à¤¨":3988,"Ġà¤Ĺà¤°à¤¦":1511,"Ġà¤¬à¤°Ê¼à¤ĸ":1528,"à¤ħà¤²Ê¼à¤ķà¤¨":5659,"à¤¹à¤ķà¤«":7130,"à¤ĩà¤Ĩ":2524,"à¤īà¤²à¤¨":7504,"à¤¯à¤¹à¤°à¤¥":8387,"à¤ĩà¤Łà¤²Ê¼":8507,"à¤¹à¤°à¤¸à¤¨":7132,"Ġ...?\"":8521,"atin":8840,"Ġà¤«à¤¬à¤²":3930,"à¤¾}:":6549,"Ġ125":8847,"Ġà¤Ĺà¤¤":3338,"Ġdisobedient":10613,"ĠĠĠĠĠĠĠĠĠĠĠĠĠĠĠĠĠĠĠĠĠĠĠĠĠĠĠĠĠĠĠĠ":466,"lina":10515,"Ġà¤ıà¤¡à¤Ńà¤ķ":4412,"Ġu":1843,"à¤°à¤ľà¤¨":3063,"Ġà¤ľà¤²à¤¨":6981,"(:)":6013,"à¤¶à¤ªà¤£":7816,"à¤ĩà¤Łà¤ľ":3136,"à¤Łà¤°à¤ľ":3960,"à¤·à¤¦à¤ĸ":4075,"iel":3273,"ĠTalking":10414,"à¤¿,":370,"Ġà¤¥":296,"Lep":6169,"Ġà¤Ĩà¤¨à¤ļ":7949,"ĠDefragment":11046,"Ġà¤ħà¤¡":2249,"Ġà¤Ĩà¤®à¤ĸ":7045,"à¤¥à¤ªà¤¸":6969,"à¤¿>":3782,"siolant":9447,"ĠAugust":1420,"Ġà¤Ĺà¤°à¤¤":2979,"à¤ªà¤Ĩ":7483,"à¤ħà¤ª":1956,"à¤¥à¤¬à¤¦":4812,"Ġà¤ıà¤®à¤ıà¤«":8165,"128":9461,"Ġà¤ıà¤¨à¤¨":4959,"Ġà¤¤à¤®":4106,"à¤ľà¤ĩà¤¨":6907,"Ġà¤Ĺà¤¥à¤®":8596,"join":6360,"Ġà¤Ĩà¤ķà¤īà¤¨":9924,"mma":10518,"Nec":6186,"ĠDELTREE":5889,"à¤¦Ê¼à¤µ":1569,"ingleness":5971,"à¤²Ê¼à¤°":2546,"Ġà¤¦à¤°à¤®":3909,"à¤«Ê¼à¤¨à¤ĸ":9897,"Ġà¤Ĩà¤īà¤Łà¤¨à¤ª":10295,"Ġbreathed":10603,"Recycle":10759,"Ġ713144":10968,"Ġà¤¨à¤Ĺà¤°à¤¨":7091,"à¤®à¤ĸÊ¼à¤ľ":4093,"Ġver":3764,"-à¥Įà¥¤":6024,"à¥¤...............":6832,"à¤°Ê¼à¤ĩà¤¨à¤¨":7555,"1957":8758,".........\"":9071,"IBM":4535,"à¤¦à¤ĻÊ¼":10836,"1976":10051,"scal":6461,"harnet":5641,"à¤¾...":1345,"Ġà¤ªà¤¡":7587,"'!":5999,"à¤Ĩà¤īà¤Ł":7430,"man":3734,"à¥Į}":6997,"à¤¾);":8564,"Ġà¤īà¤¨à¤¹":4034,"Ġà¤¦à¤®à¤¨à¤Ĩ":4267,"Ġà¤¬à¤°Ê¼à¤«":621,"Ġvariet":9950,"ĠProfessionà¤ĸ":11187,"à¤ĩà¤«à¤Łà¤¨":8152,"Ġ...........à¥¤\"":5758,"à¤Ĥ--":6620,"à¤¿à¥¤...":7731,"à¤¨à¤¥Ê¼à¤ľ":9178,"ĠCLS":5366,"Strugg":10765,"ĠElectronic":11093,"à¤°à¤ŁÊ¼à¤ķ":6603,"Ġà¤Ĩà¤¸à¤²":2414,"stem":3166,"à¤µà¤ĸÊ¼":3459,"à¤ĺà¤¦":5402,"à¥ĭà¤Ĥà¥¤..]":7465,"à¤ŁÊ¼à¤²Ê¼":8464,"à¤²à¤ļà¤°":3656,"Ġà¤¦à¤°":732,"(;)":10692,"Ġà¤©à¤Ļ":4664,"Ġà¤¯à¤®":5328,"ych":6507,"ĠGuah":9296,"Ġà¤®Ê¼à¤¹à¤¨":10126,"Ġà¤ĩà¤īà¤Ł":2267,"à¤Ĺà¤¬à¤ľ":6937,"Ġà¤ķà¤®à¤¨à¤°":9844,"Ġà¤ľà¤¹":1455,"Ġverona":10371,"Ġ--":368,"à¤®à¤ľà¤¨":7878,"Ġà¤ıà¤Ł":1559,"Ġà¤Ĩà¤Ĺà¤¨":7042,"1511":5611,"Ġà¤¸Ê¼à¤¹":6870,"à¤īà¤Ĩ":4009,"1921":5416,"chant":10069,"à¤ķà¤ķà¤ĸ":4958,"à¥ĭà¤Ĥ...............":7064,"Ġà¤¦à¤ĸà¤²":4292,"à¤Ĺà¤¬à¤¤":6942,"à¤µà¤¬":356,"Ġà¤¨à¤¬":1030,"ĠProlo":4226,"Ê¼à¤ļà¤¨":7222,"à¤§à¤°à¤ĸ":8080,"Ġà¤Ĩà¤ķ":2022,"Ġ65":5465,"***":5417,"à¥ģ-----!":10383,"aith":6261,"ĠEp":5604,"Ġà¤°à¤¬à¤¬":7248,"Ġà¤ľà¤¯à¤§à¤¨":8625,"151":9431,":....":6091,"à¤¾..!!":9801,"à¤¾--":1526,"à¤¤à¤¸à¤¨":7412,"Ġsp":2438,"à¥¤........":6827,"esire":8403,".......à¥¤\"":8952,"à¤°à¤ĸ":325,"Ġà¤¸à¤°à¤ľ":2224,"lax":4611,"Ġbusiness":9031,"ĠGraphic":5893,"spirant":10664,"Ġà¤ħà¤²Ê¼à¤ķ":593,"à¤¹à¤¥":3914,"ĠHistory":5963,"ĉĠĠĠĠĠĠĠĠĠĠĠĠĠĠĠĠĠĠĠĠĠĠ":6520,"Ġà¤¥à¤°à¤ĹÊ¼":7147,"à¤¨à¤Ĺà¤¹":7772,"Ġà¤ıà¤ķà¤¸":2066,"Ġà¤ıà¤®à¤ª":8163,"à¤¬Ê¼à¤¨":1507,"ĠNorman":9423,"ĠPad":2854,"57":3701,"Ġà¤°à¤¸à¤®":4920,"Ġà¤¬à¤¬à¤°à¤¨":7996,"Ġà¤Ńà¤°Ê¼à¤¸":7866,"tic":1492,"--!":4110,"Ġà¤°à¤¸à¤ľ":7250,"Ġà¤ħà¤¬à¤¥":1338,"Ġà¤ĸà¤¯":7150,"Ġsentences":10934,"Ġ1987":2867,"Ġà¤Ĩà¤ĩà¤ĸ":1787,"ĠĠĠĠĠĠĠĠĠĠĠĠĠĠĠĠĠĠĠĠĠ":2269,"à¤¬à¤¡Ê¼à¤²":2453,"Ġà¤ĸà¤®à¤¬":3009,"rom":2329,"ĠGlo":5572,"Ġà¤ķà¤®à¤¸":7470,"Ġà¤¨à¤¨":743,"ą":193,"ĠĠĠĠĠĠĠĠĠĠĠĠĠĠĠĠĠĠĠĠĠĠĠĠĠĠĠĠĠĠĠĠĠĠĠĠĠĠĠĠĠĠĠ":2175,"98":3706,"ari":4182,"à¤ķà¤¥":1596,"ĠStart":5720,"à¤¾.........!":6553,"ĠTop":8775,"stinct":8961,"ĠMail":9054,"illiant":9861,"3370":9942,"à¤Ĥà¥¤''":7818,"Ġir":6532,"Occ":6194,"ĠWives":10947,"Ġconspirators":10991,"à¤Ĩà¤µà¤Ĺ":5090,"Ġà¤²Ê¼à¤ľ":7209,"Ġ36":3534,"à¤¨à¤¸à¤¨à¤ĸ":7394,"Ġà¤®à¤¶à¤ľ":6901,"ĠTIM":8785,"ĠSyndrome":11144,"à¤¸Ê¼à¤¸":5345,"Ġà¤ĸà¤¨à¤¹":3924,"à¤®à¤¨à¤¨":3834,"Ê¼à¤¨à¤Ļ":7764,"à¤ĩà¤¤":3021,"Ġà¤¨à¤¬à¤ľ":7084,"à¤¬à¤°Ê¼à¤ĸ":8691,"à¤¡Ê¼à¤¸":9233,"à¤«Ê¼à¤¬à¤¨":3653,"DN":6127,"à¤ĺà¤¨":8716,"Ġcarried":10596,"Û":151,"Ġà¤īà¤ķ":1732,"Ġculture":8919,"à¤¦à¤¦":547,"Ġtrag":2445,"armon":5336,"à¤°à¤¤à¤¦":8205,"à¤¸à¤¨à¤ĸ":1319,"Ġà¤¸à¤µà¤¦":6861,"1940":5415,"à¥Į,":492,"à¤®à¤²à¤¨":6795,"Ġstraightforward":11116,"Ġà¤ıà¤īà¤²":4969,"Ġforce":9863,"Ġmultivitamin":11200,"à¥ĭ........à¥¤":9985,"à¤«à¤Ĩ":4838,"Ġkachar":5705,"à¤ĺà¤®":8718,"¥":98,"Ġà¤¹à¤®à¤Ĺ":1785,"à¤°Ê¼à¤¯":3052,"ĠScen":2896,"ĠObserve":10672,"ual":2332,"à¤¨à¤·":3769,"remely":8984,"à¤¾'),":8392,"Ġà¤®à¤¤à¤ľ":9363,"à¤¸à¤°à¤ĸÊ¼à¤¨":6751,"à¤§à¤ĸ":8073,"Ġà¤Ĩà¤īà¤¤à¤¸":10294,"à¤¯à¤ĸà¤¨":2399,"à¤īà¤¨à¤¥":3427,"à¥Ģ\"à¥¤":5648,"Ġà¤ĺ":626,"fication":2473,"à¤ĸà¤Ł":4738,"à¤°à¤¸à¤«":5054,"tons":6469,"Ġà¤ĩà¤¦":7645,"Mora":5911,"cts":9045,"ĠTandy":10952,"..à¥¤\"":3398,"bout":4573,"à¤īà¤¬Ê¼à¤Ĺ":9965,"à¤ĩà¤ĸÊ¼à¤Ĩ":7932,"Ġà¤¸à¤¯à¤¹":4782,"08":2076,"oft":4426,"à¤Ĺà¤¸à¤«":6940,"Ġà¤Ĩà¤ĩà¤¸":7043,"à¤¿!":6576,"ĠĠĠĠĠ":556,"Ġà¤¨à¤Ļ":354,"à¤¸à¤¯":1430,"à¤¥à¤¨à¤ĸ":4810,"iration":6350,"à¥ĭ,...":7710,"^":61,"à¤ļà¤Ĩ":5198,"phrey":9825,"Ġ600":8905,"Ġà¤Ĩà¤«":396,"à¥ĭà¤Ĥ,-":3099,"Ġà¤¤à¤¨à¤¦":8056,"Person":5913,"à¤Ĩà¤¦":802,"Ġà¤Ĩà¤²à¤¦":4048,"à¤ľà¤ĸà¤®":3515,"cen":4575,"à¥ĭà¥¤''":2385,"à¤·à¤¯":5131,"à¤¬à¤ĸ":477,"num":4621,"Ġ?....":4980,"Ġà¤®à¤¨à¤¸":6879,"Ġà¤īà¤Ł":7453,"à¤°à¤¬à¤ĸ":7537,"à¥ĩ....\"":10187,"Ġexpand":10252,"Ġà¤¬":268,"ĠPharmaceuticals":11189,"Network":11194,"à¤¸à¤²à¤®":3331,"Ġsam":8672,"Ġà¤¥Ê¼à¤¬":4881,"ĠComposition":10086,"ov":3741,"Ġà¤ıà¤°à¤¨":1402,"à¥¤.....":4768,"Ġclass":10431,"Ġsoliloquy":10579,"viv":6486,"à¤ĩà¤¦à¤«":8319,"300":3698,"à¤¦Ê¼à¤«":5231,"à¤¯à¤²Ê¼à¤¸":9064,"ĠCarreage":10919,"à¤¯à¤¸à¤¨":1870,"Word":3717,"à¤¯à¤¸à¤®":7632,"Ġà¤¬à¤°à¤ª":1572,"à¤ķà¤¯":3964,"à¤ľà¤°à¤ľ":6906,"à¤ĩà¤²à¤¬":8125,"º":118,"Ġà¤Ĩà¤¦à¤¤":3465,"à¤ĩà¤ľÊ¼":3446,"ĠHalloo":10628,"ffix":2891,"Ġà¤Ĩà¤²à¤Ł":3445,"Material":6177,"---":1363,"Ġà¤ıà¤µà¤¥":7359,"ĠExecllency":11115,"Ġcareer":10595,"Ġp":843,"115":9379,"Ġwants":10426,"à¤ŁÊ¼à¤¸":8461,"ĠGent":9286,"ĠCuriosity":10916,"Ġà¤ľà¤²à¤¦":2362,"Ġà¤Ĺà¤¥à¤µ":3555,"Ê¼à¤¨":392,"Ġà¤īà¤¤":1733,"à¥Ī....à¥¤\"":5719,"2004":5701,"Ġà¤°à¤¸à¤ķ":9530,"Ġ?..............":7408,"à¥ĩ-}:":8289,"à¤ħà¤¤":7883,"Ġà¤ıà¤¥à¤¬":7373,"Ġà¤¨à¤¹à¤¬":7093,"MAT":4540,"Ġà¤®":281,"Ġà¤ĹÊ¼à¤²à¤ĸ":8430,"olation":8975,"à¤ŁÊ¼":674,"à¤ĵà¤ĩ":1496,"à¤¬à¤¦":504,"Ġà¤¹Ê¼à¤ľ":4834,"aur":6258,"Ġà¤¦à¤ĻÊ¼à¤ĸ":8341,"Ġà¤Ĺà¤Ľ":6850,"à¤Ĩà¤µà¤²Ê¼":3452,"à¤¬à¤¡Ê¼à¤¸":10036,"Ġmanner":10235,"ĠLim":2638,"à¤¨à¤¸à¤¨à¤«":3982,"Ġà¤ĩà¤®à¤«à¤ľ":10305,"Ġà¤ķà¤¥à¤ķ":7480,"Ġà¤®à¤¸":1279,"à¤¯à¤¡à¤°à¤¨":10379,"à¤ĸà¤¨à¤«":4743,"à¤°à¤®Ê¼à¤®":5087,"ĠCurrent":5934,"lension":10366,"g":70,"Ġ!":337,"Ġcomical":9857,"à¤µà¤¹à¤°":2712,"ĠĠĠĠĠĠĠĠĠĠĠĠĠĠĠĠĠĠĠĠĠĠĠĠĠĠĠĠĠĠĠĠĠĠĠĠĠĠĠĠĠĠĠĠĠĠĠĠĠĠĠĠĠĠĠĠ":963,"à¤ĩà¤¤à¤ĸ":7237,"suffixes":10803,"Ġà¤¹à¤®à¤ĸ":1457,"urio":6481,"Ġ...?":4184,"à¤¬à¤²à¤ĸ":4699,"Ġà¤ĵà¤ĩ":1333,"fic":6316,"í":169,"à¥ĩ--":2211,"Ġà¤®à¤ĸà¤®à¤²à¤¨":10843,"4":19,"Ġà¤ľÊ¼à¤¸":5276,"Ġà¤ħà¤°à¤®":7295,"à¤Ĥ;":2950,"à¤°Ê¼à¤Ń":7549,"Measure":6173,"Ġà¤Ĺà¤²Ê¼à¤Ĺ":8195,"Ġà¤®à¤¨Ê¼à¤²":7934,"ĠLaur":9308,"eal":2324,"Societ":6230,"ĠLevel":9307,"ĠRam":9386,"à¤µÊ¼":2493,"amic":9493,"PER":6208,"ĠROM":9389,"Ġfete":9106,"Ġà¤ıà¤ķà¤ķ":5323,"Ġplace":5710,"Ġglo":9632,"à¥ĭà¤Ĥ;":1370,"à¤ıà¤¸à¤ĸ":8106,"à¤Ĺà¤²à¤¸":1325,"à¤¨à¤¥Ê¼à¤¦":3614,"Ġà¤ĸà¤¨à¤Ĺ":2753,"85":6083,"à¤®à¤¤à¤ĸ":4126,"à¤Ĺà¤²à¤¯Ê¼à¤¡":10904,"Ġà¤¦à¤¦à¤¦":7107,"à¤«Ê¼":1925,"à¥Ī-":415,"Ġà¤¬à¤ķà¤¸":2099,"1587":9443,"à¤ªà¤²à¤¬":7491,"ri":1121,"Ġà¤Ĩà¤°Ê¼à¤ľà¤ĸ":10300,"Ġà¤Ĩà¤¬à¤ľ":5126,"clas":6290,"ĠVers":9655,"Ġà¤ķà¤ķà¤ķ":9267,"Ġvitamein":11132,"Ġdrama":3604,"à¤®à¤Ĺ":525,"Ġà¤ħà¤¨à¤¦":2037,"Ġ....à¥¤\"":2585,"Ġà¤¨à¤Ļà¤¬":7644,"Ġstage":9815,"à¤ĩà¤ľà¤°":7689,"à¥ĩ:-à¥¤":10316,"Ġà¤ī":327,"Ġà¤Ĩà¤ĩà¤®":4122,"42":4494,"à¤¯à¤ķà¤¶":6615,"à¤¸à¤¤à¤¬":6750,"211":6052,"roilus":9341,"Ġà¤¦Ê¼à¤¬":1929,"Ġà¤¸Ê¼à¤ķ":4788,"ĠCommissioner":5935,"Ġ+":1842,"Ġmus":8935,"122":9455,"à¥ĭ........à¥¤\"":9986,"à¤µà¤¹à¤°à¤¦":3832,"à¤Łà¤ķà¤«":7326,"rol":3283,"Ġà¤¸à¤²Ê¼à¤¨":661,"à¤¤à¤°à¤ľà¤¨":7419,"Ġà¤ħÊ¼à¤Łà¤¯":9667,"à¤Ĩà¤µÊ¼":7740,"Ġpersonification":10422,"ĠEx":1701,"Ġthey":3155,"34":3243,"à¤ĩà¤«à¤²à¤ľ":8155,"Ġà¤Ĩà¤īà¤²":4847,"1963":5739,"inar":8232,"ternal":9589,"Ġà¤¸à¤¨à¤¥à¤°à¤²":10549,"ĠVictorian":11111,"à¤«à¤°à¤®":4840,"à¤¾à¥¤ğğ":7335,"à¤°Ê¼à¤ľà¤¨à¤ĸ":7559,"Ġà¤®à¤¹à¤°à¤²":7913,"Ġà¤ªà¤¨à¤¸":7586,"Syllable":10502,"Ġsafeguard":10685,"Ġà¤¸à¤®à¤¬":885,"à¤°à¤¥à¤°":7993,"etath":5591,"face":2921,"à¤®à¤¬":357,"Ġà¤§à¤®à¤ĸ":4105,"Ġà¤®à¤®à¤¨":3862,"à¤¸à¤«à¤°":5404,"Ġà¤¸à¤®à¤¨":628,"-à¥ĩ,":6027,"?...":6098,"Ġà¤¸à¤ļ":3859,"Ġà¤Ĺà¤¬Ê¼à¤¨":1888,"à¤Ńà¤¬":2409,"à¤¹Ê¼à¤°":4873,"Ġ....?":5280,"Ġà¤Ĺà¤²à¤«":8186,"dra":6297,"Ġà¤īà¤ľ":696,"ĠSkref":8660,"Ġà¤ķà¤¨à¤ķ":8760,"Ġmyrtle":10160,"Ġà¤ļà¤Ľà¤®":3485,"Ġà¤¸à¤®Ê¼":7561,"ĠLike":10451,"110":6045,"Ġà¤¸à¤¨à¤¥Ê¼à¤²":8231,"Ġdesp":9086,"Ġà¤ħà¤²":553,"Ġà¤«à¤°":412,"Ġà¤ªà¤ĩà¤¨":3055,"à¤¾..........":4661,"Ġà¤¨à¤¬à¤¥":2373,"74":4504,"à¤®Ê¼à¤¦à¤°":5735,"Ġ1957":10010,"Ġsafegurd":10686,"à¤°à¤¬à¤¬":4017,"à¤¹à¤°à¤ĸ":1514,"Ġlife":4431,"UI":3715,"lar":4608,"à¤ĩà¤¹à¤°à¤¬":4911,"ĠSt":1697,"Ġà¤¨à¤ľà¤¦":7094,"Ġment":8932,"Ġsatis":5387,"Ġgemder":9635,"Ġà¤Ĩà¤µà¤¥":943,"à¤īà¤¯":3048,"à¤¡à¤¥":7614,"ĠPractical":2855,"lology":6379,"à¤®à¤ļà¤¨":2972,"Ġà¤ħà¤«Ê¼":8256,"Ġ8086":9860,"Shakespeare":10764,"Ġ7":842,"ried":9320,"ragment":9672,"ĠI":871,"Ġ1977":3636,"hin":6334,"Ġà¤¶à¤ļ":2152,"Ġ1933":8347,"ĠRomanoram":11089,"uation":4641,"Ni":6184,"à¤¨à¤«Ê¼à¤¬à¤¨":7770,"à¤ª":330,"Ġ.........?\"":9472,"Ġà¤ħà¤ª":727,"acul":9271,"à¤¨à¤¸Ê¼à¤¹à¤°":10005,"ĠSafety":10929,"à¥ĭà¤Ĥ?":7054,"1959":8757,"Ġà¤ĸà¤°à¤²":3923,"à¤Īà¤¶":10179,"à¤°à¤¬":339,"Ġtear":8876,"à¤ķÊ¼à¤ķà¤°":3660,"ĠSecurity":10924,"Ġà¤ħà¤®à¤²à¤¨":3124,"Ġà¤ħà¤²à¤ķà¤ĸ":5279,"Ġl":1425,"ix":1906,"à¤¸à¤²Ê¼":1774,"Ġcomp":2623,"eriv":2830,"Ġà¤Ĺà¤¨à¤¸":3843,"Ġà¤ķÊ¼à¤²":5003,"à¤Ĩà¤ĩà¤ľ":2541,"à¤ħà¤¡":5139,"Ġà¤Ĩà¤ĩà¤ķÊ¼à¤¨":1539,"Ġà¤ľÊ¼à¤¨":1081,"ery":4139,"prit":6429,"Ġà¤¬Ê¼à¤¹":2209,"Ġà¤¬à¤¨à¤¦":6660,"119":6043,"vanc":6487,"tural":6468,"à¤¹à¤°à¤²Ê¼":7707,"à¤°à¤¦Ê¼":3463,"Ġà¤¦à¤ĻÊ¼à¤²":8072,"Ġà¤¸à¤¨à¤ķà¤·":5255,"iy":6342,"ĠComp":2604,"Ġ7612":8826,"indec":8849,"à¤ķà¤ļ":4956,"ĠEDVAC":9413,"150":9430,"à¤ľà¤¦":2504,"tish":4153,"à¤·à¤¦à¤ľ":7876,"opnsible":9717,"ĠCurio":8611,"Ġà¤°Ê¼à¤¥":5346,"Ġfath":9100,"1979":10053,"à¤ħÊ¼à¤«":5143,"Ġ44":5353,"Ġreservationà¤Ĩ":11157,"à¤ĩà¤¡à¤°à¤¨":9403,"Committee":5987,"ĠSea":8653,"ol":910,"ĠJ":1911,"Ġus":2482,"Ġà¤Ķà¤°à¤¸":2587,"Ġà¤Ĩà¤ľ":731,"ere":2158,"93":2914,"ĠDocument":4472,"à¤ħà¤°":1308,"Ġbious":9028,"ĠGob":9291,"ĠSprit":10150,"ĠSurvival":10926,"à¥ĩ:...":5293,"Ġherit":9172,"Ġ1719":9693,"ient":4600,"Ġà¤ĩà¤ļà¤¨à¤ª":10888,"37":2319,"à¤°à¤Ĺà¤¯":1213,"Ġà¤°à¤Ļà¤Ĺ":10136,"à¤īà¤ĩà¤¨":7501,"à¤¬à¤¸à¤¨":4084,"à¤¸Ê¼à¤²":3825,"ĠDecameron":10617,"Ġà¤Ĺà¤°":816,"à¤¨à¤¡":2339,"¨":101,"à¥ĭà¤Ĥ....à¥¤":7063,"2":17,"Ġà¤°à¤ĺ":4924,"à¤ĸà¤²":1620,"Ê¼à¤²à¤¸":7220,"Ġà¤¹à¤°à¤¦à¤®":1975,"à¤¦à¤¥":2107,"Ġà¤ħà¤¤à¤²":7307,"à¤®à¤¨à¤°à¤¨":7399,"ilogou":9737,"ĠMut":9051,"à¤°à¤¸à¤¨à¤¦":5055,"one":3516,"Ġà¤¦à¤ĻÊ¼à¤®":1694,"97":3254,"Ġà¤¦à¤°à¤¸":1260,"id":1270,"Ġà¤ĸÊ¼à¤¨":1130,"Ġà¤ħà¤°à¤¸":2767,"à¤īà¤¨à¤ĸ":3425,"Ġ1026":5400,"à¤¿<":6577,"à¤¿:":601,"à¥į,":6652,"Ġà¤¬à¤µ":6655,"à¤µà¤ĵ":6773,"Ġà¤¡à¤ĸà¤°":7805,"Ġà¤¦à¤Ļà¤Ĺ":8071,"Ġà¤¦à¤¦à¤¬":8218,"Ġ630":8906,"Ġelementsà¤¨":10683,"thell":4143,"65":4500,"rine":4631,"ĠDI":3175,"Ġà¤¦à¤¨à¤¬":7096,"ĠbeÊ¼":9641,"ester":8402,"Parts":10755,"Ġà¤ħà¤ªà¤¸à¤¨à¤ĸ":5352,"Ġà¤²à¤®à¤ª":7211,"Ġà¤ıà¤¯":2534,"à¤Ĺà¤¨à¤Ĩà¤µ":7941,"omoc":8738,"à¤·":419,"Ġn":1044,"lab":6374,"à¤ĩà¤¨à¤ľ":1863,"Ġà¤Ĩà¤Ń":3896,"Ġidentity":10033,"Ġà¤ĵà¤®":5062,"Ġà¤¦à¤®à¤ķà¤²":8768,"ĠOthello":5630,"Ġ...............à¥¤":8588,"ĠExecll":9797,"Ġà¤ħà¤¬Ê¼à¤¦":7987,"ĠRamedies":11085,"Ġà¤ľà¤®à¤«":4816,"à¤¬à¤¸":428,"Ġà¤µà¤¯":8414,"..................\"":5860,"Â":126,"RE":3261,"à¥ĭà¥¤........":4930,".à¥¤\"":6036,"ier":6343,"Ġà¤ĩà¤Ľà¤°Ê¼à¤µ":4414,"45":1989,"ĠBod":3191,"à¥ĭ...........":3781,"Ġ1961":9513,"à¤Ŀ":602,"thesis":5274,"Ġà¤Ĩà¤ĩà¤¬à¤²à¤ĸ":5833,"à¤¨à¤¡à¤°à¤¸":10034,"Ġ--'":1740,"len":3732,"Ġà¤¬Ê¼à¤Ĺ":6680,"à¤Ĩà¤ĩà¤¦":7432,"à¤£à¤°":4079,"à¤ľà¤®à¤¨":4798,"à¤ĸà¤¨à¤¥":2708,"Ġà¤®à¤²à¤®":7991,"ĠCo":8599,"118":9382,"à¤ĩà¤¬":594,"Ġà¤ĸà¤®à¤¬à¤ķ":10201,"İ":236,"79":4507,"59":3246,"Ġà¤Ĩà¤¥":442,"à¤¨à¤¸à¤Ļ":7393,"Ġà¤ĵà¤°":703,"â":158,"à¤¨à¤®à¤¸":6559,"ĠHIT":5555,"à¤Ĺà¤¹":6927,"ision":8617,"à¤¦à¤²à¤ĸ":1812,"/-":6038,"ĠForm":5672,"à¤«à¤°à¤ĸ":4839,"Ġà¤¸à¤¨à¤¦à¤ĸ":5776,"Ġeff":9827,"Ġ2009":1818,"roup":5924,"Ġà¤¬à¤Ĺà¤®":6675,"ĠSign":8655,"page":6426,"ĠHeal":9206,"à¤¾..........à¥¤":6555,"à¤¨à¤¹à¤°à¤ľ":5148,"à¤ĩà¤ķà¤¸à¤¤":8278,"af":6254,"à¤ķà¤ķ":3407,"Ġ.............":5358,"Ġà¤®à¤ĸÊ¼à¤¨":1720,"à¤¨Ê¼à¤¬":6563,"Ġà¤«à¤ľà¤¨":1936,"à¥ģ/":6781,"à¤Ķà¤µ":3561,"Ġà¤ıà¤¡à¤Ń":2454,"Ġà¤ĸà¤«Ê¼à¤ĸ":9160,"Ġà¤ĩà¤¥à¤¦":5832,"Ġà¤°à¤¸à¤ĹÊ¼à¤²":5638,"11":1180,"ment":2678,"ĠOperation":11101,"à¤Ĥ--\"":6624,"à¤ĩà¤°":562,"Ġfail":9102,"à¤¬à¤°Ê¼":773,"à¤°à¤¸Ê¼à¤²":3057,"llable":5798,"Ġà¤°à¤ļ":7247,"Ê¼à¤§à¤°":7223,"à¤¥à¤°à¤ĹÊ¼":3877,"Ġsafe":5389,"Ġproper":5759,"Ġà¤®à¤¥":951,"Ġbrutists":11017,"à¤ħà¤¨à¤¸":1687,"à¤Ĥà¥¤..........":7819,"Ġà¤¨Ê¼à¤ĸ":855,"Ġà¤ķà¤Ń":7469,"à¥Į)à¥¤":7002,"à¤¨à¤Ł":1711,"ARA":6106,"Ġsubstan":10406,"Ġbecome":11012,"ĠK":2088,"à¤¯à¤¶à¤¤":9677,"à¤®à¤ľà¤¦":7879,"à¤īà¤²":884,"à¤ĹÊ¼à¤¨":1591,"ĠShe":8650,"à¥Ģ',":2539,"Ġ206":9044,"ĠStress":9792,"Ê¼à¤Ĩà¤µ":4906,"à¤µÊ¼à¤¨":3334,"Ġ51":8406,"Ġà¤¬à¤°à¤ķà¤²":5273,"Ġsubmit":10405,"Ġà¤¬à¤¦à¤®":1346,"Ġsoftware":10939,"ĠRhod":9395,"à¤ĩà¤¡":1190,"à¤ĸà¤°à¤¥":3828,"Ġ1884":9187,"ited":2447,"à¤ŀ":1234,"Ġà¤īà¤²à¤ľ":8818,"Ġind":6528,"Ġà¤®à¤¯à¤¦":3346,"à¤°à¤ķà¤ľ":5588,"ĠWond":8732,"Ġ1911":3525,"Ġà¤ħà¤ŁÊ¼à¤°":2124,"ĠAction":8704,"Ġalthough":11147,"T":51,"Ġà¤ĹÊ¼à¤¨":2354,"à¤¦à¤¤":1780,"et":1181,"à¤°à¤¨à¤¤":4935,"Ġtra":2621,"Ġà¤Ĩà¤ªÊ¼":9261,"hau":4598,"Ġà¤ªà¤£":2794,"ĠCur":5362,"à¤Ĺà¤°à¤«":6934,"inted":8238,"à¤ľà¤¯à¤°":6921,"ĠOh":5628,"à¥Į..........à¥¤\"":7009,"à¤®à¤«Ê¼à¤¨":8000,"Ġà¤ħà¤ľà¤¯à¤²Ê¼":8300,"Ġà¤¬à¤¨à¤ľ":3318,"Ġtermination":8880,"Ġà¤«à¤¥Ê¼à¤µ":3932,"ĠLear":9305,"Ġà¤Ĩà¤¦à¤¸":5122,"à¤²à¤¡Ê¼à¤¬":10382,"Ĭ":232,"ar":694,"Ġ...!!":8522,"à¤¡Ê¼à¤¬":7630,"à¤¯à¤ĸà¤°":1066,".................":3094,"à¥ĭ,":375,"Ġword":1824,"à¤¬à¤°à¤¦à¤¸":6650,"Ġà¤ħà¤ľ":440,"Ġà¤ĸà¤¸":1301,"à¥ĭ..........":6571,"rud":5704,"à¤īà¤¬Ê¼à¤µ":2879,"ww":1707,"TNLP":6235,"à¤²à¤ªà¤¸":6711,"à¤¨à¤¹à¤°à¤¹":9042,"à¥ĭ....à¥¤\"":5724,"à¥Ī-à¥¤":7848,"à¤Ľà¤®à¤¦à¤ª":8541,"Ġprogress":9932,"Ġvoic":9946,"Ġà¤°à¤¹à¤°":4917,"à¤«à¤ŁÊ¼à¤ĸ":7034,"Ġ9864":9976,"Ġà¤§à¤ľ":5202,"Ġà¤ķÊ¼à¤°":1734,"à¤°à¤Ń":872,"à¤¸à¤ķà¤¨":6741,"ĠNine":9419,"ĠFile":9618,"à¤ĩà¤²Ê¼à¤Ĺ":3022,"Ġ...?....":10397,"Ġon":2336,"-à¥ĥ":6029,"Ġboy":3600,"à¤¸à¤¨à¤²Ê¼":7924,"Ġknow":3225,"ĠBodo":3235,"à¤µà¤Ĩà¤¬":3335,"Ġà¤ĸà¤¬Ê¼à¤¬":5493,"Ġà¤«à¤¹":7173,"à¤īà¤¬":1225,"Ġà¤®à¤¹à¤°à¤Ĩ":7914,"Ġvision":9951,"Ġà¤ªÊ¼à¤²":7592,"à¤Ĥ\"à¥¤":6625,"Ġà¤¥à¤°":1088,"Ġà¤ħà¤²à¤ĸà¤¦":1609,"Initial":10021,"205":9539,"Ġmirror":8946,"à¥Į.......à¥¤''":10847,"fl":6313,"radu":8624,"ĠSoli":9813,"à¤²Ê¼à¤¨":1211,"Ġ31":2594,"ĠR":1182,"83":6082,"Ġà¤¬à¤¬à¤¯":5181,"Ġà¤¥à¤ĸà¤¨à¤ľ":9999,"à¤®à¤¨à¤ķ":7400,"à¤§à¤¹à¤¯":8086,"Ġà¤ªà¤°Ê¼à¤µ":7598,"ĠHomocysteine":11063,"Ġà¤Ĩà¤¸à¤¨à¤ĸ":7917,"Ġ81":5482,"à¤¿........................................à¥¤\"":10823,"Ġà¤¸à¤®à¤·":2402,"Ġà¤ļà¤²":3096,"à¤Ĩà¤ĸà¤²":3133,"ĠDISC":10237,"Ġà¤«Ê¼à¤«":7189,"Ġ9435":3682,"à¤¹à¤Ł":4869,"à¤®à¤¥Ê¼":6793,"à¥ģà¤Ĥ...à¥¤\"":7280,"Ġ\"......":7684,"Ġà¤°à¤¹à¤®":2180,"esns":8404,"Ġà¤Ĺà¤®à¤¥":2013,"Ġà¤¡à¤ķ":1686,"à¤¸à¤¸":1239,"Ġà¤Ĩà¤°à¤¨":2734,"Ġà¤Ĩà¤°à¤¤":748,"à¤ĺà¤Łà¤ķà¤¦":10586,"à¤ĩà¤¨à¤Ł":5081,"102":9245,"......":775,"ĠAss":2606,"à¤¬Ê¼à¤«":8816,"Ġà¤Ĩà¤ĩà¤ĶÊ¼":10214,"Ġ............à¥¤\"":5749,"Ġà¤¬Ê¼à¤ĸ":4711,"x":87,"Ġà¤¬à¤¨à¤¦à¤ķ":10830,"Ġ(":359,"Ġm":892,"à¤¯Ê¼à¤°":6608,"à¤ķÊ¼à¤¨":7343,"Ġ?...'":10206,"Ġà¤°à¤ľÊ¼à¤¨":1967,"à¤°à¤ĩà¤Ń":6596,"½":121,"MPC":6176,"Ġmix":8938,"Ġà¤īà¤ĩà¤²":2131,"à¥Īà¥¤":335,"204":9538,"Ġà¤¥Ê¼à¤¦":9684,"tification":3523,"Ġt":866,"Ġà¤¦à¤¨":676,"à¤¹à¤¬":2116,"(?)":4484,"à¥Į..........":7003,"à¤ĩà¤ķ":585,"dialect":10782,"Ġà¤¨à¤Łà¤ĸ":4860,"Ġà¤Ĩà¤¨à¤Ĺ":4845,"Ġà¤ħà¤¦à¤Ĺ":7300,"à¤Ĩà¤ªà¤¨":7426,"ast":3265,"à¤Łà¤ª":3402,"à¤¾à¥¤''":2038,"Ġà¤²à¤¦à¤¬":3936,"à¤¾.....à¥¤\"":5706,"à¤Ńà¤²":7825,"1200":9463,"ĠL":1110,"ĠLucrece":5970,"ĠFDN":9624,"Ġà¤ĸà¤¨à¤«":2379,"Ġà¤Ĩà¤ĩà¤°":3112,"ĠĠĠĠĠĠĠĠĠĠĠĠĠĠĠĠĠĠĠĠĠĠĠĠĠĠĠĠĠĠĠĠĠĠĠĠĠĠĠĠĠĠĠĠĠ":2615,"à¤Ĺà¤°à¤¥":6936,"à¤°Ê¼à¤®":2401,"à¥Ī),":2603,"Ġà¤«à¤¬à¤¬":7181,"on":595,"Ġinterrogation":10455,"à¤°à¤ļÊ¼à¤¦à¤¯":9636,"verb":2641,"à¤ĩà¤¨":371,"Ġà¤²à¤Ł":1938,"Ġà¤Ĭ":1317,"ĠUn":2646,"Ġà¤¤à¤¸à¤°à¤«à¤ĸ":3681,"inated":8239,"129":9462,"Ġforbid":9864,"Ġeternal":10275,"Machin":10739,"Ġà¤ıà¤¤":7354,"à¤ĸÊ¼à¤¨à¤¨":5261,"Ġà¤īà¤¦":474,"Ġà¤ĩà¤ķà¤¸":7651,"Ġà¤®à¤¦à¤²à¤¨":8953,"feminine":10511,"Ġà¤®à¤¦à¤¦à¤ľ":2293,"à¤«à¤¦":3889,"ĠArea":4465,"à¤¦à¤²à¤ľ":4111,"Ġà¤ħà¤¨à¤¸à¤²à¤¨":8307,"Ġmental":10999,"à¥ĭà¤Ĥà¥¤ï»¿":5002,"à¤¨à¤¡à¤°":3774,"Ġà¤ıà¤ĩ":1372,"à¤ļà¤°à¤£":2821,"ĠWorship":8735,"à¤°Ê¼à¤¥":2787,"à¥ĭ..............à¥¤\"":6575,"ĠMerry":10606,"Ġà¤¦à¤ķ":3907,"à¥ĭ..'":9983,"Ġà¤ĩà¤·":2553,"à¤ľà¤¨à¤ĸ":3349,"ural":2312,"Ġ...":701,"il":917,"er":578,"alphabet":10907,"à¤Ĩà¤ł":7436,"à¥ĭà¤Ĥ}":7055,"Ġà¤¤à¤¦à¤¬":3104,"Ġ10":784,"Ġà¤ħÊ¼à¤¨":3952,"à¤¿à¥įâĢĮ":3306,"à¤¥à¤°à¤¬":6957,"Ġà¤Ļ":1912,"à¤µà¤¨à¤®":7328,"1986":9673,"à¥Ģà¥¤)":8741,"Ġà¤ĺà¤Ł":3126,"Ġinheritor":5844,"Ġ35":2596,"col":4576,"à¤¯à¤¸à¤¨à¤Ĺ":4039,"à¤Łà¤²à¤¬":4948,"Ġà¤ķÊ¼à¤¨à¤¬":9467,"Ġfate":5518,"à¤¸Ê¼à¤µ":1619,"à¤¯à¤ªà¤Ĩ":9957,"à¤¨à¤ķà¤°":6560,"Ġà¤¬à¤°à¤¹":4708,"Ġà¤ħà¤¸Ê¼à¤ķ":8502,"à¥ĭ-\"":7850,"Ġ--''":7694,"Ġà¤Ĺà¤²":543,"Ġassacinated":10624,"nasal":10792,"Ġà¤ħà¤²Ê¼à¤ķà¤ĸ":1200,"eas":3270,"ak":1991,"......à¥¤\"":5393,"à¤©à¤ĸ":6546,"à¤ķà¤²à¤¸à¤«":7353,"Ġà¤¥à¤¬":808,"ĠGod":2184,"192":8747,"86":4509,"171":9569,"Ġà¤Ĺà¤²Ê¼à¤¨":1091,"à¤£à¤¤":7897,"W":54,"Ġenlightened":5989,"Ġà¤®à¤ĸÊ¼à¤¸":9181,"ords":9534,"à¥ĩ',":4717,"Ġ\"..":5071,"Ġisn":9425,"Ġà¤¬à¤¥à¤²à¤¥":9324,"Ġrequest":10461,"Ġà¤¦à¤·":3912,"Ġà¤ľà¤¨à¤¦":6979,"à¤¹à¤ľ":1931,"à¥ĭ',":6570,"à¤Ńà¤¸à¤«":7834,"come":9798,"Ġrule":5926,"164":9559,"Ġclassified":11174,"Ġru":4656,"Ġà¤°à¤ľÊ¼à¤¬":5296,"Ġ!!'":4191,"à¤²à¤®à¤«":6706,"ĠF":1449,"Ġà¤¸à¤²Ê¼à¤²":7741,"ô":176,"gred":6330,"à¤°à¤®Ê¼à¤ľà¤®":4452,"Ġà¤°à¤ľà¤¨":4919,"Ġalround":4434,"Ġà¤®à¤ķà¤°":6887,"à¤¬à¤ĸÊ¼à¤¯":8029,"Ġà¤¦à¤°à¤µ":8578,"ĠHomoc":9215,"Ġà¤ıà¤¬à¤¨à¤°à¤®":10872,"akespeare":5983,"Ġ...à¥¤":1969,"Ġà¤Ĺà¤¡":3844,"Ġà¤Ĩà¤²à¤¨":2557,"Ê¼à¤¬à¤¨":2759,"Ġà¤ıà¤°Ê¼à¤ª":3977,"Suffix":6229,"à¤Ĩà¤ĩà¤ĸ":7424,"ĠBut":3192,"1984":3210,"Ġhand":9166,"à¥Ī................à¥¤":10835,"à¤ĩà¤ľà¤¡":7692,"-(":2906,"National":6189,"Ġà¤¹Ê¼à¤Ĺ":1977,"à¤«à¤Ļ":7027,"à¤¸à¤¨à¤Ł":7923,"ĠĠĠĠĠĠĠĠĠĠĠĠĠĠĠĠĠĠĠĠĠĠĠĠĠĠĠĠĠĠĠĠĠĠĠĠ":3693,"Ġtail":8878,"emy":9223,"ĠCul":8602,"à¤¢":1844,"Ġà¤Ĩà¤ĩà¤Ł":2284,"9":24,"ĠPrize":4455,"Ġà¤ĸà¤ľ":3922,"Ġà¤ĩà¤Ńà¤ĸ":7656,"Ġcontrol":8915,"à¤Ĺà¤Ĺà¤¨":2988,"Ġà¤¦à¤Ļà¤²":5212,"Ġà¤¶à¤²":8008,"Ġà¤Ĩà¤Ĺà¤¥":7955,"ĠCorrolanus":10320,"ĠX":3762,"à¤¸":272,"..?...":7285,"wo":2935,"ip":3725,"Ä":128,"Ġà¤·":815,"Ġ900":8865,"rain":8619,"à¤µà¤ªà¤¨":6772,"à¤¨à¤Ĩà¤µ":3300,"Ġà¤®à¤¶":6883,"à¤¿à¥¤..............":7734,"à¥ĩ.,":9872,"baliz":10265,"Purely":10753,"à¤Ĩà¤°":648,"à¤ķà¤°à¤ĸ":2770,"Ġà¤¸à¤°à¤¬à¤¤":2895,"Ġhttp":3690,"Ġà¤ħà¤ľà¤¯à¤¬":7944,"Ã":127,"Ê¼à¤ĩà¤¸":7218,"à¤ıà¤ķ":3108,"à¤ħà¤¨à¤²":935,"à¥Į=":4821,"Epemthesis":5909,"ĠRome":5594,"ies":1705,"ates":8841,"Ġà¤ķà¤°à¤®":3047,"Ġà¤®à¤¥à¤°":1323,"fi":6312,"Ġà¤ĩà¤¥":3060,"à¤¿........à¥¤\"":6582,"à¥Ģ:":7382,"ĠPrivatisation":11163,"à¤®à¤¹à¤¨à¤²":3116,"ebury":10783,"Ġà¤¸à¤ĩà¤ķ":6865,"÷":179,"à¤¸à¤¨à¤Ĩà¤µà¤¨":7925,"Ġà¤°à¤®à¤ķ":8375,"Ġà¤¬à¤°à¤¯":8299,"à¥ĩ....":2955,"à¤¯à¤Ĺ":381,"Ě":214,"Ġà¤¨à¤ĸà¤°à¤¸":5237,"à¤°à¤ĹÊ¼":1007,"Ġsweeten":10671,"Ġà¤®à¤¨à¤ĸÊ¼":6900,"Ġsentiment":4406,"Ġà¥¤(":8174,"Ġà¤Ńà¤°à¤¸":5129,"à¤¾à¥¤......":4952,"à¥Ģ\"ï»¿":9549,"Ġà¤«à¤ŁÊ¼à¤·":9163,",":11,"à¤¦à¤²à¤®":8067,"à¤²Ê¼à¤ķ":573,"Rev":6216,"ĠII":2622,"231":9738,"ighborhood":10514,"OMP":3674,"à¤¬à¤¤":1026,"à¥Į/":4820,"Ġà¤ľà¤¯à¤ļà¤¨":5373,"Ġbar":9018,"Ġà¤¨à¤¯":3000,"Ġà¤ĹÊ¼à¤®":8427,"Ġ...à¥¤\"":3138,"Ġà¤®à¤Ĺà¤¦":6892,"Ġà¤Ĩà¤¬à¤¨":7038,"Revenge":10761,"Ġà¤¨à¤°à¤¹à¤µ":5829,"Ġà¤¬à¤°Ê¼à¤²":3070,"à¤°à¤¸à¤¨":1358,"à¤·à¤£à¤¨":5780,"à¤ŁÊ¼à¤ª":8463,"à¤īà¤¦":700,"Ġli":2882,"file":6320,"Ġà¤ķà¤®":475,"à¤¥à¤¬à¤¬":6967,"Ġà¤ıà¤¡à¤Ĺ":5658,"Ġroses":5789,"Ġ781316":5901,"à¤¦à¤ļ":6814,"à¤Łà¤¤":7315,"ĠATWW":5396,"Ġà¤ľà¤¨Ê¼à¤«":8274,"Ġsought":8687,"Ġà¤²à¤ĸÊ¼à¤¬":2074,"Ġpassion":4469,"à¤°Ê¼à¤«à¤°":7553,"à¤¨à¤Ĺà¤¨":7771,"Ġresignation":11158,"ĠCopparfield":11161,"à¤ĩà¤¸à¤¨":2762,"Ġà¤Ńà¤Ĺ":5128,"à¤Ĥ...":2951,"Ġà¤¹à¤®à¤«":1592,"ļ":248,"isation":4202,"ĠYes":2187,"ĠAnd":5394,"abet":9747,"Ġà¤¥à¤ĸà¤¨":2377,"Ġà¤Ĩà¤ĩà¤¨":853,"à¤¤à¤µ":908,"Ġà¤Ĺà¤¬à¤¨":6835,"à¤¶à¤¨à¤Ĩà¤µ":8517,"non":4620,"à¥ĭ....":1713,"Ġà¤ıà¤ĩà¤²à¤®":10874,"ĠDistrict":10621,"à¤Łà¤Ĩ":3958,"yst":6506,"Ġrepresent":5734,"inish":8237,"Ġà¤ķà¤¨à¤ķà¤²à¤¤":8762,"à¤Łà¤¬à¤°":1401,"Ġà¤ķà¤¬à¤ľ":7473,"à¥ĭ....,":9804,"à¤¿...à¥¤":4678,"Ġà¤ĸà¤°à¤¸":1064,"à¤ľà¤ķà¤¥":6923,"Ġà¤ĸà¤ª":7153,"à¤¯à¤ĸÊ¼à¤¦":9428,"212":4490,"Ġ1890":9188,"Ġà¤īà¤ĸ":848,"à¤īà¤®":1462,"Ġpronoun":10971,"Ġthe":851,"File":6144,"rude":10647,"Ġà¤Ĩà¤µà¤¬":2511,"à¤Ĳà¤ĸ":3648,"à¤Ĩà¤®à¤¥":7425,"185":9582,"Ġà¤¸à¤²Ê¼à¤Ĩ":3453,"Ġ....'":8324,"Č":200,"ĠCor":3557,"°à¥":6517,"Adverbs":3691,"Ġà¤¬à¤°Ê¼à¤Ĩà¤¨":7698,"Ġà¤°à¤¦":3942,"Ġà¤¸à¤°à¤¸à¤¥":10038,"'":6,"Ġà¤ħà¤īà¤Ł":7298,"Ġextent":10651,"à¤¥Ê¼à¤²":1806,"O":46,"\"":1,"à¤¾à¤Ĥ}":7068,"Ġà¤Ĩà¤°à¤ļ":7289,"à¥ĩà¤Ĥ...":7577,"à¥ĭ..........à¥¤":6574,"à¤ľà¤¬à¤°":6910,"Ġà¤ķà¤¨":809,"..\"":7282,"Ġà¤¨Ê¼à¤ľ":7961,"ĠAbstract":5864,"Ġà¤Ĺà¤¸Ê¼à¤°":8090,"Ġ.......":1443,"à¤²":270,"à¤Ĩà¤¬Ê¼":4163,"Ġà¤¬à¤²à¤¦à¤¬":10289,"Ĕ":208,"DECLEN":10484,"à¤¿à¤Ĥ',":7446,"Ġunkindest":11165,"tive":1444,"à¤¾............à¥¤\"":5855,"Ġ4":728,"eed":4585,"Ġà¤¸à¤°à¤Ĺ":3857,"Ġà¤¬à¤ľÊ¼à¤¬à¤¨":3810,"ainst":5621,"ident":9476,"Ġà¤ĺà¤ª":8359,"Ġà¤ĸà¤°":753,"Ġraces":10528,"ĠHelp":5556,"Ġà¤Ńà¤ķà¤¤":1955,"Ġà¤¬à¤®à¤¬":2098,"alism":8439,"Ġbru":9025,"Ġà¤®à¤¸à¤²":2358,"Ġà¤ķà¤¡à¤ľ":7478,"à¤¸à¤²Ê¼à¤®":2966,"à¤¾---":7612,"Ġà¤°à¤¡":2766,"Ġà¤ªà¤ľ":2550,"Ġà¤ħà¤²à¤ĸà¤¦à¤¨":9638,"essity":9349,"à¤ĩà¤¡à¤°":9402,"Ġ*":1708,"à¤¿),":2485,"Ġ2012":4274,"AS":2467,"Ġ..........!!\"":9734,"à¤¿--\"":10083,"Ġà¤Ĳà¤¨":8965,"Ġindiatimes":10815,"à¤¯à¤¥Ê¼à¤¬":8853,"ĠMac":5504,"Diphthong":5908,"à¤¬à¤Ĺà¤¨à¤¸":8189,"à¤°à¤¹à¤°":1296,"Ġà¤¸à¤¯à¤¥":1623,"à¤¬à¤¦Ê¼à¤Ĩ":8117,"Ġupon":10163,"Ġà¤¬à¤ĸÊ¼à¤ĸ":6684,"à¤Ĺà¤²à¤¯Ê¼":8395,"Ġà¤ĸà¤°Ê¼à¤«":5229,"Ġà¤ħà¤¸à¤¨à¤®":7311,"Ġ9854151168":11137,"à¤Ĩà¤¯Ê¼":3187,"à¤´":6545,"Ġforced":9865,"ĉĉĉ":3651,"Ġà¤ĺà¤£":5290,"Í":137,"Ġà¤Ĩà¤°à¤ªà¤ĸ":7291,"......à¥¤":5392,"ott":9112,"Ġà¤¦à¤«à¤°à¤¨":9706,"ef":3269,"à¤ıà¤¸à¤¨":8103,"Ġà¤ħà¤«à¤¨":8254,"Ġà¤Ĺà¤¨à¤ľà¤¨":6856,"......,":8695,"à¤ıà¤¨à¤ľ":5223,"Ġà¤°Ê¼à¤ķ":8553,"Ġà¤¸à¤¹à¤ľ":8243,"magazine":10791,"à¤¯à¤²à¤Ĺà¤¨":7939,"Ġà¤ªÊ¼à¤¯":7597,"à¤¿...à¥¤'":10184,"Ġà¤«à¤ŁÊ¼à¤«":5540,"à¤ĩà¤²Ê¼à¤ľ":9961,"à¤ĩà¤Ńà¤µ":4263,"Ġà¤¹Ê¼à¤ķ":5511,"à¤²à¤¤à¤ĸ":3322,"inal":3510,"ĠĠĠĠĠĠĠĠĠĠĠĠĠĠĠĠĠĠĠĠĠĠĠĠĠ":2167,"à¤®à¤£à¤¨":5756,"Ġmerciles":10477,"à¤Ĥ)-":4397,"LP":6168,"Ġà¤¡à¤·":7801,"à¤¶à¤ľ":3461,"Ġà¤§à¤¨":2581,"à¤Ĥ)":2095,"à¤īà¤ĸà¤²":8356,"ĠHudson":11059,"à¥¤\"--":7757,"à¥Įà¥¤à¥¤":4053,"à¤ĩà¤¨Ê¼à¤¸":7703,"Ġà¤ĸà¤®":882,"TROCK":6236,"Ġà¤Ĺà¤¬":761,"................................................":5808,"à¤¶à¤¨":699,"600":4501,"Ġglobalization":11202,"Ġà¤²Ê¼":1303,"erc":3122,"à¤¨Ê¼à¤Ĩà¤µ":5492,"Ġà¤¥Ê¼à¤°":4879,"Ġ!!...........":8584,"Ġà¤«à¤¨à¤¨":4898,"ĠJones":9892,"Ġà¤«à¤Łà¤ķ":7190,"Ġà¤°à¤ľÊ¼à¤«":5299,"Ġ!!":734,"Ġthink":8644,"Ġcancel":10990,"Ġan":2090,"Ġchance":10334,"à¤°à¤¹à¤Ĩà¤µ":7787,"ĠLessing":11075,"±":109,"Ġà¥¤à¥¤":1570,"Ġà¤¢":1543,"drive":6304,"Ġà¤ķà¤²":449,"Ġ2007":1817,"Ġà¤¹à¤¬à¤¨":7017,"à¤¾à¤Ĥ'à¥¤":7074,"Ġà¤Ńà¤µ":7853,"metathesis":6397,"à¤ķà¤¸à¤¨à¤¨":5375,"ope":9715,"Ġà¤Ĩà¤¦Ê¼à¤¬à¤ľ":7841,"à¤°à¤¬à¤ķ":7543,"à¥Īà¥¤\"-":8282,"let":8861,"à¤¦Ê¼à¤¦à¤°":8134,"à¤ªà¤·":7485,"à¤ĹÊ¼à¤Ĺ":2627,"Ġà¤ªà¤°à¤¸":5049,"à¤¸à¤¯à¤²":6737,"Ġà¤¬à¤¨à¤«":4707,"à¥ĭà¥¤":306,"à¤ĸà¤¦à¤«":6764,"ST":6221,"à¥¤\"":389,"à¤¬à¤°Ê¼à¤¨":2439,"it":878,"Ġà¤¦à¤¦à¤°":7106,"à¤¼à¤¾":1571,"à¤µà¤ĸÊ¼à¤¹":7796,"à¤ŃÊ¼à¤²":7833,"Ġequal":9829,"à¤¬à¤¯à¤¬":1297,"beth":5873,"ĠTale":10412,"Program":10497,"Ġà¤®à¤¹":453,"Ġà¤¸à¤¹":571,"184":9581,"1964":9848,"Ġperfum":10590,"Ġdrawn":10616,"à¤ĸà¤¯":3826,"Ġà¤°à¤¥Ê¼":1261,"Ġà¤Ńà¤¤":7856,"...............":3093,"Ġà¤ıà¤®à¤°":8162,"à¤¾......à¥¤[":10462,"à¤µà¤¹":456,"à¤Łà¤Ł":2387,"Ġà¤ķà¤¨à¤«":2396,"ĠWick":5410,"à¤ľÊ¼à¤¯":8889,"apse":5626,"à¤ĩà¤¥":564,"Ġà¤ħà¤°à¤¸Ê¼à¤Ĺ":10139,"222":9910,"Ġà¤®à¤¹à¤¨à¤¹":7983,"fy":3271,"ĠAccidential":10094,"ĠCrime":10401,"Ġà¤Ĺà¤¸à¤°à¤¹":8089,"à¤ıà¤®à¤«":8104,"olar":4264,"à¤®Ê¼à¤Ĺ":6807,"SU":6222,"à¤¥à¤¸Ê¼":6968,"ason":9258,"Ġà¤¹à¤¬à¤Ĺ":1725,"Ġ142":9488,"229":9913,"orship":8473,"Ġcruel":3590,"Ç":131,"ĠNone":9421,"Ġ12":849,"à¤ľÊ¼à¤«":8890,"Ġmixed":11005,"à¤°à¤²Ê¼à¤Ĺ":6601,"ond":5269,"à¥ģ:":1587,"Ġà¤ĩà¤¨à¤Ł":2057,"à¤¸à¤°à¤¬":2962,"Ġjustification":10284,"Ê¼à¤¥":726,".........à¥¤":2863,"His":6157,"Ġà¤Ĺà¤²Ê¼":548,"à¤Łà¤®à¤¨":7314,"Ġà¤®à¤¹à¤°à¤«":1958,"Ġà¤ĩà¤¨à¤¡":8094,"à¥Įà¥¤\"":791,"Ġà¤ıà¤«à¤ĸ":8258,"boroda":10507,"Ġà¤Ĩà¤ĩà¤¨à¤ĸ":4237,"à¤°à¤¸":349,"Ġà¤°à¤¤à¤¨":4922,"rediff":5799,"à¤¦Ê¼à¤¹":5232,"737":6079,"à¥ĭà¤Ĥ...":7057,"à¤²à¤°à¤¨":2701,"Ġà¤¬à¤°à¤«à¤Ĺ":9725,"Ġà¤¹à¤®à¤¥":677,"Ġà¤¯à¤°":3134,"à¤Łà¤¸à¤¤à¤°à¤ªà¤ĸ":10942,"Ġà¤ªÊ¼à¤¨":5050,"...................à¥¤à¥¤":10458,"Ġ\"à¥¤":4045,"Ġà¤ľà¤¬à¤¨":6974,"à¤¶à¤®à¤¨":7810,"Ġ..!":9351,"à¤²à¤¨à¤¨":3815,"Ġà¤®à¤¨Ê¼à¤°à¤¨":1648,"iqu":4601,"ĠIrag":5455,"onday":8295,"andra":9076,"à¤¡à¤¬":2263,"Ġflamed":10443,"43":4495,"Ġart":4361,".....à¥¤\"":5321,"io":6341,"à¤¸à¤°à¤¬à¤¤à¤¨":10191,"500":3703,"à¤¾--à¥¤":9691,"Ġnever":10344,"à¤ĩà¤«à¤²à¤¸":8153,"Ġà¤¬à¤°à¤®":1584,"à¥Ī\",":3324,"à¤¥Ê¼à¤¯":2047,"PERSON":10754,"à¤¾')":8389,"Ġà¤ķà¤¸":1525,"à¤®à¤Ľ":4760,"ĠME":9047,"ĠVan":9654,"à¤ĸÊ¼à¤°":1775,"à¤¯à¤®à¤¤":2583,"Ġà¤°à¤¯à¤¨":3023,"à¥ģà¤Ĥà¥¤\"":2033,"\"..............":5995,"à¥ĩ-":592,"ult":3633,"à¤°à¤®à¤¥":7715,"Ġà¤°Ê¼à¤®à¤¨":8554,"à¤²à¤°à¤«à¤°":5928,"Ġà¤®à¤¹Ê¼à¤®":7984,"Queenhoo":10758,"Ġà¤¸à¤¥à¤¬à¤¨":2888,"à¤ķà¤¸à¤¨":1941,"Ġà¤Ĺà¤²Ê¼à¤Ĺà¤¥Ê¼":3505,"................................":2639,"y":88,"à¤ĩà¤ĸÊ¼":4085,"à¤¸à¤Ĩ":4732,"Ġà¤¥à¤®à¤¬":3918,"Ê¼à¤ľ":862,"ĠRev":2878,"ON":4544,"Ġ08":6536,"à¤ļà¤²à¤¥":8034,"à¤ĩà¤®à¤ªà¤¸":8524,"à¤ħà¤¹Ê¼à¤²":9928,"hy":4596,"Ġà¤«Ê¼à¤²":7183,"Ġà¤¸à¤°à¤¬":2223,"Ġ1850":9186,"à¤ļà¤ľ":8032,"92":4512,"Ġà¤ıà¤°à¤ĸÊ¼à¤¨":3602,"Ġe":1765,"Ġ!...................":7530,"Ġà¤Ĺà¤¥Ê¼à¤²":8005,"Ġtelegramà¤ĸ":10230,"Ġ!......":7525,"Ġà¤ľà¤¯à¤ĹÊ¼":6995,".......":893,"Ġoctober":8636,"à¥Į.........à¥¤\"":7008,"Ġhist":9169,"Ġà¤£":2001,"Ġà¤®à¤¹à¤¨à¤¨":1534,"à¤²à¤¦à¤ľ":4151,"ĠWiv":8729,"Ġsincer":8685,"ĠĠĠĠĠĠĠĠĠĠĠĠĠĠĠĠĠĠĠĠĠĠĠĠĠĠĠĠĠĠĠĠĠĠĠĠĉ":10359,"à¤¨à¤¸à¤¬":7388,"caste":10779,"ĠTaming":10954,"ĠUNIX":10649,"à¤ħà¤¸à¤®":2413,"Ġà¤®à¤²à¤®à¤ľ":7992,"Ġà¤¸à¤°à¤²à¤¯":5398,"Ġà¤¹à¤°à¤®à¤¨":8019,"Ġà¤ıà¤ĸ":684,"à¤Ĥ..........":4689,"ï":171,"rus":4630,"à¤®Ê¼à¤¬":6801,"à¤Łà¤²":1065,"Ġ)..":8039,"anus":8421,"ĠWordsworth":10474,"Ġà¤ľà¤¯à¤ĹÊ¼à¤Ĩà¤²":10846,"bel":6266,"oy":2478,"Ġà¤Ĺà¤¬à¤¥à¤¬":4437,"à¤°à¤¹à¤«":3458,"Ġà¤ªà¤¨":1804,":à¥¤\"":6092,"Ġà¤¬à¤°à¤Ĺ":4706,"Ġà¤®à¤Łà¤°à¤¨":6897,"ĠMake":9056,"ĠLanguage":9306,"à¤¾':":8390,"satisfaction":10802,"ĠCRAY":4464,"Ġhopes":11050,"Ġ1832":9191,"ĠVerses":11109,"Ġà¤¬à¤ĸà¤¥à¤¨":10833,"ĠExercise":9796,"à¤²Ê¼à¤¸à¤¨à¤¨":7514,"à¥¤ï»¿":2195,"ĠLegend":11078,"ĠHebild":10445,"à¤ĩà¤£":3392,"Ġinhuman":5845,"Ġà¤«à¤°à¤¸à¤¬":7198,"Ġà¤Ĺà¤¯à¤¸":2220,"à¥Ī....":1663,"Ġà¤¬à¤°Ê¼à¤¸":2801,"à¥ĭ---":3078,"ĠĠĠĠĠĠĠĠĠĠ":1405,"tit":8335,"Ġà¤¬à¤¹à¤²à¤ª":4130,"ort":2835,"Ġà¤Ĩà¤®à¤¨":7037,"à¤¬à¤°à¤«à¤Ĺ":9958,"...?":3487,"Ġ2":446,"Ġ94357":10355,"ĠShut":10221,"Ġexpensive":11155,"ĠP":835,"Ġà¤ħà¤°":455,"ĠLab":9301,"à¤¨à¤²Ê¼":1771,"à¤ħà¤¨à¤Ĺ":5141,"Ġcolle":8917,"à¤ĸà¤¬à¤°":3829,"Ġà¤ħà¤¬Ê¼à¤¬":7985,"Ġà¤ħà¤¤à¤ª":7309,"alph":8438,"à¤¯à¤¡":3794,"Ġvari":9947,"à¤§Ê¼à¤µ":8084,"Sent":6227,"Ġpiec":5440,"Ġ22":1287,"à¥¤\".............":7758,"à¤Ĺà¤¥à¤¨à¤¨":8598,"Ġà¤¹à¤¬Ê¼":4833,"ement":3188,"à¤®à¤¨à¤¸":6791,"Ġà¤ĩà¤īà¤ķ":8970,"ndrom":9497,"à¤·à¤Ĺ":7873,"à¤¬Ê¼à¤µ":2003,"Ġà¤ªÊ¼à¤²Ê¼":10209,"Ġsea":8676,"Ġà¤µ":657,"19":807,"à¤¾à¥¤.......":7332,"à¤ªà¤¨":497,"Ġà¤ıà¤¸à¤¨":2407,"à¤¤à¤¬à¤°":7414,"Ġà¤Ĩà¤²à¤¹":7685,"Ġà¤ĸÊ¼à¤¥":888,"Ġà¤ªà¤¯à¤Ńà¤°":5857,"Ġà¤®à¤¦":895,"Ġadjectives":11126,"ined":8233,"à¤µà¤¥":378,"Ġà¤°Ê¼à¤ĹÊ¼":8558,"à¤¿à¤Ĥ--":3415,"à¤°à¤¬à¤°":5035,"Ġdis":5513,"Ġà¤«à¤²à¤·":5703,"à¤¯à¤ķà¤ĸ":6611,"Ġà¤ħà¤¥":2529,"Ġà¤ľà¤¹à¤°":3358,"Ġà¤¦à¤°à¤¨":2374,"à¤«à¤ª":7028,"Ġà¤ķÊ¼à¤²à¤¨":9468,"Ġwell":3586,"à¤°Ê¼à¤ĩà¤¨à¤ľ":7557,"ĠHost":5553,"Ġà¤Ĺà¤¯à¤ľ":6839,"ĠAb":3569,"Ġà¤¹à¤°à¤®Ê¼à¤¨à¤«":5730,"ocal":3642,"à¤°à¤ª":1505,"ĠNotification":4390,"raight":8620,"à¤¨à¤¹à¤°à¤ĸ":4082,"stanza":10601,"à¤¸à¤Ń":6736,"Ġbelov":9038,"Ġaccident":11047,"Ġà¤ĸà¤ĸ":2750,"ention":4176,"à¤¾.......à¥¤":6548,"Ġà¤ĸà¤°Ê¼à¤¨":1251,"'d":6000,"à¤Ĩà¤¯à¤¨":7420,"Ġà¤¬à¤²à¤¤à¤ĸ":5632,"ata":5442,"Ġwords":2193,"à¤°à¤Ĺà¤µ":7754,"à¤°à¤²Ê¼à¤ķà¤«":10826,"Ġà¤Ĺà¤¦Ê¼à¤ĸ":2222,"standard":11008,"ĠConcept":10576,"Ġà¤Ĩà¤ĸÊ¼à¤²":5068,"ROCK":6220,"Sentence":10767,"à¥Į........à¥¤":7011,"à¥ĥ-":8354,"ĠHud":9208,"Ġà¤®à¤¹à¤°à¤¸":5177,"Ġà¤Ĩà¤°Ê¼à¤ľ":1728,"Ġà¤¬à¤¦à¤«":6670,"Ġà¤ĵà¤ĩà¤ĸ":5064,"lou":6369,"à¤īà¤¸à¤ľ":4185,"Ġà¤®à¤ĸÊ¼à¤¥":4301,"à¤¸à¤¨à¤ľ":2347,"à¥¤à¥¤":1062,"Ġà¤¥à¤¨":3006,"Ġ$":6522,"à¤¨à¤¬à¤°":5043,"¬":105,"Ġà¤ľÊ¼à¤¥":1885,"path":6425,"alveolar":10906,"05":4489,"Ġà¤ıà¤°à¤ĸÊ¼à¤²":9070,"à¤Ĺà¤°":832,"ĠA":777,"Ġà¤ĩà¤¸à¤®":8121,"ĠObservation":10673,"ĵ":241,"Ġà¤®à¤ĸÊ¼à¤«":5545,"aceutical":9821,"Ġh":1008,"Ġà¤ľà¤µ":1207,"light":4610,"Ġknaves":5985,"Ġamongst":10667,"à¤®à¤¹à¤°à¤Ĺ":5652,"à¤®à¤¥Ê¼à¤¨":6800,"à¤«à¤®":7025,"Ġsuffix":8677,"à¤¬Ê¼à¤ĸ":4227,"Ġà¤ķÊ¼à¤¤":9466,"rediffmail":5986,")+":6015,"à¥Ģ'":1171,"à¤ªà¤¦à¤®":7494,"Ġà¤Īà¤¦":5623,"à¤¸à¤ĸ":645,"ĠMer":5502,"à¤ľÊ¼à¤Ĩà¤¨":8891,"ilus":8997,"ul":1388,"CL":4523,"ĠCompatible":10089,"Ġà¤Ĩà¤¨à¤²":3894,"Ġà¤ªà¤¸à¤ª":5052,"Ġà¤ħà¤¥à¤¸":4943,"ĠCre":8600,"à¤®Ê¼":1777,"Ġà¤ĩà¤ļà¤¸":7658,"à¤®à¤¨à¤®":4978,"Ġ118":9143,"à¤¸Ê¼à¤¨à¤«":9241,"Ġ\"":365,"à¥ģ,":569,"Ġà¤°à¤Ł":7240,"à¤¾...\"":5645,"à¤«à¤Ĺ":7026,"14":1472,"\"\"":5992,"Ġà¤²à¤ĸÊ¼à¤¬à¤ĸ":5657,"Cd":6115,"ĠVict":9659,"ĠDemn":11041,"Ġingredients":11082,"ety":9383,"ift":6359,"Ġà¤¸à¤µà¤«à¤¤":10838,"à¥Ī..à¥¤":6725,"Ġà¤§à¤°à¤®":8048,"ğğ":6521,"ail":2669,"natural":4622,"Ġ!...\"":7528,"à¤¸Ê¼à¤¯":2435,"My":4538,"Ġà¤ľà¤®à¤Ĺ":6986,"120":9454,"à¤²à¤Łà¤°":6709,"iver":3728,"Ġà¤ıà¤®à¤¬":1519,"ĠAre":4213,"Ġà¤Ĺà¤¨à¤¥":4773,"à¤¿-":427,"Ġà¤Ĩà¤µ":687,"Ġ197":1445,"à¤¿...........":3784,"Ġ?................":7407,"form":2922,"à¤Ĩà¤¹":2540,"edial":8797,"ign":4433,"à¤ĩà¤¨à¤ĸ":2405,"Ġ713":8822,"Ġ1620":9369,"Ġstress":9816,"Ġfile":5522,"Ġà¤®à¤ķà¤°à¤§à¤ľ":10840,"atible":10025,"à¤¸à¤Ł":1140,"mla":4618,"ms":6385,"Ġlittle":5663,"à¤µà¤¨":314,"ĠCDC":5861,"_":62,"Win":6245,"Ġà¤ĸà¤¬Ê¼à¤¸":2316,"DE":4524,"à¤¹à¤°à¤¹":7706,"à¤¯à¤ĸÊ¼à¤¬":5034,"à¤²à¤Ĺà¤¬":5451,"Ġ!!!":1497,"Ġdeath":5839,"PE":6199,"à¤ıà¤²à¤Ł":8109,"Ġà¤¸à¤Ł":4776,"Ġà¤°à¤ľÊ¼à¤µ":4165,"à¤¿:à¥¤\"":8310,"Ġà¤ıà¤ķà¤¶à¤¨à¤¨":8487,"Ġà¤ľà¤²à¤Ĺà¤¬":6996,"laiynx":11169,"703":6078,"Ġse":4207,"Date":1990,"à¤¯à¤«à¤¬à¤¨":5136,"gutt":5565,"Ġà¤Ĺà¤²Ê¼à¤¸":8193,"Ġà¤¸à¤¤à¤°à¤¨":9230,"Ġdramatically":11164,"à¤Ĺà¤¥Ê¼à¤¨":3353,"Ġà¤ıà¤¦à¤Ĺ":3975,"à¥ģ)":2106,"ohn":6418,"Ġà¤¸à¤²":996,"à¤¹à¤µ":2376,"oly":8974,"?":30,"č":201,"à¤ľà¤°à¤µ":9158,"Ġknit":10016,"Ġeuixote":11119,"78":3251,"ology":2315,"Ġep":6533,"ĠReward":9394,"venge":3757,"Ġà¤¸à¤¹à¤°":1855,"à¤¨à¤¹à¤°à¤«":3170,"Ġà¤ľà¤Ĺà¤¦":2305,"à¤¾à¤Ĥà¥¤\"":1396,"ĠBrit":4315,"à¤Ĩà¤Ĺà¤°":7435,"adverb":9765,"à¤µà¤«":458,"Ġà¤¹à¤°à¤¬":669,"à¤ĸà¤¬à¤°à¤¦":3222,"à¤°à¤ĹÊ¼à¤µ":3456,"ĠĠĠĠĠĠĠĠĠ":1246,"ĠĠĠĠĠĠĠĠĠĠĠĠĠĠĠĠĠĠĠĠĠĠĠĠĠĠĠĠĠĠĠĠĠĠĠĠĠĠĠĠĠĠĠĠĠĠĠĠĠĠĠĠĠĠĠĠĠĠĠĠĠĠĠĠĠ":4328,"ĠMythology":5885,"à¤¨à¤¨à¤ĹÊ¼à¤«":7312,"à¤¨à¤«à¤¬à¤ľ":7769,"Ġmay":4253,"Ġà¤¤à¤¦":5207,"à¤µà¤¥Ê¼à¤µ":6779,"ols":8973,"Ġtheatre":8851,"Ġà¤¨Ê¼à¤ĸà¤°à¤ĸ":2619,"à¥ĭ.......\"":10373,"à¤²à¤«":660,"à¤¬à¤ĸÊ¼à¤ľ":8028,"Ġà¤¬à¤¸à¤¤":5242,"all":1750,"à¤°à¤µà¤¹":6589,"à¤ªà¤ķà¤¨":5012,"Ġcome":3219,"Ġà¤Ĩà¤°à¤²":3949,"Ġà¤ıà¤ķà¤Ł":2432,"Ġà¤¥à¤¸":1593,"ĠCrus":5368,"à¤°à¤Ĺà¤¤":7755,"-;":6020,"à¤ĩà¤ľà¤ľ":7691,"à¤Ķà¤²":3560,"Ġful":9097,"Ġà¤ķÊ¼à¤Ł":3201,"Ġà¤ħà¤¬à¤¤":4096,"Ġdisc":4287,"Ġà¤¸Ê¼à¤Ĺ":4790,"Ġà¤Ĩà¤ĩà¤¬":3113,"ĠĠĠĠĠĠĠĠĠĠĠĠ":1520,"à¤®à¤¶":3336,"Ġà¤ļà¤¹":5188,"Ġà¤¸à¤«à¤¦":8442,"disciplined":11177,".à¥¤":6035,"ilmhot":8999,"à¥ĭ,-\"":10306,"ĠMD":5499,"Ġà¤ħà¤ķ":839,"Ġà¤¨à¤ĸà¤°à¤«":2154,"est":2592,"ĠPeace":5430,"à¥Ģ...":7384,"1965":9849,"ĠOS":9500,"Ġà¤Ĺà¤²à¤¸":8183,"athed":9889,"erials":10395,"à¥Ģ":318,"à¤®à¤¹à¤°à¤¥":9552,"(<":6007,"Ġà¤Ĺà¤¦Ê¼à¤µ":2980,"Ġà¤¬Ê¼à¤§à¤¹à¤¯":10540,"à¤¸à¤¨":432,"Ġà¤¹à¤¨à¤¹à¤°à¤¨":7021,"Ġà¤Ĩà¤¨à¤ľ":671,"Ġà¤ħà¤¶Ê¼à¤ķ":7310,"à¤¬à¤ĸà¤°":8025,"131061":9524,"ger":6322,"Wisdom":10773,"Ġà¤ĸà¤Ļ":7152,"Ġà¤ĵà¤Ĺ":5063,"Ļ":247,"Ġà¤¬à¤¹à¤¸":8199,"à¤Ĩà¤ªÊ¼à¤¸à¤¨":10207,"©à¤Ļ":4647,"Ġà¤¸à¤¹à¤¨":5257,"à¤¨à¤¸à¤¨à¤¨":4974,"tial":4152,"ĠSpontaneous":10152,"Ġà¤®à¤¯":4792,"à¥Ī?":4728,"à¤¦Ê¼à¤²à¤¨":4121,"Ġà¤ħà¤°à¤¦":1304,"ľ":250,"à¥Ģà¥¤à¥¤":5414,"à¤²Ê¼à¤ĸ":1947,"************":5750,"Ġblood":5955,"Ġà¤¥à¤µà¤¸":7140,"alver":8437,"Guttural":10729,"ĠSept":2302,"Ġà¤¨à¤°à¤¹":3001,"à¤¿---":7910,"à¤¿-,":3084,"ĠMO":5500,"Ġ9000":8866,"Ġà¤ľà¤®à¤¦":6982,"à¤¨Ê¼à¤µ":1913,"Ġà¤Ĩà¤Ĺà¤¦":1198,"à¤¨à¤§":3771,"à¤°Ê¼à¤²":1408,"Ġ87":4261,"à¤ıà¤·":5225,"à¤ķà¤¸à¤¨à¤ĸ":5376,"à¤ľà¤īà¤¦":6917,"Ġ1879":9194,"Ġà¤¬à¤°Ê¼à¤¬":3069,"Ġà¤ħà¤²à¤ĸ":1461,"Ġà¤ĩà¤¸à¤²":2281,"Ġà¤®à¤¦à¤¨":2015,"orth":3538,"Ġà¤¬Ê¼à¤®":4712,"Ġà¤Ĩà¤²Ê¼à¤ĸ":4849,"Ġà¤ªÊ¼à¤µ":5051,"Ġà¤Ĺà¤¥Ê¼à¤²Ê¼":8007,"à¤¯à¤®":486,"à¤Ĺà¤²Ê¼à¤¨":3873,"Ġdown":9087,"à¤¬à¤ĸÊ¼à¤Ĺ":5193,"Ġà¤¦à¤¬à¤¬":7104,"spires":10663,"ĠGender":9289,"ysteine":10812,"ank":4173,"à¤¿à¥¤'":1872,"Ġà¤¸à¤«":663,"ĠG":1109,"compunds":11167,"Ġà¤Ĩà¤®à¤²à¤ĸ":10131,"Ġneat":10343,"à¤Ĺà¤²Ê¼":4804,"Ġà¤«à¤ŁÊ¼à¤¸":5539,"à¤ıà¤Ńà¤¨":8112,"Ġà¤ıà¤µà¤¦":7370,"Ad":2321,"à¤¬à¤ĸÊ¼à¤µ":2579,"Ġthen":8642,"men":6386,"à¤¦à¤°à¤¸à¤¨":6823,"Ê¼à¤²":545,"à¥Īà¥¤''":4015,"pipe":9944,"à¤ļà¤¸":5195,"IN":6162,"vation":6484,"à¤«à¤¯à¤°":7031,"à¤®à¤ĩà¤īà¤Ĺ":10547,"olun":5488,"(-)":4485,"ĠTales":10413,"Ġfor":1832,"116":9380,"à¤®à¤¥":487,"net":3736,"à¤°à¤®Ê¼à¤¨":7717,"à¤ªà¤¸":810,"à¤¶à¤Ĩ":7811,"ractical":2458,"à¥Ī=":2959,"à¤Ĩà¤²à¤¨":7423,"}:":2333,"à¤¯à¤¹à¤°à¤ĸ":3103,"Ġà¤Ĩà¤®à¤Ĺ":3898,"Ġà¤Ĩà¤¸Ê¼à¤ļ":5767,"Ġà¤¯à¤¯à¤¯à¤¯à¤¯à¤¯à¤ľ":10908,"Ġà¤Ńà¤ľÊ¼":3467,"Ġà¤Ĩà¤Ĺà¤°à¤«":5168,"à¤ĭà¤¨":10181,"Ġinsection":11083,"à¤ķà¤Ĺ":7336,"Ġà¤ħà¤¦à¤¬":8581,"Ġà¤µà¤¬":5303,"Ġà¤¶à¤ĩà¤ķ":4102,"ĠDem":9117,"ect":1993,"à¤ıà¤¬à¤¸":2280,"Ġ...!":3547,"à¤¾--'":9690,"Ġà¤¦Ê¼à¤ª":3608,"à¤ħà¤ĸà¤°":7889,"Ġdenie":9093,"ĠFran":9620,"speed":10175,"ver":1316,"Ġà¤°à¤¸à¤¹":7249,"ĠGodot":5772,"à¤Ĺà¤Ļ":2722,"ĠDerived":5529,"à¤ıà¤¬Ê¼":8108,"à¤Ĥ?":6619,"ĠWINDOWS":10950,"Ġà¤®à¤Ľ":3347,"Z":57,"à¥ĭà¥¤.................":7271,"Ps":6203,"à¤¤à¤ĸà¤°":7415,"Õ":145,"¼":120,"à¤Ĺà¤¥":737,"È":132,"à¤¨à¤Ĺ":395,"Ê¼à¤¹":945,"ourse":5548,"à¤¥Ê¼à¤¬à¤¨":3065,"ĠĠĠĠĠĠĠĠĠĠĠĠĠĠĠĠĠĠĠĠĠĠĠĠĠĠĠĠĠĠĠĠĠĠĠĠĠĠĠĠĠĠĠĠĠĠĠĠĠĠĠĠĠĠĠĠĠĠĠĠĠĠĠĠĠĠĠĠĠĠĠĠĠ":2644,"Ġmerciless":5906,"à¤Ķà¤¹Ê¼":8632,"eds":8796,"Ġà¤Ĺà¤¥à¤«":5360,"Ġà¤²à¤ĸà¤¬":3549,"Ġà¤¨à¤¤à¤ķ":4862,"à¤§à¤¨à¤ĸ":5216,"ĠCon":5361,"ete":5590,"à¤łà¤ķ":5665,"à¥Į...":6998,"Ġaction":5532,"à¤£Ê¼à¤¦":7899,"Ġà¤ħà¤®à¤²à¤¹":8957,"226":6061,"riage":9322,"Ġà¤®à¤¤à¤ĸ":6890,"à¤¯à¤²Ê¼à¤ĸ":5507,"à¤ķà¤¸à¤¨à¤«":3147,"Ġà¤«à¤¦à¤¬":7187,"à¤°à¤¹à¤°à¤«":4340,"BER":6113,"Ġà¤ıà¤ĩà¤¸":1865,"Ġà¤¦à¤²à¤°à¤¨":9016,"154":9434,"SION":10500,"ent":1149,"Ġà¤®à¤¡":1551,"Cas":6119,"à¤Ĩà¤ª":3041,"à¤Ĩà¤ĩà¤¯":2542,"ĠULS":9749,"ĠPaint":2902,"=":28,"ĠGraphical":10449,"à¤ĩà¤ŁÊ¼à¤ķ":2383,"à¤®à¤²Ê¼à¤ĸ":9757,"........à¥¤":3092,"158":9438,"Ġà¤ħà¤¬à¤¶":3479,"Ġ1991":9639,"ĠĠĠĠĠĠĠĠĠĠĠĠĠĠĠĠĠĠĠĠĠĠĠĠĠĠĠĠĠĠĠĠĠĠĠĠĠĠĠĠ":826,"10":1068,"Ġà¤¦à¤ĸÊ¼":7108,"Ġà¤ħà¤Ĺà¤°à¤¨":9138,"Ġcomposition":10102,"à¤§à¤ľ":8074,"Ġunmindful":10349,"à¤ĩà¤īà¤ĸ":7236,"ĠExcellency":1985,"pirators":10353,"Ġà¤ĸà¤®à¤ĸ":3925,"Ġperusal":10591,"itial":5814,"à¤¾à¥¤\"ï»¿":5228,"ĠKachary":5812,"Ġà¤®à¤Ĺà¤ľà¤ľ":10842,"Poetry":10750,"à¤°à¤ĵà¤¨":6604,"à¤ıà¤²à¤µ":8111,"Ġà¤°Ê¼à¤¦à¤ĸ":8556,"Ġà¤¸à¤ĩà¤ľÊ¼":6876,"Ġà¤¬à¤¦à¤²à¤¬":9871,"ĠExplorer":5981,"ĠEndle":10638,"Internet":10024,"à¤¨à¤¯":1504,"ĠGlobalisation":10631,"à¤¨à¤¹à¤°à¤²":9040,"Ġà¤ħà¤«":575,"Ġà¤īà¤ĩà¤ķà¤¨":9962,"à¤ĩà¤ļ":2525,"ĠPri":3578,"Ġà¤¥à¤Ĩ":7136,"Ġshould":4429,"à¤¨à¤ª":2691,"à¤ľÊ¼à¤°":2721,"Ġà¤¸à¤¨à¤®":3508,"icrosoft":5950,"à¤§Ê¼à¤¨":8082,"Ġà¤¤à¤¸à¤°à¤«":3105,"ecll":9276,"ĠĠĠĠĠĠĠĠĠĠĠĠĠĠĠĠĠĠĠĠĠĠĠĠĠĠĠĠĠĠĠĠĠĠĠ":2150,"-":12,"Ġ7090":9884,"Ġà¤¸à¤¸":1142,"à¤ķà¤Ĩ":4953,"Ġà¤ľà¤²Ê¼à¤Ļ":10388,"Ġ28":1688,"à¤Ĺà¤°à¤Ĺ":4805,"à¤ľÊ¼à¤¨":1079,"Ġharmon":5544,"à¤Ńà¤²Ê¼":7828,"--'":3106,"à¤¦à¤ĸ":721,"Ġà¤¹à¤¯à¤¥Ê¼":1143,"omp":1469,"Ġà¤ıà¤®à¤«":1404,"à¤ħà¤µ":4076,"à¤ķà¤°à¤ľ":4954,"gent":6326,"à¤ĩà¤Łà¤ķ":5335,"Ġ(?),":7670,"Ġ63":8903,"Ġà¤¦Ê¼à¤ķ":9149,"space":10173,"Ġà¤¦à¤¡":7097,"1950":8753,"à¤¡à¤²à¤¸":7625,"-\"":4487,"3330":9941,"ĠSuper":5384,"à¤¿....\"":10376,"ĠState":9788,"ĠHabild":2903,"à¤ªà¤®à¤¥":7488,"balisation":10264,"etathesis":5972,"Ġà¤ıà¤µ":2125,"As":4519,"à¤Ľà¤²à¤®":8537,"à¤īà¤Ĺ":1635,"ĠRoman":9391,"Ġà¤¬à¤ĸÊ¼à¤µ":9450,"ilo":1608,"à¤²à¤Ĩ":2006,"mlaut":5923,"à¤ıà¤°à¤²":5224,"à¥įà¥¤":6653,"Ġà¤¶à¤ķ":5186,"Ġ1971":9612,"à¤¾....?\"":5644,"forward":10784,"Ġ1919":4156,"sbi":6460,"Ġ250":9235,"lo":2199,"à¤²à¤¥à¤°":2161,"à¤¨à¤¸Ê¼à¤¹":4977,"670":6074,"à¤°à¤«Ê¼à¤¨à¤¨":7908,"à¤Ĩà¤¬Ê¼à¤Ĩ":8374,"ĠHands":9212,"Ġsancharnet":8681,"à¤Łà¤¨":541,"yth":2936,"à¥Įà¥¤'..................":9785,"Ġà¤°à¤¯à¤Ľà¤®":4349,"ously":9968,"ure":1909,"Ġ{-":1267,"à¥Ī',":6721,"Ġdialect":10614,"à¤¦Ê¼à¤²":2823,"Ġà¤¬à¤°Ê¼à¤°":4050,"Ġà¤ľÊ¼à¤Ĺ":1816,"ap":1291,"ĠĠĠĠĠĠĠĠĠĠĠĠĠĠĠĠĠĠĠĠĠĠĠĠĠĠĠ":2433,"à¤²à¤«à¤²":8432,"199":2170,"à¥ģ)à¥¤":4754,"Ġà¤¹à¤¯à¤¬":4828,"à¤ĸÊ¼à¤ľ":2828,"à¤¾à¤Ĥ);":9998,"à¤¬à¤°à¤¨":1155,"à¤Ķ":752,"Ġà¤®à¤¨Ê¼à¤ľ":3476,"xt":1841,"à¤¬à¤«":459,"101":5564,"ĸ":244,"Ġà¤«à¤¬à¤Ĺ":7184,"ine":1883,"Ġà¤ıà¤¥Ê¼":7358,"à¥Į]":4822,"Ġtragic":3668,"ers":1645,"à¤ĩà¤¦à¤¬à¤¨":8321,"¢":95,"à¤¡à¤ľà¤¨":7624,"à¤ĸà¤Ķ":6763,"ĠAbout":10332,"Ġà¤Ĩà¤°à¤ľà¤²":1981,"à¤°Ê¼à¤°":2045,"*************":10654,"à¤ħà¤¬":876,"Ġ110":9141,"www":3645,"ĠMan":9048,"Occult":10748,"à¥ĭà¥¤)ï»¿":8399,"pi":2086,"à¤¿à¤Ĥ...":7442,"Ġ!!!\"":4362,"ĠSaturday":10922,"à¥ĩà¤Ĥ/":7575,"à¤¯à¤¯":1236,"Ġà¤¦à¤¨à¤¸":3908,"à¤¨à¤¥à¤ĸ":7780,"à¤¸à¤¨à¤¦":3327,"Ġà¤ħà¤²à¤°":4131,"à¥įâĢĮ-":2286,"à¤Ĩà¤¨à¤¨":3991,"Pilgri":5912,"den":3721,"olic":3594,"Ġà¤¸à¤²Ê¼à¤®":468,"Ġà¤¬à¤°à¤¦":1916,"Post":6206,"Ġà¤Ĩà¤ĩà¤Ĩà¤µ":8141,"à¤¾...à¥¤":3298,"137":9521,"à¤°à¤ĸÊ¼à¤¹":7439,"à¤¦à¤«":758,"Ġ1970":9611,"à¤ħÊ¼à¤«à¤¨":10569,"à¤°à¤®à¤²":7712,"à¤ħà¤«":2146,"Ġà¤ĩà¤¨":500,"Ġà¤¬à¤¯à¤ķà¤Ł":5714,"ple":4625,"Ġà¤Ĩà¤·":7040,"à¤ĩà¤Ĺà¤Ļ":8148,"Ġà¤ıà¤ª":1074,"DOWS":10721,"à¤®à¤¹à¤°à¤¨":3501,"Ġà¤¥à¤¸Ê¼":7146,"à¤ľà¤¨à¤ķ":8092,"Ġcons":8913,"Ġà¤ħà¤¤":3028,"Ġà¤ħà¤¨à¤¥":1223,"Ġà¤ħà¤°à¤«":2250,"à¤°à¤ķ":1166,"Ġà¤¹à¤°à¤¥Ê¼à¤¨":8022,"iet":2675,"discovery":10509,"à¤·à¤¤":5134,"à¤·à¤®Ê¼":7877,"à¤¿à¥¤]":7729,"à¤¯à¤¨à¤ĸ":7264,"Ġag":4293,"à¤ķà¤¨à¤¦":7344,"ĠCompari":10087,"-)":3694,"à¤¤à¤ļà¤°":4989,"à¥ĭ.....":1660,"Ġà¤ĭ":1658,"Ġ'....":7767,"Ġà¤ĸà¤¬":920,"olle":5487,"Ġfeed":9104,"à¤ķà¤®":1262,"à¤¾:":580,"à¤ĩà¤¨à¤¨":1399,"à¤ĩà¤·":2761,"Ġà¤Ĩà¤²à¤µà¤°":7688,"ĠStation":9787,"à¤¸à¤¨à¤¨":918,"à¤«à¤¬à¤²":7030,"Ġ40":1383,"à¤°à¤¨à¤¬":2032,"à¤ªà¤ľ":2779,"ĠOuld":11100,"à¤µà¤²Ê¼":985,"à¤°à¤Ĺ":387,"Ġà¤¬à¤¸Ê¼à¤¬":8168,"Ġprevious":10969,"à¤¾à¥¤à¥¤":1729,"IC":6160,"Wess":6248,"à¤¿à¥¤ï»¿":7733,"uch":4643,"Ġà¤Ĺà¤¬à¤¦":4775,"ĠTransport":10958,"à¤µà¤¹à¤°à¤ľ":7989,"à¤·à¤¨à¤¨":5133,"Ġà¤īà¤ĩà¤ķ":2132,"à¥ģ'":2350,"Ġ64":5464,"ience":6356,"à¤²Ê¼à¤¥à¤ĸ":7515,"Ġ(;),":7668,"-à¥ĥ,":10697,"Ġsambar":10936,"ĠO":1295,"à¤¿....":3783,"ĠĠĠĠĠĠĠĠĠĠĠĠĠĠĠĠĠĠĠĠĠĠĠĠĠĠĠĠĠĠĠĠĠĠĠĠĠĠĠĠĠĠĠĠĠĠĠĠĠĠĠĠĠĠĠĠĠĠ":4283,"Ġmul":8936,"1508":9441,"haracter":2899,"rit":2930,"-[":2656,"ĠBoo":5570,",--":6019,"à¤¬Ê¼à¤ľ":8815,"à¤ĩà¤®":702,"ĠHere":9204,"à¤¥à¤®à¤¨":6954,"à¤Łà¤¶":7319,"ursday":5600,"antity":8424,"Ġà¤¨Ê¼à¤ĸà¤°à¤¸":8859,"Ġà¤ħà¤µà¤Ł":9319,"à¥Ī!":6714,"ĠĠĠĠĉ":7225,"à¤¨à¤ĹÊ¼à¤¨":7774,"ĠTran":8780,"Ġà¤ľà¤¯":749,"à¤¨à¤ĸà¤°à¤¨":7737,"Ġof":799,"à¤¤à¤Ĩà¤µ":4985,"..//":7284,"Ġà¤ıà¤¸à¤¥":7761,"à¤Łà¤ľ":1329,"à¤Łà¤¨à¤ĸ":3030,"Ġ(\"\"),":10889,"Ġinh":3193,"à¥ĭ.....!":4376,"Ġà¤¬à¤¯à¤¬":558,"à¤ľà¤ľà¤ĸ":6914,"dir":6301,"Ġà¤Ĺà¤¯à¤¤":2431,"Ġmad":5474,"St":6225,"à¤īà¤²Ê¼à¤¸":7509,"''à¥¤":8401,"oec":6412,"à¤®à¤²Ê¼à¤®":6808,"hoo":3221,"à¤°à¤ķà¤¤":6597,"à¤ĩà¤ĸà¤¨à¤¦":7929,"à¤ĩà¤²":511,"à¤£à¤ľ":3473,"ĠDrug":10619,"à¤ħà¤®à¤¬":1439,"à¤Ĩà¤Ļ":2389,"Ġà¤¤à¤Ĺà¤°":5208,"Ġà¤Ĺà¤¥Ê¼à¤Ĺ":8006,"Ġsword":10326,"Ġà¤¹à¤¯à¤¨":4827,"Ġà¤ĸà¤²à¤®":7162,"à¤¦à¤µ":3838,"Ġ437":8570,"à¤ĹÊ¼à¤¸":3597,"Ġ\"-":7682,"à¤¸à¤ĸÊ¼à¤µ":8393,"Ġà¤¸à¤¹à¤°à¤¨":2156,"Ġà¤ıà¤ļ":2772,"Ġclas":4250,"Ġsorry":8686,"Ġle":3290,"Ġà¤¬à¤Ļ":1156,"Ġtoo":9361,"Alt":10705,"à¤®à¤¸à¤ľ":7871,"Ġà¤īà¤®à¤ĸ":7458,"Ġà¤Ĩà¤¹à¤¬":5478,"Ġà¤®à¤Ĺà¤ľ":6894,"à¤°à¤¸à¤¨à¤¹":3438,"Ġhouse":9173,"Ġà¤¦à¤¦à¤¦à¤°Ê¼":10852,"Ġà¤ĸà¤£":3011,"à¤®à¤¬à¤°":3442,"ĠBir":9280,"cast":6292,"Ġà¤ĸÊ¼à¤°à¤µ":10297,"à¤īà¤ľà¤ª":8793,"à¤²Ê¼à¤Ĺ":1373,"Brilliant":10709,"à¤ĸà¤Ĩà¤µ":6760,"Ġ116":9142,"Ġà¤ªà¤¬":3434,"ĠRak":5593,"177":9574,"Ġà¤¥à¤¤à¤®à¤¤":10857,"à¤µà¤¥Ê¼":1476,"Ġà¤ĸÊ¼à¤ĸ":4894,"ros":4324,"gement":4595,"à¤¯à¤£à¤ĸ":4353,"à¤Łà¤®":1328,"consonant":5921,"act":1992,"à¤µà¤Ĩà¤µ":886,"à¤«à¤°à¤°à¤¤à¤¨à¤¨":8930,"Ġà¤®à¤¯à¤¨":6878,"à¤Łà¤°à¤¨":1793,"à¤¯à¤¯à¤¯à¤ľ":9448,"Ġà¤®à¤ĹÊ¼":2987,"à¤¾?":3297,"Ġà¤«à¤¨à¤ĸ":7176,"Ġbut":3599,"Ġà¤Ĩà¤ĩà¤¥":3114,"à¤¸Ê¼à¤¹à¤°à¤¨":8549,"ĺ":246,"olicy":4456,"ĠS":767,"à¤¤à¤°":1435,"ancharnet":5793,"eron":8261,"à¤¸à¤²":984,"ĠĠĠĠĠĠĠĠĠĠĠĠĠĠĠĠĠĠĠĠĠĠĠĠĠĠĠĠĠĠĠĠĠĠĠĠĠĠĠĠĠĠĠĠĠĠĠĠĠĠĠĠĠĠĠĠĠĠĠĠĠĠĠĠĠĠĠĠĠĠĠĠĠĠĠĠĠĠĠĠĠĠĠĠĠĠĠĠĠĠĠĠĠĠĠĠĠĠĠĠĠĠĠĠĠĠĠĠĠĠĠĠĠĠĠĠĠĠĠĠĠĠĠ":9372,"à¥ĭ\",":9400,"Ġà¤Ĩà¤¸Ê¼à¤ĸ":3085,"Ġassimilation":10669,"ĠEpilogoue":11186,"Ġ1953":5782,"Ġà¤ħà¤²Ê¼":7294,"Ġy":1203,"41":6063,"Ġà¤²à¤¬Ê¼à¤°":7212,"Ġmast":8942,"à¤Ļà¤Ĺ":4926,"à¤ľÊ¼":873,"sibil":9445,"à¤¯à¤¸à¤¨à¤¬":4037,"Ġnovel":10106,"à¤¾\"":757,"à¤ľà¤¬à¤¦":6913,"Ġam":3178,"à¤Ĺà¤¸":1187,"à¤¹":295,"à¤ľà¤¬":2017,"Ġà¤¦à¤¹à¤°":7098,"Ġà¤¸à¤®à¤Ńà¤¬":7568,"à¤¾....":1344,"à¤Ĩà¤ĸ":685,"usiness":3627,"Ġ316":8452,"à¤ĩà¤¨Ê¼à¤ķà¤²Ê¼à¤¸":10891,"ĠGuahati":11073,"Ġà¤Ĩà¤«à¤¦à¤¨":7776,"Case":10716,"2521242":11112,"ī":231,"à¥ĭ....\"":3646,"Ġà¤ĸà¤²à¤¬à¤ĸ":9783,"à¤¾...........à¥¤\"":10530,"mother":6392,"Ġà¤ħà¤ªÊ¼à¤ľ":8565,"Ġà¤Ĩcomp":7052,"Ġà¤ĸà¤²à¤¥":1038,"Ġà¤²à¤ĸÊ¼à¤¬à¤¨":2188,"race":9905,"209":9543,"à¤ħà¤®":1309,"à¥ĭà¥¤.........":4931,"Ġà¤¨à¤ŁÊ¼":7086,"à¤Łà¤°à¤«":3405,"à¤¬à¤¯":2696,"Ġà¤ĩà¤¨à¤ª":2058,"ecial":3619,"à¤°à¤¹à¤°à¤ĸ":7786,"Ġà¤Łà¤ª":2805,"poration":3744,"Ġà¤¬Ê¼":4703,"Ġà¤Ľ":1138,"à¥Įà¤Ĥ":4823,"à¤®à¤ĸà¤ľ":7974,"Ġà¤ĸà¤°Ê¼à¤²Ê¼":8120,"Ġà¤ļà¤°à¤®à¤Ń":8016,"Ġà¤ľà¤¬à¤°à¤¦à¤¸":5418,"à¤¸à¤°à¤«":2965,"Comp":3708,"ties":8336,"à¤¦à¤¤à¤¨":4765,"à¤¾à¤Ĥ.......à¥¤":7076,"à¤ıà¤®à¤¬":8101,"JAN":6167,"à¥ĩ.":1848,"enhoo":8448,"48":3245,"Ġin":1112,"à¤īà¤®à¤ĸ":7505,"ailogue":4571,"ĠPer":5425,"vatis":6490,"Ġà¤¦à¤¬Ê¼":7112,"EBA":6143,"à¤Ĺà¤ª":2235,"Ġà¤¬à¤²à¤ª":6678,"Ġà¤Ĺà¤ľ":1781,"Ġà¤®Ê¼à¤¹à¤¨à¤²":5818,"half":6337,"Ġà¤ķà¤®à¤¤":5190,"Ġà¤ıà¤ķà¤¶à¤¨à¤«":8488,"tbcindia":10807,"à¤²à¤°à¤¬":6701,"Ġ737":8824,"\\":59,"tify":5284,"uper":3754,"Ġ85":8962,"à¤ľà¤¨":496,"à¤ĩà¤¨Ê¼à¤¸à¤°à¤«":10892,"Ġvowel":4396,"Ġà¤īà¤°à¤¦":4998,"à¤¿,-":5078,"¸":116,"Ġtime":4460,"à¤¾'":644,"Ġà¤Ĩà¤¯à¤ĸ":2735,"tbc":6472,"«":104,"Ġmoney":5954,"à¤¤à¤²à¤¨":7411,"Ġà¤¨Ê¼à¤¬":4090,"Ġ........!\"":8587,"Ġinjus":9312,"à¤ĹÊ¼à¤¨à¤¨":9011,"Ġà¤Ŀà¤°à¤¨":9218,"holar":6338,"à¤¯à¤²à¤Ĺ":4087,"Ġà¤¸à¤¨à¤¨":6858,"achar":2311,"à¤¯à¤¥Ê¼":852,"à¤ħÊ¼":1228,"à¤¿à¥¤''":5088,"Ġà¤²à¤®à¤¨":2380,"Ġ?":322,"L":43,"Ġà¤¦à¤¸à¤«":8136,"17":1421,"Ġà¤ħà¤¨à¤ľà¤¨":8514,"à¤ĩà¤Łà¤¸à¤ĸ":8508,"Ġtrained":10469,"ROMP":3714,"à¤ľà¤Ĺ":1782,"Ġà¤ĸà¤°à¤¯":4205,"à¤īà¤¨à¤¶":5175,"Ġà¤°à¤£":7245,"All":4521,"à¤®à¤¨Ê¼à¤ľ":7401,"ename":8447,"à¤¤Ê¼":1560,"Ġà¤°à¤·":7244,"................":1132,".,":2908,"à¤¥Ê¼à¤Ĺ":3444,"Ġà¤Ĺà¤²Ê¼à¤Ĩ":1747,"à":156,"à¤¿.......à¥¤":6579,"Ġà¤°à¤®":634,"ida":9474,"2008":3212,"Ġthat":2168,"à¤¸à¤¯à¤Ĩà¤²Ê¼":9605,"à¤¯à¤ª":2093,"à¤ķà¤Łà¤¨":3967,"Ġ1959":5783,"à¤¾à¤Ĥà¥¤''":8122,"à¤«Ê¼à¤¨":1926,"Dick":6133,"à¤¸à¤ªà¤£":8528,"à¤¦à¤°à¤¬":2108,"Ġà¤ħà¤°à¤Ĩà¤¨":7988,"ĠFormat":10644,"Ġà¤ķà¤ľ":7466,"à¥Ī.......à¥¤\"":10190,"à¤¾à¥¤..":7329,"Ġstatebankof":10249,"ĠDrum":10620,"ruel":3213,"ĠWar":8725,"à¤¨Ê¼à¤¦":5491,"Ġà¤¨à¤²à¤¬":1928,"Ġà¤¨à¤°à¤ķ":2304,"à¤¾.......":2944,"ĠTest":8777,"Ġ--à¥¤\"":5076,"Ġà¤¬Ê¼à¤ĺ":10539,"anti":8419,"Ġà¤¥à¤ľ":2117,"Ġà¤Ĩà¤ĩà¤ľ":631,"à¤¤Ê¼à¤µ":4987,"à¤¡à¤Ĺà¤²":7628,".................................":9333,"ĠPar":4223,"à¤°Ê¼à¤ļà¤¨":7554,"Ġà¤Ĩà¤°à¤Ĩ":7288,"à¤ĩà¤ķà¤ľ":5266,"à¤ħ":422,"Ġà¤ķà¤¨à¤Ł":2171,"à¥ĩ\"":2005,"Ġà¤¤à¤¸à¤°à¤ªà¤ĸ":10900,"Ġà¤ħà¤ªà¤¸à¤°":4189,"à¤°Ê¼à¤¹":1561,"Ġà¤°Ê¼à¤¨":7242,"à¤®à¤¹à¤°à¤¦":6799,"voiced":6492,"gation":6324,"Ġbytes":10340,"Ġà¤Ĺà¤ľÊ¼à¤ĸ":10073,"Ġà¤¸à¤£":6859,"sibilities":11098,"(âĪļ":10696,"à¤īà¤¨à¤¬":7499,"¿":123,"ĠOne":9504,"Ġà¤ħà¤¬Ê¼à¤¹":7986,"Ġà¤ħà¤°à¤°":5179,"à¤«à¤°à¤°à¤¤à¤¨":8929,"ĠRemedies":10633,"à¤ķà¤¸à¤ª":7348,"Ġknew":10017,"ernism":8268,"à¤¨à¤²":391,"ĠMS":1892,"à¤¾à¤Ĥ\",":7073,"Ġà¤ĸà¤¨à¤ľ":3010,"à¤¿à¥¤\"....":8628,"Move":6175,"Ġprompt":5882,"à¤®à¤¡":4757,"Ġà¤¦à¤Ļà¤¸":8070,"ĠMurders":11022,"à¤Ĩà¤µà¤¬":1679,"à¤¨à¤¥à¤²":7779,"Ġà¤ĩà¤®à¤«à¤¸":4451,"Br":6109,"ft":6314,"Ġaspiration":10239,"ĠCaesar":10915,"Ġaddress":9937,"à¤¾..............à¥¤\"":6556,"ĠW":794,"2006":5702,"Ġà¤Ĩà¤ĸà¤²à¤®à¤¨":8385,"à¤ļà¤«":5196,"Ġagonised":10444,"Ġadjec":9935,"Ġcollection":10993,"ĠHostel":5964,"à¥ĩ.......":6690,"Ġà¤ĵà¤®à¤¸":7641,"Ġinvited":10243,"à¤¾.....":1581,"pira":3655,"à¤°à¤¹à¤¦Ê¼à¤¸":7788,"à¤īà¤ĸ":624,"II":3258,"Ġgod":9630,"Ġà¤ĸà¤¥":765,"à¤ľà¤ľ":1921,"Ġà¤ĩà¤«à¤«":7655,"ticler":9670,"ward":3758,"ll":2477,"Ġ1974":3207,"à¤ĩà¤«à¤²à¤¨":4123,"Ġà¤®à¤¹à¤°":429,"Ġà¤¨à¤¯à¤¨":7081,"Ġà¤®Ê¼à¤¨à¤¨":9894,"217":6057,"Ġà¥¤....":8176,"Ġvariety":11131,"Ġà¤¹à¤¤":7016,"beralisation":9544,"à¥ĭ.........à¥¤\"":6573,"à¤²à¤¸":544,"Ġ2020":5497,"Ġeffect":11118,"au":4568,"à¤²à¤Ļ":1662,"beam":10361,"Ġà¤Ł":397,"Ġà¤¸à¤°à¤¥":2984,"Ġà¤°à¤Ĺ":3393,"à¤¬à¤¸Ê¼à¤ľ":7911,"ĠEven":9416,"ĠĠĠĠĠĠĠĠĠĠĠĠĠĠĠĠĠĠĠĠĠĠĠĠĠĠĠĠĠĠĠĠĠĠ":2578,"à¤ªà¤¨à¤¨":5009,"Ġà¤¹Ê¼à¤µ":2114,"à¤§à¤¯":5213,"Þ":154,"Ġà¤ªÊ¼à¤Ĩ":7601,"Ġà¤®à¤¨Ê¼à¤ķ":4086,"à¥Īà¥¤)":7520,"Ġà¤ħà¤ľà¤Ĺ":5162,"*":9,"ÿ":187,"Ġà¤Ĩà¤µà¤¨":1786,"ĠMorgue":10608,"icable":8896,"----!":8065,"à¥ĥ":623,"Ġà¤ħà¤ĸà¤¨":3495,"à¤Ĥ+":3796,"Ġà¤ĸÊ¼à¤¸":7165,"à¤ĺÊ¼":8719,"194":8749,"1972":10049,"Ġà¤¥à¤²à¤¥à¤¬":10858,"ape":4337,"Ġà¤¦Ê¼à¤ĹÊ¼":9153,"à¤®à¤¦à¤ª":7936,"à¤ĺà¤°à¤¤":8721,"ote":2865,"Ġà¤ĸà¤°Ê¼à¤µ":844,"Ġà¤Ĺà¤¨à¤¬":6836,"à¤łà¤ľ":9604,"\".---":10260,"Ġà¤®à¤¨Ê¼à¤¨":3087,"Ġ1839":9192,"Ġà¤ıà¤°à¤¥":7369,"Ġà¤®à¤¹à¤°à¤¬":5176,"à¤®à¤¸à¤²":7870,"Q":48,"à¤ĩà¤ªà¤ľ":5709,"à¥ģà¤Ĥ'":3396,"Ê¼à¤²à¤ľ":2059,"gu":1077,"ĠCol":4195,"Ġagainst":5890,"Ġà¤¡Ê¼à¤ľ":5106,"à¤µà¤¤":2495,"ĠDec":5525,"Ġà¤Ĺà¤°à¤¬à¤°":5856,"à¥ĭà¤Ĥà¥¤]":7462,"1996":9972,"Ġà¤¬à¤¦à¤¦":6668,"Blue":10708,"Ġà¤¥à¤ĸÊ¼":2749,"49":3699,"`":63,"ext":4589,"Ġà¤¸à¤¦à¤¨":4781,"Ġ1882":5547,"à¤°à¤®à¤§à¤°":7723,"Ġà¤Ĺà¤¬à¤ľ":6847,"Ġà¤Ī":1271,"à¤°à¤£à¤¬":9482,"à¥ĭ........!":5774,"Ġà¤¬Ê¼à¤¨":2954,"ĠEnds":10637,"ĠĠĠĠĠĠ":398,"ĠMIPS":9060,"à¥Ī\"à¥¤":6723,"à¥Ģà¤Ĥ":2538,"ĠCorporation":4453,"à¤ĩà¤ĺ":2764,"Ġà¤Ĺà¤¸à¤°":5217,"Ġà¤¸à¤µà¤«":6860,"Ġà¤¬à¤®à¤«":2343,"Ġà¤Ĩà¤¦à¤¬à¤Ĩ":9073,"Ġ\"...":5072,"ĠGlaxo":5969,"Ġel":4653,"ated":4234,"ĠCarre":8614,"ĠPlains":10099,"ĠSpeech":10151,"Ġ99541":10979,"à¤¯à¤ĸÊ¼à¤²":7534,"leas":3582,"Ġà¤¨Ê¼à¤¸à¤ĸà¤ĸ":10898,"à¤°à¤ĸÊ¼à¤¨":2390,".....à¥¤":3540,"à¤Ĩà¤¨à¤°à¤¨":8284,"SC":3262,"Ġ1889":9195,"orld":8472,"à¤Ĺà¤®":923,"Ġà¤Ľà¤¨Ê¼à¤µ":9346,"rioir":10456,"age":2081,"declension":10780,"Ġà¤ıà¤ļÊ¼à¤ļ":10140,"Ġà¤¤à¤Ł":8055,"body":6275,"re":911,"Ġà¤Ĩà¤¯à¤²":3367,"à¤¿/":2946,"Ġà¤ľà¤«":1127,"Ġdeg":3603,"à¥ĭà¤Ĥ..à¥¤":7062,"Ġà¤ĸà¤¨à¤ĸ":1674,"Ġpleas":4233,"à¥ĩà¤Ĥ>":7576,"Ġ::":3050,"vowels":4459,"Ġà¤ĩà¤Łà¤¨":7649,"ging":6325,"à¤ķà¤¡":7340,"à¤īà¤ĩà¤¨à¤¡Ê¼à¤¸":10885,"à¤¿à¥¤":379,"à¤µà¤ĸà¤¨":7792,"ĠPhy":8810,"Ġ19":620,"Ġà¤¬à¤®":811,"Ġà¤ıà¤¸Ê¼à¤ļ":2803,"Ġà¤¬à¤¡Ê¼à¤®":9554,"à¤ªà¤²à¤¸":5011,"sud":6453,"lin":4607,"Ġà¤ľà¤¯à¤ª":5372,"Ġà¤ľà¤Ĺà¤Łà¤¸":8736,"à¤¨à¤¹à¤°à¤¥Ê¼":9043,"à¤Ľà¤ª":8536,"à¤ŁÊ¼à¤µ":3963,"Ġà¤¥à¤ĸÊ¼à¤¨à¤ľ":10133,"NUMBER":10741,"ĠCulprit":10911,"Ġ]":514,"Ġbeast":9642,"ative":3266,"à¤¤à¤¨":622,"Ġà¤¸à¤®à¤ĸ":1131,"Ġà¤¬à¤¹à¤¨à¤¬":3506,"à¥ĭ...à¥¤":3779,"à¤°à¤¥Ê¼à¤¨":3310,"à¤ĸà¤°à¤Ĺ":4742,"Ġà¤ķà¤®à¤¬à¤ķà¤¤":9927,"Closed":10718,"Juliet":10736,"à¤°à¤¸à¤Ł":7606,"à¤ħà¤®à¤²à¤¨":9511,"à¤ĩà¤ķà¤¸à¤Ł":8277,"à¤«à¤¬à¤¹":4842,"à¤¬à¤¡Ê¼à¤«":10037,"à¤īà¤¨à¤¦":7502,"à¤¦à¤²à¤¸à¤Ĺà¤®à¤¨":10901,"Ġà¤ĺà¤¤à¤¨":8360,"à¤ıà¤¨à¤ľà¤°":10571,"à¤®à¤¹à¤°à¤¬":3502,"gy":2083,"à¥ĩ;":2489,"Ġà¤¬à¤Łà¤²à¤ĸ":2883,"à¤²à¤¦":613,"Ġà¤®à¤¬":1063,"gl":3723,"ĠIPS":5456,"Ġà¤Ĺà¤¤à¤¬":6854,"à¤°Ê¼à¤¬à¤¬":4022,"ĠLocal":5578,"Ġà¤¸à¤¨":567,"ession":9350,"à¤¾à¤Ĥ----":10198,"competition":11168,"co":6276,"à¤®à¤¦à¤²":7935,"Ġà¤¦à¤°à¤²":1097,"à¤¬à¤ľ":522,"Ġà¤¬Ê¼à¤°":3319,"à¤§à¤°à¤·":9512,"196":1823,"à¤¬à¤ĸÊ¼à¤ĸ":4103,"ĠWhat":4216,"Ġaddition":9936,"Abari":10707,"liquides":10788,"à¤ıà¤¡à¤Ńà¤ķ":10311,"ĠTaskbar":10417,"à¤Ĥà¥¤'":2808,"Ġà¤¬à¤«à¤°":6674,"à¤¯à¤Ļ":3311,"Ġà¤¹Ê¼à¤²":3363,"1901":8755,"ĠBritain":5892,"Ġà¤ĪÊ¼":9481,"efiled":10266,"à¤ŁÊ¼à¤ľ":4178,"azine":10775,"op":1577,"ĠGold":9299,"ĠJealously":11123,"à¤¶":404,"Outline":10747,"Bl":6108,"à¤¸à¤¦à¤°":6739,"à¤Ĩà¤¦à¤°":7428,"Ġ1950":5288,"à¤¨à¤¸Ê¼à¤¨":1263,"Ġà¤¸à¤°à¤Ń":8344,"angu":3531,"33":2078,"Ġà¤ĸà¤¨à¤¨":1031,"à¤¿...........\"":10377,"Ġà¤ıà¤¡à¤ŃÊ¼à¤ķ":10063,"Ġofficers":10951,"Ġ........................................................":8591,"ĠIragdao":5949,"emder":9226,"Ġà¤¸à¤®à¤¸à¤®":7564,"Ġà¤ľà¤²à¤¸à¤ĸ":10291,"Ġflaw":5888,"Ġdangerous":11033,"à¤¯à¤¬à¤¸":3066,"Ġà¤¦à¤°à¤¬":925,"à¤¬à¤ĸÊ¼à¤«":5192,"ati":2323,"Ġà¤«à¤°à¤¤à¤¨à¤¨":7845,"Ê¼à¤¸":1208,"Ġà¤īà¤ĩà¤¡à¤¨":10392,"Ġf":978,"Ġà¤Ńà¤Ļ":7854,"1958":8759,"SI":4555,"Ġà¤¸à¤Ļà¤Ĺ":9806,"ĠEngl":4333,"Ġà¤Ĩà¤°Ê¼à¤ªà¤ĸ":10301,"Ġhour":2868,"Ġpositionà¤Ĩ":10594,"à¤¶à¤¨à¤¸":5112,"à¥ĭ''.........à¥¤":10532,"à¤¯à¤°":1095,"ĠAndronicus":11181,"Ġsurd":8680,"Ġà¤ħà¤¨à¤²":1245,"Ġ1986":3182,"Ġà¤ıà¤¸à¤®à¤¬":7763,"Ġà¤ķà¤°à¤¬":3420,"alve":8435,"Ġ......\"":9357,"Ġà¤¹à¤°à¤¯":8017,"tragic":10520,"Ġinfanc":9315,"à¤°à¤¨à¤²Ê¼":7274,"à¤¾......à¥¤":4381,"ĠRecorder":9398,"Ĩ":228,"à¥ĭ;":903,"Path":4551,"Ġà¤¸à¤²à¤«":4786,"eine":6306,"à¤ĸà¤«Ê¼":6766,"ĠHam":9202,"Ġà¤¸à¤¡":4778,"à¤ªà¤¤":914,"Ġ!!\"":2299,"Ġà¤ıà¤¸à¤¬":7759,"Ġ..,":9353,"Ġà¤¨à¤Ĺà¤°à¤Ĩ":10296,"Ġextremely":10652,"à¥ĭà¥¤..":4929,"à¤ĹÊ¼à¤²à¤Ĺ":9663,"Ġà¥¤]":4124,"à¤Ĺà¤ľ":1324,"linable":10516,"Ġà¤Ĩà¤¨à¤¨":2510,"Ġà¤¬à¤¦à¤²":1847,"Ġà¤ķà¤®à¤«":2543,"Pal":4547,"à¥ģ>":4750,"à¤¬à¤°à¤«à¤¹":9959,"à¥ĭ...............à¥¤":9988,"Ġà¤¸à¤°Ê¼à¤Ĺà¤ĸ":10196,"Ġà¤¨à¤ĸÊ¼à¤°":1644,"à¤¾à¥¤ğğâĢİâģ®":11199,"Ġà¤¦à¤ĸÊ¼à¤°":3177,"à¤¨":260,"ram":1416,"ngl":3738,"Ġà¤ľà¤¨à¤¸à¤¨":6993,"..........................":9332,"Ġà¤Ĺà¤°à¤ĸ":3339,"à¥ĩ......":3812,"Personal":10680,"Ġ50":1215,"Lab":4537,"à¤¬à¤Ĺà¤¨":4698,"à¤Ĺà¤¯à¤¥":2725,"à¤ĩà¤«à¤¯":8150,"à¤¬à¤¨à¤ľ":4028,"Ġà¥¤...\"":8178,"à¤°à¤¬à¤²":2786,"à¤®à¤°à¤¨":6790,"Ġà¤ªà¤¸à¤®":2261,"Ġà¤ĸÊ¼à¤«":7164,"Ġ970":8867,"à¤¸à¤«":786,"à¤ĸà¤¤":1665,"Ġ?....à¥¤\"":10562,"à¤ĩà¤¸à¤ĸ":2814,"Ġà¤¨à¤¤":3902,"aspira":4308,"Ġà¤ıà¤¬à¤ļ":7708,"à¤¡à¤ĸ":1145,"Ġà¤Ĩà¤ĸÊ¼":1739,"Ġà¤¹à¤®à¤¦":756,"à¤«à¤¥Ê¼à¤µ":7032,"à¤®à¤¦à¤¨":2572,"Ġà¤īà¤ī":3998,"Ġà¤«Ê¼à¤ľà¤Ĩ":10862,"à¤®à¤°à¤ľ":6792,"Ġà¤«à¤°à¤¯":7843,"Ġà¤Ĺà¤²Ê¼à¤µ":714,"à¤ŁÊ¼à¤°":1089,"ght":1653,"Ġà¤°Ê¼":718,"à¤ĸÊ¼à¤µ":2348,"Ġà¤®à¤°à¤¨":1550,"à¤¨à¤ķ":1659,"mes":2677,"Ġà¤ĩà¤¬à¤¸":3061,"à¥ĭ,--":5085,"ĠPrologueà¤ľ":10476,"Ġà¤«à¤¨à¤²":7177,"(+)":10690,"Ġà¤Ń":417,"Ġ1935":8349,"à¤¿'":822,"Ġ:":334,"à¤²à¤ĸ":533,"Ġà¤īà¤«":1160,"Ġà¤ĵà¤ĩà¤¦":4041,"Ġà¤¸à¤°à¤¬à¤¤à¤ĸ":5775,"Ġà¤Ľà¤¨":5585,"®":106,"Ġà¤¸à¤¨à¤°":8229,"Ġà¤«à¤¬à¤ľ":7182,"Ġà¤¬à¤¯à¤¹":2344,"ĠCress":8605,"à¤¬à¤¡à¤²":9551,"Ġà¤®à¤®à¤ĸ":2227,"elp":5407,"à¤ĸà¤ĸ":1919,"ĠĠĠĠĠĠĠĠĠĠĠĠĠĠĠĠĠĠĠĠĠĉ":5779,"Ġà¤īà¤¨à¤²à¤¸":7603,"Ġà¤¸à¤²Ê¼à¤¹":7742,"Ġ)à¥¤":1250,"Ġà¤ıà¤ĸà¤°":2537,"ĠĠĠĠĠĠĠĠĠĠĠĠĠĠĠĠĠĠĠĠĠĠĠĠĠĠĠĠĠĠĠĠĠĠĠĠĠĠĠĠĠĠĠĠĠĠĠĠĠĠĠĠĠĠĠĠĠĠĠĠĠĠĠĠĠĠĠĠĠĠĠĠ":1535,"à¤¾>":2943,"à¥Ī..":2704,"à¤ķà¤ŁÊ¼à¤ªà¤¸":10077,"à¤Ĥ'à¥¤":4690,"Ġinheritence":10242,"eti":4584,"à¤°à¤®à¤¸à¤¨":7720,"ĠMira":9061,"Ġà¤²à¤¥":2030,"ĠStream":9794,"Ġà¤«à¤¥Ê¼":3386,"à¤¦à¤²à¤Ĩ":8068,"093":10115,"Ġtry":5452,"Ġpar":5436,"à¤ĩà¤¶":7229,"Ġà¤²à¤ľ":3013,"õ":177,"à¤¯à¤¸à¤¨à¤¸":5058,"Ġà¤§à¤¹à¤®":8049,"Inf":4408,"à¥ĭà¤ĥ":6572,"à¤¥à¤¦":6949,"à¤Ńà¤¨":2051,"Ġà¤Ĩà¤¦Ê¼à¤®":7839,"Ĳ":238,"ontrol":4427,"à¤®à¤«à¤²à¤¬":5184,"Ġhas":4297,"à¤¾à¤Ĥ,":537,"à¤ľà¤īà¤²":3352,"Ġ704":9882,"à¤°Ê¼à¤¸à¤«":2788,"Ġ..":1152,"Ġà¤¬à¤¯à¤¸":2699,"Ġà¤ĩà¤¶":2798,"mag":6393,"à¤¦à¤²Ê¼à¤¨à¤¨":10386,"à¤¦Ê¼à¤¨":1257,"à¤¸à¤¯à¤¬":6731,"Ġà¤ĸà¤²à¤¬à¤Ĩà¤µ":10390,"ĠFalstaff":11106,"Ġà¤¸à¤¯à¤¤":3345,"ĠHonour":9211,"à¤¯à¤¹à¤°à¤«":2062,"à¤ªÊ¼":3423,"educ":5424,"Ġà¤¦à¤·à¤¨":7116,"Ġnight":5561,"rugg":9719,"ĠCons":5365,"ĠMorality":10609,"ĠTask":4222,"Ġnatural":9227,"à¥Į.........":7001,"à¤¬à¤ĸà¤¨":8024,"à¤°à¤Ĺà¤®":3455,"ĠĠĠĠĠĠĠĠĠĠĠĠĠĠĠĠĠĠĠĠĠĠĠĠĠĠĠĠĠĠĠĠĠĠĠĠĠĠĠĠĠĠĠĠĠĠĠĠĠĠĠĠĠĠĠĠĠĠĠĠĠĠĠĠĠĠĠĠĠĠĠ":3623,"Ġ1965":4344,"Ġà¤īà¤ĩà¤¡":7461,"ĠRuler":11086,"erv":3512,"à¤Ńà¤¸":3464,"bine":6271,"ecution":9277,"à¤°à¤ī":6585,"Ġà¤ķà¤°à¤ªà¤°":5348,"Ġà¤ıà¤Łà¤®à¤«":9708,"à¤ªà¤¦à¤¨":7487,"ĠMutual":11020,"mination":5826,"tax":6467,"ĠTrust":8781,"ĠDEL":4291,"ou":682,"Ġsplendid":11140,"î":170,"!":0,"Ġà¤ĹÊ¼à¤¯":2064,"Ġb":937,"1919":8751,"à¤¯à¤¶":1506,"Palata":10494,"à¤°Ê¼à¤ĩà¤ľà¤®à¤ĸ":10887,"ĠĠĠĠĠĠĠĠĠĠĠĠĠĠĠĠĠĠĠĠĠĠĠĠĠĠĠĠĠĠĠĠĠĠĠĠĠĠĠĠĠĠĠĠĠĠĠĠĠĠĠĠĠĠĠĠĠĠĠĠĠĠĠĠĠĠĠĠĠĠĠĠĠĠ":4367,"à¥ģà¤Ĥ.":769,"Ġà¤ķà¤¦à¤®à¤ª":10563,"ĠPC":2852,"Ġà¤ªÊ¼à¤·":5831,"Ġà¤ħà¤ŁÊ¼":2252,"Ġafraid":5866,"Vol":6241,"Ġqualify":10277,"à¤ĩà¤¨à¤¬":4908,"Ġsituation":10932,"Ġà¤¹à¤°à¤ĸ":722,"Ġà¤Ĺà¤°à¤¤à¤¸":10195,"à¤§à¤°":1312,"Ġlink":9598,"Ġ90":3156,"Ġà¤Ĩà¤¯à¤Ĺà¤ĸ":10197,"Ġtur":8874,"à¤¦à¤®à¤¤":6818,"à¤¨à¤¸à¤¨":1075,"ound":1968,"leman":8863,"Ġà¤®à¤¨à¤ĸ":6881,"sses":5753,"à¤²Ê¼à¤Ĺà¤¯":9553,"452":9915,"nesday":3737,"worth":4645,"Ġà¤ĩà¤īà¤¨":1040,"Wis":6247,"à¤Ĥ...........":6623,"hood":9868,"à¤¤à¤¬":1731,"à¤®à¤Ĩà¤µ":3836,"oms":5412,"ĉĠĠĠ":6519,"Ġblack":9034,"Ġà¤°à¤¥à¤®":7254,"Ġà¤¬à¤Ł":1475,"essor":2450,"à¤¸Ê¼à¤¯à¤¬":8547,"Ġà¤Ĩà¤®à¤¥":1480,"orm":2295,"yed":6505,"Ġ94":3157,"Ġcomm":3220,"Ġà¤°à¤£à¤ľ":4925,"à¥ĭ)..":5241,"à¤¬à¤²à¤«":3119,"ĠCrusoe":5936,"Ġà¤ıà¤ķà¤¸à¤¨à¤ĸ":8486,"à¤¿à¤Ĥ.......":7445,"ĠTheory":9698,"ĠBritsh":10448,"à¤īà¤¨à¤²à¤¡":10564,"à¤¿à¤Ĥ'":3412,"---à¥¤":5650,"hot":4597,"à¤ķà¤°à¤¨":1794,"Patriotic":10752,",-":2196,"msacul":10789,"à¤¶à¤¨à¤Ĩ":5338,"Ġà¤ıà¤ĩà¤ĸ":4966,"ones":8293,"....à¥¤":1949,"à¤ķà¤°à¤¦":3035,"Ġà¤Ĺà¤¸à¤°à¤¨":8087,"mirror":6396,"à¤¾....à¥¤'":9545,"Ġà¤īà¤ĩà¤¯":4999,"Ġà¤Ĺà¤¨à¤ķ":3117,"Choose":10719,"à¤Ĩà¤īà¤Łà¤ª":10878,"à¤ĸà¤°à¤ľ":6759,"à¤®à¤¥à¤°":4109,"Ġà¤ĩà¤¯":704,"ĠCDAC":10319,"Ġà¤Ŀ":1025,"à¤¯à¤¥à¤®à¤¨":7954,"à¤ĵà¤¨à¤²":8456,"121":5618,"Ġà¤Ĩà¤¬Ê¼à¤¯":8742,"Ġ??\"":4981,"ĠNatural":5606,"2000":6049,"à¤¯à¤µà¤¬":6606,"Ġ2011":5496,"edies":3577,"215":6053,"Ġà¤Ĩà¤ĩà¤¬à¤²":8142,"ĠMagic":10610,"ency":1898,"à¥ĩà¤Ĥ":343,"à¥ĭ)à¥¤":1252,"Ġà¤ħà¤Ĩ":7293,"Ġà¤ļà¤¨":865,"Ġà¤¸à¤²Ê¼à¤Ĩà¤µ":7743,"ĠNation":9418,"Ġà¤Ĩà¤ĸà¤²à¤ľ":5300,"à¤Ĺà¤¸à¤ĸ":6938,"Ġà¤ĸà¤²Ê¼":4887,"Ġà¤Ĩà¤Ĺà¤°à¤¬":7956,"Ġà¤¸à¤°à¤®à¤¨":8342,"172":9570,"à¥ĭ]":1078,"84":2465,"à¤¸à¤¨à¤¸":922,"à¤ªÊ¼à¤ľ":3424,"Jul":6166,"à¤°à¤§":6590,"Ġà¤ħ":311,"Ġà¤ħà¤ľà¤¯":597,"Ġpr":4230,"Ġà¤°à¤¶":4918,"à¤¶à¤ļà¤¨":7815,"à¥Į....":3360,"à¥Į..":4824,"onology":3517,"Ġà¤ħà¤ªà¤¦":5350,"enie":8450,"usal":9499,"ĠRomeo":5974,"à¤ªà¤¶à¤¨à¤¨":7497,"Gut":6150,"à¤Ĺà¤¨à¤¨":746,"Ġà¤²à¤°à¤¬":3014,"Ġacc":9144,"à¤¡à¤Ĩà¤µ":7620,"Rabinson":5916,"à¤¬à¤²Ê¼à¤«":10538,"Ġà¤µà¤°":1493,"Ġà¤²à¤¥Ê¼à¤«":7213,"à¤°à¤īà¤ĩà¤¸à¤¶":10824,"NU":6181,"Ġà¤¸Ê¼":1622,"à¥Į+":4819,"à¤¬à¤µà¤¬":6636,"à¥ĭà¥¤...........":4932,"Ġà¤¸à¤¨à¤¦":2225,"Ġcompound":5806,"Ġà¤¬à¤²Ê¼à¤¤":6686,"à¤¸à¤°à¤¬à¤¤":4436,"ĠTelegram":5420,"gular":9256,"Ġà¤Ĩà¤īà¤Ł":2025,"Ġà¤¦à¤¶à¤®":3913,"Ġabout":5534,"ompt":5682,"kind":6362,"à¤¦à¤¦à¤«":8192,".......à¥¤":2179,"Ġ275":3211,"Ġà¤¦à¤¨à¤¦":7100,"à¤ĸà¤¨à¤²Ê¼":8283,"ĠLet":5575,"Ġà¤ĺà¤¨à¤¶":9075,"Ġà¤ķà¤ķ":1098,"ĠDev":9118,"Ġseries":10156,"ĠFood":10641,"unvoiecd":11138,"Ġà¤¬à¤ľà¤¬à¤¨":1385,"à¤¾),":2298,"à¥¤]":2219,"dial":6302,"à¤°à¤¬Ê¼":7542,"Ġà¤īà¤¨":348,"à¤¯à¤ĸ":338,"lication":4612,"Ġà¤Ĩà¤ĩà¤¨à¤ľà¤¨":8143,"à¤ĩà¤²à¤ıà¤¡":8128,"Ġà¤¡à¤°à¤¥":7803,":\\>":1901,"Ġà¤ľà¤¥à¤¨":8400,"à¤Ĺà¤¬à¤¨":6930,"ld":2476,"at":845,"try":4637,"Ġà¤ıà¤ķÊ¼":8479,"107":9250,"lle":4609,"à¤Ĺà¤¨":438,"Ġà¤ıà¤¸Ê¼à¤ĸ":4060,"Ġà¤ıà¤°à¤«":7364,"ĠBovery":9283,"Ġproce":9929,"à¤¶Ê¼à¤µ":7814,"Ġad":2072,"à¥Į....?":10293,"à¤¨à¤°à¤ķ":5301,"ĠEpilogue":10635,"à¤¿à¤Ĥ":326,"ĠMor":5503,"ĠPrologue":4468,"à¥ĭ.":4669,"Ġtechnique":10985,"à¤ķÊ¼à¤²à¤¨":4404,"à¤¦à¤°à¤¨":730,"Ġà¤ľÊ¼":607,"Ġs":770,"Ġà¤¹à¤¦":3361,"à¤°à¤¬à¤¸":5036,"emthesis":5560,"à¤ķà¤µ":3034,"Ġà¤¦à¤²à¤¦":1672,"Iv":6164,"Ġà¤ľÊ¼à¤µ":2992,"à¤¿à¤Ĥ......":7444,"à¤ļà¤¯":8031,"Ġopp":8639,"Ġà¤®à¤¨Ê¼à¤°à¤¨à¤¨":9761,"à¤Ĥ\"--":9991,"Ġà¤ĩà¤¨à¤ľ":2797,"ĠObjective":10347,"overy":4624,"Ġà¤ľà¤°à¤ĸ":1923,"ological":9886,"ĠEvenlina":11096,"Aspiration":5907,"à¤¡à¤®":3058,"à¤¨à¤¥Ê¼à¤ĸ":4300,"Ġà¤«à¤ĸ":1517,"31":4492,"Ġnarrative":4473,"à¤®à¤¹à¤°":1367,"à¤®Ê¼à¤²":6797,"ĠBack":9282,"Ġwov":8872,"à¤¹à¤°à¤¬":672,"ii":2474,"Ġà¤ĸà¤°Ê¼à¤¬":4116,"Ġà¤®Ê¼à¤¹à¤°à¤ĸ":10128,"Ġ(!":5067,"89":4511,"Ġback":9033,"à¤¾à¤Ĥ.......":4856,"itap":8900,"ob":3739,"à¤¥à¤¬":1188,"à¤¡à¤¡à¤¡":10565,"etic":4587,"16":1386,"railty":5880,"Ġà¤ıà¤®à¤ľ":7363,"à¤¬Ê¼à¤²":6642,"Ġà¤Ĺà¤¯à¤°à¤¹Ê¼":8459,"à¤ŁÊ¼à¤«":5314,"Ġà¤Ĩà¤¨à¤ĸ":2512,"sible":5615,"ĠMacbeth":5956,"ĠVIII":11110,"à¤¥Ê¼à¤ľ":7671,"posotion":10662,"Ġà¤īà¤¥":889,"Ġà¤¹Ê¼à¤¯":9068,"à¤®à¤¤à¤«":8181,"Ġwrong":10980,"à¤ĵà¤²":5311,"pies":6424,"Ġà¤¸Ê¼à¤¹à¤°":9758,"à¤®Ê¼à¤¨à¤«":10194,"à¤°à¤ªà¤¨":4682,"à¤ĸà¤¸":1918,"Ġà¤¸à¤µ":3852,"à¤¯à¤¸Ê¼à¤¨à¤¦":10394,"à¤ħà¤²Ê¼à¤ķà¤ĸ":2881,"à¤¹à¤²Ê¼":7121,"à¤¯à¤¹à¤°à¤¸":8050,"à¤°Ê¼à¤ľ":5037,"à¥ĩ:...à¥¤":8369,"Ġscen":5390,"à¤ĩà¤¦à¤¨":7233,"à¤°à¤®à¤«":7716,"Cerdra":10714,"Ġà¤ıà¤Ĺ":1677,"Ġ639":8908,"Ġà¤¸à¤¨à¤¬":3855,"yal":4646,"à¤¶à¤¨à¤ľ":7812,"à¤¾à¥¤--":7330,"à¤¾à¥¤]":4950,"Affix":4522,"Ġiii":6539,"ĠAdmiration":10409,"à¤²à¤ļ":2102,"Ġà¤«à¤°Ê¼à¤¬":7192,"pros":6431,"à¤Ĩà¤ĩà¤ķ":4994,"Ġà¤ħà¤¨à¤¹à¤°à¤¨":7303,"à¤²à¤ķà¤¨":2703,"à¥ĩà¤Ĥà¥¤\"":3432,"ĠComedy":5878,"à¤®Ê¼à¤°":1071,"Ġà¤Ĺà¤«Ê¼à¤¬à¤¨":4372,"ĠĠĠĠĠĠĠĠĠĠĠĠĠĠĠĠĠĠĠĠĠĠĠĠĠĠĠĠĠĠĠĠĠĠĠĠĠĠĠĠĠĠ":2614,"à¤°à¤°à¤°à¤°":9754,"Ġà¤Ĳà¤²":8966,"à¥ģ:à¥¤\"":9727,"jects":10267,"à¤·à¤¨à¤ĸ":7875,"07":6041,"à¤°à¤¨à¤¨":2248,"Ġposition":5439,"Ġexpen":10250,"à¤²à¤¤":1618,"à¤¾à¤ĥ":1104,"2002":5700,"Ġà¤ķà¤®à¤¬":2044,"à¤¯à¤¸à¤¨à¤«":5060,"à¤łà¤¨":9603,"To":3263,"Ġ..?":3622,"Ġà¤°à¤ľÊ¼à¤ĸ":5298,"1588":9442,"à¤¹Ê¼":2516,"à¥Ģ\"":1356,"à¤¤à¤¯":4983,"à¤ªà¤¥":1680,"Ġà¤ķà¤°à¤ªÊ¼à¤°":5349,"à¤ħà¤ĩ":7882,"Ġ?--":3985,"à¥ĭ........?":9984,"à¤¬à¤°à¤Ĩà¤µ":5204,"ĠRESIGN":11091,"à¥ĭ....!":9803,"Ġemotion":2651,"Ġà¤ħà¤ŁÊ¼à¤ľ":5778,"214":6058,"Ġ80080":10338,"cent":6283,"à¤¬à¤¹à¤°à¤¨":5258,"Ġserious":4430,"à¤Ļà¤°":7257,"à¤ĸÊ¼à¤¥":2829,"Ġà¤¹à¤ĹÊ¼":8317,"à¤°à¤£":1274,"Yes":4565,"ĠStop":9789,"Ġà¤ħà¤²à¤ķ":610,"Ġform":9862,"à¤®à¤¨":321,"à¤«à¤Łà¤Ĺ":9778,"Ivanhoe":11191,"ĠThese":5770,"}":92,"graph":6331,"Ġch":3589,"à¥ĭ>":3775,"Ġà¤ľÊ¼à¤«":1693,"Ġhear":9170,"Ġà¤īà¤®":1867,"(_":6009,"Ġà¤¨à¤ĸÊ¼":1963,"à¤ªà¤¹":3422,"à¤¿',":3576,"Ġà¤ĵà¤¬":4040,"ĠPapers":5945,"Ġthron":8643,"à¤°à¤°à¤°":9752,"Ġà¤¹à¤²":820,"à¤¯à¤¨":305,"à¤ĩà¤¨à¤¬Ê¼":10555,"accent":9273,"à¤¾........à¥¤":4663,"ĠFriend":9619,"har":1343,"à¤°à¤¥":460,"Ġà¤ĩà¤¨à¤«Ê¼à¤°à¤®":9255,"ĠRul":9387,"à¤¯à¤¨à¤¸":7263,"Ġà¤¸à¤¤":1045,":),":6093,"Ġà¤¤à¤¸à¤°":8058,"Ġ1949":8352,"à¤ľà¤Ĺà¤¨":3350,"à¥ģà¥¤..":8531,"à¤¦à¤¸à¤µà¤°":8883,"Ġess":6531,"Ġà¤ıà¤°à¤«à¤¬à¤µ":10873,"ĠToolbar":4446,"Ġà¤ıà¤Ń":4965,"à¤ľà¤µà¤¨":6903,"ĠMain":9050,"ternet":9590,"Pref":6210,"à¤¬à¤°à¤¬":6635,"Ġ!!!''":9671,"Ġà¤Ĩà¤ªà¤¨":2739,"à¤ļà¤¨à¤«":5200,"Ġà¤ĵà¤¹":1332,"à¤¹Ê¼à¤¨":3915,"à¤°à¤¤à¤¨à¤¨":8207,"à¤Ńà¤¦":7826,"Ġ1":425,"ĠY":1390,"à¤ªà¤®":2545,"ĠĠĠĠĠĠĠĠĠĠĠĠĠĠĠĠĠĠ":1639,"Ġà¤ħà¤°à¤¥":5180,"Ġ55":3530,"à¤²à¤¸à¤«":4128,"Ġà¤ħà¤¨Ê¼":7937,"eer":4583,"ĠCulture":8607,"Ġ.........,":9470,"District":10723,"Ġà¤Ĺà¤ĩ":2974,"à¤²à¤®Ê¼à¤¹":8925,"Ġà¤Ĩà¤ªà¤ķ":2448,"Ġà¤ĸà¤°Ê¼à¤¸":1412,"ĠDISKCOPY":5988,",'":6018,"AB":6100,"Ġ52":8407,"sex":9616,"à¤īà¤¸":707,"Ġà¤ªà¤°à¤Ĺ":7590,"Ġà¤¹à¤Ł":1082,"Ġà¤Ńà¤°à¤®":1530,"Ġà¤ķà¤ļ":3421,"(;":6006,"à¤¿................................":6583,"ash":5566,"ĠClown":10043,"Collective":10720,"Ġà¤¨Ê¼à¤¸à¤ķà¤¨":5639,"tire":8338,"classical":10778,"Ġà¤ħà¤¨à¤Ĺ":551,"8016":10019,"Ġà¤²à¤¬à¤°":7203,"Ġà¤Ĳà¤¦":5484,"Ġ1979":4357,"Ġen":3288,"Ġà¤ĩà¤ª":5065,"Ġà¤¹à¤°à¤ľ":1369,"à¤¾-\"":5056,"ĠOff":9503,"Ġà¤¸à¤®à¤°":2140,"ĠDISKCO":5841,"Ġà¤ĸà¤°à¤¥":1371,"âĢĮ":557,"voiec":6494,"Ġ?.....":7404,"VAC":4564,"à¤¯à¤Ł":1846,"ctive":6286,"Ġà¤¸à¤®à¤¡":7562,"à¤Ĺà¤ĸÊ¼à¤°":8990,"ĠFalst":9626,"Ġà¤Łà¤¨à¤¸":5095,"Ġgate":9631,"erial":4140,":à¥¤":4515,"Ġà¤®à¤ľ":1590,"Ġà¤®à¤«à¤¸à¤²":10387,"Ġà¤ĸà¤²":1673,"795":6080,"Ġres":3294,"Ġà¤¦à¤®à¤¨":924,"à¤Ńà¤¶":7831,"à¤¯à¤¥à¤¨":7953,"Ġ180":9183,"à¥ĩà¥¤''":8270,"°":108,"à¤¯à¤¨à¤Ļ":4928,"Ġà¤ĹÊ¼à¤²à¤Ĩ":8795,"atization":10026,"unvoiec":10030,"à¤°Ê¼à¤«":2138,"wise":6500,"Ġà¤Ĺà¤²à¤Ĺ":5244,"à¤¡à¤°à¤ľ":7619,"à¥ĭ...........à¥¤\"":10375,"Ġ-\"":1248,"à¤¾}":3768,"........\"":7997,"ĠMORE":10604,"Ġmen":4252,"rror":6438,"Ġà¤¸à¤®à¤ľ":1489,"Ġà¤Ĩà¤¸Ê¼":2147,"........,":4098,"à¤Ĩà¤ĸà¤²à¤«":5326,"à¤Ĩà¤ĩà¤«":7429,"Ġà¤§à¤°à¤£":2418,"à¤¨Ê¼à¤ĸ":4265,"à¤¯à¤¸à¤¨à¤ľ":5059,"Ġà¤®à¤¨à¤ľ":617,"mas":6389,"ister":8615,"OM":2664,"iring":5668,"Ġà¤Ĺà¤¥à¤ĸ":8595,"ĠSholarship":11150,"Ġà¤°à¤ľà¤¤":5295,"à¤ľÊ¼à¤Ĺ":5457,"à¤ĩà¤¹à¤°à¤¨":7235,"à¤¾'(":8388,"Ġà¤Ĺà¤¦":939,"141":9645,"Ġ1584":9006,"à¤¨Ê¼à¤®":8987,"Ġà¤¬Ê¼à¤¥à¤²à¤¨":10542,"Ġà¤«à¤ŁÊ¼":1005,"limax":4613,"ABSU":10703,"à¤Ńà¤²à¤Ń":3076,"Ġthrone":10921,"Ġà¤®à¤ĸÊ¼à¤Ĺ":9182,"à¤Ĥ":265,"Ġà¤¬à¤¡Ê¼à¤¸":3118,"à¤²à¤®Ê¼à¤¹à¤¨":10997,"cle":6280,"Ġà¤®à¤ĸÊ¼à¤²":6899,"Ġà¤¨à¤ĸà¤°à¤ĸ":2285,"à¤īà¤¦à¤ĸ":5339,"Ġ1972":4355,"Riders":10760,"Ġinv":3194,"Ġà¤īà¤¦à¤²":5189,"Ġrevenge":5733,"à¤ıà¤ĸà¤¨à¤¬":3109,"Ġà¤Ĩà¤¨à¤Ľ":4089,"à¤Ĩà¤¨à¤ľ":4992,"Ġà¤²à¤¬à¤¨":7200,"ĠCoppar":10322,"à¤Ĩà¤ľ":1678,"Ġà¤ķà¤®à¤²":1339,"Ġ..à¥¤":3198,"à¤¹à¤®à¤¬":7122,"à¤¸à¤²à¤ª":9132,"Ġï»¿":4479,"w":86,"à¤Łà¤¨à¤«":3961,"149":9652,"Ġà¤ĹÊ¼à¤¬":1749,"ĠInitial":9852,"ive":6347,"Ġà¤Ĺà¤¬Ê¼à¤¯":4206,"icles":8897,"Ġà¤°à¤ķ":2384,"ĠMother":4276,"ĠĠĠĠĠĠĠĠĠĠĠĠĠĠĠĠĠĠĠĠĠĠĠĠĠĠĠĠĠĠĠĠĠĠĠĠĠĠĠĠĠĠĠĠĠĠĠĠĠĠĠĠĠĠĠĠĠĠĠĠĠĠĠĠĠĠĠĠ":4330,"Ġà¤²à¤ĸà¤¬à¤ĸ":8542,"Ġsle":8666,"Ġà¤ķà¤®à¤²à¤¸":5191,"0900":10116,"Ġà¤¨à¤¦":4857,"ĠStudy":9793,"Ġ709":9883,"à¤²à¤µ":1276,"Ġà¤ıà¤¨à¤Ł":8118,"Ġà¤«à¤ľà¤¯":7193,"à¤ıà¤¹":8099,"Ġrascals":10814,"Ê¼à¤¦à¤¯":7221,"à¤¬à¤¡":1366,"Ġà¤ľà¤¯à¤Ľà¤µ":8627,"ĠHalver":9214,"Ġà¤ıà¤²Ê¼":4960,"Ġà¤īà¤¨à¤²":7602,"à¥ĭà¥¤)":651,"alst":8434,"à¤ļà¤ĸ":3101,"Ġ.......à¥¤\"":3635,"Ġà¤¬à¤Łà¤²à¤¸":5689,"Ġfire":9103,"à¤®à¤ĹÊ¼à¤¨":5239,"à¤ľà¤Ń":4800,"phen":9822,"iyn":6357,"Ê¼à¤¯":1518,"icar":8894,"Ġinter":4321,"Ġaddressing":11127,"IM":6161,"à¤Ĺà¤µà¤¤":6947,"à¥Ģ+":7380,"Ġrel":3767,"136":9520,"à¤¥à¤°à¤¥":3876,".....''à¥¤":8477,"-à¥Ī,":6026,"à¤ķà¤®à¤²":3408,"Ġà¤°à¤Ļ":2765,"180":9577,"à¥ģà¥¤":710,"ĠMadame":11021,"ĠHighness":11060,"à¤«Ê¼à¤¬à¤ľ":9898,"Ġà¤«à¤ľÊ¼à¤¬":4440,"à¤¾à¥¤":315,"ict":4246,"Ġ484":8572,"th":599,")à¥¤":1021,"ĠPolicy":8808,"à¤¾.....à¥¤":4370,"à¤Ĺà¤¬Ê¼":6941,"à¤¯à¤¨Ê¼à¤ĸ":7266,"p":79,"Othello":6197,"Ġà¤īà¤¬":3042,"Ġà¤²à¤ĸà¤¬à¤¨":3141,"Ġ(:),":7667,"Ġà¤ħà¤²Ê¼à¤ĸ":3954,"Ġà¤²Ê¼à¤Ń":4342,"à¤«Ê¼à¤¬":4843,"à¤²à¤ĸà¤°":8169,"à¤ľà¤¸":2503,"à¤Łà¤°à¤Ĩà¤µ":8314,"Ġ&":6524,"Ġà¤Ĩà¤¬Ê¼à¤µ":2809,"ĭ":233,"à¤¿:à¥¤":1965,"Ġà¤ĸà¤Łà¤ķ":4895,"eward":6309,"Ġà¤ľà¤¬":817,"Ġà¤ŃÊ¼à¤Ĺ":3468,"ĠHCL":9209,"à¤°à¤¶":1273,"ĠCriticism":10402,"Ġà¤Ĺà¤¸à¤°à¤¬":8088,"ĠĠĠĠĠĠĠĠĠĠĠĠĠĠĠĠĠĠĠĠĠĠĠĠĠĠĠĠĠĠĠĠĠĠĠĠĠĠĠĠĠĠĠĠ":2850,"à¤®à¤¨à¤²":7397,"à¤¦à¤ĸà¤²":8561,"Ġà¤¦Ê¼à¤¸à¤¨":9152,"Ġà¤ĸà¤°à¤ľà¤¨":7169,"à¤ľà¤¥Ê¼à¤²":6924,"Ġà¤¹à¤®à¤¹à¤°":8445,"à¤ķà¤¨Ê¼à¤²à¤ľ":8380,"Ġà¤¥à¤¦":2518,"Ġ1604":9371,"à¤ľà¤®à¤ĸ":6909,"à¤ķà¤²à¤¸à¤¨":5391,"ĠSystem":3672,"à¥Ī''":6719,"Ġà¤¢à¤²":9703,"à¤°à¤¸Ê¼à¤¨à¤¹":9760,"Ġà¤¦à¤®à¤¦à¤®":10851,"txt":2330,"à¤µà¤¨à¤¨":2349,"Ġà¤Ĩà¤¸Ê¼à¤²":7921,"Ġà¤¡à¤¬à¤ķ":9846,"à¤ħà¤¨à¤¨":3470,"à¤ŁÊ¼à¤Ĩà¤µ":4179,"à¤²à¤¤à¤®":6712,"à¥ĭà¤Ĥ...........":7061,"à¥ĭ'à¥¤":3780,"à¤µà¤®":957,"eet":4586,"Ġà¤¡à¤ľà¤¨à¤¸":9265,"Ġà¤°à¤¡à¤¨":4923,"Ġà¤ªà¤ľÊ¼à¤¨":3056,"Ġ1962":3630,"à¤²à¤Łà¤¨":4724,"Ġà¤®à¤¨à¤Ĺ":6882,"Ġfrustration":9107,"eous":6308,"Dragging":10722,"à¤Łà¤¹à¤°":7318,"Ġà¤Ĩà¤¬Ê¼à¤¨":7846,"Ġà¤¨à¤ĸÊ¼à¤°à¤ľ":5747,"ĠInterface":3231,"Ġà¤īà¤§":7459,"Ġà¤ĺà¤°":1253,"Ġassim":5843,"Ġà¤ıà¤ķà¤¨à¤¬":8480,"à¥Ģà¥¤'":8740,"Ġà¤¹à¤°":473,"Ġà¤¬à¤°":596,"omm":2611,"à¤ĹÊ¼à¤®à¤¬":9013,"bar":2469,"Ġ7094":9885,"Ġsecret":10330,"Ê¼à¤¬":798,"à¤²Ê¼à¤¥":2259,"68":3249,"Ġà¤ķà¤²Ê¼à¤¨":5005,"ĠAlley":10584,"à¤¬à¤Ĩ":1428,"dirname":10781,"ĠUniversity":10660,"Ġà¤¥à¤²à¤¥":7145,"cid":6284,"į":235,"....................?":9336,"à¥Ī--":764,"ĠThe":1538,"à¤¦à¤®à¤¨":741,"Ġà¤¬à¤ĸ":1237,"ration":2300,"irror":5669,"Ġà¤Ĳ":902,"lected":5820,"240":9763,"AN":4516,"ĠJuly":2900,"55":4498,"!!\"":5694,"à¤īà¤Łà¤¨":7507,"155":9435,"Voiced":6242,"Ġrac":4657,"Ġà¤ľà¤¯à¤¦":6975,"à¤¾...à¥¤\"":5646,"otypes":9115,"Ġà¤²à¤ĸà¤¨":7205,"à¤£à¤ª":5147,"131":9515,"ĠVowel":9656,"Ġà¤®à¤¨Ê¼à¤°à¤¨à¤ľà¤¨":9762,"Ġà¤Ĳà¤ĸ":1829,"Ġà¤ľà¤ķ":3356,"818":6084,"UNW":6238,"Ġà¤®Ê¼à¤¹à¤ķà¤«":10129,"ĠJeal":9890,"à¤Ĺà¤°à¤Ĺà¤°":10552,"ĠĠĠĠĠĠĠĠĠĠĠĠĠĠĠĠĠĠĠĠĠĠĠĠĠĠĠĠĠĠĠ":3140,"à¤¯à¤¹à¤°à¤Ĺ":2061,"Ġanaptysis":9955,"Ġà¤¨à¤²":2742,"à¤ªÊ¼à¤Ł":10302,"Ġ38094":10574,"Ġused":10072,"I":40,"Ġà¤ĺà¤¬":4161,"Sub":4558,"or":675,"Ġjustice":10285,"à¥ĭà¥¤......":7268,"à¤Ī":2940,"ĠSpiritual":5904,"à¤ĻÊ¼à¤®":7261,"Ġà¤ĸà¤°Ê¼à¤Ĺ":8119,"Ġà¤®à¤¹à¤°à¤¨":1229,"Ġà¤ħà¤¨à¤¹à¤°à¤¬":7306,"etry":9384,"ĠJester":9893,"à¤Łà¤µà¤°":3404,"ality":3532,"national":6406,"Ġà¤ıà¤¨à¤ľà¤°":2649,"Ġfield":5523,"à¤¸à¤¤à¤®":6745,"ĠWords":4454,"à¤¬à¤°à¤®":2341,"Ġà¤«à¤ľ":3012,"Ġà¤¨à¤ĩà¤®":7087,"à¥ĭ),":2584,"Ê¼à¤°à¤¨":7214,"à¤µà¤²à¤ª":7952,"ù":181,"Ġ%":6523,"ily":8991,"ĠShakespeare":10223,"wind":6497,"Ġguns":10524,"charge":10777,"Ġcurtain":10989,"Ġà¤ĸà¤¬à¤ľà¤¬à¤¨":2192,"?)":2661,"jec":2084,"à¤¬à¤°à¤ª":5203,"à¤²à¤®":881,"Ġ74":4229,"Ġderiv":5515,"Ġà¤ĨÊ¼":3892,"Ġà¤ıà¤²à¤¸":3971,"à¤¦Ê¼à¤¬à¤¸":5233,"fum":6318,"tle":3752,"Ġright":3766,"Ġà¤¬à¤°à¤¬":1583,"à¤²à¤ª":1125,"Ġà¤ĩà¤¹":4042,"miration":6399,"Ġ360":8455,"à¤ĺÊ¼à¤°":8720,"Ġà¤Ľà¤°":9342,"à¤°à¤¤à¤°":8204,"à¤ªà¤¸à¤ĸ":7490,"Ġà¤¨Ê¼à¤ĸà¤°à¤¨":1092,"ĠOur":5629,"Ġà¤ķà¤ª":2395,"à¤ķà¤®à¤¤":7347,"à¤¨à¤¹à¤°":938,"Ġdag":9083,"bil":6267,"Ġ........à¥¤\"":5357,"à¤¥à¤²à¤¨":6964,"Ġà¤Ńà¤ķà¤¤à¤ĸ":4415,"à¤Ĺà¤¸à¤Ļ":3200,"Ġà¤ķÊ¼à¤¥":7476,"54":2079,"R":49,"Ġà¤¥à¤ķ":1932,"ĠSholar":10222,"Ġà¤Ĺà¤¨":550,"à¥ĭ......à¥¤\"":5817,"Ġà¤ĸà¤Łà¤ķà¤¡":5931,"ĠStyle":3215,"Ġtragedy":10061,"Ġà¤ªÊ¼":3054,"Ġà¤Ĩà¤ľà¤°":8576,"179":9576,"à¤ħà¤®à¤°":7891,"à¤¼)":8225,"DOS":1703,"lour":6371,"ĠD":982,"ĠTrag":2613,"Ġinsec":9317,"Ġà¤Ĺà¤°Ê¼":6834,"Ġid":2338,"red":2479,"âĢİâģ":8203,"Ġà¤®à¤Ĺ":2985,"Y":56,"aterial":5444,"à¤īà¤«":1869,"icros":5460,"ĠFo":5670,"0":15,"Ġà¤Ĩà¤Ĺ":445,"Ġà¤¹à¤®à¤¸Ê¼à¤¹":9683,"ĠN":1218,"posses":5816,"à¤Ĩà¤¨":589,"à¥¤..............":6831,"Ġà¤ĩà¤¨à¤ıà¤ķà¤Ł":8096,"à¤Ĺà¤²Ê¼à¤µ":2113,"Ġà¤®à¤¸à¤®":3865,"à¤¾à¤Ĥà¥¤à¥¤":5230,"à¤¸à¤²Ê¼à¤Ĺ":6747,"ĠTim":8774,"scals":10805,"Ġà¤¹à¤®à¤¹":1395,"Ġdegree":3689,"ne":6400,"bia":6274,"Ġra":6527,"Ġdrive":4288,"à¤§à¤¨à¤¨":5215,"à¤°à¤ĹÊ¼à¤¹":4058,"à¤¸à¤®à¤¬":919,"1985":5693,"sem":6449,"Ġà¤¹à¤ĩà¤¸":7019,"Ġ?\"...":7747,"à¤Łà¤²Ê¼":3959,"!\"":1902,"à¤ľà¤¨à¤¤":5219,"Ġà¤®à¤¹à¤¨à¤¦":7982,"à¥ĩà¥¤à¥¤":8269,"-à¥ģ,":6028,"ed":829,"à¤²à¤ĸà¤¸":8170,"à¥ĭ................":4671,"Ġhours":5822,"Ġà¤ıà¤®à¤ļ":8164,"Ġ1588":9009,"Ġfaith":9108,"139":9523,"à¤¾..,":9800,"Ġshall":10154,"CK":6114,"affixes":10776,"Ġbritish":11013,"Ġappointed":11048,"Ġà¤²à¤£":2758,"faction":4592,"Ġà¤Ĺà¤²Ê¼à¤²Ê¼à¤¬":8198,"Ġà¤ĩà¤¨à¤¸":1805,"à¤Ĥ...à¥¤\"":6626,"...........,":9550,"Ġà¤ĩà¤¸à¤°":4119,"Ġà¤ıà¤¹":3409,"Ġmeaningless":9888,"×":147,"ame":2185,"Ġà¤īà¤¨à¤«":1683,"ub":1908,"ĠHard":9205,"Ġrealism":9832,"à¤Ĥ..........,":10537,"ĠĠĠĠĠĠĠĠĠĠĠĠĠĠĠĠĠĠĠĠĠĠĠĠĠĠĠĠĠĠĠĠĠĠĠĠĠĠĠĠĠĠĠĠĠĠĠĠĠĠĠĠĠĠĠĠĠĠĠĠĠĠĠĠĠĠĠĠĠĠĠĠĠĠĠĠĠ":5698,"(+":6004,"ress":2480,"Ġà¤Ńà¤Ł":1491,"Ġà¤Ĺà¤°à¤¦à¤«":9681,"ĠSp":2845,"à¤ıà¤ĸà¤°":8105,"à¥įâĢĮ)":8221,"ĠEmper":9414,"Sh":6224,"msaculine":11197,"à¤µà¤°à¤¨":2494,"à¤¾à¥¤.....":7331,"ĠWIN":8733,"à¤¾à¤":778,"à¤¨à¤¤":4665,"ely":5408,"Ġà¤ĵà¤ĩà¤¬":7642,"Ġà¤ķà¤¨à¤ľ":4002,"à¤ĩà¤²Ê¼à¤Ĺà¤«":10203,"thens":8306,"ĠĠĠĠĠĠĠĠĠĠĠĠĠĠĠĠĠĠĠĠĠĠĠĠĠĠĠĠĠĠĠĠĠĠĠĠĠĠĠĠĠĠĠĠĠĠ":3152,"à¤ªÊ¼à¤¨":7484,"à¥ĭà¤Ĥ........":7056,"ĠClick":5794,"à¤ĩà¤¸à¤¶":7970,"Ġà¤¸à¤¯":2014,"à¤¿\"à¥¤":3624,"Ġà¤ħà¤ªà¤®":1696,"à¤Ĩà¤µà¤µ":7738,"à¤¯à¤¹à¤°à¤¬à¤¹à¤°":9074,"ona":8292,"Ġlamp":9602,"à¤¥à¤¸à¤¨":6965,"ĠOul":9501,"ĠDon":5524,"à¥Ĥà¤ĥ":5608,"Ġdevel":9090,"Ġresponsibilities":11159,"ø":180,"Ġà¤ĵà¤¨à¤¸":755,"à¤¨à¤ĸ":382,"à¥Į........à¥¤\"":3887,"à¤¨à¤¥Ê¼à¤¬":4299,"Ġ:!":7518,"à¤°Ê¼à¤ªà¤¦":7556,"à¥ĩ-à¥¤":8288,"Exercise":10487,"sive":9444,"Ġà¤ĩà¤¡":2266,"à¥ģâĢĮ":6783,"Ġà¤īà¤°à¤¨":3416,"1926":3573,"Ġà¤ķà¤·":7471,"....à¥¤\"":7572,"à¤ľà¤¤à¤¨":3351,"Ġ1826":9185,"Ġliter":9599,"à¤ĩà¤ľ":367,"à¤¶à¤°":5107,"Out":6193,"Ī":230,"à¤Ĭ":3296,"à¤µà¤¯":779,"ĠShew":10925,"Ġboubt":9036,";),":6095,"ĠProfessor":10657,"Ġà¤ĸà¤¬Ê¼":1934,"ie":6340,"Ġà¤Ĩà¤µà¤Łà¤ª":8497,"Ġà¤¸à¤¦à¤¬à¤¨":2500,"ĠDef":9126,"ĠGreat":5573,"Pointer":10499,"à¤Ĩà¤ĩà¤Ķ":5589,"Ġà¤ĸà¤¯à¤¦":7154,"Ġ66":8904,"Ġà¤ªà¤°à¤®à¤ªà¤°":10006,"à¤¿à¤Ĥ)":3413,"Ġet":3291,"à¤®Ê¼à¤¹":3837,"à¤°à¤ľà¤¨à¤¨":4043,"Ġà¤Ńà¤Ĺà¤ª":5130,"Mac":6171,"Ġà¤Ĺà¤¯à¤¨":2975,"Ġà¤Ĩà¤¸à¤²à¤¨":7920,"Ġà¤¨Ê¼à¤ļ":7963,"ingless":9337,"Ġà¤¬à¤ĸà¤¹":9449,"Ġà¤ľà¤®à¤¨":6972,"Ġdata":9088,"be":3719,"à¤¾,-":4012,"à¤µà¤¨à¤°":7327,"à¤¸à¤°":1035,"ĠCO":3144,"à¤¯à¤ľÊ¼":7726,"Ġheave":10240,"Ġhonour":9174,"apty":5627,"à¤īà¤¨":451,"Ġà¤¦à¤ĸà¤°":2243,"Ġà¤Ĺà¤°à¤¦à¤¨":5695,"Ġà¤¦à¤²à¤¬":7111,"Ġà¤Ĩà¤ĩà¤¨à¤¸":8138,"ĠClassification":10044,"Ġsubjects":10407,"Ġà¤¬à¤¯à¤ľ":1661,"à¤ĸà¤¬à¤¨":6756,"Ġeverybody":10459,"à¤¾............à¥¤":5854,"à¤ĩà¤¸à¤ľ":7968,"à¥Į.......":7000,"à¤²à¤°":1085,"Ġà¤¬à¤¨Ê¼à¤¬":8331,"Ġsome":4210,"à¥ĭ........":2205,"Ġà¤Ĺà¤¥Ê¼à¤¨":1033,"ĠPlay":3230,"à¤°à¤¨à¤ľà¤¨":7275,"Ġbrother":11014,"Ġà¤®à¤¦à¤¦à¤¥":8366,"776":4508,"lex":5448,"à¤Ĩà¤¹à¤ķ":10079,"à¤¾;":830,"Ġà¤ıà¤°à¤¸à¤¨à¤Ĺ":4354,"210":6050,"affix":6262,"Ġ......?\"":9360,"Ġà¤ħà¤ŁÊ¼à¤¯":10002,"Ġ)":480,"Ġparlour":10593,"Ġà¤Ĺà¤¨à¤ĸ":3846,"à¤¯à¤¤":1545,"Ġà¤ħà¤²Ê¼à¤ķà¤¨":1147,"ĠĠĠĠĠĠĠĠĠĠĠĠĠĠ":1631,"Gender":6152,"cept":6287,"à¤Ļà¤®":7258,"à¤ħà¤²à¤ĸ":7887,"J":41,"Ġparallel":10592,"Ġà¤¸à¤®à¤®à¤¥":2792,"ack":4310,"dec":6299,"à¤ĹÊ¼à¤«":4269,"Ġà¤Ĩà¤īà¤Łà¤ª":2459,"à¥Ī..........à¥¤\"":6727,"à¤µà¤°à¤¸":6769,"239":9745,"ĠLad":9302,"à¤¥Ê¼à¤µ":1307,"tisocial":8340,"Ġ9859131061":11136,"21":2911,"Ġà¤¹Ê¼":952,"à¤¹Ê¼à¤®":4875,"Ġà¤ıà¤µà¤Ĺ":7362,"Ý":153,"Ġà¤¦à¤ªà¤°":7113,"Ġà¤®à¤¥à¤°à¤Ĺ":9066,"à¤Ĩà¤¯Ê¼à¤¹":9222,"Ġconstruction":11173,"Ġà¤ıà¤ķÊ¼à¤°":8482,"ĠDistribution":11184,"Ġà¤ĸà¤°à¤®à¤¦":4896,"Ġà¤ħà¤ĩ":3950,"223":6060,"à¤¸à¤¨à¤¯":7922,"Ġà¤ħà¤¥à¤¸Ê¼":5801,"Ġà¤¥à¤ĸÊ¼à¤¨":7144,"Ġà¤īà¤ĩà¤¨":3043,"Ġhome":9171,"Ġà¤²à¤¹":1280,"Ġà¤īà¤¸à¤ĸ":3045,"Dent":4526,"Ġfevour":11036,"à¤¦à¤¤à¤Ĩà¤µ":5736,"Ġ32":2595,"ation":1022,"ĠGirls":11069,"erent":8262,"Ġà¤¸à¤¦":2981,"welf":6502,"inson":5256,"character":6289,"à¤¸à¤®à¤°":8159,"ĠIntel":5741,"à¤²Ê¼à¤¸à¤¨":4014,"Ġà¤ħà¤ªà¤Ł":5351,"Ġà¤Ĺà¤¦Ê¼":3849,"ran":3281,"rou":4628,"ĠĠĠĠĠĠĠĠĠĠĠĠĠĠĠĠĠĠĠĠĠĠĠĠĠĠĠĠĠĠĠĠĠĠĠĠĠĠĠĠĠĠĠĠĠĠĠĠĠĠĠĠĠĠĠĠĠĠĠĠ":2182,"à¤°Ê¼à¤ĩà¤¨":4021,"entity":8449,"à¤¤à¤¦à¤¨":7413,"à¤ķà¤²à¤®":8692,"Ġà¤¬à¤°Ê¼à¤²Ê¼":4052,":-":2660,"à¤Ĥà¥¤]":4065,"Ġà¤¬à¤°à¤¨à¤¬":6682,"à¤«à¤«":3890,"237":9744,"à¤«à¤¸Ê¼à¤¨à¤¨":7035,"451":9914,"Ġà¤ıà¤ĩà¤¸à¤Ĩà¤µ":9876,"Ġà¤ħà¤µ":1118,"657":6075,"S":50,"à¤Ĥ.........à¥¤":6628,"vocal":6489,"Ġà¤ĩà¤ľ":1359,"1994":3659,"à¤ıà¤°Ê¼à¤«":8113,"Ġ97":8864,"Ġà¤ľÊ¼à¤°":861,"Ġà¤¬à¤¥à¤²à¤¸":2876,"Ġà¤¸à¤¨à¤µ":8230,"à¤¿à¤Ĥ...............":10141,"Ġadjective":5760,"Ġingred":9316,"à¤¬Ê¼":836,"ĠButtons":10241,"à¤·à¤®":2145,"à¤ĸà¤¨à¤¨":1586,"ĠCopy":10321,"224":4491,"à¤ĩà¤ŁÊ¼à¤Ĩà¤µ":7239,"sal":6444,"Ġà¤®à¤£":1393,"wing":6498,"à¥ĭà¤Ĥ---'":9328,"Ġ467":8573,"loyed":9982,"à¤¾..à¥¤\"":5723,"Ġactivities":5961,"Ġà¤Ĺà¤¥à¤ľ":8597,"Ġà¤¹à¤°à¤¸":1037,"à¤µà¤ħà¤¨":6774,"à¥ģà¤ĥ":6788,"Accent":10706,"Ġhistorical":11051,"ĠHall":5551,"ĠAd":4212,"à¤¨à¤¸Ê¼à¤ľ":4976,"uà¤Ĩ":6475,"à¤¸à¤¨à¤Ĺ":6734,"Ġà¤ļà¤ĸ":8013,"à¤ķà¤ķà¤¨":4957,"tales":10806,"uffix":3755,"Ġroot":3665,"à¤Ńà¤®":5119,"Ġà¤Ĩà¤¦à¤¤à¤ĸ":7838,"à¤¯à¤¦Ê¼":7582,"ĠGarman":9297,"Ġà¤Ĩà¤¹Ê¼à¤®":5479,"JANASANYOG":11192,"Ġà¤ıà¤¸":390,"3":18,"mond":10367,"230":6051,"Ġ1997":3208,"Ġà¤¨à¤Łà¤°":3905,"à¤¬à¤°à¤Ĺ":4695,"Ġà¤¦Ê¼à¤¹":2745,"à¤°à¤Łà¤ľ":6600,"à¤Łà¤¹":7313,"à¤¦à¤¬à¤¦":6816,"Ė":210,"Ġti":3763,"62":4499,"Ġà¤§à¤Ļ":8044,"à¤Ł":313,"à¥ģà¤Ĥ;":4937,"ħ":227,"gical":6329,"à¤¨à¤®":720,"Ġà¤®à¤°à¤«":6884,"à¤Ĩà¤¸Ê¼à¤²":8764,"retire":8985,"ĠBird":11065,"Ą":192,"à¥Ī........":6718,"Ġpoectic":10976,"Ġà¤Ĺà¤¦Ê¼à¤¨":4271,"à¤ıà¤®à¤¨":5221,"à¤ĸÊ¼à¤ª":8250,"..............":1879,"dress":6303,"æ":162,"wingmirror":10811,"Ġgroups":11108,"à¥ĭà¥¤]":738,"ĠPharmacuticols":11188,"cer":6277,"à¤®à¤¹à¤°à¤ĸ":8156,"Ġà¤«à¤ľÊ¼à¤¨":1189,"!!":1500,"Ġcon":4249,"Ġadmin":4394,"Ġà¤ĩà¤¨à¤«":1076,"à¤ıà¤¨à¤ľà¤°à¤«":10572,"Ġà¤¬à¤¨à¤¬":6658,"Ġà¤¥Ê¼à¤Ĺ":4884,"Ġà¤ĹÊ¼à¤µ":1854,"Ġ-?":5029,"Ġà¤ķà¤¤Ê¼à¤¨":7481,"à¤¬":266,"à¤¿'à¥¤":5423,"ĠVerbal":9660,"Ġland":9592,"itte":5462,"à¤¨à¤¶":4667,"à¥°à¥":6547,"à¤Łà¤°à¤®":4946,"Ġà¤ħÊ¼à¤°":4940,"à¤Ĥ.......!":6632,"Ġà¤ªà¤ľÊ¼à¤ĸ":4400,"Ê¼à¤Łà¤ľ":7224,"Ġgreatness":5978,"Ġà¤ĸà¤²à¤®à¤¨":9781,"Ġspanish":10048,"Ġà¤ĸà¤°Ê¼":508,"ĠTWWF":10415,"ĠVOL":5686,"à¤²à¤Ĺ":860,"Ġà¤°à¤Ń":7243,"à¤Ĺà¤²à¤¬":1695,"à¤¸à¤°à¤ĸ":4733,"Ġpl":1607,"afe":4570,"Ġ.........à¥¤\"":5620,"à¤¯à¤¬":364,"Ġà¤°à¤¦Ê¼":3024,"à¤¾à¥¤...\"":7334,"Ġà¤®Ê¼à¤°":3866,"Ġà¤ķà¤¦à¤®":5004,"134":9518,"à¥ĭ+":2091,"Ġà¤«à¤¯à¤¸":7174,"social":6458,"ĠH":1024,"à¤¿~":4673,"à¤Ĩà¤²à¤«":7433,"à¤ĩà¤Ńà¤ĸ":8967,"04":4488,"gress":4594,"ty":2685,"Ġà¤¸à¤®à¤¤à¤ĸ":7565,"ĠDeclaration":10618,"à¤¬à¤¤à¤ľà¤°":9220,"ĠTin":8770,"Ġà¤ĩà¤īà¤°":1638,"Ġà¤Ĩà¤¦à¤¬à¤ĸ":1954,"ĠFol":5671,"195":8750,"à¥įâĢĮ..":8223,"ĠParallel":10420,"Ġà¤¡à¤®":4063,"213":6054,"Ġ94350":10228,"à¤¿...\"":6580,"Ġsheeps":10404,"Ġà¤ĸà¤¦":1790,"à¤¡à¤¸":1684,"ĠTool":3229,"ĠAim":8703,"à¤°à¤¯à¤¡à¤¨":8845,"Ġà¤Ĩà¤¯à¤Ļ":3503,"ĠHabildar":3234,"à¤¥à¤¨à¤ľ":6961,"à¤¨à¤ľÊ¼à¤ĸ":7678,"Ġtech":8879,"Ġà¤Ĺà¤°à¤¥":6845,"Ġcomic":9856,"E":36,"Ġà¤Ĩà¤µÊ¼":8495,"à¤¯à¤ĸà¤¥":7532,"elov":8724,"Ġphot":8835,"Ġà¤ħà¤§à¤®":10001,"sense":10799,"Ġà¤ļ":471,"à¤°à¤ĹÊ¼à¤®":9164,"Ġà¤Ĩà¤¯à¤ľ":3893,"à¤¦":277,"à¤¸à¤µ":2961,"Ġà¤¤à¤¦à¤¨":4108,"Ġà¤ªà¤Ł":5046,"Ġà¤ħà¤°à¤¬":2035,"Ġ23":1311,"Ġà¤¨à¤ĸÊ¼à¤°à¤¨":2648,"AC":2662,"à¤ħà¤²à¤ķ":4078,"à¤¤à¤ĸ":763,"Ġà¤Ĩà¤ª":1087,"à¤Ĺà¤¬":2018,"Ġ75":2617,"di":2920,"1983":4365,"à¤¦à¤¦à¤ĸ":4129,"TWW":4562,"à¥ĭà¤Ĥ-":535,"COM":6122,"à¥Īà¥¤...":7521,"Ġà¤¸à¤®à¤¥Ê¼":7563,"itam":8899,"Ġitself":10164,"ĠAssam":4416,"Ġanaptysisi":11133,"...,":8030,"ont":2833,"Ġà¤ľà¤¦":1368,"Ġà¤¬à¤ļ":6664,"Ġà¤²à¤¨à¤ľ":7201,"Ġà¤ħà¤¸à¤¦":5332,"incer":8241,"Ġ1980":2308,"haract":2452,"acinated":9275,"à¥įâĢĮ":565,"à¤¤à¤ķ":1943,"Ġ-à¥¤":4016,"ew":6305,"à¤¸à¤¨à¤®":5156,"Ġà¤¦Ê¼à¤ľ":4866,"à¤®à¤ĸÊ¼à¤¨":7976,"Ġà¤Ĩà¤ĩà¤«":2283,"Ġhonoured":11054,"ġ":221,"el":793,"à¥ĭà¥¤à¥¤":1625,"m":76,"à¤Ĺà¤²à¤¨":2360,"ĠScott":10013,"à¤¥à¤¸":1856,"Ġà¤ľà¤²à¤¸":3359,"Rab":4554,"operation":9716,"1968":5740,"Ġà¤ħà¤ľà¤¨":1959,"ĠStory":9791,"ĠYouth":10108,"à¤ķà¤¶":1676,"Ġà¤Ĩà¤ĩà¤¬à¤²à¤¨":10213,"à¤īà¤¸à¤ĸ":5022,"$":3,"à¥ĭà¤Ĥ)":1859,"à¤ıà¤ķà¤¦à¤®":10212,"à¤«à¤¬à¤ľ":2995,"Ġà¥¤":539,"Dub":6131,"à¤²à¤¥à¤°à¤«":4164,"Ġà¤ĹÊ¼à¤Ĺ":1820,"ĠHear":9207,"à¤ĸà¤Ĺ":6752,"à¤¥Ê¼à¤Ļ":7672,"ĠBask":9281,"à¤¦à¤ĹÊ¼":8379,"Ġà¤Ńà¤Ĺà¤¦":4072,"ysis":6508,"Ġà¤ħà¤¨à¤¸":600,"Ġrend":6542,"Ġà¤Ĺà¤°à¤®à¤ľ":9221,"System":10501,"Ġ?\"..............":7751,"allel":5727,"à¤²à¤ķÊ¼à¤Ń":9157,"à¤¾.........à¥¤\"":6551,"ï»¿":1094,"à¤¨à¤ķÊ¼à¤ĸ":9771,"à¥¤.........":6829,"Ġà¤Ĩà¤ªà¤¤":7049,"Ġstudy":9818,"ĠProf":5785,"Ġà¤¥à¤°à¤ķ":9263,"à¤°à¤¸à¤¨à¤¬":7607,"ĠISC":8886,"à¤ļà¤¨à¤ĸ":3488,"yahoo":3760,"Ġdramaticall":10341,"gers":6328,"ĠSEBA":8657,"an":658,"Ġà¤¬à¤§":6665,"187":9584,"à¤īà¤¬Ê¼à¤¨":5609,"compund":10362,"Ġ1854":5546,"Ġ....":611,"à¤°Ê¼à¤µ":1682,"iot":6346,"à¤¥à¤Ĺà¤¨":6966,"à¤¯à¤¥Ê¼à¤¸":8854,"624":6073,"Ġà¤°à¤²":2031,"Ġà¤Łà¤®à¤¨":5096,"Ġà¤ľÊ¼à¤ĸ":1573,"à¤¡à¤¸à¤ª":7629,"Ġ6":879,"Ġà¤¡à¤¥":7799,"à¤¦à¤¦à¤¨":2714,"Ġà¤ĩà¤¨à¤«à¤°":4307,"ĠPARIS":10965,"Ġà¤«Ê¼à¤ľ":7188,"Ġà¤¦à¤¦Ê¼":7105,"Ġà¤ħà¤ĺ":7301,"pl":2681,"à¤§Ê¼":8076,"Ġtru":8875,"à¤¯à¤ĸÊ¼à¤Ĺ":4334,"Ġcust":8921,"Ġ....\"à¥¤":8328,"ĠTHe":8784,"Ġà¤Ĩà¤¨à¤°à¤¨":7948,"Ġà¤¥à¤ª":4878,"à¥ģà¥¤''":8532,"ĠLabour":11076,"à¤¥à¤®":2727,"iev":6348,"ware":10809,"à¤¯à¤µ":2340,"Ġ71":8819,"à¤°à¤®Ê¼à¤ľ":3448,"Ġà¤Ĩà¤°Ê¼à¤¥":7290,"Ġà¤ĩà¤®à¤«":3440,"à¤²à¤ķ":1002,"à¤Ĩà¤ļ":4993,"Ġà¤°à¤¡à¤°":7252,"à¤ķà¤Ĺà¤¨":7345,"Ġà¤¥à¤¬à¤¸":1481,"Ġà¤Ĺà¤²à¤¥":5245,"Ġà¤¥à¤¬à¤¸Ê¼":4883,"à¤ĩà¤¸à¤¨à¤¨":7969,"à¤°à¤«":426,"Ġkings":4423,"ĠTri":8772,"ĠTragic":10095,"à¤ĩà¤®à¤¨":3939,"à¤°à¤«Ê¼à¤¬":7907,"à¤¦Ê¼à¤²à¤¨à¤ĸ":10146,"à¤«à¤¤":3364,"Ġà¤«":298,"à¤¸à¤°à¤²":3823,"ĠAnton":10224,"Neighborhood":10742,"ĠApple":10944,"Ġshow":10153,"Ġà¤ıà¤¨à¤ľà¤°à¤¨":5757,"ationà¤Ĩ":9197,"à¤®Ê¼à¤¨":2971,"ray":8618,"à¤īà¤®à¤«":7506,"à¤®à¤īà¤ĩà¤Ĺ":1419,"Ġà¤ĸà¤°à¤¸à¤ĸ":9243,"Ġmean":1899,"0398":9907,"à¤¨à¤Ń":6558,"à¤¦Ê¼à¤²Ê¼":8133,"ople":2886,"à¥ģà¤Ĥ":308,"à¤ħà¤¥":3469,"Clo":6121,"Ġ196":1313,"à¥ģ.........":6785,"Ġà¤īà¤¨à¤¬":7456,"à¤ķà¤¤":974,"ahar":4569,"Ġà¤ªà¤²":1195,"Ġà¤¸à¤®à¤¬à¤¦":4023,"Ġnarra":4305,"à¤¨à¤¥à¤¨":5099,"onour":5270,"à¤¯à¤®à¤£":8062,"ĠEpilogou":10636,"à¤°Ê¼à¤¬à¤¸":7550,"à¤®à¤¸à¤¨":4073,"Ġexecution":10253,"à¤ĸà¤°Ê¼à¤ĸ":3830,"à¤°à¤ķà¤ªà¤ĸ":9362,"Ġà¤Ĺà¤®à¤ľÊ¼à¤®":10837,"comp":3720,"Ġd":971,"à¤Ĺà¤¥Ê¼":897,"Ġmeterials":11000,"?),":6099,"Ġà¤¸à¤Ĺ":3853,"Ġà¤ľà¤°Ê¼à¤ĸ":1857,"Ġboundary":11018,"Ġ***********":5852,"Ġà¤ĸà¤®à¤ľ":2119,"aff":6260,"à¤¬à¤¤à¤ľ":9219,"à¤²à¤¯à¤ļ":9679,"Ep":4529,"Ġà¤¦à¤īà¤¸":7110,"ĠHon":9199,"Ġà¤ıà¤°à¤¸Ê¼à¤¨":9607,"à¤¿...............à¥¤":10288,"à¤¸à¤®à¤¸":2963,"Ġà¤¹à¤²à¤¦":4832,"Ġmadieval":11183,"à¤®à¤¹à¤®à¤¥":8158,"Ġà¤ĸà¤«Ê¼":1418,"à¥ģ\",":6786,"field":4591,"Positive":4457,"à¤ıà¤ŃÊ¼à¤¨":8114,"ĠLaurel":11079,"à¤¤à¤µà¤ķ":8969,"Ġà¤®à¤¨à¤°à¤¨":3086,"Ġend":3765,"ä":160,"à¤¯Ê¼":1318,"à¤ĩà¤ī":1726,"In":2322,"Ġà¤Ĩà¤®":627,"Ġà¤¬à¤°à¤¬à¤°":2887,"Ġà¤ĸà¤¬à¤°à¤ĸ":4266,"à¤¬à¤µ":4691,"à¤¬à¤ĩà¤¬":6644,"ay":1268,"ĠĠĠĠĠĠĠĠĠĠĠĠĠĠĠĠĠĠĠĠĠĠĠĠĠĠĠĠĠĠĠĠĠĠĠĠĠĠĠĠĠĠĠĠĠĠĠĠĠĠĠĠĠĠĠĠĠĠĠĠĠĠĠ":4285,"Ġà¤Ĩà¤¬Ê¼à¤¹":2849,"à¤²à¤Ł":983,"Ġà¤¬à¤°Ê¼à¤¯":7695,"à¤īà¤¸à¤²Ê¼":8527,"à¤¨à¤¡à¤°à¤Ĩ":10035,"Labial":10492,"à¤¹à¤¯":1930,"à¥ĭ:":1772,"Ġà¤Ĺà¤¥Ê¼à¤Ĩ":4101,"à¥Ī.........à¥¤\"":6726,"à¤¥à¤²à¤ªà¤¦":8791,"Ġà¥¤''":4125,"adjective":9764,"Ġà¤¸à¤Ń":1159,"Ġà¤ĵà¤¨":1597,"ost":2085,"à¤¬à¤¥":472,"tiv":3522,"à¤ŃÊ¼à¤¨":7830,"à¤Ĥ.........!\"":10535,"à¤·à¤£":2274,"à¤¸à¤¯à¤«":4735,"Ġà¤¹Ê¼à¤°":2366,"Ġà¤ħà¤Łà¤¨":4941,"à¤µà¤¸à¤¬à¤¬":7790,"à¤¯à¤¦à¤µ":7581,"ĠHenry":3616,"Ġwhat":4411,"Ę":212,"ĠSystematization":10354,"Ġà¤ĩà¤ļà¤¨à¤¨":3441,"à¤£à¤Ĺ":7896,"ĠFolder":10643,".'":6033,"à¤ĩà¤ªà¤¨":2763,"pe":6419,"Ġ?.......":7405,"à¤²à¤Ń":2100,"plural":10121,"à¤®à¤ĺà¤°à¤ĸ":10548,"à¤ĩà¤¹":1675,"Ġway":4239,"Ġà¤°à¤¹à¤¸":3168,"à¤ķà¤¬":1730,"à¤Ĩà¤Ĺà¤¦":3994,"Ġà¤²à¤¤":3389,"Ġà¤¹à¤¥":4826,"Ġ..............à¥¤":10149,"Ġsent":8669,"ss":1997,"18":1422,"ith":2475,"Ġà¤ĸà¤¬à¤ľÊ¼à¤¬à¤¨":9840,"à¤¿...":2947,"Ġà¤Ĩà¤®à¤Ł":5291,"umers":9918,"Ġnightmare":10629,"Ġà¤īà¤°à¤«":3044,"Ġà¤¹à¤®à¤¸à¤¨":3639,"ĠWed":4215,"Sound":4559,"This":10506,"dit":4580,"Ġà¤ħà¤ľà¤¯à¤¹":5163,"Ġà¤ĸà¤°Ê¼à¤¥":4118,"Ġà¤¦à¤ĸà¤¨":941,"Ġà¤Ĩà¤¯à¤Ĺà¤¨":4439,"Super":6228,"Ġà¤Ĺà¤ľÊ¼à¤µ":6849,"à¤Ĩ":324,"à¤ĸÊ¼à¤ĸ":3121,"à¤°à¤¹à¤°à¤Ĺ":4339,"à¥ĭ....à¥¤":9805,"à¥ĭ..........................à¥¤\"":10534,"à¤¸à¤µà¤«":6738,"Ġà¤¨Ê¼à¤¬à¤¥":5170,"Wesssex":10774,"ĠLady":11077,"Ġà¤ļà¤ķ":2820,"Ġà¤Ĺà¤¡à¤ľ":6855,"à¤Ĺà¤²à¤¦":2506,"à¤²à¤ķà¤®à¤²":1894,"Ġhtt":3611,"à¤ıà¤ĩà¤¡":8110,"Ġà¤¸à¤¬à¤®à¤ĸ":9196,"ĠCompeti":10088,"ĠKacharis":10114,"ĠCODE":10217,"Ġà¤¬à¤°à¤Ĺà¤¯":1275,"Ĥ":224,"à¤¨à¤°à¤¨":6557,"à¤¯à¤¹Ê¼à¤°à¤¨":8052,"à¤ļà¤¤à¤¨":5201,"Ġantisocial":9956,"Necessity":10745,"Ġà¤®à¤®à¤Ĩ":6896,"Ġà¤°Ê¼à¤¦à¤¨":3551,"(â":6010,"à¤Ľà¤®":2434,"Ġproposses":9933,"à¤¨à¤ĹÊ¼à¤¬":7775,"à¤¬à¤¹à¤°":3800,"ĠDOS":3606,"Ġà¤Ĩà¤²à¤¨à¤¨":7686,"Pilgrim":10678,"à¥Īà¥¤ï»¿":5990,"nique":10793,"à¤ĸà¤°à¤¨":1664,"à¤¨à¤¬":345,"Ġà¤®à¤¦à¤¦à¤¨":3163,"à¤ĩà¤¨à¤¥":5080,"Ġà¤®à¤°":1549,"ĠFORMAT":5977,"Ġà¤¶":470,"à¤¦à¤²à¤¨":1054,"elegram":2653,"KCO":4536,"Ġdemand":11024,"Ġcustoms":10995,"à¤¿":262,"Ġà¤ıà¤īà¤¸":3976,"à¤®à¤Ĺà¤¨":6796,"à¤°à¤¦à¤¨":5117,"ĠGloxo":10630,"Ġhere":4298}