{"▁दालायाव":12525,"▁प्रदेशनि":15213,"▁जोथ्रोद":13059,"▁किरिरिं":13805,"▁आसामजों":18609,"▁बिद्याल":29225,"फैबायमोन।":29148,"▁बिहाव,":26952,"▁दिउ":5598,"▁सोंनायसै-":18256,"रिनि":3229,"ैलाय":9611,"▁मार्च":17558,"▁अरजों":18271,"▁आनजाद":1872,"फुर,":11438,"▁सानथामसो":16923,"▁'हाब":21081,"▁दुखु,":21528,"▁जोल्दा":25960,"▁बावदिया'":10051,"▁रेस'":23376,"ुल":281,"▁हारि":550,"▁जथुम्":6202,"लानानै":6662,"▁सम्बारु":11525,"थʼ,":10354,"ुगाव":9736,"▁बुंजायो।":5043,"▁गान्नाय-जोम":10107,"न्दर":3417,"▁आरसा":9154,"▁(In":17859,"▁1977":19619,"▁खोनाय":11793,"▁47":22296,"▁नर्थ":15519,"▁मुंदांखा":3188,"▁सारिनि":5694,"▁मोना":1567,"▁सोमजिगोन।":27822,"▁नोंथांजों":11265,"▁गोरो":21070,"▁मि-जुनाद":12926,"▁बेसेनगोनां":22712,"▁मन्जुलाया":15243,"खांगासिनो":24233,"▁बोखारनो":29147,"थारनो":11120,"▁सिफ्ला":17707,"ङो]":11124,"▁नुदों":6490,"▁थुनलाया":9836,"▁बेफोरनो":9305,"▁रांग":14023,"▁आइन":5468,"/3":24119,"▁समष्टिनि":24045,"फ्रि,":23410,"▁गिसं":23793,"▁जुजिनो":16797,"▁खेंनो":16614,"▁जोख्लोबनानै":17084,"▁हाबफैब्ला":27338,"▁होननानैबो":8811,"▁दायनिगिरिफोरखौ":11567,"▁नाजादोंमोन":7416,"हरनानै":4254,"▁बाल":2616,"▁घन्टा":4399,"▁हाबफैदों।":22057,"फ्लायो":22133,"▁हरजानाय":18021,"▁खाफालाव,":28787,"▁लामायाव":1800,"▁रादाबखौ":8538,"▁एसेब्लाबो":12029,"▁दिनैबा":15984,"सियान":20489,"▁सानफ्लां":11040,"था,":5309,"डʼ":3866,"12":20066,"▁बिदानि":6934,"▁एष्ट्राग":7801,"▁आस्":15501,"▁डिजाइन":10598,"▁दुव":16013,"▁गाबफ्राम":21201,"▁मुंमाया":10419,"▁सुंदʼ":1323,"▁रुखु":16197,"▁हसपिटाल":19831,"▁बडʼ":1824,"▁फैबाय।":2985,"▁नंमारा":27112,"▁हरबिला":4483,"▁देगार":3721,"▁फिसानो":25489,"▁बबेथिं":13228,"▁नेहाथारिया":29035,"▁खामफा":21297,"▁(उ":12944,"ाला,":14082,"▁मानसिफोर":5060,"▁मेलेमजिबि":14979,"तान":20175,"▁खौरां,":14594,"सेरा":15569,"▁गोसोखौबो":25411,"▁हरबाव":9227,"▁लिरना":12045,"▁लाहार":3341,"▁कला":12892,"हा,":11937,"▁नोंगुम":19991,"बादिसो":26077,"▁नन्दʼनि":19529,"0/0":20065,"▁साख्रिया":27966,"▁लक्ष्म":19464,"खांबाय":3888,"▁शिबसाग":23769,"बाना":11703,"▁रʼ":1799,"▁आथिङा":7661,"▁1":484,"▁गाहाइनि":21287,"▁सा":346,"जानायनि":4371,"▁नैथियाव":10530,"▁थैया।":24665,"ाखाङो":26411,"▁गिदोंमोन।":17961,"▁गामि":926,"▁मुंखौ":3098,"ोमोनब्ला":4384,"▁उरां-फार":11614,"▁नेरसोन।":19129,"▁नागिरहैनो":26409,"खुं":7818,"ment":15365,"▁बारहुंखा":7783,"▁गैलिया":4275,"▁पाल":6734,"ार्का":25945,"▁संस्कृत":9038,"▁गुल":17548,"▁गुस्लायनाय":8129,"▁नोजोरखौ":10498,"▁जुवारि":26568,"फारसे":4395,"▁हिन्जावफोरा":6790,"▁हमख्र":8760,"▁संजिर":26696,"स्थाया":21369,"▁ओनसोलफोराव":8117,"▁दोल":14661,"यलें":24383,"▁गुमुरखौ":10088,"▁बिमायंनि":28750,"दिहुन":20496,"▁महाज":18434,"▁दिन":418,"▁लोमसाव":4989,"▁IBM":9463,"▁नाङालै":29176,"▁जायखार":11057,"▁एम्बुखौ":17135,"▁सात":5443,"▁जांख्रिथाइयाव":13648,"▁साला":1739,"▁सोरनिफ्राय":14214,"▁आबारी":18218,"-D":7807,"▁बुंहरदों-":27963,"▁बन्दनि":28294,"▁सावननि":26196,"▁नʼवाव":1179,"▁हांखोफोरनि":8406,"▁लाफैदों":24940,"▁ओंखारना":18161,"▁फोजानानै":14310,"▁गिदिर।":27701,"▁बेल":983,"▁सुबुङारि":12473,"▁गावसोरखौ":22491,"▁थुनलाइया":18629,"▁बङाइगावनि":23479,"▁रांफोर":26219,"▁लानांगोन":12330,"▁मोजाङैनो":6177,"▁बिहासो":27553,"▁बियो":313,"▁फैनायसै।":12932,"ार्कनि":11163,"▁एरखʼ":16250,"▁आसामावबो":27011,"▁गेव":2084,"ाइस":5035,"▁ओंखाम-इंख्रि":13253,"▁जिजि-ज":25444,"▁जाहाजा":26479,"▁मालायखौ":10542,"▁हमगोन":21098,"▁\"हाजʼव":22747,"दुत":12376,"▁खन्थाइयाव":22405,"▁उर्मि":23802,"पाइ":10915,"▁बिथिंखौ":7108,"▁एस-20/0":24067,"लांदों-":25806,"▁दाबु":11775,"▁हाबा-खेर":18149,"▁फरायनाय":3527,"▁सि-जोमफोरखौ":29786,"▁दखʼना":23661,"▁अखाफोराव":9962,"▁नान":15512,"ो।\"":2567,"▁चा":8377,"नांगौमोन":18234,"ङाखिसै":20149,"▁मुफुर":18065,"▁सोमखे":7594,"▁सोङो।":3666,"जायावनो":24258,"▁दिनैसो":5461,"▁बाघ":25456,"▁जाब्रथायजों":23607,"बोबाय,":24750,"▁दैदेनदोंमोन।":27688,"▁मेराय":28822,"▁बाध्य":20884,"▁No.A":23717,"▁फोनांजाबनि":29768,"▁खालामहरो।":20680,"▁खोथाफोरखौ":18702,"▁सुशान्तवा":5125,"▁थांखि।":14659,"▁सालायनायनि":29054,"▁अलसिया":9924,"▁फैसानि":14163,"\\":58,"▁बेगें":14871,"▁गानहोयो।":27122,"▁माहारियाव":8933,"▁धम":8380,"▁सिमां।":28005,"▁\"गाबोन":23936,"ारामोन":25849,"▁द्‌लाम":10151,"▁फागाजों":27441,"जाता,":20891,"▁सियालफोरा":9512,"▁दोन्नानै":6772,"▁हाबलांनाय":17822,"्रिं,":24984,"▁अफिसनिफ्राय":11377,"▁नांलायनाय":11205,"▁खफा":9128,"▁थांनांगौ":9191,"▁निं":10439,"▁एंगारनानै":23800,"▁बिगाब":27293,"▁हेलारामखौ":29062,"▁थुंग्री":29316,"हाबनाय":6812,"▁आखुफोर":21443,"▁नुहरनो":28323,"▁सोराङाव":10816,"▁ल्दामैनो":19921,"▁गेलेगोन":27425,"▁नेम-खान्थि":8519,"▁दोनखुम":10427,"▁दायनिगिर":14954,"खाया,":28366,"जाबो":9061,"▁मिनिथाव":11213,"▁ददेरेजों":21963,"▁जोहोलावफोर":16456,"▁मावफुंनाय":22863,"▁बुजिना":27800,"▁थ्रोब":4815,"▁बिब्दिब्लाथʼ":17048,"▁हान्थि":9635,"▁लेथें":26666,"▁सेन्देलखौ":15089,"▁बाला":2700,"▁किटसे":5243,"▁जाबाय":464,"▁बुजायनानै":19438,"नायनिफ्राय":2497,"▁W":2129,"▁फामि":20451,"▁सुन्द":20993,"▁नाफाम":25906,"...":721,"▁हान":1838,"सिबो":1058,"फोरबादि":8677,"▁सुथार":4172,"▁बारसोमदोंमोन।":29542,"▁रेगां":16343,"▁आंनिथिं":15920,"▁सोरजिथायनि":27400,"▁मोनसिगोन":24834,"▁खामानिनि":5338,"टिया":9593,"▁गले":2757,"▁जानाय":455,"▁बेफोराव":16168,"▁रैमोना":16296,"▁बायदिनो":6131,"▁गलादार":19283,"ावखौ":4326,"सन्नाय":20246,"नाय,":720,"तन":15399,"▁रमान":14025,"▁रेकर्ड":9027,"▁खालानि":22488,"▁लोंनांगौ":26539,"▁सिखावै":9444,"19":9566,"▁सानदों-":20616,"टिसि":16236,"▁थाक":13041,"▁दिन्थियि":21406,"थाव।":5924,"▁जʼ।\"":26943,"थिखʼ":9146,"▁फोथाया":12010,"होना":17508,"▁बुंहरो-":15209,"▁गैलियामोन।":23195,"▁सुरथ":8040,"▁बादलाबो":27874,"▁नलबारि":23637,"▁धा":21577,"▁गोजावबो":25847,"न्दासाव":18467,"▁थाहैया":23133,"लांनानै":2953,"ानाव":742,"ालि,":4629,"▁दुमा":11173,"▁थागोन।":3738,"▁दिम":15952,"▁बिसि-फिसा,":29326,"सेयावनो":11808,"गथʼ":9059,"▁आंगाय":24882,"▁बान्था":2399,"▁लों":704,"का":803,"id":5149,"▁जौगानायनि":16552,"▁\"बेसे":28137,"जिब":25238,"ुब,":17764,"▁होमब्लालाय":14837,"▁सिख्लाखौ।":27133,"▁गबर":20327,"▁देबोर":25687,"▁सालिस":2282,"▁संनो-खावनो":23399,"▁फोथायनानै":22103,"्सोन":2013,"▁मिथिया,":14841,"लाफि":9113,"▁बिहाव-बि":23524,"▁बेबायदि":2902,"▁एरै,":26828,"ाद्राय":4712,"▁मणि":8200,"▁आदै।\"":19313,"▁फोरनि":9764,"▁(m":20783,"▁बोरैथो":8429,"▁\"नै,":19456,"▁बैयाव":14367,"ामानो":7861,"▁थागिबि":3693,"▁थाखोमानानै":10103,"▁लोब्ला":18920,"▁सानबोलावरि":9533,"▁अननायाव":10377,"▁मिनिखैर":29754,"ाद्र":20686,"▁आलि,":29561,"▁मुगैया":12233,"▁बेखौ।":25941,"▁सिखारबाय।":10667,"▁थान":1212,"▁कटन":14114,"rel":20103,"▁एसेग्राब":5325,"▁गोल्ल":24758,"▁देरनायनि":26515,"▁दाजाबदाफोरा":19039,"▁गायग्रा":18896,"▁थुदो":8427,"▁बाजारनि":12104,"▁सुखौ":15871,"▁हे--":21244,"▁टेबो":16498,"▁सोदोबजों":6788,"सिसा":20487,"्रुब":6455,"▁बेखाय":21611,"▁होगोन":3223,"▁जगदार":29256,"▁जुजाइनि":12143,"▁\"बेफोरखौ":19048,"▁गुबु":20967,"▁छि:":16989,"▁नामा।":11471,"▁हालि":6246,"▁निक":26156,"▁हाथाइनिफ्राय":28551,"▁पजिसन":25339,"▁हमो।":3430,"▁रोङो।":10414,"▁आरांगानि":17171,"▁मावजाथ":20983,"निखायनो":24529,"▁हगारनाय":11359,"▁हामगोन।":26873,"पेन":8173,"न्दा":768,"▁नयाराम":20391,"▁सानजौफुनि":11572,"नार्स":24321,"▁अन्जिमाखौ":29985,"▁दिग्रि":25857,"्रानि":2336,"▁सौफैबाय":22910,"▁नरेननि":22559,"फाख":12721,"▁(स":4009,"खम":2330,"▁गिदिंना":27756,"▁फालिनो":16780,"इना":20121,"▁जोंरू":6602,"▁गावलाय":17786,"▁थान्दा":17626,"▁बोखावनो":16812,"▁जासिगोन":8283,"▁होफैयो":13437,"म्म":10386,"-माव":12177,"▁सुजुग्राखौ":17036,"▁खिन्थाफैयो":28620,"▁जेखि":8718,"ाथां":15598,"▁जाथाइनि":2715,"▁थांनायनि":5185,"▁नोंसिनि":5582,"▁जाजोब्बाय।":22942,"जोम":3140,"▁बनʼवा":29071,"▁हानायमोनब्ला":26625,"▁सेभेज":25583,"▁बिबाजै":6870,"थाद":10190,"▁दार":3213,"▁हादरनि।":28484,"▁\"दाबो":29014,"▁सानथ्रि":4928,"▁मोननायजों":17680,"▁बेयो,":18612,"▁गांथाम":18530,"▁जाजोबबाय।":11521,"▁बुङो--":11246,"▁him":19382,"मानिखौ":21393,"▁गस्वामीया":17259,"▁गोग्लैदों":26979,"▁थैयाब्ला":26154,"▁बामोननि":16990,"▁फानहै":27279,"ङानि":24241,"ाथी,":9151,"▁मारकेट":27655,"ाखʼ":8241,"▁(बा)":25327,"▁गाइखेराव":8070,"ता":1773,"▁इन्दिरा":28304,"ायनानै":5560,"ाबेस":24676,"्रानिथिं":28370,"▁गावहाबो":17789,"▁हाथारा।":16941,"▁सावख्लि":12073,"▁सोंदोंमोन":14402,"▁हायासै":25936,"▁87":28312,"▁गोमोयो":9418,"▁धोरोमाव":13389,"्द्रि":25911,"▁बिथिं,":27962,"▁गोबाव":1128,"▁डा:":12288,"▁रुजुनायाव":23001,"▁दाखथार":22120,"बस्ट":24348,"मेन्टʼ":28895,"▁माइनावखौ":29420,"बारनि":9848,"▁फोथैनो":12623,"्र":178,"▁कर्टाव":13728,"▁merc":28659,"-दुब":12178,"स्रोद":25989,"▁खारस्लिउ":14421,"▁s":2152,"▁गारो":21313,"▁गोमोयो।":16595,"ायाखिसै।":17700,"▁बोख्लायनानै":22846,"▁दाउ-अ":22153,"▁जादेर":28591,"▁बयखौबो":4758,"▁अम":1516,"▁लाजिया,":21999,"▁\"थांदो।\"":29824,"▁खांख्ला":16540,"▁जिउ,":21339,"▁सेनो":8312,"raw":28129,"▁महार":1149,"ज्ला":5014,"▁फेंखा":16360,"▁जालांगोन":13519,"▁हाउस":11536,"▁'जोंनि":21084,"▁आथिम":16315,"फिउ":26611,"▁प्रफुल्ल":10875,"▁दुब्लियाव":7109,"ou":1706,"▁खखाब":20445,"-हिन्जाव":12216,"▁जाजानाय":9632,"▁बायदिखौ":15966,"▁थोर":2408,"बावबाय":6757,"▁हुखा":21841,"▁नन्दʼवा":16981,"▁सानजौ":4005,"▁लांगोनानिफ्राय":10746,"फोरखौलʼ":8736,"▁धुप":9528,"खानो":9582,"▁मोसाहारिया":15037,"फ":127,"▁हमै":15924,"▁में":2988,"▁मावखाङो।":20984,"▁खालामनानैनो":21516,"▁साजायनाय":10753,"▁मोन्नैबो":15002,"▁थाइला":2475,"▁सोदोब।":6787,"यो।":369,"▁रुजुननाय":29478,"▁खनना":26615,"ेश":942,"▁बुंफैयो":9698,"▁अनखांनाय":21064,"▁अरलु":26255,"ालासे":11848,"▁रुबुं":29342,"▁मिनिनानै":4102,"▁सानथावै":25009,"ख्रं":2806,"जि-ज":25241,"▁दाफ":21010,"▁नंखायखौनो":13502,"याब":15423,"▁सुस्मि":21000,"▁बिबादिखौ":29818,"-लि":24103,"▁दरबासिखौ":7455,"▁बैरागि":17240,"▁ओन्सोलाव":19872,"-दुद्रु":26786,")।":2257,"▁खौरां":979,"-बादाव":7772,"▁गइ":24493,"बालाय":10196,"आखैमोन।":29771,"▁बुंबावो":5436,"▁अन्नाया":9374,"▁बिफां,":6356,"▁गंग्ल":10090,"▁रानखां":19009,"▁हालिव":13747,"▁बखिया":24461,"▁बुंबावो।":12904,"▁नʼखर,":28161,"▁B":4142,"-बाहागि":9885,"▁हाथा":16352,"▁खुनुरोखोमै":19868,"▁ग्री":3993,"ब्लिद":19067,"▁बिहामजो।":22591,"▁गिदिद।":22801,"▁नारबाय।":27543,"थ्रोत":22555,"▁खांदों":13397,"हि:":13559,"▁एबसुनि":5253,"▁नोमाय":22606,"▁नांदेर":18264,"▁मादैया":16547,"▁सनखां":28898,"▁गयो":10216,"ुलुं":831,"▁माइथायावनो":22614,"▁दुं":1730,"▁थिखिनि":7939,"दोब":13891,"▁खेबजुं":27143,"▁मिथिस्लाबा":18090,"ंग":296,"थाबाय":20179,"फिनबाय।":2810,"▁नागाजों":18169,"▁जिल्ला:":28417,"▁लोदो":24773,"▁नंला":7364,"▁गल्ड":20335,"▁एउ":14077,"▁'न":7000,"डʼ)":29094,"▁फिनबाय":13286,"▁नर्ट":22557,"▁सामʼ":18854,"▁बेख":740,"़,":20259,"फिनबाय--":26205,"▁सिगांआव":4193,"▁लाखिनांगौ":27971,"▁खारलां":5752,"▁बेनोदि":11301,"▁फिर":4917,"▁किक":16633,"▁थानोसै":14567,"▁देखोन":21042,"▁बिदिन्थि":5075,"ेलानि":16055,"जिस":4900,"▁एवनो":19262,"▁थिंनि":25864,"▁महिलारीया":19797,"कनि":1863,"▁खारखुम":26311,"▁मोसा,":13413,"▁रोंलिया":27511,"▁जाहाजखौ":23645,"▁हाला।":29614,"▁सिंगि":24905,"▁बेन्दोंनि":29604,"▁बेर":764,"▁नुथायनि":17897,"▁खरʼसिम":18507,"गिदि":9326,"▁गोसोजों":2299,"▁people":17276,"▁बादिनि":18009,"▁जफै":20355,"▁हांख्राइ":21359,"▁बोफ्लोम":23994,"ागार":24873,"▁बिमा-बिफाफोरा":23044,"▁गसाइया":7443,"▁गाला":6672,"▁गुन्दाया":3003,"▁इसादि":8721,"▁नुजादों।":18936,"▁In":8524,"▁\"उन्दु":19790,"▁इराग्दाउ":19909,"▁बानाननि":26832,"▁ब्लाउस,":16932,"▁आदैयाव":28759,"▁मानसि।":3478,"▁नायजाबफोरा":13304,"▁थानायमोनब्ला":25854,"▁सोलिनो":9434,"फ्लांगारो":27013,"येटार":22303,"▁जा।":11073,"▁मावरिजा।":13718,"▁जाफुंनानै":28061,"▁गोराज":18048,"▁सौधुर":21811,"▁हटेल":9110,"▁थांज्रेम":20719,"▁साजों":4596,"▁खुदै":6319,"मारोब्ला":16419,"▁नुजाफैयो":22365,"▁जग्र":17565,"▁आफगानिस्त":23943,"▁सेरफांग":15295,"▁जैबोर,":28834,"▁मुगै":2112,"ः":93,"वाखै।":11715,"▁सलʼमाखौनो":22068,"▁गदायजों":29309,"▁बंग":8624,"▁फाखʼनाव":10053,"▁रेस":5569,"मी":15418,"▁साखोन":13362,"▁हाबहै":5586,"▁थुनलाइजों":21872,"▁होसोनाय":20781,"▁मैया":2120,"▁अलिम्पिक":9029,"ाबालाय":24674,"▁दाखुरा":27456,"▁अलʼकखौ":4563,"▁बुङाखै।":8944,"▁जोगोन":10223,"▁मोन्नायसै।":26393,"▁सिखौ":8246,"▁लाइजामनि":8890,"▁दखʼरा":19809,"▁बिरगो":27416,"▁बेंखन":10787,"▁सिख्ला\"":27132,"▁कालिचरण":23694,"▁गयारीनि":27570,"▁खोन":687,"▁Sc":11441,"▁\"ला":8695,"फैदोंमोन।":8748,"▁रुजुननानै":15136,"▁खोन्दोआव":19475,"st":2871,"▁नोंसिनाव":14087,"▁(ph":25324,"ग्रा।":6132,"▁रं":706,"▁दिन्थिग्रा।":28378,"▁बुंना":4345,"▁दैखरनि":19655,"होन":5159,"ालेण्ड":14066,"▁दंफां,":19289,"मानो।":21877,"▁धमन्द":23626,"टिनि":3695,"▁महननि":8383,"▁डाइन":10401,"▁बिलिरनानै)":28966,"▁मानगोनां":11914,"▁आखाइजोंनो":26575,"खानि":1431,"▁राज्य":12135,"▁उनदाहा":10862,"-जें":27191,"्राइ":1562,"▁मंगलबार":28537,"▁मोनानि":8673,"▁अमलनि":22293,"▁खबनै":28714,"▁रिलिफ":11288,"▁लुबैयाखैमोन।":17229,"▁गोबांसिन":12090,"ायाखैमोन।":22844,"▁नंनाय":18650,"▁आखलनि":4724,"▁प्रिन्टिं":19673,"▁लोगोसेनो":14544,"▁लाब्ला":11841,"ब्रेनानै":29462,"▁पुलिस":1131,"नायखौ":519,"▁ओंखारनो":6514,"WW":17388,"लांखो":24590,"▁अनलायनायाव":9234,"फ्राव":2705,"▁आमै":27786,"▁सानबावबाय":25008,"खुन":5151,"▁बेरखांनो":14803,"▁नेयो":14512,"▁अलकाया":4991,"▁नुजाफैयाखै":27860,"नाथाय":7826,"▁मुवाफोर":11363,"▁खिन्थालां":16495,"▁गुदिनि":27621,"▁अग्र":11830,"▁लुबैग्रा":26916,"▁आइ.":9272,"▁उम":11864,"▁फार्म":19026,"▁दाब-दाब":18534,"▁बेवहाय":2141,"सावदिंग्रा/":26687,"▁गांसेखौ":16488,"▁बिजिखौ":19195,"▁(छ)":25330,"▁लाबोनायखौ":28888,"▁सांग":1538,"▁दिहुननायनि":10591,"नासि":20605,"▁आखुथाइफोरा":29630,"▁गिबाय।":17960,"्ट":349,"▁ष":24440,"▁गथʼनि":3731,"▁खारबो":12095,"▁माव":376,"▁\"बेनि":13473,"▁होम्बा":5771,"ाहरो।":23206,"▁बिफं":26341,"▁फावथाइबादि":26599,"वाबो।":17497,"▁बिग":1166,"▁नोरजिया":29914,"▁सार्भिस":19588,"▁सरथे":18652,"▁थांनांगोन":17813,"▁खिन्थायो":14586,"▁जौमोननि":8786,"▁मोनदांथिखौ":29076,"▁रिंसारथिनि":18997,"▁अक्टʼ":10074,"▁बेरखांदों":6597,"▁--\"म":25791,"न्त":4076,"▁सोरजियो।":22088,"▁फैसालियाव":8714,"▁गसंना":22106,"्लुब":4822,"▁खालामनांगौ":3946,"डिन":24276,"▁(M":17847,"▁रायदोंमोन।":26267,"▁नांलाय-":29369,"मेज":28466,"▁खनसेबाव":22714,"▁बाहेराव":10093,"▁'आदा":28210,"▁लाङ":17717,"सियारि":11814,"▁जाबायलै":14328,"▁सोलायथायनि":27089,"▁दाननो":12118,"▁सेरेब":18476,"▁गोदैसिन":19316,"▁रादायनि":28505,"▁गोलोम":3604,"▁'बार्थ":12509,"▁आज":24570,"दोम":8602,"▁सोमजिहोनाय":27823,"बायनानै":11817,"▁बाबु।":6588,"▁खेबावनो":27759,"▁अमरनाथ":23680,"▁.....।\"":11540,"-ओ":9044,"▁सिंआ":9873,"-रुब":12267,"ाष्ट्रि":24420,"▁बिसो":10242,"▁थिनहर।\"":22699,"लासेनो":9639,"▁थिस":7856,"▁गिदिर":1488,"बारुवा":18414,"▁आसामाव":4036,"-गा":10157,"ानाखि":24471,"▁फैना":11908,"सर":4494,"▁बैसोनिफ्रायनो":27618,"▁बिग्रायारिफोरनि":19598,"ग्राय":2957,"▁बाथ्रा,":9765,"थां।\"":25799,"▁रसखौ":24744,"▁बैसोया":22227,"▁संथाब":26697,"▁हस्":8206,"▁दाबो।":26850,"▁खालामनानैसो":16137,"▁नोगोरनि":4984,"▁बस्":9086,"गड़":17423,"▁बाङाइ":10342,"दोन'":13403,"\"आ":5260,"सेन्स":14030,"▁नारे":4981,"▁kn":12605,"▁आगोलावनो":17136,"▁थिननाय":9940,"▁अरा":5871,"▁हेफाजाब":1401,"▁जासेयावबो":25269,"सालिखौ":26673,"▁फोरोंगिरिया":8897,"e)":15357,"▁गाज्रिसिन":9841,"▁there":22584,"▁8.00":28314,"▁फेरलेबसे":23783,"▁जेंना,":12308,"▁माबोर":18000,"▁अ":215,"▁जाहाथे":3635,"ं।":6887,"▁बिमानै":13455,"▁हगार":1340,"दला":17450,"खाइ":4403,"▁ओंखारलाङो)":7447,"फोरावबो":10559,"जियाबो":20741,"▁देथ":21038,"▁रां-खाव":18247,"▁फोलाव":4639,"क्ष":2432,"▁(D":11075,"▁जुलिया":13979,"▁हुख":16308,"-बुरै":12185,"▁राइजो,":21306,"▁सानोमोन":17750,"▁नुयो,":17898,"▁कास्तमारनि":29719,"▁हेलारामा":5810,"▁मोसौ,":8455,"▁हाथाइ":2608,"▁दाखालाम।":17049,"▁जोन्थोर":21744,"▁बुंखानाया":23758,"▁अजिता।":9372,"▁गोरों":1906,"हालागै":3402,"▁फोरमायनाय,":26535,"▁जाहैखो":22639,"ud":20108,"साजा":15435,"▁हाबाजों":17821,"▁सोरजिदोंमोन":27397,"▁सानफिनो":15673,"▁नायहरनाय":21952,"▁सिंनो":21668,"▁थामथियाव":21879,"▁खाता":25983,"ांग्रा":4516,"द्‌लाम":16917,"मुवा":18596,"▁\"बाव":11873,"▁इराम":7557,"Y":56,"पियान":26767,"▁कुला":25069,"▁रुमु":16271,"▁सान्ना":18331,"▁जिरायो":21656,"▁लोगोफोर":20973,"▁बारबाय।":10366,"ज्रां":9063,"able":23559,"यै,":6746,"▁नोंथांमोननि":7649,"▁जैमती":9398,"▁लाजिखांनाय":21998,"▁बजब":11742,"▁नुज":3303,"ङोब्ला":5313,"द्रु":9070,"▁सामुस":27635,"▁गेदेर-उन्दै,":17295,"▁सहर":5847,"▁सारखो":22117,"ख्ल":1277,"ोन्दा":7688,"▁....।\"":14695,"▁सनजीब":24074,"ान्थि":748,"▁man":19267,"▁हाखा":13982,"▁बड":1008,"▁फानै":24703,"न्टार":26553,"▁खारलांनायसै।":29594,"▁लाहारी":13572,"▁जानोबो":7601,"काटा":16232,"▁बाहेरायाव":11565,"जायैनो":24259,"बावगोन":21057,"▁जाग्रा।":22624,"▁आसु":10969,"▁जिङाव":6737,"खान":4791,"▁फावथाइगिरि,":23229,"▁बिफां":1345,"्लायनाय":11198,"ामायैनो":5704,"▁ड्राइ":5915,"▁थांना":2983,"▁बिफांनि":3978,"-दामि":26785,"▁सोमहाब":15963,"▁ज,":17563,"▁थैनायहालागै":29235,"▁इलेक्ट्रनिक":20012,"▁अल":1064,"▁आन्दामोना":22360,"▁बिजिरगिरि,":16378,"▁गुन्दाफ्रा":22509,"▁1.10.":28419,"▁मोनलिया।":20515,"enge":13414,"▁बिबारा":8756,"▁खैफो":18569,"g":67,"▁........":1663,"▁गेरेब":12511,"▁मिथिखागौ":7936,"▁थिरांथा":9023,"▁मैखोम":7341,"-09":29907,"▁आगोल":16926,"▁मानोना":902,"▁जिनाय":17909,"▁फरर":29226,"▁जिउनां":11185,"न्जा":15581,"▁हरब्ला":25649,"▁थानोब्ला":26931,"▁मोनगोन,":15592,"▁हमज्लाय":25787,"▁आन्दा":3334,"▁डाक्टारा":15091,"▁रबिबारखालि":19286,"▁थेलेब":9439,"▁गेवलांनाय":19073,"ुगीज":20904,"बोनायनि":11370,"ould":22399,"▁उद्राय":14713,"▁फोज":5600,"▁माम":3874,"▁स्टाफ":27943,"है।\"":25695,"▁थाइजानि":22008,"▁आला":1240,"लायगोन":12918,"सिनाव":6464,"▁मदत":14624,"लआ":24389,"री":4797,"▁मुसाहारि":22765,"▁साइकेलजों":8067,"▁मागो":10219,"ation":3608,"यय":20223,"▁बिदानो":23186,"▁हमबाय।\"":28073,"▁राखाउ":9547,"▁रेस्ट":23378,"▁मावथिफोरा":16843,"लिङा":25630,"▁बाउखुंग्रि":28933,"▁मावा,":25602,"▁खारखुमा":26312,"▁गिलासनै":29472,"▁नाहर":13987,"▁it":10210,"इउ":10170,"▁हागौ,":2993,"थ":121,"and":3201,"▁'सोमदोन'":13819,"▁मिथिसिगौ।":21135,"▁नेसन":17601,"▁निख्रुइ":18212,"1)":11666,"म्पि":5735,"▁गारना":14379,"▁खारदिं":18299,"▁सोरबानि":19548,"▁सोलोंथाइ,":22690,"▁जोमैखौ":29065,"▁दुद्रु":13086,"ानोसै":20568,"▁सोमदोना":25891,"▁खेबसे":2073,"थिजों":3765,"▁गैलाय":21384,"माखौ":2738,"▁मदारु":27188,"▁सादु।":23583,"नायलʼ":24702,"▁'बो":21077,"▁जिउ।":16044,"▁मोसायै":9316,"▁ख्रां":24688,"▁मुंख":14349,"▁गुरब्ले":22258,"▁बेकेट":12822,"▁आंनि,":25767,"▁आखुफोरखौ":12092,"▁इन्जिनियार":8122,"▁खुगानिफ्राय":3354,"▁लाइजामाव":11351,"मोननि":1603,"▁दोनखारलां":19779,"▁नेटव":6637,"▁बानजायफुं":11459,"▁हमो,":13028,"▁गै":578,"नाद":2647,"▁आं":218,"▁सोमस्रि":21183,"गोनां":3206,"▁गोबाख्र":29686,"▁\"जिराय":20642,"▁लोमसावनायजों":29425,"▁मिसे":11063,"ाबाय":332,"▁रोङि":10041,"▁मिथिङाव":25824,"▁..............":14773,"▁मालिस":12417,"▁मुगैनायजों":22583,"▁आगै":2959,"▁थेल":17624,"▁दाजाबदाफोर":22531,"▁गोजांनायाव":19028,"ेया":5689,"▁होनाजासे":25055,"▁खाङो।":25981,"▁थासान्दियाव":8566,"▁\"खोनासं":23421,"▁बिमा-फिसा":21551,"▁कुर्":20656,"फाम":4323,"▁फानसे":22022,"▁संनानै":7057,"▁हरदोंमोन।":25655,"▁आलाइयाबो":13205,"▁ष्ट्राइक":22738,"▁डिपार्ट":27349,"▁अक्टʼखौ":28916,"▁फेस्वन":20031,"▁मान-सन्मान":24031,"9)":15349,"▁जायामोन":12914,"हरदोंमोन":15802,"सोमनानै":6818,"▁सुहैयो।":25624,"▁आपुनि":16947,"▁गुबुननिफ्राय":21120,"▁बाथ्राय":4723,"▁थांनाया":7898,"▁बियाय":19772,"▁नाजानाया":9319,"▁सिंजों":9874,"ङाखै।\"":20150,"▁खरि":14007,"▁फोरजा।":29350,"▁खारग":21452,"▁My":16821,"▁state":19785,"▁बुथारदों।":22362,"▁मेगनेटिक":21703,"▁फिननायखौ":16338,"''":2286,"▁सायखङा":17192,"▁नोंथांनो":18492,"▁अनसुंथाय":19468,"▁दाफो":18016,"▁जोगोनार":13803,"लायथारबाय।":25149,"▁बायदों":14232,"▁गयारीया":27569,"▁जौथाय":13091,"▁मालाइनि":23781,"ोदै":20280,"▁नोंसोरबादि":11273,"▁फुदुंनानै":7154,"▁इसिबां":13766,"▁सिलिखा":29141,"▁लुबैयो।":4865,"-एनै":8106,"सोमोन":16351,"▁सुवामी":23257,"▁नायग्राफ्रा":19555,"▁ममनि":24521,"स्य":9274,"▁जीब":11513,"साजों":15436,"▁सुकुर":14257,"▁साहा,":27336,"▁खर":1470,"ार'":17572,"थोंसै":9406,"▁रिंगासो":11626,"▁नायब्ला":4168,"ुक":4232,"▁बोदोर":5390,"▁नोंखौ":906,"▁सेंग्रिनि":23852,"▁नाजानाय,":22495,"ान्थे":25212,"▁बुर्लुंबुथुर":8145,"▁हाजेवनि":3247,"▁खेंबाय।":22454,"▁दत्त":13991,"▁लिंनानै":7382,"▁सुस्रांनायनि":11560,"▁सानसुथिर":23439,"▁एम.एल.ए.":16306,"फैयाखै":13904,"▁हुगारो।":19089,"▁ओंखारो":7018,"▁देरहाग्रानि":6003,"▁बामब्लेमा":22857,"खानाय":1522,"▁गोमोर":3585,"▁मोनफ्लां":10270,"▁मोनब्ला,":24826,"▁नʼखराव।":22554,"▁लाखांनानै":20570,"▁खोमानि":26336,"▁सिमायाव":17708,"-जोग्लि":27194,"▁जासिगोन।\"":20759,"▁दे।":4014,"▁नागाफ्रा":11460,"गाया":4405,"▁बुजिनाय":18917,"▁मोननैखौबो":22011,"दिम":6256,"▁गाहामै":7380,"▁सै-सै":26742,"हांग":12746,"ath":9567,"▁थांलाय":4933,"▁पेपार":10704,"▁सानस्रिजों":28102,"▁St":8076,"▁मावबो":25596,"माय":555,"▁दं":324,"▁नोंसोर":830,"फ्रोमबो":1574,"▁मोनथाव":14053,"▁गाराया":14378,"-मैसो":26776,"▁जिबख्रिनि":29895,"▁कलंख":6622,"गनेल":24239,"▁हायाखै":1973,"जिरि":24255,"ारौ":24553,"▁प्रटिन":26606,"चन्द्र":9585,"▁'फुं":11988,"हʼरो।":23980,"▁हो":300,"▁31":12280,"▁मावनाय-दां":13538,"▁बिहावा":26950,"▁थिंगिनि":8338,"▁बेखेवगाब":26775,"▁मिनिबाय।":21465,"खौलाय":7854,"▁बिजाबखौ":3800,"▁मावरीया":25612,"▁दाथाय":8211,"le":2665,"▁हाथराव":27138,"▁सुरलाङो।":18817,"▁हुजुर":6160,"▁धोरोमारि":18890,"▁बाथ्राफोराव":25818,"ाजा,":14330,"▁गलʼवा,":28286,"▁बाग्दावनायजों":29033,"▁बिनाराम।":28721,"▁सानहाबनो":29536,"▁जिबौजों":11519,"ोनाव":5288,"▁सानबाय।":5713,"जेउ":22143,"▁गोथौ":1581,"iloquy":9037,"▁थगायसुलि,":28522,"▁मिनिखʼ":18306,"▁थाखागोन।":25482,"▁सिददा":19607,"▁मेर":3174,"▁बिलिर":3506,"▁हाजʼवारीमोनखौ।":28465,"थों।\"":22346,"▁जन्":24533,"खैबो":26288,"▁Cap":9432,"▁जिब-जुनादफोरनि":29645,"▁हाथाइयाव":11493,"▁हास्थायनाया":28893,"रामा":15429,"▁खथा।":29389,"▁ब्याव":9088,"्रʼब":12491,"▁मेन्ट":20886,"▁गुदि-खि":27625,"▁नेमखान्थि":13523,"पा":1549,"▁इउटिलिटि":19911,"▁दायानो":27025,"▁मोनथियो":22651,"▁आथिखालाव":1792,"▁इउरʼ":13398,"▁जʼ।":26942,"बोनायाव":12729,"▁एफ":1726,"नांनायनि":21747,"▁जावलिय":27647,"▁इसोर":3515,"▁फुरियाव":24712,"▁खनो":12811,"▁मावमोन":7572,"स्लिं":16974,"▁हायाब्लाबो":27036,"▁मिथिरो":15941,"▁थेंग":21699,"√":158,"कबि":15382,"▁आलाइ-सिलाइ":17316,"▁बोहैबाय":18688,"▁गान्धीया":12596,"खान्":13874,"▁काप-प्ल":19366,"खिया":2554,"▁हांमा":2361,"-थानाय":28192,"▁लिरलांनाय":26098,"▁लिंहरदों":10697,"▁जागोन।\"":5098,"▁बौहै":17119,"▁डिङा":18733,"▁बोब":7192,"▁फरायसुला":16033,"▁माइल":7333,"्लिउ":18196,"द्ल":10912,"लाङो)":9974,"▁नुजाफैनो":14769,"▁जाखागोन":21554,"झिया":24263,"▁फोथायनायखौ":27433,"▁लाखिगासिनो":27052,"▁फालांगिखौ":16745,"▁गोनांदि,":4176,"▁दावखोनाय":18157,"▁लाइनमेन":23196,"▁हास्रि":21234,"स्ला":3369,"▁साग्लोबना":23120,"m":73,"▁फिसा।":4255,"नायफोरखौ":10995,"▁बेफारिया":3217,"oot":17400,"▁सलʼगिरिया":10381,"रेन्द्र":14772,"▁द्वार":24627,"▁'याव'":25761,"▁मुसुरै":28546,"▁गुब्रु":25585,"ारीया":1022,"▁हवा":13981,"ww":8160,"▁लांगाब":16983,"▁आवगाय":2398,"▁गांसेया":22204,"▁सान्दुं।":19584,"लांनायनि":5200,"▁पेसेन्ट":22664,"▁मोनजोब":20511,"▁बानसे।":26835,"▁गंफ्रोमबो":16110,"▁कक्राझाराव":19560,"▁जेरबा":14302,"▁सिथोर-बाथ":19853,"▁एप्लिकेसन":7152,"▁थाबाय,":21798,"▁सिथार":3151,"▁जानायावनो":25882,"▁फ्लुर":29667,"edies":22734,"▁आन्दाखौ":12490,"▁हाबलाङो":8278,"▁आहम":13678,"▁फोथैना":29708,"▁मेलखौ":15831,"▁माल्":19166,"▁उन्दुबाय":9895,"▁नेथʼ":16218,"▁खाम्फानि":23394,"▁थाग्रा":3737,"▁मोनजायै":17686,"खालिनि":27058,"▁रजʼङाव":29208,"▁लानायनि":3273,"▁बुंजायो":8268,"▁हान्दि":20366,"▁एखन":2410,"▁आंजों":2357,"▁गाबनाय":4177,"▁ओंथियाव":8915,"▁फारियै":3135,"▁थायनैनिफ्राय":16958,"▁अखं":20543,"▁सेमि":20960,"▁CD":22511,"▁खुस्रा":21522,"▁फोजोबस्रां":5648,"▁ओजोंबो":16765,"▁एरै":1804,"▁जारिमिननि":6025,"▁जेरै,":12040,"▁देनाय,":25686,"▁सौहैनानै":26938,"▁दाजाबनाय":7372,"▁उन्दुलाङो।":26900,"▁बिबान।":22251,"▁सामाज":11381,"▁उलुं":25016,"ुराम":3122,"▁रिंसारा":10669,"▁नोंथांहा":26754,"▁रानखांनानै":28028,"▁;":4590,"▁गैथार":7314,"▁रनसाय":11618,"▁सोमावसारनो":8061,"▁मोनजानो":8676,"▁मोब्लावा।":23495,"▁निंनि":21336,"▁हगारहर":13366,"▁Sub":22569,"▁स":165,"खोला,":21248,"▁(मिनि":15153,"मोनि":17480,"▁देरहासारनाया":29069,"▁बिजिरगिरिनि":27217,"▁गैयामोनब्लाबो":15977,"▁नखरनि":2385,"▁दानाय।":16549,"▁'बै":29047,"▁सारियालि":19894,"▁मा।":7548,"▁हादरफोरनि":28075,"▁थांजोब":15750,"▁एसा":24952,"▁आखा":5564,"ted":17403,"▁आसानि":18407,"▁लाथिखʼ":9678,"▁खारसन":9820,"▁फैसालिनि":25248,"▁हʼमनानै":28443,"▁\"ऐ":15683,"▁गिलास":5193,"▁मिला-म":25205,"▁दायनि":2745,"▁बनानै":8623,"▁तितागुरियाव":28571,"▁हरसेनि":18023,"▁थांखिनि":16420,"▁दाखʼन":27457,"▁सेवारिखौ":28497,"▁साख्रिखौ":14793,"▁मोननायखौ":5708,"▁अस्":14062,"ाबारी":11790,"▁कासारखौ":22821,"▁सिखारो।":10007,"usiness":23328,"▁जथु":17568,"▁जालांखो":14908,"▁जʼथारला":21817,"-फाग्ला":26564,"▁आइलि-जाइ":10853,"▁फोरोंना":27609,"-थ":2089,"▁लाबोगोन":12200,"▁नेग्रा":16219,"▁हाबलां":14151,"▁हाबफैयो।)":19280,"▁प्रिन्सिपाल":24023,"▁थिङै।":14890,"इन्ट":9578,"▁भेनि":16007,"▁लां":615,"▁श्या":18367,"ंखाम":8284,"▁लाखखौ":27967,"▁सोम":457,"▁मोख्रानि":16911,"▁शाला":10484,"तन्त्रनि":23409,"▁inter":29203,"▁ओंखारलांनाय":7305,"हेना":4413,"▁'र":6122,"▁गियानि":10352,"▁दान":660,"▁गोजोरै":21145,"▁समफोरखौ":25156,"▁उजिगिबि":4217,"▁साबायखर":3919,"wo":17405,"बाजि":20213,"▁गेलेनायाव":12271,"▁बोदलानानै":16883,"▁मिनिब्ला":26319,"▁\"बियार":28525,"atural":19224,"▁बेल।":21852,"मथि":24366,"▁जाखां":1457,"▁गोजाम":2052,"▁रायफोरनाय":23850,"▁बुंखांनानैनो":23885,"▁थाजिम":6215,"▁समावनो":1239,"खो।":4059,"▁उन्दुनानै":10538,"▁जालाय":1850,"लांदोंमोन":18080,"रेम":20230,"▁डिस्क":6205,"▁बिनारामखौ":16827,"आखै":6645,"हो,":25901,"▁एवखांनाय":22830,"यला":13914,"▁सानफ्राम":24992,"▁सफैगोन":28746,"दम":6034,"▁जुतानि":21585,"मारबाय":9373,"▁नार्जारीखौ":23166,"▁सिरिजाहात":15319,"▁पेइन्ट":22663,"▁बिह":921,"▁आलियाव":20380,"▁बालु":10212,"▁खामानिफोरा":21495,"▁मिथिसʼवा।":29935,"▁नायगिरनानै":13447,"▁लखबनानै":23753,"्सि":15447,"▁नै।":17598,"▁आइकʼनखौ":29904,"▁बिलाइफ्रा":27174,"▁बिनहारी-":10073,"▁आलुमिंगि":10128,"न्दा,":7988,"▁जुजिबाबो":19249,"सान्दि":10931,"▁फे":1063,"▁डेभि":4310,"▁कमल":5513,"▁बुंला":10300,"फैनाया":11128,"▁बसुमत":1122,"ग्रोयो":16767,"▁व्दार":22393,"▁सोलोंथाइ":2416,"▁\"बोरो":29964,"▁सेप्तेम्बराव":6563,"▁लाइमोन":3436,"▁\"नै":3944,"▁हाइजेंनि":23151,"▁जाफिनो,":25273,"▁थेख्रेराम":29635,"▁ल्द":11810,"▁साफ्रा":5444,"▁आलमर्टा":19733,"दारि।":24309,"▁इं":1390,"▁रेजिष्ट्रे":13779,"▁जोमावा":27777,"▁होवाखै।":15088,"▁गोग्लैलाङो।":26984,"▁मुजाह":15923,"▁एवस्रां":13567,"▁दंबावो।":6982,"▁राव-फाव":25512,"▁फुंजानि":11341,"▁फानग्रानि":27282,"▁वा":7497,"फैयो।)":14857,"▁सेरनि":4283,"▁गावबाग":9419,"▁सोंफै":13123,"▁[दय":26364,"▁सार,":14689,"▁थʼ":3508,"45":11669,"▁बांलायाव":18375,"▁बालांस्रि":17196,"स्लाबै":19252,"▁दाफर":21013,"ृ:":24427,"▁बिगुरफोरखौ":28488,"खावा":27731,"▁फिसाजोजों":18690,"▁बारबोनाय":25679,"▁खाजाखौ":13645,"▁बिफांखौ":11362,"▁उस":9174,"▁नाजाद":13226,"▁मोनामनाया":19384,"▁जागायजेनो।":28548,"▁भुमका":29234,"▁दावखाया":18156,"▁सि":224,"ʼर":1696,"▁नोथाङा":18330,"▁नौनारिफोरखौ":9499,"▁दैबाय":20950,"▁दाब्राय":14548,"▁असमिया,":22634,"▁गोमोबाय।":18968,"▁हाया।\"":10412,"▁लोगोयाबो":25594,"▁अलकायाबो":28037,"▁गबʼ":7199,"-हां":5006,"▁उनाव,":15930,"फोराव।":18613,"▁बुंफिनबाय":20665,"▁गोजांनाय।":22508,"▁गामाखालि":7023,"▁दांनाय,":22367,"▁दान्दिसेनो":22585,"था":339,"▁गोदि":14031,"▁बिकास":15536,"-मोन":5144,"----":21440,"थारदों।":5906,"▁सुव":4728,"बै":6229,"▁रुफाथि":12531,"▁रोङाब्ला":13534,"▁हाब्रां":9715,"▁नारखे":22173,"▁नांफानानै":26246,"▁सोबो":20864,"्दाउ":28514,"▁देरगानानै":15105,"▁नायजाबफोरनि":21960,"चरण":15187,"हेर":1334,"▁हंकं":29583,"▁गुसु":2484,"▁नुव":3224,"▁मैगं-थाइ":10079,"▁नायहरनानै":3197,"▁गेजेरनि":5201,"्लिद":21303,"▁खौसे":3062,"▁बोहैख्लाय":21967,"▁जोबनो":4747,"▁फैनाय":1879,"खरा":6891,"▁ष्टेम":22735,"▁बैसोमुथि":19940,"फिननांगोन":26206,"▁होब्लानो":11466,"▁गोलैसोनानै":19124,"▁खालामै":12907,"▁हाबाब,":14935,"▁रौ-रौ":14989,"अमला":20115,"▁मन":974,"▁अन्नायाव":9938,"▁फानदाय":18714,"▁खालामगोन।\"":25108,"▁जोबनायनि":8793,"▁जिगु":17914,"▁दखरसे":10843,"थाम":886,"▁नायाब्ला":25389,"जादों":6108,"▁मुंनि":2303,"▁नुथारबाय":25419,"मोनखौ।":17738,"▁इज्जत":10854,"▁हान्था":5359,"▁मोदोम,":18539,"▁सिखो":24903,"▁मानियानो":16313,"▁दंमोन।":2159,"▁गण":13962,"▁दोनथुमो":29083,"हाय":798,"▁जिराय":1111,"ेन,":8345,"▁नुथायखौ":17899,"बावो":2051,"▁सथबनानै":15475,"▁मोनब्ला":3411,"▁माइखौ":16172,"दाव":1315,"▁हाबलांबाय":25223,"▁सोनारनानैनो":23403,"▁फिसाइनाव":27906,"▁मलेनालाय":21919,"▁खुं":1471,"▁टे":1392,"▁मिथिसʼ":7588,"▁हरनायसै":25665,"▁लासिगोन":24929,"▁गोमानो":26458,"..........।":19457,"▁नुफिनबाय":17901,"▁खाब्रां":23124,"▁सिखोमानानै":10840,"▁बलेर":17533,"▁बिदाखौ":7714,"▁गावस्रानानै":29391,"फुनाय,":13291,"▁गैयै।":10604,"▁फांथेनानै":6624,"ग्रोनाय":13107,"▁पण्डित":23991,"▁मलेनमोनहा":21923,"▁कमन":8918,"▁नाङा,":8057,"▁जिल्लानि":3109,"▁गोजा,":14923,"▁लेप":9314,"▁बार्":14264,"निख्रुइबो":28944,"▁सोंलुखौ":29084,"▁गैयाब्लानो":27754,"▁गैया।\"":5459,"ाख्राइ":24897,"▁ज्योति":24041,"▁सोमस्रिनि":14320,".एफ.":17345,"▁बिबारफोरा":27380,"▁सुबाव":16040,"▁प्लास्टिक":15233,"i)":12682,"▁खारनो":9819,"▁खोनाबाय।":10490,"▁बानायनो":22308,"▁हिनजाव":1851,"▁खन्थाइखौ":18963,"▁बिमानाव":28023,"▁थानांगौब्ला":19532,"▁गाबनाया":10407,"▁बिरल":22097,"▁हगारबाय":22170,"a":61,"-फोर":6218,"▁फाग्ला":2253,"▁गेन्द्रिखौ":23918,"बाबो":2228,"▁फावथाइखौ":4106,"देव":12715,"टाया":24265,"▁साहा-म":18732,"▁साखाथिनि":13475,"▁साफ्रोम":11110,"▁धोरोमा":8141,"▁बुं,":9696,"▁फुंखा।":22084,"▁मावग्ल":17998,"▁सुलाद":6750,"▁थानायावबो":21151,"▁होफिन":17841,"▁रोग":6937,"ालागै":2736,"लाम्फा":3075,"▁हांगार":5123,"ब्रुद":10452,"▁लानानैनो।":25895,"▁दाखि":12276,"▁आलाइस्रिया":2252,"-हा":5400,"▁थाबथायो।":13250,"▁पकेटाव":29928,"▁मस्टʼ":23660,"▁हेन्दि":13071,"्रनिक":12802,"दों।\"":1786,"▁माखौ,":22808,"▁गिथाव-बाथ":17032,"▁शा":21524,"▁थांफिनासै।":25200,"देन":1385,"▁गाहाय":1074,"▁अमब्रागं":7800,"▁दुर्जां,":9416,"▁सुजुग्रायाबो":14807,"ग्लांनाय":29772,"हुन":15437,"▁माइक्र":13193,"▁सुवा":7574,"▁गोजोनै।":21873,"▁मारुटिखौ":29728,"▁आह":4601,"man":24166,"▁उन्दैया":26357,"-फैलाय":9019,"▁हाम":874,"▁खालामनोब्ला":26339,"जाहै":12710,"▁फोसावबाय":27724,"▁बथलजों":29333,"फ्रामनाय":28033,"िरि":1217,"▁गोरोन":25734,"▁गन्थं,":14907,"पारनि":24324,"********":10100,"▁खैनाशान्तिया":10110,"▁स्क्रिननि":23610,".पि.":7811,"डखौ":24275,"▁बन्ध":8190,"मायलु":26180,"▁गैलामोन":29237,"्रे":524,"▁बुङा।":11088,"▁नबेम्बर":6878,"▁\"मु":15687,"▁थांबाव":20707,"▁जखायसे":15496,"▁खांनायाव":22311,"्लिं":12050,"▁बाहागोआव":2960,"▁सोम।":21180,"▁दैथाइ":25551,"नो।\"":6680,"▁जाफ्राम":20757,"▁सानसेखालिनि":22778,"▁दिनै।":7933,"▁मेघाल":11649,"▁साइब":16405,"he":4313,"हैनांगौ":25696,"बादनि":28043,"लायगासिनो":20694,"▁खावनिया":21766,"▁सायाव,":21433,"▁जौ-जुव":24054,"▁खुनुरोखोम":10699,"▁गदाया":12768,"खं":2210,"यायाव":9076,"दासनि":17930,"खाङो।":2033,"न्दानि":25208,"मिष्ट":11314,"▁उन्दैयाव":12309,"▁ध":716,"▁बुं-":20657,"▁आवगायावनो":29374,"▁ददेरेमोना":27199,"▁मेलनि":9209,"▁आदानाव":21721,"▁खान्थिया":10748,"▁बिरखार":27415,"▁उत":15679,"मोखां":23046,"▁गोथार,":9999,"▁दोंमोन।":14800,"ं":92,"▁सिनायगौ।":26932,"ाजोआ":8991,"▁बाबुनि":12332,"▁बैग्रि":14368,"▁बुंदां।":25091,"दिसे":14040,"...दे":26571,"▁कस":8265,"▁एबार":24953,"▁खालामफेर":25098,"▁मायगाब":28350,"▁थुर,":29663,"▁सान्थ्रʼ":16117,"▁खिनो":9908,"▁बरʼनि":1321,"-थुन":6852,"▁'आबारी":22579,"▁गावदां":10307,"▁नुजाहैबावनो":29953,"▁आथो":17582,"ical":11501,"▁मान,":11912,"▁फैसालिखौ":23309,"ानोथʼ":14069,"▁ध,":12137,"▁बयनिख्रुइ":5482,"▁लेम":14502,"▁सामु":18855,"▁फिसाजोवा":27205,"▁लाइब्रेरी,":23831,"▁हाबहैनाय":15763,"▁\"आलाइस्रि।\"":10126,"▁नारज":8448,"ugu":5822,"सेनिफ्राय":24753,"▁हाबबाय।":17820,"ध":123,"▁मोनहैबाय।":20520,"▁\"बोर":7883,"▁नाजानानै":10513,"लेया":25166,"▁सोमोन्दो":1535,"▁सोरख":1871,"▁खालामग्रा":6720,"▁लायफिननो":27412,"बोन":13905,"▁दबाखारि":29039,"▁लाइमोनफोरा":13616,"▁गाज्रि।":7629,"▁बाथ-रुम":17951,"▁बिनो।\"":28089,"▁बसुमतारिनि":7676,"▁गें":12967,"▁गोमोखौ":27948,"▁फʼन":5858,"▁रांखौबो":21388,"enry":22359,"▁ककराझारनिफ्राय":16738,"▁एसेलʼ।":25952,"▁फिसाइ,":27904,"▁हामफे":5947,"▁नोंसो।":20603,"▁मोजांसो":13034,"▁सिन्द":5295,"▁उसिफावनाय":23919,"▁से,":17985,"▁लुनोबो":27103,"ise":28121,"▁थाबाय।":2348,"▁2.":2713,"▁जारिमिन।":11354,"▁रानस्राव":28032,"्बो":2170,"▁बरप":6569,"▁फालिनानै":28539,"▁जाब्ला,":22502,"▁देरहाग":2965,"▁सोलायनो":8010,"▁ओंखाम,":14554,"हैद":25694,"थोन":1158,"लांफिनो।":25804,"▁बरायनाय":13600,"▁कम":1688,"▁गंग्लायनानै":12524,"ालै,":15618,"नायासो":21209,"▁बोलांनो":20908,"जुरा":17437,"▁लांनायसै":26297,"ालाइ":11847,"▁मिहिरा":1826,"▁खोथा,":16395,"▁लाइमोनफोरखौ":19379,"▁बाबुया":22347,"बिसोर":13911,"▁नवाव":869,"▁रʼम":13446,"▁गोजौसिन":21723,"▁ष्ट्र":28490,"▁मुगैनाय":10693,"▁राब":8660,"▁समबार":1972,"▁गरद":6824,"मालि":17479,"▁मिञानि":23725,"-'":24095,"▁जानʼवार":26379,"▁इंख्रिया":11518,"=ब":24134,"▁थाखायब्लाबो":21005,"▁माहाजोननो":22193,"▁जुजिनानै":22800,"▁खारलाङो":21457,"▁खावलायो।":13512,"▁हाबफिनो।":25221,"▁बुन्दि":5439,"▁सुइस":23097,"▁फारि।":14681,"▁पार्टि,":28880,"▁लायाब्ला":6827,"▁बिथिंजायनिफ्राय":19867,"▁भुटियाफोरजों":11586,"नोब्ला":6929,"▁आखुथायफोरा":22974,"उदां":20122,"▁फिन्":7222,"▁बरʼ,":7282,"▁\"बिब्दि":8522,"▁राय":600,"▁उन्दुदो।\"":26902,"▁हमबाय।":1917,"▁हाव":2155,"▁हाग":432,"▁गसाथिया":12630,"थि,":3879,"्लि":533,"▁बसʼनानै":17534,"▁बिथार":20408,"▁इहि":25357,"▁कर्टनि":29585,"▁रुजुनाय":13614,"▁बेखि":12821,"ʼखौ":3987,"▁फोजोबनानै":6364,"▁संराजानि":17254,"▁लानायानो":21690,"▁\"आरसा":8563,"▁गैयैलाय":22096,"▁हासुंनि":23625,"▁बिथांखि":4196,"▁खामला":26083,"▁आलेखौ":1833,"▁उरिष्यानि":12577,"▁1989":28854,"सिये":24785,"ेड":5842,"▁गोबाबाय":28050,"▁गेदेमा":4311,"▁प्रु":18442,"▁लाइ-लथर":18281,"▁मावग्रा":3266,"रुब":24386,"▁नुजाहै":7759,"▁सोरजिलु":8888,"▁1919":22141,"▁सोंलों":26226,"▁गाम्बारि":3862,"▁बरफ":8434,"▁नांबावगौ":10140,"▁दावखोदों।":29792,"▁होलांदों":20779,"ारा":677,"▁मेब्ला":7914,"▁नालेंख":13788,"▁बेज":8224,"▁गोमायो":18372,"▁दैनानै":9743,"▁फैदों।":2528,"▁मिनिखैरो":10831,"▁फिथाइनि":13478,"▁मिनिबाय":26318,"ोन्":1215,"▁बेलश्रीया":21854,"▁बोसोर":747,"ब्लिउ":8499,"▁बि-":10241,"▁बेरायग्लां":19328,"र्‌":21523,"आलाय":24203,"ब्लाथाय":11854,"▁गनायना":12369,"▁उन्दुग्लांनानै":24022,"▁हाबनाय":7549,"▁झार":8620,"▁दाहो।":18662,"yle":15373,"▁दोहोरोमनि":13697,"▁हरबिलासखौ":29304,"ासे":3114,"▁पलिअʼ":8569,"▁मोनजारोङै":9150,"▁गाण्डा":14323,"-गेदेर":19750,"▁इंख्रि":3093,"▁जालांबाय":8913,"▁दफा":9643,"पर":9599,"▁स्क":1976,"▁सानहाबनानै":10288,"लेब":7897,"▁1854":22873,"▁दङो।":24611,"▁सुथ":6749,"▁रहेल":6869,"▁बाहाना":25920,"▁2006":11379,"▁माब्लाब":21773,"ाथै":17692,"▁'बार":18053,"नायसै-":7112,"▁सौनायनि":26934,"▁नार्सखौ":27367,"▁Mar":28698,"▁टेबोलनि":23953,"▁Lim":15072,"ङ":109,"▁p":2560,"भेट":5408,"▁जिउनि":1259,"▁मेब्लाया":11946,"ानी":15462,"▁फोरा":8761,"▁बिब्दियैनो":21630,"▁नोंथाङा,":18928,"▁खारखोमा":7970,"▁सागुलु":19405,"▁जाता":20756,"▁सैथो":2435,"▁गैयिनि":27752,"▁नार्जां":14671,"▁नक":11769,"▁एंगारनाय":11503,"ागो":790,"▁सम्ब":15735,"गʼ":1300,"▁बिनिनो":11975,"▁लिरनायनि":10432,"▁कम्पिउटार-":11400,"▁बिबुं":2950,"▁भुत":13082,"यैब्लाबो":15862,"▁थांग्रा":29164,"ुगाव,":20903,"▁रमेशा":23963,"▁बिजार":18429,"▁आंबादि":24880,"▁देथार":25685,"........।":16138,"▁जौमोनखौ":18190,"गोरा":20146,"▁उथुम":7882,"ो)":2117,"▁अमासि":27914,"▁दिन्थिथि-":23703,"▁खौसेयै":10740,"▁फेस":3660,"क्रि":24216,"▁लख":11009,"▁\"थांदो":29823,"▁खिन्थाया":8865,"▁सोमजिहोयो।":16566,"सʼनि":21796,"▁आयगनि":26727,"भिनि":20215,"▁गलायनाय":15480,"▁हʼष्टेलाव":19189,"▁समबारुनि":12384,"▁बद":2847,"▁फालांगिरि":6631,"▁जिंगा":1727,"ंख्रे":14170,"▁चीन":5345,"▁मायथायाव":22658,"▁मोनफैदों।":24840,"▁थेफेनखौ":5664,"▁उन्दुग":3392,"▁इनटारनेल":14813,"▁बुजायबाय":19439,"▁फजʼनो":16838,"▁सोलियोमोन।":22536,"▁मान-इ":25278,"▁बेंनायाव":27839,"▁अनिमा":14846,"▁सुहाबनानै":25625,"]":59,"▁tell":28586,"▁जुनानै":18422,"ड-":24272,"▁गलाप":19282,"▁बिजु,":20419,"▁हाबाफोरनि":21239,"▁फिसालाखौ":25493,"▁गोरोबफ्ले":22253,"▁गंसेनि":16277,"ia)":24162,"▁बुरखाय":4771,"▁सोनाय":8630,"ket":24163,"▁नबेम्बराव":17117,"▁मानसिनिफ्राय":20948,"नांदोंमोन।":18535,"▁देबी":12546,"▁खिन्थाख":27586,"▁गुबै":978,"▁बेरफ्रु":6147,"▁यर्कनि":28744,"K":42,"▁फेकसार":27160,"▁खुंगुर":10245,"-ख्र":11662,"-जेर":15332,"▁हाबफैदोंमोन।":16424,"▁फैयाखै।":5789,"▁भाजि,":26051,"▁अलकानि":5989,"चर":6651,"▁खाला":6683,"▁थुब्रा":16967,"▁दिन्थिबाय।":26239,"▁रोंगʼ":22156,"▁जारौ-रौ":29245,"▁गथ":8194,"िलनि":20262,"▁सेनाप":12551,"▁निउबिला":28171,"▁सिमना":7687,"▁बाहायथि":12160,"▁फोरमाय":700,"▁बजʼ":11740,"नियेल":24530,"▁जनानै":1925,"▁बाइजोआव":11622,"ix":9571,"▁नैजिबा":12539,"▁नागिरग्रा":21503,"▁हले":3373,"=":29,"▁उन्दुदों।":21775,"▁रायज्लायनायाव":22480,"▁इण्ड":3421,"▁हौवाया":7751,"▁लुकुर":16346,"▁गाउ":25892,"▁हिन्जावसानि":18345,"▁फेसा":16358,"▁मुवाखौनो":27557,"▁लाखिगोन":12212,"▁आहमेदाबाद":15286,"▁नाजाया":26748,"▁सानगोन।":8691,"▁मण्ड":13971,"▁दन्द":4696,"▁हब":6917,"▁दासि।":14262,"▁बबेनिफ्रायबा":12564,"▁लोगोफोरा":14249,"▁\"राजा":17078,"▁लाबोनो।":27158,"▁मोख":5181,"▁बेखेवफाखौनो":19158,"▁\"थौदो":19699,"ालʼ":2766,"▁दुलुनि":22368,"▁नोंनोलाय":22434,"▁जौथाइनि":14373,"▁थारखायाव":18525,"▁बेलायावनो":27028,"▁जौसो":21300,"लांबाय;":28108,"▁सफैदों":22904,"▁फाफा":14579,"▁जाहोनांगौ।":16624,"▁गासे":3897,"▁गाबनाय।":21199,"▁ना":463,"▁जलसु":29612,"हरब्ला":11926,"▁रांखिनि":21390,"▁नोंनि।":18240,"▁अब्ल":11831,"-ख":1987,"▁फाहामथायनि":5514,"दायाव":2368,"▁बेखेवगादʼ":22838,"▁थेख्रे":13735,"▁बावदिया\"":19245,"▁थांसिगोन":20713,"▁नास्र":12022,"▁मावग्रा,":19347,"▁फिसाइया":7718,"▁अनसुलि":5733,"▁जाहाद":14458,"▁+आ":17522,"▁खालामदों,":9699,"▁खबʼ":7857,"▁हरासै।":16968,"▁सार्भेन्ट":29463,"श्र":5837,"▁मोननाव":14050,"ालाम":260,"▁गारनांगोन।":26126,"▁गाबनायखौ":7597,"▁सेरजाखौ":16215,"▁खावथं":26881,"ंग्रा":2298,"0)":10158,"▁थासान्दियाव।":13726,"▁लोमजानायखौ":29549,"क्ट":1065,"▁टेंकि":15273,"▁टेष्ट":18830,"▁खानानै":2976,"नोंनि":22840,"जिनाय":17827,"▁हाहर":24563,"▁नेयै":18481,"▁बरायनो":10743,"▁दाजाबनानै":8024,"▁(द":9199,"▁कामरुपाव":29850,"▁जोहोलावनि":6355,"ब्लाव":21600,"ाराव":2290,"▁लांफानो":16093,"लायाखै":18718,"▁अरन":13130,"▁खिरखिजों":13710,"▁मोना,":8238,"▁मस्ट":9100,"▁फान्दायनायाव":15101,"▁फेर":4075,"जोनि":9221,"▁होनोबो":16171,"iness":21988,"▁सुना":15873,"यान,":16403,"▁नायहरबाय":6166,"▁गिनां":17550,"▁बुंखाङो":20663,"▁\"बबाव":28340,"▁थिखादार":7765,"▁\"र":6082,"▁आंखाल।":19138,"▁सिफियाव":15177,"▁जानबुं":18336,"नाव":325,"▁बेखेवगास्निनि":19621,"वाखि":20240,"▁शिलचर":23964,"▁सोंना":26225,"फेव":20202,"▁साइकʼलजि":27301,"जाब्लाबो":20161,"▁एस":1831,"▁गैयि":3107,"ल'":20233,"▁दा,":21009,"▁गावबागाव":10152,"खाबो":15384,"क्सि":21542,"दाल":9068,"दावला":14700,"▁नायलांनो":20843,"▁टार":13045,"▁थुनफावथिना":19801,"मिन्":12733,"▁आथोन,":22427,"▁गांसे":1378,"▁बिख्लो":5814,"ाखासे":18349,"▁फल्डार":23844,"▁लिरगिरिफोरखौ":28117,"▁जोंब्लावा":11604,"▁सीज":11749,"▁मोनह":17677,"▁(हाबनानै":12947,"..............":9296,"▁मोनजाग्रा":20527,"▁गोगगा":26674,"▁बिखा,":16487,"▁केरानि।":29456,"▁मोदोमजों":11278,"▁हुहर":27002,"▁गेदे":3304,"्ले":7536,"▁थायालै":28760,"▁गाननो":9351,"ere":11335,"▁लिरनाय":1552,"नायबादि":3706,"▁\"थेंक":15317,"▁गाडʼ":14322,"▁खेंख्रायै":29451,"▁थैदो":18206,"▁दैस्लुं":25560,"▁समाजनि":2151,"▁आ":173,"▁नोंथा":5433,"▁गजेन":17549,"▁गावनि":407,"▁सुनि,":15876,"▁कापसे":16877,"▁एन्ड":24956,"▁साहस":19092,"▁आनन्द":16077,"▁नांथार":6313,"▁प्रदि":6540,"▁पांग":20801,"▁रिंखां":7654,"▁माहारि":1803,"▁गिखʼ":20931,"▁गामियावनो":16294,"▁दिगदार":19746,"▁आदा":743,"▁बिसोरनि":1020,"सफोरा":24408,"हैबाय":3722,"▁October,200":23684,"ारिया":694,"▁जावैसोखौ":23817,"्रिया":9168,"▁सोंलायबाय":26231,"▁थांजोब्बाय।":20716,"▁बादिया":14258,"्रल":4238,"▁भाव":7019,"▁बेफोरजों":18415,"▁थासान्दि":5653,"▁आलो":3052,"▁नारथानानै":27545,"▁बाक":8724,"▁सानदों,":15671,"▁खोबनानै":8990,"▁अननो":25721,"▁ददेरेमोनखौ":27200,"▁लिरो":14374,"▁गगैनि":22711,"▁सालियाव":10754,"फेरनो":27630,"▁बारहुं":4731,"▁आदबा":14540,"▁होफैबाय।":16598,"▁थारबाय।":21727,"▁खोमसियाव":9959,"▁गाव":264,"▁ककराझार":2358,"▁बान्दा":7694,"▁मुंजों":14350,"▁मोनथिबाय":14894,"खासिगोन":25352,"ताग":2191,"िया''":25476,"▁शि":4368,"▁गोबाब,":19012,"▁सोलोजों":8497,"▁बोगार":29434,"▁बादारि":21520,"-पा":10885,"यै।":8739,"िसोर":8260,"▁एरसन":21731,"थारनांगोन।":25567,"गें":10904,"▁दोरो":12356,"▁धरनीधर":29943,"लाखि":17589,"▁सोमावसारग्रा":22375,"▁बायखोन्दा":25535,"नानैनो":9139,"▁गोब":1878,"▁सानबोलाउरिजों":19629,"▁बा:":17919,"▁inv":19481,"▁बुजिबाय।":27801,"▁हानि":4236,"▁खालामदोंमोन।":6959,"▁इया":20815,"▁लाहैनानै":24933,"▁बाटन-":23782,"नालाय":8603,"▁पेट्रिडिस":15183,"▁मेथें":14210,"▁2001":27619,"▁गोबौ":19011,"▁थोन":3214,"▁10,000":16646,"▁आखु":612,"▁सान्दुं":5134,"▁मानोबा":2779,"▁काजिरङा":23509,"▁बिजौवा":21593,"▁गंनैखौ":19380,"जार,":22432,"▁थानाद":16428,"▁फैजोब":17831,"▁होनाया":5715,"▁'बाथ":29049,"▁नंखायखौ":16702,"▁माखासे":936,"ुना":1594,"▁गावनो।":25121,"▁दरखौ":9879,"▁लांसि":26290,"▁खौरांनि":16316,"▁होयो।":1247,"▁मोनब्रै":5174,"पिटाल":7342,"▁थाराव":26820,"▁सैया":5022,"ुरनि":3770,"▁नुखानाय":25418,"▁बायदों।":17964,"▁लाथाख":24950,"▁खोमाना":14426,"ष्ट्र":6326,"▁(12)":28104,"▁बावनांगौ":26328,"▁इसे":1551,"ेफ":20271,"▁लाग":5876,"▁खालामनो":626,"▁गाबज्रियो।":13465,"ुन,":10310,"▁सोबै":14849,"▁अनजिमा":5389,"▁बिसारनि":16794,"का,":12169,"▁कमाण्डनि":28396,"▁मोदाइजो":13597,"▁मुरि,":20348,".........।":16870,"-मद":18499,"▁फुटसो":23520,"▁जनिल":17571,"▁कुरु":25072,"▁फावगिरि":14334,"▁बारखोनानै":25683,"सिं,":8382,"▁फोनांजाब":6615,"▁खारबोनाय":7035,"नजु":20194,"▁दन":7514,"▁माप":15742,"▁खालामदों":3263,"▁मोसेब":20607,"▁(ख)":4999,"▁समफोराव":25159,"▁खालाम":263,"▁गायदां":18897,"▁गिलु-बालु":6395,"-दुम":7064,"▁फोनांबाय":28646,"▁मि.":9193,"▁दागाबसै":17038,"▁खोमोर":3964,"त्री,":16644,"▁स्":1066,"ोबां":10309,"▁गेब्ले":11941,"▁दादों।":18015,"▁गायदाङा":18898,"▁सिरिसे":11271,"▁खालास":17109,"▁जथा":20354,"▁थैगार":26148,"ची":10182,".....!":13428,"▁\"बोसोरनि":23804,"▁बिमायंखौ":23493,"▁रोंगोन।":27510,"है":394,"▁रहेलाजों":23379,"▁लिंना":18783,"▁लोगो।":6496,"▁गेजेरनिनो":29473,"▁होबाय--":13421,"-गाज्रि":9865,"▁नार्ज":1807,"▁फोजोबनायखौ":27742,"▁सालिखʼ":28921,"▁'बरʼ":19425,"▁थाहैगोन।":28557,"▁मानसि":363,"▁जाखांनानै":4564,"▁सानथाव":20611,"-सुनाय":29092,"▁\"बोरसि":29965,"▁सोङै":20868,"िखौ":4496,"▁गोहोनि":4550,"▁खोख्लैनाय":16940,"्नो":24437,"▁एफा-एनै":9449,"▁नुदोंमोन-":25421,"▁बि।":3556,"▁दोनलांनाय":26060,"▁आवग":4760,"raph":22537,"ण":119,"▁लेयार्ट":16207,"▁ओंखारबो":2534,"▁बिनिया":13016,"लʼनि":14131,"▁हानांगोन":28008,"▁पसमी":17264,"▁लाउदांग":19219,"▁बिफाननि":2364,"▁एसे।":25949,"▁मेमʼरि":4484,"▁बिगुमैनि":19495,"लांबाय,":11996,"बा-":15631,"▁लाइब्रेर":12638,"▁दुरुङा":18508,"▁साथाम-स":22889,"▁दैनो":15854,"▁हाबना":20722,"▁बिनियाव":21044,"▁:-":1708,"▁फरायनायानो":26141,"▁ओंथिनि":27832,"▁गगा":24498,"फ्ल":1279,"बालʼ":17474,"▁सेखा":25573,"▁हाजासे,":29466,"-गोम":6148,"eg":9051,"▁'The":25755,"मारा":8178,"▁हालामाव":13594,"▁सोङोब्ला":28433,"ीन,":27533,"▁खान्थि।":22416,"▁नंमारगौना":29855,"is)":19041,"▁दोहोननि":14984,"▁रावजों,":28324,"▁भ्लादिमिरा":13748,"▁सायखʼ":3799,"-दाब":9883,"्बार":6912,"▁गथायो":28520,"▁होदोंमोन।":3626,"olic":22866,"▁जोबजानाय":16064,"▁रुफाखौ":29302,"सेमा":24752,"▁खैफोद-आफोद":13822,"▁जोबाय":25956,"▁आदा-आ":26601,"▁बुंबावनो,":29967,"▁साजाय":3363,"▁सान्":642,"▁असभ्य":29468,"▁रासायनारि":12651,"▁बिसुं":18885,"▁आखʼ":7564,"▁लाखिनाया":27051,"▁सिबिनाय,":19069,"▁सानब्ला":15666,"▁सायखʼनानै":16362,"▁दुखुजों":4189,"▁मुसुखा":8136,"▁नाजादोंमोनब्लाबो":28048,"e":65,"▁कम्पानी":10836,"ʼग":12693,"▁बाथ्रायावनो":22387,"▁ब,":13948,"▁माइफ्रि":18427,"▁फान":1157,"▁थाउ":21162,"फाबा":9071,"▁....!":22140,"▁गोजोनथों।":18631,"बाय)":20503,"▁बिश":11779,"▁हाथायाव":5225,"▁गामिफोराव":21821,"▁माला":3700,"▁\"दाखालि":23068,"▁नारथ्रोद":27544,"यैनि":13001,"▁सियाव":20556,"▁रोङाखै":22740,"▁खोम":624,"▁मावफुंनायाव":28708,"-सान":1968,"▁जानायसै":12014,"▁एइस":16904,"▁सालाइया":29452,"▁थबेन-":6007,"खुथु":15998,"▁डा.":3359,"▁आलासि":1705,"▁दौब्लाबो":9384,"ानोसै।":15630,"▁साफायनायाव":29503,"▁हाजारखि":16681,"▁राजा।":18683,"▁बुजायनो":10334,"बाह":20210,"▁उनावसो":3573,"▁आलमिरा":29890,"ीखौ":4231,"▁\"नङा,":18600,"▁रासिन":3595,"▁होलायनाय":25289,"मोनबो।":15657,"▁मामि":24517,"▁खेरासिन":12450,"▁फिथाय":26714,"▁लाहार-फ":5133,"▁खेंख":5110,"▁एरखां":9889,"-बर":10882,"▁आन्स":17586,"यारनि":9604,"▁गैयामोन,":18130,"▁प्रजेक्ट":18446,"लन":20234,"▁रास":21828,"▁बुङा":5189,"▁आखुफोरनि":12093,"लायनाय":1453,"▁आफा।\"":14583,"▁एल.पि.":29353,"▁गोलैयो":14874,"+आ=":7452,"▁थरसे":10031,"▁द्लाब":24617,"▁कदम":25071,"▁ककराझारआव":22672,"▁कु":9183,"▁बिहारि,":21818,"▁फैदो":4007,"▁फिसौ":2507,"▁नागाया":11172,"हालाय":4495,"▁इण्डल":23009,"-रुम":13331,"▁नुहरबाय":8954,"8,":24130,"▁कलि":8703,"▁Mother":28700,"ाग्लोब":1724,"▁खारग्लुं":21462,"▁जांगिला":10855,"▁थायबायाव":27548,"▁जोहोलाव":1274,"▁,बि":16901,"▁मान-म":25277,"▁नेरसोन":6198,"▁मिनिस्रां":18308,"मासि":17790,"फोराथʼ":17691,"▁फरायसा":1507,"▁गन्थं":3170,"▁बाउनाय":11535,"▁हमथानो":4782,"▁गसङो।]":23579,"▁थोंजों":4216,"▁गिया":4597,"▁आग्दा":16121,"▁मालायनि":2138,"जानानै":2288,"दाय":1236,"नारीया":17462,"▁हस्पिटालाव":19771,"▁नेन":24597,"▁दाय,":16317,"▁बिखुम":18377,"न्द":285,"uesday.":20109,"▁फंसेबो":4376,"▁अटʼ":5872,"▁मोन्नाया":5615,"▁बोसोरबासो":18449,"थियाव":1625,"▁फेट":24704,"▁नोंसो":6950,"▁गैया":472,"▁होखारगोन":28527,"6":22,"▁बोख्लाय":8528,"▁देग्लाय":3781,"▁2-30":26175,"▁दिथा":10392,"▁थागि":3198,"▁Trag":14913,"▁बिबारबादि":27382,"▁दावग":2838,"थायनो":4258,"योमोन":6230,"▁बिबांआ":15170,"फ्र":255,"▁नागाफोरखौ":16715,"मोनहा":2424,"thong":27492,"▁हरो।)":29413,"▁सांग्रेम":22309,"▁सरम":27114,"-थार":20048,"▁मैगं,":8839,"▁रांनि":2780,"▁king":15197,"▁खोन्दोनि":23770,"ांगौवा":25516,"ंगोन":2002,"ाइनि":1046,"ot":3326,"▁रावफोरा":25510,"▁दोनखोमानानै":26065,"▁बेनोमोन।":27015,"▁बजबना":13814,"SC":17387,"▁जायाखिसै।":6322,"▁प्रेकटिकेल":29761,"मान":1002,"होदोंमोन।":13051,"▁बोहै":1100,"▁रंजालिया":4559,"▁बारनाय":5448,"▁थैखांनायनि":18208,"▁नंथारगौ":19800,"▁काश्मी":27240,"▁डिजिटाल":10848,"▁नखरफोराव":27266,"▁होमबा।":22911,"ददेरे":24304,"▁कामाख्याव":29550,"ांगोन":971,"▁नार्सिं":13321,"▁हरनांगौ।":21019,"▁जग":4328,"▁एप":3941,"▁नायबाय।":5191,"▁लुबैब्ला":26913,"▁अनुलेखानि":15126,"▁मोदोमनाय":18540,"........!":21517,"लायानो":25141,"▁बुंलाङो।":8267,"▁बुंनांगोन":12903,"▁जायफोरनि":17793,"~खाय":12692,"थार":365,"▁सुइसाइद":10842,"-दो":12671,"ँ":91,"▁गुसु।":22718,"▁फुजानि":18455,"▁मोनलो":7236,"▁मारुत":27656,"▁en":20286,"खैमोन":16090,"▁हाजि":21537,"▁लोगो।\"":25543,"▁गेलेमुवाव":23775,"स्रोनानै":25988,"▁इउरियानि":22327,"-फु":5081,"▁गैयालै":9775,"▁सु।":25617,"▁बायनांगौ":15849,"▁इउ,":12327,"▁साबेसेया":23676,"▁फोथायनायनि":27432,"▁सोरबाय":20896,"निफ्रायसो":10320,"▁सोङो":2451,"▁गिसि":3669,"▁बिगि":2480,"▁बाहायनायखौ":7056,"▁हायामोन।":16326,"पेन्ट":9600,"▁फाहाय":27657,"▁बिख्लोखौ":19630,"▁हाब्बाय।":20725,"▁आन्द":1640,"बह":20209,"▁V":6235,"▁नʼखर":2054,"▁\"हे:":14108,"▁दिन्थिफुंनाय":14407,",000":3921,"▁आलेयाबो":21392,"-मारौ":26779,"▁\"ख":5884,"▁गयथि":27567,"▁रायजो-र":12530,"▁मोनखौ":11016,"▁साखोन-सि":17319,"▁फोसाबनाय,":19279,"▁थिनबाय":13324,"▁जुजिनायनि":19248,"▁नांथाबनानै":9812,"ब्ब":11704,"▁थिखानाय":9767,"▁बिलनि":24644,"▁रुटिन":21633,"ावबो":2523,"▁आनजादाव":7414,"▁आजाय":7207,"▁जब्द":10096,"▁फाल":1866,"▁ब्रैजि":22978,"▁खैरोम-दैरोम":24008,"▁औवानि":7096,"▁थाहैनानै":22773,"▁जमिदार":19985,"▁थायनैयाव":16957,"▁\"फाग":23207,"▁दाव,":15995,"▁\"एसेबां":28925,"▁नि":544,"जिसन":24257,"▁गाराम":15478,"▁आइलि-जाइलि":19873,"▁इचननुपी":23993,"-सु":3865,"▁दʼथायाव":28494,"▁जाम्बानि":23710,"▁अरखिखौ":19525,"▁बुंजाथाव":20664,"फाखौ":8299,"▁फिसाज्लायाबो":21556,"▁बिआ":15527,"▁प्रन":16183,"▁सोमजिदों।":22352,"▁लोंहोनो":14471,"-गार":13841,"▁बुङाबालानो":14831,"▁y":4694,"▁लावथिखौ":19131,"-सोम":14535,"▁नोंसोरहा":12182,"▁उनथिंजाय":19593,"▁होगोन।\"":17846,"-दै":3811,"▁आउ":12785,"▁बुयै":9202,"▁दब्लाय":15039,"▁\"बोहै":23803,"याखै,":29535,"▁आबारीखौ":21353,"▁सिबस्रां":10030,"▁Bod":19478,"जागोन।":4210,"▁गाथे":20333,"<unk>":0,"▁थैनि":9261,"▁फैदों":1952,"▁पाटिलखौ":19685,"बेसाद":21139,"▁नुहरो":22643,"▁बुंगासिनो":17773,"▁ब्लि":24454,"फोरखौनो":4941,"▁गाखोना":27531,"▁उथ्रिनो":9490,"▁फोजों":8767,"▁देरहाग्राहा":28737,"▁खायै":12813,"▁(ग":2986,"-सात्र":29856,"▁आदा,":2886,"▁लायाबा":27411,"▁मुंबो":26005,"▁रान्दि":4701,"▁रंजाग्लाय":27388,"▁बहाथो":8934,"▁मुजिथाव":17189,"-नायदा":23464,"▁जुलाइ":7332,"-ग्रं":24114,"▁केरेलानि":28795,"ंखार":2833,"▁मोदाय।":29085,"▁जादोंमोन":2133,"▁\"आदा":6794,"▁बाङै":20880,"▁सोर्जि":7458,"▁आफायाबो":11187,"▁Henry":23057,"▁गिनाया":10351,"-दर":18503,"▁होन्नानै,":18410,"▁August,":6023,"▁होयो।)":8437,"▁{-":23169,"▁टेक्न":23550,"▁सलʼनिफ्राय":25762,"▁दिहुनगिरिनि":27272,"सम":1583,"▁गुमा":21050,"▁गाथामाव":23332,"▁हेलाराम":3786,"▁खालामैनि":25103,"▁फिसायाबो":25492,"▁ख्रों-ख्रों":23869,"▁ट्रेड":18902,"▁हारिहा":14390,"-!":24094,"▁बर्मण":15289,"▁थाब्लानो":18544,"▁जाखोमा":26527,"▁फेन्दायाव":21939,"▁\"बिलिफां":28526,"▁अखाफोरनि":12296,"▁आखायाव।":16447,"▁सुशान्त":2741,"▁ट्रिपाल":23574,"▁आपʼस":29162,"▁होबथानाय":15065,"▁होनां":9180,"ङानो":2403,"▁दायो,":24623,"▁मर्ट":24519,"▁नुनोमोन":27097,"▁सोनारनानै":5786,"▁खेराइसालियाव":23529,"▁महरफोरा":16019,"▁होमब्ला":2040,"सेमानि":12826,"▁नायथाव":25391,"▁माइथाय":4541,"▁हाबाखौ।":21240,"▁हिन्दु":4555,"फेर":1432,"▁बेरफ्रुजानानै":23443,"▁words":17213,"▁जेंनायाव":14643,"रला":24385,"▁नʼनि":3162,"▁लिरदोंमोन":16018,"▁थाथे":19190,"▁पाउ":9947,"ev":9052,"▁जोब्राब":21382,"▁बिग्रायारिफोरखौ":17039,"▁आगयावनो":26380,"▁गेटा":20863,"गोन।'":26179,"ाबाय।":1617,"▁दुर्गा":7073,"ायो।":424,"▁फरम":10248,"▁खेबनानै":21927,"-हाव":12215,"▁गारसोनानै":16030,"▁बानि":15457,"गु":3451,"▁खालायाव":28059,"▁गाब्रै":7297,"▁सानसे":988,"▁मलिना":24523,"▁सोरबाया":8302,"▁कम्पिउटारनो":22404,"फोर":212,"्राङाव":20590,"▁उनथिङै":26844,"▁मैखौ":21680,"▁फोरखौ":7934,"-सौसि":23648,"▁लुबैनाया":9333,"-बे":2329,"▁फान्":2094,"मʼ":2791,"▁नालेया":12474,"▁गरसि":22021,"▁रायै":17646,"फʼन":20204,"▁\"दै":12890,"▁लायगोन।":27408,"▁सोमद्रि":10403,"▁दाम":1263,"▁फाननाय":27278,"▁फ्रे":11797,"▁मुंसुं":21256,"▁जिउखौ":1974,"ासिन":9609,"........।\"":13166,"▁बिरहाङा।":23678,"ुर,":11875,"▁2":551,"▁दोलोनि":15070,"▁दुर्जाङाथʼ":27691,"▁बिहाबो":13262,"लायनाय।":25144,"▁सोरां":2103,"▁फरायसालिनिफ्राय":19200,"▁गिनानै।":19271,"ना-खनला":10149,"▁गान्नानै":7713,"▁1997":23402,"।":152,"▁सोराङा":13733,"▁II":14941,"▁जन":4807,"▁थानायाव":2860,"▁बुरखायनाय":15115,"▁डाक्टारनि":23213,"जोलै":25591,"▁=":8617,"▁लाइफा":12091,"▁सोदोबथि":4533,"ाजे":14044,"रिटि":25766,"लायो":4165,"▁हारिखौनो":26171,"▁मुंमानि":7017,"डायाव":20173,"उइ":5150,"ुंगोरा":12283,"'आ":15325,"▁गाजा-गोमजायै":17164,"जाया":1419,"▁हाग्रा-बंग्रा":10146,"▁बेला-":18999,"िन":257,"▁हरो":4730,"▁लण्ड":15574,"▁गुदिखौ":18844,"▁नोमाजों":19119,"थाङा":1051,"▁धे":26554,"▁अंगि":24869,"▁हायाखैमोन।":8495,"▁बिस्तिबार":13790,"▁बारग":9228,"▁सुरो।":8041,"▁बुंलांबाय":17775,"▁सिख":547,"▁(V":17849,"▁बिलिरनाय":19395,"▁मोसौनि":22218,"▁जेदा":25343,"▁होग्रां":14174,"▁आम":1578,"दों-बेन":28246,"▁ला।":8250,"ाज्ला":14045,"▁गैया;":14331,"▁दुखुन":9256,"▁बेगार":24721,"▁\"माथो":8907,"-माथा":18501,"ल्द":3989,"▁मानसिखौनो":12993,"सिनो।":5865,"▁जेरि":18096,"▁भेज":18176,"▁आसारखान्थि,":23123,"▁दैथायनो":28905,"▁खद":24679,"▁बासन":25464,"सिम":589,"▁हार्टनि":19683,"ायाथʼ":20292,"▁गोबां":604,"▁बेथन":14022,"सोन्द्रि":27496,"हैनो":2805,"▁दुब्रि":13449,"▁गाड़ीजों":17165,"▁फुजिनो":29269,"जेब्ला":22144,"▁आगोलाव":7150,"▁थुंग":7218,"ानैनि":17635,"▁समखि":25157,"▁मेनेजार:":19585,"▁दैखांनो":12451,"न्नाय।":24798,"▁ए.":3220,"▁आखुथाइनि":18289,"▁मुजुरि":25780,"▁मै-म":26744,"▁नांथाब":13127,"▁होयो।]":27424,"▁नाङा":1598,"▁सलʼनि":1658,"▁आखुखौनो":14417,"वाला":5555,"-सिख्ला":22420,"▁तद":12154,"▁रेजिष्ट्रेशनखौ":15313,"▁ओनसोल":4124,"▁सिगारेट":3286,"▁जिरादनि":28566,"t.":24185,"▁मुलुगखौ":7351,"▁बुनानै)":25374,"▁तुलारामनि":8460,"म्भ":1844,"न्दिया":4613,"▁मिर":2143,"▁गोमाला":13173,"▁नाजाबाय।":10514,"▁चिनि":16155,"ज्रित":22180,"▁निखावरि":11184,"▁सिख्लासाखौ":27134,"▁नुहां":20854,"लायजासे":14132,"▁साया":5693,"▁सालाया":7695,"▁हायैखाय":18848,"▁सेन":11959,"▁inh":19480,"▁\"आदा,":26595,"▁होगासिनो":10324,"थाय,":6500,"रां":2822,"▁गोमजोर,":14829,"नोथʼ":17617,"्प":24436,"▁आबौ,":5778,"▁(इ":12943,"▁दोनफिनो।":21281,"▁खिना":21863,"▁अजय":1711,"▁हंख":10224,"्दाव":989,"लुं":2931,"यदा":7832,"-डाइ":19922,"▁गथा":13964,"होखो":25903,"▁माने":2100,"▁मिथिंगा,":29753,"▁नखरा":12794,"▁गोख्रोंथार":18882,"▁थानायाबो":21149,"फ्लि":7829,"सिन्नाय":15579,"▁लाबो":935,"▁बाथ्राखौ":781,"▁बैस":2412,"▁होबाय-":16587,"....?":20736,"फिननाया":26202,"▁कामेश्वर":28704,"▁दंमोन।\"":28306,"थि-ना":24791,"▁(दुखु":19935,"▁दसेनि":4868,"ार्क":2992,"-हि-हि":19861,"▁होर":12783,"बा--":24918,"गोथे":16334,"हरनांगौनि":25385,"▁खायखʼनानै":27093,"▁आगोलनि":7448,"▁इनफरमेसनफोरा":23267,"फैगोन।":25638,"ताखौ":10003,"▁खाना":2977,"▁सुनील":28836,"▁रोखोमनि":1806,"रʼस्व":25379,"▁रागजों":11316,"▁स्पर्ट":18672,"▁गोलैना":22611,"▁मैथा":14520,"▁नसुं":10972,"▁नीलाम्बर":10973,"+आ=आ":15214,"▁देभेलाप":25691,"▁नालिसा":28728,"फोरमान":20531,"▁होनायजों":12112,"▁आइनि":4746,"▁लांफानाय":26298,"▁जागौमोन":6012,"▁जाय,":25136,"▁जबाब":10779,"▁सोंबा":26224,"▁मंगलदै":28536,"▁बेदत,":22041,"▁माबि":7925,"पाव":7185,"▁फोनानै":24706,"▁पाक्का":19884,"▁बिथा,":14903,"▁बिजिरगोन":27215,"owel":11457,"यानोबा":27181,"फिनना":26201,"-स्र":6027,"▁रोखोम":1175,"▁लड":12830,"▁गेद":25430,"▁चित्तर":29646,"▁माइक्रʼ":12144,"▁खुलिनानै":23172,"▁may":28657,"▁अपार":2356,"▁उदैनि":9977,"▁नुयो-":11482,"▁जाखोसै":22112,"▁पेसेनजार":24069,"▁जिखौ":15827,"▁साया-म":19622,"▁देखाय":21039,"▁बोसोरखौ":21622,"ाबां":15541,"▁महना।":26587,"▁मन्दिर":23737,"सिजेन":17666,"▁गफ्":24510,"▁बागुरुम":26993,"▁हैयो":27603,"▁जिबौ":3108,"▁लंथं":14967,"▁ओंखारलांदों।":18165,"▁बरʼराव":20926,"ेङा":24429,"▁बाह":468,"▁निखाउरि":10441,"नि,":2524,"▁बुंफ्ला":25079,"▁हमदों":7004,"▁बाजा":9613,"▁मोनबानो":12844,"▁बाजिनि":6315,"▁बह्रा":14799,"▁सोरमा":8301,"▁बिब्दिबा":26636,"सालि।":13216,"▁बेरगाव":26654,"▁जेरैबो":2657,"▁सुइसखौ":19429,"▁हाब्बो":25225,"ष,":13926,"दुं":1218,"▁उ:":4514,"▁नबथिसु":23914,"▁गोफार":17654,"▁गोथौ।":27791,"▁थानांदों।":29512,"▁मिथिखागौ।":23600,"▁हाथियार":7167,"▁गुबुन-ग":13031,"▁बेलासि":3398,"▁(बा":20787,"▁दानस्ल":21509,"भिदा":28068,"▁इन्दुप्रभानि":29110,"▁आयै,":8957,"▁गुदिसिम":27623,"▁अबंलावरिखौ":19914,"▁(घ)":11648,"▁शर्मानि":23489,"ाजा":469,"▁दुर्जा":1481,"▁लोंदों।":16162,"▁गोर्बोनि":7134,"▁खिरखिखौ":17044,"बांसिन":15911,"▁माइ-माइरं":24055,"▁निबो":21334,"▁नोंसोर।":16241,"ोमा,":21849,"▁गारनोबो":26127,"▁खारहोनो":18300,"नांगोन,":16736,"▁गायसननाय":19596,"▁ओ,":9210,"फबनाय":14995,"PY":20079,"▁सोरखारनो":19298,"▁नारानाथा":18807,"▁साथि":11109,"▁सलʼम":3386,"▁सुखि":15874,"▁थानानिफ्राय":27361,"▁राव-थुनलाइ,":29972,"ान्दिसे":1969,"खुरैबो":10052,"त्व":13887,"▁(दमना":24046,"▁मेलेट":20888,"नावनो":5308,"▁ख्रि":14006,"..आं":20507,"▁लाहारिया":14958,"▁बारायगा":28435,"▁मोनथायखौ":11825,"▁लेबेलाव":21648,"▁नेयोसो":23901,"▁लाग्रा।":24945,"▁थानायसै":21148,"▁बेफोरखौबो":14765,"▁मरि":20340,"▁मानो":526,"▁बेरा":5859,"▁ओंखारनानै":4180,"▁मलेननि":2413,"▁नांदों":10450,"▁दुपसाव":3920,"▁बिरनाय":22098,"▁नाजादोंमोन।":5990,"▁थाहोनो":19454,"▁बानबुंथियो।":23686,"▁फालिगोन":28540,"▁गरदसे":17115,"▁डेन":13048,"▁बुंजागौ":25092,"▁जालांनो":9981,"ाखर":15619,"ाम्ब":17657,"▁गावस्रालायनो":29393,"▁सोमजिनाय":7405,"▁जि":322,"▁सिख्लासा।":27135,"▁सिब":2392,"▁हेड":7951,"▁मानसिफ्राबो":14238,"जोनो":20159,"▁44":27732,"ʼवाव":6886,"▁दुइ":3189,"े":147,"्राब":1763,"▁एफाग्राब":4211,"सेर":4508,"▁सुलात":18006,"▁गसंद":16441,"ामि":2293,"▁दन्दी":10793,"▁गांसेबो":27579,"▁दं,":2101,"▁जेना,":6101,"▁जाजोबनानै":14996,"▁खालारनिफ्राय":16832,"▁अग्रिम":20020,"▁जोबना":21377,"▁गोरोबथानि":18868,"▁फोरोंनायनि":27611,"▁थिसनजानाय":29041,"▁माइनाव,":29419,"तिखौ":12083,"▁बाबुवा":5654,"▁सोरमाङा":10857,"▁जाब-ज":21995,"▁मोखाङाव":1589,"tt":15371,"जि,":17826,"▁--नरेना":20027,"ror":24177,"▁बिबौवा":25709,"ोग्लि":25408,"▁ओंखारगोन":26028,"▁मास्टार":19714,"▁भुट":2808,"▁देरगा":18397,"▁फैयोब्लाबो":19162,"▁बिभ":11778,"▁ओंखारबा":26026,"जिवाव":25240,"मोन;":24964,"▁खबर":3705,"▁बबेखौ":14521,"▁खालामथार":15715,"▁खावयां":18551,"▁आमथे":12329,"फ्लाम":12208,"-मासु":13846,"▁गुनखौ":22725,"▁अनिमाय":28189,"ाथाम)":27820,"नोसै।\"":5109,"▁बिलायनायनि":28385,"न्दर,":28928,"▁खरान":27676,"▁जखानि":11757,"▁रेजि":8012,"▁थगायनो":11636,"▁गंसेयावनो":14565,"▁फावा":15981,"▁बुंदों।":4515,"▁एंग":11844,"▁थेफेन।":19173,"▁जानांगौब्ला":9945,"▁बोसोरनि":2278,"▁खारलांनाय":21458,"खिसै।":1576,"▁फाहायनानै":22250,"▁जाब्रʼ":21996,"मारो।":14658,"▁दोहोरोम":5131,"▁सिलाय":12860,"▁जिरायहैबाय।":21975,"▁लटारि":17664,"▁नामा,":12199,"लार":6039,"▁फुजायाव":26634,"▁तिब्ब":16637,"ानांगौ":6669,"लʼथार।":17798,"▁जिरायबाय":14634,"▁मनरन्जन":18617,"लां":430,"▁गोनांखौ":13052,"▁सान्दाया":19374,"▁सोद":528,"A":32,"▁बिस्क":6251,"▁बाइदि।":3982,"▁लाजिफोनां":12252,"▁जायगा,":27290,"▁खैफोद-आ":12318,"▁गाबज्रि":1919,"▁अनलाइन":3127,"▁बिनिफ्राय":3408,"▁आर्य":10272,"▁दिन्थिनाय,":14406,"ानि।":20553,"▁मोदायजोनि":29087,"▁हा:":1607,"▁बोखारनानै":7771,"▁रजि":2176,"▁हिन्जावसा":5078,"end":8474,"▁अबिनास":17072,"▁ch":22812,"▁होनांगौ।\"":16879,"स्रायो।":25987,"▁from":16863,"▁मोब्ल":3622,"ेआ":24428,"▁चौधुरीया":12641,"▁नंमारगौ।":23427,"▁मोन्दा":16122,"▁\"सम":20632,"▁गांफा":6801,"▁बोहैथिया।":10760,"गोश्री":27063,"▁गोबां।":8802,"▁नायनांगौ।":25398,"▁गाग्लोबनो":12416,"▁बुरा":11739,"▁(P":7272,"▁खायलें":18643,"▁मिरु":2540,"▁श्रि":26447,"▁आसिजों":13476,"M":44,"▁नायनानै।":22197,"..........":3967,"-सिखान":18971,"नां":857,"दालि":24300,"▁नावखौ":17603,"▁फाफनि":14895,"oun)":12635,"▁बिलोखौ":29313,"-सो":5399,"▁उजिगासेयाव":9438,"▁सानैनो":16079,"▁आङो":2644,"▁मैला":8838,"ative":20084,"▁थांहोनाय":20711,"▁\"हाबानि":23485,"▁बिदै,":28556,"▁मुलि":2038,"▁एनै":7879,"संसार":18395,"▁'आनारी":11443,"माने":27067,"▁तरुन":17291,"▁आराव":20533,"▁जां":2215,"ङाब्ला":5683,"▁श्राइ":14452,"▁गान्ध":6589,"▁फिसाजोआ":5099,"▁गांनै":5091,"ated":28554,"▁खुलांगार":26440,"▁मोदोम।":26858,"ज।":17432,"जायाव":5827,"▁पʼ":12950,"फोरजोंनो":11320,"▁गोसोआ।":14730,"▁बा,":20879,"▁ब्लाउज":15052,"▁यै":7498,"-0":7468,"▁बिल्दिं":19773,"▁नङामोन,":16908,"▁खाथब":23567,"▁गोन":9619,"▁नायगिरि":15809,"▁ख्रुब":12814,"/गथʼ":13848,"▁खाफाला":7600,"▁खापसारा":23894,"▁खैफोर":10544,"▁मबे":6242,"▁साबेसे":9346,"▁हारिमुखौ":14818,"▁बांसो":26462,"फिनगोन।":16063,"▁बिसोरखौनो":21115,"▁लोरबांथिखौ":23045,"ैयाखै।":10345,"▁थिनो":11154,"▁बिगोमाया":17011,"▁आंथि":24878,"▁महाभारत":10814,"▁लांफिनो":26300,"ाव,":3251,"▁रांजों":5609,"▁जोबथारनाय":13691,"▁थुल,":24670,"▁\"गि":25029,"▁रायलायखानाय":28016,"▁चेन्ट":7980,"▁बेखेवफा":2324,"-DOS":8582,"▁खेवनो":12425,"▁सुन्दर":11126,"▁थाखो":1501,"िरुद":24960,"बाय,":1069,"▁फांथेनो":28979,"▁a":3331,"▁बेगनिफ्राय":22610,"▁\"...":14105,"▁बुंफैबाय":25085,"▁गिनाय":3518,".":14,"▁साग्लोब":3872,"▁कम्पिउट":1305,"▁\"नोंथांनि":10826,"▁गानो।":14610,"▁खानजं,":22267,"▁खोनासंग्रा":19658,"▁नन्दʼखौ":23225,"▁सलʼखौ":3954,"▁बिना":8214,"▁नंगौ,":7397,"दोंसै":24777,"▁काफ":27238,"▁हाबदों।":17819,"▁थांग":4072,"▁दाहानि":8876,"▁बुंबाय-":3685,"▁प्रमʼसन":24006,"of":15366,"ाना":584,"▁बिनायाव":15530,"▁आंसो":5873,"कं":24213,"▁आरिस्रां":15600,"▁दुसि":7022,"गोद":24238,"▁बेरखांदों।":5516,"▁लाजोबदों।":24946,"▁नङागोन":26490,"▁गायनानै":14751,"▁ककराझारनि":12899,"▁दुथां,":29938,"▁दुब्लिनिफ्राय":29722,"▁गेब्ला-":4718,"ʼरेट":5372,"खुमा":11171,"▁लादों,":14072,"▁सान्थ्रिफ्रा":16483,"▁नायगिरदों।":18989,"▁जगदी":23205,"लांदिनि।":25807,"▁देरहाबाय":27926,"▁मोन्थि":8813,"सुमा":9802,"▁मोदैया":6320,"▁Windows":7750,"▁हिरा":24562,"▁नागारा":26037,"▁सोबखʼ":11442,"▁होव":4349,"▁राया।":24739,"▁खामफ्लाइखौ":29974,"▁जेराव":1283,"▁special":23860,"▁हयै":9108,"▁इंराजनि":11431,"▁सांग्राङा":12628,"▁मिथियाखै।":28167,"ip":24158,"▁फाननो":6168,"▁लाबो।\"":10551,"ेनखौ":4449,"▁देने":14271,"थानायनि":24296,"▁नेहाथारि":4680,"▁मुलुगआरि":26878,"▁लेखानि":26663,"▁गेजेरथिं":25838,"▁माहारी":18327,"▁रिक्स":10540,"▁खुद्रिनाय":15207,"फेरामोन।":27632,"▁लहानि":20481,"▁हरनाय,":25661,"▁बेलासे":4990,"▁दानसʼनानै":11225,"▁जारला":13490,"▁थियेटारखौ":12353,"▁मावखʼगिरिफोरा":29348,"▁बबेयाव":5348,"▁थेलेफाया":16665,"ारिमिन":15626,"▁दोहोरोम।":29455,"▁बिसोरहा।":25794,"▁(रागा":11918,"ब्रानाय।":26252,"▁उफे":20623,"उन":2969,"▁कुमारनि":19700,"▁जोंखां":15765,"▁सुफुंनाय":16727,"▁हुस":6346,"▁गानग्रा":12224,"-गोथो":9480,"▁सान्थ्रिफोरनि":18822,"▁आवाजखौ":23384,"L":43,"▁अन्जि":8029,"▁गुज्रि":15897,"▁बिहारनि":18580,"▁ग्रि":12766,"▁हायोब्लाबो":16371,"▁सानसेखालि":2634,"▁एनि":11843,"▁बाहायजानो":26684,"▁जागाय":2602,"fy":20091,"▁लोद":24765,"सि,":3823,"▁गोदानखौ":7322,"▁आफादफोरा":10477,"▁नायस्रा":20842,"﻿":160,"▁आयदाफोरनि":28212,"▁फ्रु":14019,"▁सिमाखौ":20560,"▁नʼवावनो":9932,"▁जानायसै।":6130,"▁खरʼसानि":26793,"-थोन":15338,"▁अजग":26802,"▁जु":719,"▁उन्दुनायाव":26897,"▁रति":24737,"▁आनारीखौ":5362,"फिनो।]":12360,"▁गोरबोआव":23322,"ंखा":4828,"▁जोब।":21376,"▁सोदोबखौनो":13153,"ʼवार":18841,"▁लेखायै":26665,"स्लाय":2077,"▁गयथिया":14709,"फायै":12722,"▁खोमोन":13147,"▁पि.इउ.":19216,"▁टेबुल":4524,"OR":24139,"▁रनजित":19697,"ङि":5548,"▁व":1699,"▁दोमो":12800,"-बिख्ल":14663,"▁खोथिया":16165,"▁हिसाबखौ":29401,"---!":23395,"▁V,":29692,"▁'आयै'":28211,"जौ":1873,"▁सफ्ट":6397,"▁होन्नानैसो":14473,"▁जोबाखै।":13118,"▁बेदिंखौ":23720,"▁खैनाशान्ति":13696,"▁खुथु":21521,"▁आब्रुथि":19747,"▁हाथर्खि":12639,"्लायावनो":24963,"▁खाम":527,"▁दोनथʼनाय":15001,"्लां":2621,"▁सोबफुं":28196,"▁सान।":11859,"▁बिदां":24642,"▁सुजुग्रा":5241,"▁गोदोनिफ्राय":14785,"▁34":16463,"खौनोथʼ":21360,"▁जेरबाया":21143,"▁'माल":25750,"▁बदमाइस":23530,"▁उइकाव":29362,"▁फैलाय":6970,"▁दान्दिसे,":28221,"▁नङाना":4103,"▁मोननैसो":8428,"-बुं":21715,"नाङारि":24982,"▁आबौ।":5646,"▁लरेत":19834,"▁सौग्राव":5258,"▁बै":523,"▁फोरमायथियो।":19410,"▁बेनोलʼ":18615,"▁थाबैनो":3592,"▁\"नङ":21836,"फादोंमोन।":12974,"▁हाबफैबाय।":14664,"▁नङालै":5937,"▁बाज":632,"▁मदद":1482,"▁नुसन":8296,"▁हिसाब":4879,"्लिज":26109,"▁थाबो":4073,"▁हारसिंनो":6199,"खोनाय":10173,"▁गंख":24496,"▁आदानि":10526,"▁मुसुगुर":28547,"स्रायै":4740,"▁हरखौ":21014,"▁बिफाखौ":3645,"▁तर":12155,"D":35,"▁मृगेन":12599,"▁'R":25741,"्दि":676,"▁आघा":24581,"▁होदो।\"":25293,"▁पाटि":6571,"▁मोसादों।":16571,"टार,":22627,"▁थेरबेथेर":29007,"▁सान्दोंमोन।":21488,"▁बाथिनि":25463,"▁गसाया":10618,"फैयासै":23411,"ाइन":2568,"▁लाग्रो":15642,"िद":8613,"▁रस":11803,"▁जाल्ला":8986,"षनि":13928,"लायैनो":20693,"▁कम्पिउटारहा":27921,"ो":149,"▁अं":6073,"▁फसंदों।":28471,"▁मुस":2601,"▁ट्रि":7592,"▁बिथानि":20415,"▁नोंसोर,":26805,"▁थग":8652,"▁अजिता-":16815,"▁बुंजा":25075,"▁जीब-ज":19887,"▁जापानी":23726,"▁थिलियाव":5599,"oin":20098,"▁रबिलʼ":22862,"थिङै":2409,"ामी":10264,"▁बुंफिनो-":8269,"ast":20083,"योना":24380,"▁जेखाय":25344,"▁ब्रेक-फास्ट":19553,".....नों":27917,"▁सर्":3657,"ालिफोरा":20938,"▁बोरै":1161,"▁ड्रइं":5673,"▁\"इउ":29789,"▁हाबफिन":25219,"▁सोमजिनायाव":18926,"्राइड":27778,"▁दैस्र":20953,"▁गंग्लायो।":23715,"▁हेलिक":26000,"▁\"जाय":8697,"▁मलेननो":21917,"▁धुबुरी":15234,"▁सोबनो":22571,"▁फाल्लानि":28041,"रखौ":9605,"▁खौरांफोरखौ":14595,"▁बाङ":6106,"किर":20128,"▁गोहोम":2551,"out":14777,"▁सैमा,":22695,"▁नाथांख्रि":28901,"लावनो":14359,"▁फोरोंगिरिनि":9966,"▁गुरुभा":29894,"▁अडि":11832,"्लायनानै":5747,"▁अक्त":7531,"ावनो":854,"थावनि":4273,"▁गोनांबो":15970,"▁नम्बरी":19416,"▁बिब्दि":754,"थिंजाय":6307,"▁नाउ":21192,"▁लानानैसो":7595,"▁खोख्लैहर":19458,"▁खुरु":22552,"res":12686,"ानायनि":2944,"▁बेफारि":5860,"▁थारखौ":10528,"▁जोख्ल":5203,"▁डाटा":16473,"▁मावग्रा-हालि":19348,"RA":20080,"▁बैथालि":14369,"▁\"नो":14103,"▁अरखौ":7317,"▁मोनलायबाय":28448,"नी":4795,"▁थुनलाइ।":27054,"हालागै।":23976,"सोलाय":17732,"▁बिष्णुनि":23711,"जानायाव":10501,"▁हाखि":4983,"tic":6575,"▁मिलायनानै":17817,"लों":884,"-खि":13837,"▁नंगुबै":4237,"▁मोदान":9298,"▁मबेबा":7166,"▁(हेल":29925,"खौ'":13994,"▁सोंदोंमोन।":21399,"▁गʼवाल":16356,"ांगौ।":1858,"ुवाथी":27857,"दांनाय":21562,"कता":12697,"लि।":7285,"▁सिनजों":13417,"▁बोलो,":16577,"▁गुबुनथिं":25797,"▁खान्थिखौ":10001,"▁फरायसा,":27720,"▁भारता":10617,"▁(ओंखार":11640,"▁दिन्थिग्रा":2363,"▁अक्सिना":9517,"लामा":15508,"्लायनो":17736,"▁थार,":18523,"▁मोनथारो":29231,"▁बेबादिनो":3133,"▁इनाइ":11421,".डि":20059,"▁सोबबाय":28195,"▁नङाना,":29178,"भिस":10921,"▁थुल":14001,"ोनाया":3875,"▁बाहागोखौ":7067,"▁बाब":2561,"▁खुलुमबाय":22417,"्ल":238,"▁दिननाय":21105,"याखैमोन":23352,"▁अगर":16936,"▁आंबोथʼ":9385,"सैनो":15730,"▁गुसुवाव":22720,"▁Tragedy":23907,"▁फिथाइखौ":9437,"▁होनांगोन":6716,"▁डि":1205,"▁मिस्टि":16991,"▁नागिरबाय":7043,"▁सेयार":6499,"▁गुवारै":9443,"▁बेमारा":23019,"▁जाइला":24550,"ाखङाव":24896,"▁स्टाइ":8928,"▁(ज":8716,"▁हाबिलद":13555,"▁हाबो)":3091,"▁जुदा":4540,"▁पुलिसनि":3643,"▁खालामनायबादि":22212,"▁वाइ":8921,"सिगोन।\"":6600,"▁गाद":4419,"▁हैदोंमोन":13375,"मते":20221,"फोरखौबो":3307,"▁बोसोरसालिया":16189,"खायो।":5010,"▁सोमोनां":8342,"▁फोसावनायखौ":22292,"फाजाब":1368,"se":6223,"▁नार्सिन":22072,"▁राइजो":535,"▁हुगारबाय":19090,"▁खरʼ,":10522,"▁हाबफैयोब्ला":28889,"▁बाजैयानो":22646,"▁स्रेद":24489,"▁नुनायनि":17895,"▁गोसोज्लिद":6408,"▁जालाङो,":28405,"▁हायाखै।":2271,"▁दंमोन,":7121,"▁बिलाया":11782,"र्":669,"ारिखौ":2469,"▁अख्रा":3709,"▁बिसारा":22792,"▁सेथि":4840,"ज्लाय":1026,"ब्र":595,"▁मनि":3931,"▁आइदै":16058,"▁बि.एल.":24653,"जोब्बाय।":4753,"▁बत":24451,"▁जुनै":1827,"▁आलाइ":751,"▁गोजोनै":5493,"▁दʼबा":19205,"काबिला":11656,"▁नायग्राफोरा":29395,"▁आदा।":2459,"न्नायाव":10268,"▁गोलोमस्राव":10080,"▁(हाब":25316,"▁जारें":19099,"▁हाइथु":19037,"▁मिथिथार":12000,"▁लैथ":16737,"गारा":26423,"▁मोजां":431,"▁फैनायमोन।":28052,"न्या":20497,"▁रेदि":9349,"p:/www.":24036,"▁लागि":20569,"▁आयलि":21672,"▁फरायब्ला":21320,"▁खामानियावनो":26384,"बायाव":6698,"▁बिलिरो।":28965,"शिक":11717,"▁तितागुरि":2640,"▁रुगुं":5803,"ोनि":864,"▁हजों":2850,"▁दोहोनि":19721,"▁गालाङो।":15188,"▁(सो":25313,"▁सोलायहोनो":27090,"▁एक्सप्ल":19488,"▁बिजनेसफोर":29651,"▁गोथार।":14784,"▁सौहां":26935,"▁तिनि":21637,"▁हानांसिगौ।":28010,"▁खोनानाय":6534,"▁देहा,":18791,"▁गोनांथिया":15971,"▁बिमाइखौ":29575,"▁बोरैबासो":22847,"cc":10890,"▁अब्राम":2942,"फाराम":24333,"अन":13871,"▁सिगां।":18431,"▁थाङाब्ला":19399,"▁जिउखौनो":16045,"▁गोथो":8667,"▁आलेहा":13122,"▁आवनाय":10511,"▁फोरजा-":23249,"▁उइल":29361,"▁स्राय,":29525,"▁रेन्जारनि":15021,"▁थुंखु":29314,"ज्लि":3926,"▁हाग्रामा":9030,"▁लिंख":10670,"▁नʼखरनि":4392,"▁खालामनाय,":7892,"▁आरʼ":20532,"ुव":1638,"ोग्रो":20848,"▁बुंसोलायो।":29966,"▁खनथाइ":21620,"▁थैबाय।":10437,"▁दानस्लायनाय":10138,"▁दिनथि":15928,"▁(सिङाव)":17263,"▁फोसावग्रा":22291,"ेबा":5558,"▁स्कट":22527,"बोलाय":24748,":":26,"▁जथुम्मायाव":9544,"▁थुंग्रिजोंनो":28676,"▁\"फाथै":29261,"▁जुन":1423,"▁रेख":12217,"▁पेन्च":22661,"▁फिननो":16337,"▁बरʼफोर":20925,"▁जेट":25341,"▁फबसिन":29781,"▁आइजोआबो":27844,"▁दैदेननायाव":6182,"▁नङामोन":3636,"▁सुबुंफोरनि":4958,"▁जोबथेसालियाव":10143,"▁बानाइ":18528,"▁सोदोबथिआव।":29323,"▁आवबा":16225,"दों;":24775,"▁खाजायो।":23436,"▁सिरिब्ला":26788,"▁hour":16884,"▁जाथाइफोरखौ":18795,"▁बाथुवाखौ":23667,"▁एसʼचिय":17238,"▁आथुम":24576,"▁मखʼजानाय":22851,"▁नांदोंमोन।":18262,"▁थाफ्लि":19441,"▁मोनजोब्बाय।":24843,"▁हमबाय--":7005,"मानसि":27068,"▁बिलिद":7673,"सोनायाव":27495,"▁नांदों।":14408,"▁गुन।":22723,"▁रैखा":1132,"जायनो":3549,"थाह":17447,"▁लुफुंनायनि":19862,"▁गोरोन्थियाव":22241,"▁बोहैलाङो।":27202,"▁थाहैनो":13650,"▁बेफोर,":21572,"▁है":1404,"▁नाजावनो":13227,"esis)":22330,"▁\"एसे":23006,"▁\"गय":12445,"-थाव":15335,"▁बारसे":9753,"▁मुगानि":3597,"▁टेबोला":18831,"▁गलायनानै":5023,"▁मखʼनाय":28674,"▁फोजोन":19614,"▁बेफोर":712,"▁ट्रेन्सपर्ट":12619,"▁थुनफावथाइनि":4882,"दोंमोननो।":15812,"▁बारगनो":17225,"▁अनलाइ":21061,"▁नुब्लासो":25422,"▁देवी":28207,"▁was":22790,"▁साइ":1172,"ंगौ":1255,"▁रायनानै":26266,"▁उनावनो":2134,"▁Hab":16902,"▁बाथʼ":14223,"1":17,"▁दयारामा":11426,"रा।":13097,"▁मोनफिन्":24829,"▁आवगायनानै":19178,"▁जोबि":18238,"▁जालांनाय":12323,"▁सिखावफोरनि":19106,"▁अजितखौ":4043,"▁सलायनो":24484,"▁खेंसालि":14805,"साल":5688,"▁आंलायनो":20549,"▁जाब्ला":1926,"▁गोलोमनाया":23055,"▁मोस":783,"▁फोजाखां":13723,"ेज":3291,"लेस":14138,"▁www":14946,"भारत":9074,"▁बिजाबआ":27306,"▁रावजों":2267,"▁(Ad":13762,"▁थिसननानै":10768,"▁सांग्रा":8464,"▁अनुलेखाया":11587,"▁they":19228,"▁थांनाय,":20708,"▁बेकार":12823,"▁गेलेनो":10606,"▁थांफायो।":17815,"▁H":3612,"▁सिख्लाफोरखौ":14615,"▁सुन-सान":19332,"▁गान्दुसिङाव":23254,"▁बरʼ)":20924,"▁फिसाफोरनो":26279,"▁ब्रेव":21635,"▁हुदा":6813,"▁बानजायफुंनो":14882,"▁घन्टानै":28911,"▁दावबाय":1720,"▁रोदाया":21229,"▁रुपसिं":16859,"▁शंकर":5798,"▁सानसेबो":12210,"▁जौसिन":16017,"▁199":5777,"▁थांहा":25184,"▁हाजʼव":1652,"ब्रुग":13128,"▁खारो,":26309,"▁महरजों":11178,"▁उरां-फारां":11657,"▁लुबैदों":6344,"▁सुरखो":13370,"▁दावगानाया":16813,"▁गुरलाब":8904,"▁'लों":25748,"▁नोंथाङा।\"":27831,"▁सोदोमस्रिया":29415,"वारि":4062,"▁कमप्लेक्स":23857,"-बिसोर":16973,"बायदों।":20504,"▁दांनानै":5784,"▁ग्ल":7843,"ोरोमदाउ":22014,"▁रजʼयो।":23174,"▁ँ":8619,"▁बोराय-बे":12298,"▁गोग्लैयो।।":15100,"▁\"हार":14106,"▁गैमारा।":19970,"▁देम":6502,"्दिन":14453,"▁गोथारि":27070,"▁लान्जाइ":28596,"सिबल":23388,"▁बेंख":4506,"▁मानै":4150,"▁खाथिसिनाव":26511,"▁सायाराम":2887,"▁घिक":18862,"याव,":9173,"▁दौसे":22147,"▁अभि":6262,"▁हारिफोर":16049,"▁हायोदि":12242,"ue":17404,"▁बेफार":10255,"▁दहमैनो":23638,"▁गैथारला":29884,"न्नानै":2374,"▁ड्रयिं":6862,"▁जेरै-":890,"▁लिरथुम":26097,"▁बायना":11116,"▁\"प":12887,"▁होननो":10295,"▁जाफुङाखिसै।":16993,"▁दस्राथिं":29532,"▁थुवा":16390,"ाबु":816,"▁दमासु":4697,"बोर":955,"जानाय,":18458,"▁हाजʼवारीमोनहा":28463,"▁सोद्रोम":5242,"▁रमेना":8099,"▁-":279,"▁देद्ला":18034,"नारी":7184,"▁अनज":3893,"or,":22379,"▁\"अह":19082,"▁आदिबाशी":23589,"दोंमोनब्लाबो":3423,"▁नायथिं-नायथा":15311,"▁(बु":25317,"▁सेंग्राया":3032,"▁पुलिसफोरा":11329,"▁खैफोदा":24007,"▁आर्जि":10844,"▁आरतिया।":6628,"▁साननायनि":11037,"ल":133,"▁फोरान":13032,"▁स्म":13954,"लांदों":3725,"▁जानां":2684,"्रेस":3235,"▁बरुवानि":19864,"शांक":17330,"▁Revenge":23965,"▁बिबʼ":4263,"गां":620,"▁बुंङो-":25093,"▁दिनैनि":2778,"od.":29382,"▁जेरावनो":13039,"▁बेसेबां":1533,"▁गोथैखौ":16734,"▁मिनिनो":6784,"▁गाराखै।":21315,"▁नुग्रा":20852,"ov":24173,"▁\"औ":2832,"▁जौगानो":12325,"▁लाइननि":18278,"▁बर्डनि":10803,"▁होनथेयो)":23641,"▁कनसाल":28903,"▁रंगिना-संगिना":10829,"▁1994":29600,"▁नामा":932,"▁खिथिर":8866,"▁रबिन":14028,"▁गौथुमफोरखौ":29250,"▁गिलु-फालुसिन":29727,"▁क्रिं":12898,"▁मारुटियाव":19672,"▁29":9267,"▁गावखौनो":3023,"▁राखां":9137,"▁सार।\"":7094,"▁जिउवा":7312,"▁हाय।":14596,"▁बिथाङानो":19169,"▁एनालʼग":24057,"ong":12278,"▁फां":1815,"▁a)":22984,"िक":2012,"▁दैयाबो":25554,"▁ओंखारखो":26030,"▁साबनानै":27043,"▁फटʼनि":19318,"▁आंजों।":22671,"▁हादोरफोरनि":27371,"सिजों":14038,"▁बांला,":16148,"▁शिब":11227,"▁परिष":4717,"▁बिमाखौ":2785,"▁जाखांबाय।":18863,"▁नङा":396,"▁गाखोहैनानै":28277,"ोर":181,"▁खारबाय":18296,"▁मावबाय":8743,"▁खालामा,":17783,"खʼ":582,"▁बिफोर":11780,"नासो":15661,"▁थाइस्रिया":22009,"▁बिथिङा":14949,"▁अनसि":10376,"▁फरायनाय।":26136,"▁जायामोन।":20691,"▁सानैखौबो":9813,"▁आर्":7238,"▁लेकसार":11255,"▁दैमाल":9744,"▁मताम":15104,"▁लै":2338,"▁बिनानावनि":7388,"▁सोन":1761,"▁1993":23401,"▁फुकन":9862,"▁सारअन्थाइ":27452,"▁संगिना":15473,"▁जोबदों।":21378,"▁बिजौवाव":14862,"बायो।":6699,"▁फाहाम":1723,"▁कार्बिआंलं":12662,"▁भार्चन":19969,"पा,":24328,"▁बहननानै":6845,"▁सिन":1673,"।)":7839,"▁बोराय":1429,"▁धुब":8381,"▁बुब्लि":3744,"न्दाव":12927,"▁मानसिफोरनिफ्राय":20949,"लायदों":8274,"▁दिह":941,"सेल":5169,"▁सिमेन्ट":16427,"▁सेनापति":6633,"▁दर्बासिया":7754,"▁\"थ":4436,"▁थाखोमाबाय":23247,"▁काश्य":14639,"▁मानसिनिख्रुइ":22065,"ंनानै":10896,"टिभ":5088,"▁अन्":1216,"ङारि":3248,"▁मानसियासो":16311,"▁सादा":11541,"▁जिख्लाबसे":17283,"साफोरखौ":8753,"▁(8)":15784,"▁सावगारिनि":18805,"▁थिनदों।":14673,"फोनां":5687,"ised":19042,"▁मुथासे":21095,"▁बर्नायथि":29858,"▁ब्यावहा":19808,"▁गोसोआवबो":27296,"▁सुंथा":27210,"▁मोनदांबाय":29074,"ाबासो":18402,"▁बारसोम":5449,"▁ला":230,"ुम":307,"▁सुनिया":15875,"▁सिम्प":15625,"▁थाङोब्ला":3281,"▁आंखालाव":8953,"▁थुनलायारि":14446,"▁लाखि":994,"▁गावसोरनो":11422,"बाथिया":24919,"▁महम्मद":23897,"▁शं":2631,"▁हेन्":25996,"ख्लि":8593,"▁पे":2316,"▁गेजेरसिम":21137,"▁बुस्रि":9203,"▁जाम्बा-जाम":12518,"के":2402,"▁आदाल":18516,"▁द्रे":10977,"▁लागो,":29872,"▁साख्रियावला":15284,"▁बाहागि,":23514,"▁मोजां-गाज्रि,":19880,"▁बलातकार":20015,"▁जय":4235,"▁थाङा":3841,"ाहर":4339,"ct":3110,"▁थिसन्नानै":29957,"ान्त":929,"▁मानसिया।":18616,"▁सोरांसै":22577,"▁लखʼबनि":11601,"▁गुदि":1417,"▁दावखानि":26013,"▁मानिनां":6549,"▁देन्था":21041,"▁बानुवा":26833,"▁माव,":20975,"-ब":834,"▁लोमजानानै":8935,"र्थ":10483,"▁मोहेर":15664,"थी":17445,"मनि":3755,"▁गोख्रैसिन":28531,"▁गाज्रिद्राय":26476,"▁खुंथाय":18872,"राव":1017,"ac":4131,"▁माइरंखौ":16921,"▁फिउ":9870,"लाराम":2419,"▁हादोरनि":1909,"500":20071,"▁लुसोमनानै":21901,"फोरा।":6112,"ाय।":24450,"▁संदों":26692,"▁I":2615,"▁जार्माननि":29661,"ाखो":7532,"▁ग्रुम":22782,"ी,":1189,"▁गायखेर":27736,"▁सिनि,":17711,"▁मुंराइखौ":17034,"▁मय":24513,"▁रेन्जारजों":28961,"▁मेम्बर":4087,"▁आलफानि":16490,"▁समान।":13543,"▁जाबावनांगौ":16955,"▁नोंसोरनो":7995,"▁स्रोत":10827,"▁फैसाली":10134,"▁बिदा-बि":18929,"▁नोंसाज्ला":19591,"▁फैमार":25245,"▁गाग्लेम":19895,"▁पन्":20800,"ʼरि":20113,"▁हाब्ला":9195,"ाखा":659,"▁सिनथायनो":18944,"▁गोसोखाङो":11092,"▁कम्पान":6820,"▁थाइनैनिफ्राय":23525,"▁जोबस्रांनाय":23262,"▁नोमानै":14870,"▁नʼ,":18227,"▁बिजि-फिस":19196,"▁जालायो।":9481,"ाली":2295,"▁आइफोर":12068,"▁बंग्रा":24459,"हारी":20255,"▁साननिफ्रायनो":11039,"्ल्ला":15653,"▁मादि":4714,"▁बबा":11737,"▁मावै":8742,"▁आद्रि":18517,"▁मुब्रुं-मुसि":23921,"▁दुइनम्बर":23701,"▁फिसायनो":25490,"▁मोनहैबाय":24838,"▁दायसे":16318,"गम":12702,"-बेरखाय":19818,"▁हान्जाखौ":10587,"▁खेंख्रि":22315,"▁मावगोन।":14252,"▁देरगानाया":29324,"▁अनिम":7729,"▁अजय।":27910,"▁हांख्रायनायाव":22992,"▁दोबै":10238,"फ्लाङो":14592,"▁सोलोंनानै":14665,"▁लामा-सामा":8580,"▁फजʼहैबाय":19308,"▁संसारनि":5234,"▁बाग्ल":12205,"▁बेनाव":20454,"▁लाखोमानो":24949,"▁खाम्":5743,"गोनि":10178,"▁लाइजामा":9361,"ीट":20264,"▁इन्ट":3092,"▁माथा":8403,"▁थैखो":16036,"▁बेबʼ":17641,"▁घि":13380,"▁आंहालाय":10274,"▁जाबोर":21993,"▁एकसिदेन्ट":19315,"▁बुङ":2003,"▁संनो":5766,"▁गब्लं":7201,"▁टि.एस.इ":23856,"▁मोसानाय":4546,"▁जांख्रिखां":12437,"▁देरनाय":18396,"▁लोर":2675,"▁बाइह्रायाव":18824,"▁गावबुरा":4776,"▁बोथोर":1643,"▁मिथिरोङा।":23942,"▁न्सि":24604,"▁सिरिनि":12179,"▁रय":7223,"▁जानायनिबो":25884,"▁आबौमोननि":18802,"▁थांगासिनो":6629,"▁गोदाव":5457,"▁महराव":4097,"गुसु":13617,"▁\"आंनि":6828,"▁आले,":16069,"▁--\"आ":18072,"ानो।\"":9994,"▁कबि":20653,"▁दाउसिन":27505,"▁माथो,":18681,"जनि":7178,"▁सेक्सपियारनि":19950,"▁हाब्राङाव":25227,"▁दिल्ली":4123,"▁मिथिथारा।":25835,"ैला":3757,"▁होबानो":28333,"▁जʼनानै":7074,"▁ब्रह्मनो":21855,"▁गुमुर":4052,"▁हाब्ब":25220,"▁बेसादफोरखौ":13603,"▁फाफिया":28346,"एंगार":24210,"थाख":20177,"▁जिब-जुनाद,":23430,"सेखौनो":11807,"▁गामिखौ":11294,"▁थुनलाइयाव":6162,"हरनायाव":20830,"▁थगायसुला":19211,"▁मानसिखौ":2020,"▁लांना":26291,"▁बादि":382,"बें":18094,"▁फैस":6969,"▁लोंग्रा":7633,"▁नागारनाय":19064,"खौबोथʼ":21578,"आदाम":24205,"▁बावा":21467,"▁लिरगिरिफोर":28115,"▁फोरमानजों":22542,"आनो":3450,"▁बिरलां":13337,"▁बिहाम":2139,"स्टिक":12247,"▁(10)":28106,"▁मिथिला":25821,"▁रग":20462,"ार्भ":7599,"▁\"आदा।\"":19705,"▁थांनायाव":4934,"याया":2289,"▁अलिम्पि":6636,"▁उन्दुयो।":18558,"▁नार्":1220,"गुबै":10177,"-हान्":27079,"▁टि.एस.":13382,"▁गोसोवा":6736,"▁नायदो।":14193,"▁जʼराखौ":22950,"▁पान्जाब":10332,"▁एम.इ":28852,"\"या":15324,"▁जायगाया":13301,"▁गलाफीनि":15182,"जोबगोन":9824,"▁दुथांफोरा":29939,"▁दिन्":12797,"-घ":24098,"▁आखायावनो":14688,"▁नायोब्ला":5307,"▁मोनबाव":11017,"इन":2190,"▁फुथु":4861,"रियानि":15919,"▁सियालनि":10691,"▁गोदो-गोदाय":23975,"▁रंजानाय":2250,"▁मिरुयाव":28503,"▁पिं":15787,"▁जोबजासिम":14400,"▁मुलुगा":8000,"▁थुरि":9127,"▁रुपा।":19341,"▁थांखि":1196,"▁बिलाताव":23415,"▁बेनिफ्रायनो":10253,"▁मʼन":24515,"▁गारिफोरनि":27722,"▁फख्रि":7522,"▁गंनैखौबो":28938,"▁लामानि":4080,"......।":16713,"▁हब्रा":9109,"जबनानै":4687,"क्सन":14463,"बायनि":17673,"▁दलत":29163,"नांगौब्ला":6779,"▁उनथाराव":10529,"▁गोसोयावनो":25412,"▁दैदेनगिरिया":27689,"▁गाखोनानै":4381,"▁बुथारना":22361,"▁बादिखौ":15879,"बावदों।":10375,"▁बोगदाद":19569,"फां":832,"▁सान्दों-":14435,"▁गलʼनो":18635,"▁उदुराम":7702,"▁सोफै":10340,"जितनि":26807,"▁कर्":2737,"▁गाज्रियै":8819,"▁डेरि":21179,"खाला":10903,"▁हामबुरखौ":19826,"▁सावनायबादि":21367,"▁दैयावनो":25553,"दुद":28082,"▁फुंनिफ्रायनो":9943,"▁जायजों":17792,"▁हाउ":3482,"किट":12359,"▁निन":10440,"▁भुगिनो":19689,"मेट":5553,"▁बिस्कुट":8142,"िनेस":14111,"▁सुट":25616,"▁मावसोम":9749,"▁अन्दरनिफ्राय":23354,"▁खोनाज":21540,"▁मिनिग्लाब":13145,"▁गुबुना":11960,"▁थुनफावथाइ":1608,"▁बि.टि":7748,"▁जायो।":508,"▁बसुम":1080,"याब्ला":3928,"▁नारा-नाथा":17232,"▁सुनि":4445,"▁जुनैनो":9392,"▁थैजों":9262,"▁1930":27485,"▁गाबनायजों":21200,"▁सियाला":3499,"el":2258,"▁था.":5914,"▁(क)":4936,"▁नखʼर":6058,"▁सिजोम":24910,"▁बाजु":8810,"▁दाबो":1280,"▁दय":1927,"▁सकि":17542,"▁हौवाफोरनि":10564,"▁लकेल":15575,"थायगिरि":10359,"▁रुव":4109,"▁थांब्लानो":9710,"जु":583,"▁गावथारनानै":12478,"सिमा":24781,"डि.अ.":29992,"▁बिबनाङा":25712,"▁थाइजायारि":27258,"लʼग":9705,"▁लाब्रा,":21938,"▁रावनोबो":8735,"गारबाय।":18356,"थाइनि":3226,"▁गरम":4117,"▁गाबख्राव":7298,"▁थाथʼयो।":29295,"▁Word":19098,"▁बाथेद":20914,"▁आदारखौ":21722,"▁हासिगोन":13061,"▁अहे":24870,"▁फोथैनानै":15179,"▁दानाय-लु":16551,"▁स्टेट":18965,"▁फाङा":14578,"▁देहायावनो":28072,"▁खालामनांदों।":25114,"▁हामबाय।":16262,"▁सासेखौनो":25992,"▁अदाल":5658,"BM":8586,"▁गसंनाय":11346,"ान्दै":2984,"▁बिनानावा":13365,"▁हुगार":2113,"खाबाय।":5825,"▁ओलै":15834,"खʼनाय":9805,"▁सुरनाय":11365,"▁मेगनै":21439,"▁मावरिया":3890,"थारबायमोन":22872,"▁रहेलाया।":23498,"▁सावरायगिरिफोरा":27329,"▁मुहिनि":6506,"▁थैहां":16037,"▁तदबिद":24030,"जानो।":24256,"▁सेप्त":1096,"▁गिलुब":20932,"▁नायगिरनाय":8065,"▁अवार":15608,"गोम":10175,"▁थानाया।":18738,"▁होम्बाना":9035,"▁गान्थि":9097,"ोन्थि":13319,"▁खालाइ":19695,"ople":17137,"▁(5)":9727,"▁चीनाव":19542,"▁जालिजौनि":17328,"▁खालामहैयो।":20677,"▁बाग्दावखाङो।":29034,"▁आराम":14060,"▁जुजिगोन":9468,"▁सामा":20307,"▁बिसोरजों":5736,"▁राक्ष":12202,"tical":11615,"▁लाइफाङा":23809,"▁औ,":8896,"चि":2667,"ओन्दां":24211,"▁खामानि":650,"तन्त्र":5828,"▁बराद":12263,"erial":27314,"▁दाजाबदाखौ":6197,"▁युम":8536,"लोगो":12738,"▁जानांगौमोन":18762,"▁थाबथानानै":21758,"ʼलन":19647,"▁दोनग्रा":13084,"▁कलेजा":22187,"▁खान्दि":15547,"▁रावा":2991,"▁सफैया":28875,"▁दास":3671,"▁सफैनानै":28745,"खि,":7001,"▁आवगायनि":11473,"▁माहाजोन।":7658,"ाखैब्लाबो":26591,"सʼनो":4866,"▁दुखुखौ":7047,"▁मोदैखौ":5495,"▁लेर":8234,"▁जोंब्लाउ":11070,"▁बिनय":16200,"▁साननायमोन।":16707,"▁दैमा-दैसा,":17230,"▁खेयाल":22316,"▁बुख":25361,"▁जौखोन्दो":13093,"खोमाबाय।":18369,"▁राइजʼ":26024,"▁खाथिसिन":26508,"ेबुल":4272,"▁गिबियाव":8870,"▁राइजोफोर":3675,"जिनांगौ":9065,"▁हाया\"":25935,"ंगासिनो":7085,"▁दादि":25641,"▁रुंसारि":6013,"▁थिब":21158,"▁जोंखि":25229,"▁दाबोर":9327,"▁नोंथां।\"":18493,"▁साबुक":23331,"▁जब्रानि":15261,"न्डेल":16886,"▁मिन्थि":3153,"▁गार्":20326,"ांखौ":20402,"▁भंगि":21271,"▁\"खु":25026,"्त्ति":26709,"टल":12711,"▁सहायनानै":29558,"▁औ-":22199,"भाया":7830,"हे":2044,"▁दिनैबो":4527,"▁रुवाथिखौ":8079,"-30":8155,"▁दाउज्ला":18789,"वाव":454,"▁सन्या":29493,"gram":17395,"ef":20088,"rive":19496,"नाइयाव":23232,"▁हायाखैसै।":13471,"ज्य":20160,"-बेखौ":16735,"▁थुनफावथाइगिरि":13409,"▁नाजासिगोन।":28045,"-लं":19294,"(":8,"▁आलाइस्रि।":18717,"जं":7177,"▁बबेखानि":2186,"गोजोन":27064,"▁मोख्राखौ":29788,"▁नाजानाय।":12371,"ुरुब":7884,"▁मावरिजाया":29079,"-गिदिर":20009,"▁गारिनिफ्राय":14745,"▁दिखांनानै":4095,"▁आंखालखौ":16716,"बाय।\"":3382,"▁बिरहांनि":29987,"▁बन्थ":17532,"▁अबंलाउरिया":11582,"▁मेंग्लि":13818,"िरे":11035,"▁बिलाइखौ":4974,"▁अजिता":2844,"▁गाबगासिनो":12025,"▁दखनाया":28245,"▁मोनो।":1024,"▁गोरि":18047,"▁नोंस्र":24972,"▁आइजोफोरनि":13412,"▁बाथुवाया।":15085,"▁थांब्रब":20717,"ew":24148,"▁खालामब्लानो":12909,"▁नोंनोथʼ":22435,"फ्लायो।":27473,"▁लाह":2800,"▁राङारि":8004,"-बाज":12183,"▁जेलाव":14183,"▁सिन्दुकनि":17237,"▁बिदाया":6933,"▁मोखांखौनो":26758,"▁फ्लर":29666,"ब":128,"-जाम":9927,"▁नुखो":15814,"▁अनजाली":19449,"▁आखʼ-फाखʼ":11655,"▁गिया-लना":23239,"▁गावलायनाय":15722,"▁बैसोयावनो":27617,"▁जे,":25340,"▁दासिमबो":2401,"▁साबफ":27042,"▁रजिजों":13500,"▁जाहोनाय":7977,"▁बुंनाय।":26686,"निफ्राय":292,"अʼनि":15377,"▁हामजाया":26875,"▁खामायनो":11174,"▁फोथाय":1249,"द्राइनि":29306,"ोदान":4756,"▁theme":22780,"्रि,":11857,"esday.":14760,"▁खासिया":25982,"▁लांगौ":20571,"▁गामि,":16293,"▁सिलं":23156,"▁थालायाव":4050,"सुमै":3594,"▁थायनैनि":11361,"▁एरैबादि।":12549,"ाथो।":24853,"▁फर":4243,"-खाला":10687,"▁उदिसा":29745,"▁प्ला":8289,"▁इंख्रि,":11517,"▁सें":8737,"▁सेप्तेम्बरनिफ्राय":14636,"▁बिथांखिनि":8843,"▁गʼसाथी":23576,"▁गुलि":3699,"▁ट्रेइनजों":19610,"▁गुन्दा":1932,"▁सानदां":15669,"ायन":17525,"क":105,"ाबोथʼ":15811,"▁थफ्ला":5030,"▁फैफिन्नो":11910,"▁प्रिन्टाव":29730,"▁दांग्रोम":9033,"दानिफ्राय":13895,"▁बरन्नानै":27379,"▁राजथावनि":4278,"खां।":20899,"▁अटʼरि":11603,"▁\"साहा":16898,"▁कक्राझारनि":14115,"▁गुरुदेब":20003,"▁सेसा":25574,"▁मुगैनानै":28214,"▁बिजिरगिरिया":6821,"▁दुब्लिनि":22449,"▁फरेनसिक":29229,"▁बायहेर":9215,"▁हागौ।\"":4530,"▁खांनो":14756,"▁रमिव":17279,"▁Soliloquy":9551,"▁राजथान्दै":11241,"▁थौ,":22586,"▁बिदिन्थानि":11219,"▁लाबोआ":14580,"हाँइ":25428,"▁बदमाइ":7137,"▁खेंख्रा-खेंख्रि":24080,"▁आंखौ।":6783,"▁नरकास":12393,"▁आयाव":20375,"▁दनखौ":24621,"▁लोंनायनि":9847,"▁नांलिया":9280,"▁गोख्रों":1496,"राखौ":21310,"-गʼ":13213,"▁सेंग्राफोराबो":18623,"▁नैबे":4033,"▁दोर्सोन":3042,"▁बिषनि":10022,"▁नोमानैया":23906,"ण्ट":24279,"्दिं":26456,"ानांगोन":17537,"▁बरʼवाव":7919,"▁एकाडेम":8568,"▁''नों":16667,"▁थिनब्ला":18748,"वार्ट":11716,"सा,":2428,"▁दानथाम":10480,"▁बोरमा।":29301,"पुरी,":22281,"▁लाइ":605,"▁आसामिया":18610,"▁बारानिफ्राय":10368,"▁सनीया":22986,"▁सिमनायाव":22064,"▁खुंख्र":10630,"खिरा":13877,"▁फैगासिनो":5891,"▁गबोनानै":20334,"▁बिसान":6838,"▁आनारी,":10612,"▁सङै-खावै":23874,"▁साख्रिनि":13441,"▁पाब्लिक":3420,"▁सतिस":15250,"▁लफार":24767,"वासै।":20744,"ङाव।":18037,"▁फारिलायाव":27403,"▁माइथायाव":2183,"▁\"गोसो":20639,"▁आसागि-बै":29598,"तखौ":4903,"▁नायगिरदोंमोन।":22442,"जिखौ":20740,"▁राइजोआरि":16024,"▁मानजा":20762,"▁बीर":5280,"▁गिलिर।":22972,"▁शंकरा":4478,"▁होमबा":3036,"7)":8156,"▁बाजै।\"":9450,"ोनाब":12782,"▁ताम":13210,"▁सेक्स":3265,"ोरा":4239,"▁हमनाय":4737,"▁थिउरियाफोरनि":5998,"▁खालामो":2677,"▁नवावसो":21755,"▁गनेश":23203,"▁बरुवा,":23854,"▁गयथिनि":27568,"▁लावथि":11455,"पार्ट":8454,"ण्डनि":16223,"\u001f":1,"▁थैजानानै":26152,"▁आफामोननि":26168,"▁थानानै":2063,"▁देगारजों":19424,"नांनानै":26856,"उरिय":5239,"▁जांख्रिथाइया":16928,"▁हगारहरनो":27539,"▁सुथुरजों":16677,"दान":2642,"फिनि":11697,"▁बेरेखायै":6373,"▁बसुमतारीनि":3535,"ब्रीज":26251,"▁जेरा":11152,"▁हादर।":22500,"▁मोनजाथार":15597,"▁कम्पिउटारा":5971,"▁गारनां":16028,"द्‌दा":12510,"▁नोजोरजों":5940,"▁आगष्ट":5755,"▁आरसा,":20535,"ink":21986,"▁बुंबाय--\"":22656,"▁Now":23233,"▁कलगार्ल":28952,"▁फावथाइ।":6539,"▁गोबाङैनो":14964,"लियाव":3891,"▁हाबबोयो":9716,"▁-हे:":10313,"▁दाबिखौ":13463,"▁सोमोन्द":1994,"▁दस":10974,"▁बाख्रिखौ":29426,"▁बैसोआ":5975,"दानि,":22551,"▁हालाम":3014,"▁आथिं,":16537,"▁रिनसि":23619,"▁जायै,":25137,"ेस":749,"▁बिजनेस":6010,"▁दंमोनब्लाबो":13503,"सुशान्तवा":23944,"▁नʼनिफ्राय।":26191,"▁गुदुङाव":9523,"▁नांथारगौ।":15180,"▁थारनोसै":26823,"▁फालिखौ":19218,"▁सेफाय":25575,"खागोन।":10174,"▁बुङालाबानो":12390,"▁अमि":7871,"▁जाइली":10112,"▁थाथ":2467,"ाबारी,":24678,"▁नंमारगौ":7163,"▁नखर":1150,"▁इनफरमेसन":4789,"▁जस्ल":12780,"▁ग्रेणेड":17352,"▁मोनथारबाय।":23191,"▁मोनबायदि":18842,"पि,":10518,"▁थांनोसै।\"":13584,"▁अनारीनि":25727,"▁गुलियाव":15038,"▁फिनै":27084,"बोदों,":9658,"▁लख्रा।":29961,"▁फिसा-फिसौ":6410,"▁सालायनो":16471,"▁फोसाबनानै":13578,"▁बाइनारि":22202,"▁फोनांनानै":11502,"▁बिथाङाबो":28386,"बराज":10473,"▁सोहोराव":15119,"▁बादै":14447,"▁लाखिना":18628,"▁दिन्थिदों।":5472,"▁बिबाननि":18044,"▁सिबनाय":28398,"ग्रां":2994,"▁पाब्लिकेशन":19376,"▁गेलेनाया।":27429,"ig":17396,"▁सातजार":15144,"▁बुङाहां":19044,"▁हैद,":27607,"▁सित":8244,"लाया।":4228,"▁नमस्क":11773,"ाबनि":15540,"▁फाथ्रि":16772,"▁बुसाया।":25375,"▁थांब्ला":3381,"▁फिरफि":9016,"▁सानदुं":14096,"ाय,":11733,"venge":24189,"▁जालांगोन।":22686,"ुनी":25132,"▁जासेनो":6971,"▁खालिनिफ्राय":22210,"▁जोनोमफुर":26867,"फिनासै":29841,"▁फिसौज्ला":28480,"▁प्रदुत":26608,"▁इनस्ट":10013,"▁सैबा":13224,"▁सिमांखौ":10668,"▁दो":1199,"▁माथो\"":27182,"▁नाङा।":2472,"▁सावनानै":4454,"▁नागा":2240,"▁टर्सनि":21176,"▁\"आ":736,"▁हमासै":19675,"▁दावजो":26011,"▁नोंना":14085,"▁बायदिसिना":2005,"▁बिनोनो":21639,"▁फैनानै।":27530,"-हाद":21887,"▁दुखुवाव":11228,"▁अलʼ":1174,"सय":8184,"▁रां।":6521,"▁गेदाइ":7561,"▁स्व":5960,"▁कल्पना।\"":18952,"▁पेपारनि":28353,"्रुम":10980,"▁सागुलुन्दि":20036,"▁सानथाम,":23108,"▁जायहा":8707,"लानो":5019,"▁इसारा":6977,"▁आमु":7510,"▁उनद":8400,"▁उदख":12294,"▁कमब":12343,"▁खेबसेबो":16354,"▁बागैबो":16629,"▁होखारनानै":22757,"▁नोंथां।":3395,"▁उथुमायाव":23593,"▁3.":3358,"▁\"थोद":29296,"▁गिज्रा":5057,"▁नारै":27541,"▁बुंसनो":17778,"▁सोंहरो।":18255,"▁नागिरदों।":5616,"▁दबानि":29038,"ow":2209,"▁आयु":11261,"▁गोथैबारियाव":19159,"थै":2212,"▁लाहाखि":19268,"e\",":24150,"▁हाबहैनो":25226,"दांनि":26536,"▁अलʼकखौ।":27627,"▁जोबथाहैयो":23323,"म।":24365,"सʼ,":26921,"▁मिथि":436,"▁हिउ":7089,"▁तुल":1284,"▁(म":5721,"achar":12523,"▁सिगांथिं":16174,"▁लेथ्रा":18465,"▁बुरै":2894,"▁दोनहैबाय।":21282,"▁नोजोरै":21603,"▁गाम्बारिखौ":22743,"▁बारासिन":14569,"▁खौ-औ":26316,"▁थागोन।\"":15043,"▁मगʼ":17557,"▁बेसोरनि":15190,"▁रहेला":12567,"▁(1":1980,"ान्स":9713,"▁आसामिखौ":18611,"ट।":20167,"▁फिसाफोर":8803,"▁up":17217,"थिं।":12051,"▁\"आबʼ":26593,"▁राइजोफोरा":4955,"ग्लां":6650,"ाग्राम":24875,"▁नुनानै":900,"▁सोमजि":1606,"▁!आं":20705,"▁आबʼ।\"":19132,"▁गासै":627,"▁थराय":9650,"▁नोंथांनि":2488,"फैयो":2804,"▁वार्ड":8922,"त,":4407,"▁फैमारबाय":20751,"-थुखि":23480,"▁मिथिब्ला":18088,"▁मुसाह":4477,"▁\"नु":18599,"▁बेंगाखौ":29499,"▁दंदा":25446,"ब्ला,":965,"▁गावजानानै":25123,"▁गान्दु":4665,"▁लिभारनि":29403,"▁दागाबसै।":29486,"▁गादों।":25893,"▁ग्ला":17546,"▁मतलबा":29311,"स्टʼ":18695,");":20043,"▁शर्":6791,"▁फेल":6690,"▁प्रच":21614,"▁फोरमायनायाव":21558,"▁थाउननि":21170,"सोम":1050,"▁साख्रिवाला":13442,"य'":24375,"▁अलकाजों":16630,"आद":17411,"▁एसेबो।":25951,"-थफ्लि":14848,"हरनायखौ":14191,"▁सुरबाय":27560,"▁बमाया":15459,"▁लाखोमा":24931,"▁एमबेसाद":26996,"▁संसाराव":3647,"▁सुग्रि-बाग्रि":12648,"▁दथि":20392,"▁रेबसुंखौ":23821,"▁सुबुंफ्रा":10449,"▁लाउथि।":28544,"▁बरगयारीनि":29807,"▁आखुवा":3391,"▁रोंगौथि":11569,"▁हाजो।":26486,"खुर":6418,"▁बुदुं":6488,"ाजों":539,"जायनि":26903,"▁दाउखाया":22152,"▁बुरैखौ":12470,"▁थाबायो":21799,"5":21,"▁हाबाव":6966,"▁हा-हु":5327,"सिदे":15577,"▁ककराझाराव":10027,"▁कान्तेश्वर":23695,"▁खनसाया":3531,"▁खोनाफै":22043,"थोंसै।":9407,"▁दमै":18751,"▁रानबावनो":22466,"▁मै":801,"▁Accessories":17346,"▁लंपेन्ट":10736,"▁अलʼक":1421,"जार":1771,"▁मेल":3384,"▁कल्पनाखौ":4391,"▁खिथा":13277,"▁नाजाथ":21682,"▁बाथ्रामोन":22386,"▁सिगारनाय":28752,"▁ओंखारनायनि":14358,"▁जिब-जुनाद":5981,"▁आवाजा":21677,"▁सं":782,"्रोम":8648,"▁ट्रिटमेन्ट":29937,"▁रंजानांगौ":27385,"ारि":225,"फʼब":12497,"थेन":15402,"▁फन":7521,"त्":4135,"▁एख":11034,"iet":15362,"▁आवारामा":21679,"▁है,":24561,"▁खʼथानि":14764,"▁आइ-आफानि":23518,"िनाव":8264,"▁लोगोआवनो":29364,"▁होयो":1778,"▁आसार":3876,"▁खायसेफ्रा":19029,"ब्रानि":18270,"▁जोंथिहा":11510,"▁हानो।":15498,"▁बेलासिबाय।":23003,"सेरनि":20469,"▁दिव":21156,"रीखौ":17492,"▁आरिखौ":29056,"▁थाफैदों।":21169,"▁बेण्डपार्ट":29916,"▁सादु":7766,"▁खालामब्ला":4824,"▁दाफै":21011,"▁बुंजासे":7260,"ांसि":17614,"▁थुनफावथाइयावनो":27827,"▁रागाया":14603,"▁लासखौ":14074,"▁मिथिबाय।\"":25832,"▁साख्रि":1770,"▁खफʼनि":17634,"▁नाङै":3481,"▁आफाफोर":14582,"▁सन्थाल":9002,"▁नायसन":11930,"▁मुवा,":22190,"भʼ":24353,"ाट":24419,"▁दुइनम्बरि":23970,"▁लोंखांनानै":9302,"▁नायाव":17595,"▁खेबसʼ":16353,"▁\"The":15690,"▁फरायाव":29227,"▁जानांगौ":1246,"▁प्रम्प":26605,"▁गानहोनानै":14611,"▁मोनगोन।":2032,"होनो।":19587,"▁फाग्लाया":13343,"▁हमथे":18068,"▁रोजा,":28356,"▁\"बडʼ":22652,"▁आदा।''":28437,"▁लांगोनाथिं":29579,"ब्रां":26249,"ुवाबो":13415,"▁सिफायनानै":8112,"▁गोसा":4920,"▁नायनाय":6103,"▁सानै":601,"▁लान्स":19242,"▁फोरमायनानै":5213,"▁फांनानै":18992,"▁गावखुंथाइयारि":24044,"▁75":16660,"▁आयखां":21671,"▁दाखालामसै।":23367,"▁\"आरति।\"":23825,"▁बाबांसिन":10141,"▁बोखे":9738,"▁रिसार्च":23795,"▁लोंबाव":26537,"▁खोनासंगासिनो":29679,"▁हरा":4357,"▁E":4800,"्ग":7494,"▁लान्था":11499,"नाव।":8723,"▁उन्दुनायनिफ्राय":26901,"▁थिउरियाफोरा":5791,"▁थें":8219,"इक":20116,"▁आमाइ।":19445,"ंग्रि":5052,"▁गुदुंजों":6193,"▁बिमायं,":19307,"▁जेना":17870,"▁मददनि":18879,"▁बादि,":21008,"मास":6960,"▁खुरैजों":28828,"▁गनायनानै":9427,"▁बांसिनानो":4293,"DP":24136,"▁जथाइ।":29496,"िनै":20650,"▁जिंगा,":14781,"▁थानायबादि":15949,"▁बारासो":10547,"-उ":4130,"▁\"हाम":11485,"बारिनि":10920,"▁10,":28098,"▁दबथाय":13633,"▁आन्च":12788,"▁कार":3475,"▁बारि-बाग":16942,"▁गोजांनायखौ":22507,"नांखो":18536,"ाथे":2569,"धाम":13896,"▁\"हाबाब":19698,"्लाइया":29140,"▁द्रा":17605,"फोर,":2829,"▁जाखोलै":27446,"▁नागिरोब्ला":21507,"▁लक्षीमपुराव":23584,"▁मुगैनो":14621,"▁बिलिफांनि":3689,"▁सोंथि":12075,"▁लाइजाम":1271,"▁सममिथि":15737,"▁बं":4417,"▁देग्लायबो":16920,"▁मदना":27187,"61":12678,"▁ओंथिबह":28724,"टेम":7822,"▁दाखालाम":5498,"▁नांगौ,":7352,"▁खोथाखौनो":11332,"▁चौ":7330,"ुर":253,"▁अराव":8801,"▁मथ":6048,"▁195":11353,"बेथेर":25840,"thell":27491,"्द":465,"▁रायजो-राजानि":19916,"▁दाया":4813,"▁बुंनायसाय":5346,"▁एन्ट":7535,"▁इउजार":16558,"▁हरदम":9752,"▁---\"":10109,"-15":19645,"▁सायराब":27170,"▁जोङो।":8775,"ादनि":20685,"▁बरʼवा":3569,"▁हरबाय--":13008,"▁हां":562,"▁थेख्रेनि":15165,"▁खालामोमोनब्ला":25112,"▁नुनायबादि":22899,"▁दं-":4011,"▁नोंहाबो":15660,"▁सन्देर":19893,"▁गेट":2247,"▁नुनायाव":8295,"▁साबिद":15167,"&":6,"▁ब्रेकफा":7456,"▁महाम":16175,"▁सायावनो":4751,"▁रदʼ":17647,"▁थानायलाय":25851,"▁लिरथाइनि":26099,"▁बाथ्राफोरखौ":5456,"▁हैदिन":22222,"▁\"दानिया":20641,"▁थाखो-":16529,"▁लेंहरदों।\"":28800,"▁रिंगुद":16836,"गां,":10464,"▁सुग्रा":16856,"▁दागखौ":22649,"गुलि":20142,"ेसिस":20277,"▁गुबुनारिनि":21121,"यापुर":24756,"▁लाइमोनस्रिनि":28937,"▁बाग्दावो":29032,"▁फोथायथाव":12272,"▁आयदा":2111,"ited":13566,"▁गेब्लाया":15822,"▁सायनो":24479,"▁'ड":14286,"▁रंजाहोनो":27386,"▁बोरदावलि":26036,"▁सौथु":14572,"▁काज":6955,"स्लि":4412,"▁नोंसाला":15133,"याननि":5836,"होयो।":3783,"▁जौमोना":18189,"द्‌":3752,"▁दिग":7590,"▁हालुव":14638,"▁खालाम।\"":17780,"▁हाबाफोरखौ":11167,"▁बाहाय।":21651,"▁जान्जियाव":13719,"▁बुयो":17883,"▁थालांबाय।":19500,"▁फोरमायनो":4779,"▁दसेलʼ":18605,"▁खालामहर":25096,"न्द्राया":25210,"▁होनबा":6954,"▁जुम":10960,"▁युमुना":9552,"▁सै,":26736,"▁अजितनि":3134,"▁सिमाङा":11524,"▁फट":20449,"-गां":20049,"▁जाखर":13183,"▁खाखानाय":23152,"ेम":1088,"2)":3449,"▁नुब":4810,"▁राइज्लाय":15999,"▁अलख":6350,"आ":95,"▁सरखार":12223,"▁खालामाब्ला":17781,"लंबार":29307,"▁मोसानांगौ।":26706,"▁नम्बर":3701,"▁ग्रीम":5533,"▁गराइ":12254,"▁थांफानायसै।":23723,"▁मेंग्लिनाय":23871,"▁गेजेर":437,"▁दाखोरबारिनि":29642,"▁हायोमोनब्ला":21858,"ob":24171,"ेसालि":7338,"जिर":1669,"▁थियेटारा":9420,"▁रामोन":2703,"▁माने,":14854,"▁थाइलालिआ":8966,"▁इयुनखौ":8955,"-सिदा।":27951,"▁नरेशखौ":19433,"यैनो":2774,"▁ओजों":2506,"-आखु":5644,"गोबां":15387,"टार":2211,"▁लानानैनो":5738,"▁हादोरनाङै":9939,"▁मदापि,":23982,"▁बेखायनो":2866,"▁अलसि":27162,"▁बेरामजों":19330,"▁सेना":5061,"ब्लाबो":476,"▁खदाल":20446,"ाराम":445,"▁थांसिगोन।":25192,"▁दंगʼ":19875,"▁थाखै":15837,"▁लायै":3559,"▁हायो।":1254,"▁मैदेरा":12480,"साइ":2027,"▁सह":1312,"▁सोबो।":15823,"▁जोहोलावारि":22128,"▁गोनांथिनि":25905,"▁हामसिन":11280,"▁कम्फिउट":14628,"▁देवानि":5379,"▁जिल":25438,"▁बिसायखʼ":4579,"▁मत":4500,"बियो":7567,"▁थाथावगौ":23712,"▁बुंग्राया":25086,"▁)नि":26582,"▁भुटाननि":14959,"▁\"औ।":10734,"▁खानजं":27683,"▁निस्थार":5332,"▁आसिन":20378,"▁{-नि":29199,"जेक्ट":12281,"▁दाहोना":2609,"ोद":638,"▁\"ग":2599,"न्थʼ":4612,"निख्रुइ":3460,"ोना।":14307,"▁हेंथायाव":18707,"▁बिफाव":18319,"▁लाफैनो":24935,"फʼनि":10918,"▁जाजोबबाय":28825,"▁अलकेशा।":23255,"बादखौ":22472,"-दाउ":10886,"▁उन-उन":8401,"▁रागाखौ":13444,"▁जाखांफैबाय":22245,"-माख":18500,"▁मन्जुलानि":19796,"-हनै":27080,"▁बिहोम":10549,"▁थांखो":6275,"▁हेन्देलखौ":23732,"▁रजे":11806,"फाव":1176,"न्दि,":20501,"▁लागे":20580,"▁मिना":25203,"▁हासुं":8348,"ैखौ":4497,"घ":108,"▁गब्ला":24494,"▁गसाइ":3443,"▁फोरमायो":7731,"गं":2519,"-हि":10569,"▁बेफोरबादि।":26551,"▁राजि":6536,"▁खारगासिनो":18298,"▁गʼदायखौ":23650,"▁मन्जुवाबो":14637,"▁जगायनो":23204,"▁आबारीया":9797,"▁गान्डा":27837,"▁ब्रे":3371,"▁जानांनानै":28605,"स.सि.":20248,"▁बस,":24460,"▁खायो।":15545,"▁थाफसिखौ":23113,"▁च,":14464,"▁आनजादनि":10673,"गान":5403,"-फाव":6793,"▁सिनायाखै":10545,"▁उदुवा":11373,"▁हेंथा":1644,"▁आं...":24881,"▁माखा,":18567,"▁गिग्रा":25522,"▁50":4660,"▁पार्":10331,"▁फर्":24707,"▁देरनो":12130,"▁नेर्सोनखौ":29354,"▁रे":1030,"हैफिनबाय।":25699,"हं":10205,"▁मोगन":28616,"पार":1393,"ोमानि":15617,"थारा":5446,"सेयारि":17652,"▁इ-":25353,"▁हाउसाव":9485,"हारिनि":20257,"▁खोथाल":26548,"थायो":7570,"-गुर":14500,"▁बोरो,":21268,"▁नै।\"":21741,"▁फैयो।":2623,"▁मोगा-मोगि":4788,"▁गाबबाय।":18123,"▁जामारबाय।":23311,"▁होदो":6279,"▁महर-मोखां":21302,"▁जागोन-":26868,"▁लागोनि":17069,"▁मिसना":29338,"नाइ":4585,"ज्लायनाय":8009,"ैयै":17516,"ख्री":25846,"▁बिमा-बिफानिफ्राय":13461,"▁रिड":21783,"▁सार्":5162,"▁मोननि":4925,"▁होन्नानै":709,"▁चाइडिं":17339,"▁दाउस्रिया":27506,"▁बुर्जा":16525,"▁मोनैखौ":28666,"▁टेक्सियाव":29893,"▁समावबो":7950,"▁\"बेयो":14833,"▁मान्":9099,"▁रʼ,":12357,"▁जंखायनाय":29529,"▁होसोगासिनो":28971,"▁दाबारी":14547,"▁खालामफै":15716,"▁आलिनि":23374,"▁21":4098,"▁आमाय":4602,"▁टां":21175,"▁आगसि":4960,"▁कामाननि":28703,"▁खोथा।":11331,"▁फारनै":3103,"▁बुजाय":3832,"▁हालम":6822,"्लेब":15654,"▁गरन्थʼखौ":29641,"▁रामोन्दाया":10834,"फ,":24331,"▁(3)":4716,"▁बागान":7078,"▁माहारियारि":4669,"▁थुनफावथाइया":7105,"सियाव":7229,"▁(ओ":9198,"शान्त":1911,"▁सलʼवा":3429,"▁मंगलदैनि":28538,"खादोंमोन।":7903,"▁जायगानि":3491,"▁दानि":1333,"▁बेसेबांबा":5649,"▁नायस्र":25390,"▁दन्दर":15522,"▁बेफ":20453,"▁खोनानानै।":27907,"▁दाबसेयाव":6547,"▁आथिखालनि":3977,"▁बारसʼनानै":15889,"▁\"आदसा":19882,"▁अपारेशननि":28376,"▁सालाइ":5114,"c":63,"▁मोनखाङो।":7237,"्लियाव":2396,"ाहाम":9677,"▁कापनि":16876,"▁प्रेमधरनि":7427,"नाङो":12878,"▁एम्":3377,"-फं":6537,"▁गंगार":6438,"▁नोंथांमोना":7994,"▁गंनैसो":16111,"▁जाबखो":21994,"ous":11399,"होब्ला":21188,"हुरै":24415,"▁माइरं":3796,"▁जलपाइ":29613,"▁मदा":17555,"मिनि":15419,"▁सोदोबनि":2782,"▁जारौरौ":29246,"▁बक्सीं":17197,"▁रुमालखौ":19820,"▁थाराय":26819,"▁खथायाव":3820,"▁थोआ":8469,"▁नुजाबो":15008,"▁गोहोमा":10681,"▁पुलि":17864,"गारो।":26425,"▁नेवसिनो":13679,"▁होनानै।":21641,"▁रोजाबनाय":19505,"▁'महर":29266,"▁गोसोआवनो":13312,"▁सि,":9674,"-मै":9321,"▁खालामबाय।":2772,"▁रकि":24743,"▁सानैजोंलʼ":28358,"▁दाहाय":27153,"▁O":5278,"▁दाजाबनो":27285,"ष्ट":713,"▁हास":12031,"▁बाथ्राया":1657,"▁आरिमु":8115,"▁गामियारि":5355,"▁नाʼ":9772,"▁खियो":13276,"▁em":11732,"....!":20735,"▁सव":24475,"▁गन्थंजों":28818,"लाङासै":24592,"थाइखौ":10355,"▁हानांगोन।":22460,"ाबाद":11789,"▁गेदेर,":22521,"▁मेगननिफ्राय":4549,"▁शान्तिमोननाव":28694,"▁सोलोंनो":12260,"बायदोंमोन।":24808,"▁अदालगुरीनि":29690,"ुबि":9692,"▁फाहामसालियाव":4667,"▁फरेष्ट":5808,"▁रगʼ":14026,"▁सेरफ":12161,"▁दावखायाबो":26021,"▁राइफलनि":29882,"▁हार":1042,"▁मिन्थिगौ।":28813,"ुलुस":23308,"▁थासारिनि":13400,"▁माब्लाबा":1677,"्नै":20282,"▁मावमोनथायनि":13769,"▁बहारा":27988,"▁मोन्दांथिखौ":29116,"▁लाबोफादों।":26971,"जाल":24250,"▁अनसुंथाइ":5139,"ठि":24271,"▁जाम्ब":9971,"70":11670,"-बाग":7066,"▁दानथे":10479,"▁अमला":3603,"▁बिकाश":24654,"धा":7183,"▁बटल":8564,"▁मावाखिसै।":25604,"▁जिंगादा":23038,"▁बिषमाव,":22628,"▁साथ":7195,"▁आखलै":15841,"▁बिथʼनि":29533,"▁बाया":11736,"▁गाबो।":5740,"सेयावबो":5785,"▁लेदिज":13799,"ंखारखौ":25281,"▁ददेरेया":2225,"▁बिसि-फिस":4545,"▁दायना":27027,"▁बिमालुनि":28024,"▁आइजोया":27843,"हैयो।)":28307,"bal":20085,"▁देरफुनाय":18398,"इनाव":15378,"-थेर":19076,"▁गोसोखां":1941,"▁क्ष":11049,"▁नभेल":17604,"बारखौ":18412,"▁गुर्लाब":22257,"▁फुथुब्ला":23283,"दाया।":20186,"▁सोदोबखौ":3965,"▁सख्लʼ-बख्लʼ":24039,"▁सुबुरुन":11651,"▁खुदि":7974,"-फाग":26560,"▁जार्माना":29660,"क्टरनि":14620,"▁थाफैग्रामोन":29707,"▁दोनथुमनाय":23114,"ी":143,"कʼलजि":20132,"्दा":2559,"▁औ।":9388,"▁जिबौवा":12333,"दाननि":24303,"▁बिजौसिम":28231,"▁Are":28255,"▁मावफुंनानै":28707,"▁गोदाननो":21472,"▁थांनायमोन।":27009,"▁मछ":20337,"▁देलाय":13015,"▁फोरमायलु":21559,"▁बिखुंखौ":19617,"खौबो":717,"▁बैसागि":7429,"▁बुंबाय---":28344,"▁सार":1267,"चिन":12706,"▁रां-र":21389,"gh":6643,"▁रोजाब":4266,"ave":13856,"▁दां":1645,"▁महननै":28391,"▁टेकनि":12295,"▁ओन्":7915,"▁मालायनाव":10543,"▁नुजानानै":15817,"▁मादैनि":27768,"ेस्ट":7337,"▁थादʼग्रा":23183,"▁दैदेन्नाय":17188,"▁सिखिरिया":26164,".ए.":3203,"▁हिन्जाव।":12114,"▁सोमोनांथाव":17190,"▁[ख":21486,"▁गोजोननानै":27059,"▁फरायसाफोरखौ":16531,"▁आयदाफोरखौ":22582,"▁फरायनोबो":14382,"▁खालामनानै,":16136,"▁गुमैनि":27739,"▁नरेशा":9004,"▁सलʼखौनो":21088,"▁जान्":4501,"स।":12741,"▁जात्रागान":13777,"▁फिट":8389,"▁दैदिं":20954,"▁सानसेनि":12209,"कखौ":3651,"▁हादराव":4648,"▁मुगैनाय,":19088,"▁हरगोन":11130,"▁खों":24680,"sp":24182,"▁जखाइ":15495,"नारि,":20196,"▁होसार":12937,"▁हाबिलदार":12457,"▁दिना":8336,"▁नांदों,":21413,"▁नङा\"":21053,"▁रिंसारथिजों":16618,"▁आगरवाला":17047,"▁जादोंना":21482,"▁मिहिर,":8878,"▁बर्जन":23538,"▁गोसोखांहोनो":28092,"ational":29002,"▁समाजारि":5357,"ारी":371,"▁दैमा,":14242,"▁हरि":6118,"▁मानफ्रा":25276,"ेल":560,"खौनो।":11194,"ने":2492,"▁PROMP":28457,"▁गोदाव-सोर":13716,"▁नुफै":17896,"जखौ":9586,"▁नायजाबा":8419,"वो।":8610,"▁घट":14728,"▁प्रदिपखौ":17101,"▁थैफ्राम":21330,"▁मोनसेयानो।":25706,"▁नुनाय":2987,"▁सय":4594,"▁गुदुङै":29544,"▁जिउ-ज":14388,"▁बेफारिनो":23417,"▁सहैनानै":24486,"▁क्लरʼ":19420,"PS":24140,"▁जिनज्रि":22540,"▁आति":12786,"▁नुम":24595,"▁बादोंमोन।":25461,"▁होयाखै।":19613,"▁सोरखारा":3245,"▁खारगʼनो":29941,"▁थाना":4605,"फिना।":14491,"▁बि":183,"▁हारिसाफोरनि":26173,"▁गुबुननो":21119,"बाव":403,"नांगौ-":21371,"बाथʼ":15415,"▁सावसुब":11197,"नदे।\"":24322,"▁बिन्दो":9124,"फारि":1227,"टन":5684,"▁मʼहर":19536,"▁दोनहैनो":26063,"▁जोरनानै":29494,"▁रायज्लायो":12087,"▁जेसेखि":9415,"▁'मा":10379,"▁दंजोबो":25452,"पास":18906,"▁दागो":13990,"▁निरामिस":9550,"▁फिसाजोनो":13184,"▁आखाय,":28954,"द्रा":9069,"▁एथे":17729,"▁बिखु":5568,"▁खुद्रि":7328,"फ्रामबो":3004,"▁मि:":25201,"▁मिथियाब्ला":15942,"▁बयबो)":27125,"▁मर्":20342,"▁कयान":25065,"ग्लाय":2725,"▁गामिनिनो":16291,"पाति":16544,"▁रले":24733,"▁काम":2879,"▁बिरहाङा":13793,"▁एंख":15646,"ेना":1207,"▁रायो":15564,"▁मावा-दाङा":17174,"नसो":1971,"▁मास्थारा।":23486,"▁ट्रेइनि":29988,"▁नेर्स":14878,"▁सुंग्रि":21971,"▁जोंनाव":5720,"होनानै":1794,"जाखौ":2102,"▁पास":3601,"▁लासै-ला":18641,"▁फिसाज्ला":1747,"फिनदों":18235,"▁सौथार":14570,"▁भुटिया":4894,"▁दैदेनगिरिनि":18878,"▁Mac":28699,"▁गरज":22020,"▁फोसावगिरि":13392,"▁गंसे,":9898,"inal":21987,"▁मावहै":11125,"▁खाफाल":1251,"▁तागि":21638,"फोरबो":5576,"▁जाथि":6731,"▁1,":18138,"▁राइजोयाव":10433,"निनो":10958,"▁जेबायाव":25348,"▁गथʼफोराबो":21498,"▁खांगोन":24687,"▁गेस":14201,"▁थोया":27796,"▁मावनायनि":4841,"सनानै":7834,"▁जांग":8204,"▁गुरो":18869,"▁लाहोनानै":20574,"-सब":12181,"ावसो":20303,"फोर।":2904,"▁रना-रनि":17356,"टिज":26769,"नांगौवा":21372,"▁ट्रेखौ":22312,"▁इनफर्म":29135,"▁दुखुनि":2716,"▁फिसाया":2530,"▁मेडामनि":11597,"▁सिखाव,":12405,"ज्लायो।":16779,"▁बोखांनानै":6987,"▁खुव":14449,"▁जाग्रा,":22623,"▁हं":5697,"▁समाव।":8349,"▁एहुद":24957,"▁जाखायो":26526,"▁बावदों।":14424,"▁दिहुन्नो":8980,":)":24133,"सʼनो।":21797,"▁मोदै'":27185,"॥":153,"▁पार्ट":3302,"▁गंसेबो":9334,"▁माइथाइयाव":21591,"▁फैब्ला":6094,"▁लाबोनाया":27157,"▁मोनगोन":2543,"▁एक्सटारनेल":19489,"▁सेकस्पीयारनि":9535,"ामोननि":5484,"हो।":10206,"लनि":878,"▁थिउरियाफोरखौ":11464,"▁बोनो":5279,"▁उथुमाय":17172,"▁मेट्रिक":5054,"▁बुंब्लानो":20661,"▁हाब":288,"▁खारनाय":7034,"▁किउरियʼ":10118,"▁सेबनानै":13000,"ारी।\"":15863,"▁भबेश":16008,"▁आसामि":18607,"▁दलर":7153,"ना।\"":20606,"▁दुखुवा":9297,"▁दोननो।":26057,"ख्रि":1509,"▁लथायाव":20479,"▁मेहेरसिङा":27947,"▁4.":3741,"▁जाहोनावनो":22464,"▁राइजोफ्रा":4452,"▁मोनाबि":2481,"▁खिरि":15548,"▁हासुदै":17055,"▁जांख्लायाव":28298,"▁गस्ला":3360,"▁गोग्लैनानै":3240,"▁खाखां":20440,"ार्":482,"▁सौथुनानै":23903,"▁मोननांगौ":7235,"ांनानै":24633,"▁निया":18209,"▁होफैयो।":5515,"▁जिबादि":17910,"सेनि":2229,"▁जानायलाय":9242,"▁माथोलै":27184,"▁गोबाय":9659,"▁खोमदोन":2109,"▁नायलʼ":11928,"▁थाफा":25868,"▁खेबथाम":18657,"▁जापाननि":13796,"▁सिसु":20559,"▁समाव,":13066,"▁अखा-बां":27595,"टʼप":14823,"▁हालोदाव":15156,"▁उजिगोन":28156,"फ्लांगोन":16310,"tish":27555,"▁सायारामनि":13582,"दिया":1054,"बावनो,":22388,"▁समाया":4517,"▁खिबुवाव":23400,"arra":27958,"▁बिगोमाखौ":29275,"▁सिन्था":10276,"▁अननायनि":6999,"▁drama":22931,"▁अजित":1178,"▁लाइमुथि":26277,"▁आदै":3051,"▁थांग्र":12809,"फ्लाय":4409,"▁दोनफैनाय":14364,"▁एरसोनानै":16251,"▁बानुनि":26834,"▁हमबायमोन।":28907,"▁जेसेबांनो":14924,"▁\"थां":6953,"लाइयाव":10362,"▁थेथेनो":26787,"▁थर":2407,"▁गाराङाव":15086,"▁भोट":16009,"▁खुरिया":12392,"▁जाबोदों":10711,"▁बोरैदि":27289,"▁गोजौआव":18519,"▁आस":707,"▁दयाराम":4672,"ब्राजों":21422,"द":122,"▁ओंख्रै":25715,"▁लाजिनां":11033,"दायानो":14678,"ख्राइ":14304,"▁बाखनाय":5246,"फिनो,":13200,"▁जो-जोला":13811,"फ्रुवा":20646,"्स":7190,"कनिफ्राय":24217,"▁सिखांदो":17111,"▁दान्दिसे":2121,"▁फान्जाम":13484,"▁गलाफोरा":22859,"ङाया":15388,"▁फाव\"":15979,"▁जार":2130,"-ब्लाउ":24113,"▁sub":28238,"▁समायनि":21790,"ाजिया":11015,"▁खाथिथाराव":26512,"▁गुबुं":7569,"▁खनबा":26614,"▁मोबायजोंबो":12643,"▁थाबायग्लां":21803,"▁गंसेखौ":26919,"थारा।\"":29539,"थां।":9763,"-गैया":21644,"▁मुंमा":2239,"▁नेनो":8390,"थान्दै":10911,"▁होलांबाय":20773,"▁\"लाइ":15685,"▁सानबोलाउरिनि":19628,"▁मोबाय":9682,"▁फंनैसो":7072,"्फा":17518,"▁ओंखारदोंमोन।":18162,"▁जाफाव":25262,"▁लाखा":17718,"▁आखल,":22274,"▁दासान्दि।":23432,"▁आबै":3029,"▁जा-लों":25267,"▁खिन्था":2718,"थ्लिब":24297,"नायसै":1960,"लिखौ":15878,"▁बेलुन":16319,"▁समायखौ":9897,"-गावनि":4654,"▁बुरजा":8462,"▁एसामिस":28004,"▁नायदि":20833,"▁साइकेल।":22469,"▁नंलिया":4972,"▁लाङोब्ला":24943,"▁इंराजी":3804,"▁दाग।":19149,"कारा":20130,"▁-इ":12920,"▁दानदिसे":16134,"▁X":24439,"▁होआ":2649,"▁ब्रीज":16198,"ारीयाबो":20969,"▁हेफाजाबाव":9964,"▁निसायाव":26159,"थानानै":6655,"▁गाराइ":11180,"▁हामबुरा":7774,"▁नायग्राफोरखौ":17009,"▁प्रेमध":2328,"▁गैयाब्लाबो":5782,"▁जेरावबो,":28424,"पिटालाव":11625,"▁अख":8678,"▁आलाइस्रिया।":22030,"▁जालायनो":16842,"▁गोदाव-सोराव":15310,"▁लादोंमोन।":4705,"▁बुदांनि":19815,"▁औरसयाव":23776,"ख्लैनो":8442,"▁सैबारी":4285,"▁बावसिन":26326,"▁जुगुम":23034,"▁खुम":8221,"▁अलिम्पिकाव":19690,"▁लजिक":24770,"▁दारʼगा":13763,"▁रोङैखौ":19290,"▁जिंनि":11942,"▁फुंबि":8032,"▁साथामनि":14973,"▁सफ्ट्‌वेर":11612,"चनि":10183,"▁बिबʼखौ":25711,"▁मन्जु।":16381,"▁गोजां":1930,"▁इलेक्ट":17200,"▁लिरनो":4642,"▁आंगो":1963,"▁नायहाबबाय":29970,"▁जाथों":2958,"▁खेबाव":5367,"▁हरगोन।":18018,"▁सौफैबाय।":28754,"▁हागौ।'":11296,"िस्त":3342,"▁मेक":17922,"▁हाबफै":1203,"▁थायनै":4205,"ीनिफ्राय":24422,"▁नाङा।\"":18921,"▁बेमारिखौ":15019,"▁सुहां":25623,"▁फोरमानखौ":13474,"▁राननो":8936,"काता":18491,"▁अनगायैबोदि":27833,"▁(बाज":19566,"▁गोमायो।":16146,"▁दाङानाथ":29565,"▁आमेरिका":15092,"▁(196":10764,"▁थोनाया":16857,"▁रामोन्दानि":17105,"▁खैफोदजों":22306,"▁लोग":362,"रिन":17490,"▁नाइनानै":22826,"-आ}":27352,"▁सुजुग्राया":4569,"▁मेनेजार":5137,"▁सेरै":13220,"▁गिबि,":18646,"▁उन्दुब":26356,"'आव":20042,"▁थाखानाय":6985,"▁साव":569,"▁हाजʼवारी।":13529,"▁लावखार":8951,"▁गाखोहैयो":19128,"▁होब्ला":4253,"▁जाखौ":25261,"▁पाब्लिकेश":28929,"▁बुद्रु":19278,"▁(रागा)":15291,"▁इन्":3774,"▁नुबो":14197,"▁आगाननै":22378,"▁आरो,":20551,"दोंमोन,":2470,"टेलाव":5380,"▁समाय":899,"▁डाक्तार":10818,"▁जिउजों":13104,"ष्टेलाव":14478,"▁बोसोरारि":9859,"▁ख्रों":13795,"▁बिथां":811,"▁सोङो-":6854,"▁narra":29021,"▁जासिनदों।":25271,"▁गोथारै":14783,"▁थांनोसै।":7665,"▁केसा":13351,"सोमोन।":6560,"▁बाथ्रा-":25817,"रि।":18063,"▁हागुङाव":25814,"▁नरेशनो":23102,"▁मोनब्लानो":6939,"▁राइजो-":8359,"▁आरांगा":23590,"▁फासय":12570,"गार्ल":21514,"▁बिबांनि":13743,"▁P":2479,"▁बाखि":16641,"▁दैदेननाय":14735,"▁दुइनम्ब":17239,"▁समा":3698,"नानो":17459,"▁गिसिख":23078,"▁टाइग":29126,"▁थाथों।":15112,"▁होज्रि":20769,"▁सिरि":822,"▁नरेश":3805,"▁दुप":3788,"▁खालामजोब":25097,"▁बोनायखौ":22815,"▁खालामबाय":2981,"▁खालाम।":7544,"ोनासं":15951,"▁बुर":1491,"▁कहि":12897,"▁माथोब्रा":18545,"▁नोंलाय":2482,"▁बाथ्राफोरा":11999,"▁ग्लोम":19757,"▁http:/www.":24076,"▁आंनाबो":24883,"▁खामफ्लायाव":8356,"▁ख्रे":4699,"▁फालो।":28040,"▁बेसो":8225,"▁एला":10278,"▁हराखै":18020,"▁60":8496,"▁बिलिरै":28964,"▁थांखिनानै":4044,"▁फायखारि":23189,"▁मावाखैमोन":25608,"▁फिल्म":13807,"▁दि.":25856,"▁14":3898,"▁थुम":9125,"▁दाबिया":18533,"▁फिसाय":10346,"बाव,":25718,"▁नंबाय":27107,"▁लाखाद":27968,"▁असमिया":6375,"▁बेफोरनिफ्राय":18416,"▁होलाङो।":7269,"▁थियेट":1754,"▁बाकसा":15241,"▁आइकʼन":7460,"﻿म":24086,"▁मिसन":24518,"बिन्द":6495,"फोना":11696,"▁गुवाहाट":1756,"▁जानोसै।":14348,"▁नʼनिफ्राय":9801,"हाइ":17506,"▁फिसाजोआबो":27206,"▁मी":9623,"▁बुंगोन":3262,"ोरनो":11777,"'।":3546,"▁लाफ":5711,"▁मुंराय":3099,"▁आयदानि":5347,"▁थुंगि":8121,"▁सुरनानै":5502,"▁'ट":14285,"-ख्रेब":20054,"छ)":24247,"▁टाइप":13651,"-बुरि":21717,"▁13":3785,"▁नायहर":1072,"▁................":18943,"▁आफामोन":26167,"▁हाबफैयो":3321,"▁'A":21073,"बारि,":24349,"▁गि":353,"▁दानाव":5617,"▁मेलेरिया":12657,"▁आसागि":5759,"▁कमाण्ड।":8087,"▁मेथाइनि":13443,"▁फुथिहां":15267,"-लु":7810,"▁दंनायमानि":12637,"▁आब्दुल":15281,"▁खोमाया":21473,"▁फारफ्रोम":26280,"▁आखुथाइ":5929,"क्सा":5620,"्राजोंनो":29615,"▁हकार":24565,"▁बादायलायनायाव":19551,"isc":16654,"▁रेडिअʼ":19682,"▁सुमु":23412,"▁बन्दक":28292,"▁लोगो-लोगो":10858,"▁मेइल":20889,"▁गुस्थि":10806,"▁खामानियाव":2605,"▁बिबायारि":9488,"▁केरि":14991,"▁सोरजोंबा":7454,"सोरनि":14158,"▁बैसागुनि":11549,"▁नांग्रा":12792,"जायाखै":18845,"▁बिहाउ":18811,"थारा,":20958,"▁सुखु।":22598,"▁अन्दरनि":23419,"▁दावबायारिफोरा":18961,"▁हब्रानाय":23616,"जिराय":16579,"ानांदों।":29023,"▁नङाह":26488,"▁खौसेथिखौ":28766,"▁लखʼ":5864,"ol":2891,"▁दैमा-दै":9493,"▁बैदिनखालि":13089,"े।":15445,"▁फसंथाय":28472,"▁प्रदिपा":23472,"▁फाथि":16292,"▁जिंगाया":23037,"फिनो।":1822,"▁सिग्रि":17712,"▁हान्दिल":24042,"▁आरिमु।":29995,"▁लुथुर":21899,"▁जर":4422,"▁मन्थ्रिया":8043,"जो,":17993,"▁दुलाराय":2007,"▁फाउ":8862,"▁बिलिफाङा":2439,"टारनेल":9447,"▁अबथिर":16522,"▁थरफनिफ्राय":22687,"▁आखियो।":29878,"▁थाखोआव":7398,"▁ओन्सो":10852,"▁नल":8643,"ल्फ":14436,"▁थगायनाय":16776,"▁मोदाइनि":18371,"▁फेस्ला":5392,"▁गोदोनि":3128,"▁बारनो":6997,"▁दोनदो।":21280,"▁थांनांनोसै":19964,"ब्रै,":21423,"▁खालाय,":28258,"म'":24363,"▁टेबुल,":29320,"form":17394,"▁उरनायाव":23306,"▁भुगिनांनाय":13758,"▁कʼर्ट":10299,"▁माब्लादि":18556,"्ला":204,"▁गोरोन्थिफोरखौ":18974,"▁मोनदा":14051,"▁\"ह":2545,"▁बिलित":14617,"▁बाखनायनाय":17037,"राण्ड":26117,"▁थायोब्लाबो":27259,"▁फोजाव":10397,"▁सुनिखौ":15097,"▁मुलाम्फानि":21096,"▁चार्भिस":20029,"▁गाखोनाय":7696,"▁थादो।\"":28351,"▁हालिया।":9931,"जालि":9587,"सार्ट":21154,"▁सारन्थाइ":22118,"▁खोथाखौ।":27262,"▁थुंगियो।":29997,"▁फैफिन्नानै":14164,"▁होनथे":8700,"्दै":14329,"▁'हाय":21080,"▁नोलो":16114,"जी":10185,"▁खनसेनो":22713,"▁लाखिनानै":5095,"जाज":13882,"▁CRA":28088,"थावा।":8365,"▁खावलायनानै":21765,"▁गावबा-गावनि":7435,"▁पकेट":7554,"गुलार":15238,"▁बामखांनानै":28686,"▁लोमजाब्ला":18996,"▁रै":933,"▁गोसोआव":1168,"ुलिसफोरा":27233,"▁बिसोरबो":4637,"▁बिगुरा":27295,"लावरिनि":7953,"ecial":23167,"▁हाबफैयो।":2845,"▁बाजिनिफ्राय":8447,"लिम":8318,"नामा":11693,"▁नायजाबगिरिया":8420,"▁गाब।":12023,"▁दाबुं":4763,"▁अमब्रा":10637,"▁(आं":25320,"▁जʼरा":3196,"▁नांलाय-खम":17006,"▁रां":581,"▁ओंखारहां":13078,"▁फिदिं":6544,"▁जाखाङो":15131,"▁नुजानायनि":17900,"▁सिखार":1821,"▁(मोस":23666,"▁नोगोरारिफोरा":16519,"ु,":2558,"▁हाखन":12290,"लायोब्ला":12919,"▁पेग":22660,"▁गाबज्रिनानै":19023,"बायमोन":7527,"स्नि":3791,"▁मोजांखौ":14298,"▁महाराजानि":6016,"▁मिनिखै":6527,"ग्लाबनो":29430,"बोला":2195,"ll":13864,"▁'हे":18057,"▁अजन":10525,"▁दाइ":3763,"▁बुंदो":12902,"▁\"ज":5885,"▁बुगा":12956,"▁दाथा":10236,"▁सिलाइ":3769,"▁साय":1067,"▁साननायसै,":16708,"▁धोरोम":1502,"▁फेन्दा":10579,"▁बोसोरथाम":14493,"▁सलʼ,":6505,"▁सहराव":13730,"फारियाया":27377,"▁उन्दैनिफ्रायनो":12310,"र्सनि":12121,"खायनो":1005,"▁माहाजोन":1363,"▁निउ":2069,"थारबाय":2909,"▁लांदां":4185,"▁साख्ला":27520,"▁गनायथिखौ":28057,"▁दंबावोमोन":29673,"▁गौरां":22753,"जोर":613,"▁नोंथʼ":4927,"▁मस्ला":24520,"▁खाख्रब":29166,"-बि":1201,"▁खुन्द":3904,"▁दुलुर":12340,"▁बादिनो।":25633,"▁सुफुंनानै":16728,"▁फोजोबना":18901,"▁मेंनायजों":22901,"▁नाजा।":16634,"▁दैमारीया":16912,"▁पिष्टल":24013,"तान्त":13886,"▁जाथायखौ।":27180,"मोन्":9680,"▁बरʼफोरा":2855,"▁गोरान,":21071,"▁बिबारनि":4735,"▁दिहुनदों।":27270,"▁थाइजौ,":23577,"्रिडिस":11858,"▁मोब्लिब":3047,"▁खाम्फाया":29591,"ोना":448,"▁ससियेल":20314,"ज्लायो,":14936,"timent":27556,"▁दिहुननाय":4977,"दाजों":6896,"▁मुंमायारि":26007,"-नै":11661,"▁मानसिफोरजों":14237,"▁गʼलाय":18661,"▁बेखेवगानै":5799,"▁एफा":2221,"▁July,":17327,"शान्ति":6903,"▁गोलै":2177,"▁केस":2771,"थावै":9270,"लाबो":9638,"▁(ग)":8104,"▁बाबा":7841,"▁मोखांखौ":3589,"बेनिफ्राय":14300,"▁माहामै":18328,"▁फोरजानि":18078,"▁खुन्":26437,"▁लिप":28011,"▁खानाइयाव":22676,"▁लायथां।":22095,"▁बिसुखे":5701,"▁रोङा":4850,"▁दान्दिसेनि":11446,"सीया।":24414,"▁खरै,":27678,"......य":28303,"▁खिलाखौ":27040,"▁जामारबाय":17027,"स्व":2862,"▁गाग":6670,"▁जानुवारि":10137,"ेन्":10937,"▁डाय":9770,"▁सोलियो":19045,"▁खनला":21618,"▁हाखुवा":27552,"नैया":4690,"▁(Adjective":23864,"▁जामनि":27636,"ो,":1324,"▁सायायाव":12232,"▁पेट":6487,"फैदों":4944,"प्त":990,"▁थफ्ला-थफ्लि":17021,"थायाव":779,"▁सोंब्ला":12076,"▁थाहैनाय":13547,"▁नखʼ":15515,"▁गेरेजाव":19951,"▁थागासिनो":21955,"्रै":1410,"▁मिनिनाय":5613,"▁सानस्रिखौ":11430,"▁बिग्रायारिफोरा":13622,"▁शिवराज":23823,"▁खʼ":1601,"▁रुप":3238,"▁बेरखांहोनो":16612,"▁खांख्राय":27748,"▁गोराजों":14282,"▁जामार":5108,"▁हान्टिं":27243,"▁'म":4360,"थात":25486,"▁हार्सिङै":3005,"▁गारलांनानै":26128,"▁बेयावबो":14702,"फान":7827,"▁but":22885,"▁अन्दाया":23418,"▁बड़ʼ":1553,"रिग":10382,"▁बाहायो":15976,"▁नाजानांगौ।":19783,"▁सानथारो":25006,"▁सैथ":26737,"▁थाइनै":7087,"▁दाखा":12799,"▁कमेदि":8479,"',":3007,"▁होन्नाय":3980,"संगिरि":20250,"▁थालाय":8217,"\",":4487,"सुख":12071,"ब्रि":4796,"▁मासिया":15744,"▁मोना।\"":22326,"▁आसथामखौ":19859,"2-200":24125,"▁साखा":2029,"▁दारिया":11774,"िल":5557,"▁हालोद":5773,"▁फाइलनि":8940,"▁बाजै,":10470,"▁खासिबारी":12550,"▁Practical":16760,"▁हय":3013,"▁होननाय":3260,"▁लिरग्रा":12046,"▁मोनहाबो":8675,"▁मोखा":1099,"▁लाइजौ":7675,"क्रʼ":11680,"-फिस":2251,"▁भेना":26044,"▁सिना":24901,"▁लेद-फ":26671,"▁गुफुर,":14994,"यानो।":8430,"▁लरेनखौ":28983,"ff":9570,"▁सिथोर":10275,"ाब्लिक":3254,"▁K":10940,"▁धु":5938,"▁समनिफ्राय":7896,"▁जेंनाफोरनि":22278,"▁गोनांब्ला":13053,"सिया":1521,"धन":10914,"▁गाबखʼ।":29566,"▁आइजोफोरा":8473,"लायनाय,":11891,"▁रिंसारखौ":7412,"▁बेखेवगानैनि":29602,"▁साख्रिखौबो":22431,"ocal":23560,"▁बिथराइ,":19722,"▁खिन्थाय":13267,"▁गोग्लैगोन।":26983,"▁नारेंगुर":13775,"▁आखुथायफोरखौ":22975,"▁जाफुंगोन।":16639,"रायाव":17489,"▁सानस्रिनानै":28101,"▁माइनारा":21590,"▁गिनांगौ":6439,"▁सिनायखायो":21807,"▁मोदोमफ्रु":9891,"▁दाबुंसै":29375,"▁मीन":1795,"गुरी":12456,"▁लांगासिनो":17725,"▁एटास्ट":19813,"▁गोनां,":8344,"रिं":15918,"रिगदै":19856,"▁सानलाय":14093,"खिखौ":18062,"▁खन्ज":24690,"▁धुम":26557,"खैमोन।":8806,"▁फरायबाय":8788,"▁दोरोद":8486,"▁राङानो":9903,"▁थांनायखौ":10315,"▁दानस्लाय":7327,"देरनो":21490,"▁+":13944,"▁डिग्रि":22060,"▁हाथारला":29132,"▁फाइनेल":22516,"▁मुलामफा":10150,"▁दंलाय।":25448,"▁फुंखाया":8033,"▁रुनानै":13208,"▁ट्रेजिक":12320,"▁रेहाय":21893,"▁जाहोननि":13453,"यारीया":24381,"▁सिखारहां":22452,"▁हामथारबाय":11282,"▁भि":3434,"जादों।":5900,"▁थावनियाव":23149,"▁सिदोब":12562,"-सोदोम":29523,"सन्":20243,"▁ओरैबादि":7436,"),":2114,"▁जों।":9717,"▁आंनिबो":25768,"▁माब्ला":889,"▁मावो":5909,"▁गान्नो":27836,"▁रन्जन,":23088,"▁सुबुंहा":26236,"▁जिरायथʼ":10585,"▁गोमाबाय":26459,"▁'बबि'":13634,"▁जानोबा":14347,"नायनाय":15552,"▁मोनबाय":1415,"▁इनपुट":10674,"▁सबाय":15466,"ष्टार":3314,"▁बेनिख्रुइ":9776,"▁लेखा":1630,"▁फोर्बो":11147,"▁दैमा":3718,"▁फसंनाय":11480,"▁आंखि":11835,"▁गसर":16485,"▁बुजियाखै":27803,"▁थिनबा":18747,"जेर":425,"उरीटि":19769,"▁\"माखौ":27868,"▁बंफां":8558,"▁रुबि":9508,"▁मुं.":2712,"▁हाथायनि":29005,"लायनो।":17799,"8),":20072,"▁खानाइया":28382,"▁लेट":6463,"▁जाखादों":12553,"▁बेड":15559,"▁आंखौ,":14422,"▁फे-फे":27161,"नाय":188,"▁दाहा":2795,"▁फाख्रि":8095,"▁बोलोआ":22371,"▁\"बाथ":19151,"▁हाबलाङो।)":19502,"▁आरांगायाव":19760,"▁नंगौ।":6183,"▁बिजाबफोरखौ":9371,"▁गारहर":7024,"▁फादुब":15204,"▁मोननैया":20526,"▁जोना":24539,"▁हाजʼवारीखौ":19193,"▁आपेल":29161,"▁(मेहेरसिं":24026,"▁सावग":1338,"▁खुम्बी":17184,"▁सोमावसार":1668,"बाद":1869,"▁समबारु-":3605,"▁सासेलʼ":5204,"▁सारफ्राव":16451,"▁नार्जारि":16608,"▁उइलखौ":16999,"▁हाग्रा-ब":8080,"दिन":4922,"oci":29909,"▁पाब्लिकेसनस्‌":15212,"▁गलाफी":11610,"▁खासिबारीसिम":23826,"▁टेलिफʼन":15303,"▁बेवाइनि":27682,"▁आखुयै":26284,"ुरी":6084,"▁का":1120,"▁दैखʼ":12995,"▁थैनायनि":3390,"▁मोगाम":10726,"▁It":22772,"जेन्ट":16465,"▁डिभ":8884,"▁बयसियाल":18439,"▁नुबाथाय":23272,"▁मोनथोर":15588,"▁लांदोंमोन।":18292,"▁राखें":16867,"▁(Pron":17141,"▁दाजाबदाया":7088,"▁बोराया।":16001,"▁सलʼगिरि":11143,"▁बसुमतारि":5642,"नायजों,":27212,"फैनायसै।":14260,"▁अफि":20540,"▁थाबनो":3972,"▁थाङानो":25870,"िरामि":17735,"▁जारौ,":23199,"▁प्रिनचि":29265,"▁जाफुंसारनायखौ":28981,"▁बुजि":1586,"▁गसाइनि":16486,"नानै)":4919,"फिन्नाय":5783,"▁फैदों,":7551,"▁रांखावरि":18248,"▁हाखरनि":18810,"▁सिख्लायानो":15293,"▁खायफानि":27092,"▁सल":7842,"हाय।\"":26733,"▁टिप":22242,"▁माबासो":18303,"▁बुर्लुंबुथुरनि":23614,"▁जोबब्ला":26208,"▁नम्बरि,":23375,"केस":15383,"ोगोरा":6831,"-गारि":16204,"▁हाबलाय":15760,"▁नेमनि":22694,"▁बेलʼ":7524,"▁गोबासे":16817,"▁गाज्रि":682,"▁बाब्रि":28519,"▁बिजौ":2136,"▁गाह":520,"▁चित्तरन्जन":7793,"▁सखा":24477,"▁बिन्दु":24649,"▁आफ्रिक":21343,"▁आखला":7280,"▁आंनाव":4337,"▁पुर":4830,"ब्रब":6781,"▁रोदा":1984,"▁फुसब":16194,"▁अर्":16074,"▁'बाव":14287,"बाराव":5622,"▁सामलाइ":18856,"गरिनि":20145,"-फे":10496,"▁राव-थुनलाइ":23596,"▁खरायनानै":23932,"▁हाजʼवारीयाबो":28462,"▁लोमस्राव":14806,"▁हाउल":23024,"▁फैबाव":17830,"▁खिन्थाहर":9389,"▁जाल":3083,"▁हैनानै":10624,"▁आबाद,":22869,"▁लाफानो":11032,"▁मैरा":26743,"▁सोलाया":15824,"▁सोलि":2004,"▁2012":28580,"्यमान":22270,"▁बां":679,"▁सोलोवारि":16658,"▁धोनसिं":19329,"▁मो":244,"▁मिथिदों":21130,"ां":179,"▁बेफ्रु":3216,"▁चेन्टारखौ":29977,"ेस्व":20276,"▁words)":23652,"▁हैनायसै।":27606,"▁एबसु,":22903,"▁बुथुमनायाव":28990,"▁साखोन-सिखोन":23974,"हैदो":11977,"▁नाजानायनि":12372,"▁सुल":24476,"▁हाबि":2678,"▁मिथिया":2067,"▁सिनायनानै":16282,"ap":5264,"▁चेन":16154,"▁A.":19116,"▁(लोगो":25326,"▁समि":7547,"▁दिन्दां":12006,"▁फिथाया":16216,"▁बना":17527,"▁खाराप":23945,"तिराम":24290,"▁नागारना":28168,"▁मलेन,":7084,"▁गाग्लोबथाय":28368,"ंग्र":20752,"▁गोसोखांथि":22518,"▁कन्ट्राक":19437,"▁15":2509,"ान्दा":6482,"ष्":10928,"▁20थि":22785,"▁खानायाव":8093,"दनि":3867,"▁आबां":17581,"▁सेक्रेट":16937,"म्बार":8330,"▁दैखाङो।":14241,"▁गायसंनानै":19709,"▁सुबुंसाइ":4856,"▁बइबो":23928,"▁होथʼ":25284,"▁मुश्रि":25778,"▁आनछ":26261,"▁...।\"":18976,"▁दुंखावनाय":27931,"यायाबो":24382,"▁बबेनिफ्राय":5485,"चाम":20151,"▁प्रेसक्रि":29762,"▁आखुफोरानो":26286,"गिरिफोरखौ":10411,"▁गैथारा":18244,"पिं":12720,"▁अरुन,":7742,"ीरेन":22325,"▁सेलेन्ज":23891,"खांदोंमोन":17936,"▁उल्थायै":23145,"उरिया":1836,"▁मेनाज":23488,"▁बोथि":5903,"▁गʼस्वाम":21932,"▁फाखायनानै":22817,"गामिनि":20147,"ङायाव":20148,"▁दिल्ल":1918,"▁सोमावसारग्राफोरनि":27884,"▁आसारिया":18408,"गखौ":13878,"फैयासै।":29608,"▁-नै":25174,"▁बायनाय,":25532,"▁हि":1198,"ाजानाय":3149,"▁थेख्र":5942,"▁जांख्रिथायाव":22732,"▁कम्पिउटारनि":4046,"सोनि":4618,"▁आस्र":10968,"▁दुखु।":26453,"ोदा":24432,"▁बुंफोरथि":25089,"द्‌लाब":29052,"▁\"बिनानाव":28341,"याव'":25013,"▁मै-मै":16229,"▁बावदियाहा":28604,"▁हम":417,"▁मर":15485,"▁बिदिनोसै":16109,"▁खैफोदनिफ्राय":12317,"▁डिटे":18734,"▁मेरेजनि":19327,"▁बृटेइननि":23909,"सालिनिफ्राय":18468,"▁थायसेखौ":22177,"▁नायथʼ":15805,"स्लाबा।":16878,"▁रहमान":13666,"▁जाथारबाय।":14904,".....":1719,"्लʼ":15651,"▁थुनलायाव":4963,"▁जायाखिसै":7628,"▁बोहैथिमोननि":28622,"▁साखरि":27521,"▁भेनिटि":17363,"फिन्दों":18907,"▁मोनस्रा":15590,"▁नाग्रि,":26038,"▁थालिया":27697,"▁जादोंमोन।":1585,"▁सिंह":7059,"ायैनो":3433,"▁fl":28856,"▁दोननाय":2809,"▁जालदाब":19317,"▁खामानिखौ":2148,"▁बेण्डेज":11627,"ख्लायसिन":29283,"'":7,"▁मनजुलानि":9000,"▁(मु":17855,"ाहैबाय।":18819,"▁होआसै।":28577,"-सौ":8845,"▁बाग्दावनाय":19411,"सारनाय":21152,"▁गगल्":5384,"▁दोहौ":11514,"▁लाङाखै":24947,"▁फानजोबनानै":27281,"▁गिदिंनायनि":27757,"जानांगौ":24261,"▁राहायै":12421,"▁(हांमा":20795,"्राया":944,"▁बसुमतारी,":4200,"▁मावरिजा:":15148,"▁मागा":19770,"नालै":12718,"▁मुजु":4946,"▁भज":26039,"▁Doct":24018,"▁फुलिया":19361,"▁\"क":4823,"▁थाफाव":18101,"▁सरकारि":16830,"▁गोरोबथाखौ":22254,"ीला":6430,"हुद":24417,"▁एस.":5656,"ाम्बारि":23985,"▁बिजिरगिरिफोरा":18694,"थार।\"":25565,"▁अब्ला।":21972,"▁गांसो":7069,"▁सुखʼ":8746,"▁\"W":25023,"▁सायखʼनाय":13642,"बिया":9073,"▁केच":14692,"▁दि":449,"▁फरायसानि":21322,"▁जेब्लाबो":1330,"▁बाहागोयाव":10527,"ब्लानि":12146,"▁डाइनिं":18112,"▁मेल-मि":12494,"▁सिगाङाव।":11337,"▁समन":25152,"▁थफ":4241,"▁भा":9249,"▁लांसु":10461,"▁फजʼनानै":8984,"▁नागिरनाय":4962,"▁थुनलायाबो":26433,"▁जाग्र":9780,"▁लोंखां":8379,"▁हरदोंमोन":25651,"▁गाबोननो":9421,"▁हमना":5197,"ुरा":1145,"▁बुलाय":15797,"▁फेंफोना":17220,"▁मोननायसै":18724,"▁साइकेलखौ":5518,"▁साग्रिद":13628,"▁जुता,":26569,"▁मोखाङै।":29153,"▁माइथायनिफ्रायनो":16985,"दिनै":6257,"फैबाय।":3720,"▁\"इ":6713,"▁बिजिरगिरिखौ":29981,"▁सलाइ":17540,"▁क्रʼरपति":17301,"▁दामसिखौ":18769,"जेरै":18073,"▁फोथायना":27431,"▁लाइजामजों":22125,"दर":5829,"हुं":3756,"▁हर्":9751,"▁फोरबो":5455,"▁बिबनांखौ":19704,"▁बोला":12985,"▁फैबा":25244,"डि.":8066,"▁हाबायाव":3383,"▁नङा।\"":3479,"+":11,"cell":9568,"-बुद":26809,"▁हागौ":552,"▁खेंनानै":6598,"▁सिमाङाव":5669,"स्लु":2308,"बेनि":13038,"▁गावसोरबो":22492,"▁degre":24073,"▁गोरोन्थिफोरनि":27956,"-आइ":27353,"ed":2518,"ष्ण":5275,"▁बावयैसो":12098,"▁हिन्जावाबो":21501,"▁खुन-जखम":28302,"-औ":15328,"▁नागिरहैबाय।":26408,"▁फुंखानि":27391,"▁लुग":8235,"▁स्राय":5412,"▁बरायनानै":8988,"▁रांखाउरि":18246,"▁अरनि":14410,"▁कनट्रा":19363,"ष:":7188,"▁मुवायानो":29934,"▁लाबानो":14618,"हाबो":1698,"ेइ":13939,"▁ट्र":5323,"▁फिथाइ,":8498,"▁अमल":11391,"▁नʼटिसखौ":17287,"लो":698,"▁बिलाय":2372,"▁हुरा":3086,"▁सुखʼनानै":15877,"▁एरखांनानै":21730,"▁थिननानै":16430,"ंखायनो":20765,"▁बाजैखौ":22645,"▁हमनायसै":14293,"▁थिखा":25862,"▁गाहै":21286,"प्ल":3453,"रेक्ट":5509,"▁बुब्लियावनो":7445,"▁दैथाय":3347,"होदोंमोन":18117,"▁नेबाय।":14513,"-नि":4222,"▁बोराइनि":10425,"▁फैफिनब्ला":14875,"▁दावखोनानै":26019,"▁मेथाइ,":27972,"▁सुथा":25619,"-स्ट":26800,"▁साननायाबो":22620,"▁फोजोबो।":21172,"▁नायगंनानै":17265,"▁आखु।":10459,"जु,":18249,"नो":182,"▁हक,":11765,"▁मेज":15830,"थ्रʼ":4888,"ुङाव":6909,"ङाल":24240,"ुगुर":17940,"▁गाजा":4598,"▁दानायखौ":16550,".P":24118,"▁बहन्नानै":18990,"▁हारामजाद":19653,"▁खायसो":27091,"▁कमाण्डा":19175,"▁जाहोदों।":23053,"▁बाखनायथाव।":29485,"▁रिंसारथि":13451,"▁भुटान,":28669,"▁डाइरेक्टरिखौ":23535,"ौवा":813,"▁सन्थाली":29026,"▁खालामबाव":20669,"शा":4230,"▁मानसिङा":14236,"▁एम्ब":6076,"▁अस्थाद":15316,"▁मैसो":7993,"▁थानायनिख्रुइ":28160,"मिन":1105,"▁एम्बु":7145,"▁बाहागोवा":21724,"▁होनायबादि":26399,"▁खोनादों":13314,"▁नागाखौ":19136,"▁बेरामनि":16855,"▁17":4526,"बाज":9603,"ानोबो":15628,"▁थांदों।":6091,"▁मालायनो":10028,"▁थिनहरबाय":14919,"▁फरायसालिमा":19199,"▁भकत":4529,"▁लानांगौ":6842,"▁मिथिसिगौ":21134,"याब्लानो":12734,"करनि":9580,"▁फिसाजों":17943,"▁गैयैखाय":13336,"▁जाथाव":4027,"▁सानैनिबो":10457,"▁दङमोन":10503,"▁माहाजोनाबो":16480,"▁औगुरि":27565,"ter":6029,"▁बिखʼनानै":20416,"▁फरायसालिखौ":28481,"▁'क":6121,"▁जोंरु":5996,"-ब्र":15336,"▁मिउ":12925,"▁खन्थाइ":1722,"नायसो।":14014,"▁थिनहर":2436,"▁सोलायनायखौ":21891,"▁गिथाव":5192,"▁नङालै।":21539,"▁राजाबादि":26549,"दब,":29003,"▁सुथे":20996,"▁सिगांग्रो":13782,"▁सान्थिनि":21489,"ी।":7836,"▁मोजाङै":1306,"▁थाङोबा":13368,"▁नारायणा":18806,"▁बिजने":26583,"▁रासियानि":15282,"▁गान्":1621,"▁गेलेग्रा":10607,"▁शनित":19639,"▁फ्लास्क":17199,"▁सान्थ्रि-":27575,"थिङैबो":28409,"▁मानोथो":3059,"▁लाभ":11028,"▁रिथि":18560,"▁जो,":25955,"▁मामाय":8551,"▁हरग्रा":25657,"▁सान्नांगौ":26368,"▁पेके":16732,"▁22":3847,"▁सानस्रिया":9433,"▁सहेनखौ":19251,"▁राइजोनि,":27815,"करा":1527,"▁चेतार्ज":29150,"▁भावनागिरि":29835,"▁नुजाथि":2750,"▁हरसेखौ":19557,"ोङै":3049,"ानाथ":17536,"▁उय":25015,"लाबायो।":22944,"न।":6656,"▁जानायानो":25880,"▁सानफ्रोमबोनि":28949,"यारी":3249,"िननि":8701,"▁ओंखारलाय":13077,"▁फोर्द":18077,"▁सिगांलाङो":21597,"▁सहʼ":22159,"▁संनाय-खाव":17160,"▁सालिसाव":6604,"▁नांथारगौ":12589,"ाजोब।":22522,"▁बिखʼ":20411,"▁माइ-माइ":21589,"▁फुख्रिनि":23473,"▁आथिं":1525,"▁हख्राव":20367,"निपा":17562,"▁हाबायाबो":20724,"ग्राफोरा":9779,"▁अनाथीया":5317,"साग":10929,"▁थब्लं":14003,"-फिफटि":29713,"▁अरुनमोना":22799,"▁जाथाय":1076,"▁उननिफ्राय":18531,"▁सौग्रा":18577,"ालाय,":21224,"▁गावनो":1326,"सेलʼ":7226,"लायनानै।":27878,"▁लिभारा":23285,"▁मिनिबा":16099,"▁हानायाव":11248,"▁खरʼसा":18506,"▁बेजाय":10999,"ahoo":24144,"▁नंगौ-नङा":22272,"▁बिफानिफ्राय":21476,"थुन":2929,"▁दुइन":9787,"नर":13897,"▁गोदान,":11217,"▁मोनथायनि":15589,"बावनो":1683,"▁सानसʼनो":15676,"▁खथा":4817,"▁(सलʼ":23147,"▁हाबोला":23487,"▁शिव":12529,"न्सार":17670,"▁हुहुर":18602,"▁फोराबो":25801,"▁गलाद":10952,"ारी।":8313,"▁सथब":13961,"▁थाइग":27254,"▁माव।":20976,"▁थाह":3934,"▁सौग्राउ":24009,"▁बुंदों-":4206,"ी'":11722,"ाइज":9147,"▁समनिफ्रायनो":6090,"▁साननैसो":4709,"▁बाज्लखां":29755,"ाजासेनो":22749,"▁'हा":25745,"▁साजा।":16631,"▁हाया-":18135,"ायनि":6668,"▁राजानि":2182,"ख्लाय":4404,"▁आर्ट":9153,"होनायाव":10934,"-फ्लां":26563,"▁डाइरेक्टरियाव":29854,"▁जलद":15494,"▁आफामोनखौ":21345,"▁खोनादोंमोन।":22044,"▁ओंखारबाय":8779,"▁दिहुनगानै":22018,"येल":4137,"▁..?":23202,"▁लाङाखिसै।":24948,"▁300":27479,"ोमा":970,"▁मोसानो":14506,"▁लेट्रि":23465,"▁\"जोंथि":17015,"नीधर":29384,"▁अबंलाउ":14944,"▁दैखरा":17981,"▁सरलायाबो":21907,"▁मेगन":823,"▁फुरायै":29782,"▁बुंनाया":9187,"▁जाब्लाबो":8205,"खारु-दु":23738,"▁खौ":617,"▁गन्द":20322,"▁औवारी":19784,"न्सजों":28201,"▁बिब्दिब्ला":5483,"▁दंथʼ":25447,"ोर्सोन":10982,"ati":12680,"▁नंब्लाबो":21903,"▁टि.भि.":15309,"▁सानबोलाउरिया":19575,"▁इसेलʼ":9403,"▁कृष्णचन्द्र":23510,"्लायाबो":21368,"▁फिसाज्लाखौ":5655,"▁हार्सा":10683,"▁दोन।":10231,"खांबाय।":4940,"▁रामनाथनि":16532,"▁बुदारुनि":17008,"दानो":20184,"▁हाबा,":21238,"▁मʼहन":23241,"▁नोंनाव":5880,"▁देरनायखौ":26517,"्वार":22376,"▁charact":22813,"▁नङामोन।":3853,"▁दैथुनखौ":29346,"▁मावफारिया":3719,"▁हुर":6445,"▁गोसो,":10337,"▁उन्दुगासिनो":19369,"▁गिना":20930,"-रमायना":13333,"य,":6900,"▁गेदेद":10749,"▁जाथाया":3191,"▁गाज":663,"▁जाबजों":12251,"▁खुगाखौ":16659,"▁खोनानायलाय":23471,"▁सुबुंफोराबो":21404,"▁नंगौलै":22271,"▁जिलानि":17913,"▁सभाया":24491,"▁हर्खाब":10873,"▁गावथारनाय":19319,"▁गारदों":26119,"▁गेमसाव":29930,"आदि":24202,"▁साबायखʼर":23016,"ामोना":6695,"▁खोख्लैहरनानै":23138,"▁गोलैबाय।":28264,"हरदोंमोन।":17888,"▁गथʼ-गथाय":11606,"▁गुबुन-गुबुन":13828,"▁आसथामा":21566,"▁साबुकजों":17040,"▁होन्नानैबो":9304,"▁रबि":2877,"▁थिं":3526,"▁Habildar":20014,"▁मोनला":24814,"ेसनि":18450,"▁साइटʼकाइनि":13829,"लिफां":21004,"▁स्प":12231,"स्रां":1138,"▁फाइल":3745,"▁बिलिफांखौ":6860,"▁कलेजनिफ्राय":7723,"▁रुल":17645,"irit":23447,"▁नांगौ":879,"▁मोनदोंमोन,":15594,"▁खरʼवा":8398,"थुर":1440,"▁बाथ्रायाबो":11581,"▁थैनांगौ":18205,"▁फोलेरनि":5662,"▁थाबायनानै":16279,"▁थेलेफानि":19060,"फ्लं":8037,"यां":11711,"▁मुसाहारिया":23223,"▁नेपाल":8835,"▁\"A":14101,"लाइनि":8745,"▁अलखत":29718,"▁सावराय":1192,"माल":2025,"▁दान्दिसेयावनो":19095,"▁मुरि":20343,"हैदोंमोन।":21046,"-जे":11323,"▁खामि":21295,"▁बोस्लाय":20909,"▁दिहुनबाय":22016,"▁सा-सानजा":3889,"▁मʼना":23240,"▁गुरुद":16518,"▁n":3653,"सिनै":4611,"बावबाय।":8757,"गुरि":5404,"▁मालाखौ":19415,"▁फोरजाया":15935,"▁लुनानै":4115,"▁दरं,":21689,"▁राभा,":12204,"▁[बि":26362,"▁मेउ":5730,"▁बैसां":12423,"जायखौ":14558,"▁बेखौ":481,"4)":5007,"▁जारिमिना":8026,"▁बथलसे":29332,"▁दन्दा":1452,"...............":16139,"सिन्दों।":17668,"▁किलʼ":8492,"न्दन":9712,"▁आफादफोरनि":16125,"मोनहाबो":12876,"द्लानानै":23750,"बिथां":25541,"▁1962":29481,"▁सुथुर।":16676,"थाम)":26891,"▁बराय":3116,"▁\"बिथां":19213,"▁अनसाइ":15905,"बुर":7186,"-मोन,":17380,"▁गुंग्राय":19851,"हरो।":3422,"▁दाहार":3276,"▁मुनि":25773,"्लानि":2376,"▁बरग":4876,"▁Excellency":10154,"▁बायजोयाव":5997,"▁खिन्थाबाय":10621,"ग्राखौ":11164,"जाफोर":25471,"▁दुइसिन":8992,"▁सि-जोम":6702,"रिष":3187,"्मि":7343,"▁बुथारनाय":10654,"▁सानैजों":2322,"▁समाज,":14585,"▁लाखानाय":20572,"▁पलिअʼनि":23422,"▁दिनैथʼ":25954,"▁सोलायि":27087,"▁हिन्जावा":4187,"▁फानलुनि":23054,"▁सोरजिगिरिनि":14680,"▁लोगोफोरजों":6748,"▁कलेजाव":3039,"▁बुंथिनाय":10747,"▁खुलुमो।":12350,"▁होन्":1681,"▁खनसायनि":12505,"▁मुंसे":26006,"▁लेव":15573,"▁बोख्लाब":19270,"▁जायख्लं":12915,"▁सेम":12999,"▁बृटिस":19435,"▁उल्":4006,"▁बारगा":21027,"▁थांगोन":2938,"▁मानो,":7306,"▁गस्लाखौ":10072,"▁सानस्रिनि":10684,"सादि":7578,"फैया।":20205,"▁कं":25057,"▁सानथ्रियाव":23287,"▁दयाराम-":2752,"बिदिब्ला":25542,"▁गगल":22709,"▁हुम":6918,"खोमानो":8816,"खोमायो।":10486,"▁लालुं":24932,"▁मानिनानै":7082,"निया":2154,"▁सोहोर":4836,"▁कमाण्ड":2388,"▁रंजाखां":16432,"▁गाज्रिखौ":14456,"▁फिल्":10509,"▁सम-सम":14137,"▁दोमैलु":17122,"▁अन्नायजों":27365,"▁साइख":7373,"▁आखुथि":16089,"▁गुन्दानि":4664,"▁अरदाब":5749,"▁सोरबि":17933,"होगोन।":23501,"▁खालामफिन्नो":25109,"▁मुस्रि":1955,"म्बे":21109,"▁बुंबाय":852,"▁नौ":3405,"जानाय।":11249,"▁साग्लोबनो":19446,"▁मोन्थाय":16123,"▁फादोर":3509,"बाय।":287,"▁बेक्ट":20458,"▁थांनायनि-फै":29470,"▁थांदोंमोन":11898,"▁जिबि":11097,"ान,":3930,"▁मोनथिया":12841,"▁असमियाफोरनि":17095,"▁बिजाबफोरनि":27308,"▁मृगां":29775,"▁डाक्टरनि":29276,"▁नुजेन्":25423,"▁सोरजों":4721,"▁मिथिनायाव":21131,"▁बावखुंग्रि":8808,"▁महाराजा।":4980,"▁महेश्वर":21599,"erc":18722,"▁अल,":21940,"ानीनि":24470,"▁जुजियै":16798,"▁खल":2001,"मध":2259,"▁अरफे":18273,"▁गावसोरसो":28060,"दोन।":13893,"▁दिल्लीनि":8069,"▁गोबाख्रबनानै":19659,"~":89,"यत":17482,"त्र":1924,"▁दुर्जाङा":1660,"▁फान्थाव":28200,"▁दे-दे":10369,"▁फोनांनायनि":16802,"▁अरानो":26253,"▁नाजानायानो":28067,"▁रायलायनाया":11419,"▁रिक्":21786,"▁थैनाय-थां":29236,"ादारा":15727,"बो,":6068,"▁लायदो":27410,"▁खालामो,":11884,"▁नाद":15513,"▁आनारी-":2962,"▁नाङाखिसै":29177,"फैसाली":25640,"▁मालगा":16740,"▁(से":14175,"▁लागो":7247,"▁सोरखि":8728,"▁जिप":25437,"▁आखि":7279,"लाबानो":10971,"▁गावसो":10306,"\".":20040,"▁दंख":3462,"गिरिफोरनि":7945,"सारी,":13932,"▁आय,":26724,"is":1998,"या,":6462,"▁उन्दुलाङो":21779,"▁दोनोब्ला":26061,"▁स्लुइच":23214,"▁बिनारामनि":8101,"▁मुगु":27172,"▁बाहाय":774,"▁पु":7553,"▁सोरजिसुला":24048,"▁थफि":24661,"▁थब":2144,"▁नुबाय":2600,"▁सुरबाय।":22195,"▁नुबाय,":25417,"▁होदो।":7268,"▁थांजोबनाय":25199,"▁प्रग्रामखौ":28886,"▁सानफामानि":15677,"▁जोंरुखौ":29647,"▁गोबाख्रबना":23827,"▁भबेन":9250,"▁गालांनानै":16943,"देरनाय":16118,"▁हामफेया":23426,"▁बिरलाङो।":18761,"▁गागि,":29860,"▁प्रेकतिकेल":17103,"▁गर":1156,"▁सोंहरबाय":9808,"▁थावखौ":16398,"▁जाहोनानो":22463,"▁खालिनि":12293,"▁फुजिनां":26635,"▁फाथ":2541,"▁दाहोनाफ्रा":16784,"खेव":20134,"बेल":2108,"▁जातनि":19386,"▁माथ":873,"▁बुंफैयो-":11644,"▁बिगा":24640,"▁थिक":2164,"टिं":4688,"▁थालोआव":19766,"गाँवाव":13662,"▁गासैबो।":21475,"▁सेक्सपीय":4128,"▁बलेरʼ":23981,"txt":12688,"▁बिहार":16288,"-)":24096,"▁दैखांनाय,":28562,"▁दोनलां":26055,"▁थार।":7348,"▁सरला":12222,"मिथि":11313,"▁रामचि":14627,"▁फोनांलायनानै":28647,"▁बेसेना":9804,"▁मुलुग।":21762,"▁मिथियाखै":19063,"▁एक्सप":15075,"▁बेखेवनायनि":21694,"▁45":9979,"▁साननिफ्राय":12881,"▁सान्थौ":12108,"5),":15347,"▁बालाबाथिया":28613,"▁मेलेननि":28528,"▁हारिफोरा":18216,"▁बोब्ला":6111,"▁खालामनायसै।":20673,"-जाब":11663,"▁हेस":25995,"▁जोंनिसिम":18400,"▁सौफैब्ला":19310,"▁सान्नाय":3312,"▁मावब्लाबो":25599,"खंनि":15385,"▁आलेनो":11204,"▁अनिमाया":7118,"▁जानो-लोंनो":24053,"................":5212,"फि":745,"ame":11593,"त्मा":15071,"समिया''":27794,"all":8471,"▁htt":23014,"▁\"आंहाबो":27450,"▁जनो":6050,"▁सोहोरनि":10105,"-श":24101,"▁लकस":24772,"-लथर":9475,"▁बायदियै":4948,"▁Inter":13783,"बखौ":13906,"▁आखुनिफ्राय":21444,"▁बेफ्रुथाय":22953,"▁मोन्दांनो":16935,"ांग्र":3300,"फांनि":1899,"▁सोमबोरनि":12297,"-गे":7642,"▁सोमोन्दै":2208,"▁सोराव":7916,"▁नांगौनि":14553,"▁सिनाय":916,"ुद्रु":19312,"-नाय":6412,"▁बिर":1245,"▁ददेरेया।":8018,"▁प्रडा":18445,"▁नायहरगासिनो":18677,"▁हाउलाद":19388,"▁जोंखौबो":20730,"हा:":11938,"---":5751,"▁अवारिनि":29962,"▁बुंफबनाय।":17154,"▁थानांगौ":4556,"▁सावरायनायाव":16416,"▁आदबनि":12431,"▁लिंहरदोंमोन।":28272,"▁सिङाव।":11285,"▁निस":13102,"▁लांसुनिया,":23734,"सिकेल":20490,"▁फुख्रियाव":15184,"्राया।":6456,"▁माबोरैथो":18812,"▁मावरि":3838,"▁लोगो-ल":8316,"▁मिनिहां":18307,"रीयाव":6902,"▁मुर्":15094,"▁two":28587,"▁हांख्राय":3352,"▁आली":12292,"▁ब्रह्मनि":2307,"ैबो":5559,"शान्":24402,"▁गोलावै":27459,"▁मोनलायनाय।":28451,"▁थैनो":5209,"▁पाटिला":19684,"▁खारलांदों":21460,"ख्लʼ":8441,"▁मोननायमोन।":18725,"▁उल":11865,"▁गुन":2494,"▁टिनि":25876,"▁रामसि":27208,"▁बायह्रायाव":15200,"▁अन्नाय":4769,"▁कमिटिनि":4996,"▁दरजा":4462,"▁जानाङो।":10730,"▁\"फिस":15087,"▁हादुंगोर":26375,"▁थेवबोनो":27389,"▁खालामोमोन।":25100,"▁थायो,":4292,"▁मोनबा":4000,"▁फानलु":3600,"थाइ":360,"-लों":2870,"▁गुरस्लाय":18870,"▁गारबाय":21314,"गेन":9060,"▁हाइब्रि":10688,"▁हाबनानै":1940,"▁[आ":9830,"**":2418,"▁खालामनो,":8809,"▁मुहि":9762,"▁हारावनि":12225,"▁गहां":20330,"▁जाथारदोंमोन":28389,"▁गारि-घ":27723,"▁थार्ला":18524,"▁आफादाबो":26396,"▁सारिया":11746,"▁गोथां,":7735,"▁बेदरनि":10594,"फैयाखै।":17065,"लांनायखौ":13033,"▁दान्दायाव":29040,"▁अबिनासा":12581,"▁माबार।\"":8466,"▁ज्राम":3817,"त्र'":28077,"▁दैमाजों":25555,"▁साबनाय":21865,"यै":367,"लायाजासे":25147,"▁गोदाननि":4752,"▁गोसोनिफ्राय":12960,"▁हाजʼवारीमोनखौ":28464,"▁बोखोनानै":16811,"▁बाथेनो":19967,"▁फोरमायथि":3679,"▁भर्":26043,"▁सुखे,":8555,"फ्रु":1854,"▁छ":4592,"ग्लायनो":16866,"▁क्रस":23389,"-दाख":3590,"▁36":16464,"थि":201,"▁समायो":17800,"▁1978":29573,"-बाथे":16246,"▁होखांनायनि":12941,"▁खुरमा":7421,"▁मावग्रा-हालिव":24019,"मायानो":8363,"▁गुबुनजों":8331,"▁जारिमिनाव":7384,"ष्टनि":21573,"डनि":7823,"▁गाड़ीखौ":29629,"▁पारलिया":23288,"▁हालामनि":4127,"▁नांबाव":7614,"▁बेंबोगौ":27841,"▁आंखौसो":11212,"▁रोजा-रो":28357,"▁मुर्ख":17351,"चन":8596,"ʼव":1414,"▁इस्कुल":17882,"बारी,":20212,"▁नोंखि":6951,"े,":6233,"ctober,":9043,"▁फै।":10321,"▁दिल्लीया":19021,"-ट":24100,"▁आयै":2335,"प्राय":20199,"v":82,"जाला":20158,"▁बावदि":2915,"▁अफिसार,":22226,"▁राव-हारिमु":9741,"▁गथʼफोरानो":26391,"-थाम":17377,"कराझारनि":9980,"▁रोंगथि":12614,"▁हाखु":3442,"▁\"स":3562,"▁लाग्र":11030,"▁नारेंख":10798,"लैया":13921,"▁गावनानै":11887,"▁हासिल":18148,"▁........................":16578,"▁गोदोनो":25842,"▁जेल":6280,"फाइ":24332,"▁सम्बारुनि":19915,"▁आगानसे":16581,"▁खामफ्लाइ":7955,"हैथां।":25703,"बुं":2971,"हैदो।\"":21048,"ार्स":5918,"▁मिञाया":23724,"▁फैदोंमोन":6276,"▁200":1413,"शलनि":24403,"खौ।\"":20404,"▁मोनग्रो":14056,"▁हौ":2974,"▁एरि":10280,"▁दखनानि":19111,"-बाय":17372,"जोबोर":26337,"▁बि,":10983,"▁सलʼवाव।":22925,"▁थासारियाव":10648,"▁इन्ज":6282,"▁जदाम":17570,"फिननो":2839,"/45":24122,"ुरि,":8409,"लांनाया":18081,"▁बोहैथिमोनखौ":28623,"▁खुलुमनाय":16594,"▁टास्क":19156,".G":24117,"▁ver":24444,"▁कामरु":7138,"▁एड":6267,"▁रोम":10260,"▁सत्य":13960,"भिल":19019,"▁फोलेरखौ":13498,"▁मग":24512,"बाजों":24344,"▁नोंथांखौ":6151,"▁खांसोर":14757,"▁दाङाबाजिनि":17116,"▁फोसावजानाय":27727,"▁रेबग्रा":7737,"▁बिबारजों":13329,"▁दङना":26679,"▁कलकाटा":28951,"▁जारां":9442,"▁जोंनि":696,"ङाव":393,"▁खुरै":3178,"ानाय।":5879,"▁राजाफोर।":27190,"▁{-मोन":29200,"िला":8185,"▁मोनदोंब्लाबो":28629,"▁गासैबोखौ":27334,"▁लाख":1775,"▁फाथाल":14933,"ादेब":25128,"▁सेवारि":14929,"-थै":19075,"jective":12655,"फारियाव":27376,"▁टाकानि":28355,"धर":6227,"▁गैय":1543,"▁थिननायाव":14674,"▁थुंग्रि":2826,"▁नोंनि":577,"ाखना":24895,"▁हाथेर":7670,"▁सुवा-सु":15220,"▁आखुमा।":18290,"▁नन्द":4502,"फ्लांनानै":28248,"श्य":8182,"▁थादे":22659,"▁दायनिफ्राय":21850,"▁थामहिनबा,":22641,"▁मोनहैनाय":12845,"ड":117,"▁ओंखाम":881,"▁आसारि":4539,"▁खुगानिफ्रायनो":28909,"ली":4138,"▁कारजि":8998,"ारिजों":12865,"▁रिटायार्ड":19920,"ent":4390,"▁बामोनखौ":23235,"▁बिश्व":10986,"नायखौबो":9254,"▁माइनि":26580,"▁सिबिनाय।":28183,"▁नʼखौ":7611,"▁बिखौ,":26450,"▁मानिखौ":11302,"▁मोखांआव":13229,"थायनानै":9220,"▁गोमोदै":22419,"▁सारअनथाइ":24060,"RE":24141,"▁मोनसिन":11821,"सो।\"":6550,"▁दावगानाय":10055,"▁बुरखायनानै":23265,"▁अदालगुरी,":15173,"▁बेलस्री":7662,"टेन":20168,"▁बिं":17618,"▁सिगाङाव,":22048,"▁गिखांनाय":11953,"▁लादो":15638,"▁खालामगोन,":15718,"▁कंग":5041,"लʼ।":3152,"▁रोखायै":4739,"▁बिसोरनाव":11995,"▁मिथिहोदों।":7935,"्बी":13372,"▁मस":7507,"▁गलाफोरखौ":28687,"▁दल":4070,"▁-बुं":6727,"▁जाहैबाय":28319,"▁खनै":3619,"▁डिटेकटिभ":8432,"▁मिथिनानैबो":21136,"▁मोगामोगि":11653,"▁स,":15464,"▁नोंगौ।":24973,"नार":7480,"▁नुनानै।":14564,"▁अʼ.":29439,"ट्‌स":23536,"▁इउटिलि":23818,"-रो":7689,"▁बालाय":15458,"जियाखिसै":28989,"ाखि":3119,"▁बाहागि":7012,"▁सान्नाया":5931,"▁जाबानो":16387,"▁फिराय":17014,"▁मुंहा":12034,"▁थेला":10521,"▁दथायाव":24614,"▁फैसा":6095,"▁दला":24607,"जाइ":6893,"▁खैफोदनि":5781,"▁थायासै।":19314,"▁सानथौनि":15058,"▁अब्राम-":4895,"सी":3990,"▁?...\"":24979,"▁उखुन्द":12583,"▁30,":29154,"▁गलʼवानो":27073,"▁ट्रेइन":5505,"▁नायहरदों":16364,"▁फेन":12818,"▁होग्रांनानै":23889,"हक":17505,"▁जौगानायजों":23198,"▁दाग":2292,"▁सुबुंफोरनो":16071,"ाजानि":11014,"▁अरगें":12082,"▁बोदों":17946,"▁थुन-फाव":13168,"▁जौनै":26087,"▁अलकाखौ":5387,"▁फाहार":6181,"▁रावहाबो":11952,"▁]।":12189,"▁रायथि":12084,"▁बैसुम":13087,"▁सोर्गो":13693,"▁जोंफ्रु":15767,"▁खनाथिं":11613,"थाना":15403,"▁बृष:":12514,"▁with":19240,"बारीनि":17473,"▁बुद्रैनि":19949,"▁रमाव":28665,"▁गोनाङाव":29774,"जिद":20739,"▁गांनैखौ":17025,"▁सिग":8243,"▁बोदोंमोन":17948,"▁गोख्रैथिजों":19215,"▁आनारामखौ":12454,"▁देरबाय।":13182,"▁जाथोंसै।":13588,"▁मिथिगौदा":22343,"▁जेखियानो":23642,"▁गोजोननायनि":13283,"▁उन्द":633,"▁बेदि":3054,"▁बेखौलʼ":7299,"नायावनो":2709,"▁फरामनि":23879,"▁सानैलʼ":16080,"▁दिन्थिगानै":26242,"बरद":21484,"▁गाराङा":16965,"▁सोलेरा":19625,"▁इराग्दाव":1211,"▁आगोरनि":23090,"▁स्टार्ट":5984,"फ्राबो":3022,"▁बिबाज":4734,"▁मावनांगोन।":25605,"▁फराय":538,"्रʼ":3336,"▁हाजोनि":6323,"▁सायेन्":27168,"▁केरासिन":28794,"खालां":24231,"▁गावनायनि":20682,"▁जुब":9101,"▁चिभिल":27901,"▁रंजायो":27384,"▁पर्दाखौ":23990,"ालानो":3258,"▁लागैनो":17068,"▁लागोन।":6946,"▁अना":7530,"▁हागौमानि":10444,"-गरमि":19906,"खिलि":25764,"जाङै":25472,"▁गोनांखाय":25904,"▁Li":29197,"▁गेलेयो":22100,"लाम":1990,"▁सेक्सपीयेरनि":7159,"▁खुनुरु":11458,"▁फाहामसालिनि":14780,"▁अनसुं":4015,"बेयाव":21138,"ुं.":5574,"▁स्कुलाव":5670,"▁अलʼकनो":18846,"▁सुबुंसाइ।":23281,"▁गोख्रोंङै":27706,"-गिदि":17131,"▁फैसाली\"":19847,"▁थायो":1143,"▁\"गो":11044,"▁बाहायग्रा":14503,"▁क्र":5716,"▁﻿":11658,"▁माइर":13192,"लानाय":13920,"▁पिन":14180,"▁हेडक्ल":23602,"▁बिनारामा।":9474,"▁नङा;":15898,"▁बानायसो,":12542,"▁इखान":14188,"गोनलै":18085,"मावनो":24372,"▁सावरायलायनाय":27328,"▁(थै":20793,"▁देनां,":23455,"▁मेसेब":12981,"▁जिरायना":21974,"▁बाथ्र":1682,"▁जाम्बा":4049,"ग्ल":3288,"▁नबथि":15122,"▁सʼना-रु":28119,"आर":11674,"▁बुङासै":9518,"▁गुदुनि":17142,"ब्ला":242,"▁गोनांथि":3097,"▁दुंब्रुद":12349,"▁खौरांखौ।":27024,"रम":2311,"▁गोथां":2391,"▁लोगोसे":847,"दै,":11169,"▁साजि":15470,"थर":2696,"▁हाराव":8874,"▁मिथिनो":1455,".....\"":22401,"▁खʼथायाव":3802,"न्सनि":12837,"▁थांफिननो":11062,"▁दंजोबो।":12975,"▁कर्णियाखौ":9032,"▁थो":1584,"▁बयनि":6330,"स्लिउ":11571,"▁दाबुं।":13686,"िफिकेट":24421,"▁सोलोखौ":19050,"▁लुनाय।":27101,"▁पार्टिनि":10070,"▁थानादार":13318,"▁सुवामि,":15228,"▁-[":15740,"▁संसार।":27645,"▁ओंखारलांनायसै।":13620,"▁बोथोरावबो":27861,"▁आफादगिरि।":6190,"▁\"थांगोन":23218,"▁आयै।":8513,"▁सरनो":21905,"ादोर":2572,"▁बिहावखौ":8002,"▁प्रेकटिस":10129,"ness":20097,"▁सेरथे":18477,"लास":3016,"▁सुखु-दुखु,":17148,"▁अफिसनि":4662,"जायै":3925,"कुन्त":23299,"▁रुगिनि":28948,"ent)":29279,"ज्ला,":29431,"▁by":22884,"▁ज्र":5416,"▁अबंलावरि":12453,"▁लालु":12867,"ch":13858,"बो।\"":11004,"▁मल्ल":13972,"▁रुवाथिया":8504,"खत":9581,"▁सिबिजाथाव":28184,"डाइन":15398,"▁?नों":24978,"▁गेलेदों।":22101,"फोरनिफ्राय":2798,"▁बादिनो":2653,"▁इ":306,"हा।":4835,"▁फोरबोनि":19609,"▁राक्षस":17292,"▁खालायनानै":8081,"▁हराखै।":18022,"मोनसे":20601,"▁थफ्ला।":23304,"▁हबा":20362,"▁बेटमिन्टन":23794,"▁मोदैनि":12239,"▁थानांगोन":14667,"ाथामनि":22350,"▁सलʼगिरिनि":18061,"▁बांगालनि":15093,"▁दा":384,"ब्ला।":4619,"▁शिबराज":10780,"▁चाइडिंआव":23977,"▁बिथांखिया":26766,"ों":175,"▁गांलाब":21734,"▁बाहागोआनो":18522,"▁मास्टारनि":19715,"▁गिग्लुंनाय":11650,"▁थाइलालिनि":13540,"बेलाव":15943,"▁खिसिम":18626,"गामि":17422,"▁होन्नाया":18945,"▁दिनाव":6759,"▁गोरायुं":19899,"▁लाजिथाव":16388,"े-ब":20274,"▁होनांगौनि":12493,"▁खारनाया":16095,"▁बिभी":13815,"▁नोंथाङाबो":15143,"▁गियाना":17963,"erit":18723,"▁\"सिरि":15150,"▁दुर्जाङाबो":11387,"▁लाजिनानै":7680,"▁मावनानैबो":22908,"▁गाबज्रिनो":22497,"थेनानै":6156,"ory":13418,"▁कनष्टेबल":17304,"▁11.":16803,"▁लासै-लासै":24010,"गोनना":25816,"▁गोग्लैनांदों।":26985,"▁सरख":5770,"▁पाहार":20806,"▁हमलाय":21097,"▁होन्दों।":22384,"दोंलʼथार।":24779,"▁बरब":27378,"▁हारसिङैनो":10062,"स्‌":5469,"▁गोर्बोआव":7135,"ल्":646,"▁स्पि":9356,"▁हाथायनिफ्राय":23059,"▁बाराय।":28434,"खाङो)":28035,"▁स्कुलनि":16862,"▁गुरलुब":7704,"▁बाबांसिनै":29952,"▁हगारनानै":4770,"▁हुगारनानै":5373,"▁खाथʼ":17632,"▁मोनहोदों।":20525,"हायै":4139,"▁जाववा":27646,"▁खृष्टान":11607,"▁मावा":7923,"▁सयथि":8123,"▁देवानिखौ":29516,"▁आजाव":3252,"▁एसेबो":2320,"▁थोथोर":14761,"ता।":24285,"▁ठाक":17302,"▁गिदिंबो":8465,"▁बानजायनो":4864,"▁गोबाव।":21983,"ार्म":25943,"▁दिंग्रि":10393,"▁अपम्बा":29467,"▁फानज":10593,"▁फरे":4430,"▁हायोब्ला,":27196,"-इ":5539,"▁बरगयारीया":9031,"▁मैहुरारी":9502,"▁लोगोफोरखौ":10360,"▁अनारिखौ":15906,"▁सैथो।":16226,"▁हाबिला।":19244,"▁मास्क":25179,"जेनबायानो।":27808,"▁प्रिन्सि":19514,"▁पन्जि":20809,"▁सात्र":20915,"ङैनो":7291,"▁मोनैया":24815,"▁बङाइगाव":6630,"day.":9569,"▁बुद्रैया":11635,"▁हामला":6158,"▁गोसोखांदों":14822,"▁उसुं":11042,"▁फरायनायाव":9259,"थिरा":6465,"ाखोमा":20555,"▁बुसा":20823,"▁थैलांनाय":26151,"▁गोमाजानाय":12125,"▁हाजो-हाय":28147,"▁बुंलांदोंमोन-":29826,"▁धोन-दौलद":8576,"प'":15410,"se)":17085,"▁1968":23325,"▁दोनाखै":26058,"▁दङʼना":27551,"▁ज":169,"क्स":1480,"न्याव।":17672,"जामखौ":19510,"▁चिटि":27899,"▁हामथारलिया।":23649,"▁मुंखʼनांदि":29352,"▁खोनानै":6062,"लांनांगोन।":18082,"▁खुङो":26439,"दानि":2042,"▁राव-थुनलाइनि":23598,"▁आंजां।":24886,"▁.........":4884,"▁आइजोनि":12339,"▁बोहाब":17949,"▁गरि":24499,"▁दानाय,":12324,"पारा":6036,"▁फिनो।":10508,"ृष्ण":6042,"▁फल":15554,"▁जिनाराम":22539,"▁बादाव":26435,"▁हाया-हाया":25937,"▁दाबाथी,":26854,"▁जायगायाव,":27600,"रावबो":18640,"▁घरिखौ":23777,"▁जौवानो":26089,"▁नʼ-बां":7967,"▁शान्तिया।":5117,"▁'P":15912,"▁थैनाय":4270,"▁थांफानो":9192,"बायसै":20505,"▁जानायबादि।":25886,"बावनायसै।":21060,"▁दोंनैसो":27991,"▁बानाय,":22307,"▁थाखोनि":2049,"ीलाम्बर":10828,"▁बेरखांनाय":12361,"▁जाबाय;":21194,"▁फारनैखौ":10742,"▁चन्द्रनि":28799,"▁बावदिया":2683,"▁अरायबो":3493,"▁रिजाल्ट":15312,"▁बैसोआवनो":17133,"▁दिन्थ":17307,"▁सार्टि":16452,"▁कʼकराझारनि":22834,"ाइद":24803,"लदार":9606,"▁नुयो":2529,"▁खास":25979,"▁मिनिष्टार":26321,"▁सिनायनाय":16281,"जिस्ट":19559,"▁लोम":1830,"▁दाला":3146,"▁ग्राफिक":19693,"्लै":770,"ङै":413,"▁कमाण्डखौ":6383,"om":2287,"िराम":8251,"ोननि":6443,"▁फं":880,"▁नोजोर-सान":21604,"▁ग्रीन":28575,"-सि":1749,"▁हावरिया।":19397,"थामा":9067,"▁नाज":802,"▁मावनांगोन":25607,"जोब।":10466,"▁पकेटनिफ्राय":15218,"▁मट":17554,"▁जोंनाय,":20731,"▁श्री":7046,"▁गैजारोङ":19817,"▁बेवनो":11386,"▁बावदियाया":6001,"▁d":3144,"▁मोदै।":12124,"्रब":4071,"▁रावजोंबो":6603,"▁लाइजौवा":12248,"▁लेखाखौ":22357,"▁मोनफैयो":20523,"▁सलʼवानो":14288,"▁मोनजाबाय":24842,"ractical":13800,"▁थैनायजों":12059,"▁जाफुंसार":3541,"▁नोंदाया":11853,"▁नांगौ।\"":26885,"~माबे":24038,"संनाय":21547,"साबो":10204,"खुरै":2695,"▁बोरमा":4451,"ाबोद'":20844,"▁अजया":1907,"▁बिखुङाव":5816,"▁भरम":6771,"▁सेंग्रा":984,"****":4573,"▁जोबथेसालि":7787,"▁\"आंबो":9381,"▁बान्थाखौ":6608,"▁फुथुनानै":13692,"OM":15353,"▁इचन":17881,"▁बिसिनायाव":4968,"▁ठ":6236,"▁लाइथुन":26272,"▁हाजो,":16149,"▁एखायनो":20587,"▁गोरोबनानै":9975,"▁जिं":4442,"▁गोमो":1746,"▁सिलिङाव":29142,"टा":1772,"▁जालायदों।":19005,"साया":1901,"▁दौल":14697,"▁हाथेरखौ":29949,"▁जांख्रिथाइनि":13531,"▁बुंसʼहाया।":12654,"▁गुदु":5451,"▁गोदना":18095,"▁उखुम":12885,"▁जगाज":13665,"▁थाबथ":7998,"▁गदʼनि":23451,"▁मावफारियाफोरनि":16915,"▁नाल":2936,"▁गथायनाय":11489,"-साव":10883,"▁देरहासाद":6617,"▁बारफुनाय":9754,"स्री,":11286,"▁बिदैया":15081,"▁थुनायखौनो":27253,"▁धनु:":12665,"▁थु-थु":22003,"▁थब्ल":7518,"दावलि":22162,"▁बेलायावबो":15078,"▁बुन्द":6102,"▁सोदोबआव":21477,"▁\"ओहो":13613,"▁गोजोन।":8765,"▁गानाय":17547,"▁माखौथो":22809,"▁दामोल":16446,"▁रुगुङाव":10759,"▁बिथिंआव":6367,"-दावला,":29089,"▁फिसानिफ्राय":17944,"नायनि।":25509,"जुं":12707,"▁दारिमिन":11588,"▁देनानै":2236,"▁फजʼ":3018,"▁रोहो-रोहो":29590,"▁खरʼखौनो":26792,"▁गुबुनारिफोरा":28975,"▁गाल":9095,"▁आइयै।":11578,"▁संराज":10505,"▁खोमदोन।":18316,"▁जिल्ल":2471,"नायानो":2939,"▁जौगानाय":4300,"▁गाबदों।":7596,"साय":928,"सिगौमोन।":10061,"ति,":10454,"mar":20095,"▁बिथʼराय":23351,"▁बैसोयाव":22228,"▁गौ":2562,"▁दे":388,"▁हाजो":2037,"▁जाथार":2381,"▁मोनाखैमोन":9149,"जागौ":9993,"▁बुरला":16524,"▁हिमालय":23905,"▁बेह":17640,"हाय,":14518,"▁गʼदाय":8875,"▁नुवा,":20858,"ीयान":8614,"▁खावरिया":21764,"▁रेष्टुरेन्ट":19974,"▁गोमोरलां":28995,"▁आर्मि":9670,"▁जुथे":14484,"hat":24156,"▁मोन्नायनि":3966,"▁बाजार":5076,"▁रिनदाव":17185,"▁जागिखांनानै":19763,"▁बाज्ल":6529,"ther":13355,"▁आखान्थि":7565,"▁नङाथाय":16150,"▁अव":7870,"▁ब्लेड":28493,"▁बेबहार":17153,"▁थिनहरो।":22698,"onology":22131,"▁जोबथानाय":29476,"▁गोल":2423,"▁Augu":5995,"▁मुराबादि":23215,"▁आवगायनो":29373,"▁मैना":16228,"-राज":27394,"▁बावदियानि":4994,"▁गʼसाइ":5638,"▁थाफैनो":21167,"▁गोजोननाय,":27060,"'खौ":8149,"▁हाजʼवारीया।":12526,"दया":24299,"▁\"आब":21605,"▁राज":711,"▁हागोनखौ":11411,".एन":18983,"▁उन्दैयावनो":18881,"▁जाम्बाय":27638,"नबादी":20197,"▁आजायनायनि":29862,"▁जायाखैब्लाबो":19107,"▁बेराम":3194,"▁दोनहै":6516,"ाजिन":14046,"▁गिदिंनाय":10643,"▁फिसौफोर,":28479,"▁खन्नै":22208,"▁मोनलायनायनि":10038,"▁थैबाय।\"":21332,"ंखाय":1604,"▁थारा":20423,"▁बुंबाय--":2304,"▁गाथोन":13713,"▁दुखु-दाहा":5397,"ोग":315,"▁मिहिरनो":27230,"▁जिनिद":22956,"्लाब":1243,"▁मासनि":15745,"ध्द":15409,"▁गिलिरै":16868,"▁आʼ":24569,"▁बेब्दिनो":17221,"▁थाइस्रि,":27256,"▁रायज्लायनानै":28054,"▁मिनिदों।":13143,"▁जोंथिहा।":13587,"▁साखाथियाव":3283,"▁लरेननि":13624,"▁बुथुमनानै":13625,"▁लखʼब":13731,"▁बृशिक:":13831,"ालिया।":22635,"▁दायाव":6925,"▁गोदै":3057,"▁हुमखि":13755,"खिनिखौ":19299,"▁बालाबारियाव":19669,"गोन-":13035,"▁डाक्त":5972,"▁बेरगʼ":26653,"फो":2846,"▁नैथि":3033,"▁एं":15644,"▁जुजाय":18424,"ʼवालाखौ":27620,"▁डीलनि":19881,"▁मिहिरहा":27231,"▁रुफाथिया":9013,"▁सासे।":9781,"▁बिथोन":2900,"▁फाफखौ":16730,"▁सुलुं":1190,"ड़ी":14966,"▁चिर":11232,"ोनो।":6444,"▁स्रुब,":22596,"▁मोनाब्लाबो":24828,"▁गोमाज":7975,"▁फंबाइ":13252,"▁बिफ":628,"▁साननाय":2198,"▁फोरोंनानै":11376,"▁नङाहाय":18385,"▁गांब्ला":26836,"▁टाइट्‌":16938,"▁बेलाय।":24725,"▁फोनां":2762,"▁गेबेङै":13732,"▁बैनाय":14366,"▁संख्रिखौ":29098,"▁बासि":5589,"▁मुंरायनि":13599,"▁जार्ला":11447,"▁मोनज्लायनानै":24846,"मोनब्ला":4926,"-जुनार":15268,"▁सेकेन्द":15146,"▁सोंनायनि":8795,"▁संख्रिनि":29097,"▁फरमेट":15270,"▁बुंनोलै":26644,"▁जिरायहां":27223,"▁बुगार":25366,"मोन्नाय":14084,"▁बेले-बे":23719,"▁गुबैयै":3909,"लाउरि":20384,"-फास्ट":17019,"▁बेंपार्तिनि":29991,"िन्":333,"▁आपार":15502,"▁रबिबाराव":16822,"▁मुंमा+गोथे":17323,"▁माहाजोनजों":27559,"▁मेमʼ":3885,"-हा-हा":17045,"▁आर.":9152,"▁गोदाय":15944,"▁बाजारि":14432,"▁गाया":20320,"ग्रोनानै":21356,"लायदों।":8275,"▁जेब्ला":1256,"हैनाया":21047,"▁मोनजाय":24824,"▁सेखʼनानै":7921,"▁गिग्लुं":10353,"▁गारोब्ला":18198,"▁नांनो":4857,"▁लेम्प":26667,"▁सायाव":603,"▁हाखु-दाखु":4129,"▁गिलु":3155,"▁फोजोबगोन":22305,"जाथाव":2721,"▁सानै-हयै":19996,"▁डेटा":9771,"▁गोदोनायाव":3895,"▁नुदोंमोन":8294,"▁हिनजावा":12365,"▁अर,":13129,"जोबबाय":7620,"uffix":24188,"▁गोमा":5033,"▁थख्ल":24664,"▁हामबुर":9505,"▁दाज":8645,"▁रां-रुफा":10847,"▁खहा।":16662,"▁जोंरुहा":19643,"ङो":370,"▁फावनि":12026,"▁लिरस्लायगोन":24001,"यावसो":12883,"▁साननाय-ह":28283,"▁फुजा":5763,"▁'बा":25743,"-क":3607,"साय।":12198,"▁कातिराम":27242,"▁दावमा-दाव":13075,"▁आंखाल,":28316,"-थसि":16673,"▁बिदिनोसै।":22543,"▁सिगांआवबो":23178,"▁बाथ्राखौनो":4361,"▁जोनाय":17567,"▁नुयोब्ला":12441,"▁हायनाया":27035,"▁बुंबावनायसै-":23077,"▁थिंगिनिया":19778,"▁जिल्ला":2426,"▁फेजेन":8015,"▁देरसिन":2276,"▁बुहां":25369,"▁लुयै":12219,"▁नाम":2353,"▁निफ्राय":3759,"▁गिनायखौ":15848,"▁खुथि-ना":26441,"खोन्दो":11568,"▁लांबाय":5073,"साङाव":14272,"▁खुनोर":14881,"▁हमहै":13027,"▁फोथैगोन।":29709,"▁नोगोरमा":27672,"▁गोरलैखौ":28308,"▁एन.एल.":26857,"▁नागिरबाबो":18348,"लि":380,"बायनाय":12838,"▁ढालि":23481,"▁लिंहरनाय":14877,"▁द्राम":17610,"▁बरमा":8886,"▁लाइटा":18279,"बैसे":19664,"▁गैयै":1244,"▁जोबनांगौ":26210,"▁Cri":28086,"▁दाफोदारा":23258,"गावनि":13457,"ासै।":15442,"▁c)":28625,"▁रेगा":16342,"▁सिम्पान्जी":23978,"▁मिथिगोन।":12001,"▁अरु":9281,"▁राइजोफोराव":21308,"▁जेननांगौ":22074,"निफ्रायनो":1125,"▁खिन्थानो":5233,"▁थाङै":7941,"▁इंराज":1986,"▁चिप":27898,"ber":5543,"▁दौरिनि":27503,"▁खांनानै":5978,"ाजाया":11819,"▁मद":1089,"▁सा-खोला":23644,"▁फैयोब्ला":22670,"▁जाबोबाय":28428,"खुब":4898,"▁इन्दिस्रिया":28305,"▁मिथिनाय":7293,"दोंमोन-":3834,"फानाया":24338,"ाराम-":1597,"▁हासि":21233,"▁हादरनि":2512,"लांदों।":3159,"▁बिबु":6503,"▁गुन्द":1506,"▁थानाखौ":29341,"दाब्लाबो":24305,"▁खोर":7220,"▁दगʼ":17609,"▁गोबावसै":21985,"▁रायज्लायनो":7318,"▁जौवा":7308,"▁पेकेट":7126,"▁स्टेन्द":19735,"▁सुदों।":18003,"▁\"थाब":20633,"▁बाथुव":4257,"ran":20102,"▁मोसाब्ला":26701,"▁बिथिंनि":8483,"▁दैथायहरनो":12492,"▁सालाय":3760,"▁बिबाव":11136,"▁गथʼ।":8812,"▁तुलाराम।":18865,"िका":10935,"▁खालामोब्ला":11053,"▁हाग्रामानि":17205,"▁...आं":22426,"▁नौनारिफोरनि":10770,"▁थिङैनि":16723,"ay":5147,"▁गेरेज":16918,"gue":15054,"णनि":24278,"▁फिसाजोनाव":26531,"▁गेलेदोंमोन।":27426,"▁Un":15215,"ला।":1707,"▁बोराइ":2604,"▁जेननायनि":22073,"▁मानोबा।":22837,"ement":19413,"बस्री":24347,"or":1678,"▁स्रि-स्रि":28427,"▁काला":20652,"▁थैनोसै।\"":16039,"▁(गोब":19303,"▁होजोबो।":20777,"▁सेंग्र":16222,"▁कैला":3945,"▁दाकातनि":19556,"▁सिखा":3939,"▁संग":3458,"▁साथामसो":10058,"▁टाव":21174,"▁मोन्नाय।":26392,"▁ओंखारलां":3483,"▁खाथिनिफ्राय":11234,"ाखैमोन।":2686,"▁थेवबो,":27514,"▁दद्रʼ":15225,"▁मोदै,":13302,"▁आख":345,"ख्रेब":7589,"▁मोनथामा":24850,"▁फेर्लेब":29168,"▁Engl":29385,"▁बुदारुवा":7457,"▁खोनासंबाय":14766,"▁लायब्ला":27405,"▁दांफाम":18939,"▁जगायनाय":29736,"▁बारहुंखा।":29367,"▁बिथराय":19372,"▁गंथाम":13152,"▁बुथारनानै":9409,"▁गाम्बारि,":22742,"बो":193,"▁सिमाङावबो":10812,"▁फिसौफोर":16766,"▁अरुननि":28602,"▁एरखांनाय":21732,"▁सोमावसारनाया":14774,"▁बहाय":10944,"ानायसै।":20596,"▁होबोनाय":19148,"▁थानानि":6567,"▁ख्र":9652,"▁मार्का":13689,"ना,":2502,"▁नायनायनि":8291,"फालां":13902,"▁बुथारग्रा":18935,"▁मोजां,":8332,"ाजों।":14383,"▁खावनाय":21763,"न्दानिफ्राय":25209,"▁खेरकाट":28560,"▁फैमाल,":29030,"▁ओनसो":2085,"▁right":24448,"▁केरल":14990,"▁बाण":25457,"▁हिसाबै":1997,"▁ख्लां":15550,"▁हʼर":11764,"बनानै":1593,"नो-":24637,"▁बिट":7215,"▁थानायनि":2053,"▁सोमबोरा":6576,"▁बादिसो":11127,"ेरा":17713,"▁फाराग":3583,"▁निहोर":12061,"▁आसिया":15503,"▁इर":20814,"▁थामहिन":2224,"खाङो,":7111,"▁बाथरुम":6741,"▁टि.भि":13702,"▁दोंसे":3073,"▁थप":17622,"▁सानस्रियाव":12383,"▁सानथ्रिफोर":29410,"▁ओनसोलावबो":29453,"▁गिबियै":16344,"▁मोनलायो।":28447,"▁जम्":9628,"▁रिजार्भ":12618,"▁आबादारि":13583,"age":10889,"▁जाथोंसै":8535,"▁हमबायमोन":28906,"▁मायाखौ":29582,"-आरिहां":23526,"▁लोहो":16563,"▁\"बहा":11468,"▁शुक्र":13820,"▁हाल-साल":18697,"▁सानबैसे":25012,"▁उननिफ्रायनो":13242,"▁सुलुंखौ":27322,"▁खि":987,"▁बोसोरनिफ्रायनो":18448,"▁500":12284,"▁सोलिगासिनो":11437,"राइजो":10633,"▁ड":456,"▁रामनाथ":1508,"▁सिला":2733,"▁गोमोनानै":9503,"यि":4907,"▁जाहर":18378,"▁मिग्रि":20720,"▁आनारी।":13353,"▁दुखु-द":4458,"▁नʼसिम":11195,"गैयि":28076,"सीनि":17501,"डार":5155,"मानिफ्राय":21394,"-सानै":7346,"ब्रुं":8800,"-आं":16426,"▁होबाय":1689,"▁लाजि":1136,"यन":5835,"▁राजखान्थियारि":7114,"▁थाथʼनानै":19523,"▁बिमा।":9301,"▁सम्पति":28831,"▁गोदनायाव":15945,"▁थासिगोन":21165,"▁गोब्रामनानै":23475,"▁बोहैथिनि":8421,"▁आमुखानि":29913,"▁खोमानां":6786,"▁नङासै":11134,"रार":20227,"▁चाणाक्य":12626,"▁बांलांबाय":26464,"थʼनि":25537,"▁सायारामा":5226,"▁कल्पनानो":19821,"ंगारो":14776,"▁राइजोफोरजों":16023,"act":10162,"▁खालामदो":15717,"बिब्दि":20945,"▁पेस":20803,"▁बो":343,"याबालानो":13917,"थारगोन":5907,"▁जखाय":12779,"▁नोंसोरो":8846,"▁\"नाजानाय":26998,"▁उनफारसे":26845,"13":11668,"▁बारायनानै":11478,"▁बिष":2217,"▁हिन्जावफ्रा":7624,"▁\"हाय":17761,"▁सुजुग्राया-":29331,"▁बावगोम":16106,"▁खालामाखिसै।":20675,"▁नग":20386,"ाय":161,"▁अरायथा":8030,"▁प्रदेशाव":23558,"▁खौराङाव":26317,"▁गुरि":20331,"ाइखौ":24804,"मोन":239,"कुम":4315,"▁हुं":13980,"▁थेखा":21700,"▁थाफावनो":23111,"बादिब्ला":26078,"लिन":15433,"▁रंजालि":2588,"नासै।":15662,"▁लिरगिरि":1992,"पटि":24325,"▁\"नांला":25039,"▁कारखाना":28953,"▁गाबोनबो":18982,"▁हाथारनाय":15061,"▁गोबाङै":22860,"ाखिसै।":1649,"▁खालामहोनो":20674,"▁पालच्‌":29791,"फ्रोम":1272,"▁गाथोनाव":10114,".डि.":17382,"टि.एन":26772,"▁मोगथांनि":12543,"▁लाथ्रʼ":24939,"▁लेबेलखौ":23629,"स्रि,":6509,"um":10168,"हुम":20254,"▁बाबु":1595,"▁बदनाम":8530,"▁जिंग्रि":16894,"▁(ए":4008,"▁सेम्":17987,"▁हाबासो":25975,"▁गाब्ला":25914,"▁गेलेनाय":8035,"ʼम":15375,"▁गावन":15719,"▁जानाय।":5737,"▁बिजिरनाय":5640,"▁थाबोदों।":12521,"▁राजा-महार":20000,"ोनां":405,"▁मेवाब":23423,"▁शाल":26446,"▁थुंग्रिया":14962,"▁जासिगोन।":8282,"ंख":299,"▁गाबदोंमोन":15974,"▁दाबसियाव":14549,"▁चि.":22390,"▁गारांजों":5775,"▁जेंनानि":7370,"▁गिलासखौ":12563,"्रामोन":12801,"▁जिरखʼनाय":26691,"▁इक्लेटिक":13817,"▁सोमद्रिया":23730,"▁खोनाफा":18726,"▁साया-माया":24025,"▁मात्रा":25181,"▁गोजांदों।":22505,".ए.सि.":22438,"ेशननि":10553,"मोन,":3088,"▁रोंदोंमोन":27509,"▁नुथायफोरखौ":29412,"▁दावबायनाया":13429,"▁हांगारिनि":19186,"▁बेखौखि":25942,"▁रिंगा":7354,"▁बिजिद":16762,"▁सिस्ट":2980,"ुरियाव":14589,"▁मैरालिखौ":15256,"▁बेखेवनानै":4655,"▁फादोरनि":16891,"ेमा":3929,"▁शंकरनि":11496,"▁सिबिग्रा":22566,"▁फैखोमानानै":25254,"▁लख्रा":7862,"▁एम्फौवा":22998,"▁\"आदा।":26594,"ेट":511,"▁माल्टि":19167,"▁बुंफैदों":25088,"▁सारादु":27453,"▁सान्दोंमोन-":26372,"▁जागायनानै":12449,"फाग्रा":13903,"▁खाव":877,"▁मंगलीयान":14937,"▁जथाय":4808,"किनि":24218,"▁बायदिसो":15967,"डार।":17442,"▁-ए":17805,"गासिनो":993,"सेब":5168,"▁मेहेरनां":8930,"CO":24135,"▁दंना":5898,"▁जाहिर":26478,"▁मोसायाबो":26704,"▁\"सरब":28988,"▁मानोमोन":14169,"▁खालामखांनायनि":17785,"▁जʼखानि":26946,"▁बालाबगासे":19670,"▁फुन्नानै":7986,"▁थास":1580,"▁लाबोगोदान":26972,"▁बिजिरसालिया":14633,"लेन्स":14140,"▁थांनांगोन।":17812,"▁तितागुरिनि":7425,"▁जोरसार":23333,"▁हाराम":6054,"▁खाइला":6685,"फोद":1033,"▁ने":788,"▁\"बिदिब्ला":13542,"▁कन्ट":3828,"न्सि":12834,"▁थालांगोन।":28877,"▁जʼयो।":7075,"▁डेपुटि":24071,"▁थिंख":8337,"▁रोङाब्लाबो":28499,"▁सुहाबनाय":20997,"सुम":893,"▁ओंखामबो":21768,"▁(प्र":12946,"▁you,":29999,"▁जाखा":5163,"▁बाब्राब":7432,"▁सेल":14245,"▁मिनिगाग्लाब":15266,"▁जगदीश":24079,"▁अबंलावरिनि":10722,"▁सानदोंमोन;":13672,"▁संख्रि,":15049,"न्जि":12836,"▁बिरलांनो":27418,"▁देगारखौ":7767,"होग्रा":12604,"▁साननैसोनि":13683,"ाबाला":20431,"▁ष्टा":28489,"▁एन":858,"-न":4682,"▁गथायनानै":7433,"▁मोसा-मु":22358,"जोंबो":3259,"▁केम्प":6572,"जित":833,"▁फानग्रा":13310,"▁'सुब":28973,"-नार":29355,"ंगुबै":3301,"▁रेजें":5096,"▁आलट्रा":27582,"▁जेहेर":17873,"▁चाइ":14466,"▁मोनसेनि":8325,"?":31,"▁सेखʼ":11122,"िनजाव":1751,"▁सिराय":20558,"▁आखुफोराबो":26285,"बाशी":17716,"▁हागौब्ला":18217,"▁देउ":7287,"▁जर्ज":9633,"▁खेफथा":24014,"▁प्रसेसर":29180,"▁आथिखाल":1252,"▁बोस्रां":6289,"▁हेक्टर":25999,"▁बिरोंदाम":12653,"जाथार":8071,"▁नʼखरखौ":14840,"▁इयर":19035,"▁एरिया":12187,"▁बेडिं":20461,"दांखौ":11237,"▁दान्":3703,"▁(s":15783,"जुत":18250,"▁दालाइ":4997,"▁मोखोना":15134,"-मो":4373,"▁गामिया":10430,"▁सासेबाव":25991,"▁नुजाथिगोन।":28636,"▁सिख्रि":11186,"-माइ":13234,"-10":29654,"लʼसै।":17797,"▁फांसे":7110,"▁करा":20654,"▁थांब्ला,":20709,"▁हालाय":5419,"orth":22380,"नुपी":23104,"▁सुब":543,"▁बिनाराम-":5625,"▁बिदैखौ":11494,"▁खाथिखौ":26507,"▁जोबस्रांनायनि":17005,"!!!":19724,"▁गिदिद":2687,"▁गोलैनानै":8082,"▁फसंथा":22727,"▁बिथाङा":2337,"▁बुजाह":20828,"▁अल-क":18671,"▁थांनांगौ।":20710,"▁वेसिस":22394,"▁जथुम्माखौ":19660,"▁नाययो।":20836,"▁हुयै":21842,"▁आवरायजेननाय":16972,"▁सिनो":6945,"▁हायनारि":8412,"▁\"सान":11874,"▁लाबोदोंमोन।":12201,"▁गोजोननो":13282,"▁सेंग्रा।":8005,"▁आगरवालाखौ":20008,"ाखैमोनब्लाबो":28511,"▁रोङैनि":28720,"▁खालामन":20668,"▁जास्लाब":25266,"▁हाजʼवारीनि":11398,"▁जʼराया":26948,"▁कल्पनामोननि":23674,"▁बाजियाव":4561,"▁सोदांनाय":14371,"▁दोनदों":9252,"▁सुम":5846,"सेबो":1929,"▁आच्छा":5812,"▁!...":20704,"▁थेरʼज":23061,"▁नेनानै":6335,"▁चेयाराव":23148,"▁केम":25064,"ro":4314,"▁समान":2573,"▁आन्ज":5026,"▁नायग्रानि":17892,"▁गेरिय":23094,"▁एडि":24955,"▁फाख्रा":12460,"▁गांनाय-उखैनाय,":19955,"▁तसरफ":23898,"▁गय-फाथै":7790,"जां।":17992,"कात":12170,"▁आरतिनि":8240,"आइ":8591,"ख्र":441,"▁सिन्दुर,":15172,"▁मोननो":1446,"दों,-":26929,"▁साबि":5954,"▁उदखारि,":23816,"▁गुबुनारिफोरखौ":10761,"ep":7814,"▁रावखौ।":20921,"म्बर":794,"sper":24184,"▁अलʼखौ":27302,"▁मोन्नायसै":27870,"▁बालें":13545,"▁जौखौ":6774,"▁एवस्रांनानै":22831,"-बले":16245,"▁राध":26973,"▁खामनाय":21296,"▁जʼयै":7358,"▁सोमोन्दो।":16652,"▁आफायासो":28785,"▁खिरखिनि":23063,"▁ए.सि.":20589,"▁जब्र":9629,"▁मोनजानाय":11822,"▁नुजाथिगोन":28635,"▁आखुखौ":4184,"▁जाखो।":9846,"▁स्निथि":16847,"▁खारखो":21455,"▁अ:":7239,"न्ज":1115,"ard":11405,"▁जो":488,"▁निउक्लियार":5815,"▁आसथाम":10494,"▁आलासिफोरखौ":13426,"ामै":10265,"थारदों":5592,"चार":17430,"▁रʼड,":22440,"▁नुहुरनो":23511,"▁बोनायाव":10213,"▁नेवसिनानै":23533,"▁थाब्ला,":28858,"▁बेमार":8226,"▁अन्द":5870,"जासिम।":29318,"▁लेदि":9866,"▁जान्जिया":29312,"▁be":6390,"▁ष्टेडिया":14928,"▁जाय":272,"▁होनदोंमोन":20648,"▁सोरजिनानै":14679,"▁मानोना,":5354,"▁आखुथाया":10460,"▁/":7495,"▁मोदोमफ्रुवा":26859,"▁श्वाहरु":23736,"▁सम्पद":19737,"ित्य":4799,"▁साबदारि।":27048,"▁मैदेरखौ":28833,"▁दिहुनना":14650,"▁आलारिफ्रा":29802,"हायनो":2614,"▁पुराना":6632,"▁थु।\"":27251,"▁नख्रां":17602,"▁खन्थाइफोरनि":27924,"फाहाम":17468,"खां":337,"▁गेजेरजोंबो":22013,"▁हे":500,"▁खुनुमो":23681,"▁गायो":20325,"ग्राब":4099,"▁नुफेर":12963,"▁गोरोन्थि":1755,"▁दुखुथिया":5936,"▁सर्माखौ":23073,"न्दै":6092,"▁बुंबाय,":21745,"▁नुजाथिनानै":28634,"▁जालांनायनि":27769,"▁दोनथʼनायनि":19339,"▁गाम्बारिया":9460,"0.":5262,"▁जाद":2671,"▁हांमा।":22673,"▁समावसो":14343,"ादा":8272,"▁थोनहर":28840,"▁फावथाइगिरि।":13677,"▁हाबसो":25215,"▁खिन्थाबाय।":16496,"▁दावगालाय":28683,"▁मन्":684,"▁मेगन,":8844,"▁साननै":6711,"▁थफानै":19499,"नांगौ।":1362,"▁बाहायनायाव":7644,"▁खेन्दा":18904,"▁मिलिटारि,":23634,"कुनि":11679,"▁गंस्रिनानै":6018,"▁cruel":22814,"▁एमब्र":21833,"ल,":2726,"▁खाय":1029,"▁गारांखौ":22040,"▁दराव":26759,"▁गनतन्त्रबादि":17215,"own":28290,"लायलै":25143,"थालि":10910,"▁गादबनानै":29287,"▁रोङाखिसै।":8521,"वानो":3330,"▁बिसोरो":1895,"▁फबनानै":11799,"▁बुथुर":20825,"▁खोबनाय":22945,"▁खबाय":20435,"▁सिनेमानि":17294,"▁अनन्त":21065,"▁प्रिन्ट":6403,"▁रावआ":6742,"▁खास्रि-बिस्रियै":23433,"▁माधब":23722,"स्टिकनि":29640,"▁\"बरʼ":11467,"▁श,":16142,"▁होननाया":9181,"▁बांग्रिखʼबाव":15222,"▁खालामगोन":3124,"▁\"गै":25033,"▁समसेरा":20699,"ज्लायनो":4220,"▁अबे":17695,"▁हेद":7015,"▁बेनिनो":6302,"▁नʼस":18229,"▁बले":17528,"▁गोदै-गो":28764,"▁बिस":1499,"-फ्राम":24111,"▁अ.":11829,"▁गाखोनो":9387,"▁नाछानि":18121,"▁नुगा":20851,"..।\"":14048,"▁कम्पानि":9929,"▁अरुन":2681,"-बिबौ":22053,"▁फुंनि":2662,"ह":139,"▁बाहागो":838,"▁हमदोंमोन":18067,"▁आबारीनि":9268,"लोब":24391,"▁कचुगाव":25073,"▁\"जागोन":8698,"▁स्रि":2443,"▁दुर्जांनि":4988,"▁'आशा":8078,"ारु":9106,"ाने":24465,"▁गैयामोन।":4265,"▁घड़ी":27642,"▁अलकामोननि":28038,"▁लुस्":21898,"▁बेहुस":19928,"▁एक्सिडेन्ट":23801,"▁But":19479,"▁दंफां-लाइफां,":28717,"▁दाखालिबो":28868,"▁खैसिं":18568,"आर.पि":23792,"▁सेराव":2185,"▁नायजाबनि":2719,"सिम।":6523,"न्टि":12136,"▁माहाजोना":2205,"▁जायो":737,"▁जाज्लाय":23303,"▁मुक्ति":14290,"▁र्गो":29785,"▁थैयाव":21329,"▁बायदि।":1702,"▁चिन":18390,"▁आयदा।":19087,"थानै":24292,"▁मावखʼ":4633,"▁दे-":25684,"▁फेसाया":29028,"▁माखौ":2707,"▁उखैनाय":13667,"नोबा":8650,"▁थासारिखौ":10649,"▁लावखारा":28281,"▁नांजानानै":26245,"▁बिखुंनि":29569,"▁नाय":311,"▁भगबान":19795,"▁आव":799,"very":11594,"▁ब्ला":3115,"▁आब्राम-":15242,"▁डाइ":3480,"थिंबाय":14377,"▁एइ,":29009,"▁लुफुं":10570,"▁मोननाय।":11018,"ुलनि":17808,"▁निसाया":16042,"▁गोदायनि":25843,"▁लाखिगोन।":21871,"▁लाबाय।":2340,"▁बुंनायसै,":2487,"▁आफाखि":21342,"▁बिसान।":19708,"▁फुननानै":23017,"▁बिब्दियै":26637,"▁गाहाइ":1275,"▁800":22636,"▁आवरायनानै":23212,"▁बिनो।":13997,"▁ओंखारग्रा":26029,"▁गोलां":14032,"▁-\"":5046,"▁थांदो":3513,"....।\"":11906,"▁हाबाफ्रा":25976,"-गि":7055,"▁टाउनाव":4890,"▁फिसाजो":1101,"ज्लाया":9590,"gy":10891,"▁खुरैयाव":16853,"गायनानै":4872,"आवबो":18043,"▁गसंखां":22203,"▁मनजुआ":22429,"▁दुमसि":28712,"▁बिखाव":13176,"▁लोर्बां":28594,"▁मोनामब्रुं":23022,"▁बाहाया":25919,"खांगोन।":20135,"olo":9471,"▁दैदेनगिरि,":22848,"▁रजियाबो":28262,"सार":447,"▁बायबाय":20933,"▁क्लस":16914,"▁पुरनिमा":20024,"▁सन्त":24488,"▁सान्थ्रिया":16482,"िया,":5056,"वि":24394,"▁डजन":28994,"▁{-सोर":29201,"▁झु":29308,"essor":13671,"▁सायारामाबो":22865,"▁नखौनो":20389,"▁अथे":20541,"▁मोन्दांनानै":29115,"▁गोरोबलायो।":27666,"▁खोथाखौ":2056,"नायबो":8222,"▁बेखेवफा।":28360,"▁Pain":16758,"▁चेन्टार":23604,"▁बुंलांनाय":7259,"▁खिन्थाहैनो":16497,"▁मोनाम":3470,"▁जुलुम":10961,"▁सुनायनो":17099,"▁बांलादेश":5477,"▁बोरसिया":18168,"▁दोननायसै।":10426,"▁गायनो":10951,"▁गहेन":24509,"▁सोदां":13090,"▁सोनाबहा":28697,"▁राइजोफोरनि":5330,"्रायानो":18583,"▁किन्":25059,"▁अथ":17694,"▁दंसै,":20876,"▁मोगा":3942,"▁फैफिनबाय":22613,"▁सेंग्राफ्रा":6552,"▁जावलियाखौ":23013,"▁दिहु":2920,"हरनो":3833,"▁सुर":1364,"▁गोथै":2326,"-आरि":7091,"▁सेंग्रानि":7992,"फ्लरʼ":22132,"▁\"हाब":6714,"▁मोसानि":8833,"▁आफामोना":21344,"▁फिसायखौ":20905,"िनांगौ":4083,"▁खाङो":15992,"▁ए.)":28843,"▁नʼ।":21364,"▁बर्सा":23537,"▁सान्दोंमोन,":16116,"▁रिटायार":23830,"▁बोग":5021,"▁आमथेखायाव":23819,"ʼल":6030,"▁द्रइं":7151,"▁दुगैस्रांनानै":28891,"▁गुसुङै":6611,"▁खोनासं,":27850,"▁मुंराय।":16845,"▁आयौ":26725,"▁सान्थि":7039,"ड़ा":16820,"ताप":14794,"▁फिनो":14510,"▁र्ट":24734,"▁रुपनाथ":15004,"थिफोरखौ":20492,"मोन।\"":10284,"दांखा":3066,"▁आबिर":16050,"▁जिरादानो":22777,"▁(गा":20789,"▁दाउफोरनि":18788,"▁मनʼमहन":7451,"▁(W":25308,"▁हौवाफोरजों":13273,"▁धुना,":23671,"face":17393,"▁फरायसालिआव":28482,"्दां":3027,"▁फारौ":13138,"▁खनब्रैसो":26619,"▁लालायनानै":20573,"▁भाग":16006,"जो":374,"दोर":20182,"▁खाग्रा":24694,"थिं-आखाइ":26113,"▁फिथाइ-साम":22550,"▁रिंहाब":22377,"15":24124,"▁सुवामि":8128,"▁सिथारो":28808,"मथे":8607,"▁माखु":22997,"टलनि":20169,"फिननाय":4364,"▁दंमारो।":25454,"▁बिसनायाव":8049,"▁दालि":9644,"▁फावथाइगिरिनि":13197,"▁गुसुजों":22719,"d":64,"होनाय":1912,"फोनि":24336,"▁मोन्नायखौ":9292,"फ्रां":11876,"▁कास्तमारखौ":29954,"▁\"O":20625,"▁ag":28897,"▁बिमाया।":19008,"▁भाराखौ":29508,"ग्रेब":13880,"दं।":20189,"▁सʼ":1443,"▁शनिबारखालि":10817,"▁\"ददेरे":29015,"बावनो।":11981,"▁रुमे":16272,"▁गुरुब":22255,"▁बुंहरो।":14791,"-बा":4057,"रिनाव":24388,"▁राजेन":14475,"-बेदर":28365,"▁फिथराव":19798,"▁आफादगिरि,":10000,"▁धोरोमजों":18891,"▁हारि-हारि":21349,"▁हाजʼवारी,":27872,"=गो":20075,"▁खालामदों।":2199,"▁सोमजिहोनो":18927,"▁जोंनो।":25232,"▁संग्राखौ":29859,"tiv":22188,"▁बावथार":26325,"क्रेट":23347,"▁प्रे":1526,"▁ओंखारलांब्ला":23027,"▁गोदो":1733,"▁मुथु":11144,"▁बाननानै":13241,"▁लगाय":11811,"▁इराग":1167,"▁रावफ्रा":20920,"▁सर्मानि":23072,"▁सालाम":12761,"▁होदाव":25287,"ea":20086,"▁बुंनागौ":20667,"▁खिन्":949,"गाब्रै":5247,"▁जालालुद्दिन":28406,"ुरै":887,"▁फोरमाया":21123,"अʼ":4897,"▁काल":6717,"टमेन्ट":20171,"▁एरनानै":26826,"▁थाइनैजों":29845,"ना":243,"▁दौस्रेम":18786,"लांख":24586,"मायारि":14391,"▁k":6913,"ुवाया":16573,"▁बिल्डि":13781,"हरजानाय":25382,"▁जोंनानै]":16984,"ग्रामाव":28709,"ंखांनायनि":23358,"▁प्रेक्टि":22302,"▁मोनफ्रोमखौबो":12846,"▁से:":15858,"यावनोथʼ":21761,"▁महाराज":4040,"▁Ob":23329,"▁जिव":12973,"▁खुसिनि":13169,"▁गोथैसोनि":28362,"▁मददाव":14625,"▁मोनफ्रामबो":11824,"▁लाउथाइ":28542,"्रʼल":19360,"ष्टिक":21575,"▁सिबि":2081,"▁नेपालि":17242,"हाखि":11720,"▁सानना":8690,"▁बिजिनेस":16173,"▁बाहायदों":21652,"▁सुपार":7575,"▁थाजि":6060,"▁सोंखारिनायजों":29418,"▁थांनायथिं":18606,"▁बुदुं-बादां":19680,"▁अख्रांमायाव":14839,"▁लिरनायाव":6775,"▁जागोदान":15989,"▁बारिया":24456,"▁(195":29018,"▁गोदान":623,"सान":2555,"खां-आरिखां":25484,"▁गेलेगिरिफोरखौ":27430,"▁खिरखिथिं":29519,"▁बिथिंनिफ्राय":5787,"आलेखौ":23561,"▁comp":14948,"▁नोंलाय।":11852,"▁नांथʼ":21409,"▁खबब्रै":28715,"जय":7820,"थायनाय":17991,"▁द्राइ":8646,"▁खारबोयो।":21461,"▁नांज्लाय-खमज्लाय":24082,"गुरी,":28583,"▁क्लास":5802,"▁डिसेम्बर":10597,"▁माबोला":20347,"▁at":20287,"सियार":7230,"▁गलायाव":11754,"▁आलʼ":15500,"▁गेजेरनिफ्राय":18092,"लाखौ":2897,"▁हयथʼ":4398,"▁बेफोरखौनो":12336,"▁लुबैयाब्लाबो":21789,"ताम":24281,"▁माथोवा":27183,"▁जानायमोन।":7593,"▁जेसे":1709,"▁बिजनी,":15035,"▁आयं।\"":19365,"▁महरगिरि":26104,"▁आइ-आ":7030,"▁गुबुनफोर":18075,"▁खननानै":12149,"▁खोमानांनाय":10835,"▁बुहुमनि":4786,"▁बिजिनि":13530,"-सा":7171,"▁थावनि":4041,"▁मेसे":6493,"-सानजा":3746,"▁खनसेबो":8384,"-कास":13847,"▁बिबाननिफ्राय":11385,"▁मिनिट":2660,"▁आं-":5709,"▁मेचिन":25470,"▁जौगानाय,":29244,"▁फालिदों":22760,"▁गोजानावनो":28110,"▁फालु":10997,"▁लिंथि":18782,"▁रिभल":13256,"ग्लि":3399,"▁बयनिख्रुयबो":17091,"▁बिफायाबो":11218,"▁दैबो":14239,"▁फिननायसै,":23284,"▁खोमसिनि":9958,"▁रुम्बां":26911,"▁नंबां":27108,"▁दैथु":17978,"▁मिनिग्ला":19841,"▁ख्रा":17629,"दुम":2476,"-सम्प":18512,"▁फिरफिलाखौ":19804,"खांबाय,":20900,"▁सुमिलानि":9483,"▁सिरां,":19634,".......!":22890,"▁बावबो":26323,"▁सुफुंग्रा":13511,"▁गगल्सा":23345,"जाथाव।":14825,"▁सुरहाब":18816,"▁हाखर":4982,"▁थʼफ्ला":15024,"▁मोन्नाव":11224,"76":17385,"▁स्टक":27940,"▁बिसि-फिसाइनि":23230,"खोमानानै":5935,"वारी":13923,"▁बिथांमोनखौ":18498,"▁सोरगि":20897,"▁मिन्थिना":10064,"▁असिला":13722,"ट्रेस":24269,"ियालाय":25475,"▁नंदोंमोन":21902,"▁रोन":2940,"▁दुर्ल":14533,"▁हामनायनि":26872,"▁'लं":25751,"प्ट":6422,"▁बोराइखौ":8523,"▁के:":4560,"▁telegram":19238,"▁बस्ति":20300,"लाबायनानै":28826,"▁दाद":2794,"▁जाबादि":20358,"▁रʼग":18985,"▁गसंफैनाय":27439,"▁जायफोरखौ":12913,"▁सुगै":28838,"बार":710,"▁जाफुंनाय":19018,"▁\"डाक्त":19835,"9":25,"▁बांग":2701,"▁\"नंगौ":5093,"▁सोंफिनो।":21401,"▁सिमांसो":16617,"▁बुदार":4831,"▁इयुना":19036,"▁बाख्नायबाय।":23181,"▁[थ":26361,"▁थाव,":11333,"▁आखान्थियाव":13768,"▁लामाजों":2735,"▁बादल,":5500,"▁बेंगल,":15137,"▁सोरनावबा":12622,"▁रुमफारसे":21788,"▁नाङैनो":15020,"सै,":1389,"थासे":9211,"▁रुमनिफ्राय":6343,"▁मुब्र":9553,"▁गोल्लै":8518,"▁सरʼ":10948,"ाहानि":8681,"▁बेखेवफाया":9882,"▁रां-":11203,"▁एसेयावनो":4848,"दों,":913,"▁सेप्तेम्बरखालि":5641,"▁बेनो।":10251,"जा,":3886,"▁नंमार":5957,"नानैसो":6253,"▁खʼथाखौ":18923,"उरि,":27875,"▁देउरी,":29879,"▁गिबिसिन":8415,"▁अक्तʼ":19742,"▁होबोबाय।":29702,"ुबै":755,"ासिनो":1988,"▁बिदाय":2761,"जाजों":4319,"▁जासुल":20760,"▁गुवार,":28232,"▁गनका":29254,"▁डाइलʼग":13619,"▁थाबै":6803,"▁बरʼवा।":17958,"▁थगायसुलि":22755,"ुक,":24426,"▁साइट":14653,"▁लाबोबाव":26964,"▁पाक":3494,"्राकसन":9473,"▁दश":24605,"▁मावगोन,":17997,"▁रुपा":4110,"▁फ्ला":8657,"▁बखʼनानै":9616,"▁हबगा":19712,"▁दाबाश्रि":29409,"▁--":356,"▁साध":14226,"▁दैनो।":25552,"▁राभा":12203,"▁सिकित":19811,"▁सेनो।":17988,"▁फुवार":13207,"खौ":180,"▁दार्":17608,"-4":20046,"▁गेजेन":20862,"▁खावलायहरदों।":28345,"▁हासिगौ":13063,"-दे।":29330,"▁धनु":12139,"▁सानानै":10285,"▁फानथाव":14651,"▁बोख्लाइ":13573,"▁ट":453,"-आलु":27356,"▁गावस्रालाय":23275,"j":70,"▁सों।":21395,"▁\"सि":5583,"▁आनारीखौसो":27481,"ालाय":485,"ञ":114,"▁बुथारनायाव":22363,"थायखौ":3779,"▁जायाब्ला":8273,"▁खिन्थाजोब":9961,"▁बिफा":1281,"▁जानांगोन":6140,"चुगाव":20154,"▁गुन्दाफोरा":28079,"▁इटालि":15199,"ानायखौ":8683,"▁हेला":6768,"▁जदामब्लेनानै":20017,"ामांसि":20477,"खादों,":20813,"▁बिखायावबो":22234,"▁जयैनो":24547,"▁दिन्थि।":26238,"▁आलाइनि":5216,"▁दंना।":17917,"▁बेंनायखौ":27840,"▁गावथʼ":17788,"▁सोलाव":12971,"▁फोरबोआव":23364,"▁ट्राब":18108,"▁आफादनिफ्राय":18343,"▁फोथायसुला":27435,"बं":11700,"▁खौरांगाब्रै":28380,"▁फोदो":9768,"▁जिल्लायावबो":29994,"▁फोरजा,":21124,"▁सोमदोन,":23341,"▁बहरा":10214,"▁थांबाय,":15752,"फेराखै":8456,"▁दायो।":12798,"▁खान्थिजों":8482,"▁सिसटेम":20564,"▁नुहरबाय।":22644,"यारि,":18554,"▁मिलियन":13615,"▁एखु":14078,"▁well":22791,"▁मोजा":1230,"▁सोंफिनबाय":26232,"▁साफायनानै":15138,"▁\"आगै":21607,"▁शनिबार":29632,"▁हाबिलदारा":17324,"▁जात्र":7265,"ग्रानिफ्राय":26183,"▁जाबोयो।":22705,"▁बायहोनानै":25534,"▁सलʼ":410,"▁मलेनाबो":21918,"▁सैनो":9618,"▁गावहा":7545,"▁भिटामिन":19983,"ण्डनिफ्राय":26729,"▁सिथि":24900,"▁बिमा-बिफाया":8494,"▁जोबथा":2811,"▁बेनिफ्रायसो":18900,"▁बावगोन,":26333,"▁राउ":16299,"▁मिथिब्लाबो":25825,"▁जालांनायमोन।":18909,"ारी,":1789,"▁बिथ":3407,"▁नाङ":4096,"▁दावगा":6769,"▁मिलि":3416,"▁ब्रह्मजों":27031,"▁बारे":25672,"▁उफेरा":15681,"▁\"अन":19081,"▁खुसिया":18363,"खि":412,"▁बुंनायमोन।":16210,"▁हरख":2161,"▁जुवा,":21584,"▁मुलुगनां":9894,"▁मथै":24516,"ज्ल":2592,"▁दमासु,":29357,"▁लु":1034,"▁मिनथि":15229,"▁हायो।\"":22108,"▁मोनथामनि":28474,"फिननायनि":11200,"▁सैयै":26738,"उ":98,"बां":408,"▁बिरहां":8034,"-नो":6879,"▁साथामा":23539,"nesday.":24169,"-दाव":3854,"लाबाय":3176,"यारिं":5634,"▁डिमा":8028,"▁बिदिन्था":9826,"▁मोन्नाय,":13160,"खाग":24227,"▁हान्":1124,"▁गेदेरथार":14824,"सुल":7489,"▁'ए":7582,"लांनायसै":16541,"▁ए-":12871,"▁बोसोरसेनि":26621,"▁थाइजौ":7682,"▁मिनिनाय,":13144,"▁जिगि":20873,"▁एरैनोबा":28461,"▁हाबलाङो।":4250,"▁गोग्लैया":15208,"▁सिगार":3021,"▁बिद":4240,"-ध":11659,"आव।":13018,"▁उद":1387,"▁अक्तनि":29919,"▁ओरै":2925,"▁आखा-फाखा":11598,"OS":6884,"▁दाख्लाम":22122,"होनाया":13937,"ुभा":24425,"▁दैमायाव":12996,"▁फिफ्टि":21667,"▁ब्रै":3316,"▁मेराव":22941,"▁बेटा":24726,"▁हादर":1920,"▁रुफाराम":26639,"▁सोङ":14203,".एल":6844,"▁हकारा":29861,"▁जोख्लोब":6212,"▁'आफा":13487,"-रौ":8887,"▁थाफ्लियाव":23112,"▁सʼनाथि":22532,"▁असि":5577,"ोगोन।":9734,"▁बिफाना":5074,"ेन्ज":24430,"▁जाबावनायसै।":29216,"▁दाग्रा":10979,"▁खालामनोबो":18318,"▁गिलिर":3306,"बोलै":20465,"▁ओंखारलांबाय।":7952,"क्रा":2970,"▁********":12760,"फिनदोंमोन":21374,"▁बाहागोआ":9888,"ुलु":5047,"सिलनि":20488,"▁दङब्ला":26678,"▁नायगिरदों":16606,"▁फिननाय":4869,"▁सफैबाय।":19305,"▁'ख":21074,"▁सफैबाय":9478,"▁मोनफैबाय।":24837,"▁थार।\"":26822,"▁पन्च":20808,"▁जायाखै,":12406,"▁अख्र":20539,"▁उजि":2048,"▁खोल":5621,"▁(नाय":20786,"▁अन्स":27363,"▁मोनो":1043,"S":50,"▁उन्दुनाय":5948,"▁जादों।\"":9863,"▁बोसोरसे":7053,"▁'गोदान":23278,"▁दिहुनो।":22875,"▁सान्ति":6789,"▁सासेखौबो":25993,"▁बुंहरबाय":4567,"▁दासि":8319,"▁हारिमु,":8068,"▁जेंनानिफ्राय":21992,"▁दरखा":26760,"▁गामिनिफ्रा":26953,"▁जेब्ल":17872,"▁खौसेथि,":22917,"न्थानि":8883,"▁समायस्रीनि":21793,"▁एन्जर":23882,"ilogue":29900,"▁माब्रैथो":28653,"▁गाथोननि":29527,"सिदेन्ट":17357,"दां":702,"▁ददेरे":1098,"▁दाउखा":22151,"▁एखे":6472,"▁एंगारनायनि":13568,"▁हाबहैब्ला":19612,"▁मेम्बर।":23159,"▁\"गोदान":16781,"▁रासि":11298,"▁सिखोन":21341,"▁मरनि":7508,"▁दान्नो":23087,"फ्लाइ":7660,"▁\"ओंखाम":22999,"हांनाय":16255,"बाण":24917,"▁लग्न":9525,"▁आभि":24578,"▁सरलाया।":27118,"▁खांदोंमोन":27747,"▁तामि":13212,"▁होम":1055,"▁लेबʼरेटʼर":17050,"▁धीरेन":26559,"ec":4132,"200":15345,"▁असे":3412,"▁बिबुंसार":14975,"▁ब्रायनो":26641,"-ल":2927,"▁हमसʼनो":13029,"▁सोरांनाय":14856,"▁सानसेयाव":18627,"▁बिर्":20412,"▁खण्ड":20439,"▁थेफेनमोनहा":28395,"▁सांग्रांखौ":22447,"▁फैयो-":22669,"▁जोंरुनि":13509,"▁जिनि":3225,"▁\"जानो":11045,"▁बिथा।":22680,"▁\"फा":7256,"▁मोसाहारि":6542,"▁हलाव":10225,"▁था।\"":10396,"▁जाब्रथाय":29982,"▁melod":28660,"▁जारिमिनजों":27488,"मेन्टनिफ्राय":28896,"▁दैमालुनि":15263,"▁होखानाय":15779,"▁बिजि-फिसा":12436,"▁गिलिरयै":28882,"ाखैसै।":7638,"▁थावनिया":27268,"▁!''":17809,"▁आखान्थिनि":29931,"▁फालो":3362,"▁बाथुवानि":15084,"▁ऋ":7840,"▁गुसेब":13017,"▁सायावनि":21434,"खो":502,"▁बेखेवनाय":11269,"▁आयदै":26726,"-रा":15334,"▁दङ":773,"▁सानैनि":4100,"्रि":245,"▁लांफै":9817,"▁?'":3711,"अजय":24201,"-महराव":26777,"▁हान्नानै":21981,"▁फिसाजोला":27204,"सिना":1612,"▁जेरै--":2347,"▁बरगयारीया।":19805,"ऐ":102,"टेनसन":10187,"▁'मे":18058,"▁साग्रा":20309,"▁जोंमाखौ":25233,"▁मृनाल":29776,"▁नाजावा":26751,"▁फोरमाय।":21557,"जि.पि.":17829,"▁आग्रां":4424,"नांगोन।\"":10657,"▁गिनाङा":25524,"▁गाफै":18115,"▁गसं":1253,"▁थानायनिफ्राय":25852,"लांबाय।\"":28145,"▁कल्पनाया":2150,"▁आखल-आखु,":29681,"लायो।":3344,"▁सानजाहा":7253,"▁बारायनाय":10035,"▁बेसेबा":1329,"▁नायबाय":2906,"राजखान्थि,":27785,"▁नुहरा":28322,"▁बेरायनो":16854,"▁राइजोनि":1599,"-उखै":11562,"टेसन":24268,"▁बुथ":20820,"▁गोदो-ग":13431,"▁मोन्नायाव":18340,"थारैनो":20957,"▁सनदे":22987,"-सारि":26797,"▁बुरजाब्ला":27703,"▁नाङो।":6512,"▁मुवाफोरखौ":5106,"▁खालारखालि":8983,"▁गाबोननि":16603,"▁कफिनि":17770,"▁नङाम":21538,"हावा":4909,"50":9049,"▁थुनलाइ,":12213,"दय":13888,"▁मोनहो":24817,"▁गैयामोन":6764,"▁फिसाइनो":22395,"79":24129,"ality":22355,"▁साम":1434,"▁जौनि":5465,"ʼबनानै":17409,"▁गाय":1523,"▁खथानि":17633,"फायो":6658,"-फ्राय":7170,"▁डाइरेक्टरि":7162,"▁हरखाबनो":13575,"▁आइ।\"":14395,"▁बुरैया":4986,"▁Measure":28701,"▁दिखाराव":29506,"▁थोयो":22337,"स्सा,":10447,"ाखाव":20554,"▁(मो":9200,"▁सान्नैसो":12107,"▁अनारि":4736,"▁गुजुस्रोम":23363,"ाखां":1841,"▁कʼक्र":22833,"▁सान्नो":4366,"▁बेव":1472,"▁थुग":17623,"▁बोहैलांदों":18689,"▁जिलिद":25443,"▁55":22158,"▁\"थालिर":20643,"▁लानानै":459,"▁थार":839,"-सिख्रा":27950,"▁रंजानायनि":6378,"▁थाखाय,":6292,"नायखौनो":3631,"▁निसा":26157,"थो।":11690,"▁गलाघाट":28688,"▁होनजासे":25054,"▁थायोमोन।":9956,"▁अलका-":28695,"लायना":25142,"सायाव":4411,"▁दादानसै।":28663,"ाहैनानै":27563,"▁सेंग्राफोर":8410,"▁सिगांनिख्रुइ":26586,"बायानो।":5866,"फैब्ला":9226,"▁आखुथाइफोरखौ":19638,"bar":13857,"▁गिदिराव":21650,"न्त्र":4431,"▁पुलिस-मि":27246,"▁बेंगल":5291,"▁इनष्टि":22478,"▁नुहर":2266,"▁मिथिबाय,":14299,"▁मादावनो":11392,"-मिनि":10519,"▁Prolo":28458,"▁केसनि":12463,"न":124,"▁इसिङाव":10333,"▁गावबुरानि":8097,"▁थिलि":14309,"▁नङा।'":16161,"▁\"प्र":25034,"▁नोजोराव":5398,"माननि":9912,"म्पिउट":21110,"▁नाथ्रोद":10752,"▁बरपेटा,":23474,"▁खरसाखौ":22262,"▁बिफाननो":19550,"▁सालाइखौ":19582,"▁होसोयो":23036,"▁हनाय,":17578,"▁बिनाया":24641,"▁टमेट":12013,"▁मा,":5718,"ʼराव":17408,"बिलनि":17973,"दाबाद":10040,"▁खालामनांगौ,":29121,"▁बैसागिखौ":19736,"▁सोलोंनांगोन।":27345,"▁नुनानैनो":21794,"▁खिन्थाहै":6179,"खल":6890,"▁बांसिन":1162,"▁गदʼ":6240,"भु":5833,"▁हाइनारि":16651,"▁गोदोना":6296,"▁गेन्द":9207,"▁सेप्तेम्बरनि":16380,"▁खलथाया":12387,"▁खहा":2031,"▁निउबिल":28170,"▁सरकारजों":28734,"▁जोनोमजों":26866,"▁सलʼमाखौ":6173,"▁नै,":8850,"▁थाखोसे":18889,"▁मद्‌दा-सद्‌दा":24059,"▁दाखोर":5970,"ौ":150,"▁फʼ":10247,"लेर":1569,"▁दाइरियाव":12560,"दो।":1139,"▁दाबसा":21746,"▁मोनाखै।":4510,"▁थांदिनि":5304,"▁बरʼफोरनि":3125,"▁नवावनो":5489,"▁गोब्राम":6590,"▁बुद्दि":13576,"▁al":17521,"बʼ।":28131,"▁जुवा":18423,"▁रुवाथिनि":14859,"▁बेसेदि":8368,"ीग":20263,"▁बिबथै":7579,"▁दोंथाम":18991,"थानिफ्राय":10191,"स्र":497,"--":609,"▁उन्दु":891,"▁सेकेण्डारी":19870,"सिगोननि":28315,"▁साबद्राय":13279,"▁हेव":12032,"▁थादʼनाय":13659,"ायखौ":6914,"▁हैबाय।":14720,"▁जेब्लानो":15793,"▁खुनोरोखोम":17348,"लांगासिनो":17593,"▁सिन,":27885,"▁खेवनानै":5251,"▁हामलायनाय":26876,"37":17384,"थिखौ":1012,"▁आनि":11767,"लांनायाव":15936,"▁फरायसालिमानि":28483,"▁बारान्दायाव":5000,"▁गग्र":15479,"▁\"थै":9177,"▁इराग्दावखौ":14666,"▁लाखियो।":8868,"वेल":17493,"▁रेगुलार":21895,"▁आइनो":18225,"▁बिखौनो":5856,"rio":29221,"▁जेंग":20810,"▁हिन्":20363,"▁\"हा":14104,"▁बोलो":1656,"▁हबगानि":23504,"▁\"दे।\"":29345,"▁गावबा":2622,"▁कामरुप":10841,"▁जोंरूवा":10833,"▁ब्लेक":12438,"▁रायज्लायनाय":8493,"▁हरबिलास":10077,"▁लेंनानै":19165,"▁हानायबो":18452,"▁साइराब":27300,"▁सारि":4595,"्य":1483,"▁जायामानो":9704,"▁स्रोदै":15181,"▁जोबबाय।":7313,"▁महामाया":19998,"▁बङाइ":4147,"▁खालामगासिनो":8271,"▁हमजानाय":15926,"▁रुमाल":9332,"▁हागोन।\"":13580,"▁लग":5863,"▁कल्पना,":6189,"▁आगसिथिं":19562,"▁बोसोरावबो":26622,"▁थुरसि":10121,"▁नवाव।":12191,"-रिन":14677,"▁हागोनदा":27980,"▁गमामा":8105,"▁मोनबाय।\"":27763,"▁गोसोम":1961,"▁रायजित":6138,"ङा-फ्र":17779,"▁बिजन":3682,"कजों":6647,"▁अननानै":11982,"▁जानो।":5614,"▁थैदों":16034,"▁इन्द्र":12954,"▁थांगौ":24658,"ब्रबनानै":12081,"▁लोंबाय,":26540,"▁दुमासु":16014,"ाबादि":2661,"▁फिन":1023,"▁सिगांनिफ्रायनो":7983,"▁खालामाखै":11052,"am":5263,"▁बेखौथʼ":11162,"▁एरैनो":2489,"▁इमारजेन्सि":12644,"▁मन्जुखौ।":27234,"▁बारियाव":4803,"▁सलʼमागिरि":6207,"▁साद-जाल":29036,"▁फोरोंगिरि,":29183,"▁बेफोरखौ":1610,"▁खथाया":24691,"▁सिंह:":12611,"▁बाजिनानै":9953,"सैलै":11056,"▁नेहरु":16220,"▁3":1285,"खौलʼ":2937,"▁(च":17851,"▁User":23562,"▁Scene":20013,"ायारि":9084,"सोलाय।":15649,"▁अनारिनि":25725,"▁गाखोबाय":28274,"▁दिनखालि":14294,"▁हजुर":12784,"दं":17449,"▁प्रसे":4107,"▁दैखांदों।":10047,"▁जाथाइजों":4203,"▁बेनो":969,"▁फटʼ":3087,"▁बेनोथʼलै":29844,"▁ज्रिं":24549,"▁गोराजोआ":14284,"नांगोन।जोंनि":27903,"▁जाग्रा":2201,"▁मोनजागोन":24839,"ागारा":17699,"▁Graph":29196,"▁19":1290,"▁बडʼफा":27996,"▁जागोन।'":21934,"▁खनथाम।":29798,"▁हारियानो":21348,"▁बेंकफोराव":23343,"▁मदन":9926,"▁रोंनांगोन।":16467,"▁मोजोम":8689,"खांनानै":914,"▁लानांदों।":19620,"▁थोजासे":5368,"▁नुजानाय":5896,"ारिफोरा":4338,"गावराव":19010,"▁बिघा":11784,"▁सैथोजों":22697,"▁सानैया":5072,"▁फरायगिरि":16032,"ाबोरै":20434,"▁अबाव":14061,"▁मोनबाथाय":24841,"▁गथʼफोरखौ":6530,"▁थालांनाय":13660,"▁भेर":18173,"▁(1994":29019,"▁दुखुबो":18370,"▁नेरखां":16701,"▁खामानि,":21494,"▁खनानि":21619,"ʼजों":24193,"▁बबेसिम":18495,"▁दिन्थियो।":4455,"ाज":209,"जाबनानै":8792,"▁बिजों।":28413,"▁अख्राङाव":4576,"▁फाथ्रिंगि":20005,"तनि":6225,"▁सोलिग्रा":22534,"▁खानाइ":2367,"▁देबनागरि":23913,"फर":8606,"▁व,":22391,"▁र्द":24736,"▁रैमाल":18585,"▁सैथि":10512,"▁कन्ट्रा":9497,"खाया।":6648,"ress":13868,"▁\"जों":4929,"▁कलकाट":23023,"▁हाया":479,"▁बागानाव":16304,"▁होयै।":29471,"▁खबरदार":6206,"▁\"अबंनि":14852,"ैनि":1837,"फिनथों":26204,"▁बाखनायथाव":13703,"▁जिंगा।":9486,"▁बुंनायसै।":16209,"▁थैबा":21327,"▁सायाव।":10458,"ʼवा":5545,"▁नङाब्लानो":14460,"हां,":12188,"▁अन":404,"▁आफा":939,"ख्रेम":21144,"▁गोराखौ":18715,"▁आबै,":12065,"▁खारखाना":14420,"शि":8180,"▁गोबोर":11809,"▁मन्जु":1117,"▁गैयाजासे":6765,"▁ओंखारनायसै।":18164,"▁हौवानि":7140,"▁खाजि":8655,"्दोन":21196,"▁मुला":21093,"▁24":3790,"▁बुंहै":11051,"▁उदां।":18905,"ाबायमोन।":15835,"▁{बि":23170,"गुरियाव":29524,"▁सुमुलिया":29611,"▁देहा":1304,"सोल":7880,"ेटा,":14356,"▁बोर":514,"ामोनबा":26731,"▁थाइलिर":10589,"▁लांफ":9283,"▁दोम":8210,"▁बेन्दो":17643,"▁गैजारो":9275,"▁कर्म":28632,"▁दानिया":2057,"▁इस":4086,"▁\"फ":4343,"▁मह":730,">म":5542,"▁-बि":14141,"-लना":22880,"बां,":25740,"▁गारा":4268,"▁अनुलेखा":19565,"▁बेफारिनि":10257,"▁दमासुवा":9510,"बोदोंमोन।":9141,"▁साबुकनि":13706,"▁हनाय":24555,"▁उनखालि":18532,"▁सुबुंसायाव":26237,"▁सोमदोननि":9521,"-जायै":18686,"▁रोंखानाय":27513,"-दों":8583,"▁होआ।":8092,"oy":13866,"▁थालाङो।":22970,"▁खावनानै":6804,"▁खुसिजों":9457,"था.":17937,"▁बायनाय":4838,"▁दैमालुवा":23700,"▁लोङा":9985,"ict":28639,"थिंनो":16021,"▁जौस्रां":18188,"बारि":4906,"▁नाङो,":21193,"▁दिहुन्नायाव":22876,"▁नुफिन":20853,"हैबाय।":2532,"▁थुलुंगा।":22839,"▁अब्लाबो":2764,"▁साखि":8892,"मारनि":20220,"▁राजा":1091,"▁बुङो।]":11308,"क।":10172,"▁ह,":10963,"खागौ।":17051,"▁खामसालिनि":16016,"▁गदायनि":15103,"▁ब्रʼ":21634,"▁थाइलालिया":22715,"olar":28711,"▁\"नोंखौ":16515,"जें":1884,"▁थालिर":7101,"▁अनसुमै":9233,"▁फैफिन":2181,"▁सोलोंथाइखौ":16751,"▁खोलोम":29570,"खांदोंमोन।":8729,"▁खुबैनानै":29742,"▁खौसेथि":11516,"-इं":20053,"▁\"दो":15686,"▁खाना,":14980,"▁थाखायनो":1693,"▁खाइ":10989,"ाबनो":24672,"▁बोहैगासिनो":21964,"-खिर":28112,"▁मोसानाय,":12535,"▁पाव":20799,"▁ष्टेशन":22736,"ोगि":3884,"▁इन्दुप्रभाया":11550,"▁मानसिफोराबो":25544,"▁हमनायखौ":25784,"▁बोगौ":29433,"▁बायजो":2268,"▁बाउ":3425,"▁खुदियाखौ":19207,"▁देहाजों":28071,"▁गारसोम":16029,"मेन्टनि":11531,"क)":4402,"▁रिन":8228,"डि":1811,"▁बादिब्ला":3571,"ोब्ला":1759,"फु":1041,"-हाया":21885,"▁मोनसे":397,"टनि":4901,"▁नुबानो":23271,"▁अबुं":27685,"▁मुलुगजों":26877,"▁श्राइन":15318,"▁निदानाव":19720,"▁लक्षीमपुर":10851,"▁जागोननि":10534,"▁दौस्रा":27502,"▁सुजुगिरि":8490,"▁दोन,":26052,"जायनानै":26904,"▁राखेबा":10069,"u":81,"▁Sp":16674,"▁अर।":21425,"▁लानायखौ":6152,"▁(A":7271,"▁आफाया":3100,"▁ओंखारनाय":3727,"▁गुण":11133,"▁खौरांगा":22675,"▁मिन्थिनो":19325,"▁दै-बाज":25559,"▁गन":4327,"▁दंग":10975,"▁थानानैबो":12394,"निफ्राय,":25242,"हरा":6735,"▁बुगʼ":17885,"▁फैनायाव":9197,"सोनाय":12744,"▁इय":1981,"▁नुजाहैनो":15009,"▁गोजौ":837,"▁जिरायनायसै।":27224,"▁नकल":11772,"▁ओंखामा":14278,"▁थेब्रे":17140,"आफा":24204,"▁देरहासार":3808,"ानै":187,"▁बिलाइ,":4871,"▁दांसे":27864,"फिन्नानै":4566,"▁उकिल":15271,"▁खुलिनि":24696,"मु,":26994,"▁फुख्रि":6541,"गुरिनि":19234,"-बरʼ":12184,"▁थुलुंगानि":7717,"▁खांनायनि":10642,"▁दसे":958,"▁जाफु":4627,"-खौ":9045,"ामब्ले":24762,"▁उर्":11866,"▁होननानै":640,"▁पौ":20798,"▁जोलानि":18139,"▁खुन":2218,"▁किउरियʼखौ":23404,"-सेर":24112,"▁दाउ":1303,"▁दानाय":1557,"▁फसंनो":10039,"नानै]":14029,"▁लहेना":8668,"▁जगायदों।":29737,"▁नुनायखायसो":28741,"▁रायजोनि":23220,"▁फैसान्दि":19717,"जायारि":21781,"▁बिजिरनाया":12245,"▁\"ओहो।\"":19982,"▁गायसंनो":29804,"▁बाग्दावनानै":19412,"▁खैसारि":26925,"कस":9057,"▁प्रबन":26607,"▁बेलस्रीया":27029,"▁जागोन\"।":21756,"▁सोदोबा":4745,".A":11665,"ेरिक":24914,"▁दाबसेथिङै":23129,"सिखौ":4509,"▁नालिसाव":17028,"▁लेटार":29743,"▁ब्रेइन":28914,"▁खाथिनि":3678,"▁घरि":11382,"आयदा":11675,"▁सोरजिस":20898,"▁गोजांस्रिउ":8560,"▁गोनांथार":6763,"▁लाफानाय":15641,"ेमायाव":27186,"▁मान्दार":15251,"▁नायनाया":15808,"▁हगारदों।":22171,"्बा":1639,"▁बिदिसो":13151,"इजिं":10900,"▁खारै":9818,"▁सु":379,"▁साथा":12764,"▁टेक्स":22213,"▁मडेल":12606,"▁डिस्कखौ":22973,"▁बिजाथि":8571,"▁10":1956,"इ":96,"▁कनष्टेब":12660,"▁अजाजों":26804,"▁.":7191,"▁गिबियावनो":7667,"▁नायबानो":20841,"000":3439,"ल्दानानै":10086,"▁बारहुंखानि":23259,"▁खनथामसो":13202,"फ्रय":25047,"▁धालि":16169,"थ्रियै":6143,"▁नागार":2068,"▁हाबलांबाय।":25224,"▁मिन्थिजोब":28812,"▁गोनांथार।":10406,"▁उवालनि":29873,"▁रंजालिनि":7434,"पनि":5017,"-खार":11664,"▁मोनथिया।":15596,"▁सानथाम":3826,"▁बुंफादेरबावो।":23937,"▁लोगोसे।":26848,"सिडेन्ट":23797,"ुगा":17939,"▁बि-थां":24651,"▁माखासेमानि":21827,"▁मेसिन":8725,"▁नोमब":16696,"▁मोनलोंगोन":29918,"▁दावहार":7303,"▁गोलांनानै":12827,"▁बेन्दे":20459,"▁प्रʼ":21613,"देसि":12279,"▁महेस्वर":18436,"▁आफोर":15499,"▁सौफैनायनि":28755,"▁बैयो":21291,"द्रायै":29305,"▁खोब":3177,"ld":13863,"▁मावो,":15869,"▁डाः":4204,"▁फिसाइखौ":5112,"▁एमफौ":6811,"छम":20155,"ीब":20265,"▁आलासिखौ":22396,"▁हागौमोन।\"":29940,"▁लाजिनाया":14645,"▁समाबो":20697,"b":62,"▁बेफ्रुहोनाय":19336,"▁सोंबाय।":21396,"▁गोरां":11986,"▁मेथाइजों":16602,"▁मथर":5024,"▁बुनानै":5306,"होदों।":3674,"o-":13865,"▁घरिया":16507,"▁हानायमानि":8827,"▁साइन":27298,"▁गुवाहाटीयाव":7720,"▁हायाखैमोन,":22526,"▁हनै...":28661,"▁मावहोनो":17996,"▁हामो।":5353,"▁sen":12408,"▁खुगाजोंनो":16945,"▁टेन्दार":22214,"▁थैजासिम":9794,"▁\"आरति":12538,"▁बिलोग":13657,"▁बुबिलि":10868,"▁साखा-फारा":22547,"▁आन्दायाबो":16575,"सेसो":12825,"▁साहाखौ":5966,"▁बारानिखुरै":23940,"▁अंक":10122,"▁फिसाला":17942,"झार":1373,"बादि।":6517,"फार्":6659,"▁मजा":20339,"▁नारखो":22172,"▁आलाइस्रिनि":3105,"▁बुजिदों":27799,"▁गादबनाय":29288,"र्ड":2996,"▁दाफोद":4729,"ze":24192,"▁आरोबाव":2080,"्नाय":2352,"ुढ़":12751,"है।":14273,"▁जाहोनानै":8376,"▁दिन।":21104,"▁सान्नायनि":14434,"▁'खि":25746,"थेङा":9892,"▁here":28943,"▁बाय-बाहागि":12991,"-राय":17373,"▁मन्थ्र":18380,"▁थियेटाराव":14790,"▁सुबुंफोरा।":22938,"▁खोख्लैदों।":29129,"▁बलद":24462,"▁दखना,":19112,"▁आनारीया":3634,"▁पस":14177,"लेण्ड":1892,"▁साद":3697,"▁गोमोन":3995,"▁Scen":17275,"▁लांहिन":26299,"सेव":7225,"▁खुर":2045,"▁बरबाद":11340,"▁आफादानो":18342,"ंगा,":18682,"▁सानजा":5038,"जेङा":14696,"थारनानै":25561,"▁खरʼवावबो":28816,"▁फिसासिन":18284,"▁बुङाबानो":12389,"▁खैफोद":1534,"▁सिने":12341,"▁बुंब्ला":4931,"▁आगु":3850,"▁सम।":6961,"▁सासु":10347,"▁सुबिध":17129,"▁सिख्लासाया":21925,"िस्क":22832,"▁जाग्ला":25965,"▁बिफायानो":26343,"▁जाखाबाय":26525,"ing":4291,"▁बेफोरहा":18417,"▁जोंलारि":25236,"‌":155,"‎":156,"▁रजि।":14872,"▁सय-सम्प":23237,"▁जेरै":522,"िजों":20261,"सुला।":12072,"▁गोहोमखौ":13539,"▁बिखान्थि":14455,"▁इन्दि":2234,"▁दुमफ्ला":16825,"▁दागि,":29866,"साया।":6232,"▁आफाद,":12111,"▁your":8126,"▁मोनहैब्ला":23335,"▁दानोबो":27522,"सिडेन":23796,"▁बिजामादैनि":19889,"▁दिन्थियो)":18261,"▁जिम":20871,"▁गंस्रियो।":23177,"▁सेखʼनो":25577,"▁नोंसोरलाय":13236,"की":5269,"▁उदया":7701,"▁सिथारनो":8989,"▁फारब्रै":21441,"ङो)":5908,"ान्था":25211,"▁हल":10964,"▁मोननो।":15586,"▁बयनिखुरैबो":11609,"▁मेगनाबो":13235,"-सै":10879,"▁ताल":13211,"दि्‌":20494,"▁बन्दʼ":28291,"▁सुबुंखौनो":18257,"▁लोमसावजानाय":23295,"▁खेबज्रां":18659,"anguage":24065,"▁1983":19342,"▁नाजानायखौ":13462,"▁सोरखार":2949,"▁दिनैजों":15985,"▁गारसन":26123,"▁सलʼवाव":3096,"▁बिगुर,":5252,"▁फिसाजो।":11236,"▁प्रेमधरा।":8544,"▁लामासेमानि":26815,"▁अन्नाय।":18741,"▁समफ्ल":17801,"▁उकि":10290,"बिला":17972,"▁बादिब्ला,":1359,"▁नेह":2814,"▁नुबाय-":11095,"▁रायज्लायदोंमोन":28055,"▁लांखारनायनि":29700,"▁बायगर":20936,"▁बाजुरामा":10472,"▁बागैसो":28036,"▁10.":12382,"जाया।":11684,"▁सोनारो":29684,"▁धमक":17191,"▁इरामुतीया":23916,"▁मिथिस":18087,"▁नायगिरो":14797,"मारबाय।":18729,"▁बुदर":28677,"+था.":20044,"▁बिनेश्वर":18461,"▁\"साला":28987,"▁असुबि":19589,"▁बोहैग्लाय":27203,"-दʼ":18502,"▁बिबʼ-बिनानाव":19504,"▁थानाव":24660,"▁फंबायनि":8468,"▁गारबाय।":16026,"▁थाजोब":14002,"अपार":24200,"▁थायो।\"":13269,"▁गुबुंले":11629,"▁क्लासम":19375,"जाखो":24262,"▁संक्र":26698,"▁गयखौ":27566,"▁मोनदांथिनि":29075,"हैनो।":9755,"▁मनालिस":13272,"▁फोथायनाया":18765,"▁एंगोनाया":19929,"▁बेनिखायनो":1439,"▁हादोद":26374,"लाव":515,"▁थफ्लाखौ":19574,"▁जानाय,":6129,"▁अरदाबनि":29593,"▁रोखा-रोखा":23955,"▁आथा":20377,"▁नारेंगुरीयाव":23866,"▁रोदानि":15986,"▁\"बि":2571,"ालाबानो":6269,"ख्लं":3280,"▁सुंथाब":16376,"लायग्रा":9707,"▁सक्ति":24490,"▁नुजाथिदोंमोन।":22822,"▁बि.ए.सि.":19833,"▁गोसोनि":1286,"▁देरहाग्राया।":13590,"▁मावोमोन":20982,"▁सादों":11951,"▁गलʼलʼ":18636,"aw":15355,"काश":18490,"▁हाथʼ":18656,"▁इयान्द":28107,"▁सेसनाव":20964,"▁सानसʼ":24988,"▁बुंथियो।":28845,"▁हा,":10415,"▁आर्टिफि":23798,"▁हेंथाफोरखौ":27862,"लि,":6751,"▁बुग्लि":11090,"▁गʼसाइया":17058,"▁अमाबै":27729,"▁रमायना":11576,"ght":7798,"-नोगोर":29812,"▁लाबो,":16297,"▁कर्ट":5717,"▁माब्लानिफ्राय":18001,"जोबा।":14248,"▁लाहैदोंमोन।":29501,"▁बिया":4698,"▁गरसेबो":10592,"▁नोंथांमोनहा":12171,"▁लारि":5572,"▁दैबानाजों":19938,"कान्त":11677,"-थोर":13844,"र्स":5933,"▁गोह":1914,"▁प्राइ":5624,"▁थाबायग्रा":18572,"▁मोनजायो।":14055,"▁रिंसारनि":10009,"▁मिजिङा":23696,"▁सिनग्रा":27888,"▁गाबखʼखौ":29567,"गिरि,":5603,"▁चिरु":23771,"ज्रिं":16477,"▁हाग्राब":25812,"▁हरदो।\"":25667,"▁आन्दासाव":10071,"▁एदावब्ला":17252,"▁जादिया":20755,"▁बिनायनि":20407,"▁आबʼ":2203,"▁गायसन":5236,"▁जयो।":5850,"फिन्दों।":16546,"▁गोरलैयैनो":16714,"▁जाथायनि":3356,"▁बुंग्रामोन":25094,"▁प्रग्राम":3315,"ाथʼ":1343,"▁जोंनिथिं":26524,"थालिर":19014,"▁नʼवाव,":27311,"ड्र":24274,"▁खान्था":28859,"होग":6906,"▁आंखौलʼ":18304,"▁सुंथ":16375,"▁नार्जारीया":5987,"▁गोरिब":4523,"▁स्रोद":4394,"▁Cor":22512,"▁जुदा।":21583,"▁रायखांनानै":10455,"▁जथुम्माव":23582,"जालाय":24252,"▁बरʼफोरजों":20927,"दिखौ":24792,"▁हुनाय":21839,"फुं":738,"▁नाङा-फा":8470,"▁सहै":4804,"▁फुथुनो":23282,"▁हामबाय,":26874,"ic":2753,"▁हाग्रानिफ्राय":17113,"▁गियोब्ला":25523,"▁बोसन":25496,"▁दतमा":23841,"▁रोनसोन्द्रि":28729,"▁मानबायनो":25279,"▁प्रफेसार":7467,"▁ऐखालि":8094,"ेजनि":12484,"यै'":20965,"▁नेरसोना":22617,"▁लानायजों":26762,"▁हेमलेटखौ":12502,"▁'दै":13024,"▁गाबदों":7011,"▁उल्था":5395,"जोबब्ला":13149,"▁सिलेट":24908,"हानो":6905,"खोनो":11682,"▁14.":23126,"▁सान्दुङा":23005,"rail":28130,"▁गोग्लैस":26978,"रीनि":17491,"ब्रें":24350,"▁जाबाय,":3842,"फुरनि":28163,"▁\"इस":29790,"10":11667,"▁लेथेर":26664,"▁लोगोफोर,":25595,"▁डिरे":18113,"▁गुरैयै":6374,"▁बेखिनि":24727,"▁बियाद":16998,"▁थरायना":10871,"▁गोबाख":6195,"ेनाव":20272,"▁फाग्लास्रोमनि":23960,"▁आरʼज":7869,"वार":4229,"▁सानफिननो":24998,"▁गाम":530,"▁रोगानानै":29819,"▁एसेलʼ":3960,"गारि":8594,"▁फिफानि":12164,"▁1979":29574,"फोरजों":1070,"▁दिस्त":24622,"▁ट्रेइननि":29990,"▁गेलेबाय":13340,"होनाय।":19020,"yn":24190,"▁ओ":329,"▁सैबारीया":7465,"ऩ":125,"▁खोनाब्लानो":26498,"▁[गसङो]":23810,"होब":20253,"▁रेडि":6557,"ब्रु":7968,"▁फ,":15553,"▁जोब्बाय।":11202,"▁सुख":3839,"AT":20076,"▁खावनायनि":16265,"▁उषा":25022,"▁बुंहैबाय":25084,"▁जिबार":7276,"फिनब्ला":14397,"▁थांहोनो":25188,"▁जिवानो":25441,"▁मुजुदै":29414,"▁खिन्थाफैबाय":28621,"▁बाग्दाव":3687,"▁निउक":5248,"रि,":6125,"▁नोमबाज":22607,"▁फाथ्रा":28504,"▁हिंसानि":29465,"राइनि":11713,"गनि":7476,"▁बाजियावनो":12285,"▁बावदा।":21471,"▁आइना":26188,"▁बिबारबारि":27383,"▁जाबनानै":27247,"il":2928,"यारा":17484,"ack":29189,"▁दैमा-दैसा":23682,"हैगोन।":15893,"▁लांग":4512,"ामा":673,"▁रौनि":28792,"बो।":1010,"▁कापुर":27239,"हरु":15800,"▁साजानि":16721,"▁mean,":19827,"▁खोनाहां":21541,"महन":6426,"▁गायदेया":17320,"▁खुब":20436,"▁अनाग":5911,"▁नागिरब्लानो":18347,"▁टावार":11157,"▁फिनबाय-":27086,"▁अलʼका।":2663,"▁जेनʼ":4294,"▁जनक":23268,"साइनि":13931,"▁रासिया":26975,"उरिटि":14771,"▁दुंनाय":22410,"▁प्लेन":28387,"▁देमुग":29750,"▁स्रें":3659,"वे":6427,"त्रा":10909,"▁संग्रायाव":10756,"▁गावदि":25117,"▁गोजानाव":1983,"▁कार्पेट":23337,"▁होलाङो":8285,"खाङा":17876,"▁खामानि।":14437,"▁मेला":6983,"▁सतीश":10823,"-बिस":4375,"▁गोबांथार":11208,"वाल":3401,"▁मोनथारदों":23190,"▁गैया--":25930,"▁शिल":16971,"▁आफाखौ":9904,"▁सेटखौ":17990,"▁नङाना।":26493,"▁गाहायै":14365,"जेन्नाय":8891,"▁देन":18032,"नायानोथʼ":19296,"ोगिरि":17894,"लिया।\"":21739,"▁बेगर,":29427,"▁लाबोफानो":26967,"▁बेसोरखौ":23484,"▁गायसंजानाय":29805,"▁फैगोन।":5050,"▁ना,":4738,"▁हाउरिया":21236,"▁जल":5849,"▁हायाखिसै":2629,"▁गोथ":1004,"▁बिसाराव":19241,"▁ट्रेइनफोरनि":23369,"▁खरसानि":18871,"▁मावथि":3095,"▁28":7963,"▁मोनैनि":5869,"यो)।":12880,"हारा":12747,"▁आखुवानो":21445,"▁बोथों":9739,"▁सेफ":25572,"▁थिफु":7938,"▁बिलाइस्रिया।":17274,"▁खालामबावनो":5887,"▁बिबानगिरिफोरनि":27662,"▁थारजा":8848,"थायजों":6291,"फ्रोमखौबो":8036,"▁बिजिरनानै":4873,"ious":15363,"▁रेसम":23377,"▁बैलाय":26072,"▁उथ्रिनायनि":29011,"▁ऐ":2728,"▁कन्ट्राक्टर":15259,"जिबि":14156,"▁काछ":9360,"हित":22805,"▁खालायनांगौ।":22608,"थायाबालानो":25589,"▁गैजायै":26217,"s":79,"▁फोसावदों।":8052,"लायलाङो।":25145,"▁सोद्रोमाफ्रा":28330,"▁आच्":5166,"▁1000":14337,"▁नाजावनाय":29327,"▁जानाय-लों":4525,"▁दानसʼ":7625,"▁नʼफारसे":26192,"-खम":10686,"पार्टि":16500,"▁दालां":6927,"▁बुंनांगौब्ला":19576,"▁फारलं":16088,"▁दानायाव":5650,"▁लाउथिखौ":22763,"▁राव।":5905,"मोनन्याव।":24970,"▁हाबाफारियाव":4466,"▁'उ":9761,"▁सिगांदों":26584,"▁चि.पि.":27900,"▁बाथ्रा":435,"▁बुजानाय":25367,"▁गरानि":18712,"ारीआ":25586,"ाथाय":304,"▁दंसै।":8300,"▁गंफा":4755,"▁बेखौनोथʼ":16414,"▁दांग्रोमै":23542,"▁सायख्लुम":24012,"दिनो":24793,"▁दामोनसै":29865,"सेयाव":1665,"▁माइक्रʼसफ्ट":17289,"▁खालामनांगौ।":12910,"▁गासा":15964,"▁गोदोनाखौ":23456,"▁इन्डि":23096,"▁फेब":9133,"▁गाबज्रियो":19024,"▁हैनायनि":16502,"▁बालाबारि।":29725,"▁M":2875,"देम":3813,"▁राहानि":12419,"▁सिथर":7733,"गोनखौ":21127,"▁गोरोबनाय":9396,"▁हर।":8320,"ें":655,"ुलिस":1116,"▁हायेन":6554,"दोब्रा":24311,"ाब्रा":4816,"▁दिरि":20396,"▁खामानियाव।":14940,"▁हालायै":19605,"वै":3551,"▁हा-ह":7301,"▁आवगायलाङो":19179,"ब्राइ":21420,"▁लामाथिं":9887,"▁सावरायज्लायनायखौ":29450,"▁हे:।\"":22549,"▁गंथामसो":26347,"▁pl":7431,"▁शर्मि":29797,"फिउट":13198,"ड.":15397,"▁सोदोबथिखौ":21478,"▁खुन्दायाव":23127,"बायनोसै":24811,"▁लिरो।":8357,"▁दोनफै":21278,"▁थद-मद":23878,"▁मुंराया":18155,"▁लुदुरगे":24058,"▁जानगारनानै":10790,"▁दुखुगोनां":15264,"-दाल":26781,"▁गुमै।":27737,"▁सेव":2531,"5)":7172,"▁गोबाङानो":8978,"▁टेबिलाव":5668,"-(सं)":24116,"▁जाथारो":28388,"▁बेंगुरा,":28970,"▁बोन":8622,"▁बिसारखौ":13553,"▁मानसियाबो":11119,"▁बेफ्रुयो।":28842,"मेना":11709,"▁गेदेरनि":28096,"▁\"बुजियाखिसै":29922,"▁सिफुं":12861,"▁हांगारजों":23312,"▁आग्रांखौ":29293,"ाहैयो":14708,"▁नोंथाङा":1614,"▁बाटन":11545,"▁बाराया":25673,"र्ज्य":29942,"▁दावराव-दाव":10050,"▁दैदेनलांनो":27690,"▁'अ":4093,"फुङो।":27127,"▁सोंनाया":8796,"▁सैब":6796,"-आ,":13316,"▁अ.सि":17696,"ुवा":1181,"▁जेथिंबो":25349,"जे":1294,"▁दानथामसो":18355,"ुथि":9080,"▁गथʼनो":21497,"थायै":2050,"▁स्रो":6372,"▁जेंना":1489,"▁70":10017,"▁जʼखायसे":12196,"हन":5556,"▁emotion":15288,"▁फोनांजाबनाय":23478,"▁बिखाया।":21533,"▁जोला,":21226,"यानि":1714,"▁फुख्रि,":29757,"▁बावला":26322,"बाल":11702,"▁--\"आं":15931,"▁रां-खाउरि":17269,"ीन":1339,"▁स्राव":11450,"▁गोहो-बो":14545,"▁प्रसेनजित":9545,"▁बेंग्रा":11000,"सिन्नानै":15578,"▁मोनगासिनो":9667,"▁उन्दुलांबाय":18559,"▁आइयै,":23251,"▁बुंखाबाय।":25090,"दलाब":24310,"▁-बे":10312,"▁फेब्रुवारी":17233,"▁समबारु":2819,"▁\"अ,":28202,"▁दाहाया":13295,"▁मोसौ।":18833,"मु":950,"▁निफ्रायनो":20285,"▁(बयबो":23298,"▁साफ्रासी":6634,"▁दानो,":18798,"▁सामब्राम":8901,"▁-उ":15741,"ग्रोयो।":8963,"▁मालायफोरा":26923,"▁\"मोन":7540,"▁गोर्बोयाव":10728,"▁बोजबनानै":15840,"▁जायोब्ला":2606,"▁ओरैबो":22878,"-नांगौ":24106,"▁बाथ्राफ्रा":13036,"▁बाक्सा":20883,"▁गैयि,":28788,"▁मनिपुर":9006,"▁चौध":29885,"ड,":10907,"▁हाकि":14341,"▁बाथ्राखौथʼ":21658,"▁दिङा":10391,"▁नत":24594,"▁बिबार।":13327,"खौ,":3337,"▁सहायनो":3690,"▁बदमास":19281,"हामजो":19874,"▁मुजिरा":25779,"▁ब्रेक":4787,"▁जार्मानि":19652,"▁फंबाया":10644,"▁मुंराइ":5205,"▁राइफ":7304,"▁सरखारजों":23813,"▁आजायनाय":17139,"▁1913":27487,"nal":20096,"▁राइजोफोरनो":13096,"-होन":27078,"खिला":25763,"▁जेरैबादि":12041,"▁खारगʼ":7617,"▁फरायसाया":18202,"▁प्रसेसिं":11561,"▁जाहार":5344,"▁टाइ":3957,"ागासे":15612,"▁आन्दानि":18933,"▁थैसʼ":11182,"▁गेदेमाया":28881,"▁आग्द":21492,"▁बसुमतारीखौ":13596,"बोबाय":5861,"ill":8981,"जाख":17433,"लब":24390,"▁मुंराइनि":14352,"▁गोलोन्दाङा":24070,"▁नखर।":14649,"▁दाहोना,":16783,"इस":20118,"▁गु":395,"▁थुलुंगाखौ":10732,"▁जायखौ":2065,"ालाखौ":10282,"▁सोमब्ला":21181,"▁नङाब्लालाय":22047,"▁लाम":7876,"ाखौ":5839,"▁सिनि":8245,"ेटार":14355,"▁बरमा,":18750,"▁माब्लाबो":21774,"लाङो":1460,"▁रावफोरनि":10349,"थें,":28962,"▁आलारि":6832,"शनेल":11718,"▁रहेलानि":23497,"▁pas":28516,"▁नोंस्रा":14086,"▁अर्दार":18275,"▁'नर्थ":29832,"▁फैया।":6484,"▁जोंफोर":14154,"▁रान्नाय":10087,"▁फावथाया":5460,"द्दिन":20190,"▁हांखुरै":9799,"थों,":18918,"थिंनि":26111,"▁आमलाय":22331,"▁लोंहोनानै":11238,"▁हाथाव":7669,"▁माउस":12512,"▁जागोना":18143,"नʼ":11692,"▁सिखाङो।":15623,"ांगौब्ला":25515,"पानि":8172,"▁\"जा":15684,"▁एना":17727,"खोमाना":21526,"▁दोलोआ":8116,"▁जगोन।":24540,"▁होलांनाय":10325,"▁आनाराम-":3582,"▁लुसि":13288,"▁मोफ्लाम":14090,"▁सासेजों":21241,"▁सोलोंसालि":16425,"▁मोगि":11856,"▁हासʼ":14339,"▁\"जाथ":20635,"गाबा":10176,"▁बोहैयो।":27201,"▁रौना":28793,"लांदोंमोन।":7292,"थो":827,"▁इउनाइ":27780,"▁फुक":21629,"▁गेजेर-गेजेर":18093,"▁हमखांनानै":25786,"सिंसिं":5480,"pi":10894,"▁सोमोन्दोआ":10640,"▁नुथायफोरा":23291,"▁मावग्र":20978,"▁फैफानाय":7900,"्लिब":5744,"▁खान्थि":1741,"▁जाबाय।\"":5739,"ा,":1318,"्लायाव":4434,"▁लुङि":18648,"ग्रोबाय":22731,"▁फान्दायनाय":23221,"▁गोर्ब":15909,"▁मावखʼवाव":29347,"▁लानथ्रियै":7712,"▁बेबादि":1112,"▁गुरै":2214,"▁नागानि":12038,"▁जादोंमोन,":19102,"सुली,":29911,"ायै":499,"▁खैफोदखौ":10639,"den":24147,"जेननायाव":27807,"▁लाजोबनानै":24936,"▁ऊ":5411,"▁बमब्र":19649,"▁बस्था":19807,"▁थुलुं":1680,"▁हुस्लि":18603,"खु":507,"▁प":302,"▁बिबाय":3615,"यैया":24379,"▁अनलायनाया":18046,"सिनानै":9664,"▁(N":17848,"▁बुङोब्ला":7984,"▁जलदब":19986,"गिरिफोरनो":21213,"्लुं":5712,"▁बिनिखायनो":3521,"कुमार":20131,"▁रांबो":26218,"▁बाहागोफोराव":18521,"▁होननानै।\"":26367,"-फाथो,":29212,"▁दोनलांदों।":21284,"हिन":2128,"▁हो।":4912,"▁आरामै":24862,"टि.सि.ए.":6411,"▁जोंगा-मागा":23888,"▁sh":16688,"▁इन्दुप्र":3916,"▁गन्थ":2405,"▁सोंहर":9277,"-बाथ":6799,"▁नेशनेल":14514,"▁बाबेन":19209,"▁दुग":2216,">":30,"▁बेफ्रुनाय":14997,"ङाखि":24243,"▁मानसिनाव":17974,"फाया।":12725,"▁लायनायाव":27407,"▁अमा":1718,"▁उ,":6712,"▁बिल्":8215,"▁सेंग्रा-सिख्ला":5678,"ो।":206,"स्कुल":10690,"ायो।\"":13030,"▁एसिष्टेन्ट":29146,"▁\"जाबाय":25036,"▁खालामखो":8705,"▁आनाराम":2659,"▁गोसोम,":16647,"▁सो।":20306,"-बालु":6339,"दोंलʼ।":20485,"निफ्रायनो।":25243,"▁सोदोबफोरखौनो":26352,"▁मुरदा":19521,"▁हाबो।":9714,"▁हिंसायारि":12554,"▁गंसे":903,"▁बुंदों--":14725,"▁सुयो":20992,"▁मावगोन":9748,"▁बुख्रेब":25376,"▁अरखा":21428,"होर":3208,"▁गोर्ल":15908,"▁लावथिजों":14880,"▁सानै-ह":16081,"▁सौनो":21808,"▁बिल्डिं।":29780,"▁एफाग्रा":6594,"ाखैमोन,":16773,"▁बालि":20295,"दी":8601,"▁फराइ":14016,"▁दावज्ला":14354,"▁खामै":26081,"▁माने-":28204,"▁हांखोफोरखौ":10537,"▁(19":3648,"▁आखाइखौ":4029,"ese":27783,"▁खरथेंनि":17194,"▁मार्":4805,"ारत":1297,"▁जुनादनि":19509,"▁मास्त":25180,"▁बिसोरखौ।":21116,"▁बोरियाव":26034,"▁नोंथाङानो":13714,"▁दावबायारि":6593,"▁सावथाल":4363,"▁\"जौ":25032,"▁खोनाना":9842,"▁सोरब":4720,"जरत":23349,"▁हाखु-दाख":3985,"com":8157,"ice":28638,"फनिफ्राय":17465,"▁सेंसौ":17203,"सिगौ":2979,"▁दानलाय":26415,"ेव":506,"हु":4908,"▁फैफिनो।":11909,"▁बुथारनो":8475,"▁आखुवाबो":26287,"होयै":21189,"▁सौखे":26936,"▁\"जिन":29620,"▁बोसोनखौ":13626,"▁जा":297,"▁साननायमोन":22619,"▁आगोर":3730,"ल्दानाय":29137,"▁थिं-थिं":23041,"वाखिसै।":17495,"▁सुजों":20991,"▁गेटनि":7426,"▁खालामनोसै।":26340,"▁जाबाय।":805,"ङा।":1085,"▁बिखा-बिख्ल":14711,"▁डीलखौ":23764,"मोननिफ्राय":24966,"ाजा।":25921,"खाय,":26954,"▁देगारनि":29046,"▁बरसा":22078,"▁मेरगाया":13604,"▁सोलाथ्लिब":29831,"▁दर्":3117,"▁फैगौ,":22520,"▁डिग्री":18735,"▁बिथायाव":9120,"रि":414,"▁।।फै":29400,"▁थायो।":962,"▁बेरखाङो।":5626,"▁लोगोफ्रा":8315,"▁सर्बेश्वर":15307,"▁मंगʼ":15174,"सिभारखौ":17667,"▁लेह":13215,"फैनो":3385,"▁दोमै":6928,"▁मलेनानो।":21921,"▁उराय":9686,"▁गोसोखांनानै":7908,"▁सन्थला":23074,"▁जाहोनायनि":26481,"▁\"खबरदार":29619,"▁गानै":5283,"्रोद":7853,"▁थुंग्रिखौ":8977,"▁उरिष्यायाव":23420,"▁हामब्लायनाय":29182,"▁मोनैलाय":16810,"▁गोग्लैयो":6345,"▁चै":18389,"▁गोथौसिन":27792,"▁ओरैनोबा":28774,"▁एखुथा":19963,"▁फैदोंमोन;":29701,"यारि":883,"ii)":17397,"▁कलंखिनि":15186,"▁लाख,":22433,"▁6.":5660,"▁friend":22963,"स्राउ":18995,"▁समावनो,":27401,"▁बेदद,":14656,"▁बिमा-":21550,"मिट":13284,"▁बिलाइफोरखौ":18676,"▁फाइखि":22515,"▁लुथि":27099,"▁गग":2465,"▁खेबनि":7671,"▁सोदोमस्रि":8132,"▁मोदाइखौ":22918,"▁मम":10217,"▁रामनाथखौ":7708,"ग।":24234,"▁आमुखाखौ":23565,"ंखो।":25280,"▁मुलिया":21564,"▁बि.":2876,"ब्लाबो,":7944,"ालायनो":11836,"ाजाब":752,"▁बिमु":24645,"▁बुजिसेयावबो":27804,"▁तिल":19015,"▁नेथाव":26722,"▁टिउ":16509,"▁दोन्नो":6015,"▁सामफै":27633,"ावनो,":14546,"▁गेलेनाय,":27428,"▁खेबखां":21929,"▁थौजासे":19096,"▁दुर्ल्लाइ":19972,"ीन्द्र":20266,"▁लिंनायाव":27475,"▁गावजों-गाव":22622,"▁होनायमोन":13162,"▁सहरनि":12575,"खोन":4224,"▁मानबाय":15776,"ायावबो":20622,"▁नायदिं-नायदा":23727,"ो।)":24800,"▁खारस्लुं":26313,"▁फारियानि":22091,"▁नु":318,"▁नङागोन।":13180,"▁गोमानानै":8817,"▁गोदानजों":16107,"▁भटाव":18177,"▁लान्थाया":8527,"▁ओंखामखौनो":26889,"्था":13943,"▁फंबाय,":12192,"▁होबावनो":28334,"▁बिबुंसारनि":14977,"▁सिगांनो":5481,"▁मनिपुरनि":11551,"▁जाहोनाव":4472,"▁जिउखौ।":26161,"▁रोनाव":5130,"▁नुहैबाय":12965,"▁बिबाराव":13328,"▁बिष्णु":19844,"▁दङʼ":1351,"omm":14893,"▁बेङाखै":24729,"जेनदोंमोन।":22345,"▁हाबाय।":4891,"▁'आनारी'":13813,"▁बायबाय।":11954,"थिखाल":24789,"▁फैफिनाखै":28266,"▁राङाथʼ":26977,"▁सोनाब":2869,"▁उथ्रि":3623,"▁बायदिफोर":21186,"▁रानफु":28029,"▁मादाव":2254,"▁सुबु":2913,"▁गुमैया":8910,"▁बिबौनि":19839,"▁गमथा":22906,"▁दाकात,":29399,"▁आलुमि":6358,"नानै।":3409,"▁लाइजाम।":16454,"▁नङाथʼ":18384,"▁आसिरबाद":28144,"▁सोमावसारनायाव":8478,"बेश":8334,"▁होबा":14171,"फिनदों।":13116,"▁गोमसार":6321,"▁आरिखां":10769,"ोगोनां":20846,"फुबाय":14612,"▁सिरिजाहा":14531,"डिं":9594,"आवनो":18042,"▁मानियो।":18618,"नोसै।":5028,"▁सिगि":7533,"▁स्वान":27167,"▁सिखाउ":11552,"▁हाबफैयो]":19356,"ities":23925,"▁खालामनायमोन":27590,"▁गेर":3761,"▁हिन्जावफ्राबो":26404,"▁घन्ट":3361,"ग्रं":8364,"▁नाजागोन।\"":23672,"ष्ट्रे":9850,"▁बिब्दिनो":1944,"▁दोखो":14662,"-हाम":11315,"▁बिबुंथिनि":22891,"▁खरʼवाबो":26794,"-आय":27355,"▁बाजै":2275,"ब्रै":1674,"नायाव,":7289,"▁मोनथार":4245,"ांग्रो":7144,"▁थादों।\"":21163,"▁श्व":10485,"▁माखौबा":10727,"▁थाम,":18633,"▁निद":7026,"▁बिलʼ":15529,"▁इसेबां":9404,"लाजि":17588,"ाग्लां":24876,"▁सावरायगोन।":27327,"▁हब्र":8207,"▁उपनि":25019,"ष्टि":11242,"▁थाखै।":25481,"▁स्टʼर":13432,"▁होनब्ला":3261,"▁कʼक्राझार":6201,"▁ओंखामनि":16267,"▁गुन्दाजों":16530,"▁\"शान्ति":17763,"बाया":5172,"▁मुवानि":7931,"ेटि":12036,"▁मावखुलि":17125,"योमोनब्ला":17485,"▁सौसि":18576,"▁कड":20651,"▁लायो-":28432,"▁होनाय":654,"ns":24167,"▁अनाथीनि":14281,"ेननाय":25926,"▁गिख्रंथावना":6011,"▁जʼ":920,"-हारिमु":8574,"ुलि,":8857,"गोन।\"":2956,"▁रमा":3878,"▁बुंफोरनाय":19775,"▁सरलानि":9920,"▁ट्रेन्स":7710,"▁खृष्टगिबि":29665,"▁नायनायसै।":25396,"▁बिहाराव":14575,"▁एसि":4004,"▁बेरायाव":26650,"▁लानाया":6587,"्रायाबो":9337,"▁बराया":14676,"▁थेरनाय":15028,"▁'रि":18052,"▁देमग्लाय":13750,"▁थगायनाय,":19210,"▁नाजाबाय":8840,"▁दोंगो":27989,"▁सैमाया":12168,"▁लाफानानै":5877,"▁आंलाय।":10273,"▁बिजिरसालियाव":8422,"बरʼ":10919,"▁आखुवाव":9816,"▁हावरिया,":11538,"▁थाङासै":19442,"▁होदोंमोनब्लाबो":25296,"फेराखैमोन।":14726,"▁दोरसोन":18984,"▁आग्लायनानै":26382,"खʼर":4749,"▁नांफादेर":21418,"▁भेटेनारि":23998,"-थुर":24109,"▁बाथुल":5904,"थुमनानै":10568,"▁हौवाफोरा":18619,"-साज":26796,"▁जोमनानै":16554,"▁दैखर":6114,"▁हानो":4330,"▁लाहैदों।":24937,"शां":13925,"ुबुन":9179,"▁ब्लाउस":19451,"▁दाइरिया":23095,"▁(C":11916,"▁आफां":26165,"▁किउरिय":5788,"▁दामदों":16443,"▁होमब्लानिया":27144,"▁मोनाखिसै।":4820,"खोमाखो":26452,"▁आखु,":6139,"▁गुदिआव":27622,"▁लिरस्लाय":18193,"▁नाजायाखै":18489,"▁उदै":1504,"फिन्":1554,"▁गोसो":317,"▁सानि":9617,"▁गोनांथिखौ":10405,"▁बाबाजी":22752,"▁खुंनो":8905,"▁नाङो)":25907,"▁(l":17850,"गोर":6649,"▁भजʼ":21270,"▁जेनेभायाव":19945,"▁मुथियाव":25777,"▁नुहुरनानै":29829,"▁थामजि":8413,"▁नायनाय,":25392,"▁मावना":9224,"▁सिबाय":3120,"▁कम्पिउटारखौ":4775,"▁रिंगासोयाव":17277,"▁गोबार":4819,"▁नोंथाङालाय":23356,"▁लुब":2941,"▁हरदों।\"":25664,"लां।":18079,"▁खोन्दो":4104,"▁गावहानो":14127,"▁दरखʼ":26761,"ागोन।\"":19229,"▁बुथारजानाय":22364,"▁नागिरनो":5340,"▁गुना":15895,"▁सान्थ्रि":1372,"्ला,":7232,"जोबनाय":7971,"्रिफ":14091,"-बादां":16946,"▁सेन्टि":19703,"▁मोन्नायबादि":27871,"▁लांखो":24927,"▁खाम्फायाव":29592,"▁आफादाव":4961,"▁रʼदाव":18987,"जों,":4081,"▁सिखारनानै":2273,"▁जंख":10221,"▁निलिखत":13103,"▁रान्दिखौ":19546,"▁दोनदोंमोन।":21279,"▁सिनखौ":10656,"▁खामजानाय":21299,"सिनबाय":25933,"▁बाराहै":25678,"▁खन्थाइ।":27923,"नि)":24524,"▁गसाइयासो":29902,"▁जगा":24536,"▁फ्रेस":11800,"▁नोंथांमोन":5631,"योब्ला":4160,"▁खुदियाया":11634,"गिर":392,"▁pro":10719,"▁जिवाव":3305,"नाथ":1197,"▁फिसा,":4532,"▁आलासिफोर":13425,"▁लानो।":16559,"▁जोख्लाय":25959,"▁अफिसारा":27614,"▁आसʼखान्दा":23575,"प्रा":10916,"▁सावनो":13112,"▁मिजिं":2082,"लाय,":3772,"▁थायै":8218,"-ज":1092,"▁दायनिगिरिया":13563,"ल्ल":1219,"▁बाहायजानाय":10504,"▁लुबैया।":6858,"फोरनिबो":18083,"▁थैना":21328,"▁कर्पर":19256,"▁सोमस्रिया":12018,"▁चेन्टारनि":19764,"▁लाबोनो":2688,"▁लायोब्ला":11476,"▁हाबावगोन":19716,"▁सफैयो।":20310,"▁मावदोंमोन।":17994,"ोन्दां":11761,"▁गुदि,":25705,"▁\"आर":4653,"ाला।":24961,"▁लाइट":4365,"▁रबिलसना":17298,"▁मोनहै":5292,"दिंग्रा/":24794,"▁खोलै":26547,"्राखौ":17730,"ल्प":861,"▁समायना":2384,"ोदोम":9829,"▁गʼस":7672,"▁हालो":5100,"निफ्राय।":3948,"▁दासान।":15135,"▁सिलागां":3649,"हेन":9608,"▁रावखौ":1788,"▁थेवब्लाबो":9942,"▁नेट":6248,"▁दामोन":7212,"▁लेंग्रि":26668,"▁फरायग्र":18201,"▁ड्रेस":14315,"▁नायनायाव":20837,"▁बिलोनि":23226,"▁मारिनानै":10076,"▁अनसेमा":25732,"▁उरिष्या":10815,"▁हागादै":25813,"▁जाव":1451,"▁फुलि":10996,"▁1988":15006,"▁दाब्ला":20395,"▁हा-दै,":23893,"▁बिमानि":1655,"▁थिंजाय":12500,"▁रिप":14559,"पुरनिफ्राय":27707,"▁सुरि":13957,"▁नायनोबो":14722,"▁फालांगि,":16744,"▁आइर":26187,"▁बिदिब्ला":1629,"▁ट्रेजेदि":9537,"▁उसि":9685,"▁दिन्थिनायनि":8797,"▁जʼर":9901,"▁लाफै":11029,"▁\"हे":12891,"ओं":20124,"▁सोलेर":5728,"▁'To":25758,"खादों":4352,"▁रोखोमै":6352,"▁बरमायाव":22079,"▁आमब्लाय":27789,"▁or":8188,"▁खारनायनि":21453,"फिसा":20208,"▁मिनिनाया":21466,"▁रेबग":28496,"▁साब्रै":5637,"▁बेयो":963,"▁रन्ज":24741,"▁थैनायखौ":9793,"थेफ":26861,"▁अनजु":11984,"uc":20107,"▁दालाय":5853,"▁जानायफोरनो":25885,"थियाखै":26282,"▁टेप,":27592,"▁हाबाय":2448,"▁मावाखै।":14255,"▁इन्द":20816,"▁मावजि":4259,"िया":331,"▁गन्थङाव":11474,"▁बिबादिनो":15198,"▁बादिंग":25632,"▁दोर्फा":22439,"▁सेक्सन":25581,"▁राजाफोरा":14626,"▁जोब्बाय":14399,"खाखौ":5438,"▁Bur":29192,"▁जेथो":5722,"▁my":16804,"▁गज्रि":24503,"▁फान्नानै":8077,"▁इनफ":3981,"▁स्टार्टखौ":23431,"▁लिभ":4886,"▁थाखोखौ":11389,"▁दानानै":4503,"▁हानायसिम":14495,"▁गोरोबलायनाय":27665,"ुमार":2450,"▁खुदुमो":28957,"▁जायो-":9310,"▁गिदिर-गिदिर":22276,"▁गस":1376,"▁सेरजानि":10506,"▁थुनलाइनि":2664,"▁लु।":16345,"थ्र":2060,"▁जʼथाय":21815,"▁लाबाय-":20576,"▁~":15452,"गाथाम":12703,"▁हाइ":1989,"▁मावनायजों":13003,"▁बोसोरनिफ्राय":21623,"सोर,":20743,"▁सिट":15620,"▁फावथाइगिरिया":5083,"▁\"कल्प":6871,"बुथुर":7415,"▁स्टेज":22415,"किन":12696,"ाथायनि":17875,"▁रमानि":14024,"▁ब्लाबो":28790,"son":24183,"सेनो":3148,"ार्सनि":25946,"जोंनो":1492,"▁सिलाराम":4616,"▁गंसेयाव":7655,"्रोनानै":24631,"▁मेडिया":9491,"▁रेज":27094,"-अ":2611,"▁साननैनि":8692,"av":15354,"▁\"जागोन।\"":25040,"▁लाहैयो।":20577,"▁गाइखेरखौ":5520,"▁मोनाखैमोन।":11022,"▁रानलांनाय":28031,"▁मन्चा":18381,"▁फोजोबनो":5237,"▁जोबनाय।":18239,"▁दिहुनग्रा":18708,"▁Pri":22716,"▁बुरैनि":10056,"▁गुबुनखौबो":25798,"▁आन्दार":14767,"▁बिजिया":16763,"भनि":24356,"▁ह-नै":20370,"▁मुङैसो":19364,"जानो":1923,"ामाव":12828,"▁मुंमा+":13504,"▁नायदों":8290,"लेन्ड":17804,"▁मोनो-":18655,"▁बुदों।":25363,"▁इटालिनि":29828,"फायार":27721,"▁सोंफ्राम":18254,"▁गुसुङै,":29766,"▁दिहुननानै":5774,"▁महर,":13094,"▁खालामफिन":20671,"▁घर":27639,"▁फिनाव":27085,"▁लिंनाय":27474,"ाखै।\"":5623,"▁लक्षीम":7769,"▁मोनमार":11020,"▁बुब्लिनि":12374,"▁त्रि":11251,"▁सानफोराव":17748,"▁रैरुब":26961,"▁गर्":20328,"जायो,":19135,"-खैफोद":10864,"▁उदयाचल":10849,"▁थाफायो।":25871,"ाबावो।":19774,"ेराम":24913,"▁लामाया":5178,"▁सोलोंसालियाव":27344,"▁सोनारना":29685,"▁बाथोर":25500,"▁थफी":6402,"▁हौवाखौ":10563,"▁सानबाव":15668,"▁जयै":4911,"▁मोननानैबो":22629,"▁लाकीया":12601,"▁दोखौ":16423,"...हि":26572,"फालʼ":21882,"▁सेरेफ":23459,"▁रोखा-रो":16616,"कारि":24215,"बायमोन।":4614,"▁नरह":22556,"जेबो":7095,"▁डाब":12016,"▁मोसाहारिनो":12593,"▁थादʼ":4218,"▁गोजोन,":16332,"▁\"आंदि":22114,"▁थायनैजों":15079,"ाइघाट":24807,"▁बुलि":6435,"▁थायाखै।":9479,"▁सिबिनो":8500,"ख्रावनो":15946,"ामानि":9143,"▁जासिनाय":19503,"▁जांख्ला":28297,"▁हासʼनानै":25972,"▁बिलाइसिम":27175,"स्त":2884,"▁मिथिखो":25826,"▁रंजानायखौ":22640,"▁बुदां":9204,"▁डकुमेन्ट":8341,"▁खुगानि":7652,"दिया।":13293,"दसे":12713,"▁जेनबा।":27369,"▁आउट":9637,"थारनाय":10356,"▁मृ":6674,"▁'आ":2107,"▁अनजिमाया":8107,"▁जिबनि":13407,"▁दसेबा":27007,"▁मिनिटनि":12455,"▁दैमासिम":19423,"▁फित":9871,"ुमा":6041,"▁जायो।\"":7602,"▁जालाङो":13518,"▁खुगायाव":2585,"▁सान्द":3413,"नांगौ।\"":14396,"▁सिरिमोन":18505,"▁b)":22883,"▁मोनहा":3150,"▁लाब्लानो":17720,"▁बांसिनसो":16402,"▁मुसे":21094,"▁दाङ":5594,"▁बिरलाङो":27417,"▁गोसा,":24760,"▁ट्रेनाव":22313,"▁बोद्‌ला":23012,"▁राम":1103,"काखौ":21684,"▁मोखथां":6875,"▁''लाखि":22562,"▁जानाया":3729,"सारनायनि":18099,"▁मुगायाव":4287,"▁सावरायनायखौ":12259,"▁बुयो।":20822,"▁हथʼ":15497,"ार,":2565,"▁थाहाबनानै":23134,"▁हराबालानो":25668,"सिं":727,"▁अनस":18045,"▁जाफ्ला":12935,"▁बिनिफ्रायनो":24646,"▁हाबहैबाय":20727,"▁खेबसेनि":28172,"▁माष्टार":4438,"▁आखुफोरा":7616,"-खोम":13842,"▁आफाङाव":18590,"▁धर्मे":12140,"फुनायावनो":21915,"ागोन":2375,"▁मुवाबादि":23573,"▁थिफाय":15958,"▁थिननायखौ":22076,"▁आलौनाय":29892,"▁नथिं":20388,"▁दंसाब":25449,"द।":13889,"▁मेगनाव।":28359,"▁फ्रान्":10784,"▁गनायनो":16638,"-हर":5681,"▁थांफा":20706,"▁बाजियावसो":16986,"▁आलारी":27581,"▁बिदा":1622,"▁सिनेमा":5510,"▁कर्णा":28633,"▁खेंफ्रु":27998,"▁फोथांनो":13641,"▁जेंना।":22277,"▁जाबा":6441,"▁2009":8899,"खुमै":10718,"-जार":18685,"▁खालामनानै":664,"यार्ट":14642,"मैदेर":23588,"ऋ'":24209,"▁सुंजोब":27211,"▁बिखायनो":4369,"▁(हम":25322,"▁जायोमोन।":7261,"▁साबु":5282,"▁दिन्थिफुं":9278,"▁हिनजाव,":19007,"▁बायमोन।":25529,"▁खावबʼ":18550,"▁खस्ट":10992,"▁संबिजि":13219,"फोरखौ":359,"▁बर्ड":5161,"इउ.":15269,"▁दानो":1320,"-गो":3067,"▁एम.":3241,"▁जांख्रिथाइ":3861,"▁कार्बिआं":11643,"यानोथʼ":14623,"बोना":15414,"▁हिंसा":17029,"▁गुदुंनि":19002,"▁मावफारियाफोरनो":23089,"लाम्बर":24587,"▁सेसाया":25576,"▁भुटियापारानि":29405,"▁सेर्":14507,"▁www.":17349,"ानावनो":16182,"ाह":227,"▁नापि":14326,"▁फोनांनो":19261,"▁दानसोराङा":19971,"▁आफाद।":21499,"▁जिरि":14504,"▁गाज्रिनि":9299,"▁थुनलाइगिरि":8869,"▁बुंदोंमोन।":8704,"▁दान।":26413,"▁सोमावसारो।":27882,"▁आंहाखि":24885,"▁दस्रा।":29531,"त्त":3327,"▁संग्राय":23015,"▁रावआबो":25511,"थेर":2755,"▁सोंदों":8369,"▁फिसाज्लाया":8823,"स्थʼ":13115,"▁जानांनायनि":13557,"▁फावदुरा":17313,"▁नखल":12793,"▁जगाजगनि":23862,"ोगोन":3716,"▁नाग":516,"▁रां,":9276,"▁नायबिजिरसं":16790,"▁गोजोनबाय।":18630,"▁प्रफ":21615,"▁सावनाय":16060,"▁दिहुननायाव":27271,"▁खाफालखौ":6570,"▁अखाखौ":27594,"▁खोला-सोनाब":29050,"▁आखल-आखु":6184,"यारी,":15426,"वो,":24397,"सायत":26958,"▁बारा":918,"▁गो":196,"▁दामनो":13345,"ामोन।":1903,"▁बिगुमाया":23180,"▁गयो,":24506,"▁चित्त":5983,"फा":323,"िरिं":8684,"▁अन्नाय,":18740,"▁बोथोराव":6591,"▁बावला।":26332,"▁\"न":952,"▁बानजायनाय":4125,"▁अरुनाचल":22744,"▁माराम":17556,"स":138,"▁खैदां":11290,"▁खामानियानो":21496,"▁नेसा":13221,"▁बाबुवा।":27810,"▁रागा":1782,"▁ज्रय":15141,"▁as":19358,"▁एफाबां":16590,"▁कʼर्ट-कास":19854,"▁जोब":576,"लायलांबाय":25146,"सेम्बर":8664,"ऋ":100,"▁मागोन।":20344,"ंगʼ":25257,"▁फुरा":6065,"▁उजिदों":19059,"▁जौसे":11175,"▁बुंफबनाय":19745,"▁साफ्रासीया":29538,"▁किउ":22473,"या।":1213,"▁फाथै":7738,"▁मोननैनि":9366,"न्दाया":15758,"▁दख्":19109,"▁थेलेफा":2722,"▁फोसाबनायनि":14963,"बादियै":26079,"खाय":923,"▁हेमलेट":3544,"▁मोख्र":3663,"▁माबार":1548,"▁सिथ्लानि":16717,"▁लाउथि":10044,"▁हौवासानि":27021,"▁जायखि":2343,"▁साज":2262,"▁माख":3372,"▁मोगथा":6386,"▁माइनाव":4965,"▁थरथिं":7127,"▁फार्सेथिङै":9455,"▁?":241,"जोबो।":3186,"▁दावबायनायनि":8924,"▁ईसान":17020,"्या":3456,"▁दावराव-दावसि":19846,"▁सिनहा":27886,"▁सन्थलाया।":29027,"▁हांगारि":22706,"▁मुवाजों":23572,"ell":5381,"ाबा।":20433,"▁बिबारफोरखौ":27381,"▁होमबाना":18660,"▁बनाय":11735,"▁रजʼ":4156,"▁ननि":3406,"ुरनो":25043,"▁198":3244,"▁नै-":21740,"दे।":18779,"▁हर":385,"▁एयार":15648,"▁लोंलाय":16163,"▁8":2243,"▁दावगाबो":28681,"▁माष्टार।":29297,"नैसो":1818,"ंगालि":14167,"▁गोमालांबाय":29568,"▁खनसेयावनो":28453,"च्":4316,"▁बिबारि":4359,"▁सेवालि":13533,"▁16":3630,"फिन":574,"qu":5266,"▁\"दिनै":9178,"▁कलेज,":14815,"▁पिसा":15789,"▁घन्टानि":22995,"▁सर्गि":29024,"▁कार्बन":29502,"▁जाफैनो":14168,"ुंगुर":5501,"▁मुंरायखौ":28783,"▁हाबिलानि":28600,"B":33,"▁अस्ताद":13827,"▁थायब्रै":22175,"▁Sh":19077,"▁जैबोर।":22952,"-मु":4032,"▁दामि":14685,"▁खुनानै":18361,"▁सार्क":13959,"▁गरनैसो":27275,"▁नायख्लें":17893,"▁जौगालां":18910,"▁अमरनि":18893,"▁उत्तरा":15254,"▁कक्राझार":4930,"गति":24237,"▁मोखांनि":5941,"▁लागाम":15163,"▁बांगाल":4396,"▁अबं":2637,"▁गय-फाथै,":13709,"▁ट्रेन":10807,"▁नायगोन":6284,"तखार":24287,"▁बानजायनायनि":22630,"लायारि":12916,"▁बांग्रा":22807,"▁हुमा-ह":27006,"our":3538,"▁खोमानांनायनि":29795,"▁आफाफोर,":18591,"▁सौसिनानै":18578,"▁गोग्लैदोंमोन।":18588,"▁दाक्टार":23545,"जोमा":24254,"▁गिलिद":5535,"▁फजʼनाय":16839,"▁गबʼनानै":23540,"खावनो":24230,"▁बडʼलेण्डाव":28439,"▁ट्रेइनफोराव":23370,"▁नʼआव":9273,"▁भारतनि":3282,"▁नंखाय":2193,"▁गेलेनाय।":18764,"▁बुंलाबाय":12905,"▁एसेयैब्लाबो":21222,"▁सान्तिया":26371,"▁खोलाहा":9494,"गा":386,"▁सुबुंखौ":6136,"▁बाथौवा":25501,"▁'सोम":11989,"▁होवालाबानो":29263,"▁जाहोदोंमोन":28998,"▁लुं":12832,"▁बाथि":5590,"▁देग्लायनि":13640,"▁दावगाहोनाय":22855,"▁हाबफैनायनि":27339,"▁लोख":13402,"▁बोरैबाफोर":28670,"▁लाउसिन":22761,"▁दोन्दों":29127,"▁बिफा,":10611,"▁बोखानो":22845,"गिरि":478,"▁बैसागुवाव":23496,"▁मोगा-मोगियाव":29381,"▁मेंग":11944,"याबो।":12735,"▁सामलायनानै":13379,"लांनायसै।":11148,"▁जहैयो।":20357,"▁ण":10209,"▁अनो":12850,"ver":5401,".....।\"":14779,"▁अबसे":27684,"खायै":2789,"याखै।":9142,"ाबो":312,"▁जाखांब्ला":27649,"▁खारखोमाबो":29546,"▁फरायगोन":18200,"▁लांगोनानि":14998,"ार्थ":7598,"मा,":2982,"▁गुमै।\"":10717,"▁गरमा":16400,"िनी":20649,"▁फै":295,"▁बाटनाव":10083,"▁सङै":13953,"▁हारसा":8416,"▁मोनथारा।":29232,"▁दन्दाया":19544,"लाबोर":15510,"ोन।":316,"▁थाइलालि।":16774,"▁सामलाउथि":20035,"▁होनानै,":11252,"▁मोस्रोम":14089,"▁-!":15739,"नाया,":25923,"▁हेफाजाबगिरि":14719,"▁हेल":4741,"थारनांगौ":11121,"▁बेमारि":5135,"▁ख्लाब":9129,"▁इराग्दा":12256,"▁बेरामाव":11526,"▁रोजासे":13060,"▁बोथिफा":29624,"▁मासेया":19230,"▁राजानो":14474,"▁गुरै,":16711,"▁हराब्ला":15882,"▁बान्दर":27527,"ज्रि":1347,"▁आल":1380,"▁मोब्लाव":6864,"्रै,":15525,"▁दावहारु":7804,"ाबालानो":3374,"▁फावथाइ,":13196,"▁सोरबां":17934,"ब्राम":2456,"▁जोबखांनानै":21381,"▁मनजुआबो":14792,"▁मोनाब्ला":4001,"▁बेग,":22609,"▁सोलाय-सोलʼ":12659,"▁समजों":11893,"▁रेप":9919,"▁लाखिदों।":13280,"▁पानबाजार":23622,"ारिफोरखौ":24912,"ration":12391,"▁उन्दै,":13157,"▁सप्तासे":29526,"▁बामुन-भ":29380,"▁बाहागोफोरखौ":21726,"▁आनारामा":4858,"▁कार्":5302,"▁हादोंमोनब्लाबो":13064,"▁'इ":10378,"▁फसाय":24708,"▁दाबसे":3908,"▁खुन्दुं":4485,"फेराखै।":6578,"▁जायाबानो":25139,"▁अननाय।":25726,"▁हाबिला":9467,"र्गि":26443,"▁थैहाब":18207,
[...]
