#version: 0.2 - Trained by `huggingface/tokenizers`
न ा
न ि</w>
ा य
ब ा
ल ा
न ो</w>
र ा
ज ा
थ ा
ख ा
ब ि
म ा
ग ो
म ो
ख ौ</w>
न ै</w>
स ा
ह ा
ग ा
् र
ो ं</w>
ना नै</w>
न ्
ना य
स ि
ना य</w>
ा व</w>
ो र
ब ो</w>
ो ं
द ा
ब े
ब ु
ि य
् ल
फ ा
ह ो
बा य</w>
स ो
र ो</w>
् रा
स े</w>
मो न
न ि
फ ोर
द ों</w>
आ रो</w>
. .
ज ों</w>
थ ि
म ा</w>
ब ा</w>
न ा</w>
द ि
ज ो
ब ो
ज े
ाय ा</w>
स े
ज ि
्ल ा</w>
य ो</w>
द ि</w>
स ु
ं ग
य ा</w>
ब े</w>
मो न</w>
ग ु
फ ि
ब ्ला</w>
र ि
र ि</w>
ग ि
् ला
म ि
िय ा</w>
बु ं
फ ो
्र ा</w>
गो न</w>
ाय ो</w>
ख ो
फ ै
म ु
खा ला
ल ि
स ो</w>
आ ं
ाय ाव</w>
ल े
था ं
न् द
न ो
आ ं</w>
ङ ा</w>
सा न
स ै</w>
न ों
खाला म
ख ु
फ ्रा
ह ा</w>
द े
द ो
ब ाय
गा व
ख ौ
रा व</w>
स ोर
र ्
ङ ो</w>
। "</w>
द ों
व ा</w>
र ा</w>
था य</w>
द ु
फ्रा य</w>
म े
नि फ्राय</w>
ल ो
र ाय
ल ाय
ब ्ला
नाय नि</w>
ज ों
ना व</w>
व ा
बि यो</w>
न ु
ह र
ला ं
य ा
ग े
ल ा</w>
द ा</w>
मा न
व नो</w>
थ ि</w>
ाय ा
ना ं
.. ..
ब र
ग ै
ल ु
स ा</w>
स ्र
ज ु
थ ु
र ो
ख ि
दों मोन</w>
िय ा
ज ा</w>
स ि</w>
ना थाय</w>
खा ं
ह ै
ला य</w>
न ों</w>
फ ु
खा र
बा दि</w>
र ु
िय ाव</w>
म ्
ल ʼ
बा थ
नाय ाव</w>
ना ंग
ङ ा
ला इ
ज ाय
र े
स मा
फ ा</w>
फोर ा</w>
स ्
ह ि
द ै
न ै
खा य</w>
ज ायो</w>
ख ्र
ओ ं
य ाव</w>
गो सो
फोर खौ</w>
फो र</w>
ख े
मा व
मो जा
ल ि</w>
र ै</w>
थ ा</w>
नाय ा</w>
रा व
ाय नो</w>
ए बा</w>
- -
द ं</w>
ल ʼ</w>
सो र</w>
ह े
न ङा</w>
था इ
ख ा</w>
ग ौ</w>
बि नि</w>
बा र
आ व</w>
नांग ौ</w>
गाव नि</w>
न नि</w>
ट ा
? "</w>
ग ो</w>
थ ाय
बा व
-- "</w>
ब ्र
ब्ला बो</w>
गु बु
ग ्रा</w>
ह म
ब ि</w>
बा ं</w>
आं नि</w>
था खाय</w>
था र
मोन से</w>
ङ ाव</w>
ख ै</w>
मान सि
जो ब
गा र
फि सा
थ े
गे जे
द ै</w>
थ ʼ</w>
ह ु
ब ै</w>
ब ै
फा व
फोर नि</w>
जा दों</w>
बर ʼ</w>
हो न
क ा
र नि</w>
हा ब
जा बाय</w>
उ नाव</w>
्र ि</w>
मोजा ं</w>
दा व
ख ो</w>
रा इ
ङ ै</w>
ना ं</w>
जा नाय</w>
न् थ
मा नि</w>
ला नानै</w>
नाय खौ</w>
गुबु न</w>
खौ नो</w>
म नि</w>
ह ाय
रा ं</w>
व ाव</w>
जा नो</w>
अ न
स लʼ
प ा
फा र
स ं
लो गो</w>
ब ोर
गै या</w>
य ै</w>
न े
ं नि</w>
मि थि
स ै
बाय दि</w>
म ाय
न् नानै</w>
क े
फ े
थ ो
सा व
जा नानै</w>
गो नां</w>
था इ</w>
ख ै
ग ा</w>
द ो</w>
मा नो</w>
रि नि</w>
ग ्र
- -</w>
र ै
थ ै
रा म</w>
न् थि
ल ों
फ ्र
ग ्ल
सि न</w>
क ्
था नाय</w>
बे नि</w>
सि गा
लि र
ज ो</w>
न् जा
र ी</w>
हा ं
ख ʼ
गा सि
र ी
त ा
ला व</w>
गो सो</w>
गा व</w>
ह ाया</w>
फ राय
बि सोर
जे रै</w>
ल ्
ज ौ</w>
ख ु</w>
नाय सै</w>
बु ङो</w>
ग ्रा
फि न
गि र
जे बो</w>
ज ौ
गो दा
ख ि</w>
सा से</w>
द ं
्र ि
ज ि</w>
बा ं
आ फा
ल ै</w>
गा ब
हा गौ</w>
समा व</w>
ट े
ओं खार
म ै
बा व</w>
दो न
दि नै</w>
दे र
बे खौ</w>
ग ाय
जा गोन</w>
नों नि</w>
ब ्
हो नो</w>
ख ाय
स ों
थ ʼ
था ं</w>
सो दो
ट ि
हा बा</w>
गा हा
खौ बो</w>
फ ्रा</w>
जा ब
न ʼ
थ ो</w>
थ िया</w>
बि फा
लो गो
न खौ</w>
प ्र
बा द
म ले
आ ले
म ह
खो ना
बाथ ्रा
सो म
उ न्द
ख ायनो</w>
मु ं
मे ग
ख न
ग ं
हा बा
बाथ ्रा</w>
रा य</w>
स ायाव</w>
मो न्
गि रि</w>
खालाम नो</w>
नाय ा
ष ्
ख र
आं खौ</w>
गो बां</w>
ज ाया</w>
हि न्जा
ज ʼ
सा र
हा म
हो नानै</w>
स्र ि</w>
था व</w>
व बो</w>
गा ज
मा हा
ओं खा
न ङा
था र</w>
थु न
राइ जो
थ ायो</w>
गि दि
ब ्ल
फि सा</w>
गेजे राव</w>
गोदा न</w>
प ु
ला ङो</w>
बि खौ</w>
जों नि</w>
बर ʼ
होन नानै</w>
खालाम नानै</w>
स म
स ्रा
बु ं</w>
ल नि</w>
ला इ</w>
खा व
सि ं</w>
आ खा
थि ं</w>
था व
मो नो</w>
मा व</w>
ल िया</w>
खा ं</w>
र ं
बि बा
द ाव</w>
बे से
ए से</w>
मा बा</w>
दि न्थि
गो जा
ो ब्ला</w>
मा नो
ला बो
भ ा
सि म</w>
दा न
ए से
न् त
ह ाया
मि नि
फोर माय
आ ख
मा इ
फै यो</w>
आ इ
हा द
ह ो</w>
खा लि</w>
बा हा
नां गोन</w>
खि सै</w>
फु ं
रा ं
आ दा</w>
.... ....
ब य
बि ब्
खो म
न्द ा</w>
जा य</w>
बा दि
सा र</w>
. .</w>
न् थि</w>
जो बो
आ ना
र् जा
ना नै
हो न्नानै</w>
ख ्ल
र िया</w>
गासि नो</w>
सान ै
बि सोर</w>
मो ना
गो र
खे व
हो नाय</w>
बि मा</w>
आ सा
जि उ
फाव थाइ
ह ायो</w>
गाज ्रि</w>
बुं नो</w>
आ लाइ
ग ौ
ज ्ल
थ ायाव</w>
आ ब
आ खु
थ ियाव</w>
हा ं</w>
रा जा</w>
बे फोर</w>
मोन ा</w>
ना गिर
म ै</w>
म ाया</w>
श ा
से ंग
स्र ि
राव बो</w>
ग ʼ
ण ्
ड ा
मि नि</w>
ज ाया
ब ्रा
बि दि
बाथ्रा खौ</w>
द र
स ʼ
हो यो</w>
स ौ
सु बुं
ला नो</w>
दा ं
ल ायो</w>
था नो</w>
आ य
ै नो</w>
बा हाय
था म</w>
ख ्रा
बि ना
बि जि
म् ब
ज ोर
प ्
ल ाया</w>
िय ो</w>
हा य</w>
नो सै</w>
लु बै
ग ्
क ु
मान सि</w>
न् दा
स ्ल
जा ब</w>
्र े
ग थʼ
बुं बाय</w>
ल े</w>
गा ं
ड ि
गि रि
ब्ला नो</w>
न ं
ह ौ
मो दो
गो रो
मु लु
खां नानै</w>
फ ं
बे खेव
उन्द ु
सि ख
द े</w>
प ि
म हर
र खौ</w>
आफा द
लां बाय</w>
ी या</w>
सा इ
फार से</w>
ट ि</w>
म बो</w>
ल ु</w>
हा नाय</w>
जो नो
आ थि
लोगो से</w>
स म</w>
खा थियाव</w>
सि ङाव</w>
क ल्
थां नानै</w>
शा न्त
बा र</w>
मा नि
अ ज
ल ो</w>
गो जो
र जों</w>
िय ै</w>
नि फ्र
स ाय
कल् प
हा रि
ब ु</w>
न जा
जि उ</w>
मह र</w>
ब ्रा</w>
गा म
बोर ै</w>
ना मा</w>
मोन बाय</w>
दु खु</w>
दि नै
ं आव</w>
म खौ</w>
गो ग्ल
मा न</w>
मा खा
आले या</w>
मानो ना</w>
ए न</w>
ब सु
था ङा</w>
.. .</w>
जों नो</w>
म न्
न् नाय</w>
सोदो ब
फै दों</w>
गोग्ल ै
द ्र
नों खौ</w>
दा ं</w>
मा खौ</w>
नांग ौ
ब नानै</w>
रा ज
रा मा</w>
मो न्द
ह ्
बि लि
बे यो</w>
थि नि</w>
आ व
फ ्ला
नु नानै</w>
म हा
सु ं
गा मिनि</w>
दि हु
अ र
बि थां
ग ै</w>
ला मा</w>
ओंखा म</w>
क ि
दु र्जा
थ ाया</w>
त ि
गा सै</w>
ल ियाव</w>
न् था
माहा जो
न वाव</w>
बिजि र
ना जा
बि ख
हा र
ब्र ह्
आ फा</w>
नाय जों</w>
हो बाय</w>
उ न</w>
बा रा</w>
ोर ो
क ा</w>
स र
था म
मा थो</w>
ब ड
स न
मा र
सोर बा</w>
टा र</w>
सिगा ं</w>
ना ङा</w>
गि बि</w>
गा न
मानसि या</w>
फ ्ल
न् दि
फो राव</w>
ग ायाव</w>
बय बो</w>
ल खौ</w>
स ाया</w>
रा म
गा सै
ंग ा</w>
नो जोर
द ʼ</w>
ह रो</w>
सोर नि</w>
बे र
स नि</w>
गो ख्र
आं हा</w>
माखा से</w>
प े
गो रा</w>
खे ब
ल ै
री या</w>
म्ब र</w>
निफ्र ायनो</w>
त े
द ाय
स लʼ</w>
बि सि
बिसोर नि</w>
जोनो म</w>
सा न</w>
फै बाय</w>
नु नो</w>
स्र ी</w>
हो दों</w>
सि नाय
थां नाय</w>
आखा इ
थ ै</w>
खा ङो</w>
ब्र ै</w>
बा न
ला व
सि रि</w>
बा वनो</w>
सो मोन्द
थि खौ</w>
जे ं
म ायाव</w>
स ौ</w>
दा य</w>
सा लि
ख्र ि</w>
गं से</w>
बिब् दि</w>
न्थ ्रि</w>
राइ जो</w>
आ ला
खा नि</w>
जोबो द</w>
इ रा
ख र</w>
ला खि
हा रि</w>
हिन्जा व</w>
बसु म
आ र
सि ं
हिन्जा व
सा न्
मेग न</w>
ज्ल ाय
बे नो</w>
से प्
ह र</w>
खै मोन</w>
मो खा
द से</w>
ब बे
मि हि
आ इ</w>
ना नि</w>
रा जा
मा ब्ला
पु लि
अ ना
गो हो
सा व</w>
जे न
जि राय
गासि बो</w>
रं जा
क म्
बो है
सु बुं</w>
अ ल
गु बै</w>
म न
रा हा</w>
खा फा
रि खौ</w>
फो रा
लि ं
दु खु
लाय नाय</w>
सेप् ते
आ द
बे नि
मन् जु
बा ज
ला नाय</w>
बसुम ता
त ि</w>
सा न्द
त ु
मोन नाय</w>
फोर जों</w>
स ाया
खो मा
अ जि
नों थां
हे ं
रि मि
इ ं
ग ्ला
जा दोंमोन</w>
मो खां</w>
सा नो</w>
अन गाय
न ंग
गु वा
मु ं</w>
गो नां
फि नो</w>
सोदो ब</w>
ट ा</w>
फ ाया</w>
बा नो</w>
सा ब
हा बो</w>
बिलि फा
ग लʼ
बो र</w>
बादि ब्ला</w>
! "</w>
1 9
बा इ
0 0
बे ल
ख्र ु
द ौ
हा र</w>
गा रि</w>
अ लʼ
बुं नाय</w>
फै नानै</w>
नो बो</w>
प ि</w>
था ङो</w>
ंग ि
गै या
द ङ
ह ायाव</w>
बो नाय</w>
सु लु
इरा ग्
दा नो</w>
भा र
थ िया
ला सै</w>
हा रिनि</w>
गा र</w>
ग्र ो
गो जौ</w>
सि या
थि ं
थाय नि</w>
द दे
गो म
गो हो</w>
दा बो</w>
सो लों
बाथ ्र
आखा इ</w>
जा व
मो सा
ंग ्रा
जा रिमि
म द
गा नि</w>
हर बाय</w>
लाइ जा
दा जाब
बाय दि
र िया
बे खौनो</w>
नि बो</w>
लां नाय</w>
नʼ वाव</w>
i n
झ ा
दिहु न
गासै बो</w>
ददे रे
फा न
हौ वा</w>
ग र
ग िया
नाय नो</w>
हो म
गोसो आव</w>
ला नि</w>
ला राम</w>
थो न</w>
ण् ड
स न</w>
खा मानि</w>
लाय नो</w>
मानसि नि</w>
जा से</w>
सा से
लां नो</w>
या वनो</w>
समा वनो</w>
गेजे रजों</w>
ग सं
र ों
.. ..</w>
महर ै</w>
ट ्रे
थ ों</w>
अजि त
न् था</w>
गाहा य</w>
अ ब्ला</w>
जा खो</w>
नाय नानै</w>
जो हो
सि न
जो र</w>
ब्ल ि
द म
लाय नानै</w>
फिसा जो
बां सिन</w>
सुलु ंआव</w>
ह ि</w>
मोन नो</w>
ट ्रा
जा थाइ
दु ं
गे ले
ह े</w>
मा वनो</w>
थि न
जे ब्ला</w>
लाय ा
थे वबो</w>
आ खु</w>
ग थʼ</w>
सा नै</w>
आं बो</w>
उ ना
गोसो खौ</w>
फ्र ो
खर ʼ
जिउ नि</w>
बे द
ो मोन</w>
थां नो</w>
गोसो नि</w>
ल ी</w>
बुं दों</w>
कम् पि
मो दै</w>
बुं नानै</w>
स्र िया</w>
साव राय
हां खो
सा हा</w>
नों सोर</w>
कम्पि उ
ं खौ</w>
फ ै</w>
गो बा
खौ रां</w>
लां दों</w>
क ले
ना रि</w>
था बाय</w>
सा लियाव</w>
बो दों</w>
गाव नो</w>
नु जा
बाव ो</w>
गा रां</w>
िय े
सोर जि
गार नानै</w>
आख ायाव</w>
भ ु
खा थि</w>
गो दो
बे ं
मोन नि</w>
बेसे बा</w>
थ ौ</w>
द ङ</w>
ल ्ल
स ु</w>
् र</w>
ला बाय</w>
गो न
फै नाय</w>
हम बाय</w>
थ े</w>
खालाम ो</w>
सिगा ङाव</w>
गाहा इ</w>
' '</w>
दा र</w>
बरʼ नि</w>
हाद ोर
ग ि</w>
जे ब्लाबो</w>
बाहा गो</w>
गो बाव</w>
है यो</w>
नाय मोन</w>
देर हा
नङा ब्ला</w>
थुन लाइ
t i
बि दि</w>
गो मो
सि गोन</w>
खालाम नाय</w>
ख्र ि
फाव थाइ</w>
री नि</w>
खा न्थि</w>
गो मा
मोन गोन</w>
फि न</w>
रि ं
ए म</w>
ल ायाव</w>
बाहा गो
आब ौ</w>
ध ोरो
दा नि</w>
सिख ्ला
सुं दʼ</w>
गो लाव</w>
हर नानै</w>
गेजे र</w>
बिब् दि
ड े
आं नो</w>
सेप्ते म्बर</w>
खा मानि
गिर िया</w>
व सो</w>
रो खो
दै दे
हे फा
फार िया</w>
सेंग ्रा</w>
महा राजा</w>
2 00
से नि</w>
जाय गा</w>
खर ʼ</w>
ट नि</w>
थ ों
स माय
। )</w>
जा नांगौ</w>
बि र
मा बोरै</w>
बे से</w>
फै नो</w>
सलʼ मा</w>
मले ना</w>
हाब नानै</w>
दं मोन</w>
t h
आ र</w>
ह ायनो</w>
ला जि
बि हा</w>
खो मा</w>
बाय ा
मा लाय</w>
नों थां</w>
खु ं
मोजा ङै</w>
खै फो
प्र े
थाव ना
न जों</w>
ब ʼ
खा म
खा नाय</w>
मा लाय
बे बादि</w>
सान बाय</w>
आ ग
म ी
ना र
जा नायनि</w>
दा उ
से बो</w>
जों थिया</w>
है बाय</w>
बाद ल</w>
गौ मोन</w>
अ न्
ै नि</w>
हा नि</w>
हा गोन</w>
गा न</w>
गा खो
बे याव</w>
फा रि</w>
थावना दि</w>
थ ाया
ै बो</w>
गै यै</w>
बेनि खायनो</w>
ख न्
न ʼ</w>
र ʼ
जा हो
सि खार
बो सोर</w>
खि न्था
द न्दा</w>
स ्ला
बि खा</w>
बु र
मिथि नो</w>
क् ट
फावथाइ नि</w>
अ रु
सो न</w>
फोर ों
हे र
स्रा ं
राम ना
ब नो</w>
सि मा
लो म
त ्
था खो
सान नानै</w>
बिख ायाव</w>
फा ं</w>
सु जु
सान से</w>
नों थाङा</w>
हम नानै</w>
प ्ल
ना इ
रा इ</w>
मो खां
न्द ु
बिबा र</w>
फोरमाय नाय</w>
सानै बो</w>
मुलु ग
नोजोर थावनादि</w>
इ न्
ज नि</w>
थ ु</w>
न ख
सि नि</w>
बो यो</w>
गे दे
थु म
एसे बां</w>
बिना नाव</w>
सिख ्ला</w>
आफाद नि</w>
दङ ʼ</w>
दैदे न
द िया
बि फा</w>
अ ब
थ ौ
न िया</w>
ी नि</w>
जा र</w>
बे निफ्राय</w>
खालाम दों</w>
फाव थि
होन ना</w>
गाहा म</w>
ना खौ</w>
ला उ
खा मान
बि सि</w>
सि खा
सि या</w>
हाय ै</w>
नंग ौ</w>
अ म
सु र
गिदि र</w>
ह ै</w>
मो सौ</w>
मु स्री</w>
हां खो</w>
जौ गा
जाया खै</w>
बड ़
r a
थ ्र
मोन नै</w>
बेखेव गा
मन जु
बा रि</w>
थि ङै</w>
फो थाय
गाव खौ</w>
हम नो</w>
थे फे
ब नाय</w>
भ ि
बा रा
हा खौ</w>
सो नानै</w>
सो माव
नि ख्रु
नो जोर</w>
या बो</w>
टा र
मै या</w>
बिदि ब्ला</w>
द ʼ
। '</w>
फो जोब
मा बार</w>
दा म
गां से</w>
श ्
था खौ</w>
फा ं
मोन हा</w>
.. .
ले खा</w>
खां नाय</w>
समा य</w>
बै सो
आना री</w>
सेंग ्रा
: -</w>
द ाया</w>
न निफ्राय</w>
था नानै</w>
दा ब
मोन ब्ला</w>
गु र
है नो</w>
रु वा
फिसा ज
जʼ वा
नानै बो</w>
सा य</w>
लि नि</w>
खालाम बाय</w>
हर दों</w>
ाया बो</w>
हाया खै</w>
अज या</w>
इ न
द िया</w>
दु ं</w>
थु लु
लिर नाय</w>
जोबो र</w>
बि लाइ</w>
खौ रां
बादि नो</w>
जा व</w>
खा र</w>
हा जʼवा
खाला व</w>
जाय गायाव</w>
राइजो नि</w>
फ्रो मबो</w>
था ब</w>
मोन दों</w>
दो न</w>
हाया खिसै</w>
ब हा</w>
रा वनो</w>
गो ब्रा
मोन ब्लाबो</w>
जि ल
ग्ल ो
अ ख्रा
म न्थ्रि</w>
हा ट
खौ सो</w>
फोरमाय दों</w>
गाम ि</w>
दुर्जा ङा</w>
रा गा</w>
गो जौ
हा र्
नि नो</w>
द या
बा जि
बि माया</w>
बे व
नु यो</w>
स्रा ं</w>
अनगाय ैबो</w>
आ ङो</w>
क क
ख ʼ</w>
ट ʼ
स खौ</w>
खा बु</w>
सा ंग्रा
ंग ्रा</w>
जों बो</w>
गोख्र ों</w>
माब्ला बा</w>
बड़ ʼ</w>
सा म
सि ना</w>
खु लु
लाय बाय</w>
रु माव</w>
फिन बाय</w>
बाद ला</w>
तु लाराम</w>
बाथ्र ाया</w>
क नि</w>
न िया
य ु
जा नाय
गो रा
न्द ाया</w>
हि सा
ज िया</w>
ट खौ</w>
फ ाय
गा इ
दा इ
बु जि
फो साव
गोसो आ</w>
खे ं
फं बाय</w>
उ न
ख े</w>
ज ै</w>
थ िये
द ोर
था खायनो</w>
बि गु
बि मानि</w>
हा ला
गा बो
न् नो</w>
बु ङा
फा हाम
हो नायनि</w>
न्द े
सलʼ नि</w>
सोम बोर</w>
मोन् नाय</w>
हें था</w>
व नि</w>
खा न्थि
नों सोर
राव नि</w>
राव खौ</w>
मोखा ङाव</w>
ग ं</w>
फा र्
फोर नो</w>
से नो</w>
बुं नायसै</w>
द नि</w>
फ ाव</w>
बि दा</w>
बे फोरखौ</w>
फा ला
मिथि गौ</w>
राजा नि</w>
अ खा
। ।</w>
ना गि
जा र
से र
लां नानै</w>
गिदि ं
गिरि फोरा</w>
शान्त िया</w>
इराग् दाव</w>
सोमाव सार
e n
ए स</w>
द ्रा
म ि</w>
श ्र
स मनि</w>
बा बो</w>
बि लाइ
न् ज
दा न</w>
मु वा
न्द ्र</w>
खां दों</w>
थो र</w>
साइ के
मद द</w>
उ दां</w>
च ि
ज ्रि
मा इ</w>
हो न्
ंग ्र
हर नो</w>
गिदि ं</w>
् ‌
। ]</w>
ला ं</w>
मा य</w>
हा ब</w>
न् ट</w>
बो सोर
.... .</w>
स्र ो
बिसोर खौ</w>
ओंखा र</w>
ण् ड</w>
बाहाय नाय</w>
ब्रह् म</w>
मिहि रा</w>
गुवा हाट
आ रो
स ʼ</w>
स ्रा</w>
ना र्जा
रा न
बि नो</w>
फा इ
थां बाय</w>
नों नो</w>
हि नजा
ग्र ाया</w>
बिफा नि</w>
गोजो न
अलʼ का</w>
झा र</w>
) ।</w>
क ʼ
था बाय
रै नो</w>
बिसोर ो</w>
आले खौ</w>
नाया नो</w>
आथि खालाव</w>
e r
ए र
रा खै</w>
सो ङो</w>
मोन से
खाला म</w>
खौ लʼ</w>
मे हेर
या नो</w>
फिसा इ
खोना नानै</w>
द्र ो
आ नजा
बा नि</w>
गा से</w>
सि नो</w>
बे ला
गु न्दा
दे ं
दे हा</w>
रो खा</w>
सिगा ं
मले न</w>
नानै नो</w>
जि ंगा</w>
सु थु
नो थʼ</w>
o n</w>
म ʼ
गा ब</w>
नाय जाब
मि थिया</w>
फिसा जो</w>
खोम सि</w>
सोमोन्द ो</w>
म ु</w>
त ा</w>
जा ब्ला</w>
हा दों</w>
बु थार
सो द्रो
मु वा</w>
गै य
स् टे
हाब फैयो</w>
ज नानै</w>
ज ्रा
मा जों</w>
उन्द ै</w>
बिथां नि</w>
रोखो मनि</w>
1 0</w>
ख ायो</w>
ड ि</w>
था गोन</w>
दि नि</w>
सु ला</w>
बाय मोन</w>
सलʼ मानि</w>
फ्र ु
आफाद गिरि</w>
जोहो लाव</w>
मी ना
अ मा</w>
ग म्
भ ी
र ु</w>
ला दों</w>
जा ग्रा</w>
खां नायनि</w>
दाव हा</w>
पा र्
पुलि स</w>
बिब्दि नो</w>
हेफा जाब</w>
खुलु म
ख ाया</w>
ह राव</w>
ना ङो</w>
ला मायाव</w>
गा ं</w>
गा जों</w>
दो र</w>
जु ना
थुन लाइ</w>
बेसे बां</w>
स्रि नि</w>
गोजो न</w>
गलʼ वा</w>
दम न</w>
हा न्
दि ल्ल
फै गौ</w>
रै खा</w>
कल्प ना</w>
a n
बि बार
मा र</w>
जो बो</w>
जु नै</w>
फ्ला ं
सान्द ो</w>
हादोर नि</w>
गाइ खे
o u
क र्
थ ी</w>
भ े
सा न्नानै</w>
सा न्थ्रि</w>
न् द</w>
स् क
सोम जि
बान जाय
ट ाव</w>
ब बाव</w>
ल िया
सा जा</w>
सि मबो</w>
गि रिनि</w>
मि जि
नां दों</w>
थाय खौ</w>
हौ वा
आ ंग
इ से</w>
ओ न
ह गार
हा व
बो नानै</w>
बो ला</w>
जाय ै</w>
नै सो</w>
ब्र ु
ष् ट</w>
अ राय
ख ्ला
ह ʼ
बा गै</w>
ला खौ</w>
गो थार</w>
दा ब</w>
फै या
फु ं</w>
थाय ै</w>
सों बाय</w>
आख ल</w>
आसा मनि</w>
ङ ोब्ला</w>
ब बे</w>
सा रि</w>
सा लि</w>
खां बाय</w>
बिफा ं</w>
आले नि</w>
कम्पिउ टा
उ जि
ख म</w>
थ ोर
ना बो</w>
बा द</w>
जा फुं
सा ना</w>
थि उ
दु ला
ब्ला सो</w>
जाय खौ</w>
बोर ै
फराय सा</w>
हाबा नि</w>
दान िया</w>
अ र</w>
आ यै</w>
आ बुं</w>
आ थोन</w>
था खो</w>
सि खौ</w>
दा खौ</w>
गु दि</w>
ले ं
दु म
मे थाइ</w>
जिउ खौ</w>
सुबुं नि</w>
ददेरे या</w>
जा म्
था ङा
बि जाब
जि त</w>
सान से
राय ज्लाय
हर खा
नां बाय</w>
गोसो म</w>
आ गान</w>
म ंग
स हे
था नायनि</w>
बि थि
खो था</w>
खु गा</w>
हर नि</w>
मान े</w>
िया रि</w>
साव गारि</w>
नाया वनो</w>
गोर ों</w>
गोरो न्थि</w>
बिलिफा ङा</w>
गम् भी
दुला राय</w>
c o
मो सा</w>
सि ङै</w>
दा न्दि
बो नो</w>
खो थाखौ</w>
ाया नो</w>
ओंखार लाङो</w>
आसा म</w>
! !</w>
आ ल
ए ं
ज े</w>
प ा</w>
य े
र मे
था ब
थां खि
वा बो</w>
मानसि खौ</w>
क् स
खोना सं
बिदि नो</w>
आरो बाव</w>
अ राय</w>
ना र्
बि हाम
थे ले
0 0</w>
ज ै
म ध
बा नाय
हा ग्रा</w>
नाय निफ्राय</w>
नाय बादि</w>
हो गोन</w>
जि ब
ंग ्रि</w>
.... ..</w>
दै या</w>
नाया बो</w>
गोजा नाव</w>
कल्प नाया</w>
d o
आ थिं</w>
ख ल
स ं</w>
रा वा</w>
गो दो</w>
गो थौ</w>
नाय बाय</w>
से याव</w>
जि रा
नां नाय</w>
ङा वनो</w>
जोब नो</w>
नानै सो</w>
भार त
खामानि खौ</w>
हिसा बै</w>
ओन सो
क म
ख हा</w>
ग ु</w>
ज ु</w>
फो ले
वा खै</w>
हर नाय</w>
स् कु
हां मा</w>
बायदि सिना</w>
उना वनो</w>
बेद र</w>
थाखो नि</w>
दया राम</w>
) ,</w>
ए ल</w>
ग य</w>
र न्ज
सि याव</w>
दा हो
सो लाय
जे न</w>
जे राव</w>
रो दा</w>
मुं खʼ
बाज ै</w>
बाइ दि</w>
e r</w>
ग ला
थ र
न बा</w>
न ियाव</w>
र ʼ</w>
था रा</w>
मोन खौ</w>
जो म
रु वा</w>
मानसि फोरा</w>
मोदो म</w>
बड ʼ
मुलुग नि</w>
अ नि
इ यु
ए फा</w>
व े
ह ु</w>
ै सो</w>
् बाय</w>
जा खौ</w>
नाय ो</w>
दा नाय</w>
दि न्थ
न्द ो
नु बाय</w>
समा जनि</w>
राव ाव</w>
स्ल ाय
फोरा बो</w>
ना नो</w>
जे से
जे रै
से राव</w>
मु गै
नों हा</w>
खु र
गे व
सं सा
ग्रा नि</w>
खोम दोन</w>
बबे खानि</w>
बेव हाय</w>
r e
ध ो
ी याव</w>
बा फोर</w>
रा नि</w>
जा ं
बि जाब</w>
गो र</w>
न् दि</w>
फै गोन</w>
खाय से</w>
टि ं</w>
हाबा खौ</w>
आलाइ स्रिया</w>
फिसाज ्ला</w>
अ खा</w>
ध ु
खा नानै</w>
बि ब
मा ब्ला</w>
फा ग्ल
बो सोरनि</w>
मे ले
जाय नि</w>
ब्र े
हाबा फा
सʼ ना</w>
मुलु गाव</w>
माहाजो ना</w>
अनगाय ै</w>
मालाय नि</w>
गेदे र</w>
कक रा
आंग ो</w>
द खौ</w>
रा ंनि</w>
जा थाय</w>
दा सो</w>
बो लो</w>
्ला नि</w>
थां खि</w>
दे नानै</w>
बार ी</w>
गोजा म</w>
ति ता
थाम हि
गुवाहाट ी</w>
ं क
इ न</w>
उ द
क मा
थ र</w>
गा बो</w>
सि बि
म् बर
थाइ नि</w>
रै खाथि</w>
एसे बो</w>
गोरो ब
बेल स्रि</w>
गाबो न</w>
मेहेर सिं</w>
ख ्
ङ ैनो</w>
बा बु</w>
खा ल</w>
गो लै
हा इ
हा रिया</w>
गा ग्लो
दा हा</w>
सो ना
दि न
ंग ु
गाव जों</w>
सोर खा
स् नि</w>
थार बाय</w>
थे र</w>
बै सा
ष् ट
रं जा</w>
होम ब्ला</w>
गम्भी र</w>
थामहि नबा</w>
o r
अ फिसा
अ पा
इ न्दि
ख ्रा</w>
मा दाव</w>
बे ल</w>
हो नांगौ</w>
सो लि
थां गोन</w>
खु रै</w>
गै लिया</w>
रो ङा</w>
बार ु</w>
आइ जो
मोदो माव</w>
गाम ियाव</w>
200 8</w>
सिखार नानै</w>
रन्ज न</w>
अ सम
ए रै</w>
बि न
जे ं</w>
मु ङा</w>
लि खौ</w>
नों लाय</w>
दै खौ</w>
जोब बाय</w>
अज य
सोमोन्द ै</w>
निख्रु इ</w>
तिता गु
अपा रे
o f</w>
क ्ल
ला फा
बि थां</w>
बि थाङा</w>
गा हायाव</w>
मोन नानै</w>
दि न</w>
जे रावबो</w>
मु ंनि</w>
दै याव</w>
ख्र े
गोसो जों</w>
माइ थायाव</w>
आला सि</w>
प्रे मध
इ ं</w>
ड ा</w>
जा हा
खा न्थ
सा न्थ
दा सिमबो</w>
मोन फा</w>
बो बाय</w>
से या
गि बि
स्र े
बाद ियै</w>
दिन्थि नो</w>
लुबै यो</w>
लाखि नो</w>
अ फि
आ बो</w>
उ दै</w>
ग ्ला</w>
खा दों</w>
बि ला
बि जा
सा नि</w>
सा फा</w>
बे रे
सो म</w>
बाय नो</w>
राय लाय
जों खौ</w>
रो जा</w>
मानसि फ्रा</w>
बोर ाया</w>
मिथि बाय</w>
आफा द</w>
दिन्थि ग्रा</w>
मिनि स्ल
सानै जों</w>
स्रि खौ</w>
ब्रह् मनि</w>
थ्र ो
ग ʼ</w>
फ ʼ
फ ायो</w>
श ा</w>
ै या</w>
गा बा</w>
नाय गिर
दा उ</w>
फोर म
बो राय</w>
से र</w>
लाइ न</w>
दै नि</w>
बिफा ननि</w>
मेग नाव</w>
बिख ाया</w>
जें ना</w>
नख रनि</w>
गोब्रा ब</w>
l i
आ गै</w>
ए खन
ज ्र
न रे
जा है
बि फाया</w>
सि रि
िय ाया</w>
आं जों</w>
ले ं</w>
दे बानि</w>
जों थिनि</w>
खोना नो</w>
थुन फावथाइ
पु र</w>
बडʼ ले
अ देबानि</w>
ख िया</w>
ग न्थ
रा मनि</w>
सा इ</w>
दा वा</w>
दा ननि</w>
फोर मान</w>
गु मै</w>
खालाम नायनि</w>
जु दि</w>
खां नो</w>
खै सै</w>
नʼ ख
हाद र</w>
आलाइ या</w>
नोंथां नि</w>
सासे या</w>
अजित ा</w>
क खौ</w>
ज ्
ज ʼ</w>
ल ं
स ्ला</w>
ला बो</w>
जा थाव</w>
गा म्
सि ंनि</w>
थि नो</w>
जे के
गु दुं</w>
फि साया</w>
नै नि</w>
मले ननि</w>
लाइजा मखौ</w>
ti on</w>
समाय ना</w>
th e</w>
रामना था</w>
श् व
सांग्रा ं</w>
इ उ
ना गा
जा न
बि गिया
सो लाय</w>
गु सु
सान दों</w>
खालाम गोन</w>
जाय ोब्ला</w>
थाइ ला
जोब नानै</w>
देर सिन</w>
हाबा ब</w>
बिबा न</w>
ट्रा इ
धोरो म</w>
ख ं</w>
ग य
च ि</w>
ब थ
ि नि</w>
ना व
ना जों</w>
जा नि</w>
जा नायाव</w>
खा थिनि</w>
गो जा</w>
हा जार</w>
नाय ै</w>
री खौ</w>
खाय ै</w>
माहा रिनि</w>
अल का
मन्जु वा</w>
दान्दि से</w>
1 2</w>
च ा
ज ी
फ सं
ला ख</w>
खा ना</w>
सा ख्रि</w>
हो दोंमोन</w>
बो थʼ</w>
गि लि
फु र</w>
फु नाय</w>
बोर ाय
लों नाय</w>
लाबो नानै</w>
खाफा ल</w>
बसुमता री</w>
दोर ्
क े</w>
क मि
ख ना</w>
ग नाय
भ ा</w>
बा थु
बि हा
मा ल</w>
गो र्
सा ला</w>
सि म
बे सा
फा नि</w>
फा नाय</w>
सु फुं
नां नानै</w>
स् ता
फिन नो</w>
मुं मा</w>
आब ʼ</w>
द्रा य</w>
a r
श ि
स म्
ह नै</w>
बा राय
गो थां</w>
हा जे
हा न्जा
सि थ
जो ला</w>
से लʼ</w>
फि सौ</w>
थां नोसै</w>
जों हा</w>
रो ङै</w>
फु ंनि</w>
रे ब
दै जों</w>
गाज ्रि
आना राम</w>
हारि खौ</w>
माहाजो ननि</w>
जां ख्रि
r o
ग ाया</w>
य ो
य ोब्ला</w>
ना इ</w>
रा जाया</w>
जा लाय
बि लाय</w>
सो रां</w>
रि फोरा</w>
खालाम ना</w>
बाय नानै</w>
मोजा ं
हम ो</w>
ष् टे
हाद रनि</w>
ब्रा म</w>
सालि नि</w>
दुखु नि</w>
हें थायै</w>
सिमा ं</w>
थुनलाइ नि</w>
र नो</w>
ै याव</w>
मा हा</w>
सि ला
बु हु
नो ब्ला</w>
सान नाय</w>
समा न</w>
गार नो</w>
दाव गा
सै मा</w>
मले नखौ</w>
दिन्थि नाय</w>
गोजा ं
रां खौ</w>
साब सिन</w>
जेरै बो</w>
* *
ना ङै</w>
सा ना
फा ग्ला</w>
फोर निफ्राय</w>
थि क</w>
बो सो
गि नानै</w>
गाव बा</w>
सोर खार
ाया वनो</w>
है नानै</w>
माव नाय</w>
थार दों</w>
ग्रा ब</w>
नागिर दों</w>
खेब से</w>
सिनाय थि</w>
गुवा र</w>
फाला ंग
च े
ज खम</w>
थ ियो</w>
फ ्ला</w>
ब द
ल ोर
ै खौ</w>
था दों</w>
बि बो</w>
बि जौ</w>
बि खानि</w>
सि गौ</w>
फि थाइ</w>
सान नो</w>
रु जु
म् फा</w>
ख्र ाया</w>
गाब ज्रि
खाय फा</w>
नङा मोन</w>
लाबो नो</w>
स्ल ि
नं खाय</w>
इं राज
l o
आ न्दा
ग र</w>
न ला
प ी
हा बाय</w>
गा रो</w>
गा निफ्राय</w>
बु रै
गिदि द</w>
मन्जु नि</w>
अरु ना</w>
a l</w>
क ्ला
ख म
ग ले</w>
ट र</w>
रा बो</w>
जा लां
था खाय
गा बै</w>
न् स</w>
जि ना
गु रै</w>
रि फोरनि</w>
थां दो</w>
नो गोर
नों बो</w>
खु गायाव</w>
सोर खौ</w>
जों सो</w>
िया नो</w>
ने हा
क् ष
मानो बा</w>
आखाइ याव</w>
फोरा नो</w>
जाथाइ नि</w>
कम्पिउ टार</w>
खैफो द</w>
खामान ियाव</w>
मिनिस्ल ु</w>
1 1</w>
3 0</w>
ओ जों</w>
थ ्रि
द ायाव</w>
फ े</w>
रा ग</w>
जा गाय
बि माखौ</w>
गो मा</w>
ों मोन</w>
थां दों</w>
थां ना</w>
जाय ो
अन नाय</w>
टे बि
खन साया</w>
19 8
नायजाब नि</w>
s t
w in
अ ब्लाबो</w>
इ उ</w>
च ी
ब ह
ब ायो</w>
ब र्
श ंक
स ना</w>
था दोंमोन</w>
खा बाय</w>
हा जो
फा ंनि</w>
सु शान्त
मि रु</w>
न्द ो</w>
सान जा</w>
र् ट</w>
स् ट</w>
दै मा
आखु नि</w>
सोदोब नि</w>
जारिमि नारि</w>
लाइजा म</w>
दाजाब दा</w>
गसं नानै</w>
थिये टा
मीना राम</w>
थिउ रिया
सानसे खालि</w>
दोर् सोन</w>
e s</w>
आ बै</w>
ए फा
ख ब
न नो</w>
र ियाव</w>
ल जों</w>
ला सै
बि थिं
मो न्नानै</w>
्र ाया</w>
दा बि</w>
बे न</w>
मोन दोंमोन</w>
बुं दोंमोन</w>
फ्रा व</w>
र् च</w>
मे ब्ला</w>
लो ब्
वा नो</w>
वा र्
लां गो
हे मले
जोब ्बाय</w>
गेजे रावनो</w>
फार से
थाव नि</w>
बेखेव फा</w>
दिनै नि</w>
जेसे बां</w>
बिन हा
आ दा
आ दै</w>
क ्र
ट ्रि
थ ब
द ्‌
म निफ्राय</w>
व ाया</w>
ी खौ</w>
जा त
जा नायखौ</w>
था नायाव</w>
हा जो</w>
न् ट
सि बाय</w>
मोन नायनि</w>
जो म</w>
नो गो
नो बा</w>
दे वा
सोर नि
सोर गिदिं</w>
दों मोनब्लाबो</w>
गोसो खां
राव जों</w>
गार िया</w>
सलʼ मा
ग्ल ाय
दोन नाय</w>
मानो थो</w>
माइ थायनि</w>
फिसाजो खौ</w>
फार् से</w>
खल था</w>
ह जों</w>
मा ब्रै</w>
गा य</w>
गा खौ</w>
नाय जाब</w>
फै दोंमोन</w>
फै दो</w>
खु दिया
वा रि</w>
या रि</w>
समा ज</w>
जोब था</w>
टि नि</w>
सम बारु</w>
डा क्
आय दा</w>
कले ज</w>
नागि रो</w>
थेले फा</w>
आ सि</w>
त ी</w>
ब नि</w>
बा जा
गो दै</w>
मो ग
नाय हरो</w>
बे खायनो</w>
बु ङा</w>
बु ब्ल
फा लि
फै फिन
न्द ु</w>
रो ङा
खि नि</w>
है नाय</w>
ङा नो</w>
राव आव</w>
थाइ खौ</w>
बार गʼ
मुं खौ</w>
थों सै</w>
थुलु ं
हाजʼवा री</w>
श्र ी</w>
दें खो
दिन्थ ियो</w>
आ नो</w>
आ फाया</w>
ए म्
ध ा
न ी
फ ि</w>
ह रा
ना गा</w>
बा न्था</w>
रा ज</w>
जा खां
मो ब्लि
सा रनि</w>
सि स्टे
बु ङै</w>
फो नां
फै या</w>
नो सो</w>
बाय जो
दों ब्लाबो</w>
हु रा</w>
के ल</w>
मेग ननि</w>
बेसे न</w>
गथʼ वा</w>
सोलों थाइ</w>
जोहो लाव
अब ं
खामान िया</w>
थेफे ना</w>
गोजौ वाव</w>
इन्दि स्री</w>
तितागु रि</w>
win do
हारि मु</w>
t h</w>
म खʼ
बा लानो</w>
बि दाय</w>
हा बि
न् दों</w>
सो ब
मोन थाम</w>
नि माहा</w>
रि ं</w>
रि जों</w>
मि न
बुं गोन</w>
लि ं</w>
दे हाखौ</w>
गाव बु
मे ं
लाय ै</w>
रो खोम
िया बो</w>
जाय खि</w>
बाव बाय</w>
जोब नाय</w>
फिसा इ</w>
फिसा नि</w>
बै नो</w>
लिर नानै</w>
हाबा फारि</w>
बरʼ फोरा</w>
बिसि खौ</w>
बबे बा</w>
फावथि ना</w>
गोर् बो
1 5</w>
ए रैनो</w>
द ब</w>
न नानै</w>
जा नाया</w>
बि हो
बि खु
मा से</w>
नाय जा
नाय हर
नाय खौनो</w>
फा नो</w>
नि थिं</w>
फोर खौबो</w>
सु खु
फ्रा बो</w>
फ्रा मबो</w>
लाय दों</w>
लां दोंमोन</w>
स् व
स् टा
थार गोन</w>
फिसा खौ</w>
लों नो</w>
खʼ नानै</w>
आफा दा</w>
मह नला
मोना बि
मोना खै</w>
गथʼ खौ</w>
नांगौ ब्ला</w>
बोहै थि</w>
बोरै बा</w>
सहे न</w>
जिना हारि</w>
' ,</w>
a c
ख न</w>
त िया</w>
न खर</w>
फ ु</w>
ाय ै</w>
ला ना</w>
रा गाजों</w>
बि ज
बि बुं
मोन थि
गु बै
मु स्रि</w>
.... ...</w>
जु जि
है दों</w>
फिसा र्च</w>
दाव राव</w>
आइ जो</w>
डा इ
माहाजो न</w>
ब्रह् म
सर का
अना थी</w>
तु ला
गोम जोर
बैसो नि</w>
आनजा द</w>
सोद्रो मा
2 5</w>
e s
आ न
आ र्
ब ाया</w>
र निफ्राय</w>
रा फो
जा थाइ</w>
था ल</w>
हा व</w>
नाय खाय</w>
नाय बिजिर
गु न्दा</w>
बुं हरबाय</w>
मु ला
दे र</w>
गाव खौनो</w>
खौ लाय</w>
लु ं</w>
रो ङ
नै थि</w>
फाव थायाव</w>
ग्र ि
फराय सा
बां सि
सेंग ्राया</w>
होम बा</w>
रिं सार
खन् थाइ
मंग ल
2 0</w>
d i
अ ब्राम</w>
ख ं
च न्द्र</w>
ज ं
न ी</w>
जा इ
था ङोब्ला</w>
हा नो</w>
हा स्
नि उ</w>
गु न्दाया</w>
नो म
सान राइ</w>
रु म</w>
नै जों</w>
हाब ाया</w>
ग्र े
दं फां</w>
नʼ नि</w>
मोन् नो</w>
........ .</w>
दां खा</w>
कले जाव</w>
प्ल े
बिगु र</w>
होन् ना</w>
मिजि ं</w>
बिहाम जो</w>
ककरा झार</w>
सान्थ ्रि
लोब् बा</w>
आ लाइ</w>
इ स</w>
ए व
ए रै
ड ़
फ जʼ
ला माजों</w>
रा नो</w>
रा ङा</w>
मा बाफोर</w>
मो नै</w>
हा ल
गा रिखौ</w>
नाय साय</w>
बे बादिनो</w>
रि फोरखौ</w>
फै फि
खाला मा</w>
खौ थʼ</w>
मै गं</w>
टि क</w>
आलाइ स्रिनि</w>
कु मार</w>
गोग्लै यो</w>
राज खान्थि</w>
खाफा लाव</w>
आद ाया</w>
खोमा नानै</w>
गैया मोन</w>
अजित नि</w>
बाहागो आव</w>
सिखा व</w>
जिल ्ला</w>
जिल ्लानि</w>
हरखा ब</w>
श्व र</w>
सोरनि बा</w>
उ इ
ज थु
थ गाय
ला दोंमोन</w>
जा थाया</w>
था राव</w>
बि था</w>
सा र्
सि ब
सि ख्ल
सो लो
दि न्थि</w>
न्द ै</w>
अन लाइन</w>
फार ियै</w>
फे लें</w>
प्र ग्रा
राइजो खौ</w>
राइजो आव</w>
थाव ना</w>
दिनै निफ्राय</w>
बान ु</w>
सान् दों</w>
गोदो नि</w>
बाया नो</w>
खौरां खौ</w>
r i
आ लो</w>
इ नाय</w>
ए फ</w>
थ ं</w>
फ र
ब ी
भ ि</w>
म नʼ
ना ङा
बा बु
जा थायखौ</w>
था नि</w>
बि नि
बि जों</w>
बि या
मा रि</w>
मा रु
नाय हरनानै</w>
बे यावनो</w>
बे फ्रु
्रा इ
मोन लाय
नि खौ</w>
बो थोर
थु र</w>
बाव दिया</w>
सिगा रे
फिन नाय</w>
बिफा खौ</w>
ब्ल े
दर बा
निफ्र ाय
सर लाया</w>
गोनां थि</w>
हार् सिङै</w>
हाला गै</w>
हिनजा व</w>
गन्थ ं</w>
आ वा
ज यो</w>
द ्ला
प ्रि
फ ्
र ं</w>
स न्दे
ना लाय</w>
ला गोन</w>
ला ङा
जा नांगोन</w>
बि थोन</w>
बे फोरनि</w>
बो थोर</w>
बुं थि
खु सि</w>
माव ो</w>
माव नानै</w>
सलʼ वाव</w>
नं लिया</w>
थाम सो</w>
जिराय नानै</w>
गिया न</w>
खन् थाइ</w>
थुलु ंगा</w>
साइके ल</w>
गाइखे र</w>
बिथि ङाव</w>
भारत नि</w>
फाग्ल ि</w>
e l
ज ियो</w>
न ु</w>
म टर</w>
ल ्ला</w>
ना जानाय</w>
बा ना</w>
ला मा
ला नायनि</w>
मा र्
गो म</w>
गो थै
गा मि
बे फोर
बे फारिया</w>
नि ं</w>
नि सो</w>
जो बा
सु खे</w>
फो साब
खो ख्ल
खाला मा
दु गै
वा वनो</w>
रे ल</w>
दाव बाय
अन जि
पा ब्लि
सं सार</w>
बोर ो</w>
थै बाय</w>
दोन नानै</w>
मुं दांखा</w>
खन से</w>
गोर ्ल
सुबुं फोरा</w>
मुलु ग</w>
गोग्लै नानै</w>
हार सिं</w>
फ्ल े
ग्ला य</w>
सोरखा रा</w>
असम ीया</w>
हाजे वनि</w>
s i
आ रि</w>
ओ रै
ग ्रि</w>
ज ्ला
य ैनो</w>
बा थाय</w>
बा ला</w>
ला जि</w>
सा खाथियाव</w>
बे बो</w>
जि वाव</w>
ंग ायाव</w>
गि ला
गि लु</w>
मि न्थि
आं लाय</w>
ाया रि</w>
राव खौबो</w>
बाव दिया
सलʼ मायाव</w>
मोन् दों</w>
बरʼ फोरनि</w>
रं जानाय</w>
रां जों</w>
आलाइ स्रि</w>
ग् दाव
दुर्जा ं</w>
फिसाजो नि</w>
दें खो</w>
- "</w>
m a
उ दु
ए म
द ियाव</w>
ह ले</w>
ना थ</w>
जा बो
था रै</w>
बि ष</w>
बि खा
गा हाय
नाय लाय</w>
सि नाय</w>
थि जों</w>
जो है</w>
बो लो
बो राइ
गु न</w>
आं थʼ</w>
थां ब्ला</w>
दों से</w>
थु न</w>
साय खʼ
द्र ाय
दाय नि
आला दा</w>
सिं निफ्राय</w>
माब्ला बानो</w>
गोहो म</w>
जाव लिया</w>
खरʼ वाव</w>
रोखो म</w>
गैय ि</w>
अजय नि</w>
ज खौ</w>
द हाय</w>
म न्थ
ल ं</w>
। ''</w>
ना वनो</w>
ाय नानै</w>
बा हायनो</w>
ला हार</w>
जा थाय
बि ग्र
हा न
हा थाइ</w>
हा खु</w>
बे राय
जि ं
जि नि
जि बा</w>
सु नानै</w>
सु मि
सु लि</w>
मु लि</w>
आं खाल</w>
लां गोन</w>
बार ियाव</w>
थै नायनि</w>
खन ले</w>
बरʼ वा</w>
बिना रामा</w>
दिनै सिम</w>
नांगौ नि</w>
आव गाय
मोखा ङा</w>
ंगि रि</w>
ण्ड नि</w>
... ।</w>
खान्थि नि</w>
दाहो ना</w>
e c
h a
आ रि
उ ननि</w>
उ ल्
ड ्र
द ्
द र्
ब राय
र मा</w>
जा लांबाय</w>
था है
बि दै</w>
गो बाव
गो थै</w>
सा रा</w>
सा जाय
हा उ
हा लाय</w>
नाय बो</w>
दा इ</w>
दा हा
दा सिम</w>
बे बायदि</w>
फै माल</w>
नों जों</w>
जों थिखौ</w>
जु लि</w>
रु पा</w>
लाइ फां</w>
स् ट
ओं खायनो</w>
गोसो याव</w>
थे नानै</w>
हाब लाङो</w>
सलʼ वा</w>
फार ियाव</w>
ने म</w>
मिथि ं
गोदा नै</w>
माहा रि</w>
आखु वा</w>
प् र</w>
हिन्जाव नि</w>
इराग् दावा</w>
मोखां खौ</w>
अम ला</w>
an d</w>
अराय बो</w>
आ ले</w>
न ौ
य ै
ल रे
ह य
ना गार
बा सो</w>
रा सिन</w>
जा थायनि</w>
बि निफ्राय</w>
मा ना</w>
दा रि</w>
बे खौबो</w>
फा हार</w>
सो लो</w>
मोन बा</w>
से या</w>
से वा
ंग ्रि
गु फुर</w>
सान दोंमोन</w>
नों सोरनि</w>
मे लाव</w>
ब्ला लाय</w>
गे ब्ला</w>
समा जाव</w>
नै खौ</w>
होन नाय</w>
हाब ायाव</w>
गोजा न</w>
ख्ल ो
आय ं</w>
गिरि फोरनि</w>
बोहै थिया</w>
00 0</w>
भार त</w>
एं गार
संसा राव</w>
गाग्लो ब
लासै नो</w>
a s
o n
ं जों</w>
अ क्
अ क्ट
ए क
ओ रैनो</w>
क ाव</w>
घ न्
स न्
बा जु
रा हा
था नायखौ</w>
था बैनो</w>
खा रि</w>
फा फ्ल
हो ब
से खौ</w>
गि नाय</w>
सान बो
खु गानिफ्राय</w>
बाय नाय</w>
दों मोन
.... .
खि न्था</w>
िया वनो</w>
ओं थिया</w>
बाव गोन</w>
हम दों</w>
थार ैनो</w>
पा स</w>
पा कि
सै थो</w>
राइजो फोर</w>
लाबो यो</w>
आना रीया</w>
मोना खिसै</w>
गोर लै</w>
अज य</w>
बेर खांदों</w>
पुलि स
गैया ब्ला</w>
सिया ला</w>
नुजा थि
फोथाय नाय</w>
टार ने
थिये टार</w>
जै बोर</w>
सोना ब</w>
अपारे टिं</w>
प्रेमध रा</w>
फोरम ायो</w>
बिहो मा</w>
' ।</w>
e d</w>
i s</w>
आ म
उ र
औ वा</w>
थ ायनो</w>
न ं</w>
फ ाया
ब मा</w>
श न</w>
स र्
ी म
बा जि</w>
ला माखौ</w>
जा ना</w>
था ब्ला</w>
था ग्रा</w>
था सारि</w>
खा लि
खा लनि</w>
बि सार</w>
मा ष्
हो खार
सो नि</w>
मोन जा
से ब
से क्स
ंग ्ल
बाय दों</w>
गाव सोरनि</w>
ने र
ग्र ायाव</w>
दं बावो</w>
नांगौ मोन</w>
मार जित</w>
गोख्र ै</w>
आखाइ नि</w>
मिहि र</w>
उना वसो</w>
सुजु ग्राया</w>
रुवा थि</w>
अख्रा ं</w>
सुथु र</w>
हान् जा</w>
सुशान्त वा</w>
मोब्लि ब</w>
राफो द</w>
पाकि स्ता
ʼ नि</w>
ए बसु
क लिं</w>
ग लʼ</w>
म ो</w>
व ै</w>
ला म</w>
था रा
खा थि
मा उ
मा रि
गो थौ
मो गि</w>
हो आ
हो नायाव</w>
हो ग्रा</w>
गु रु
मु नि</w>
नो नो</w>
सान फ्रोमबो</w>
दु म</w>
खि र
जाय गानि</w>
ओं थि</w>
हे ला
होन ब्ला</w>
के ट</w>
फे र
लों नानै</w>
खोना सं</w>
उन्द ै
नागिर नानै</w>
हार सिङै</w>
मार नो</w>
आखाइ जों</w>
जें नाखौ</w>
बसुमता रीनि</w>
हांखो नि</w>
बुर ाया</w>
जाहा थे</w>
स्रे ं</w>
ट्राइ बेल</w>
windo w</w>
सिख्ल ाया</w>
? '</w>
a t
अ ʼ</w>
आ बाद</w>
ओ इ</w>
क न
ग थाय
घ ा
म नानै</w>
म थे</w>
र े</w>
स रा
ौ वा</w>
ना रे
बा उ
जा ं</w>
जा र्
था बनो</w>
खा व</w>
बि जि</w>
मा बादि</w>
सा ल
सा द</w>
सा हा
सा बाय
सा न्नाय</w>
गा रा
गा रिनि</w>
फा थै</w>
दि ं
से थि</w>
सु खु</w>
फै ब्ला</w>
मु ङै</w>
वा र</w>
वा नि</w>
हर बिला
या खै</w>
थु म</w>
खि न्थ
बार खालि</w>
मानसि फोरखौ</w>
फराय नाय</w>
बां गा
मै हु
दोन थʼ
खोना बाय</w>
रं फा
पुलि सनि</w>
दौ नांगौ</w>
हिनजा व
हाव रिया</w>
co m
बडʼले ण्ड</w>
हान्जा नि</w>
सिला गां</w>
बिनि खायनो</w>
2 4</w>
5 0</w>
g u
आ माइ</w>
उ थ्रि
क ि</w>
ग या
ड ʼ</w>
ब र</w>
स ङो</w>
स हायनो</w>
ह रा</w>
ि ं</w>
ि खौ</w>
ना जादों</w>
ला दे
खा थिया
खा नाइ</w>
मो ब्ला
मो न्दा</w>
दा नानै</w>
बु जाय
हो सो
हो ब्ला</w>
हो दो</w>
सु मै</w>
फि न्नो</w>
रि ंगायाव</w>
गि ख्र
मु गानि</w>
न्द ायाव</w>
खु दुम
बाय लै</w>
गाव बुराया</w>
खौ बा</w>
है गोन</w>
ङा बो</w>
दै मा</w>
टा इ
मानसि फोरनि</w>
ग्ल ु
आफा नि</w>
माइ रं</w>
गोर लै
गथʼ फोर</w>
फं बाय
उन्दु नो</w>
इं ख्रि</w>
दम ना</w>
गोजोन नाय</w>
फैया खै</w>
कमा ण्ड
गिख्र ं
उ खै
ङ ो
म ी</w>
म नि
र ौ</w>
ल निफ्राय</w>
ल ख्राया</w>
स य
बा ला
रा ण
मा ल
सा ग्लो
हा लो
हा ग्रा
गा नै</w>
दा खु</w>
बे ग
हो ख्रा
मोन फ्रोमबो</w>
नि उ
मि ल
दे हानि</w>
.... ....</w>
गै ला</w>
जु रि
रु नि</w>
थार नाय</w>
गेजे र
ओंखार नाय</w>
मह रा</w>
लाबो दों</w>
........ ........
बय निबो</w>
गथʼ नि</w>
मोदो म
फं से</w>
आथि ङाव</w>
दाय खौ</w>
सोमोन्द ो
अना थ
गोम जोर</w>
सिख्ला नि</w>
नख राव</w>
बिजाब खौ</w>
गाम् बारि</w>
इंराज ी</w>
हास् थाय
1 6</w>
e m
i n</w>
ं खा</w>
आ लु
आ ग्रा
ख नै</w>
त खौ</w>
द ल
फ रे
फ रमे
ब ृ
म दा
व ो</w>
ना लि
रा जि</w>
था रो</w>
खा इ
खा न
खा बु
मा सियाव</w>
सि जों</w>
दा बि
हो म्
ंग ्रे
बुं जायो</w>
खो मो
सान राय</w>
रु ं
लाइ फांनि</w>
नै बो</w>
माव ग्रा</w>
माव फुं
थार नो</w>
ज्ल ि
दां नो</w>
गोरो न्थि
जोनो म
आद ब</w>
बिलिफा ंनि</w>
जारिमि न</w>
खरʼ खौ</w>
आग ु</w>
कʼ क
दिल्ल ी</w>
एखन बा</w>
गुबै यै</w>
सिगारे ट</w>
दर् बा
s t</w>
अ से</w>
अ न्द
अ न्नाय</w>
इ न्दु
ओ हो</w>
थ बेन</w>
द ु</w>
फ टʼ
र जि</w>
र जिया</w>
बा रिनि</w>
ला ख
ला उ</w>
रा रि</w>
मा रा</w>
सा न्त
हा नायनि</w>
सि फाय
दा हार</w>
बे फा
बु थुम
फा लो</w>
्रा झार</w>
थि र</w>
बो दोंमोन</w>
से न्दे
सु बुङा</w>
खो नानै</w>
लि र</w>
सान फ्रामबो</w>
मे ने
नु दों</w>
लां नायनि</w>
खि न्
ङा इ
राव निबो</w>
बाव दों</w>
ब्र ै
गुबु न
का र</w>
का र्
पा र
ने र्
सै थो
फराय नो</w>
गाब नानै</w>
मै नो</w>
सार खौ</w>
सम ाया</w>
बिबा नखौ</w>
मिनि नानै</w>
जाया खिसै</w>
दर जाखौ</w>
कल्प नानि</w>
नाजा दोंमोन</w>
गान नाय</w>
सिनाय नो</w>
सेप्ते म्बर
अखा फोर</w>
ंग्र ो
नार्जा री</w>
ज्रा म</w>
ou r</w>
धो न</w>
खान्थ ियारि</w>
a l
i l
n o
v e</w>
आ या</w>
क ै
ग ग
ज ्रि</w>
द ्रि</w>
द खना</w>
प नि</w>
फ ौ</w>
ब ना</w>
ह टे
ाय नाय</w>
बा बा</w>
रा खौ</w>
जा उनाव</w>
खा नाइ
गो रि
दा का
फा नानै</w>
फा दोर</w>
थि सन
जि ं</w>
्ला खौ</w>
बुं बावो</w>
दु प
मे मʼ
हर दोंमोन</w>
या सै</w>
थु ंग्रि</w>
रे न्जा
दै खां
माव रि
राव ै</w>
बै सो</w>
हाब नाय</w>
अन जा
खʼ थायाव</w>
फिन नानै</w>
ओंखार बाय</w>
दोन थुम
मह राव</w>
मेग ना</w>
नङा ना</w>
खाव नानै</w>
खाव से</w>
न्त ्र
आसा रि</w>
डा र</w>
लुबै नाय</w>
सोदोब खौ</w>
आर तिया</w>
रंजा लि</w>
फान लु</w>
भु ट
गोदो नायाव</w>
जाम् बा</w>
थाइला लि</w>
अबं लाउ
साबाय खर</w>
खाथिया वनो</w>
इन्दु प्र
1 8</w>
t o</w>
ं नानै</w>
अ फ</w>
क न्
ख थायाव</w>
ग मा
ज य
ब ं
भ क
स मा</w>
ला बानो</w>
था रि</w>
गो लोम
मो गा</w>
सा जों</w>
हा गौ
सि लानि</w>
सि न्दु
नि सिम</w>
जि ब</w>
जि वा</w>
सु इ
गु मु
मि लि
सान जौ
सान स्रि</w>
खालाम नायाव</w>
खु रै
मे रि
लां नायसै</w>
-- -</w>
गार बाय</w>
दाव हायाव</w>
हाय ोब्ला</w>
बोर मा</w>
सै या</w>
थो न
बिसोर नो</w>
गाब नाय</w>
बिफा ंनि</w>
बेसे बां
गोजा ं</w>
जोबो त</w>
आसा माव</w>
ख्रा नि</w>
महर खौ</w>
आथि खालनि</w>
आर ति</w>
नंग ौ
थिया रि</w>
बाथ्र ायाव</w>
अजित खौ</w>
धोरो मनि</w>
हान् जाया</w>
कम्पिउटा रनि</w>
थांखि नानै</w>
बिहाम जो
सिस्टे म</w>
खोख्ल ै
गाहाय नि</w>
सेक्स पी
कै ला
च ्
ब न्द</w>
र ौ
बा ग्दाव
ला म
ला हा
ला मानि</w>
था बनानै</w>
था गिबि</w>
हा ल</w>
न् त</w>
नाय फोरखौ</w>
दा र
दा फो
बे बा</w>
बे दि</w>
हो नायसै</w>
सो लायनाय</w>
नि खुरै</w>
से रनि</w>
गु सु</w>
खो न</w>
खो र</w>
नो सै
खु न्दु
दे म</w>
दु ब
मे ल</w>
या व
मान नि</w>
जु र</w>
माव थि</w>
हे लाराम</w>
ब्र ि
अन सुं
सलʼ खौ</w>
फार िया
क् स</w>
ग्रा फोरनि</w>
दोन बाय</w>
प्र से
सोम बोर
मुं राय</w>
मिनि नाय</w>
........ ..</w>
ख्ल ं</w>
मोना म
फावथाइ खौ</w>
आखाइ खौ</w>
आला सि
सान् दि</w>
मोखा ङै</w>
साया वनो</w>
साया राम</w>
गोनां दि</w>
19 6
क्ट र</w>
रामना थ</w>
बेरे खा</w>
फारसे थिं</w>
सरा सन
l a
आ गो
ख ्ला</w>
ग स्ला</w>
छ ा
ड ज</w>
द देर
ब न</w>
र माय
ना जायो</w>
बा ट
बा नानै</w>
बा ख्
रा मोन्दा</w>
जा थों</w>
जा सिगोन</w>
था वा</w>
था लायाव</w>
मा सि</w>
गो सा</w>
गो थाव</w>
मो सौ
गा ँ
सि खाव
सि ंआव</w>
बे ंग
हो ना</w>
दि खांनानै</w>
सु नि</w>
रि क्
मु जु
न्द ्र
न्द िया</w>
सान नि</w>
खालाम नांगौ</w>
दो नो</w>
दु इ</w>
लाय नायाव</w>
लाय खो</w>
जों नानै</w>
नु नाय</w>
ङा इ</w>
समा नै</w>
खे ं</w>
बाव नानै</w>
फे राखै</w>
ग्ल ि
लिर गिरि</w>
फिन गोन</w>
बां लादे
ओंखार नानै</w>
बाथ्रा नि</w>
मोन् नै</w>
मोन् नायनि</w>
हिन्जा वा</w>
माहा रिया
बाहा य</w>
ज्ल ायनो</w>
आखु खौ</w>
डा ः</w>
आय ʼ</w>
मोदो मनि</w>
दाय नि</w>
बिसि या</w>
दिहुन नो</w>
ददेरे नि</w>
हेफा जा
त् त
हाजʼवा रीया</w>
बुजि नो</w>
मोनसे लʼ</w>
फिसाइ नि</w>
बानजाय नाय</w>
एखन ब्ला</w>
मिन ियो</w>
गोमजोर ै</w>
मुला म्फा</w>
जथु म्
s o
अ नु
आ मेरि
इ ण्ड
ट ्र
द ियाया</w>
ध ्
फ ायाव</w>
ब ङाइ
र हे
र जʼ
ु ं</w>
ना र</w>
बा राव</w>
जा नां
जा लाङो</w>
जा खां</w>
खा स्रि</w>
बि मा
गो बां
मो दाइ</w>
गा रि
दा रा</w>
दा खालि</w>
बु दा
फा न्द
नि नि</w>
से यावनो</w>
गु स्
खो था
मु सु
थां दिनि</w>
जों थि</w>
लु नानै</w>
रो न</w>
रो ब्ला</w>
फु न
फु दुं
रु मनि</w>
बाथ ौ</w>
थाय ोब्ला</w>
ब्र ैसो</w>
हम नायसै</w>
जोब गोन</w>
न्थ िया</w>
सलʼ माया</w>
थै नो</w>
लिर गिरिया</w>
हां गार</w>
फराय सालि
दं खायो</w>
गाब नो</w>
सों नो</w>
टि स</w>
गं नै</w>
ओंखा रो</w>
नङा बा</w>
लाबो नाय</w>
एसे लʼ</w>
सानै नि</w>
मोना ब्ला</w>
सʼ नो</w>
बाहाय नानै</w>
नं ला</w>
आथि खाल</w>
कल्प नाखौ</w>
सान् नो</w>
जेन नाय</w>
दुखु जों</w>
अलʼ कखौ</w>
ददेरे खौ</w>
जाथाइ जों</w>
गोबा नानै</w>
हाला मनि</w>
उजि गिबि</w>
कम ल</w>
नʼख राव</w>
नʼख रनि</w>
थियेटा रनि</w>
एफा ग्राब</w>
बांसि नानो</w>
2 3</w>
p ro
द नानै</w>
ब ʼ</w>
ह ं</w>
ृ ष्
ै लाय</w>
रा मखौ</w>
जा गौमोन</w>
था मनि</w>
बि स
बि माय
मा दि</w>
सा खौ</w>
हा सु
न् स
नाय ब्ला</w>
नाय गि
सि नानै</w>
सि ने
सि लाइ</w>
फा य</w>
फा ग्ला
हो आ</w>
जो ब</w>
जो मै</w>
जो लै
जि र
गि नो</w>
फो थाराव</w>
खाला र</w>
खौ रा
दु र
दु ब</w>
मे न्ट</w>
जों रुवा</w>
लां दां</w>
नां नो</w>
जु दा</w>
रु म
रु गु
ङा रि</w>
दै खांनानै</w>
नै बे</w>
बार हु
गुबु ननि</w>
थार ला</w>
जोब दों</w>
पा र</w>
साव नानै</w>
री याव</w>
फराय सालियाव</w>
गाय नानै</w>
स्रा य</w>
बिबा रि</w>
दिन्थि नानै</w>
एसे याव</w>
दां नाय</w>
बिना राम</w>
लुबै या</w>
डि स्
फं सेबो</w>
शान्त ि</w>
शान्त िनि</w>
नोजोर नानै</w>
बिसि नि</w>
आर ति
गोहो खौ</w>
नंग ु
गलʼ नि</w>
ंगि ना</w>
डे भि
जाहो नाव</w>
फावथि नानि</w>
इन फरमे
फोसाव नाय</w>
गुन्दा खौ</w>
हाइ जें</w>
गिलि र</w>
महनला ला</w>
मिथिं गानि</w>
फाफ्ल ियाव</w>
रंफा ली</w>
2 1</w>
i c
i t
आ गोर</w>
क ाया</w>
ज ल
थ ब</w>
प रि
ह ोर
बा मु
था न्दै</w>
खा लाय
बि थ
बि स</w>
बि खायनो</w>
मा बि</w>
हो न्नाय</w>
सो लʼ</w>
नि स्
फोर जा</w>
जि निया
सु स्रां
गु लि</w>
नो ङो</w>
खालाम दोंमोन</w>
दे व
थु नानै</w>
फु जि
रु प
माव रिया</w>
बार नानै</w>
न्थ ाया</w>
फे रा</w>
थै नाय</w>
सिगा ंनि</w>
हां ख्र
जौ नि</w>
टे न
सों नाय</w>
मेग नजों</w>
राइजो फोरा</w>
हाया खैमोन</w>
मिनि ट
आख लखौ</w>
गʼ ला
सौ ग्रा
मोदो मखौ</w>
बेर खाङो</w>
आर सा</w>
जेन ʼ</w>
बसुमता रीया</w>
बायदि नो</w>
गर म</w>
गेदे मा</w>
फाला ंगि
मीना रामा</w>
गेव लां</w>
हाबाफा रिखौ</w>
अफि सनि</w>
लोर बां</w>
शंक रा</w>
जात ्रा</w>
सन्दे ह</w>
हय थʼ</w>
ददेर े</w>
" ।</w>
1 3</w>
2 6</w>
अ ं
आ न्दाया</w>
इ बो</w>
उ दैयाव</w>
ज ्रा</w>
फ ʼ</w>
ब हा
ब न्द
य ोमोन</w>
ल ी
स ी
स प्
ना निफ्राय</w>
ला द</w>
जा फु
खा उ
बि ष
बि ल्
गो गोम</w>
सा ख्रि
गा न्
गा थाम</w>
नाय नाय</w>
दा ल
बु रै</w>
हो फैयो</w>
हो नांगोन</w>
मोन दां
नि जोम</w>
फोर बो</w>
थि ग</w>
दि ं</w>
से क
सु ख</w>
सु वा</w>
ंग ाया</w>
आं नाव</w>
दे गार
दो लो
गाव स्रा
मे न्
लो ङो</w>
जों ब्ला
रु फा
जाय ग
जाय गा
समा ज
समा जा
बार नि</w>
टा रि</w>
मानसि जों</w>
अन साय
अन सुला</w>
गाब नि</w>
गाब दों</w>
टे बु
मै देर</w>
देर नानै</w>
टि भ</w>
बाथ्रा खौनो</w>
उन्द ु</w>
मेग ननिफ्राय</w>
हाबा फारियाव</w>
मोन् दां
राइजो फ्रा</w>
भा रा</w>
माइ गाब</w>
गोर ाया</w>
स्रि नानै</w>
दर जा</w>
राज थावनि</w>
हिन्जाव खौ</w>
गोहो नि</w>
जेन बा</w>
अल का</w>
दौ ल
जाथाइ खौ</w>
गोमो र
थों जों</w>
गाखो नानै</w>
इन् टारने
मनजु वा</w>
बानाय सो</w>
कमा ण्ड</w>
अफिसा व</w>
इउ नि
बोराय नि</w>
फालांग ि</w>
थब सि</w>
ब्रह्म वा</w>
गोर्ल ै</w>
ज्ला य</w>
" ,</w>
1 4</w>
4 0</w>
l e</w>
अ ब्लासो</w>
आ खाय</w>
आ बुङै</w>
ग िया</w>
ग साइ
ग सङो</w>
त ी
थ फ
द ी
द मा
द ियै</w>
ौ नि</w>
ना सै</w>
जा थार
जा खांनानै</w>
था नांगौ</w>
खा नो</w>
खा रि
मा बो</w>
मा दै</w>
गो खा</w>
गो लाव
सा रिनि</w>
नाय ोब्ला</w>
बे नो
बे थʼ</w>
्ल ु
हो नाया</w>
बो राइ</w>
बुं ना</w>
खो थाया</w>
फै नायनि</w>
मु गायाव</w>
खु नु
गाव बो</w>
या र</w>
गे न</w>
स्र ी
रो खायै</w>
िया र</w>
स् त
दै थाय
बाव नाय</w>
थे ं</w>
का प
का नि</w>
सं ख्रि</w>
ने व
लिर नो</w>
लिर दों</w>
टे क
बाद लनि</w>
आइ यै</w>
गिरि फोरखौ</w>
दिनै बो</w>
गोग्लै नाय</w>
हार सिं
फ्ल े</w>
अना रि</w>
कम् पा
ट्रा क</w>
हांखो खौ</w>
देरहा सार</w>
देरहा ग्राया</w>
रिं सार</w>
जाहो न</w>
रामना थ
त् य</w>
इन् जिनिया
अख्रा ङाव</w>
सांग्रा ं
बुजि बाय</w>
फाहाम सालियाव</w>
फार् से
स्रो द</w>
अराय नि</w>
फोले र</w>
मुंखʼ नो</w>
ककरा झा
हान जा</w>
नंगु बै</w>
2 2</w>
l e
{ -</w>
आ स
आ य</w>
आ बार
आ बै
उ रि
ए न
ए क्स
ग ायनो</w>
द र</w>
प ति</w>
ब खौ</w>
बा इ</w>
बा न्दि</w>
ला रि</w>
रा दाब</w>
जा गो
था दʼ
बि गोमा</w>
हा जासे</w>
गा नो</w>
गा जा</w>
गा न्नाय</w>
सि ङा</w>
दा नाव</w>
फा दों</w>
हो लाङो</w>
सो नार
मोन थाय</w>
बो ब्ला</w>
बो खार
जे र
से न्
गु दुं
गु दियाव</w>
गि लुं</w>
खो ला</w>
खो न्दो</w>
फै नायसै</w>
नो लै</w>
दो ह
र् स</w>
नु वा</w>
नु वा
या नि</w>
या वबो</w>
नै या</w>
नै याव</w>
दाव बाया
हाय ो
बोर सि</w>
सै बारी</w>
के स</w>
खै ना
फ्र े
सोदो म
गं फा</w>
ब्ल द</w>
एसे यावनो</w>
आलाइ स्रिखौ</w>
नागिर नाय</w>
बेखेव नानै</w>
गोजो नै</w>
आव गाय</w>
बिजिर नाय</w>
गासै खौबो</w>
माब्ला बाबो</w>
अल के
बाज ियाव</w>
सान्द ोंमोन</w>
गोबा रै</w>
हादोर गिरि</w>
खैफो दाव</w>
अन् थाइ</w>
बिलाइ खौ</w>
बेला से</w>
गुन्दा नि</w>
जुना द</w>
दिल्ल ीयाव</w>
उद ु</w>
बिगिया न
गुसु ं</w>
गोजां स्रि
** **
सोरखार नि</w>
नेहा थारि</w>
एम् बु
मोनाबि लि</w>
नौ ना
माहारिया रि</w>
1 8
m e
आ वनो</w>
आ जाव
ख नायाव</w>
ख ोरो
ज ्रे
ज बनानै</w>
द ्ला</w>
द न्द
न फोरा</w>
म नो</w>
र म</w>
स फ्
ह गारनानै</w>
ै ब्ला</w>
ना खै</w>
ना गारनानै</w>
ला न
रा ग
जा खो
जा सिम</w>
खा दोंमोन</w>
बि लो
गो गो</w>
गो थे</w>
सा ला
सा थाम</w>
हा लिया</w>
्र ल</w>
बे जों</w>
बु र</w>
हो वा
मोन ो
मोन जाया</w>
फोर खौनो</w>
.. ।</w>
थि म</w>
थि नानै</w>
थि नाय</w>
जो ङो</w>
जे ना</w>
गु दु
गु स्लाय
फि न्नानै</w>
मि थिया
खालाम ब्ला</w>
दे रा</w>
दे हाया</w>
गाव थार
मे ला</w>
लो ङा</w>
नु वाखै</w>
नां दि</w>
गै जा
खां ना</w>
फु ल</w>
खार लां
ङा खै</w>
लाइ मोन</w>
खे ब</w>
माव जि</w>
माव फारिया
हम थानो</w>
ने ल</w>
साव ख्ल
थै खौ</w>
बिसोर बो</w>
गोदा ननि</w>
दं सै</w>
ओंखार दों</w>
सोदो बा</w>
मह न</w>
नङा ब्लाबो</w>
नङा लै</w>
बय खौबो</w>
आना रामा</w>
बिजिर नानै</w>
राजा खौ</w>
रंजा लिया</w>
इराग् दाव
भु गि
अरु न</w>
मनजु लाया</w>
जार ौ</w>
ब्रु ं</w>
कम्पिउटा रखौ</w>
खोनासं नो</w>
बडʼले ण्डनि</w>
बुहु मनि</w>
फर ायो</w>
नेर् सोन</w>
परि ष
अ प
अ वा
आ सा</w>
आ थो
आ न्जा
आ गान
उ खु
क ौ
ग नि</w>
ज र</w>
ट ु
ड नि</w>
त नि</w>
द सेनि</w>
न खर
म जों</w>
ल िय
ल फोरखौ</w>
ल ख्रानि</w>
श नि</w>
स ायो</w>
बा ख
बा लु</w>
जा नायसै</w>
जा होनो</w>
जा थाव
जा गोन
था नाया</w>
खा खौ</w>
बि स्रि</w>
गो लाउ</w>
सा नाय</w>
हा नाय
नाय सो</w>
दा ला
दा ङा</w>
बे लाय</w>
फा लु</w>
नि लʼ</w>
ंग ि</w>
गु रै
मु स्रि
थां खिया</w>
नो मोन</w>
खालाम नाया</w>
खु गाजों</w>
बाय बो</w>
गाव सोर
दों दि</w>
दों ब्ला</w>
मे ट्रि
लो ब</w>
लु वा</w>
स्र ीया</w>
स्र ायै</w>
है दो</w>
माव नायनि</w>
माव खʼ
का सारनि</w>
दाव हानि</w>
हाय ि</w>
के म्
दोन दों</w>
देर गा
बिफा ना</w>
सार नानै</w>
थुन फावथाइनि</w>
सम बा
सम खौ</w>
दिन्थि दों</w>
सानै खौ</w>
सानै या</w>
महर नि</w>
कि ट
दुर्जा ंनि</w>
बिसि नायाव</w>
मिहि रनि</w>
अल काया</w>
लिं हर
भार ता
दिहुन नाय</w>
सासे लʼ</w>
दम ननि</w>
लाया खै</w>
बेद द</w>
खाम फ्ला
मोखां जों</w>
दैदेन गिरि</w>
स्रो म</w>
मोनसे या</w>
बिबार नि</w>
बानजाय नो</w>
जिब ौ</w>
मुंखʼ नांदि</w>
अनि माया</w>
इयु न</w>
फोरम ायनो</w>
बाथु वाया</w>
बिनहा री</w>
घन् टा</w>
माष् टार</w>
पाकिस्ता ननि</w>
a tion</w>
o r</w>
p o
आ च्
ए माव</w>
ख बर
छ ा</w>
ज वा
ज िया
ज यै</w>
ट ʼ</w>
प ʼ
फ ब
स जों</w>
ह गार</w>
ना म</w>
बा हायो</w>
ला सेनो</w>
रा से</w>
बि बʼ
मा ला</w>
गो बा</w>
हा खि
हा गौमोन</w>
गा लि</w>
नाय हरबाय</w>
सि लाराम</w>
दा लाय</w>
दा द्रि</w>
बे राम</w>
बु नानै</w>
बु द्र
हो यै</w>
मोन है
बो रा
बो थो
जि खौ</w>
सु खे
गु न्द
मि थियो</w>
फै नाया</w>
मु खु
मु हि
थां नायनि</w>
थां लाय</w>
नो लाय</w>
नों थʼ</w>
खु मा
गाव सोर</w>
सोर ्
दों ना</w>
दु ब्ल
मे डा
लु नि</w>
रो म</w>
रो मै</w>
खां दोंमोन</w>
फु ङावनो</w>
जाय फोर</w>
रे क्ट
दै मानि</w>
थाइ याव</w>
टा उनाव</w>
ब्र ʼ
जोब स्रां
हाय े
ग्र ो</w>
थै यो</w>
जौ खौ</w>
जौ वा</w>
दं ना</w>
बां ला</w>
खाय सो</w>
खन साय</w>
हाम बु
थुन फावथाइ</w>
हाया ब्ला</w>
आख लनि</w>
माइ नाव</w>
माइ थाय
आइ नि</w>
हाद राव</w>
खोम ायो</w>
खोम ायाव</w>
ख्ल ाय
सʼ नानै</w>
बिना ना
गोख्र ै
जें ना
19 9
अलʼ कनि</w>
in g</w>
गर न्
सोरजि नाय</w>
थाया रि</w>
दाब से</w>
फिसाइ खौ</w>
सोद्रो मा</w>
सहे ना</w>
हाबाफा रिनि</w>
अफि स</w>
जेके ट</w>
कमि टिनि</w>
बोसो राव</w>
बुरै या</w>
नोगो रनि</w>
नायजा बाव</w>
एरै बादि</w>
बावदिया नि</w>
खिन् थानो</w>
गोरि ब</w>
भक त</w>
सेक्सपी ये
खुन्दु ं</w>
नो जो
c t
d e
q u
u r
आ न्दा</w>
आ हार</w>
इ सिं</w>
ए सि
क ल
क ंग्रे
ग थाय</w>
ग ियो</w>
ग लायनानै</w>
ज न
द ख
द जों</w>
म ाया
ल फोरा</w>
स नखौ</w>
ह म</w>
बा न्था
बा न्दो
ला वनो</w>
जा म
था न
था फा
था नांगोन</w>
खा ब</w>
मा सै</w>
मो दाइ
सा ल</w>
सा फ्रा
सा हि
हा ख
हा दोंमोन</w>
गा ब्रै</w>
गा ड़
सि र
सि लिं
बु न्दिया</w>
फा रि
जे न्
से ना
खो मानो</w>
फै लाय</w>
फै लाव</w>
खाला य</w>
ले ङाइ</w>
सान नाया</w>
नों थाङा
खु ंगु
दे ब
जों लाय</w>
गे रे
बर गया
लु नाय</w>
खि जाया</w>
समा जा</w>
हि ं
हे ना</w>
ब्र ाय
गुबु नारि</w>
थार गौ</w>
हु गार
हाय ैनि</w>
रै खाथिनि</w>
सिगा ंआव</w>
सिगा ङावनो</w>
फिन दों</w>
आफा दाव</w>
लोगो आव</w>
बाद ाय
नाया वसो</w>
खाव लाय
खेव नानै</w>
फावथाइ गिरिया</w>
आखु थाय</w>
दर खं</w>
सुबुं फोरनि</w>
म्ब राव</w>
गोरो ब</w>
सोदोब थि</w>
आव राय
आव थायाव</w>
दुर्जा ं
बड ʼ</w>
मार बाय</w>
बेर खां
आद ्रा</w>
साया रामा</w>
19 7
बेल ायाव</w>
फिसाजो आ</w>
गोमो थाव</w>
फोरों गिरि</w>
सिखा रो</w>
सुर नानै</w>
बारा द्राय</w>
फोजोब नो</w>
बेव हायनो</w>
मुवा फोरखौ</w>
ओनसो लनि</w>
स्कु लाव</w>
अफिसा र</w>
आइजो आ</w>
अलका खौ</w>
बेसा द</w>
सुफुं नो</w>
तुला रामा</w>
बोथोर नि</w>
सानबो लाउ
अनाथ ीया</w>
समाजा रि</w>
दोह ोरो
साहि त्य</w>
1 5
d a
उ दां
उ साव</w>
ए इ</w>
ख ाया
ग न
ग ाया
ज ्ला</w>
न खʼ
ब ट
ब स्
ब हाबा</w>
र थʼ</w>
व लʼ</w>
स है
स न्थ
बा ग
बा ल
बा न</w>
बा र्
बा हे
बा नाजों</w>
ला माया</w>
ला सिनो</w>
ला नानैनो</w>
जा गासिनो</w>
था थʼ
खा रो</w>
खा रा</w>
मा वा</w>
मा ख्
गो जों</w>
गो नो
हा थायाव</w>
हा नजा
गा रा</w>
नाय थिं</w>
सि मान</w>
बे ं</w>
बे लखौ</w>
फा थो</w>
सो ले
नि दान</w>
थि लियाव</w>
दि नो</w>
बो सोन</w>
जे नो</w>
जे खौ</w>
जि राय</w>
सु वा
गु जु
रि नो</w>
गि ज्रा</w>
फै गासिनो</w>
सान जा
फ्रा म</w>
दो ना</w>
लो ङै</w>
ब्ला थʼ</w>
नु दोंमोन</w>
या सो</w>
है दोंमोन</w>
फु ङाव</w>
जाय ोमोन</w>
स् पि
हि न्दु</w>
ख्र े</w>
माव दों</w>
थाय ो
बाव दा</w>
हम ना</w>
हम थानानै</w>
हु गारनानै</w>
हु गारो</w>
दाव ला</w>
सं नो</w>
ने बाय</w>
ग्र ु
थै या</w>
लों बाय</w>
फराय सालिनि</w>
दोन नो</w>
लोगो नि</w>
नाया वबो</w>
थुन लायाव</w>
फोरमाय नानै</w>
फुं खा</w>
नागिर दोंमोन</w>
सौ फै
आय दायाव</w>
थाम थि</w>
खेब नै</w>
लै थो
आखाइ निफ्राय</w>
ज्लाय नानै</w>
गोहो आ</w>
बसुमता रि</w>
बिलिफा ं</w>
थिं जाय</w>
गोम ो</w>
मोसा नाय</w>
जारिमि नखौ</w>
उना वबो</w>
कले जनि</w>
बʼ रे
बारा न्दायाव</w>
... ।"</w>
अख्रा ं
गाइखे रखौ</w>
ख्ला ब</w>
नार् जा</w>
वे र</w>
संसा रनि</w>
सोरखा रि</w>
थ्रो ब</w>
फʼ न</w>
डाइ रेक्ट
बाबु वा</w>
पाब्लि के
सुमि लाया</w>
बाजु राम</w>
निउ क्ल
सान्त ि</w>
दुब फुं</w>
1 9</w>
2 0
e x
w or
ं नाय</w>
अ ब्लानो</w>
आ न्द
आ दार</w>
उ वा
ए नै</w>
क ्रि
ख ायाव</w>
ख था</w>
ग ंग्ल
त रु
थ ियै</w>
प ्राइ
ब बाय</w>
स ब</w>
स नो</w>
ह ं
ह ʼ</w>
बा जार</w>
रा खैमोन</w>
जा बाय
जा हार</w>
खा जा</w>
बि दा
बि बाया
मो दैजों</w>
सा ं</w>
सा बु
सा फाय
हा न्था</w>
्र िया</w>
फा खौ</w>
फा लो
सो रां
फोर मान
जो ख्लो
जे ने
सु ं</w>
सु देम</w>
फि न्
फि सौ
बुं हरो</w>
बुं नायसाय</w>
मु लिखौ</w>
ले बʼरे
थां दोंमोन</w>
थां नायाव</w>
खु न
दो न्नाय</w>
बाय दियै</w>
सोर बाफोर</w>
दों सो</w>
दु र्
मे उ</w>
राय ा
हर े
हर नायनि</w>
नां नायनि</w>
नां ला</w>
रो हो</w>
गुबु ना
का माख्
मिथि नानै</w>
थो जासे</w>
फ्र ि
लिर गिरिनि</w>
फराय नानै</w>
्रि नि</w>
ओंखार बो
ओंखार लां
ओंखार बोयो</w>
देर नाय</w>
बाद ाव</w>
जʼ यो</w>
हाम ो</w>
भा नि</w>
........ ...</w>
आना रीखौ</w>
आसा गि</w>
फावथाइ गिरि</w>
आलाइ नि</w>
ज्ल ाया</w>
नागिर नो</w>
सुबुं फोरखौ</w>
शान्त िखौ</w>
दिनै सो</w>
बेर खां</w>
लाखि नानै</w>
मन्जु खौ</w>
गोनां थार</w>
दुं हाव</w>
भु टा
गोमा नाय</w>
खामानि नि</w>
थेफे न</w>
थेफे नखौ</w>
निख्रु इबो</w>
खौरां गासे</w>
बाजि नि</w>
नोंसोर खौ</w>
फाइ ल</w>
बेला सि</w>
ज्रा ब</w>
खुलुम ो</w>
जाम् बि</w>
सिथ ्ल
गावबु रा</w>
रोखोम ै</w>
एबसु नि</w>
गग ल्
इन्दुप्र भा</w>
अनसुं थाइ</w>
अनु ले
डेभि द</w>
बिल् डि
दाल गु
मुस्रि मा</w>
किट से
नोजो राव</w>
1 7</w>
2 8</w>
अ दालगु
आ फो
आ माय</w>
ग ायो</w>
ग गैया</w>
ङ ि</w>
ट ्‌
द ायो</w>
न े</w>
न वावनो</w>
र न
ल क्ष
व नानै</w>
स से</w>
स नाव</w>
ह ज्रि
ना वबो</w>
बा ब</w>
बा नाय</w>
बा थि</w>
बा रे
जा ब्लानो</w>
था ला</w>
था लानि</w>
खा नाया</w>
बि स्कु
मा स्
मो दैखौ</w>
मो ख्राया</w>
सा लिया</w>
हा वा</w>
हा थाय</w>
नाय लʼ</w>
सि खा</w>
दा नायाव</w>
दा सान</w>
बे खे
फा र</w>
फा ङा</w>
सो मोन</w>
सो लायो</w>
सो लायनानै</w>
मोन ब्रै</w>
फोर थि</w>
जो बा</w>
से के
जि म</w>
मि स</w>
बुं ब्ला</w>
खो न्दो
फै नायाव</w>
आं सो</w>
थां ख
थां खो</w>
खु सि
खु लि</w>
दे हायाव</w>
दे ग्लाय</w>
दो म</w>
दो हो
बाय जो</w>
सोर खौबा</w>
र् ड</w>
मे र
.... ।</w>
रो नाव</w>
स् टʼ
दै सा</w>
ब्र ि</w>
ब्र े</w>
हम नाय</w>
जोब थार
थे ं
फाव दु
का सार</w>
हाब नो</w>
दाव बाय</w>
सं नाय</w>
फे स्ला</w>
ग्र ीम
लों खां</w>
ल् दा
दं बाव
ओंखार लांबाय</w>
गाय सन
सों खारि
मोन् नाया</w>
नाया खै</w>
राइजो फोरनि</w>
पु रनि</w>
बिबा न
एसे ग्राब</w>
आइ कʼ
बिदि न्थि</w>
आय दा
आय दानि</w>
न्दा ं</w>
अर खिया</w>
पुलि सा</w>
सासे बो</w>
लाया बो</w>
बिब्दि ब्ला</w>
लाजि नाय</w>
खुं थाइ</w>
खैफो दनि</w>
फिसाज ्लाखौ</w>
फाहाम थायनि</w>
खान्थि जों</w>
अखा नायै</w>
सोमावसार नाय</w>
साइके लखौ</w>
सिगां नो</w>
कर् ण
बानाय नाय</w>
भारत ाव</w>
दाहो ना
गिलि द</w>
साना खैमोन</w>
टेबि ल</w>
डाक् ता
मखʼ जाथाव</w>
बिज ने
उल् था</w>
ड्र इं</w>
आग्रा ं</w>
होम् बा</w>
भुट िया
बेसेबां बा</w>
सिने मा</w>
सप् ता
जायग ायावनो</w>
a d
b er</w>
t a
t ra
u n
ʼ खौ</w>
अ सि
उ सु</w>
ग े</w>
ङ ैनि</w>
ज नो</w>
ट निफ्राय</w>
ड िया
त ्र
द ोरो
न र
प ्ला
फ बनाय</w>
ब ौ
ो र</w>
ला ब</w>
ला नांगौ</w>
जा जों</w>
जा बा</w>
जा लांदों</w>
था नायसै</w>
था सार
खा गोन</w>
बि म
बि सायखʼ
गो नो</w>
हा मा</w>
हा ला</w>
गा रांजों</w>
सि लाया</w>
बे रा
बे गर</w>
हो नायखौ</w>
मोन खो</w>
मोन खाङो</w>
मोन हाबो</w>
नि क</w>
दि उ</w>
जो मैया</w>
बो नि</w>
जे से</w>
से नानै</w>
सु थि</w>
गु दि
गि थाव</w>
बुं लाङो</w>
बुं फिनो</w>
मु साहा
आं हाबो</w>
थां हां</w>
नों सा
नों सिनि</w>
गाव ो</w>
दों लै</w>
राय नो</w>
ब्ला उ
जों नाव</w>
नु हर
नां थाव</w>
नां सिगौ</w>
गै ला
खि खौ</w>
ङा वबो</w>
लाइ खौ</w>
लाइ मोन
जाय खिजाया</w>
रे जें</w>
ख्र ियाव</w>
गोसो ज्लि
माव गोन</w>
मोजा ंनि</w>
बार गʼ</w>
टा रा</w>
थाय जों</w>
बाव नांगौ</w>
मानसि फोर</w>
फिसा फोरखौ</w>
हु स</w>
फाव थाया</w>
का म
दाव खो
सं नानै</w>
माय ैनो</w>
के सखौ</w>
थो नो</w>
साव थाल</w>
बिसोर जों</w>
बां द्राय</w>
सों लु</w>
मले नजों</w>
बाथ्रा फोरखौ</w>
सोम नानै</w>
मुं ख्लं</w>
........ .
आना न</w>
आलाइ खौ</w>
ज्ल ायो</w>
ण् डा
सुबुं साइ</w>
दां नानै</w>
अज द</w>
साय खʼ</w>
बिथां खि</w>
कि उर
खेब सʼ</w>
ज्लाय नाय</w>
दङ ʼ
रों गौ</w>
फ्रो म
बाहागो नि</w>
आग दा</w>
बुर खाय
अब थि
फोजोब स्रां
फां थे
जुना द
जाफुं सार</w>
ओनसो लाव</w>
फोले रनि</w>
जोम नाय</w>
ख्रे ब</w>
ट्राइ बेल
टेबि लाव</w>
मोनाबि लियाव</w>
बिबुं थि</w>
प्रग्रा म</w>
राहा जों</w>
हेला रामा</w>
सेप्तेम्बर खालि</w>
दुप साव
मावरि जा</w>
सरासन स्रायै</w>
बारहु ंखा</w>
बामु न</w>
मेट्रि क</w>
खबर दार</w>
ग्रीम उइ
किउर िय
, -</w>
a p
h o
m e</w>
p e
v er
अ जा</w>
आ न्दो
ए का
क न्ट
क ृष्
ज ं</w>
ज मा</w>
त ्र</w>
थ फ्ला</w>
न म्बर
प लि
फ नि</w>
फ र्
फ ्रि</w>
फ ायाबो</w>
ब बेनि</w>
म त
म े</w>
म थर</w>
य िं</w>
र बि
स ी</w>
स र</w>
ी या
ना रा</w>
बा लाय</w>
ला से</w>
ला वा</w>
जा सि
जा नो
जा बोदों</w>
जा सेनो</w>
जा बायमोन</w>
था ल
था न</w>
था सान्द
खा राव</w>
खा वनो</w>
खा न्था
बि नानै</w>
बि याव</w>
बि थिं</w>
मा गोन</w>
मा थो
मा खन</w>
गो सार
मो दैया</w>
सा हाखौ</w>
हा रा</w>
हा जार
सि ब</w>
सि मा</w>
सि लि
सि थार
दा ग</w>
दा बाव</w>
दा मै</w>
बे मा
बे थेर</w>
बु ब्लि
मोन नाया</w>
जे ला</w>
जि से</w>
सु रो</w>
फि ल्
फो सा
फो थाय</w>
खो ब</w>
फै फिनो</w>
नो गोर</w>
नों सो</w>
खालाम बावनो</w>
खु ंग्रि</w>
फ्रा नो</w>
बाय बाय</w>
खौ से
मे से
राय ै</w>
जों नाय</w>
जों थि
नु ब्ला</w>
नु जागोन</w>
हर गोन</w>
नां लिया</w>
नां गोन
नां सिगोन</w>
लु न</w>
रो जाब
रु मनिफ्राय</w>
रे न्द्र</w>
स् वा
ख्र ं</w>
गोसो वाव</w>
खे बाव</w>
हे ला</w>
थाइ या</w>
हम था</w>
गेजे रनि</w>
हु दा</w>
हाब हैबाय</w>
अन सुलि</w>
साव गारिखौ</w>
खʼ नो</w>
ग्रा फ</w>
ग्रा खौ</w>
ग्रा फोरा</w>
बिफा ं
मह ना</w>
जʼ रा</w>
गोजा ननि</w>
गोग्लै बाय</w>
बिथां मोननि</w>
माहाजो न
बिसि ना</w>
जिराय नो</w>
खाफा लनि</w>
नोंथां खौ</w>
गैया ब्लाबो</w>
दिहुन नानै</w>
कले ज
प्ल ि
दाम नाय</w>
रुवा थी</w>
दाइ न</w>
दाइ निं</w>
पार् ट
थिउ रिया</w>
हरखा बै</w>
बिब ʼ</w>
सिबि नाय</w>
सेया वबो</w>
स्रे म</w>
थिउरिया फोरा</w>
बिथिं निफ्राय</w>
बायजो याव</w>
सोद्रोमा फोरा</w>
जं खाय
नेर सोन</w>
at e</w>
खिन्थ ायो</w>
बांगा ल</w>
हारसिं नो</w>
आच् छा</w>
गोनो खो
निउक्ल ियार</w>
सिथ्ल ायाव</w>
जारिमि ननि</w>
a u
s e</w>
अ ल</w>
अ बिना
आ जा
आ खा</w>
आ सार</w>
इ नि</w>
उ थु
ख ल</w>
ज र
ड ्राइ
त ्रा
द ब
द ्रि
न वा</w>
प र्
ब न्
म र
म हि
र ू
ल खʼ
व नाय</w>
स मि
ना जाबाय</w>
बा स</w>
बा दा
बा सिनो</w>
ला क
ला र</w>
ला नायखौ</w>
रा ना</w>
जा नोसै</w>
जा बावनो</w>
था बै</w>
था ङै</w>
बि खौनो</w>
बि हारि</w>
गो दाव</w>
गो थों</w>
मो थो</w>
सा बाइ
गा न्दु
न् नायाव</w>
नाय दों</w>
नाय गोन</w>
सि रां</w>
दा सि</w>
दा ङा
दा लाइ</w>
दा हानि</w>
दा सान्दि</w>
बे मारि</w>
बु नो</w>
हो र</w>
हो खार</w>
सो मो
मोन नायखौ</w>
मोन ोब्ला</w>
मोन ैनि</w>
नि ं
जो नि</w>
जो मै
बो दोर</w>
से ल</w>
से मानि</w>
फि ना
खो ला
फै सा</w>
मु स्री
लि क</w>
लि स</w>
आं दि</w>
ले क
सान थौ
दो न्नो</w>
गाव सिनि</w>
खौ से</w>
मे म्बर</w>
राय लायनो</w>
लाय नायनि</w>
जों लʼ</w>
वा र
नु ना</w>
या रनि</w>
ाया लाय</w>
फु रा</w>
फु जा</w>
म् बार</w>
लʼ सो</w>
जाय गाखौ</w>
मोजा ङैनो</w>
बार नाय</w>
बाव दियाया</w>
थे व
हाब है
पा रा</w>
सं गालि</w>
ने पा
मिथि मोननाय</w>
सै बार
के रा
फे र</w>
साव राय</w>
साव गारिया</w>
खै ब्लाबो</w>
फ्र ु</w>
खʼ ना</w>
गाब ख्रा
लोगो नो</w>
मेग नखौ</w>
गं स्रिनानै</w>
पु ट</w>
सम निफ्रायनो</w>
खाव लाय</w>
भा र</w>
मिनि ट</w>
मिनि नो</w>
बाहा गि</w>
आसा न</w>
दर खौ</w>
ख्रा य</w>
नं मार
मोदो मा</w>
उन्दु नाय</w>
साय ै</w>
मन् जु</w>
मोन्द ोंमोन</w>
गोख्र ों
सान् नाया</w>
बबे याव</w>
जिराय नाय</w>
मन जु</w>
दुखु थिया</w>
खोमा नाय</w>
खोमा बाय</w>
बेल स्रिया</w>
ख्रु ब</w>
सासे नि</w>
ट्रा क
गेले नाय</w>
थिन बाय</w>
फ्रो म</w>
देरहा ग्रानि</w>
थुनलाइ याव</w>
नार सिन
मोखां नि</w>
बैसो आ</w>
हिसा ब</w>
खें फोरथि</w>
नागि र</w>
नार्जा रीया</w>
मिजि ं
कम्पिउटा रा</w>
खुर मा</w>
नरे शा</w>
जेके टखौ</w>
जी उ</w>
सोरखार खौ</w>
क्ला स</w>
थाखाय बो</w>
थिउरिया फोरनि</w>
बाजा राव</w>
में नाय</w>
बिखु ङाव</w>
मंगल सिं</w>
अनजि मा</w>
पाब्लि क</w>
हरबिला सा</w>
gu st</w>
साग्लो ब
खानाइ खौ</w>
गमा मायैनो</w>
दाफो दार</w>
निस् थार</w>
हांख्र ाय
उरि ष्
गुदुं जों</w>
गुरै यै</w>
au gust</w>
मुस्री मा</w>
! !!</w>
a n</w>
g e</w>
m s</w>
y o
ʼ वा</w>
अ न</w>
अ र्
अ टʼ
अ गेन</w>
इ नायनो</w>
ओ रै</w>
क जों</w>
क लं
ख त</w>
ग दʼ
ग साइ</w>
ङ ै
च ु
च ल</w>
ट जों</w>
त ीया</w>
थ ्रा</w>
द ्रे
ध ि
न न्द
फ ो</w>
र ाया</w>
श नि
स लि
स निफ्राय</w>
। ﻿</w>
बा सा</w>
बा गान</w>
ला जिया</w>
जा न्
जा थोंसै</w>
था सा
था ना</w>
था रु
था खा</w>
था थों</w>
खा ल
गो थो</w>
सा बि
सा बो</w>
हा इ</w>
हा ग्रायाव</w>
दा ना</w>
बु रु
फा रा</w>
फा राग</w>
सो ला
सो राव</w>
मोन सिं
.. ।"</w>
थि खा
बो थि
बो गासिनो</w>
जि ल्ल
ंग े
गु र</w>
रि निफ्राय</w>
फो लाव
खो म</w>
खो थायाव</w>
फै सालि</w>
मु गा</w>
ले ट</w>
सान गोन</w>
खु न</w>
फ्रा म
दे नां</w>
गाव रावा</w>
ब्ला उ</w>
लां खार
गे ट</w>
नां दोंमोन</w>
लु ब</w>
फु थु
म् पि
बाथ ा</w>
लाइ नि</w>
ख्र िया</w>
गोसो खां</w>
हे द</w>
हम दांनो</w>
थार नांगोन</w>
थार ैब्ला</w>
मानसि यानो</w>
जोब नायाव</w>
गार दों</w>
थे यो</w>
हाब फैनाय</w>
सलʼ फोरा</w>
सलʼ माखौ</w>
फार ियाया</w>
ने नानै</w>
ने गासिनो</w>
मिथि ंगा</w>
फे रै</w>
थै नानै</w>
थै गोन</w>
ग्ल ि</w>
ल् दा</w>
टे क्
सों नानै</w>
प्र फे
मले न
मुं राइ
खन थाम</w>
नाया लाय</w>
ष् टा
हाम ला</w>
गाज ्र
राइजो आ</w>
स्रा व</w>
फुं नाय</w>
बिदि बादि</w>
सुबुं खौ</w>
आय दाखौ</w>
म्ब रि</w>
लुबै नायखौ</w>
न्दा नि</w>
गां नाय</w>
उन्दु लां
महा राजानि</w>
नोजोर जों</w>
दुखु खौ</w>
बेनि नो</w>
इं राजि</w>
दाजाब दाखौ</w>
लाया ब्ला</w>
सावराय नो</w>
सावराय नाय</w>
गोबा ख्र
ti ve</w>
सिख्ला खौ</w>
th e
सुजु ग्रा</w>
दैदेन नायाव</w>
अम ब्रा
जिल ्ला
गोजौ नि</w>
बुङा खै</w>
सोमावसार नायनि</w>
en t</w>
ये ल</w>
जिब ौ
उद खारि</w>
लाफा नानै</w>
बेरे खायै</w>
नरे ना</w>
अलका नि</w>
थाखाय सो</w>
नोगो राव</w>
हरा सै</w>
सरका रनि</w>
जिनि स</w>
गिख्रं थावना</w>
राण ी</w>
रुं सारि</w>
सेन्दे ल</w>
मेने जार</w>
बांलादे श
टेन सन</w>
इराग्दाव नि</w>
कौ टि</w>
खुंगु र</w>
दुपसाव फा</w>
थासान्द ियाव</w>
4 5</w>
: ।</w>
e l</w>
p a
r u
s p
अ रा</w>
आ खै</w>
क मे
ख फʼ</w>
ट क</w>
थ ्रि</w>
थ ब्ल
द म</w>
द स्रा</w>
ध र</w>
भ ्ला
ल ों</w>
ल फोराव</w>
स ल</w>
स ायनो</w>
ह क</w>
ना ले
ना जागोन</w>
बा जा</w>
ला नायाव</w>
रा हाखौ</w>
रा दाब
जा पा
जा फ्ला
जा नायमोन</w>
था राखै</w>
था जिम</w>
खा लिनि</w>
बि र</w>
बि हाव
मा स</w>
गो लो
गो नखौ</w>
मो ख
मो ल</w>
सा नाव</w>
हा लि
हा खर</w>
हा ग्रानि</w>
गा राव</w>
न् याव</w>
नाय दो</w>
नाय खौबो</w>
सि फ
दा जों</w>
बे न्दों</w>
बु लि</w>
बु दुं</w>
फा न्
दि प
दि मि
दि नाव</w>
बो स्रां
से व
जि नै</w>
जि रा</w>
गि नांगौ</w>
बुं नांगौ</w>
खो ना</w>
लि रो</w>
आं निफ्राय</w>
खु गाया</w>
दो लै</w>
खौ राङा</w>
दों सै</w>
दु लु
राय जो</w>
जों बाय</w>
जों बा</w>
जों रु
नु गोन</w>
नु जानाय</w>
हर नायसै</w>
बर ु
खि न्थि</w>
खां नायाव</w>
रे ल
स् पी
दै खाङो</w>
दै ख्रं</w>
गोसो या</w>
खे मा</w>
माव बाय</w>
-- '</w>
गार नाय</w>
थे ख्रे
बै था
का र
का स्त
अन साय</w>
पा टि
ने ट
मिथि खा
रै सुमै</w>
लिर दोंमोन</w>
गोदा ना</w>
दं फांनि</w>
टे बो
खाय से
सोम दोन</w>
नाया थʼ</w>
जʼ रासे</w>
ब्ल े</w>
ब्ल ाया</w>
खाव नाय</w>
आइ न</w>
आइ या</w>
दर लाय
सʼ ना
लुबै दों</w>
गां नै</w>
मानि खौ</w>
मानि बा</w>
मानि नां</w>
हारि मुनि</w>
दिनै नो</w>
अर खि</w>
ति नि</w>
सर खार
बेर फ्रु
गोख्र ो
हिन्जाव सा</w>
गोहो जों</w>
जिराय बाय</w>
रंजा नायनि</w>
खाफा लखौ</w>
सान्द ुं</w>
ग्ला ब</w>
ग्रो यो</w>
सिया ल</w>
खरʼ नि</w>
गोमो यो</w>
हेफा जाब
खाम सालियाव</w>
स्ला बा</w>
सिमा ं
प्ल ट</w>
दैदेन गिरि
थ्र ʼ
बेखेवगा नै</w>
बेखेवगा स्नि</w>
निख्रु य</w>
फोजोब नानै</w>
फां थेनानै</w>
... "</w>
सेंग्रा फ्रा</w>
दाब सेयाव</w>
कक ्राझार</w>
गोरा नि</w>
खें नानै</w>
सेर जा</w>
गिदिं नानै</w>
बिलाइ नि</w>
जिरा द
गला फ
गय थिखौ</w>
नाव खौ</w>
जी उ
गनाय थि</w>
बेसा द
फालांग ियारि</w>
लांगो नायाव</w>
बारगʼ नो</w>
अबं लाव
ग्रि द</w>
बांसि नै</w>
खन्थाइ गिरि</w>
बिग्र ाया
अक्ट बर</w>
कमाण्ड खौ</w>
आलु मि
कʼक ्राझार</w>
सांग्रां थि</w>
बिगियान गिरिफोरा</w>
भारता रि</w>
बोथो राव</w>
बान्था खौ</w>
प्राइ भे
yo u</w>
भ्ला दिमि
1 3
6 0</w>
g o
s u
v o
y our</w>
अ मा
अ लि
आ लाय</w>
इ ज्
उ रां</w>
ए ब
ए न्
ग सा
ज न</w>
ज ायाव</w>
ज गाय
त न्त्र
द निफ्राय</w>
द ला</w>
प रे
फ राय</w>
म थ
म न</w>
र ायाव</w>
र ंगिना</w>
श र्
स ना
स फै
ह रि
ह राखै</w>
ृ त</w>
ै खाय</w>
बा थाव</w>
बा न्दा</w>
बा नानि</w>
ला नाया</w>
जा सुला</w>
था ना
था न्द
था दो</w>
था नानि</w>
खा ला</w>
बि गो
मा न्
गो यै</w>
मो नायाव</w>
मो दाय
सा दोर</w>
हा थ
हा मा
न् च
सि नाव</w>
सि ङैनो</w>
दा बा
दा लि</w>
दा रनि</w>
बे ंगा</w>
िय न</w>
हो म</w>
हो योब्ला</w>
सो नो</w>
मोन ग्रा</w>
मोन नैजों</w>
जो थोन</w>
बो नायनि</w>
जे थो</w>
गु ड</w>
मु श्री</w>
ले ंग्रा</w>
थां गासिनो</w>
सान थौ</w>
नों खि</w>
खालाम ग्रा</w>
बाय ना</w>
बाय सो</w>
बाय ग्रा</w>
दों नो</w>
दु इ
लाय गोन</w>
लाय ोब्ला</w>
जों रू
वा इ
नु हु
बर पे
जु ग</w>
खि न्थि
िया न</w>
गोसो वा</w>
माव बो</w>
राव जोंबो</w>
बार नो</w>
गार ियाव</w>
हु जुर</w>
बै रा
हाब बोयो</w>
हाय ना</w>
सै नाय</w>
ग्र ी
थै नोसै</w>
हां गारिया</w>
दं ब्लाबो</w>
बां नो</w>
गाब ज्र
ओंखार नो</w>
देर नो</w>
सों दों</w>
प्र दे
प्र दी
खन नानै</w>
खर सा</w>
राइजो फोरखौ</w>
पु राना</w>
बरʼ फोरखौ</w>
खाव लायाव</w>
खाव लायदों</w>
लाबो बाय</w>
मिनि खै
फोरमाय ग्रा</w>
........ ....</w>
सानै सो</w>
मोना खैमोन</w>
नागिर ब्ला</w>
गां फा</w>
डि मा
नं खाय
हारि मु
गाम ियारि</w>
दिनै सिमबो</w>
बिलि नि</w>
अर हे</w>
नाजा नायाव</w>
थाम थिम</w>
गान नानै</w>
सालि स</w>
सालि सनि</w>
सालि साव</w>
हिन्जाव फोरा</w>
सेप्ते म्बराव</w>
खोमा दों</w>
गलʼ खौ</w>
गैया जासे</w>
दङ मोन</w>
जारिमि नाव</w>
फान नो</w>
सिन सो</w>
उना व
थुनलाइ खौ</w>
प्रे क
प्रे स</w>
मुलुग खौ</w>
दैदेन गिरिफोरा</w>
मनजु नि</w>
सेंग्रा फोरा</w>
हाजʼवा री
बिगु मै
खान्थि खौ</w>
हौवा नि</w>
बोरै थो</w>
बिथि ंआव</w>
स्कु ल</w>
इयु नाव</w>
सेया राव</w>
थुनफावथाइ या</w>
सम् प
नेहा द</w>
हाजो नि</w>
एफा ग्राफ</w>
खब र</w>
जोहोलाव नि</w>
स्व र</w>
फरायसा फोरा</w>
निफ्राय सो</w>
प्रि न्
जोबा खै</w>
खालामा खै</w>
गोबाव नि</w>
खाबु खौ</w>
कʼक रा
सिन्दु र</w>
गुमु र</w>
सोमबोर ा</w>
जोलै नि</w>
खौरा ंगि
थफ ी</w>
खोरो म
हाख राव</w>
खुसि यै</w>
अलि म्पि
2 7</w>
a t</w>
b o
b e</w>
g ra
अ जाया</w>
अ ंगु
आ उ
आ बा</w>
आ ब्रु
उ दि
उ दया
ए ड
ए प्लि
क ी</w>
ग यो</w>
ग ब्ल
ग स्ला
ज थाय</w>
ण ा
द िय
न बे
न वा
न ीया</w>
न म्बर</w>
फ बनानै</w>
ब से</w>
ब ायाव</w>
भ रम</w>
म ण
म ृ
म ती</w>
र ्ल
स ंग्रा
स ती
बा ङा
बा ब्रा
ला है
ला खि</w>
ला म्फा</w>
जा ल
जा होन
जा नोबो</w>
खा माय
मा राव</w>
गो ना</w>
गो खै</w>
सा राव</w>
हा थिया
गा सेयाव</w>
नाय फोरा</w>
नाय मानि</w>
सि खां
दा वनो</w>
दा जानाय</w>
बे न्
बे हा</w>
बु दों</w>
फा फ</w>
हो नै</w>
हो बोदों</w>
मोन जों</w>
मोन नांगौ</w>
मोन लायनाय</w>
थि ख</w>
से रे
जि ङाव</w>
बुं खो</w>
फो न</w>
खो नायो</w>
फै फिनबाय</w>
मु लि
खाला र
नो लʼ</w>
सान स्रि
सान थाम</w>
सान नैसो</w>
खालाम नायखौ</w>
खु थु</w>
दो न्नानै</w>
दो मै
गाव नाय</w>
र् जा</w>
राय लायनाय</w>
वा री</w>
वा खैमोन</w>
.... ।"</w>
थु दो</w>
थु ंग्रि
रो जा
खां ब्ला</w>
लाइ सि</w>
जाय फ्रा</w>
माव थि
माव नांगौ</w>
माव फुं</w>
हे र</w>
बार जों</w>
बार सोम
टा रनि</w>
टा उन</w>
थाय ोमोन</w>
जोब थे
गेजे रावबो</w>
हु खु
हु गार</w>
होन बा</w>
का इ
हाब फै
दाव सि</w>
फार नैजों</w>
ने म
खै ला</w>
लिर नायाव</w>
हां सो</w>
बिसोर हा</w>
फिन खौ</w>
जौ साय</w>
गोदा नखौ</w>
दं ब्ला</w>
गाब ज्रि</w>
जाब नानै</w>
खर थे
बरʼ खौ</w>
थाव ै</w>
गोजा ननिफ्राय</w>
ख्ल े
आब ौ
आखु फोरा</w>
नागिर ना</w>
सौ है
बाहाय दों</w>
बिजि र</w>
गथʼ फोरखौ</w>
गिरि खौ</w>
गोरो बनाय</w>
उन्दु ग्रा</w>
आथि ंखौ</w>
मन् स</w>
सोदोब जों</w>
राज खान्थिनि</w>
नोजोर ा</w>
पे न</w>
लै थो</w>
सिनाय थिखौ</w>
अल ख
साया नो</w>
बिलिफा ंखौ</w>
ग्रो म</w>
मोसा हा
रों गौ
ट्रे इ
ट्रे जे
हांखो जों</w>
बें क</w>
खामानि फोरखौ</w>
लोम जानाय</w>
बेखेवगा से</w>
बेखेवगा थाम</w>
फोसाव दों</w>
चि त्त
पार् टि</w>
खुलुम बाय</w>
सोमजि नाय</w>
मंग ल</w>
do s</w>
जिरा द</w>
जिरा दखौ</w>
मुगै थाव</w>
धो नि</w>
थ्रो दनानै</w>
बिगिया न</w>
गुसु ङै</w>
बोराय खौ</w>
सिथ ्ला</w>
स्लि म</w>
बह ननानै</w>
हाल मा
लाङा सै</w>
बोलो जों</w>
आरि खां</w>
मोब्ला वा</w>
फटʼ खौ</w>
हटे लाव</w>
मेमʼ रि</w>
रेन्जा रा</w>
सुइ साइ
सानजौ फु</w>
हेफाजा बै</w>
फान्द ाय
बिमाय ं</w>
नायगि रो</w>
खाउ रि</w>
सेक स्पी
देगार खौ</w>
टेबु ल</w>
सोनार नानै</w>
बिनाना वनि</w>
सेना पति</w>
गैला मोन</w>
अबथि रा</w>
ट्राइबेल फोरनि</w>
गोख्रो ङै</w>
एप्लि के
8 0</w>
a r</w>
c i
e p
g h
p lo
w s</w>
ʼ ज</w>
ं नो</w>
ं निफ्राय</w>
अ मि
आ ल</w>
आ सार
आ शा</w>
आ रिफोरा</w>
इ से
उ दै
ए रे
ए खे</w>
औ वानि</w>
क र</w>
क ट</w>
ख नो</w>
ख ोर
ख ंनि</w>
ग म
ङ ोमोन</w>
च र
ज म</w>
ड ु
ड िया</w>
त ाव</w>
थ गाय</w>
द ्रा</w>
ध ा</w>
न म्बरि</w>
ब म
ब ल</w>
म हे
म डे
म बेबा</w>
र फोरा</w>
र बिबार</w>
स ननि</w>
स न्था
ह ब
ह यै</w>
ह मासै</w>
बा दा</w>
बा न्दि
ला नांगोन</w>
ला नानैसो</w>
ला गायनानै</w>
रा ङा
जा ब्र
जा ब्लाबो</w>
जा नांगौ
जा नायजों</w>
जा दब</w>
था खानाय</w>
खा सि
खा नायाव</w>
बि ख्ल
बि दाया</w>
बि न्द</w>
बि सुखे
मा रो</w>
गो नि</w>
मो न्थ
सा रो</w>
सा री</w>
सा लाया</w>
सा ली</w>
हा ले
हा वा
हा न्थ
गा थो
गा हाया</w>
नाय नायनि</w>
नाय निफ्रायनो</w>
सि स</w>
दा क्
दा गि</w>
दा खालि
दा ंग्रो
दा खोर</w>
बे न
बे लʼ</w>
बे खौलʼ</w>
फा बाय</w>
फा लाय</w>
फा खा</w>
फा ख्रि</w>
हो लां
मोन बो</w>
नि रा
नि र्
थि रां
दि ननि</w>
बो नायाव</w>
बो खांनानै</w>
जे ल</w>
जे निबो</w>
से ब</w>
से खौनो</w>
जि क</w>
जि नि</w>
जि बारे
सु नो</w>
सु नाय</w>
सु लाद</w>
गु नि</w>
फि सि
रि न
बुं बाव
बुं जासे</w>
खो ल</w>
खाला मो
ले र</w>
ले ण्ड</w>
थां फिन
नों नाव</w>
नों गौ</w>
खु बै
खु नु</w>
फ्रा इ</w>
दे ग्लाय
दो ननि</w>
सोर बा
सोर बाबा</w>
दु गा</w>
मे न</w>
ब्ला थाय</w>
वा सो</w>
नु थाय</w>
गे टाव</w>
थु र
थु ंग्र
थु बुर</w>
खि नो</w>
िया खौ</w>
खार लाङो</w>
ङा ब्ला</w>
जाय नो</w>
रे स</w>
स् ‌</w>
स् टि
दै थुन</w>
राव आ</w>
थाइ जा</w>
थार नि</w>
थार नांगौ</w>
अन नायनि</w>
पा ट
सं सारखौ</w>
मिथि नाय</w>
फे राखैमोन</w>
थै नि</w>
लों ग्रा</w>
लिर गिरिफोरनि</w>
गाब बाय</w>
टि वा</w>
गाहा मै</w>
नʼ खौ</w>
लोगो फोरजों</w>
मुं राय
मुं मानि</w>
खन साय
गं नानै</w>
जʼ नानै</w>
जʼ यै</w>
थाव थाव</w>
दान सो
फुं नो</w>
फुं खाया</w>
खोम दोना</w>
बादि सो</w>
आना रामनि</w>
ख्ल ि</w>
जिउ वाव</w>
फावथाइ या</w>
आब ्रा
गʼ साइ
जाया खैमोन</w>
ब्रा ं</w>
फं नैसो</w>
मानि नानै</w>
द्र इं</w>
राज खान्थियारि</w>
आव गायाव</w>
बिजिर गिरिया</w>
हार ु</w>
बेर े</w>
सालि निफ्राय</w>
बबे निफ्राय</w>
राजा जों</w>
अजि त</w>
थिं निफ्राय</w>
दाजाब दाया</w>
सावराय ज्लाय
हांखो आ</w>
सोरजि नो</w>
गोन खि</w>
गोन लै</w>
देरहा साद</w>
ख्रि खौ</w>
बाहागो खौ</w>
समाय स्रीया</w>
आग सि</w>
हेर ायाव</w>
सुजु नाय</w>
फावथि ना
लाउ थि</w>
जौगा नाय</w>
बेखेवगा बा</w>
बेखेवगा ब्रै</w>
फोथाय खेबसʼ</w>
अख्रा ंनि</w>
खें ख्रा</w>
बुङा खिसै</w>
नागि रै</w>
आनजा दाव</w>
सोद्रो म</w>
जुना र</w>
हौवा सा</w>
जाफुं सार
जाम् बि
इयु ननि</w>
मेले म</w>
ar e</w>
जांख्रि थाइ</w>
चे न्
बद माइ
आन्दा ज</w>
बिथिं खौ</w>
हेमले ट</w>
जात ्रा
मोग थां
थुलुं सि</w>
हाबि ल
हाबि ला</w>
रोखोम से</w>
गोर्बो नि</w>
गोर्बो आव</w>
महनला लनि</w>
बिज नी</w>
रोङ ि</w>
ग्रे ं</w>
दरबा सिया</w>
el l
ड्र यिं</w>
मैहु रा
दोनथʼ नानै</w>
फंबाय खौ</w>
होख्रा व</w>
खाइ ला</w>
खोमो रनो</w>
लाख ियो</w>
अनजा लि</w>
फुदुं नानै</w>
गान् ध
मुखु ब</w>
दुब्ल ियाव</w>
तरु ण</w>
लेबʼरे ट
जोबथार नायाव</w>
आजा वनो</w>
अमब्रा गं</w>
बरपे टा</w>
बिख्ल ो</w>
7 0</w>
d s</w>
m o
t er
ं बु
अ ʼ
अ नो</w>
अ रखौ</w>
अ भि
आ लि</w>
इ स
इ सा
इ या
इ टा
इ न्दु</w>
इ सारा</w>
उ लाफा
ए रा</w>
ए ष्
ए प्रि
क फा
ख ियो</w>
ख बʼ
ग बʼ
च ौ
थ िय
न बाय</w>
न फोरखौ</w>
प ी</w>
फ ौ
फ टʼ</w>
ब जों</w>
ब बा</w>
य ि</w>
र ायो</w>
र सा</w>
र बि</w>
ल ग्
ल ीया</w>
श ु
स ह
स हाय
स भानि</w>
ह ों
ह र्
ी निफ्राय</w>
ना सो</w>
ना राय
बा म
बा दारि</w>
ला न्थाया</w>
जा बाव
जा जोब
था नाय
था मा</w>
था ङाव</w>
खा ब
खा उ</w>
खा न्दा</w>
बि बो
बि ला</w>
बि जौ
बि दानि</w>
बि दाखौ</w>
गो ल्ल
मो दाय</w>
सा ब</w>
सा लाय
सा लाइ</w>
सा न्थि</w>
हा दो
हा दाब</w>
हा फाय</w>
गा न्नानै</w>
गा गि</w>
नाय थाव</w>
नाय गिदिं
सि ल
सि नखौ</w>
सि कि
दा जा</w>
दा रʼ
बे नोथʼ</w>
बु ध
बु रि</w>
फा खʼ
हो फैदों</w>
सो ना</w>
्रा झा
मोन जायो</w>
मोन ब्लानो</w>
फोर ्
फोर नाव</w>
दि ना</w>
जो आ</w>
जो ङै</w>
से रजों</w>
से रावनो</w>
गु रि</w>
गु मैया</w>
फि न्नाय</w>
मि थि</w>
मि टार</w>
बुं ङो</w>
फो थायो</w>
मु क</w>
मु ङाव</w>
मु कु
आं ना</w>
ले फे</w>
न्द ी</w>
नो मा</w>
नों खौनो</w>
खालाम दो</w>
खालाम नांगोन</w>
खु र</w>
खु लि
दे उ
दे म
सोर जोंबा</w>
दु या
दु रु
वा ल
हर से</w>
हर मʼ
या लाय</w>
गे टनि</w>
नां जाब
बर मा</w>
जु लिनि</w>
खि थेर</w>
िया री</w>
िया वबो</w>
है दिनि</w>
फु वा</w>
खार खोमा
रु प</w>
रु फा</w>
रे न्
रे जि
हि उ</w>
नै सोनि</w>
राव सो</w>
राव खान्थि</w>
थाइ जों</w>
बार िया</w>
थार खौ</w>
जोब नायनि</w>
हु क</w>
अन थाइ</w>
सं स्क
थो आ</w>
साव नाय</w>
जौ मोननि</w>
मै सो</w>
मै खोम</w>
देर बाय</w>
सोम जियो</w>
सोम खोर</w>
खन नै</w>
गं ब्रै</w>
हाम बाय</w>
हाम फे</w>
खाव रि</w>
दान से</w>
दान स्लाय
आख ला</w>
आना रीनि</w>
मोना बो</w>
जिउ वा</w>
जाया ब्ला</w>
सʼ नानि</w>
सुबुं आ</w>
बाहाय नायखौ</w>
लुबै या
डि जि
डि स्क
उन्दु बाय</w>
आथि ंनि</w>
गाम सा</w>
गोग्लै सोनानै</w>
अर दाबाव</w>
न्था नि</w>
फ्ल ायाव</w>
जेन नानै</w>
बाज ैया</w>
ग्ला ं
ग्ला ब
अलʼ क</w>
सिया राव</w>
जाव लिया
लाइजा मा</w>
दाजाब नाय</w>
फान नानै</w>
गसं नो</w>
थिन हर
लाजि नानै</w>
स्ला बनो</w>
फावथि नायाव</w>
सुर नाय</w>
थ्र ियै</w>
... !</w>
गुर लुब</w>
बुङा सै</w>
en c
श्र ी
मुवा खौ</w>
सुथु रा</w>
खुलुम नानै</w>
बिजाब नि</w>
ब्रे कफा
दिन खालि</w>
तितागु रिनि</w>
गिबि यावनो</w>
थुनफावथाइ याव</w>
थाइला लि
चा र्
हाजे व</w>
नोगोर मानि</w>
नोगोर मायाव</w>
लांगो ना</w>
हेमले टा</w>
क्र ʼ
बुब्ल ियाव</w>
बुब्ल ियावनो</w>
रोङा खिसै</w>
windo ws</w>
स्टा र्ट</w>
रिंसार खौ</w>
मनʼ रन्जन</w>
मनʼ महन</w>
दरबा सिखौ</w>
आवा ज</w>
बिखा खौ</w>
सेवा रिया</w>
सानबो लाव
गोथौ यै</w>
गथाय नानै</w>
नालि स</w>
मावफुं नो</w>
अन्द र</w>
मिलि टारि</w>
सानजौ फु
आगो लनि</w>
रमाय ना</w>
गाँ व</w>
आमेरि कानि</w>
बुदा रुवा</w>
सौग्रा व
आबै या</w>
सावख्ल िया</w>
समबा रुवा</w>
सेक्सपीये रनि</w>
सिर ियै</w>
सिलिं खार</w>
सानजा हा</w>
बेखे वनो</w>
जोंथि हा</w>
कलेज निफ्राय</w>
मर निं</w>
सैबार ीया</w>
प्राइभे ट</w>
अंगु बै</w>
जिबारे लि
1 0
1 00</w>
5 00</w>
c h
m i
t y</w>
अ ब्ला
आ रा
इ ल</w>
इ सोरनि</w>
उ कि
उ फ्ले</w>
क र
क ल</w>
ख ृ
ग ी
ग नो</w>
ग खौ</w>
च िये
ज त</w>
ज ियाव</w>
ड ी
द हायनो</w>
ध र
न ोर
न बो</w>
न ङै</w>
प जʼ
प र्ट</w>
फ न</w>
फ र</w>
ब क
ब बाव
ब जबनानै</w>
ल न</w>
स द
स नानै</w>
स ंग्रा</w>
स ंगिना</w>
ह य</w>
ो म</w>
ना गार</w>
बा गा
बा सि
बा रि
बा वा</w>
ला ला</w>
ला ग्रा</w>
ला दो</w>
ला ग्रो
रा ङारि</w>
रा माबो</w>
जा ति</w>
जा लायबाय</w>
जा नांबाय</w>
था ब्लाबो</w>
था बावनो</w>
था लिर</w>
खा सि</w>
बि ना</w>
बि लि</w>
बि थʼ</w>
मा नै</w>
मा सि
मो नि</w>
मो साया</w>
सा त</w>
सा निफ्राय</w>
सा फोरनि</w>
सा फ्रोमबो</w>
गा मा
गा नाय</w>
गा राय</w>
गा रामा</w>
न् सनि</w>
सि उ</w>
सि खाङो</w>
सि ङावनो</w>
दा म</w>
दा बुं
दा ङै</w>
दा बुं</w>
बे ग</w>
बे ंगिरि</w>
बु ङोब्ला</w>
हो फै
हो नोब्ला</w>
सो होर
नि न</w>
थि ंगि
जो लै</w>
बो नाया</w>
बो ख्ल
से न</w>
से खʼनानै</w>
जि र</w>
सु ग्लाय
फि उ
फि दिं
मि न</w>
फै खो</w>
आं नियाव</w>
सान नै</w>
नों दि</w>
खु दै</w>
खु गानि</w>
खु दिया</w>
दे रो</w>
दे हाया
दो नै</w>
सोर मा
मे इन</w>
राय नानै</w>
राय ज्लायनो</w>
गै बो</w>
स्र ीनि</w>
है नायसै</w>
फु क
फु र
फु नायाव</w>
फु लि</w>
खार नाय</w>
रु मा</w>
बाथ े
जाय हा</w>
समा वबो</w>
स् टि</w>
दै थु
दै माया</w>
नै नो</w>
गोसो यै</w>
खे राइ</w>
राव खि</w>
बार बाय</w>
टा री</w>
बाव ैसो</w>
थार मोन</w>
गार नायसै</w>
होन जायो</w>
का प</w>
हाब बाय</w>
पा इ
सं बिजि
ने श्वर</w>
थै जों</w>
लों दों</w>
लों नायनि</w>
हां ख्राय</w>
ग्रा फोरखौ</w>
गाब नायखौ</w>
गाब खʼ
गाब ्बाय</w>
टे लि
ओंखार लांनाय</w>
खाय नोथʼ</w>
सों हरबाय</w>
लोगो खौ</w>
सोम खे</w>
खन ला</w>
गं सेयाव</w>
हाम थार
माहा रिया</w>
पु राव</w>
बिबा नाव</w>
हाद ्रि</w>
हाद रखौ</w>
मोना बिलिनि</w>
गौ मानि</w>
गौ थुम
आखु थायनि</w>
दर सि</w>
ख्रा व</w>
्रे द</w>
गथʼ फ्रा</w>
गां सो</w>
मुलु गा</w>
साइ खे
शान्त ि
फ्ला ङो</w>
बिथां खौ</w>
ति खौ</w>
हार ियारि</w>
खेब नि</w>
जें नानि</w>
जें नाजों</w>
सालि खौ</w>
आला रि</w>
इरा मु
लाखि नाय</w>
लाखि गोन</w>
सिं जों</w>
मिहि र
अना गारि</w>
लिं नानै</w>
दुखु वा</w>
बसुमता रिनि</w>
थिया बो</w>
सोलों थाय</w>
जारिमि ना</w>
दाजाब नानै</w>
दाजाब दा
जाथाइ या</w>
थिन हरदों</w>
गोदो ना</w>
ख्रि नि</w>
बिर हा
खुं नाय</w>
मालाय जों</w>
अन् जि
अन् नायखौ</w>
थाया खै</w>
स्ला य</w>
त् य
थाखो आव</w>
ra tion</w>
सेंग्रा फोर</w>
फिसाज ्लानि</w>
निया बो</w>
जानाय बादि</w>
जानाय खाय</w>
गोरा न</w>
उन थिं</w>
नोंसोर ो</w>
थाबाय नाय</w>
बुथार नो</w>
फ्लां बाय</w>
लें हरदों</w>
बिथि ंनि</w>
थांखि खौ</w>
नार् स</w>
वे ब</w>
धु ना</w>
गाग्लो बनाय</w>
असम िया</w>
थ्रो द</w>
बथ ल
बथ ल</w>
बिहा व</w>
गाज्रि नि</w>
साना खै</w>
आन्दा साव</w>
जागाय नाय</w>
ची ननि</w>
वार् ड</w>
हेमले टनि</w>
देवा नि</w>
थुलुं गानि</w>
प्ले ट</w>
फजʼ नानै</w>
फैफि नाखै</w>
निफ्राय बो</w>
गामि निफ्राय</w>
ओरै बादि</w>
एम फौ</w>
मन्थ ्रिनि</w>
लरे ना</w>
घन् टा
..... ।"</w>
उन्दै निफ्राय</w>
गोरलै यै</w>
फंबाय नि</w>
उखै नाय</w>
दर्बा सिया</w>
दुप साव</w>
so li
मुसु खा</w>
रुगु ं</w>
जायगा फोराव</w>
्लु ंबु
टेक टिभ</w>
रामनाथ खौ</w>
इन्जिनिया रिं</w>
बोखार नानै</w>
सोदोम स्रि</w>
अलके शा</w>
एम्बु वा</w>
लान थ्रियै</w>
परिष दनि</w>
हामबु रा</w>
जेंना फोरखौ</w>
गरन् थʼ</w>
qu y</w>
कंग्रे स</w>
जेने रेल</w>
दुर् गा</w>
किटसे नाव</w>
लक्ष ीम
सप्ता ह
tra g
गोनोखो आरिफोरा</w>
साबाइ स</w>
जान् जि</w>
बिहाव खौ</w>
नेट वार्
जोंरू वा</w>
मण ि
चित्त रन्जन</w>
एष् ट्रा
अनि ल</w>
- '</w>
. ,</w>
1 6
7 5</w>
c ap
f i
p h
u s
अ जाखौ</w>
अ भि</w>
आ प
आ मु
आ जाय
आ खाय
आ वबो</w>
इ ज
ओ न्
ज नाय</w>
ज थाइ</w>
ट न</w>
ण ा</w>
त ाया</w>
द ल</w>
द हाय
द खर
न हा</w>
न मोना</w>
फ ब</w>
फ रा</w>
ब क्
ब ंग्रा</w>
भ ाया</w>
म बाइ
र ह
र फोरखौ</w>
व े</w>
श ननि</w>
स नानि</w>
ह नाय</w>
ह ब्रा</w>
् य</w>
ना ल</w>
ाय बाय</w>
बा नाया</w>
बा ज्ल
बा वाखै</w>
ला ल</w>
ला गासिनो</w>
ला गै</w>
रा न्दि
जा लिया</w>
जा होनाय</w>
जा खाङो</w>
जा हैबाय</w>
जा नाङो</w>
जा नांदों</w>
जा बोनो</w>
जा ल्ला</w>
था ला
था नायावनो</w>
खा लायनानै</w>
बि ट</w>
बि नाव</w>
बि स्
बि माइ
बि गोमा
बि प्ल
बि माजों</w>
गो फोन</w>
सा मा
सा ब्रै</w>
सा गु</w>
सा थामसो</w>
हा थाय
हा थार
हा लुवा</w>
गा रिजों</w>
दा नायनि</w>
दा गाब
बे द</w>
बे रा</w>
बे ण्ड
बे खौसो</w>
बु द
बु यो</w>
हो ब्लाबो</w>
हो यासै</w>
सो लायनो</w>
मोन नाव</w>
थि क
थि दों</w>
दि खार</w>
बो गौ</w>
जे रावखि</w>
से व</w>
सु ला
सु खौ</w>
सु नै</w>
फि ना</w>
गि र</w>
बुं नायखौ</w>
बुं लांदों</w>
फो साव</w>
खो ब
मु सा
मु क्
मु लियाव</w>
मु लिनि</w>
आं निनो</w>
थां फा
थां नाया</w>
न्द ों
न्द ्रा</w>
नो म्
नो गोरा
सान खौ</w>
सान सु
सान नायखौ</w>
सान स्रिया</w>
नों हालाय</w>
खालाम खो</w>
खालाम गासिनो</w>
दु ब्लि
मे लानि</w>
लाय नाया</w>
नु जायो</w>
नु हरबाय</w>
लां ब्ला</w>
लां फिनो</w>
गे ं</w>
गे वा</w>
गे साव</w>
गे टखौ</w>
गे बें</w>
ाया वबो</w>
नां लाय</w>
नां नोसै</w>
.... "</w>
जु ल
थु रा</w>
खि था</w>
है नायनि</w>
फु न्नानै</w>
खार दै</w>
खार खोमा</w>
जाय ि</w>
रे कर्
समा जखौ</w>
दै ख
दै मु
नै निफ्राय</w>
गोसो आबो</w>
-- -"</w>
थाय नानै</w>
गुबु नजों</w>
थार सै</w>
फिसा ज्लाया</w>
हु सिया
हाब हैयो</w>
दाव हा
दाव सा</w>
पा ल</w>
ने नो</w>
मिथि होदों</w>
लिर गिरि
लिर गिरिफोरा</w>
फराय बाय</w>
ग्रा ं</w>
फिन नायसै</w>
गाब नायनि</w>
मै रा
मै ला</w>
सों दोंमोन</w>
सों नायसै</w>
बाद ल
गं गार</w>
ष् टनि</w>
हाम गोन</w>
ओंखा मखौ</w>
थुन लाया</w>
सम निफ्राय</w>
बिबा राव</w>
बिबा रा</w>
बिबा जै</w>
गोजा व
भा व
आइ लि</w>
खोम सिया</w>
आना री
नानै लʼ</w>
नानै ब्लाबो</w>
आब ्रा</w>
नागिर बाय</w>
गʼ साइ</w>
ण् डि
जाया बो</w>
सʼ वा</w>
आय दाया</w>
बाहाय नायाव</w>
ग् र</w>
आथि ङा</w>
साय खं</w>
हारि मुवा
सोदोब आ</w>
फ्ला नानै</w>
अर नानै</w>
माहाजो नखौ</w>
नाजा ब्लाबो</w>
हार ियाव</w>
फ्ल ि</w>
दाय ै</w>
जें नाया</w>
हिन्जाव फ्रा</w>
रंजा लिनि</w>
बेनि ख्रु
साया बो</w>
नोंथां मोना</w>
नोंथां मोननि</w>
गलʼ आ</w>
बेल श्री</w>
गैया लै</w>
मोसा हारिनि</w>
मद द
होम ब्लानो</w>
ट्रे न्स
जोहो लावा</w>
थिन दों</w>
बें पार्
गोमो बाय</w>
थों जोङै</w>
खुं नो</w>
अन् नायाव</w>
थाया नो</w>
थाया वनो</w>
जाहो ना</w>
सिखार बाय</w>
स्ला बा
बुर ्लुंबु
थौ दो</w>
सुर थ</w>
जौगा खां</w>
जौगा खांनायनि</w>
बेखेवगा डʼ</w>
मनजु खौ</w>
फां से</w>
रुवा थि
रुवा थिखौ</w>
गोब्रा बै</w>
गोजौ याव</w>
बाजि निफ्राय</w>
कक ्राझा
नोंसोर बो</w>
सोमावसार नो</w>
श्र ीया</w>
साइके लजों</w>
रान ी</w>
फिसाइ या</w>
सुथु र
दिल्ल ीनि</w>
बिबार खौ</w>
गाइखे राव</w>
स्क ्रि
स्क ्रल</w>
अराय था</w>
आल ौ
रमे ना</w>
थांखि जों</w>
ओनसो लफोराव</w>
मुगै नाय</w>
खुर नानै</w>
फाग्ल ि
गोलै नानै</w>
बैसा गु</w>
आइजो फोरा</w>
प्रेमध रनि</w>
बिजा बाव</w>
नायगिर नाय</w>
बथ लखौ</w>
सिम ना</w>
शि ब
रेब ग्रा</w>
जालाय खो</w>
थाखाय लʼ</w>
टेबि लनि</w>
ची न</w>
हाजो आव</w>
सलʼमा गिरि</w>
डाक् टार</w>
बुब्ल ि</w>
es s</w>
खं ख्ला</w>
जाइ लि</w>
सोलो जों</w>
बोथोर ा</w>
अनजि माया</w>
बिखा निफ्राय</w>
बोराइ खौ</w>
बोराइ दब</w>
दायनि गिरि</w>
मन्थ ्रिया</w>
बिग्र ायारि</w>
साजाय नानै</w>
स्ट ु
गाग्लोब नायनि</w>
एबसु वा</w>
खिर खि
नारे ं</w>
नारे ंगु
मिल ौ
होम् बाना</w>
खोमो र
गोरोन्थि खौ</w>
सिफाय नानै</w>
गमा मा</w>
रिक् सा</w>
बङाइ गाव</w>
फुन नांगौ</w>
बिस नायाव</w>
आरति खौ</w>
बिथ राइ</w>
बिष नि</w>
दोलो आ</w>
दौल द</w>
ज्रे म</w>
गुस्लाय नाय</w>
खामफ्ला य</w>
अदालगु री</w>
स्टʼ र</w>
फ्रोम खौबो</w>
कन्ट ्रल</w>
खान्था ल</w>
मोनसिं सिं</w>
हाथ र्
गाबज्र ियो</w>
हाथिया र</w>
एरे ष्ट</w>
हान्थ ु</w>
लेबʼरेट रीयाव</w>
हों गो</w>
संस्क ृत</w>
) :</w>
c al</w>
e d
i b
n d</w>
p er
u l
अ उ</w>
अ राव</w>
अ न्नानै</w>
आ सि
इ स्ला
उ स</w>
ए ला
ऐ खालि</w>
ख ङाव</w>
ग म</w>
ग दाय</w>
ग बिन्द</w>
च ा</w>
ज र्
ज रा</w>
ठ ा
ड कु
थ ं
थ क</w>
थ ्रा
न सो</w>
न र्
न फोरनि</w>
ब रा
म द</w>
म र्
र जि
ल हेना</w>
स ल
स पे
स फैबाय</w>
ह स्पि
। ...</w>
ना ʼ</w>
ना जा</w>
ना गौ</w>
ना गारनो</w>
बा ल</w>
बा नायनानै</w>
ला बासिनो</w>
रा गा
रा न्नानै</w>
रा भा</w>
जा ग्रो
जा हैनो</w>
जा नानैबो</w>
था लि
था लो
था रो
खा न</w>
खा नायखौ</w>
खा लायनाय</w>
बि फ
बि ल</w>
बि रि</w>
बि जोंनि</w>
बि बु</w>
बि थाखौ</w>
बि दुं</w>
बि ख्लो
मा ना
मा मोन</w>
मा सु</w>
मा माय</w>
मो दै
मो सायै</w>
सा फोरखौ</w>
हा राम
गा र्
गा राय
गा न्दा</w>
गा लांनाय</w>
नाय हर</w>
नाय गार</w>
नाय निबो</w>
सि फि
सि बिनो</w>
सि थर</w>
सि थारनो</w>
सि येल</w>
दा द</w>
दा बा</w>
दा रेन्द्र</w>
बे ना</w>
बे सो</w>
बे खौ
बे जोंनो</w>
बे याव
बु न्दि
बु ध्
फा ल
फा न्नानै</w>
फा फि</w>
हो खो</w>
सो ल</w>
मोन सेनि</w>
मोन फ्लां
मोन नैसो</w>
मोन थिनो</w>
फोर खौलʼ</w>
थि फु
बो जोंनि</w>
जे र</w>
जे न्नाय</w>
से ं
सु र</w>
सु बि
सु न्द
सु निया</w>
गु मै
फि साय
रि लि
रि फोर</w>
गि सि</w>
मि न्थिया</w>
मि थियै</w>
बुं लां
बुं फैयो</w>
बुं बावनो</w>
बुं लांनाय</w>
फै फानाय</w>
मु रि</w>
लि जों</w>
आं खालाव</w>
आं बोथʼ</w>
थां नांगौ</w>
न्द ्रा
सान स्र
सान फा</w>
सान खो</w>
सान थ्रि
नों बादि</w>
खालाम जानाय</w>
खु गु</w>
दे हा
दो गोन</w>
बाय सै</w>
गाव हा</w>
सोर जों</w>
सोर खार</w>
सोर बाया</w>
लाय ो
जों ना</w>
वा ला</w>
नु हरनानै</w>
मान िया</w>
ाया थʼ</w>
जु वा</w>
जु वारि</w>
खि ला</w>
खि बु</w>
है नि</w>
फु ल
खार बोनाय</w>
ङा खिसै</w>
स् सा</w>
दै थाय</w>
दै खांनाय</w>
दै खांदों</w>
नै जि</w>
ख्र ब</w>
गोसो खांनानै</w>
खे र
माव ै</w>
बार से</w>
बाव दोंमोन</w>
हम दोंमोन</w>
थे र
बै जों</w>
बै याव</w>
फाव जों</w>
होन नाया</w>
होन ब्लानो</w>
का श्
हाब ्रा
हाब हैनानै</w>
दाव खा</w>
हाय ना
हाय नारि</w>
अन फाव
पा उ
मिथि गोन</w>
मिथि होनाय</w>
सै लै</w>
थो नाय</w>
ग्र ं</w>
क् ष्
लिर बाय</w>
दं खाय
्रि खौ</w>
गाब खाङो</w>
दोन है
खाय दा</w>
सों नायाव</w>
सों नाया</w>
टि उ
गाहा मैनो</w>
नʼ निफ्राय</w>
नʼ खर
बिफा ङाव</w>
लोगो फ्रा</w>
प्र शान्त
खन सेबो</w>
मोन् नायखौ</w>
ष् ण
ष् टि
ष् ट्रे
राइजो याव</w>
खाव लाइ</w>
बेसे दि</w>
दिन्थि नायनि</w>
दिन्थि नायाव</w>
दान नो</w>
हाया र</w>
हाया खैसै</w>
आख ल
आख ʼ</w>
रां खान्थि</w>
ख्ल ं
मोना नि</w>
मोना सै</w>
गोर बो
आब हावा</w>
शा न्त</w>
डा इन</w>
जाया खैसै</w>
दर लाया</w>
बिना रामनि</w>
डि टेकटिभ</w>
सोदोब फोरखौ</w>
आव थायनो</w>
दिहु न्नाय</w>
कि लʼ
बिजिर सालियाव</w>
राजा फोरनि</w>
बोहै थिनि</w>
खाफा ला</w>
लिं हरदों</w>
सान्द ु
साया वसो</w>
गोनां नि</w>
थिया नो</w>
बाथ्र ायानो</w>
मद न</w>
होम ब्लालाय</w>
रों नाय</w>
ब्लि उ</w>
जाथाइ याव</w>
खरʼ वा</w>
हांखो फोरनि</w>
कम्पिउ टार
भु ष
गोदो निफ्रायनो</w>
थुनलाइ गिरि</w>
गोमा नानै</w>
धोरो मा</w>
सिख्ला सा</w>
200 9</w>
200 7</w>
खाम फ्लायाव</w>
आग र</w>
आग ष्ट</w>
अन् नायनि</w>
खिन्था बाय</w>
बुर जा</w>
स्रां नानै</w>
त् ति</w>
इन् जु
थुम नानै</w>
फोजोब नाय</w>
सेंग्रा नि</w>
गुर ु</w>
रुवा थिया</w>
हार् ट</w>
साम ब्राम</w>
यु मु
जानाय लाय</w>
सोमावसार नायाव</w>
बिलाइ स्रिया</w>
मुवा नि</w>
गुवाहाट ीयाव</w>
नार्जा रीनि</w>
सिगां निफ्रायनो</w>
सुथु रखौ</w>
नायजाब गिरिया</w>
बुथार नायनि</w>
लिया बो</w>
मिजि ंखौ</w>
ख्ला य</w>
रायज्लाय नाय</w>
थर थिं
इयु नखौ</w>
ब्रे क</w>
अजय खौ</w>
खान्थ िया</w>
सेया र</w>
गिबि सिन</w>
बिजा मादै</w>
मिनिस्ल ु
जान गाराव</w>
बिगिया ननि</w>
फसं नाय</w>
बिहा वनि</w>
यो ब्लाबो</w>
फालांग ियाव</w>
लासै यै</w>
बिनहा रीखौ</w>
देवा न</w>
मोग थाङाव</w>
एम् फौ</w>
नी ला
हाबि लाया</w>
नायजा बा</w>
सुखु नि</w>
तुला रामनि</w>
नायबिजिर नो</w>
नोम फाया</w>
प्रग्रा म
बी न</w>
लाङा खै</w>
बेफोर बादि</w>
फोसाब नाय</w>
ओरै हाय</w>
उदु राम</w>
सेवा रिनि</w>
बेग खौ</w>
दल द</w>
जोनोम गिरि</w>
कैला श</w>
डिस् क</w>
आरति नि</w>
इनफरमे सन
बहा थो</w>
मेन् टनि</w>
गसाइ या</w>
्लु ब</w>
मावफारिया फोरा</w>
हाखि मा</w>
ct o
सानबोलाउ रि</w>
बाग दाव
हानजा नि</w>
ta in</w>
एका डे
रादाब खौ</w>
रेल वे</w>
सरखार नि</w>
एब सु</w>
कʼकरा झार</w>
अलख द</w>
बदमाइ स</w>
इसा दि</w>
चौ धु
बबाव बा</w>
मबाइ ल</w>
! !"</w>
- [</w>
- !</w>
2 9</w>
d er</w>
d ate</w>
f or
i c</w>
j ec
o cto
s h
t u
v en
w w
आ फ
आ ह
आ मो
आ नै</w>
आ ग्रा</w>
ए ल
क लि
ख था
ख न्थ
घ ि
ज ग
ज रा
ज थʼ</w>
ट स</w>
ड ʼ
ड ाय
त ्</w>
द ख्
ध े
न ल
न सेल</w>
प खौ</w>
ब ल
म ʼ</w>
म बाय</w>
म ीया</w>
य नि</w>
र फि
र या
ल क्ष्
स मे
स फायाव</w>
ह सिया</w>
ी जों</w>
ना मा
ना थिं</w>
बा क
बा लां
बा गाव</w>
बा ग्लाय
ला ल
ला जियो</w>
रा मोन</w>
रा खे
रा ङाव</w>
रा हाया</w>
रा मोन्
जा ला
जा फै
जा ला</w>
जा फैबाय</w>
जा खांनाय</w>
जा खांनायनि</w>
जा थारदों</w>
जा दोंमोनब्लाबो</w>
जा दोंब्लाबो</w>
था फै
था हैयो</w>
था थोंसै</w>
था ङो
खा इ</w>
खा म्
बि सो</w>
बि बां
बि थʼ
बि थाङा
मा वा
मा फा</w>
मा लाया</w>
मा सिखौ</w>
मा स्टा
गो द
सा ख्र
सा दु</w>
हा नानै</w>
हा दोर</w>
गा न्दु</w>
नाय ब्लानो</w>
सि मानि</w>
सि थाबनानै</w>
दा थां</w>
दा हाखौ</w>
दा खालाम</w>
दा गाब</w>
बे लनि</w>
बे राम
बु यै</w>
बु जिया</w>
फा उ
फा फ
फा ला</w>
फा नजा
हो सो</w>
सो लाव</w>
सो माव</w>
मोन लाय</w>
मोन थार
मोन जानो</w>
मोन थायनि</w>
मोन लोङा</w>
नि दाननि</w>
नि फ्राइ</w>
फोर बो
फोर बादि</w>
बो खांनो</w>
जे ब्ला
जे न्नानै</w>
से बनानै</w>
से यैनो</w>
जि न
सु दʼ</w>
सु बुङा
गु गुरु
फि थाइखौ</w>
फि रफि
मि ला</w>
खो बनानै</w>
फै सालियाव</w>
मु स्रिखौ</w>
आं हा
आं खौबो</w>
आं निया</w>
ले खा
ले न्थ
ले ण्डनि</w>
थां खु</w>
न्द ोंमोन</w>
सान खालि</w>
सान फ्लां
सान नैनि</w>
खु नो</w>
खु गा
खु थार</w>
खु द्रि
दे नाय</w>
दो हो</w>
बाय थʼ</w>
गाव सो</w>
र् क
दु ल</w>
दु थां</w>
मे डि
राय ना</w>
लाय ग्रा</w>
नु यै
हर ै</w>
लां नायाव</w>
लां नायखौ</w>
या ब्ला</w>
ाया सो</w>
नां गो
स्र ो</w>
जु ला
थु ंगे
िया व
है नांगौ</w>
फु ट</w>
खार गʼ
रु ब</w>
रु बि
रु बु</w>
म् बा
लाइ न
लाइ ट</w>
जाय फोरा</w>
स् पे
हि स्रि</w>
नै लʼ</w>
माव ब्ला</w>
राव नोबो</w>
हे न्दे
थाइ जौ</w>
बार ʼ
टा ल</w>
टा रखौ</w>
बाव ैनो</w>
बाव खुंग्रि</w>
थार जा</w>
गार गोन</w>
फिसा फोरा</w>
फाव नि</w>
फाव खौ</w>
होन नानैबो</w>
होन थेयो</w>
का छा
दाव हारु</w>
न्थ ियाव</w>
हाय ैयाव</w>
अन सुमै</w>
पा न
ने ट</w>
मिथि खा</w>
मिथि गौ
सै नो</w>
के डा
के नसेल</w>
ग्र ायाबो</w>
लों गोन</w>
लिर नाया</w>
ता नि</w>
फराय नायाव</w>
फराय सालि</w>
फिन दोंमोन</w>
जौ मोन</w>
आफा खौ</w>
देर दों</w>
सों नायनि</w>
गाहा म
लोगो आ</w>
प्र साद</w>
बाथ्रा जों</w>
मोन् नाव</w>
बरʼ वाव</w>
स्रा व
बेसे ननि</w>
गोजा व</w>
एसे नोसै</w>
........ ......</w>
बय जोंबो</w>
बय निख्रुइबो</w>
ख्ल ु
गोर ों
आब ʼ
आखु जों</w>
आखु थाय
जाया मोन</w>
सौ रा</w>
बाहाय नायनि</w>
बिना राम
न्दा खौ</w>
गथʼ फोरा</w>
नं थारगौ</w>
उन्दु यो</w>
साय ख
साय ना
हारि फोरा</w>
माखा सेया</w>
नांगौ वा</w>
आव ग्रि
दिहु न</w>
बिथां खिनि</w>
दुर्जा ंखौ</w>
बिजिर गिरि</w>
नाजा व
नाजा गासिनो</w>
थाम जि</w>
पे के
सालि सा</w>
सिं खौ</w>
सिं खाव
राजा फोरा</w>
अना रिया</w>
लिं हरनानै</w>
बेनि बो</w>
बसुमता री
बिलिफा ङाबो</w>
ग्रो ब</w>
ग्रो न</w>
गोम सार
जाव ले</w>
मोसा नि</w>
ंग्रा ं</w>
लाइजा मनि</w>
रिया बो</w>
दिहुन बाय</w>
रों ग
ट्रे याव</w>
ट्रे क्टर</w>
सिन बाय</w>
गेले नो</w>
हांखो आव</w>
गोबा ङानो</w>
भु मनि</w>
गोन बो</w>
गोमो नानै</w>
डे न
थाया बो</w>
खिन्था नानै</w>
अरु नखौ</w>
फोरों गिरिया</w>
लोम साव
लोम जानानै</w>
अब ंनि</w>
ra c
बारा ब्ला</w>
श् व</w>
सेंग्रा जों</w>
खौरां गा
गोब्रा ब
बाजि बाय</w>
फाहाम थाय</w>
गिदिं बो
द्रा इ
रान नो</w>
फाइ लनि</w>
मेहेर नां</w>
बेला सियाव</w>
पार् टिनि</w>
co n
co m</w>
मुंखʼ नाय</w>
जेसे खि</w>
संसा रा</w>
हाबाफा रिजों</w>
दिन निफ्रायनो</w>
ख्रे ब
खान्थ ियाव</w>
गिबि याव</w>
बिजा बा</w>
जी ब</w>
रेब तीया</w>
बुहु माव</w>
lo quy</w>
सुशान्त नि</w>
दैमा लु</w>
खुदिया फोरा</w>
मोग थां</w>
देंखो जों</w>
नी ल
फोनां जाब
गावबु रानि</w>
ac e</w>
जुजि गोन</w>
आन ज्र
मुला म
एरै नोथʼ</w>
मारु टि</w>
निफ्राय बा</w>
दावबाय नायनि</w>
गिला स</w>
नौ नारि</w>
माउ जि</w>
होआ खै</w>
घा ट</w>
खिन्थ ाया
com p
सय थि</w>
मदा राम</w>
लाहा रीनि</w>
प्रसे न
सरासन स्रा</w>
बेंग ल</w>
सुस्रां नो</w>
रुफा थिया</w>
दमा सुवा</w>
बेनो दि</w>
फार्से थिङै</w>
होवा खिसै</w>
बिबʼ नि</w>
मुहि नि</w>
हाये नारि</w>
गरन् थ</w>
da y</w>
सुवा मि</w>
फालो से</w>
गगल् स</w>
कर्ण ियाखौ</w>
ग्रीमउइ गा</w>
मत े</w>
जानो हागौ</w>
महि ला
थेव ब्लाबो</w>
नंमार गौ</w>
गदʼ खौ</w>
गाज्र ियै</w>
टेबो ल</w>
दरलाय नि</w>
उदया चल</w>
नबे म्बर</w>
खालार खालि</w>
थुंग्रि खौ</w>
गाथो नाव</w>
थिरां था</w>
आब्रा म</w>
दुया री</w>
थाइलालि आ</w>
गामा खालि</w>
soli loquy</w>
दागाब सै</w>
हारिमुवा रि</w>
ib m</w>
हाराम जा
octo ber</w>
राखे बा</w>
9 0</w>
: \
? ?</w>
? ''</w>
a li
e t</w>
i i</w>
n a
r y</w>
s c
s en
u t</w>
w il
y es</w>
अ ंग
अ न्जा
आ दुं
इ सि
इ सोर
इ सेबो</w>
उ न्
उ दैनि</w>
उ त्त
ए मे
ए टा
क ्रे
क पि</w>
ख ियानो</w>
ख ृष्
ग वा</w>
ग ला</w>
ग राय</w>
ग नायनानै</w>
ग हेना</w>
च न</w>
ज बाय</w>
ज रʼ
ट मे
ड ाव</w>
ड ्रे
ड ब्लिउ</w>
ण ी</w>
त ्रि
द सेनो</w>
द न्दि</w>
ब बि</w>
भ ग
म स्
म खि</w>
य े</w>
ल खि</w>
ल ख्रा</w>
व र्ल
श ्रा
स य</w>
स नि
स ंग्र
ह ौ</w>
ह ्र
ह सि
ो न</w>
् ड</w>
ना न</w>
ना था</w>
ना थʼ</w>
बा दों</w>
बा ल्
बा नखौ</w>
बा ख्रि</w>
बा बांसिन</w>
बा जार
ला ब
रा न्दि</w>
जा गि
जा नु
जा होनानै</w>
जा लायो</w>
जा ंगि
जा बोनाय</w>
जा हैयो</w>
जा थारबाय</w>
था उ
था बो</w>
था बाव
था बोदों</w>
था ंग्रो
बि थायाव</w>
बि सान</w>
बि साइ</w>
बि लिरनानै</w>
मा था</w>
मा वाखै</w>
गो मोन</w>
गो ग्
गो रायै</w>
मो ख्रा</w>
मो सायो</w>
सा मा</w>
सा फि
सा खा</w>
सा थाम
हा लु
हा नाया</w>
हा थर
गा द
गा मोन</w>
गा रै</w>
नाय ब्लाबो</w>
नाय ग्रा</w>
नाय ैनो</w>
सि नै</w>
सि ला</w>
सि लाय</w>
दा मोन
दा मोन</w>
दा न्नानै</w>
दा हायाव</w>
बे ज</w>
बे ब्
बे फोरनो</w>
बे बायदिनो</w>
बु ङो
बु जिया
फा बा</w>
फा रागा</w>
हो बो
हो ग्रा
हो फैबाय</w>
हो नायमोन</w>
मोन बो
मोन निफ्राय</w>
मोन नैनि</w>
मोन नैबो</w>
फोर माय</w>
बो दि</w>
बो थों</w>
से मि
से सो</w>
सु न
सु पार</w>
ंग ौ
गु द</w>
फि ट</w>
फि फा</w>
रि फ्रा</w>
मि ञ
मि ब
बुं फोर
बुं नांगोन</w>
फो रावबो</w>
खो नो</w>
फै साली</w>
मु र
मु जि
मु थि</w>
मु स्रिया</w>
ले ब</w>
थां फानो</w>
सान नांगौ</w>
सान थामनि</w>
खु म
खु सिजों</w>
बाय दोंमोन</w>
बाय ब्लाबो</w>
गाव ा
खौ सेथि</w>
दों गो</w>
मे लनि</w>
मे म्बर
राय जि
राय ज्लाय</w>
लाय दो</w>
वा खौ</w>
वा वबो</w>
नु जानो</w>
नु मारनो</w>
हर ब्ला</w>
लां दो</w>
लां नोसै</w>
गे देर
नां बाव
.... ...।</w>
जु लु
जु लाइ</w>
जु जाइ
जु नैनो</w>
थु खै
खि नाय</w>
खि बु
खि थिर</w>
िया सो</w>
है नायाव</w>
फु नो</w>
खार ु</w>
खार लुं</w>
रु पा
म् प
लʼ सै</w>
बाथ ʼ</w>
रे दि</w>
दै नो</w>
दै नानै</w>
दै लो</w>
दै फां</w>
नै खौबो</w>
गोसो खाङो</w>
माव नायाव</w>
माव फारिया</w>
बार आ</w>
बार फुनाय</w>
ब्र ु</w>
हम था
हम ख्र
जोब ब्ला</w>
गार बोनाय</w>
थे नो</w>
बै खौ</w>
बै फोर</w>
होन लाय</w>
होन ब्लाबो</w>
का रजि</w>
का न्त</w>
दाव बʼ</w>
राइ ट</w>
अन गा</w>
अन लायनायाव</w>
सलʼ जों</w>
पा न्जा
पा वार</w>
मिथि ंग
फे ं
फे ब्रु
थै ब्लाबो</w>
लों नायाव</w>
खʼ नायाव</w>
फराय ग्राफोरनि</w>
ग्रा म</w>
जौ गा</w>
आफा फोर</w>
गाब गु</w>
ओंखार दो</w>
मै यानि</w>
सों फिनो</w>
थʼ नो</w>
टि केल</w>
नʼ वा</w>
नʼ आव</w>
बाद िय
बाद िया</w>
मह ननि</w>
सोम दोननि</w>
मुं राइ</w>
गं सेबो</w>
हाबा फारिया</w>
नाया सो</w>
ष् टार</w>
माहा रियाव</w>
नङा दा</w>
दिन्थि फुं
लाबो गोन</w>
लाबो दोंमोन</w>
एसे नो</w>
हाया वनो</w>
आख ाया</w>
हाद रा</w>
रां खान्थियारि</w>
बय नोबो</w>
बय निख्रुइ</w>
खोम सि
खोम सिनि</w>
ख्ल ʼ</w>
गौ बा</w>
गौ थुम</w>
आब ु</w>
गʼ ला</w>
जाया मानो</w>
सʼ न
लुबै नाया</w>
हौ वाया</w>
बेखेव फा
उन्दु ना</w>
उन्दु ग्रायाव</w>
आफाद खौ</w>
जोनो मनि</w>
गोजो न्नाय</w>
नांगौ नो</w>
दिहु न्नो</w>
कि ं</w>
कि रि
बिख ं</w>
हार सिङैनो</w>
गान नो</w>
राम च
गोख्र ैनो</w>
बिसि जों</w>
आर ज
आर ʼज</w>
सिं आ</w>
हिन्जाव फोर</w>
हिन्जाव फोरनि</w>
सान् नायखौ</w>
रंजा ली</w>
अल ं
अल सिया</w>
बाज ै
तु ला</w>
खोमा ना</w>
गुवा रै</w>
19 5
दौ नानै</w>
दौ दि
दौ ब्लाबो</w>
सिया न</w>
सिया लफोरा</w>
गोम ायो</w>
रिया नि</w>
in e</w>
गर न्थ
सिन दों</w>
लाया जासे</w>
नुजा थियो</w>
सोरजि लु</w>
बें गा
देरहा ग्रा</w>
थुनलाइ यारि</w>
धोरो मखौ</w>
सिख्ला फोरा</w>
सिख्ला फोर</w>
सिख्ला फोरनि</w>
200 0</w>
th at</w>
लाजि नो</w>
खैफो दखौ</w>
अन् नाया</w>
खन् थाइनि</w>
स्ला ब</w>
बुर खायनो</w>
फोरों नाय</w>
सिमा ङाव</w>
सुजु गिरि</w>
अम ल</w>
भि र</w>
गुर लाब</w>
हार् ड</w>
गोरा सिन</w>
गाबो ननो</w>
नोंसोर नो</w>
साइके लनि</w>
होन् नानैबो</w>
बोसोर से</w>
नायजाब खौ</w>
बुथार नानै</w>
फैया मोन</w>
बिजाब फोरखौ</w>
रायज्लाय बाय</w>
जै मती</w>
कम न</w>
सोलाय नायनि</w>
मेले म
सोलि नो</w>
अपारे सन</w>
बिजा मा
बिजा थि
थ्रो द
नरे श
जाहै दों</w>
ज् व
सम् फ
जालाय दों</w>
लोर बां
रुजु न
जायो ब्लाबो</w>
थियेटा रा</w>
फालि नायनि</w>
देंखो आ</w>
बायजो आव</w>
मोनथि गौ</w>
सरका रा</w>
गोमजोर ा</w>
फरायसा फोरनि</w>
जाइ ली</w>
बुंथि गिरि</w>
फोसाब नो</w>
खोख्ल ैनो</w>
ma n</w>
उदु वा</w>
बोलो खौ</w>
सुमि लानि</w>
आरि मु</w>
बराय नानै</w>
एंगार नाय</w>
अक् त
अक् सिना</w>
पुलिस फोरा</w>
टारने ल</w>
आम था</w>
होखार नो</w>
सेब खां
नारे ं
जार् डा
मैहु राव</w>
हिनजाव खौ</w>
उथ्रि नो</w>
गिख्रं थाव</w>
हाग्रा मा</w>
होख्रा ं
दल र</w>
फरे ष्ट</w>
जोनोम फु
no t</w>
कन् ट्रा
बिहामजो खौ</w>
कैला शा</w>
रौ निया
सिखाव ै</w>
हेफाजा बाव</w>
जथुम् मायाव</w>
रहे ला</w>
गुस् थि</w>
खौरा ंगिरि</w>
दुर जां</w>
हांख्र ायनाय</w>
फार्से थिं</w>
नौना रिफोरखौ</w>
दन्द ी</w>
गुदु ङाव</w>
आन्जा द</w>
खामफ्ला इ</w>
जवा नफोरा</w>
साफ्रा सी
बरगया रीया</w>
दोहोरो म</w>
गन तन्त्र
पाब्लिके सन
फिसौ फोर</w>
हरे न</w>
भुटा न</w>
दोहो न</w>
डाक्ता र</w>
दङʼ मोन</w>
कृष् ण</w>
पलि अʼ</w>
ीया न</w>
खोला हा</w>
थिखा दार</w>
जिल्ल ायाव</w>
प्रफे सार</w>
कमे दि</w>
मोख थां</w>
सिफ ायनो</w>
खायसे बा</w>
इज् जत</w>
मिनिखै रो</w>
अलिम्पि क</w>
सती श</w>
सेकस्पी यारनि</w>
एप्लिके सन</w>
gh t</w>
plo t</w>
इसे बां</w>
enc y</w>
एष्ट्रा गʼ
इज राइ
बिस् ति
हाथर् खि</w>
सिफि निफ्राय</w>
युमु ना</w>
एकाडे मी</w>
गुगुरु ब</w>
मेडि केल</w>
नील कमल</w>
प्रसेन जित</w>
:\ ></w>
wil l</w>
खृष् टा
वर्ल ्ड</w>
1 4
1 7
2 3
2 00</w>
a s</w>
c ell
g re
h er
p i
s a
s er
t e</w>
u s</w>
v i
ʼ वाव</w>
अ ख
अ ह</w>
आ ब्
आ लु</w>
आ गर
आ गोलाव</w>
आ गोमा</w>
आ न्दो</w>
आ सोल</w>
इ मार
इ निं
उ प
उ र्
ए क्
ए इस</w>
ख फा
ग थ
ग ब</w>
ग नाय</w>
ग हे
च नि</w>
च न्द
ज म्
ज ब्
ट िया</w>
ट र्स</w>
ढ ़
थ रायना</w>
द बाय</w>
द फा</w>
द द्र
द बथ
ध न
ध र्
न िय
न ीनि</w>
फ ल्
ब न
ब खʼ
ब माखौ</w>
ब न्दाया</w>
ब खʼनानै</w>
भ ʼ
भ ट</w>
म स
म त</w>
म ायाबो</w>
म ायानो</w>
म न्त्र
र ज
र ल</w>
ल र
ल ौ</w>
ल वार</w>
श े
श नेल</w>
स नै</w>
स फा</w>
स पि
ह स्रि
ह सपि
ना म्बार</w>
बा मोन</w>
बा रिखौ</w>
बा पा</w>
बा न्दो</w>
बा सायनो</w>
ला थि
ला फा</w>
ला न्था</w>
रा साय
रा न्नाय</w>
रा मोन्द
रा खेब</w>
जा द</w>
जा ल</w>
जा न</w>
जा थि</w>
जा लाय</w>
जा लʼ</w>
जा रां</w>
जा गा</w>
जा हां</w>
जा मार
जा फिनो</w>
जा लांनो</w>
जा खांबाय</w>
जा जोबबाय</w>
था जों</w>
था बो
था गि
था मखौ</w>
था खोमानानै</w>
खा म्फा</w>
बि बु
बि लाय
बि लोगो</w>
बि खौबो</w>
बि रों
बि माइ</w>
मा हि</w>
मो बाय
मो ख्रा
सा बा</w>
सा वनो</w>
सा रे
सा खʼ
हा मि
हा बाया
हा रावा</w>
हा बिला
गा ननि</w>
गा खो</w>
न् नायनि</w>
नाय सिम</w>
सि गौमोन</w>
सि थाब
दा खु
दा थʼ</w>
दा रिया</w>
बे ला</w>
बे हाय</w>
बे लाया
बे मार</w>
बे दिनो</w>
बे दरखौ</w>
बु बाय</w>
बु थार</w>
बु न्दा</w>
बु न्दि</w>
फा म
फा रां</w>
फा खʼ</w>
हो नो
हो गासिनो</w>
सो नाय</w>
मोन लै</w>
मोन थिया</w>
मोन थायखौ</w>
नि फोरा</w>
फोर हा</w>
फोर जोंनो</w>
थि बो</w>
थि खानाय</w>
थि फुं</w>
दि था</w>
जो आव</w>
बो ग
बो नायखौ</w>
बो नायसै</w>
जे बो
जे ङा</w>
से जों</w>
जि नो</w>
सु फु
सु खʼ
सु थारनो</w>
गु न
गु ल</w>
गु बुं
फि त</w>
रि ट
गि दों</w>
मि से
मि थिय
बुं नायाव</w>
बुं नाया</w>
बुं हां</w>
बुं सʼ
बुं फबनाय</w>
फो दो</w>
फो थार</w>
फो नांनानै</w>
फो थांना</w>
फो थायनो</w>
फै नायखौ</w>
मु र्
लि भ</w>
आं खौनो</w>
ले न्
ले दि
थां नायसै</w>
थां ब्लानो</w>
थां फिनबाय</w>
थां फिननो</w>
नो ब्रा</w>
सान ना</w>
सान ब्लाबो</w>
सान नायसै</w>
सान स्रिनि</w>
सान थ्रि</w>
सान थ्रʼ
नों निफ्राय</w>
खु वा</w>
दे न</w>
दो ब</w>
गाव बागाव</w>
खौ दि</w>
सोर जि</w>
र् ज्
दों फा</w>
दों सै
दु गा
दु इन
राय लायनानै</w>
वा दि</w>
नु नायाव</w>
नु ब्लानो</w>
नु सन
नु हरो</w>
नु हैबाय</w>
हर नायखौ</w>
हर दो</w>
हर दम</w>
नां लाय
नां लायनाय</w>
नां थाबनानै</w>
नां थारगौ</w>
गै नो</w>
लु ं
लु यै</w>
लु फुं
जु ब</w>
जु था</w>
रो ङो</w>
िया खै</w>
है द</w>
है नोसै</w>
खार नो</w>
खार बोनानै</w>
रु मा
लʼ ग</w>
रे प</w>
रे डि
स् ट्राक
दै ज्ला
ख्र ों</w>
माव ना</w>
माव ग्रा
हे ड</w>
थाइ फोरखौ</w>
थाइ गं</w>
बार दों</w>
बाव लांबाय</w>
बाव स्रोम</w>
ब्र ब
मानसि नो</w>
जोब दोंमोन</w>
गार नांगौ</w>
फिसा फोर</w>
थे ला</w>
थे रनो</w>
हु कु
हु गारबाय</w>
का स</w>
हाब दों</w>
हाब फैनानै</w>
दाव हाया</w>
दाव बायनो</w>
राइ फ
हाय ैलाय</w>
अन सि</w>
अन नायाव</w>
मिथि ंगाया</w>
सै थि</w>
थो यो</w>
साव सु
साव गारि
खै फोर</w>
ग्र ी</w>
थै जासिम</w>
लों नांगौ</w>
लों खांनानै</w>
क् ट</w>
क् ‌</w>
लिर नायखौ</w>
हां खुरै</w>
खʼ नाय</w>
ता खौ</w>
ल् दानानै</w>
फिन नायनि</w>
टे म</w>
ओंखार बोदों</w>
दोन नायसै</w>
दोन खानाय</w>
खाय फाया</w>
टि स
नʼ वावनो</w>
बिफा न</w>
बिफा जों</w>
बिफा निफ्राय</w>
लोगो जों</w>
लोगो फोरखौ</w>
आले जों</w>
खोना दों</w>
खोना ना</w>
खन थायारि</w>
हाम नाय</w>
हाम गौमोन</w>
नङा सै</w>
गिदि त</w>
पु र
पु री</w>
बरʼ फ्रा</w>
बिबा ना</w>
बिबा जै
बेसे ना</w>
दिन्थि थि</w>
दिन्थि नाया</w>
भा इ
भा रखौ</w>
दान सʼ
एसे म
एसे बांनो</w>
आइ ननि</w>
फुं निफ्रायनो</w>
फुं जानि</w>
खोम सियाव</w>
ख्ल ि
सानै खौबो</w>
मोना बा</w>
गौ हाट
आखु वाव</w>
गʼ सा
गʼ यो</w>
बिदि सो</w>
बिदि न्था</w>
सौ वो</w>
दां खौ</w>
बिना नावखौ</w>
लुबै दोंमोन</w>
कु र</w>
न्दा र</w>
स्ल ʼ
गिरि फोर</w>
नं खायनो</w>
गोरो बनानै</w>
बेखेव नाय</w>
बेखेव फाया</w>
उन्दु नानै</w>
आफाद फोरा</w>
मानि मुनि</w>
हारि जों</w>
हारि फोरनि</w>
सोदोब थिया</w>
नाजा नाया</w>
सर ब
सर लानि</w>
पे न्ट</w>
लै होर</w>
आखाइ या</w>
आला ं</w>
लाखि दों</w>
लाखि नायनि</w>
सिं ह</w>
मिहि रखौ</w>
फोरा वनो</w>
बाज ु</w>
बाज ्रेद</w>
साया वबो</w>
नोंथां जों</w>
इं खं</w>
इं राज</w>
इं लिस</w>
इं खंनि</w>
गुवा र
साब गौ</w>
बेल स्री</w>
ख्रु ब
भार ता</w>
ग्रो मोना</w>
थिं बो</w>
गोम जा</w>
सोलों सालिनि</w>
लाइजा म
गर सेबो</w>
ट्रे ल</w>
ट्रे इन
दुं ब्रु
गेले ग्रा</w>
थिन हरबाय</w>
सावराय नानै</w>
सावराय नायनि</w>
रिं सारनि</w>
200 6</w>
समाय खौ</w>
बिर हां</w>
मालाय खौ</w>
नार जा
नार नानै</w>
दाउ बʼ
गाखो नो</w>
गाखो बाय</w>
थाया ब्ला</w>
फोरों नो</w>
फोरों गिरिनि</w>
सिमा ंनि</w>
लोम साव</w>
त् ‌</w>
मुलुग नां</w>
इन् टार
गेदे द</w>
थुम नाय</w>
अब ं</w>
लाउ दुम</w>
सिखा उ</w>
जौगा खां
जौगा खांनाय</w>
मनजु लानि</w>
सेंग्रा फोरनि</w>
इन स्ट्राक
थुलु ंगाया</w>
हार् सा</w>
बाजि नानै</w>
बाजि सिम</w>
साम लायनो</w>
निया वनो</w>
जानाय फोरखौ</w>
जानाय फोरनि</w>
उन दाहा</w>
अखा फोराव</w>
जार ्ला</w>
सेर े</w>
होन् नानैनो</w>
ंग्र ी</w>
स्रो ब</w>
हिनजा वनि</w>
एर नाय</w>
फिसाइ जों</w>
गुन्दा मि</w>
ज्रा ं</w>
खुलुम नो</w>
हगार नाय</w>
फैया खिसै</w>
उजि गासेयाव</w>
दान्दि सेनि</w>
एं गो
गला मनि</w>
बिब ौ</w>
बिब नां</w>
सोना रो</w>
ष्ट ्र
असम िया
लाफा नो</w>
सेया रि</w>
नायगिर दों</w>
गाम् बारिया</w>
चा इ
फसं नो</w>
बाथु ल</w>
बाराय नाय</w>
गाज्रि सिन</w>
बोसो रारि</w>
जालां गोन</w>
198 0</w>
बह ्रा</w>
शंक र</w>
द्‌ ला</w>
सलʼमा गिरिनि</w>
बाजा रनि</w>
बुब्ल िया</w>
रोङा खै</w>
थुलुं गा
थुलुं गाखौ</w>
बिखु ं</w>
नायहर ब्ला</w>
रिंसार आ</w>
थगाय सुला</w>
सार् भि
बुंथि नाय</w>
दावबाय नायाव</w>
मिन्थि ना</w>
आवगाय लाङो</w>
साजाय नाय</w>
हाउ साव</w>
मारि नानै</w>
गोथौ वै</w>
बाउ नाय</w>
गारा ङै</w>
हालो दै</w>
गेजेर जोंनो</w>
मदा रामा</w>
दाबि याव</w>
रुं सार</w>
गोरोन्थि नि</w>
बुथुम नो</w>
ब्रै थि</w>
al l</w>
बं फां</w>
गुमु रखौ</w>
खुरै बो</w>
बेसेबां दि</w>
नोसै लै</w>
बाट नाव</w>
इण्ड ियान</w>
बारहु ं
मिनिट सो</w>
इन्टारने ट</w>
इउनि ट</w>
ककराझा राव</w>
आबार ीया</w>
आबार ीनि</w>
खैना शान्तिया</w>
**** ****
गैजा रोङ
उखु न्दै</w>
बुद्र ैया</w>
गोख्रै यै</w>
ur e</w>
जन ता</w>
हिं सा</w>
नखʼ र</w>
सन्थ लाया</w>
बाल न्दा</w>
ex cell
बिबाया रि</w>
थांख ियै</w>
बिजने स</w>
अबिना सा</w>
बोथि से</w>
बैथा लि</w>
मिथिखा गौ</w>
प्रदी पा</w>
खौरांगि रिफोरनि</w>
गस्ला खौ</w>
जोबथे सालियाव</w>
चर ण</w>
सह खौ</w>
बिबो नां</w>
फाखʼ नाव</w>
दानस्लाय नाय</w>
डिजि टाल</w>
सानजौफु नि</w>
सोहोर नि</w>
सोरमा ङा</w>
cap tain</w>
दखर से</w>
बेनिख्रु इ</w>
अनफाव रि</w>
जुला फि</w>
बारʼ लाम्फा</w>
मुलाम फा</w>
एमे ले</w>
जांगि ला</w>
जुजाइ नि</w>
अलं बार</w>
दबथ ायनो</w>
excell ency</w>
! '</w>
- ।</w>
a b
d ra
m y</w>
m in
n o</w>
n ou
s y
t s</w>
w el
ʼ नो</w>
आ दि
आ दानि</w>
आ दाखौ</w>
आ ग्लाय
आ थुर</w>
इ सोर</w>
उ सि
ए इ
ए रि
ए दाव
ए म्ब
ए मनिफ्राय</w>
औ वा
क ी
ख बा
घ ट
घ ु
ज ब्रा</w>
ज बाब</w>
ट ्
ट वेर</w>
ड ़</w>
ड खौ</w>
ण े
थ न
थ सि</w>
द नो</w>
द ायानो</w>
न ट</w>
न खौनो</w>
न बीन</w>
प ्रा
प के
ब रा</w>
ब खि
ब हाय</w>
भ ाव</w>
भ बेन</w>
म ट
म ना</w>
म दʼ</w>
य बो</w>
य ायाव</w>
य ैसो</w>
र य
र फोरनि</w>
र सिं</w>
र माया</w>
र जिखौ</w>
ल मे
ल र्ड</w>
व ि
स हराव</w>
ह वा</w>
ह का
ह लाव</w>
ो सो</w>
ना ला</w>
ना लै</w>
ना वसो</w>
ना ङैनो</w>
बा बाय</w>
बा न्द
बा हा</w>
बा सि</w>
बा ग्र
बा राय</w>
बा ग्
बा सिया</w>
बा हेरायाव</w>
ला ब्ला</w>
ला सो</w>
ला निफ्राय</w>
ला गो</w>
ला नायसै</w>
जा खा
जा रि
जा दो
जा हि
जा थायाव</w>
जा लांनाय</w>
जा बोबाय</w>
जा नांगौब्ला</w>
था मबो</w>
था हैनो</w>
था सʼ</w>
खा ना
खा महा
खा न्दि
बि बा</w>
बि या</w>
बि न्दो
बि सम्
बि ष्ण
मा रा
मा ल्
मा लिया</w>
मा लायनो</w>
मा खौबा</w>
गो थार
मो गा
सा रि
सा लाय</w>
सा फोरा</w>
सा स्
सा खि</w>
सा जाया</w>
सा सु</w>
सा ंग्रे
सा नोमोन</w>
हा था
हा सिगोन</w>
हा रावनि</w>
हा सिगौ</w>
गा लांदों</w>
गा राखै</w>
गा डʼ</w>
नाय बा</w>
नाय फोराव</w>
नाय हरदों</w>
सि ल</w>
सि खि
सि ङा
सि ननि</w>
सि न्था</w>
सि थोर</w>
सि खोमानानै</w>
सि फाय</w>
सि त्रा
दा ग
दा थ</w>
दा न्
दा मा</w>
दा हो</w>
दा जाब</w>
दा रखौ</w>
दा बोनो</w>
बे मा</w>
बे दि
बे हायनो</w>
बे ंग्रा</w>
बे खौथʼ</w>
बे सर</w>
बु ब्रा
फा न</w>
फा न्जा
हो फिनो</w>
हो लांनाय</w>
हो फैनो</w>
हो नांगौनि</w>
सो ल
सो खौ</w>
सो राङाव</w>
मोन नायसै</w>
मोन गासिनो</w>
नि ल</w>
नि मोन</w>
नि लि
नि खावरि</w>
नि खुरैबो</w>
फोर ो
फोर ों</w>
थि उ</w>
थि लि</w>
थि का
थि खांनानै</w>
थि खिनि</w>
दि रिया</w>
जो गो
जो ना</w>
जो थो
बो ब
बो ना</w>
बो सोरबा</w>
जे सेनो</w>
से ं</w>
जि बि</w>
जि ंनि</w>
जि खि</w>
सु दों</w>
सु लि
सु थार
सु लु</w>
सु बुरु
ंग िया</w>
फि र</w>
फि नि</w>
फि थि
फि न्दों</w>
गि नाया</w>
गि ग्लु
मि क</w>
मि खौ</w>
बुं नायनि</w>
बुं ब्लाबो</w>
बुं हरदों</w>
बुं दोंदि</w>
खो नाय</w>
खो न्था
खो नायाखै</w>
मु ब्रुं</w>
आं गो
आं खौसो</w>
आं हालाय</w>
ले प</w>
थां नायखौ</w>
नो दि</w>
सान गासिनो</w>
सान हाबनानै</w>
दे रा
दे लै</w>
दो नि</w>
बाय ोब्ला</w>
गाव जें
खौ थो</w>
दों मोननो</w>
दु द्र
मे थाय</w>
मे रे
मे न्ट
राय खांनानै</w>
ब्ला ं</w>
जों दों</w>
जों खाङो</w>
नु थाय
लां नाया</w>
लां नांगोन</w>
या ं</w>
या खिसै</w>
गे म</w>
मान खौ</w>
नां ब्ला</w>
गै थारा</w>
स्र ʼ</w>
जु लि
थु ं
थु रि</w>
खि सै
खि फि</w>
िया लाय</w>
है ब्ला</w>
फु लिनि</w>
रु मखौ</w>
नांग ्रा</w>
लाइ याव</w>
लाइ ब्रे
जाय गानिफ्राय</w>
रे न</w>
रे न्ट</w>
स् ‌
स् नि
नै थियाव</w>
ओं थियाव</w>
गोसो खांबाय</w>
राव निफ्राय</w>
राव फोरनि</w>
हे ब
बार ायो</w>
टा रजों</w>
थाय बा</w>
थाय गिरि</w>
ब्र ाया</w>
गार जानाय</w>
होन नो</w>
होन नानैनो</w>
का ल</w>
का लि
का टा</w>
हाब ्
हाब ्बाय</w>
दाव गा</w>
हाय िनि</w>
हाय ैखौ</w>
अन ी</w>
अन नायखौ</w>
सलʼ फोराव</w>
पा प</w>
फार नै</w>
फार नैखौ</w>
मिथि सʼ
सै बा</w>
फे ल</w>
फे जेन
खै बो</w>
खै सार</w>
थै नायखौ</w>
न्थि नि</w>
लों दो</w>
ग्ल े
लिर नायनि</w>
हां खुर</w>
खʼ र</w>
फराय दों</w>
फराय खांनानै</w>
फराय ग्रानि</w>
फराय फुनाय</w>
ल् ड</w>
ल् दि</w>
ग्रा मोन</w>
जौ से</w>
दं जोबो</w>
दं थारो</w>
गाब नाया</w>
ओंखार बोनाय</w>
ओंखार बोनानै</w>
मै देर
देर हानाय</w>
गाय ै</w>
खाय सेया</w>
सोदो बाव</w>
गाहा इ
जाब जों</w>
नʼ सिम</w>
बिफा ंखौ</w>
लोगो फोर</w>
प्र दि
प्र फु
प्र दिप
आले हा</w>
सोम ो</w>
मुं माया</w>
नाया व
जʼ नो</w>
हाम फे
हाम सिन</w>
माहा रिखौ</w>
थुन लाया
ब्ल क</w>
सम फोर</w>
खाव लायो</w>
थाव गौ</w>
गोजा न
दान सोरां</w>
हाया बो</w>
मिनि दों</w>
फोरमाय थिनो</w>
आख लाव</w>
रां गा
सानै निबो</w>
आसा म
फावथाइ यारि</w>
आखु थाया</w>
शा ला</w>
ब्रा नि</w>
सौ वै</w>
सुबुं साइ
बाहाय जानाय</w>
बाहाय खान्थि</w>
न्दा रि</w>
स्ल ायनो</w>
डि स</w>
डि से
गोरो न्थिया</w>
फं बाया</w>
अज न</w>
हारि नो</w>
गाम िया</w>
मन् दि
सोदोब फोरनि</w>
नांगौ खौ</w>
बिलि र</w>
फ्ला ं</w>
महा राजाखौ</w>
दिहु न्नानै</w>
अर जाया</w>
बिथां मोना</w>
दुर्जा ङानो</w>
हार सा</w>
थाम फै</w>
नोजोर खौ</w>
पे न्
पे केट</w>
सिनाय थिया</w>
बान बुं
बान जाय</w>
लाव खार</w>
सालि सखौ</w>
गोहो मा</w>
गोहो गोरा</w>
खाफा लानो</w>
दुखु वाव</w>
आद बखौ</w>
खोमा नांनाय</w>
नोंथां मोन</w>
गोनां सिन</w>
गोनां थिखौ</w>
बिलिफा ंजों</w>
ग्रो दों</w>
सिया लनि</w>
जाव नानै</w>
मोसा खौ</w>
झा र
दिहुन नायनि</w>
गर से</w>
गिया नि</w>
ण्ड ा</w>
सासे खौ</w>
गेले यो</w>
थिन नाय</w>
खरʼ याव</w>
हांखो फोरखौ</w>
गोबा ब</w>
नुजा फैयो</w>
देरहा सार
रिं गा
रिं सारा</w>
बाहागो याव</w>
सिख्ला फ्रा</w>
डे टा</w>
200 4</w>
खुं थाइ
खाम ग्लि
नार सि
सिमा ंखौ</w>
सिमा ङावबो</w>
इन् सपे
अब स्
फावथि नाया</w>
अम ृ
अम ब्रा</w>
सुर खो</w>
जौगा नायाव</w>
बारा सो</w>
बारा निफ्राय</w>
सेंग्रा फोरखौ</w>
गुर ियाव</w>
गुर हं</w>
इन पुट</w>
दया रामा</w>
दाइ रि</w>
दोर फो</w>
फाहाम सालि</w>
फाला ंगिरि</w>
सेर जानि</w>
सोमावसार नायखौ</w>
ंग्र ो</w>
्‌ दा</w>
फाइ लखौ</w>
थाबाय नो</w>
er s</w>
मोनसे खौ</w>
आनजा दनि</w>
गैय ै
ज्रा व</w>
गम् भिर</w>
ou nd</w>
कर् ट</w>
हौवा खौ</w>
हगार नो</w>
फैया सै</w>
जाफुं होनो</w>
लें हरनानै</w>
दुम सि</w>
सानसे यारि</w>
एं गारनो</w>
थेले ब</w>
थर से</w>
अनि राम</w>
फाग्ल िया</w>
मेले मनि</w>
गोलै नाय</w>
गोलै यो</w>
हाइ ब्रि
बैसा गि
बैसा गि</w>
बैसा गुनि</w>
सोलि नाय</w>
सोलि बोनाय</w>
अपारे शन</w>
क्ल ʼ
क्ल ि
रायलाय नाया</w>
गाम् बारिनि</w>
जान गारनानै</w>
नाव बा</w>
हान्जा खौ</w>
सिथ लायाव</w>
दावगा नो</w>
lo g
बुरै खौ</w>
198 4</w>
बह रा</w>
बर् डनि</w>
दैमा री</w>
लांगो नानिफ्राय</w>
बिनहा रीया</w>
नोगो द</w>
खुदिया फोरनि</w>
बाजा रि</w>
नी ल</w>
बायजो नि</w>
गोर्बो याव</w>
नायजा बारि</w>
सोद्रोमा फोर</w>
di s
सान्थ्रि फोरा</w>
नाङा खिसै</w>
बिया दै</w>
मारु ति</w>
मोनलाय नायनि</w>
मोनलाय नायखौ</w>
आवा राम</w>
द्ला म</w>
लामा थिं</w>
खालामा मोन</w>
गोर्ल ै
si on</w>
बिखा जों</w>
बोराइ नि</w>
जिं गासि
जिं गानि</w>
बराय नो</w>
बाजु रामा</w>
..... !</w>
पुलिस नो</w>
पुलिस जों</w>
नुजाथि दों</w>
खालि नो</w>
खाथि निफ्राय</w>
मैहु र</w>
मनि पुर</w>
दर्बा सि</w>
बेफा रिनि</w>
no w</w>
हटे ल</w>
दाका त</w>
थिसन नानै</w>
दोनथुम ग्रा</w>
कन् या</w>
मिलि टा
खुरै खौ</w>
नंगौ ना</w>
प्रसे सिं</w>
बाट न</w>
गाँ वनि</w>
मुजु ब्ला</w>
जथुम् मानि</w>
बङाइ गाँव</w>
रहे लाया</w>
गोबां थार</w>
जोंब्ला वा</w>
टेबु लाव</w>
इन्जिनिया र</w>
जागो ननि</w>
जागो नखौ</w>
नौना रिफोरनि</w>
me an</w>
सफ् ट्‌
राग जों</w>
गैजा रोङै</w>
अप मान</w>
जाथाव ै</w>
हानाय मानि</w>
गावसोर नो</w>
हाखि मनि</w>
बोरा ब
मेडा म</w>
माइथाय निफ्राय</w>
बट ल</w>
बार् थ</w>
बाहे राव</w>
डाइरेक्ट रि</w>
wor ds</w>
गुबुना रिफोरखौ</w>
आफो द</w>
हज्रि खाव
मास् थारा</w>
मेर गानि</w>
दंबाव यो</w>
थासार िया</w>
बेरा माव</w>
मुसाहा रीनि</w>
गोसोज्लि द</w>
काम रुप</w>
किउरिय ʼ</w>
खौसे यै</w>
जर खा</w>
ड्राइ भार
शनि बारखालि</w>
थासा रिखौ</w>
हालि व
जीउ नि</w>
हरि भुष
दुइ सिन</w>
ग्री क</w>
हारिमु खौ</w>
प्रेक टिस</w>
बिगुमै खौ</w>
खोरोम दाउ</w>
खरथे ङा</w>
एप्रि ल</w>
हर् खाब</w>
हरमʼ न</w>
ब्रेकफा स्ट</w>
फुक न</w>
बिरहा ङा</w>
बेण्ड े
बुर्लुंबु थुर</w>
शिब राज</w>
नीला म्बर</w>
ww w</w>
खन्थ ायारि</w>
नामा ब्रा</w>
लाइन मे
संग्र ायाव</w>
ह्र ायाव</w>
जानु वारि</w>
हाथर खि</w>
ंगौ मोन</w>
मिथिंग ायारि</w>
इजराइ लनि</w>
रामोन्द ाया</w>
nou n</w>
खामहा ब</w>
सित्रा ं
" --</w>
. "</w>
3 5</w>
3 2</w>
6 1</w>
9 5</w>
9 8</w>
] ।</w>
c l
d o</w>
f ic
f or</w>
i v
i t</w>
o l
p le</w>
s e
s h</w>
t el
t em
अ ना</w>
अ ग्र
अ ब्रा
अ भार
अ हं</w>
आ दि</w>
आ गै
आ बाद
आ सʼ
आ ग्
आ बारि</w>
आ बारी</w>
आ फायाबो</w>
इ सेलʼ</w>
उ ल
उ दैया</w>
उ जेर</w>
ए ले
क रि
क था</w>
ख मै
ख फʼ
ग िय
ग ंग
ग लि
ग गै
ग लि</w>
ग गै</w>
ग सं</w>
ग थायनो</w>
ग स्वा
ङ ैसो</w>
छ े
ज ी</w>
ज ना</w>
ज फायो</w>
ज बना</w>
ट ियाव</w>
ट पुट</w>
त ʼ</w>
त ीखौ</w>
थ न</w>
थ से</w>
थ बनो</w>
थ गायनो</w>
द स</w>
द नाय</w>
द खʼ
द ्र</w>
द स्टु
ध ्र</w>
न मस्
प ाव</w>
ब यो</w>
ब जʼ
ब ले</w>
भ ल
म नाय</w>
म ला</w>
म सा</w>
म जु
म नायाव</w>
य र्
य ैनि</w>
र स
र ना</w>
र मान्
ल य</w>
ल थर</w>
ल गायनानै</w>
श ी
श ्रि</w>
स भ
स ती</w>
स त्य
ह बे</w>
ह ब्रा
ह रावनो</w>
ह ज्रि</w>
ह जम</w>
। ....</w>
ना म
ना जानानै</w>
ना री</w>
बा थ</w>
बा रो</w>
बा ङा</w>
बा ग्ला
बा दोर</w>
बा ंग्रि</w>
बा ग्रि</w>
बा ंग्रि
बा ङाइ</w>
ला खा
ला जों</w>
ला बाय
ला नायमोन</w>
रा जानो</w>
रा माय
रा खिसै</w>
रा निया</w>
रा क्ष
रा खाव</w>
रा खाउ</w>
जा म</w>
जा होदों</w>
जा लायनाय</w>
जा लायनानै</w>
जा सिनानै</w>
जा मारबाय</w>
था फ
था मि
था सै</w>
था नाङो</w>
था बोला</w>
था ल्ला</w>
खा फ्रा
खा जि</w>
बि न</w>
बि नाय</w>
बि आं
बि बादि</w>
बि मानो</w>
बि लिर
बि यावनो</w>
बि दैखौ</w>
बि फायाबो</w>
मा ं
मा बे</w>
मा खा</w>
मा ग्रा</w>
मा रनि</w>
मा थाम</w>
मा दावनो</w>
गो ननि</w>
गो थाङै</w>
गो ज्व
मो न्थि
मो दान
सा ह
सा रा
सा नानै</w>
सा गु
सा दा</w>
सा हाया</w>
सा बिखौ</w>
सा लिया
सा खोन</w>
सा मोल</w>
हा राव</w>
हा नायाव</w>
हा गोन
हा थारा</w>
हा थाइयाव</w>
हा गोनखौ</w>
हा जिर</w>
गा मिनि
गा न्थि</w>
न् ना</w>
नाय ना</w>
नाय सि</w>
नाय था</w>
नाय ग्रा
नाय फिन</w>
नाय खौसो</w>
सि बियो</w>
सि म्
सि महा
सि रिया
सि खोन</w>
सि नायाखै</w>
दा ल</w>
दा खालाम
दा ला</w>
दा खा</w>
दा ग्रा</w>
दा रिमि
दा इन
दा मोल</w>
बे इ
बे वनो</w>
बे खि</w>
बे सिम</w>
बे जाय</w>
बे निफ्रायनो</w>
बे लुन</w>
बे न्दों
बु दां</w>
बु ंग्रा</w>
बु न्दाया</w>
बु द्
फा स</w>
फा खाय</w>
फा लि</w>
फा राग
फा थिनानै</w>
हो वा</w>
हो ब्लानो</w>
हो लांबाय</w>
हो नायजों</w>
हो वाखै</w>
सो बो</w>
सो लै</w>
सो राङा</w>
मोन बादि</w>
मोन ज्लाय
मोन बोनाय</w>
मोन सेबो</w>
फोर जा
फोर जोंबो</w>
दि ङा</w>
दि खां
जो नो</w>
जो खौ</w>
बो यै</w>
बो लै</w>
बो खे</w>
बो ख्ला
जे रा</w>
जे ंनि</w>
जे खि</w>
से बाव</w>
से यानो</w>
जि नाय</w>
जि रि</w>
सु म
सु कु
सु बिदा</w>
सु ग्रि</w>
गु ना</w>
गु री</w>
फि सिनो</w>
फि थर</w>
फि फानि</w>
रि जा
रि फि
गि बाय</w>
गि लु
गि लिर
मि ल</w>
मि टिं</w>
मि रुनि</w>
मि ज्लि
बुं नाय
बुं दो</w>
फो लानो</w>
खो लो</w>
फै यै</w>
फै खांबाय</w>
मु रा</w>
मु थु
मु लिया</w>
मु वाया</w>
खाला राव</w>
थां नांगोन</w>
सान निफ्रायनो</w>
सान नायमोन</w>
सान सेनि</w>
सान स्रिखौ</w>
खु मै</w>
खु ग्लु
खु दियाया</w>
दे द
दे त</w>
दे गार</w>
दो मोन</w>
दो खो</w>
गाव थार</w>
गाव दां</w>
सोर मोन</w>
दों लाय</w>
दु र</w>
दु मा</w>
मे व</w>
मे ब्ला
मे घा
मे डिया</w>
मे गावा
लो ङा
राय नाय</w>
राय दाव</w>
राय लायबाय</w>
राय जित</w>
राय ज्लायो</w>
लाय जासे</w>
लाय ोमोन</w>
ब्ला य</w>
जों जों</w>
वा मोन</w>
वा लाय</w>
नु योब्ला</w>
हर खि</w>
लां फा
या रा</w>
गे दाइ
गे स्रेम</w>
गे सेव</w>
नां नायखौ</w>
.... ..
बर द
बर फ
बर बाद</w>
लु सि</w>
लु बै</w>
लु स्सा</w>
स्र ियै</w>
जु वा
जु थुम</w>
थु वा</w>
थु ंगि
रो नाव
खि लि
खि रा</w>
खां गोन</w>
फु थि
खार दो</w>
लʼ नो</w>
बाथ ोर</w>
रे क</w>
स् टार</w>
स् टिक</w>
हि रʼ
नै जिबा</w>
खे ला</w>
हे न्दि
बार ी
बार खौ</w>
बार जां</w>
टा लाव</w>
थाय नाय</w>
थाय नैनि</w>
ब्र ी
ब्र बनानै</w>
मानसि याबो</w>
गार ी</w>
फिसा य</w>
थे नाय</w>
हु र
का जल
का बिला</w>
हाब हां</w>
अन नाया</w>
सलʼ फोरनि</w>
सलʼ गिरिया</w>
पा क्
फार ौ</w>
सै माया</w>
के ल
के सा</w>
के रानि</w>
फे द</w>
खै ना</w>
खै दां</w>
रै खानि</w>
थै सʼ</w>
लों होनानै</w>
क् य</w>
री निफ्राय</w>
री याबो</w>
ता ल</w>
फराय ग्रा</w>
ल् ल</w>
ल् ट</w>
फिन नांगौ</w>
फिन नायखौ</w>
फिन दो</w>
गोदा न
टे ल</w>
मै देरा</w>
ब् याव
खाय फाबा</w>
सों ब्ला</w>
सों लु
थʼ वा</w>
थʼ दो</w>
टि न</w>
नʼ खर</w>
बिफा नाव</w>
बाद लखौ</w>
आले नो</w>
मह ी
मह कु
खोना नाय</w>
मुं जों</w>
खन बा</w>
हाबा फोरखौ</w>
हाम गौ</w>
गिदि र
ब्ल ि</w>
सम र</w>
थाव रिनो</w>
बिबा ननिफ्राय</w>
गोजा म
भा रि</w>
दान सʼनानै</w>
माइ ज</w>
आइ फोर</w>
आइ दिया</w>
........ ।"</w>
बय निखुरैबो</w>
बादि नि</w>
आना रामखौ</w>
मोना खैसै</w>
गोर बोनि</w>
खेव नाय</w>
जिउ नां</w>
आखु फोरखौ</w>
नागिर नाया</w>
स्रि नाय</w>
गʼ लाम</w>
ण् डार</w>
जाया सै</w>
बिदि न्थानि</w>
दर ं</w>
दर जानि</w>
दर खङाव</w>
सʼ नि</w>
आय ु</w>
बाहाय नाया</w>
लुबै नायनि</w>
कु ल</w>
गोरो न्थ
बेखेव फाखौ</w>
उन्दु लांबाय</w>
महर जों</w>
साइ ट</w>
नांगौ बो</w>
राज थान्द
महा राजाया</w>
सुं दʼ
अर खाव</w>
बिथां मोन</w>
दुर्जा ङाबो</w>
हार िया
सर खारा</w>
गान दों</w>
गान नाया</w>
फ्ल ायो</w>
बेर खांनाय</w>
पे पा
आर ज</w>
हिन्जाव फोरखौ</w>
मोखा ङावनो</w>
जिराय नायनिफ्राय</w>
बोहै नाय</w>
बोहै बोनाय</w>
बोहै लांनाय</w>
खाफा ल
फोरा सो</w>
फोरा लाय</w>
आद र्
आद सा</w>
साया रि</w>
अजि ता
नोंथां मोनहा</w>
इं ख्रिया</w>
बाइ जोआव</w>
अलʼ क
गोम जायै</w>
बाथ्र ायाबो</w>
मोसा दों</w>
ंग्रा य</w>
in ter
झा लु</w>
फान थाव</w>
रों बाय</w>
ट्रे इन</w>
अजित नो</w>
सिन नानै</w>
फिसाजो या</w>
थिन हर</w>
बेद त</w>
बेद रनि</w>
नुजा हैनो</w>
िये ल</w>
सोरजि दों</w>
बें नानै</w>
गोन ना</w>
हादोर नाङै</w>
देरहा नो</w>
गोमा बाय</w>
रिं गानिफ्राय</w>
बाहागो आ</w>
धोरो म
सिख्ला फोरखौ</w>
बिर लां
खैफो दनिफ्राय</w>
आग सि
मी न</w>
मी ना</w>
दाउ सा</w>
दाउ स्रि</w>
अन् ध्र</w>
गाखो नाय</w>
गाखो हैयो</w>
जाहो नांगौ</w>
क्ट रनि</w>
फोरों नानै</w>
सिमा ङा</w>
लोम जानायनि</w>
थाखो खौ</w>
नाइ ट</w>
मुलुग निफ्राय</w>
दैदेन गिरिफोरनि</w>
थौ ले</w>
निख्रु यबो</w>
दाम ि</w>
दाम नो</w>
श् वा
बैसो आव</w>
सेंग्रा खौ</w>
फिसाज ्ला
बाजि बायमोन</w>
साम लाय
जानाय निफ्राय</w>
फोसाव नायनि</w>
फोसाव जायो</w>
उन थाराव</w>
थिये टार
गाबो ननिफ्राय</w>
नोंसोर हा</w>
नोंसोर बादि</w>
गिदिं नाय</w>
मुवा फोरा</w>
मुवा फोर</w>
ज्रि ं</w>
आरो मा</w>
नार्जा रिया</w>
हिनजा वा</w>
गोजोन थों</w>
गोजोन ग्लाय</w>
बेला सेनि</w>
बुथार नाय</w>
बुथार दों</w>
गैय ैनि</w>
गैय ैयाव</w>
सोमजि होदों</w>
बानजाय फुं
हौवा फोरनि</w>
हाव ाया</w>
थाङा सै</w>
थाङा खै</w>
रमे ननि</w>
मुगै यो</w>
धु प</w>
गाग्लो बनो</w>
or y</w>
सोलि बाय</w>
सोलि गासिनो</w>
क्ल े
गिबि या</w>
अफि सनिफ्राय</w>
ज्र ोम</w>
गन्थ ङाव</w>
लं पेन्ट</w>
नागा रै</w>
थाइला लिखौ</w>
फसं थान</w>
ar d</w>
सम् बारु</w>
बाराय नानै</w>
मोजां सो</w>
बुहु म</w>
दावगा नाय</w>
बद लै</w>
स्लि ब</w>
स्लि उ</w>
इंराज नि</w>
आन्दा खौ</w>
बुरै नि</w>
खम लाय</w>
खम ज्लाय
शंक रनि</w>
थिउरिया फोरखौ</w>
द्‌ दा</w>
द्‌ लाम</w>
फालि नाय</w>
एम् फौ
हरा मोन</w>
मोब्लि बारि</w>
बायजो निफ्राय</w>
es s
नायबिजिर नायनि</w>
मंगल बारखालि</w>
प्ले ट
सान्थ्रि फोरखौ</w>
सान्थ्रि फोर</w>
हाल दै</w>
फैफि न्नो</w>
मारु ती</w>
बेफ्रु थायजों</w>
गोथै नि</w>
गामि खौ</w>
फ्ले नानै</w>
फ्ले नाय</w>
गिला ससे</w>
बावदिया खौ</w>
सायखʼ नाय</w>
दायनि गिरिफोरखौ</w>
जिनि स
आवगाय नि</w>
ha ra
आरि स्रां</w>
होब थानो</w>
होब थानानै</w>
दोंमोन दि</w>
फाया र</w>
माष् टार
गुरु ं</w>
गथाय नाय</w>
बुजाय नो</w>
खुदुम ो</w>
मनि पुरनि</w>
मोदोम जों</w>
मोदोम फ्रु</w>
सोमोन्दो आ</w>
कार् बिआं
सैथो नि</w>
थिसन नाय</w>
अबंलाउ रि</w>
इन्दुप्र भाया</w>
हागौ मानि</w>
बिहामजो नि</w>
लाहा री</w>
नोसै मोन</w>
ब्रि टिस</w>
मोसौ खौ</w>
सिखाव फोरा</w>
बेंग ली</w>
खोथा खौनो</w>
फरायसालि फोराव</w>
फाग्ला नि</w>
रुगु ङाव</w>
इनफरमे सनखौ</w>
सुस्रां नायनि</w>
खुनु रु
एन ला</w>
हायो दि</w>
गोजांस्रि उ</w>
उखु न्द
बाख नाय
गुन्द ्रा
दुब्ल ि</w>
मेडा मनि</w>
थान सालियाव</w>
मोदाइ जो</w>
सेना प
देब ी</w>
उदां स्रि</w>
स्पि द</w>
wor d</w>
क्रि ं</w>
गंग्ल ायनानै</w>
कामाख् यानि</w>
अनुले खाया</w>
बिल्डि ं</w>
थांख ियाव</w>
भुटिया फोरजों</w>
नर का
थासार ियाव</w>
बिसायखʼ थि</w>
ब्लाउ स</w>
ग्रीमउइ ग</w>
आन्दो आव</w>
फिल् टार</w>
फोसा वनो</w>
लखʼ बनि</w>
जिबौ जों</w>
बांलादेश ी
नाले या</w>
भ्लादिमि र</w>
गसा थिया</w>
डिमा पुर</w>
उनाव हालागै</w>
बाब्रा ब</w>
जाहोन खौ</w>
रोंगौ थि</w>
हालमा जि</w>
सुइसाइ द</w>
अमि ता
रिन सि</w>
खालामो ब्ला</w>
जात्रा गान</w>
जावलिया नि</w>
खृ ष्ट
लक्षीम पुर</w>
बेंपार् ति</w>
जर् ज</w>
माना स</w>
रिलि फ</w>
दंखाय ोमोन</w>
प्रशान्त वा</w>
किलʼ मिटार</w>
थरथिं से</w>
इनफरमेसन फोरखौ</w>
आह मे
जेब्ला सिम</w>
जरʼ खा</w>
किरि रिं</w>
जार्डा रीया</w>
एष्ट्रागʼ ना</w>
चन्द न</w>
जब् द</w>
रासाय नारि</w>
थागि दायाव</w>
बिरों दा
हुकु म</w>
मोगा मोगि</w>
जोगो नार</w>
गिग्लु ंनाय</w>
नमस् कार</w>
" -</w>
. )</w>
3 4</w>
a ge</w>
b e
b i
b ri
h i
i es</w>
k ac
m it
p ar
p la
s ep
t e
t o
t t
u m
w h
अ जा
अ डि
अ भार</w>
आ प</w>
आ स्र
आ याव</w>
आ न्थ
आ न्था</w>
आ ली</w>
आ मार</w>
इ ले
इ सि</w>
इ सिङाव</w>
इ ंगि
इ खान</w>
इ क्ले
उ राय
उ पे
उ दाय
ए क</w>
ए राय
ए सʼ
ए खम
ए फनि</w>
क टन</w>
ख ब</w>
ग ल
ग लाय</w>
ग साया</w>
ग लायाव</w>
घ ा</w>
च न्द्र
ज वा</w>
ज ग्रा</w>
ज ियै</w>
ज नायनिफ्राय</w>
त द
त े</w>
त ्रा</w>
थ ी
थ फ्ला
थ जेन</w>
द न
द बो</w>
द ्ल
द ंग
द हम
द स्रा
द बनानै</w>
ध म
ध नु</w>
न ब
न न्दे
न ङैनि</w>
न कल</w>
प र
प ति
ब ख
ब द</w>
ब ं</w>
भ ो
म म</w>
म था</w>
म थै</w>
म कर</w>
य ैयाव</w>
र य</w>
र मि
ल ड</w>
ल आ</w>
ल ीनि</w>
ल ियाया</w>
श ना</w>
स हाय</w>
स हरनि</w>
स भा</w>
स बाइ</w>
ु ब</w>
ु र</w>
ना रा
ना मखौ</w>
ना गानि</w>
बा मोन
बा रु
बा नायाव</w>
बा जौ</w>
बा साव</w>
बा न्थाया</w>
ला भ</w>
ला न्थ
ला वबो</w>
ला हारि</w>
ला हारिनि</w>
ला खादों</w>
ला ङो
रा ब</w>
रा जों</w>
रा दि</w>
रा दाय</w>
रा हाबो</w>
रा सिया
रा हायै</w>
जा रा
जा सै</w>
जा गौ</w>
जा दो</w>
जा खर</w>
जा खानाय</w>
जा न्ज
जा ता</w>
जा खादों</w>
जा बायलै</w>
था द</w>
था से</w>
था खै</w>
था माव</w>
था लिया</w>
था बनाय</w>
था नानैबो</w>
था लाखौ</w>
खा रा
खा वा</w>
खा ख्लु
बि ग</w>
बि दै
बि फोरखौ</w>
बि थिखौ</w>
बि खुं
बि निया</w>
बि निनो</w>
बि सायखʼ</w>
बि श्व</w>
मा बा
मा लि
मा निफ्राय</w>
मा लि</w>
मा गो</w>
मा गा</w>
मा री</w>
मा सिनि</w>
मा ब्रै
मा रोब्ला</w>
मा लिस</w>
मा थाउ
गो आव</w>
गो जोर
मो दैनि</w>
सा ख
सा थ</w>
सा बा
सा नायनि</w>
सा हाबा</w>
सा जाखौ</w>
सा नोब्ला</w>
सा ब्रैसो</w>
हा स
हा थाइ
हा थे
हा न्थि
हा री</w>
हा ब्लानो</w>
हा लो</w>
हा कि
हा थाइनि</w>
हा खन</w>
हा थुरा</w>
गा नानै</w>
गा रो
गा हायै</w>
गा हेला
न् थाइ</w>
नाय यो</w>
नाय दाव</w>
नाय जोंनो</w>
नाय निख्रुइ</w>
सि द
सि यो</w>
सि का
सि रिनि</w>
सि जौ</w>
सि खांनानै</w>
सि ख्रि</w>
सि बनो</w>
दा स</w>
दा र्
दा ङो</w>
दा थाय</w>
दा लां
दा गा</w>
दा हाया</w>
दा सान्द
दा लायाव</w>
दा खार</w>
दा लां</w>
बे व</w>
बे दर
बे कार</w>
बे यावबो</w>
बु द</w>
बु लेट</w>
फा नै</w>
फा वा</w>
फा दोंमोन</w>
फा सि</w>
फा मानि</w>
फा देर
फा ख्रा</w>
फा ल्ला</w>
हो खां
हो नोबो</w>
हो नायानो</w>
हो यि</w>
सो बाय</w>
सो दों</w>
मोन ना</w>
मोन ोमोन</w>
मोन थारबाय</w>
मोन ैयाव</w>
मोन फ्रामबो</w>
नि जों</w>
नि बादि</w>
नि स्ता
नि खाउरि</w>
फोर सो</w>
थि फोरखौ</w>
थि न्नानै</w>
थि खं</w>
दि ग
दि स
दि खौ</w>
दि ङो</w>
बो द
बो न
बो द</w>
बो खा
बो खावनानै</w>
जे ट</w>
जे याव</w>
से मोन</w>
से निफ्राय</w>
से हे
से खʼ
से वारि</w>
जि गाब</w>
जि ख्ला
सु ना</w>
सु रनि</w>
सु बु</w>
सु ली</w>
ंग ौ</w>
गु फु
गु दु</w>
गु सेब</w>
गु जरा
फि थ
फि फ
फि नासै</w>
रि जार्
गि नायजों</w>
मि टार
मि थुन</w>
बुं बा</w>
बुं हैयो</w>
बुं फिनबाय</w>
बुं सʼ</w>
फो था
फो थै
फो थांनानै</w>
फो नाङो</w>
फो थैनो</w>
खो नाया
फै ना</w>
फै हां</w>
फै ब्लानो</w>
मु ख</w>
मु गैया</w>
मु गै</w>
मु ङानो</w>
मु सलि
आं बा</w>
आं खि</w>
ले बार</w>
थां सिगोन</w>
सान निफ्राय</w>
सान नायजों</w>
सान सेबो</w>
सान थ्र
सान सुमै</w>
सान सुनि</w>
नों लʼ</w>
खालाम ै</w>
खु मा</w>
खु जे
खु मानो</w>
खु न्थि</w>
फ्रा सो</w>
दे ं</w>
दे ग्ला
दो लʼ</w>
दो न्दों</w>
बाय ब्ला</w>
बाय नोसै</w>
गाव नानै</w>
गाव निनो</w>
गाव रावनि</w>
गाव जें</w>
सोर खि
सोर हाबा</w>
सोर नावबा</w>
दों लʼ</w>
दु फुं</w>
मे न
मे ष</w>
मे थाइ
मे नु</w>
मे ंग्ल
मे जर</w>
मे ब्लाया</w>
लो ब
राय खां
राय दाव
राय खांनो</w>
जों बादि</w>
वा बा</w>
वा लाखौ</w>
नु फैबाय</w>
नु यो
हर नाया</w>
लां नांगौ</w>
लां सुनिया</w>
गे टजों</w>
मान ै
मान िया
मान गोनां</w>
मान ैया</w>
नां थार
नां जाब</w>
.... ..।</w>
.... ..।"</w>
लु फाव
जु क्
खि थे
है बावनो</w>
है यासै</w>
फु ट
फु रियाव</w>
खार ै</w>
खार नानै</w>
खार लांदों</w>
खार लांनानै</w>
खार सां</w>
रु मु</w>
म् भ</w>
लाइ या</w>
लाइ जौ</w>
लाइ जौवा</w>
जाय निफ्राय</w>
जाय फोरखौ</w>
रे बसु
रे डि</w>
हि न्दु
दै खर</w>
दै खांनो</w>
ओं थिखौ</w>
गोसो खांदों</w>
गोसो आवनो</w>
खे वनो</w>
खे रासिन</w>
माव दोंमोन</w>
माव नायखौ</w>
राव हाबो</w>
बार न
बार हां</w>
थाय से</w>
बाव यो</w>
बाव सो</w>
बाव हाय</w>
बाव यैसो</w>
ब्र ʼ</w>
ब्र ायनो</w>
गुबु ना</w>
मानसि हा</w>
गार ना</w>
फिसा फ्रा</w>
हु खा</w>
बै नि</w>
हाब फैदों</w>
हाब फैबाय</w>
हाब सोनानै</w>
दाव मा</w>
दाव रा</w>
राइ नि</w>
न्थ े</w>
अन नानै</w>
अन थाव</w>
पा ति</w>
बोर सिनि</w>
ने सा</w>
सै माखौ</w>
के न</w>
के सनि</w>
फे नानै</w>
खै मोनब्लाबो</w>
ग्र ह
थै नायजों</w>
लिर ग्रा</w>
हां सानि</w>
फराय गासिनो</w>
ग्रा य</w>
फिन ब्ला</w>
दं लै</w>
दं नायमानि</w>
्रि क</w>
बां सिन
गाब जों</w>
गाब दोंमोन</w>
गाब गासिनो</w>
गाब हां</w>
ओंखार दोंमोन</w>
ओंखार लांदों</w>
ओंखार लां</w>
ओंखार लांनायसै</w>
मै खुन</w>
दोन थʼ</w>
दोन हैयो</w>
देर ब्ला</w>
गाय सं
गाय दाङा</w>
ब् बाय</w>
खाय नानै</w>
खाय दाजों</w>
सों थि</w>
टि फि
टि लि
बिफा नो</w>
लोगो फोरा</w>
लोगो याव</w>
बाद ी</w>
बाथ्रा फोरा</w>
सोम बाय</w>
सोम जि</w>
सोम स्रिया</w>
उन्द ैयाव</w>
मुं हा</w>
नाया नोथʼ</w>
ष् टाव</w>
जʼ रा
सार िया
नङा गोन</w>
सम जों</w>
सम सिम</w>
खाव ै</w>
खाव यां</w>
रं जानो</w>
बिबा ङा</w>
भा र्
दान थार</w>
दान थाम</w>
एसे ब्लाबो</w>
न्त े
मिनि थाव</w>
मिनि ग्ला
मिनि टनि</w>
फोरमाय थियो</w>
माइ ल
माइ क्र
आइ खौ</w>
आइ जें</w>
फुं आव</w>
फुं बिलि</w>
........ ।</w>
बादि खौ</w>
जिउ जों</w>
गौ थु
गौ लै</w>
आब सा</w>
आब ौवा</w>
आब ौनि</w>
आब हावा
आखु मा</w>
आखु फोरनि</w>
आखु थायखौ</w>
स्रि ं</w>
गʼ स्ला</w>
ब्रा ह्
बिदि नोसै</w>
दर से</w>
दर बा</w>
सुबुं फ्रा</w>
आय ना</w>
आय नायाव</w>
आय था</w>
ख्रा व
लुबै नानै</w>
कु म्भ</w>
न्दा य</w>
स्ल े
गथʼ फोरनि</w>
गथʼ वाबो</w>
गिरि नो</w>
नं दों</w>
फं सेलʼ</w>
महर थि</w>
कल् पा
साय ायाव</w>
कल्प नायाबो</w>
हारि मुवा</w>
गाम िया
दिनै लाय</w>
सोदोब मा</w>
सोदोब फ्रा</w>
गोग्लै दोंमोन</w>
फ्ला बाय</w>
दिहु नो</w>
अर डार</w>
बिथां आ</w>
बिजिर नो</w>
बिजिर नाया</w>
बिजिर नायखौ</w>
नाजा नायनि</w>
सर ला</w>
गान बाय</w>
गान ग्रा</w>
फ्ल ि
फ्ल िं</w>
राम सिया
सिनाय ो</w>
सिनाय थिनि</w>
लाव थि</w>
सिं ह
बबे निफ्रायबा</w>
जिराय दों</w>
रंजा लिखौ</w>
बोहै थिखौ</w>
आद बनि</w>
आद बजों</w>
मन्जु लाया</w>
मन्जु वाबो</w>
बाज ियावनो</w>
दौ रि</w>
सोलों नो</w>
जाव रि
जाव लियाया</w>
मोसा हारिनो</w>
बायदि सि
बायदि फोराव</w>
गिया ननि</w>
ट्रे जिक</w>
सिन जों</w>
ट्रा ष्ट</w>
दुं बुरु
गेले नायाव</w>
खरʼ निफ्राय</w>
सावराय नायखौ</w>
िये ट</w>
सोरजि नायनि</w>
भु म</w>
बें क
बें नो</w>
बें खन</w>
थुनलाइ गिरिफोरा</w>
ti cal</w>
ख्रि ं</w>
गोमा लांबाय</w>
बिब्दि ब्लाथʼ</w>
डे ल</w>
200 5</w>
थों गोर</w>
समाय स्री</w>
th er</w>
बʼ हा</w>
खाम ायनो</w>
मालाय नाव</w>
दाउ दै</w>
अन् थाय</w>
जाहो ननि</w>
स्ला ब
सुजु ग्रा
प्ल टा</w>
नाइ नो</w>
थौ बाय</w>
सिखा र</w>
जौगा नो</w>
बड़ ʼनि</w>
ra l</w>
फोथाय थाव</w>
थेफे न
बारा खौ</w>
दʼ से</w>
खौरां गाबा</w>
हार् ड
सांग्रा ङा</w>
साम फ्रोमबो</w>
खुलु म</w>
दाइ रियाव</w>
उन निफ्रायनो</w>
बिगु मा</w>
बिगु मै</w>
हाला माव</w>
बुङा बानो</w>
बुङा लाबानो</w>
फाहाम सालिनि</w>
अखा फोरनि</w>
ंग्र ाया</w>
गोजोन नो</w>
थाबाय नानै</w>
आनजा दखौ</w>
सुथु रनि</w>
सुथु रनिफ्राय</w>
मʼ काबिला</w>
पार् ट</w>
हान् थु
फ्लां दों</w>
कर् टाव</w>
कर् कट</w>
हाव रिया
रायज्लाय दों</w>
रायज्लाय नायखौ</w>
हरखा बनो</w>
आल फा</w>
एं गार</w>
थाब थायो</w>
जै बोर
जिब नि</w>
जिब ख्रि</w>
जिब ौवा</w>
जिरा दा</w>
फोले राव</w>
फोले रा</w>
गला म</w>
थर फा</w>
अनि मा</w>
धो न
ब्रे ं</w>
हाबाफा रिफोरखौ</w>
गोरोब था</w>
गोलै दों</w>
ष्ट ु
आइजो नि</w>
आइजो फोरनि</w>
जाहै नाय</w>
सिरि नाय</w>
सिरि से</w>
सिरि था</w>
थुनफावथाइ खौ</w>
जेके टा</w>
जेके टनि</w>
इउ टिलि
नागा रा</w>
नागा फ्रा</w>
जान जियाव</w>
चा हा</w>
चा णा
फसं था
कमि स
गनाय ना</w>
बाथु लनि</w>
बाराय नायाव</w>
यो दि</w>
मोजां ब्ला</w>
मोजां थार</w>
सिला रामा</w>
बोसो न
बद नाम</w>
रुजु नानै</w>
इंराज ीयाव</w>
जालां खो</w>
जागाय नानै</w>
जागाय जेन
जागाय जेननाय</w>
बर् ड</w>
थियेटा रखौ</w>
खब जबनानै</w>
हेमले टखौ</w>
खुदिया फोरखौ</w>
फैफिन नानै</w>
फैफिन ब्ला</w>
रोङा ब्ला</w>
फोनां नायनि</w>
जोहोलाव फोर</w>
सोब ग्रा</w>
मिन ियै</w>
बिखु न
स्टा इल</w>
ac t</w>
एव नाय</w>
फैफि न्नाय</w>
थगाय नाय</w>
सिब स्रां</w>
बी र</w>
बाबु नि</w>
दरबा सि</w>
द्ला मैनो</w>
गोथै सालियाव</w>
बेफोर खौनो</w>
गिला सखौ</w>
मिन्थि गौ</w>
उदु रामा</w>
जाबो दोंमोन</w>
दायनि गिरिखौ</w>
मन्थ ्र
जाथाय जों</w>
जाथाय फोरा</w>
बिग्र ाय
एंगार नाया</w>
..... ।</w>
आम थे
फेर ले
उन्दै निफ्रायनो</w>
कन ष्टे
हरबिला सनि</w>
मोब्ला व
टाइ म</w>
सोमोन्दो खौ</w>
बृ ष</w>
दर्बा सिखौ</w>
बेफा र</w>
खिन् थानाय</w>
पार मि
सैथो आ</w>
गग न्द</w>
दाका त
दैखां ना</w>
दोनथुम नो</w>
अबंलाउ रिनि</w>
अबंलाउ रिया</w>
गोलोम स्राव
नंगौ थʼ</w>
खोख्लै नानै</w>
रौ निया</w>
सोमबोर नि</w>
आलासि फोर</w>
बाख् नाय
बाख् नाय</w>
बांलादे सि
जानां नायनि</w>
हासु नो</w>
डिस् कनि</w>
इनफरमे सन</w>
फालांगि नि</w>
अं क</w>
एक्स टेनसन</w>
जेर बायाव</w>
सेन् ट्रेल</w>
फ्रे स</w>
अलके शनि</w>
सफ् टवेर</w>
जाखो ब्रा</w>
साला फोर</w>
गावथार नानै</w>
आथो ननि</w>
मावखʼ नि</w>
समबा रुनि</w>
बोरा ब</w>
खुमा नानै</w>
सोर् जि
जेन् सि</w>
नोंथाङा नो</w>
गेरे मसा</w>
हिं सायारि</w>
उवा ल</w>
साबु कखौ</w>
कामाख् या</w>
अनुले खानि</w>
रन साय
बिस्कु ट</w>
मेर गाया</w>
थें क</w>
ver y</w>
कन्ट ्र
नम्बर नि</w>
रबि ल
बुब्लि नि</w>
फोसा बनानै</w>
समि लाया</w>
लाक ीया</w>
गान्दु खौ</w>
गाबख्रा व
गोख्रों सिन</w>
उरिष् या</w>
उरिष् यानि</w>
जिल्ला फोराव</w>
बांलादेश ी</w>
दुलु र</w>
थेख्रे या</w>
अबंलाव रिनि</w>
आलुमि ंगि</w>
go d</w>
बिगो मानि</w>
gra m</w>
आउ टपुट</w>
गब्ल ंजों</w>
दिय ैनो</w>
मृ गेन</w>
बाङा ली</w>
हुखु मो
ट्रेजे दि</w>
आसार खान्थि</w>
मोन्थ ोर</w>
निरा मिस</w>
थुर सि</w>
मोगथां नि</w>
गान्ध ीया</w>
उलाफा दाव</w>
सिल ङाव</w>
बुध बारखालि</w>
पजʼ वा</w>
बक सिस</w>
दाबुं सै</w>
देहाया रि</w>
बाथे द</w>
थिक खौनो</w>
मैरा लिखौ</w>
भाव थि
ट्रेन्स पर्ट</w>
डकु मेन्ट</w>
नर् थ</w>
सानस्र ियाव</w>
इन्जु राव</w>
चौधु रीया</w>
jec tive</w>
सुबुङा रि</w>
इसोर ा</w>
नांबाव गौ</w>
नारें खल</w>
साफ्रासी फोरा</w>
इमार जेन्सि</w>
इनिं थौ</w>
धर् मे
लाथि खʼ</w>
मोबाय जोंबो</w>
सारे ण्डार</w>
गुबुं ले</w>
रिट ाया
बुंसʼ हाया</w>
लेदि ज</w>
दोंसै मोन</w>
बुब्रा ब</w>
सोल ियो</w>
निलि खत</w>
खुंथाइ यारि</w>
log y</w>
tem ber</w>
खमै बो</w>
बेइ जिं</w>
sep tember</w>
भो ट</w>
दासान्द ै</w>
" ...</w>
' -</w>
) -</w>
- ,</w>
1 000</w>
3 1</w>
3 7</w>
4 7</w>
? )</w>
a f
b ut</w>
c e</w>
c li
c hara
f e
i r</w>
m a</w>
m or
m on
o t</w>
p c</w>
p rac
t w
t x
w i
} :</w>
अ स्
अ ख्रा</w>
अ स्ता
अ हʼ</w>
आ हा
आ कु
आ ति
आ सʼ</w>
आ सिजों</w>
आ न्च
इ ननि</w>
इ ण्ड</w>
इ सोरखौ</w>
इ न्द्र
उ नि
उ दैखौ</w>
उ दाङै</w>
ऊ ँ</w>
ए नि</w>
ए खु
ए थे
ए रिया</w>
ए खर</w>
ओ इ
क हि
क वार्
ख रा
ख स्
ख नाथिं</w>
ग दाय
ग ायावनो</w>
ग वाल
घ र्
ङ ाय
ज रि
ज गोन</w>
ज खाय
ज स्ल
ज खानि</w>
ज थायै</w>
ज न्त्र
ड ्रा
त ै</w>
थ नि</w>
थ ीया</w>
थ खन</w>
द त
द ौ</w>
न भे
न न्द</w>
प न्
प सम
फ रा
फ जनानै</w>
ब ी</w>
ब क</w>
ब सेबो</w>
ब जबना</w>
भ बे
म ल</w>
म ण</w>
म दों</w>
म प्
म मखौ</w>
म ण्ड
म स्ट</w>
म नालि
र फोर</w>
र मान</w>
ल क
ल ह
ल क</w>
ल स</w>
ल बो</w>
ल गाय
श न
श ी</w>
श ची
ष ा</w>
स ब
स क</w>
स ों</w>
स फोरा</w>
स न्नानै</w>
स ीया</w>
ह स्
ह जुर</w>
ो नो</w>
ो बा</w>
् फो
। .....</w>
। ..........</w>
ना म्
ना थार</w>
ना लें
ना गाया</w>
ना छा
बा ना
बा ग्रा</w>
बा ंनि</w>
बा क्
बा दां</w>
बा ंग्रा</w>
बा सजों</w>
बा ख्रियाव</w>
बा रांगा
बा स्रिनाय</w>
ला र
ला गो
ला न्
ला नजा
ला ब्रा</w>
ला दाय</w>
ला सिगोन</w>
ला नानैबो</w>
ला खांनायनि</w>
ला नांदों</w>
रा मोन
रा ङै</w>
रा गाखौ</w>
रा दायखौ</w>
जा बो</w>
जा थि
जा लि
जा रे
जा बां</w>
जा फ्ल
जा दिया</w>
जा इन</w>
जा खाबाय</w>
जा नोबा</w>
जा नोसो</w>
जा थारगोन</w>
था खा
था नां
था थʼ</w>
था फैयो</w>
था नोसै</w>
था फैदों</w>
था खोमा
था लांनाय</w>
था स्लि
था हैनाय</w>
था सारिनि</w>
खा म</w>
खा जा
खा लखौ</w>
खा जाखौ</w>
खा ङाखै</w>
बि बाय</w>
बि फोर</w>
बि लाया</w>
बि लो</w>
बि जोंनो</w>
बि मुं</w>
बि हाबो</w>
बि हार</w>
बि गुर
बि भी
बि दैजों</w>
बि थं</w>
बि घा
बि सारखौ</w>
बि हारिफोरा</w>
मा दैया</w>
मा बेबा</w>
गो गो
गो सा
गो थां
गो दै
गो रां</w>
गो बोर
गो नाङा</w>
गो बांसिन</w>
गो लांनानै</w>
गो थारै</w>
मो फ्ला
सा त
सा दों</w>
सा बो
सा खाफा
सा खाथि</w>
सा हाब</w>
सा ंखा</w>
हा राम</w>
हा खर
हा नायानो</w>
हा थर</w>
हा थेर</w>
हा दोंमोनब्लाबो</w>
गा इ</w>
गा लाङो</w>
गा स्नि</w>
न् ड
नाय हाब
नाय फिन
नाय गिदि
नाय खौलाय</w>
नाय नायसाय</w>
नाय बिजिर</w>
सि न्नानै</w>
सि फुं</w>
सि लाइखौ</w>
दा ख
दा निफ्राय</w>
दा सा</w>
दा रै</w>
दा नाया</w>
दा मानि</w>
दा नखौ</w>
दा बाद
दा बिखौ</w>
दा हालागै</w>
दा खोन</w>
बे सोर</w>
बे ङै</w>
बे ले</w>
बे जे</w>
बु नाय</w>
बु हा</w>
बु रा</w>
बु री</w>
बु जाय</w>
बु न्दानि</w>
बु र्जा</w>
िय ोमोन</w>
फा रे
फा ल्
फा लाया</w>
हो राव</w>
हो लांनो</w>
हो फै</w>
हो लांदों</w>
हो खांनायनि</w>
हो सेयावबो</w>
सो न
सो ला</w>
सो लाया</w>
सो सन
सो गारो</w>
सो होर</w>
मोन ला</w>
मोन नायाव</w>
मोन होनो</w>
मोन फैयो</w>
मोन बानो</w>
मोन ैलाय</w>
मोन फ्रोमखौबो</w>
नि गिरि</w>
नि रन्जन</w>
फोर निबो</w>
थि खि
थि ङैनि</w>
दि से</w>
दि न्दां</w>
बो खौ</w>
बो खो
बो खाव
बो ख्लाय
बो आखै</w>
बो थ्रोदनानै</w>
जे व</w>
जे खौबो</w>
जे रावनो</w>
से ल
से म्
से रै</w>
से जोंनो</w>
सु ख
सु ट
सु ब
सु बाय</w>
सु यो</w>
सु रै</w>
सु हाब
सु ंनि</w>
सु खि</w>
गु वाव</w>
गु दिया
गु थाल</w>
गु ग्रु
फि उ</w>
फि था</w>
फि थाइनि</w>
फि सिनाय</w>
फि सायानो</w>
रि सिम</w>
रि फोरजों</w>
रि सार्
रि भल
गि बिनि</w>
गि हु</w>
गि सिब
्ला इ</w>
मि उ</w>
मि रु
बुं नि</w>
बुं ला
बुं खा
बुं सो</w>
बुं हर
फो था</w>
फो जाव
फो थांनो</w>
खो न्दा</w>
खो ब्रा</w>
फै ला</w>
फै नांगौ</w>
फै थʼ
फै खाङो</w>
फै योमोन</w>
मु ल
मु म्
खाला नि</w>
लि न</w>
लि ङो</w>
लि फोरा</w>
आं नि
आं खालनि</w>
ले बे
ले वा</w>
ले बेल</w>
ले न्स</w>
थां फिनो</w>
थां फायो</w>
नो गोनां</w>
सान नायनि</w>
सान नैसोनि</w>
नों सि
नों दा</w>
नों दाया</w>
नों सिनाव</w>
खालाम ब्लाबो</w>
खालाम होनानै</w>
खालाम ब्लानो</w>
खु रिया</w>
खु सिनि</w>
खु न्थिया</w>
दे न
दे ब</w>
दे खोन</w>
दो खौ</w>
दो नासै</w>
बाय ै</w>
बाय हेरायाव</w>
गाव नि
खौ रांनि</w>
सोर थो</w>
र् क</w>
दों नै</w>
दों बो</w>
मे गा
मे वा
मे लायाव</w>
मे थाइनि</w>
मे हेर</w>
लो बबा</w>
राय फोर
लाय नांगौ</w>
लाय गासिनो</w>
जों खां
जों रुनि</w>
वा ल</w>
वा ब्ला</w>
नु यै</w>
नु हरा</w>
हर नायाव</w>
हर सेमानि</w>
लां नायमोन</w>
या र
या र्
या लʼ</w>
या थʼ</w>
गे ं
गे ट
गे बेङै</w>
मान ैखौ</w>
नां खौ</w>
.... !</w>
.... ?"</w>
बर ाया</w>
बर सा</w>
लु फुंनाय</w>
स्र ियो</w>
जु न</w>
जु गु
जु गाव</w>
जु थायखौ</w>
थु यै</w>
थु ख्रा
थु ख्रा</w>
खि निखौ</w>
िया दि</w>
खां नानैनो</w>
फु नानै</w>
फु ङो</w>
फु ख्रि</w>
फु थुनानै</w>
फु वार
खार फा
खार बाय</w>
खार दों</w>
खार बो
रु नानै</w>
रु मावनो</w>
रु बैजों</w>
बाथ रुमाव</w>
बाथ रुम</w>
ङा वसो</w>
लाइ फ</w>
लाइ फा
जाय ै
जाय ैनो</w>
जाय गाया</w>
समा वसो</w>
स् कि
हि उ
हि रʼ</w>
हि न्दी</w>
दै बो</w>
दै यो</w>
दै खां</w>
दै मायाव</w>
नै सो
नै जि
ओं ख्रि</w>
गोसो निफ्राय</w>
खे र</w>
खे नानै</w>
माव बो
माव सोम
माव रिया
माव खुं
माव जिया</w>
माव जाग्रा</w>
मोजा ङा</w>
थाइ लिर</w>
बार लांबाय</w>
बार लाम्फा</w>
बार सनानै</w>
टा नि</w>
टा वार
थाय नैजों</w>
थाय नैखौ</w>
बाव खो</w>
हम सʼनो</w>
थार ी</w>
थार दोंमोन</w>
थार लै</w>
मानसि खौनो</w>
जोब नायसै</w>
थे ब
हु म</w>
हु र</w>
हु फ्ले</w>
हु मखि</w>
हु गारै</w>
बै नाय</w>
बै यो</w>
फाव ाव</w>
का ना
का नाइ
दाव ज्ला</w>
राइ खौ</w>
हाय ैया</w>
अन सु
सलʼ फोरखौ</w>
सलʼ गिरि</w>
सलʼ बाथा</w>
पा उन्द
पा पी</w>
फार नि
फार नै
सं क
सं दान
ने मखौ</w>
मिथि ं</w>
मिथि ना</w>
मिथि सʼ</w>
मिथि सिगौ</w>
सै मानि</w>
के न्
के मि
के रे
फे न
फे स</w>
फे न्दा</w>
फे न्ट</w>
साव थुन</w>
साव थाल
खै लै</w>
थै दों</w>
थै ब्ला</w>
लों होनो</w>
ग्ल ायो</w>
लिर ना</w>
हां नाय</w>
हां फ्ला</w>
खʼ बाव</w>
खʼ नाजों</w>
री जों</w>
ता र</w>
ता स</w>
ता लाव</w>
फराय नायनि</w>
बिसोर नाव</w>
जौ सिन</w>
जौ सां</w>
दं फा
दं मोनब्लाबो</w>
बां होनो</w>
गाब खʼ</w>
टे ड</w>
ओंखार नायनि</w>
ओंखार हां</w>
ओंखार लांनो</w>
ओंखार बोबाय</w>
मै ना</w>
दोन दोंमोन</w>
दोन ग्रा</w>
दोन खोमा
गाय दे
सों नांगौ</w>
सों बावो</w>
थʼ वाखै</w>
थʼ फ्ला</w>
टि खौ</w>
बिफा नजों</w>
प्र ु
प्र शान्त</w>
मह न
मह राबो</w>
खोना दोंमोन</w>
बाथ्रा फ्रा</w>
सोम हाबनानै</w>
मेग नाबो</w>
खन खांनानै</w>
गं थाम</w>
मोन् नांगौ</w>
मोन् नैबो</w>
जʼ खायसे</w>
सार नो</w>
सार ियाव</w>
ओंखा म
ओंखा मा</w>
नङा मोनब्ला</w>
राइजो फोरनो</w>
बरʼ वानो</w>
आखा न्थियाव</w>
थाव सिन</w>
बिबा ंनि</w>
बेसे नखौ</w>
बेसे ग्राब</w>
दान थार
दान सेनि</w>
दान सेयारि</w>
हाया मोन</w>
फोरमाय नायजों</w>
फोरमाय थिनाय</w>
आख ायावनो</w>
माइ ल</w>
माइ खौ</w>
माइ रं
आइ दै</w>
बाहा गि
फुं निफ्राय</w>
रां खान्थिनि</w>
........ .....</w>
बय हाबो</w>
आना राम
सानै याबो</w>
फावथाइ गिरिनि</w>
आलाइ स्रि
आलाइ याबो</w>
आखु थाइ</w>
जाया नो</w>
जाया ब्लाबो</w>
ब्रा य</w>
सौ फैयो</w>
सौ फैबाय</w>
आय े
ख्रा ं
बिना नाव
लुबै सुला</w>
लुबै योब्ला</w>
डि भा
गिरि मोन</w>
गिरि फोरनो</w>
उन्दु दो</w>
उन्दु लांनो</w>
पि ं
साइ टʼ
साइ रʼ</w>
आथि ं
आथि ंजों</w>
गोजो र</w>
माखा सेखौ</w>
सोदोब खौनो</w>
सोदोब माया</w>
नांगौ बा</w>
राज ्य</w>
बिलि दनानै</w>
बिलि दबाय</w>
आव सो</w>
अर न</w>
अर नो</w>
अर खि
अर गें</w>
बिथां खि
बिथां निनो</w>
नाजा व</w>
नाजा वनो</w>
नाजा नांगौ</w>
नाजा नायखौ</w>
नाजा दो</w>
नाजा नांगोन</w>
नाजा वनानै</w>
ब्रह् मखौ</w>
फ्ल ं</w>
पे से
पे ट्रि
बान नानै</w>
बान बुंथि
लाव रि</w>
हिन्जाव सा
हिन्जाव फोरजों</w>
अना र</w>
अना ली</w>
गोहो मखौ</w>
कम् फिउ
बोहै थि
मन बारु</w>
दुखु यै</w>
आद ब
आद बा</w>
मन्जु बाला</w>
बाज ्र
बसुमता रीखौ</w>
साया राम
साया रामनि</w>
ग्ला स</w>
गोनां खौ</w>
गोनां ब्ला</w>
दौ नाय</w>
ग्रो नि</w>
ग्रो नो</w>
जाव जा
लाइजा माव</w>
दाजाब दानि</w>
दाजाब फानाय</w>
बायदि सो</w>
in t</w>
दिहुन गिरि</w>
फान ग्रा</w>
गर द</w>
गिया नखौ</w>
ण्ड ाव</w>
गसं नाय</w>
जोहो ला
फिसाजो नो</w>
थिन नायाव</w>
थिन हरनानै</w>
सावराय नाया</w>
सोरजि नि</w>
सोरजि नानै</w>
सोरजि नायाव</w>
भु त</w>
ti on
रिं खां
धोरो माव</w>
बिर लाङो</w>
लाजि नाया</w>
बाया रि</w>
दाउ ला</w>
थाया सै</w>
थाया वबो</w>
सिखार नो</w>
सिखार दों</w>
बुर खाय</w>
सुजु ग्रानि</w>
प्ल टखौ</w>
नाइ नि</w>
मोखां आव</w>
इन् जुर</w>
नख ल</w>
सुर नो</w>
जौगा नायनि</w>
जौगा खांनायाव</w>
मनजु आबो</w>
दाम नानै</w>
... ?</w>
गोजौ निफ्राय</w>
साम लायनानै</w>
निया लाय</w>
यु व</w>
गोरा नजों</w>
फोसाव नानै</w>
नोंसोर लाय</w>
जार ला</w>
श्र िया</w>
बिलाइ जों</w>
होन् दों</w>
बोसोर ि</w>
बोसोर नै</w>
बोसोर फ्रोमबो</w>
स्रो त</w>
फाइ लफोरखौ</w>
कʼ ट</w>
कʼ र्ट</w>
एर सो
मोनसे याव</w>
नायजाब फोरा</w>
गैय ि
गैय ैखाय</w>
बिबार जों</w>
ou s</w>
सोमजि दों</w>
सोमजि होयो</w>
हौवा फोरजों</w>
हाव लाद</w>
हʼ वा</w>
कम्पिउटा राव</w>
थोर फो
थोर ्फो
जाफुं गोन</w>
हरखा दों</w>
मंग ʼ
बिथि ङा</w>
गम्भी रा</w>
co l
co p
खोनासं बाय</w>
खल थाया</w>
जिरा त</w>
ओनसो ल</w>
कम प्ले
कम बक्
फोले रखौ</w>
फोले रारि</w>
स्कु लनि</w>
सोलाय दों</w>
जोम नायखौ</w>
जेरै बादि</w>
गेव लां
re s
re ven
धु बुरी</w>
फाग्ल ाया</w>
गोरोब होनानै</w>
आइजो फोरखौ</w>
जाहा द</w>
सान्थ ्र
नायगिर नानै</w>
जाहै गोन</w>
ज् ञ
ज् यो
इउ रʼ
थाइला लिनि</w>
गय थिया</w>
बाथु वा</w>
गोर् बो</w>
शि क</w>
सम् बा
रेब ती</w>
जांख्रि थाइ
जांख्रि थाइनि</w>
जांख्रि थाइयाव</w>
बोसो नखौ</w>
चे या
चे यार</w>
रुजु नाय</w>
गाबज्रि बाय</w>
क्ला बाव</w>
नोगोर खौ</w>
क्ष ा</w>
हाजो निफ्राय</w>
लोब् बायारि</w>
देवा ननि</w>
गोसोखां थिखौ</w>
सलʼमा गिरिया</w>
डाक् टारा</w>
मोग थाङा
देंखो खौ</w>
धा न</w>
सिस्टे मा</w>
गावबु ढ़
स्टा र्
ac c
सरका र</w>
आर् य</w>
सान्थ्रि फ्रा</w>
फजʼ नो</w>
बी रु</w>
नाङा मोन</w>
बिया र</w>
ब्ले क</w>
लामा जोंनो</w>
मार् के
मार् का</w>
बेफोर ो</w>
दावबाय नाया</w>
बोलो आव</w>
द्राय ब्ला</w>
दायनि गिरिया</w>
उल् टा</w>
बराय नाय</w>
दाहा जों</w>
स्ट ʼ</w>
यै ब्लाबो</w>
लरे ननि</w>
एंगार नायनि</w>
अक् सिन</w>
अक्ट ʼ</w>
सन् मान</w>
सन् मिल
फाफ्ल ि</w>
नुजाथि नाय</w>
फाया रिं</w>
सर् बे
खालि निफ्राय</w>
मोनजा रोङै</w>
सेक्स प
थारा लै</w>
होआ सै</w>
खिर खि</w>
माल दार</w>
हालो दा</w>
मिल ियन</w>
जुरि जेन
................ ................
अनाथ ीनि</w>
हास्थाय नाय</w>
हास्थाय नायखौ</w>
बृ हस्
बृ शिक</w>
दाबि नायनि</w>
बुथुम नानै</w>
नेर् सो
दाका ति</w>
मेमʼ रियाव</w>
दोनथुम ो</w>
सोमबोर खौ</w>
मोनाम नाय</w>
आलासि फोरखौ</w>
मोसौ वा</w>
गाँ वाव</w>
so ci
आमेरि का</w>
ध् य</w>
जानां दोंमोन</w>
गारि निफ्राय</w>
जिर ायो</w>
दुर ्लुब</w>
डिस् क्‌</w>
ic al</w>
देव ना</w>
रुप सिं</w>
गʼला प</w>
सी ज</w>
जाफु ङा</w>
साख्रि नि</w>
रुफा थि</w>
अनसाय नाय</w>
दमा सु</w>
दैथाय हरनो</w>
नेव सिनो</w>
ककराझा रनि</w>
आबै नि</w>
एन जर</w>
थादʼ नाय</w>
दावबाया रिफोरनि</w>
सोदोम स्रिनि</w>
आजाव नानै</w>
भुगि नांनाय</w>
आन्जा दाव</w>
बाख नायथाव</w>
देरगा नाय</w>
po si
गुन्द ्रा</w>
हाये न</w>
बिनाना वा</w>
बरगया री</w>
बादाय लायनाय</w>
दोहोरो मनि</w>
सहै ब्ला</w>
गुजु स्रे
अख्रां मा</w>
साबु कनि</w>
फोरमान खौ</w>
जोख्लो ब</w>
सेके ण्डा
फावदु र</w>
डाक्ता रा</w>
असि ला</w>
दोरो द
बिम ायाबो</w>
गुदि निफ्राय</w>
मुसाहा री</w>
लाइमोन फोरा</w>
......... ।"</w>
फोजोबस्रां नो</w>
किउरिय ʼनि</w>
आन्दो याव</w>
कृष् ण
फिल् म</w>
मेसे ं</w>
दब थाय
बन् ध
नंमार गौ
फोलाव नानै</w>
जापा ननि</w>
जोंरु हा</w>
बरु वा</w>
बैथा ली</w>
कास्त मार
सʼना फुलि</w>
जिराद फोरखौ</w>
गलाफ ी</w>
बेसाद फोरखौ</w>
बिग्राया रिफोरा</w>
भ्लादिमि रा</w>
नुहु र
बैरा थी</w>
प्रदे श</w>
प्रदी प</w>
नंखाय खौनो</w>
बम फां</w>
हाले व
निर् मालिया</w>
देग्लाय नि</w>
थुंग्र िया</w>
मुंराय नि</w>
खनसाय नि</w>
हाबिल दार</w>
हाबिल दारा</w>
शु क्र
गोल्ल ै</w>
हादो राव</w>
सिकि उ
मुकु ट</w>
देउ ल</w>
रेन् ज</w>
रेजि ष्ट्रे
लुबैया खैमोन</w>
क्रʼ र
सानबोलाव रि</w>
जिबारेलि न</w>
थिंगि नि</w>
नेटवार् क</w>
रह मान</w>
बिगोमा जोआ</w>
खिरखि जों</w>
ed y</w>
इस्ला रिया</w>
थं ब्ले
रजि जों</w>
थालि द</w>
बिफ ं</w>
बुध् दि</w>
सुबि धा</w>
काश् मी
हायना मुलि</w>
मिनिस्लु यै</w>
खथा निफ्राय</w>
दख् ना</w>
बाक सा</w>
थाङो बा</w>
साख्र ियाव
फिरफि ला</w>
सायना सालियाव</w>
आवग्रि नानै</w>
रोंग थि</w>
डेन मार्
sc en
रायजि तखौ</w>
जुलु म</w>
बादिय ैनो</w>
रामच िया
आरज लाइ</w>
सम्फ थि</w>
आब् दुल</w>
उप ्रा</w>
मस ला</w>
बेलाया वबो</w>
गौहाट ीयाव</w>
स्लʼ गान</w>
दुंब्रु द</w>
फोरो ङो</w>
जोथो नै</w>
प्रफु ल्ल
रिंगा सो
सफ्ट्‌ वेर</w>
रमान् टिक</w>
राक्ष स</w>
गोज्व ौ</w>
गेदाइ या</w>
इक्ले टिक</w>
एखम बा</w>
जान्ज ियाव</w>
गौथु मनि</w>
chara ct
prac tical</w>
tx t</w>
आन्च लिक</w>
साखाफा रा</w>
मावखुं गोरा</w>
साइटʼ काइ
reven ge</w>
बृहस् पति
" ....</w>
0 8</w>
1 2
3 6</w>
3 3</w>
4 1</w>
5 4</w>
7 0
7 8
8 4</w>
: ।"</w>
b il
b le</w>
b ar</w>
c ru
d e</w>
d er
f ro
f il
h e
i de
k ing</w>
m er
n e
o h</w>
o tion</w>
o logy</w>
r d</w>
t er</w>
t ed</w>
t ure</w>
u p</w>
v e
w el</w>
ʼ ल</w>
ँ इ</w>
ं गार</w>
अ ब</w>
अ बे</w>
अ रनि</w>
अ मानि</w>
अ बाव</w>
अ सम</w>
अ सान्ति</w>
अ मुक</w>
अ खनबा</w>
आ नि</w>
आ जि
आ सु
आ ला</w>
आ थि</w>
आ खि
आ फोर</w>
आ पु
आ सिखौ</w>
आ बिर</w>
आ बादारि</w>
इ छ
इ लिय
इ लेक
उ मे
उ द्राय
ए ख
ए सि</w>
ए सनि</w>
ए क्स</w>
क ृ
क बि
क सा
क ायाव</w>
क निफ्राय</w>
क बि</w>
क ीया</w>
क फि</w>
क ्राइ
ख वा</w>
ख हाब
ख ायाबो</w>
ख ष्ट</w>
ख साब</w>
ग ब
ग न</w>
ग नायनि</w>
ग था</w>
ग ने
ग थायो</w>
ग दाया</w>
ग दायनि</w>
घ ड़
ङ िया</w>
च ै
च र</w>
छ ि</w>
ज य</w>
ज गाज
ज गार</w>
ज थुम
ज रासे</w>
ट ल</w>
ट ं</w>
ट ाया</w>
ट र्
ड स</w>
ड जों</w>
ढ ा
त ै
त ्रि</w>
त सर
थ लʼ</w>
थ फ्लि</w>
द न</w>
द से
द सो</w>
द ाया
द र्जा
द ायाबो</w>
द राखौ</w>
ध ी
ध रा</w>
न खौबो</w>
न सुं
न ोरो
प जों</w>
प जि
प जʼ</w>
प केट</w>
फ राइ
फ ख्रि</w>
फ ौवा</w>
ब ले
ब माजों</w>
ब क्स</w>
ब कुल</w>
भ र्
म न्द
म ता
म ल्ल</w>
य दा</w>
र न</w>
र स</w>
र िय
र हेला
ल ग</w>
ल ्ला
ल था</w>
ल हे
ल आव</w>
ल ैनो</w>
व लाय</w>
व र्क
श नाव</w>
श ्रि
श नखौ</w>
स फ
स रि</w>
स न्द
स रा</w>
स हि
स फोरखौ</w>
स ङै</w>
स खौबो</w>
स ति
स बाइ
स हि</w>
स हʼ
स फैगोन</w>
स लादे
स नेल</w>
ह प्
ह ष्टे
ह गारो</w>
ी ं</w>
ी बा</w>
ी याबो</w>
ु म</w>
ै बादि</w>
ो बो</w>
ो लै</w>
् ल</w>
ना ग
ना फा
ना ब्ला</w>
ना वा</w>
ना पि
ना दाय
ना सय
ना थायबा</w>
बा था
बा खि</w>
बा ध्य</w>
ला न</w>
ला खा</w>
ला लै</w>
ला लु</w>
ला सिं
ला नोबो</w>
ला सखौ</w>
ला ङोब्ला</w>
ला नांबाय</w>
ला हारिया</w>
ला न्स</w>
ला गैनो</w>
रा सो</w>
रा निफ्राय</w>
रा गायाव</w>
रा हानि</w>
रा वाबो</w>
रा गाया</w>
रा ङानो</w>
जा उ
जा इ</w>
जा त</w>
जा थ</w>
जा ना
जा थार</w>
जा फैनो</w>
जा खायो</w>
जा फुं</w>
जा नांनाय</w>
जा जोबनानै</w>
जा नांगौमोन</w>
जा खागोन</w>
था लां
था म्
था लाङो</w>
था लनि</w>
था लांबाय</w>
था फ्ल
था दʼ</w>
था नोबो</w>
था लांदों</w>
था फैनाय</w>
था खोमा</w>
था नायानो</w>
था नायखाय</w>
खा प
खा जों</w>
खा ङा</w>
खा ख्र
खा लै</w>
खा ंग्रा</w>
खा ख्ला
बि द</w>
बि रे
बि खि</w>
बि लनि</w>
बि साइ
बि दां</w>
बि लियाव</w>
बि लायाव</w>
बि माय</w>
बि सना</w>
बि स्व
बि साल
बि घा</w>
बि योदि</w>
बि जावजा
मा घ</w>
मा नाव</w>
मा दा</w>
मा दै
मा बायदि</w>
मा सेबो</w>
मा सिया</w>
मा बोरै
मा न्दार</w>
गो ना
गो राय
गो नाङै</w>
गो लैनो</w>
मो सानो</w>
मो जोम
मो खोना</w>
सा म</w>
सा ह</w>
सा फा
सा थि
सा था</w>
सा न्दा</w>
सा बेसे</w>
सा नाबो</w>
सा खाथिनि</w>
सा लाम</w>
सा खाथियावनो</w>
सा फ्रोम</w>
हा उ</w>
हा ब्ला</w>
हा खो</w>
हा नांगोन</w>
हा दान</w>
हा ननानै</w>
हा थारनाय</w>
गा सा</w>
गा रां
गा ग्ला
गा हायावनो</w>
गा ण्डा</w>
नाय ो
नाय नांगौ</w>
नाय दाव
नाय जानो</w>
नाय फ्रा</w>
नाय स्रा
नाय सन
नाय नोबो</w>
नाय हाबनानै</w>
नाय खं
नाय निखुरै</w>
सि य
सि न्
सि दों</w>
सि रा</w>
सि थार</w>
सि लनि</w>
सि डे
सि खांनो</w>
सि फ्ला</w>
सि दोब</w>
दा नै</w>
दा दों</w>
दा था</w>
दा बोर
दा न्दा</w>
दा निफ्रायनो</w>
दा रु</w>
दा बाद</w>
दा थासै</w>
बे ब
बे रामा</w>
बे सोरनि</w>
बे फोरखौबो</w>
बे थन</w>
बु क</w>
बु लाय</w>
बु जि</w>
बु बिलि</w>
्ल ि</w>
्ल स</w>
फा रा
फा गोन</w>
फा फा</w>
फा हाय
फा स्ला
फा दोर
फा ंगु
फा सय
फा फनि</w>
हो या
हो फैनाय</w>
हो स्रां
हो नानैसो</w>
हो यो
हो थेनानै</w>
सो बा
सो बै</w>
सो लायबाय</w>
सो रांनि</w>
सो दांनाय</w>
सो होराव</w>
मोन खा
मोन थाय
मोन फिन
मोन लिया</w>
मोन हैयो</w>
मोन नायमोन</w>
मोन गौमोन</w>
मोन जायाखै</w>
मोन फिनबाय</w>
मोन हैनाय</w>
मोन नैखौ</w>
नि जोर
नि टि</w>
नि दानखौ</w>
फोर निख्रुइ</w>
फोर माना</w>
थि न्नाय</w>
थि न्नायाव</w>
दि खार
दि ननिफ्राय</w>
दि खांनो</w>
दि दोम</w>
बो आनो</w>
बो ल्दानानै</w>
जे लाव</w>
जे न्द्र</w>
से ट</w>
से रा</w>
से यै</w>
से क्स</w>
जि ला</w>
सु न</w>
सु रि
सु ग्रा</w>
सु गाव</w>
सु बाव</w>
सु थार</w>
सु निखौ</w>
गु ननि</w>
गु रिनि</w>
गु लियाव</w>
गु दिया</w>
गु लार</w>
फि क</w>
फि थो
फि दिङो</w>
फि ंगार</w>
रि ग
रि बो</w>
रि पर्ट</w>
गि खांनाय</w>
गि सिब</w>
मि स
मि न्थ
मि न्ट
बुं नोबो</w>
बुं नायमोन</w>
बुं हैबाय</w>
बुं फ्लां
बुं हरनाय</w>
बुं खाबाय</w>
बुं सʼनो</w>
फो न
फो जो
फो जायो</w>
फो थार
फो नां</w>
फो जानानै</w>
फो जोबो</w>
फै नायमोन</w>
फै खादों</w>
फै सानि</w>
फै फिननो</w>
फै योब्लाबो</w>
मु सि</w>
मु थिया
लि बारे
आं नाबो</w>
आं खाल
ले ट
ले द</w>
ले स</w>
ले हे
थां नि</w>
थां गोन
थां फिनगोन</w>
नो खि</w>
सान राय
सान हाब
सान फिनो</w>
सान फेराखैमोन</w>
नों ना</w>
नों निनो</w>
नों साला</w>
खालाम है
खालाम सिगोन</w>
खु नानै</w>
खु नाय</w>
खु वा
खु न्थ
खु म्ब
खु थारै</w>
फ्रा लाय</w>
दे ब्ला
दे ने</w>
दो आ</w>
दो बै</w>
बाय गोन</w>
बाय नालाय</w>
गाव राव</w>
गाव स्रा</w>
गाव हानो</w>
गाव थारनाय</w>
सोर नो</w>
सोर नाव</w>
दों थाय</w>
दों थʼ</w>
दु न
दु त</w>
दु ंग्रा</w>
दु ब्रि</w>
दु खारु</w>
मे जे
लाय ना</w>
लाय दोंमोन</w>
लाय नायखौ</w>
लाय होनानै</w>
लाय लांबाय</w>
ब्ला लʼ</w>
जों ब्लाबो</w>
जों थʼ</w>
जों गा</w>
वा वसो</w>
नु गा
नु बो
नु जा</w>
नु है
नु थायाव</w>
नु गासे</w>
नु थारदों</w>
नु ग्रोमोना</w>
हर खौ</w>
हर बा</w>
हर नांगौ</w>
हर जानाय</w>
लां गासिनो</w>
लां गार</w>
लां फाबाय</w>
गे न्द
गे ब्ले
गे दाइ</w>
गे न्द्र
गे ब्लाया</w>
मान ियो</w>
मान ियानो</w>
नां फैदों</w>
नां ज्लाय
नां थाब
लु नो</w>
जु त</w>
जु थु
जु नैबो</w>
रो ङोब्ला</w>
रो दाखौ</w>
खि ग्रा</w>
िया रनि</w>
िया वसो</w>
खां सोर</w>
खां नायसै</w>
खां ख्ला</w>
है या</w>
है याखै</w>
फु बाय</w>
फु दों</w>
फु थिया
फु ख्रियाव</w>
खार खो
खार सन
रु जु</w>
म् मद</w>
लʼ थार</w>
बाथ ायाव</w>
बाथ ौनि</w>
बाथ ोन</w>
ङा सै</w>
ङा खैमोन</w>
लाइ सि
लाइ नाव</w>
लाइ ननि</w>
लाइ टा</w>
लाइ फां
जाय ैनि</w>
रे गा</w>
रे गां</w>
स् क</w>
स् र</w>
स् मा
हि साब
हि माल
दै खौनो</w>
दै मु</w>
गोसो थो
खे राइ
माव नाया</w>
माव गासिनो</w>
माव मोनथायनि</w>
मोजा ंखौ</w>
राव ना</w>
राव फोरखौ</w>
राव यै</w>
हे व</w>
हे लमे
बार े</w>
बार नायनि</w>
बार सʼ
बार हावा</w>
टा टा</w>
टा उननि</w>
बाव ब्ला</w>
बाव गार
बाव नायसै</w>
ब्र ैनि</w>
ब्र ैयाव</w>
हम ै</w>
हम गोन</w>
मानसि सो</w>
मानसि ङा</w>
मानसि फोरजों</w>
मानसि फ्राबो</w>
जोब गौ</w>
जोब थारनाय</w>
गार ाया</w>
गार हर
गार दोंमोन</w>
गार खो</w>
गार ्लस</w>
हु रा
हु दाया</w>
बै सु
बै ग्रि</w>
फाव साय
फाव थायारि</w>
का ल
का म</w>
हाब लाय</w>
हाब लांबाय</w>
हाब फैदोंमोन</w>
दाव स्रि</w>
राइ फे
न्थ ायाव</w>
सलʼ वाबो</w>
सलʼ वानो</w>
पा ल
पा रानि</w>
बोर ्
ने ग्रा</w>
ने शनेल</w>
मिथि स्लाबा</w>
के जि</w>
के रल</w>
फे ले
फे सा</w>
फे न्दा
फे फे</w>
फे देरनानै</w>
थो लो</w>
थो थोर</w>
साव बाय</w>
साव गारिजों</w>
खै सिं</w>
ग्र े</w>
रै खा
थै हां</w>
थै जासे</w>
लों ब्ला</w>
ग्ल ायनो</w>
सिगा ंग्रो</w>
लिर नांगौ</w>
हां गार
हां मानि</w>
खʼ था</w>
गासि खौबो</w>
री आ</w>
ता ँ
ता ला</w>
ता न्त
फराय गोन</w>
फराय नोबो</w>
फराय सुलि
ल् या</w>
ग्रा सो</w>
ग्रा फिक</w>
फिन ज्राब</w>
गिर ियानो</w>
जौ जों</w>
जौ थाय</w>
जौ थाइनि</w>
्रि फाइ
बां खि</w>
बां सिनसो</w>
आफा मोनखौ</w>
टे प</w>
मै नि</w>
दोन ब्ला</w>
दोन नायनि</w>
दोन खार
दोन जानाय</w>
देर फुनाय</w>
सों हरो</w>
टि सखौ</w>
नʼ सिङाव</w>
बिफा ङा</w>
लोगो सेनो</w>
प्र मप्
बाद नि</w>
मले नानो</w>
सोम द्र
सोम स्रिनि</w>
सोम स्रिखौ</w>
उन्द ैनि</w>
मुं मा
मुं माखौ</w>
मुं फ्रोमखौबो</w>
मुं ख्लं
मेग न
मेग नानो</w>
खन नाय</w>
खन सेलʼ</w>
खन थामसो</w>
गं स्रि</w>
गं फ्रोमबो</w>
गं नैसो</w>
गं सेयावनो</w>
हाबा बो</w>
हाबा फोर</w>
मोन् नैसो</w>
जʼ गार</w>
सार नायनि</w>
नङा हाय</w>
नङा ब्लानो</w>
राइजो आनो</w>
बरʼ जों</w>
सम ब्रा</w>
सम ब्रि</w>
स्रा इ</w>
खाव ना</w>
खाव नायनि</w>
खाव रिनि</w>
खाव लायनाय</w>
थाव जों</w>
थाव दि</w>
बिबा दिनो</w>
लाबो फादों</w>
दान ना</w>
दान निफ्राय</w>
न्त ्र</w>
हाया नो</w>
हाया सै</w>
मिनि बाय</w>
मिनि बाला</w>
फोरमाय थि</w>
आख लै</w>
आइ टे
हाद र
फुं खा
........ .......</w>
........ ..।"</w>
ख्ल ायनानै</w>
गोर बो</w>
जिउ खौनो</w>
आलाइ स्र
गौ नो</w>
आखु थाइ
आखु खौनो</w>
नागिर है
नागिर नायाव</w>
नागिर नायखौ</w>
गʼ गा
ब्रा स</w>
दर जाया</w>
दर नैनि</w>
दर खं
दर जाजों</w>
दर जायाव</w>
सौ नानै</w>
सौ सि</w>
सुबुं जों</w>
आय ौ</w>
बाहाय थि</w>
बाहाय ग्रा</w>
ख्रा इ</w>
बिजि नि</w>
कु नि</w>
कु लि</w>
स्ल ु
स्ल ि</w>
स्ल ाया</w>
गां थाम</w>
डि ं</w>
हौ व
गोरो बै</w>
बेखेव थि</w>
उन्दु लाङो</w>
पि सा
आथि ंनिफ्राय</w>
साय खं
हारि हा</w>
हारि फोर</w>
सोदोब फोरा</w>
सोदोब फ्राव</w>
गोग्लै दों</w>
गोग्लै गोन</w>
द्र ाया</w>
नांगौ सो</w>
राज खान्थि
राज खुंगुर</w>
आव बा</w>
आव ला</w>
कि क</w>
ति ब्
बिजिर खʼ
बिजिर सालिनि</w>
बिजिर सालिया</w>
बिख ाया
हार साया</w>
सर जाब
गान होनानै</w>
गान हो</w>
गान होयो</w>
गासै खौ</w>
बेर नाय</w>
बेर स्रां</w>
बेर खांनो</w>
पे ट्र
सिनाय थि
सिनाय मोनै</w>
बान से</w>
लाव दाब</w>
लाव थिजों</w>
जें नायाव</w>
लाखि नायाव</w>
लाखि थों</w>
सान् नायनि</w>
ज्लाय नायनि</w>
मिहि राबो</w>
अना रीया</w>
जेन दोंमोन</w>
रंजा लीया</w>
लिं हरो</w>
लिं हर</w>
लिं हरनाय</w>
दुखु गोनां</w>
आद ्‌दा</w>
मन्जु जों</w>
नोंथां नो</w>
हें था
गोनां फोरनि</w>
गोनां थिया</w>
बिलिफा ं
बाइ जो</w>
ग्रो बाय</w>
सोलों नानै</w>
सोलों थाइनि</w>
बाथ्र ायाथʼ</w>
जाव ै
मोसा हारि</w>
मोसा हारिया</w>
मद दाव</w>
मद दखौ</w>
मद दजों</w>
बायदि ब्ला</w>
रिया जों</w>
दिहुन ना</w>
फान हर
फान लुनि</w>
गर द
होम ब्लासो</w>
रों नो</w>
रों दों</w>
रों लिया</w>
रों नांगोन</w>
ट्रे क्ट
गेले बाय</w>
गेले दों</w>
गेले नाया</w>
थिन नानै</w>
लाया नो</w>
लाया सै</w>
सावराय ज्लायनो</w>
हांखो फ्रा</w>
गोबा बाय</w>
गोबा ङैनो</w>
नुजा फैनो</w>
सोरजि दोंमोन</w>
भु म
बें खननानै</w>
गोन नो</w>
गोमो र</w>
गोमो हाबनानै</w>
गोमो थावना</w>
गोमा ना</w>
गोमा जानाय</w>
डे स्क
200 3</w>
समाय खिरा</w>
बिर लांदों</w>
th es
th is</w>
लाजि थाव</w>
बाया बो</w>
खुं थाइखौ</w>
खुं थाइया</w>
मालाय फोर</w>
दाउ मा</w>
रʼ ड</w>
रʼ या
रʼ मान</w>
खिन्था है
स्ला बनाय</w>
अरु न
फोरों दोंमोन</w>
त् मा</w>
सुजु ग</w>
सुजु ग्रायाबो</w>
मोखां थिं</w>
नख रा</w>
दैदेन नाय</w>
दैदेन गिरिफोरखौ</w>
खामान ियाबो</w>
सिखा न</w>
सिखा वा</w>
अम र
अम र</w>
सुर बाय</w>
सुर हाब</w>
दʼ हाय</w>
दाम दों</w>
फां नै</w>
बैसो आबो</w>
दाब नि</w>
दाब से
दाब खा</w>
दाब सियाव</w>
गुर ब्ला</w>
रुवा थिनि</w>
इन टारनेल</w>
खौरां फोरखौ</w>
हार् सिङैनो</w>
बेव हाय
निया खौ</w>
जानाय फोरनो</w>
गोरा जों</w>
फाय ोब्ला</w>
फाय ोमोन</w>
फोसाव गिरि</w>
खें नो</w>
खें साल
दोर सोन</w>
हाला गैबो</w>
बुङा बालानो</w>
अखा फोरा</w>
सेर खाय</w>
सेर फांगु
सोमावसार नाया</w>
en t
en d</w>
श्र ीनि</w>
होन् नानैसो</w>
बोसोर सो</w>
स्रो दै</w>
गुवाहाट ीनि</w>
नार्जा ं</w>
नार्जा रिनि</w>
रान नानै</w>
फाइ ल
गोजोन बाय</w>
गोजोन नायनि</w>
एर खांनाय</w>
आनजा दा</w>
सिगां थिं</w>
मीना रामनि</w>
खुलुम नाय</w>
जुना रनि</w>
जुना दनि</w>
दिल्ल ीनिफ्राय</w>
an t</w>
ou r
भे न</w>
बानजाय फुंनो</w>
लिया मोन</w>
लिया लै</w>
हौवा फोर</w>
हगार सारनानै</w>
अराय दिन</w>
हʼ रो</w>
हʼ ष्टे
उजि दों</w>
लें हर
लें हरनाय</w>
दुम फे</w>
सानसे मानि</w>
रायज्लाय ग्रा</w>
आल मि
रमे न</w>
थाब था
थाब ायो</w>
थांखि मोन</w>
नार् सिं</w>
भारत निफ्राय</w>
कम पाउन्द
थर नै</w>
अनि लनि</w>
दिन्थ िया</w>
दिन्थ िया
स्लाय ै</w>
जेसे बांनो</w>
गेव नाय</w>
मेले रिया</w>
उद खार</w>
सिबि नां</w>
सोना बनि</w>
दिन थिनो</w>
दिन थिनाय</w>
or ies</w>
प्रेमध रखौ</w>
जाहा त</w>
सान्थ ौ
अफि स
रायलाय नायनि</w>
फʼ ना</w>
li mit
ज्र ब</w>
सिरि जाहात</w>
गन्थ ङा</w>
लं थं</w>
जेके ट
इउ रिया</w>
नागा फोरखौ</w>
नागा फोर</w>
जान जि</w>
जान गार</w>
कमि टिया</w>
बाथु वानि</w>
बिहा राव</w>
बिहा वनो</w>
बिहा री</w>
सुफुं नाय</w>
शि ल
हान्जा जों</w>
गाज्रि खौ</w>
जांख्रि खां
ro ot</w>
ष्टे ट</w>
ष्टे डिया
सोरखार जों</w>
लोर ि
रुजु ननानै</w>
गाबज्रि नायाव</w>
आन्दा र</w>
क्ष े
जायो ना</w>
जायो लै</w>
198 1</w>
198 3</w>
198 5</w>
198 8</w>
ची फ</w>
दैमा लुनि</w>
लांगो नानि</w>
फारसे थिङै</w>
बिनहा री
खुदिया फोरनो</w>
धा ली
हरा ब्ला</w>
सोब खʼ
मिन थि
गावबु राखौ</w>
सुखु वा</w>
सुखु यै</w>
बिबुं थिखौ</w>
बिबुं सारनि</w>
मोनथि बाय</w>
जुजि नाय</w>
es t</w>
es day</w>
आन दा
आन खि</w>
आर् टि
आर् मि</w>
रोङ ै
फरायसा फोरनो</w>
मंगल ीयान</w>
नोम फानि</w>
ग्रे णे
सान्थ्रि नि</w>
एव नानै</w>
फैफि न्नानै</w>
जथु म</w>
थगाय सुलि</w>
सार् क</w>
बेफ्रु नाय</w>
प्रि न्ट</w>
मार् स</w>
गोथै खौ</w>
बेफोर हा</w>
जोबा सै</w>
फोसाब नायनि</w>
फ्ले बाय</w>
गिला साव</w>
उदु नि</w>
मन्थ ्रि
जिं गा
जिं गासिनो</w>
जिनि सखौ</w>
ha l
दाहा ल</w>
सेवा लि</w>
बाजु वा</w>
सेब खांनानै</w>
माउ स</w>
गारा ङाव</w>
हरबिला स</w>
बांगा लनि</w>
दोनथʼ नाय</w>
com e</w>
होसो यो</w>
खुदुम नानै</w>
टाइ प</w>
कमाण्ड फोरखौ</w>
बाला ब
हालो दाव</w>
em otion</w>
फरे ष्टनि</w>
फरमे ट</w>
बृ टे
खान जं</w>
दाबि नाय</w>
अन्द राव</w>
बेफा रिखौ</w>
सेन्दे लखौ</w>
मेने जा
कार् ड</w>
सेप्तेम्बर निफ्राय</w>
अनजा लु</w>
भुट िया</w>
गोलोम दै</w>
सेक्सपी यारनि</w>
लाम ाया
याव बा</w>
196 3</w>
रमाय श्रिया</w>
रिक् सायाव</w>
न्द्र नाथ</w>
आमेरि का
इण्ड िया</w>
रजʼ यो</w>
बुदा रु
फान्द ायनाय</w>
गुस् टि</w>
फुदुं नो</w>
हासु ं</w>
हासु दै</w>
दुर ्ल
it y</w>
रुप ाया</w>
रुप नाथ</w>
साख्रि खौ</w>
सेक ्रिफाइ
दोलो नि</w>
जोंब्ला उ
मोन्दां थि</w>
थफ ीया</w>
काप खौ</w>
काप ाव</w>
नेव सि
कम्पा नी
सेन् टि
गोजांस्रि व
नौना रिफोरा</w>
मिथिया खै</w>
इराग्दाव खौ</w>
भुगि नां
आगान से</w>
नखर खौ</w>
जागोन बो</w>
हानाय सिम</w>
केम् प</w>
देरगा नानै</w>
माइथाय सिम</w>
सेक्सपीये रा</w>
एसि द</w>
दख नाखौ</w>
बान्दो लखौ</w>
साफ्रा सी</w>
गाड़ ी</w>
नोंथाङा बो</w>
दोहोरो मारि</w>
बस् था</w>
बस् थायाव</w>
सोले र</w>
सोले रनि</w>
अख्रां मायाव</w>
गंग्ल ाय
गंग्ल ायो</w>
साफाय नानै</w>
सोरां नाय</w>
लेबʼरे टʼ
खुन ोरो
भुटा ननि</w>
ट्‌ ल</w>
बिस्कु त</w>
दोहो ननि</w>
फावदु रा</w>
दंबाव ो
ad ver
ad jective</w>
त्र ी</w>
दोरो ङारि</w>
......... ।</w>
बुरखाय नाय</w>
जासि गौमोन</w>
सिथार नानै</w>
बेमा रिखौ</w>
रोजाब नाय</w>
लाक ीखौ</w>
दाङा बाजि</w>
फिना खैसै</w>
सानथौ नि</w>
नेपा लि</w>
कलं खिनि</w>
थासा रिजों</w>
थारु न</w>
साबि द</w>
मुंराइ नि</w>
the y</w>
sp i
थब्ल ʼ</w>
थब्ल ं</w>
गोलो म</w>
हालि से</w>
सिफ ियाव</w>
बोस्रां नो</w>
पाटि लनि</w>
हेफाजाब गिरि</w>
गलाफ ीनि</w>
su b
vo wel</w>
मोदाय जो</w>
वाइ ल्ड</w>
प्रदे शनि</w>
सम्प त्ति</w>
आब्रु थिनि</w>
उदि स</w>
नवा वबो</w>
बेन् थʼ</w>
नेम खान्थि</w>
आबौ मोननि</w>
मोसाहा री</w>
फान्दाय नायाव</w>
सेकस्पी यारा</w>
बिसुखे नि</w>
दाक् टारा</w>
दाखालि सो</w>
फावथिना फोरा</w>
जाम्बि फोरखौ</w>
मैहुरा री</w>
गान्ध ी</w>
गबʼ नाय</w>
लग् न</w>
नाराय ण</w>
बिजौ वाव</w>
दुरु ं</w>
ग्लां दों</w>
सद बनो</w>
बागा नाव</w>
थिंगि निया</w>
फिदिं नो</w>
दैथु ननि</w>
गाबखʼ वा</w>
हामथार बायलै</w>
अन्जि मा</w>
मणि पुरनि</w>
आप कुनि</w>
बाज्ल ʼ
बिमाइ नो</w>
बिप्ल ब</w>
नोम् फानि</w>
हुसिया रै</w>
स्लाबा खिसै</w>
बेयाव हायनो</w>
सानथ्रि नि</w>
थेर नाय</w>
काश् य
नʼखर खौ</w>
आमो खिया</w>
एल बा
नल बारी</w>
समे त</w>
बिबां आ</w>
लेन्थ न</w>
खुद्रि नाय</w>
सायख ङा</w>
आनज्र ाय
ali s
sen se</w>
आदुं गारि</w>
उत्त रा</w>
ड्रे स</w>
श्रा इन</w>
बेब् दि</w>
बुजिया खिसै</w>
गेदेर थार</w>
रुपा नि</w>
पान्जा ब</w>
साखʼ न्द्रा</w>
हामि द</w>
सुफु ंग्रा</w>
दैज्ला ं</w>
एसेम ब्लि
एंगो नाया</w>
बारहुं खाया</w>
wel l</w>
उसि फाव
एम्ब ु</w>
पके टनिफ्राय</w>
गावजें खौ</w>
हाइब्रि ड</w>
बेण्डे जखौ</w>
fic ation</w>
tel e
गस्वा मीया</w>
बांग्रि खʼबाव</w>
सिमहा लागै</w>
फाराग खौ</w>
सुकु र
फुथि हां</w>
ब्याव हा</w>
सुंदʼ यै</w>
ess ories</w>
खुनुरु खुमै</w>
अमिता भा</w>
दंग ʼ</w>
नन्दे श्वर</w>
रमि व
रासिया नि</w>
फिफ टि</w>
मेंग्ल ि
मिनिग्ला बो</w>
कल्पा नाया</w>
दुंबुरु द</w>
चाणा क्य</w>
कमिस नार</w>
कनष्टे ब
कहि ध
घर् ना</w>
बारांगा बारी</w>
पेट्रि डिस</w>
सर्बे श्वर</w>
रेजिष्ट्रे शनखौ</w>
थंब्ले द</w>
fro m</w>
वर्क श्व
सति स</w>
सलादे ं</w>
नादाय दा</w>
खुम्ब ीबा</w>
फुथिया हां</w>
तान्त ्रिक</w>
डेस्क टʼ
limit ed</w>
! ''</w>
( ?)</w>
- (</w>
0 2</w>
1 st</w>
5 5</w>
5 th</w>
6 4</w>
9 4
9 3</w>
? "
d y</w>
f u
f ri
f ace</w>
h e</w>
h ar
j ul
k e</w>
l u
l d</w>
n i
o d</w>
o ple</w>
s es</w>
s si
v er</w>
w ha
} ,</w>
ं क</w>
अ ग
अ से
अ रजों</w>
अ जानि</w>
अ ʼनि</w>
आ गा
आ से</w>
आ लि
आ वा</w>
आ लो
आ लʼ
आ राम</w>
आ रां
आ जाय</w>
आ गोर
आ लियाव</w>
आ पे
आ सु</w>
आ याबो</w>
आ मि</w>
आ दुम
आ दैया</w>
आ सियाव</w>
आ शि
आ र्ट</w>
आ थोन
आ पार</w>
आ थें</w>
आ जिरा</w>
इ च
इ ब
इ म
इ य
इ ना</w>
इ या</w>
इ नाव</w>
इ ला</w>
इ सिं
इ उन
इ सिंनि</w>
इ नायै</w>
इ डु
ई सान</w>
उ त
उ स
उ ह</w>
उ नि</w>
उ सु
उ ननिफ्राय</w>
उ सुखु
उ जियो</w>
उ फेरा</w>
उ पेन</w>
ए उ
ए ना
ए डि
ए रʼ
ओ लै
ओ जोंबो</w>
औ वारी</w>
क ला
क रा
क मा</w>
क म्ब
ख नि</w>
ख ियाव</w>
ख बै</w>
ख न्नानै</w>
ख न्नाय</w>
ख राग</w>
ख दाल</w>
ग ी</w>
ग द</w>
ग ल</w>
ग त</w>
ग नानै</w>
ग नायनो</w>
ग राइ</w>
ग जʼ</w>
ग ग्र</w>
घ रिया</w>
ङ ाया</w>
च िया</w>
ज बा</w>
ज मि
ज थाइ
ज ननि</w>
ज खायसे</w>
ज ब्रानि</w>
झ ु
ञ ्
ट प</w>
ट ्रि</w>
ड े</w>
ड र</w>
ड लार</w>
त ु</w>
थ प
थ द</w>
थ ्ल
थ बनानै</w>
थ बेना</w>
द खा
द थि</w>
द लि</w>
द यै</w>
द ले</w>
द गʼ</w>
द खान</w>
ध ोर
न ट
न क</w>
न सिङाव</w>
न ङि</w>
प य
प िय
प ियन</w>
फ ल
फ ल</w>
फ िया</w>
फ निफ्राय</w>
फ ायनो</w>
ब ौ</w>
ब म</w>
ब त</w>
ब ला
ब बेखौ</w>
ब राय</w>
ब माया</w>
ब क्स
ब न्दानि</w>
भ र
भ ौ
भ नि</w>
म ौ
म ना
म ायो</w>
म हाम
म गʼ</w>
म ायारि</w>
र आ</w>
र ग</w>
र न्
र मानि</w>
र दʼ</w>
र बिबार
र गʼ</w>
र ियाया</w>
र बिबाराव</w>
ल ौ
ल र</w>
ल ना</w>
ल ण्ड
ल केल</w>
ल टारि</w>
ल मन</w>
ल यनि</w>
व ायाव</w>
श ं
स त
स बाय</w>
स आव</w>
स फैयो</w>
स न्नाय</w>
स ंगि
स हैनो</w>
स थब
स थबनानै</w>
ह ्रा</w>
ह नाया</w>
ह थʼ
ह स्रि</w>
ह ख्राव</w>
ा नि</w>
ि लाय</w>
ी आव</w>
ै यानो</w>
ो म
ो ब्लाबो</w>
। ......</w>
। .......</w>
ना थाइ</w>
ना जाया</w>
ना सिम</w>
ना थ्रोदनानै</w>
ना ख्रेब
बा खौ</w>
बा निफ्राय</w>
बा वा
बा खाय</w>
बा रै</w>
बा लʼ</w>
बा खै</w>
बा दै</w>
बा ङै</w>
बा थिं</w>
बा मोना</w>
बा न्दा
बा मोननि</w>
बा लें</w>
बा ग्लाय</w>
बा गैबो</w>
बा नेश्वर</w>
ला बा</w>
ला ङा</w>
ला फोरा</w>
ला था</w>
ला ङै</w>
ला गा</w>
ला गाय
ला सिं</w>
ला नोसै</w>
ला ब्लानो</w>
ला हैयो</w>
ला जोबनो</w>
ला हैगोन</w>
ला गोनि</w>
रा लाय</w>
रा खि</w>
रा खां</w>
रा जेन</w>
रा खें</w>
रा भानि</w>
जा मा</w>
जा सु
जा निफ्राय</w>
जा खार
जा जानो</w>
जा सिन</w>
जा फिन
जा थिया</w>
जा होयो</w>
जा नाङा</w>
जा जेन
जा बानो</w>
जा थों
जा ग्राया</w>
जा ब्लासो</w>
जा बावबाय</w>
जा थारनाय</w>
जा जोबगोन</w>
जा नुवा
जा बावनांगौ</w>
जा खुमा</w>
था द
था लिर
था सʼ
था ब्लानो</w>
था दे</w>
था नायमोन</w>
था खायो</w>
था गिबि
था रोब्ला</w>
था खोमानाय</w>
खा मोन</w>
खा गौ</w>
खा नांगौ</w>
खा जानाय</w>
खा राखै</w>
बि आ</w>
बि श</w>
बि दों</w>
बि जों
बि नायाव</w>
बि लʼ</w>
बि बै</w>
बि थाया</w>
बि जार</w>
बि थिङै</w>
बि जिया</w>
बि बायनानै</w>
बि न्दो</w>
बि सुखे</w>
बि द्
बि थोन
बि जौखौ</w>
बि कास</w>
बि धान</w>
मा ध
मा स
मा ता
मा थाव
मा रखौ</w>
मा सनि</w>
मा सेनि</w>
मा माइ</w>
मा उजि
मा थुरा</w>
गो खौ</w>
गो बाय</w>
गो दौ
गो बायो</w>
मो दाया</w>
मो रोन</w>
मो ज्लाय</w>
सा ं
सा बाय</w>
सा जि
सा रै</w>
सा नाया</w>
सा थिं</w>
सा लायनो</w>
सा दोर
सा लाखौ</w>
सा जानि</w>
सा र्ट</w>
सा रोन</w>
सा थामनि</w>
सा लाइखौ</w>
सा त्र</w>
सा ग्रिद</w>
सा थामबो</w>
हा जों</w>
हा दि</w>
हा खा</w>
हा बाव
हा थʼ</w>
हा नायखौ</w>
हा मार
हा नायमोन</w>
हा बावगोन</w>
हा सिब</w>
हा ब्रु</w>
गा म</w>
गा दि</w>
गा ङा</w>
गा माखा
गा थोन</w>
गा लांनानै</w>
गा राङा</w>
गा रोब्ला</w>
गा मिनिनो</w>
गा निस्ता
्र ो
न् ड</w>
नाय नि
नाय नाया</w>
नाय बाव
नाय फोरनि</w>
नाय गिरि
नाय मोनब्ला</w>
नाय खौलʼ</w>
नाय जोंसो</w>
नाय फ्राव</w>
नाय निसो</w>
नाय ग्राफोरनि</w>
नाय दिं</w>
नाय खायसो</w>
नाय गंनानै</w>
नाय ग्राफोरखौ</w>
सि र</w>
सि दे
सि फोरखौ</w>
सि बै</w>
सि गि</w>
सि हाब</w>
सि रियाव</w>
सि न्दों</w>
सि लाइनि</w>
सि ग्लाब
दा स
दा ब्ला</w>
दा राव</w>
दा हु
दा नायखौ</w>
दा रजों</w>
दा सनि</w>
दा ंग्रा</w>
दा खोर
दा न्थे</w>
बे र</w>
बे जा
बे वा
बे गाव</w>
बे ल्
बे रामनि</w>
बे बहा
बे गें</w>
बु न्द
बु सा</w>
बु गा</w>
बु टिं</w>
बु थुम</w>
बु ग्लि</w>
बु थाराखै</w>
िय ोब्ला</w>
्ल ्ला</w>
फा ग्रा</w>
फा न्नाय</w>
फा लानि</w>
फा न्था</w>
फा लिखौ</w>
फा थ्रि
फा दुब</w>
हो नाय
हो बा</w>
हो बाव
हो बोनाय</w>
हो लायनानै</w>
हो सोनानै</w>
हो जोबो</w>
हो खादों</w>
हो याखै</w>
हो त्</w>
सो आ</w>
सो लिया</w>
सो गोम
सो बायो</w>
सो लिय
सो लों</w>
मोन लां
मोन थि</w>
मोन जानाय</w>
मोन बायदि</w>
मोन हां</w>
मोन लायो</w>
मोन थाम
मोन सिगोन</w>
मोन हैबाय</w>
मोन खांदों</w>
मोन स्रा</w>
मोन जायै</w>
मोन थोर
मोन खादों</w>
मोन हैनानै</w>
मोन फ्रोम</w>
मोन लोंगोन</w>
नि स</w>
नि मा</w>
नि ंनि</w>
नि लै</w>
नि फ्रा</w>
नि साया</w>
फोर जाया</w>
थि लि
थि निफ्राय</w>
थि रां</w>
थि लिनि</w>
थि फाय
दि खां</w>
दि ब्रु
दि खांना</w>
दि ग्री</w>
जो माव</w>
जो थ्रोद</w>
बो ल</w>
बो लाय</w>
बो लʼ</w>
बो खा</w>
बो लोगो
बो खाङो</w>
बो है</w>
बो द्ला
बो खोनानै</w>
बो जबनानै</w>
बो खावनो</w>
जे इ</w>
जे या</w>
जे थो
जे ब्लानो</w>
जे न्नो</w>
जे न्ट</w>
से म
से ल्
से न्स</w>
जि ल</w>
जि न</w>
जि नानै</w>
जि निफ्राय</w>
जि बादि</w>
जि थाम</w>
जि गां</w>
जि दु</w>
जि गाबनि</w>
सु नायनि</w>
सु यै</w>
सु नायनो</w>
सु मु</w>
सु खʼनानै</w>
सु थारनाय</w>
सु शान्त</w>
सु खारु</w>
ंग े</w>
गु ण</w>
गु लिया</w>
गु सुं
गु न्दै</w>
गु फुर
फि थाय</w>
फि थाया</w>
रि उ</w>
रि सि
रि सो</w>
रि खौनो</w>
रि ंगा</w>
रि ता</w>
रि ंगु
गि दोंमोन</w>
गि नायाव</w>
गि नायखौ</w>
गि जि</w>
गि नाङा</w>
गि सिखा
मि ना</w>
मि निया
मि स्टि</w>
मि नाल</w>
बुं लांबाय</w>
बुं फैदों</w>
बुं जोबनो</w>
बुं लांदोंमोन</w>
बुं बावदों</w>
बुं फिननायसै</w>
फो ना</w>
फो लाव</w>
फो थैनानै</w>
खो मोन</w>
खो लो
खो नाया</w>
खो लै</w>
खो नायोब्ला</w>
फै था</w>
फै बानो</w>
फै योब्ला</w>
मु ग</w>
मु था
मु गा
मु सुरनाय</w>
मु ख्लं
मु जाहि
खाला स</w>
खाला रनिफ्राय</w>
लि क
लि भ
लि टार
आं लʼ</w>
आं निथिं</w>
आं खालखौ</w>
ले ङा
ले खाखौ</w>
ले यार्
थां बा</w>
थां खां
थां जोब
थां बावनो</w>
थां नायावनो</w>
न्द ाव</w>
नो ना</w>
नो लो</w>
सान जों</w>
सान नायाव</w>
सान थाया</w>
सान थाम
सान दुं</w>
सान हाब</w>
सान थामसो</w>
सान सʼनो</w>
सान फामानि</w>
नों खौबो</w>
नों हाबो</w>
नों निया</w>
नों स्रा</w>
नों नियाव</w>
खालाम बा</w>
खालाम नोसै</w>
खालाम हैयो</w>
खालाम नानैसो</w>
खु म</w>
खु रि</w>
खु ङो</w>
खु दु
खु गाखौ</w>
खु ंग्री</w>
फ्रा थʼ</w>
दे ग्लायनो</w>
दो नानै</w>
दो हौ
दो मो</w>
बाय बा</w>
बाय दा</w>
बाय नांगौ</w>
बाय ह्रायाव</w>
गाव निफ्राय</w>
गाव लʼ</w>
गाव थʼ</w>
गाव जेङा</w>
खौ औ</w>
सोर गो
सोर जियो</w>
र् ‌</w>
र् गो
दों हाय</w>
दों ब्रा</w>
दु वा</w>
दु सि</w>
दु खारि</w>
मे ना</w>
मे राव</w>
मे म्ब
मे लखौ</w>
मे सेब
लो हो</w>
राय बाय</w>
राय दों</w>
राय जो
राय फो
राय ग्लि
राय ज्लाया</w>
लाय नि</w>
लाय थां</w>
लाय लाङो</w>
लाय ैनो</w>
लाय थारबाय</w>
ब्ला व</w>
जों नि
जों फोर</w>
जों खि</w>
जों हाबो</w>
जों निनो</w>
जों फ्रु
जों थियाबो</w>
वा लि
नु जाबाय</w>
नु खो</w>
नु जानानै</w>
नु थाइ</w>
नु थाया</w>
नु बोदों</w>
नु नानैबो</w>
नु नायखाय</w>
हर ु</w>
हर ब्लाबो</w>
हर फिन</w>
लां नि</w>
लां सिगोन</w>
लां फिनबाय</w>
लां गाब</w>
या मोन</w>
या वसो</w>
गे म
गे ले</w>
गे सेर
नां नायाव</w>
नां नाया</w>
नां खो</w>
नां फैयो</w>
नां लाया</w>
नां फैबाय</w>
नां हाब</w>
नां थावना</w>
नां ज्लाय</w>
.... ?</w>
.... ...।"</w>
बर फ</w>
गै थारा
गै लियामोन</w>
लु ग्रा</w>
लु सिन</w>
लु टि
लु कुर</w>
जु र
जु नि</w>
जु थाय</w>
जु जियै</w>
थु नि</w>
थु रनि</w>
थु योब्ला</w>
रो न
रो जाब</w>
रो दानि</w>
खि न
खि ला
खि से</w>
खि रिमि
खां बायमोन</w>
है नाया</w>
है थां</w>
है फिनो</w>
है फिनबाय</w>
फु स</w>
फु रि</w>
फु जानि</w>
फु फु</w>
फु सब</w>
खार नाया</w>
खार नांगोन</w>
खार लांनो</w>
खार बोयो</w>
खार स्लिउ</w>
रु खु</w>
म् ‌</w>
म् बा</w>
ङा थʼ</w>
लाइ टखौ</w>
जाय ग्रा</w>
जाय ख्लं</w>
रे ट</w>
रे ष्टु
स् फार</w>
हि रा</w>
दै खʼ
दै सानि</w>
ख्र ायै</w>
ओं थि
ओं थिया
गोसो दि</w>
गोसो सै</w>
खे रेब
खे मथा</w>
माव नां</w>
माव नांगोन</w>
माव नायजों</w>
माव ोमोन</w>
माव ग्लु
मोजा ङानो</w>
राव लʼ</w>
राव बोथʼ</w>
हे ं</w>
हे रा
थाइ नै</w>
थाइ नैया</w>
थाइ जाजों</w>
बार ायाव</w>
बार ीयाव</w>
बार सʼनानै</w>
बार गनो</w>
टा बो</w>
थाय नै</w>
थाय नै
थाय नैया</w>
थाय नैयाव</w>
थाय नैनिफ्राय</w>
बाव दो</w>
बाव लिया</w>
बाव लांनाय</w>
बाव हायनो</w>
हम ब्ला</w>
हम थायो</w>
हम लायनानै</w>
हम बायमोन</w>
थार िया</w>
थार बाय
मानसि यासो</w>
जोब ै</w>
जोब ोर
जोब जासिम</w>
गार ʼ</w>
गार सोनानै</w>
फिसा जों</w>
फिसा फोरनि</w>
थे बनानै</w>
थे लाखौ</w>
थे ब्रे</w>
गेजे रनिफ्राय</w>
हु ं</w>
हु यो</w>
बै से</w>
बै दिनखालि</w>
फाव गिरि</w>
फाव खुंगुर</w>
होन दों</w>
होन नाबो</w>
का न
का ला
का रा</w>
का ता
का ति
का सारखौ</w>
का पनि</w>
का साराव</w>
का उन्
का रेन्ट</w>
का न्ते
हाब ना</w>
हाब हैनाय</w>
दाव लि</w>
दाव सिन</w>
दाव राय</w>
राइ ज्लाय
राइ घाट</w>
हाय ै
हाय ियाव</w>
सलʼ गिरिनि</w>
सलʼ मायानो</w>
पा न्ज
फार फा</w>
फार सेबो</w>
फार लं
फार नैयाव</w>
सं राजानि</w>
सं दाननो</w>
बोर सिया</w>
ने सा
ने यै</w>
ने थʼ
ने हरु</w>
मिथि थारा</w>
माय नानै</w>
के ट
के च</w>
के साव</w>
के टा</w>
के रिया
के हेर
फे न</w>
फे रि</w>
फे हेर
फे स्व
फे ंखा</w>
फे जेन्नानै</w>
थो या</w>
थो नाया</w>
साव ो</w>
साव गार
साव फुं
खै नो</w>
खै ब्ला</w>
रै मोना</w>
थै नाय
थै नायाव</w>
थै याव</w>
थै नाया</w>
थै खो</w>
थै जानाय</w>
थै दो</w>
ग्ल ब</w>
क् त</w>
क् ष</w>
हां गारि</w>
खʼ था
खʼ थानि</w>
गासि म</w>
री मोना</w>
ता मुल
फराय ग्रा
फराय सुला</w>
बिसोर निफ्राय</w>
ग्रा खाय</w>
फिन साजा</w>
जौ सो</w>
जौ खोन्दो</w>
गोदा य</w>
गोदा नजों</w>
दं नो</w>
दं हैयो</w>
बां सा</w>
ओंखार लाय</w>
ओंखार नायसै</w>
मै खौ</w>
मै सो
मै दे
मै या
मै था</w>
मै खारि</w>
दोन दो</w>
दोन फैनाय</w>
दोन हैदों</w>
दोन खादोंमोन</w>
दोन खारलां
दोन खुमानो</w>
देर ायाव</w>
गाय नाय</w>
ब् याव</w>
सों गोन</w>
थʼ लै</w>
टि सि
टि सन</w>
नʼ टिसखौ</w>
लोगो या</w>
लोगो रि</w>
प्र ʼ
प्र न
प्र भ
प्र मी
प्र भा</w>
प्र ब्ले
मह म्मद</w>
खोना बा</w>
खोना गोन</w>
खोना मारनो</w>
खोना सङो</w>
बाथ्रा बो</w>
बाथ्रा खौबो</w>
सोम ब्रʼ
सोम खोर
सोम जायग्रा</w>
मुं ख
खन ब्रैसो</w>
खन सेयैनो</w>
गं गार
गं सेनि</w>
मोन् नि</w>
मोन् थाय</w>
मोन् नायसै</w>
मोन् नैयाव</w>
नाया दि</w>
सार नाय</w>
सार दों</w>
सार जों</w>
सार फ्रा
सार फाव
हाम ै</w>
हाम फ्ला</w>
हाम बायसै</w>
ओंखा मनि</w>
ओंखा राखै</w>
नङा थाय</w>
थुन फावथिना</w>
राइजो या</w>
राइजो निफ्राय</w>
राइजो फोरजों</w>
राइजो आरि</w>
ब्ल ाय
पु र्
सम ायो</w>
सम ष्
सम फ्ल
सम जित</w>
सम सेर</w>
सम मथे</w>
सम मिथिसʼ</w>
खाव नै</w>
खाव लाया</w>
खाव निया</w>
रं जुलि
बेसे थो</w>
दिन्थि गोन</w>
दिन्थि फुंनाय</w>
मानो मोन</w>
लाबो नायनि</w>
दान दिसे</w>
हाया खैब्लाबो</w>
मिनि श्री</w>
मिनि ग्लाब
माइ क्रʼ
आइ औ</w>
हाद ्रि
फुं जा</w>
........ ........</w>
बय निख्रुयबो</w>
खोम ाया
खोम सिखौ</w>
खोम दोननि</w>
बादि बो</w>
ख्ल ायाव</w>
सानै नो</w>
सानै लʼ</w>
मोना नो</w>
गोर जिया</w>
फावथाइ फोरा</w>
गौ मा</w>
ज्ल ाया
आब हावाया</w>
नागिर नायनि</w>
नागिर ब्लाबो</w>
गʼ लाया
गʼ लायाव</w>
गʼ बोयो</w>
गʼ वाल
जाया बालानो</w>
जाया खैब्लाबो</w>
बिदि ब्लाथʼ</w>
सʼ यै</w>
सौ ग्दाव
सुबुं फोरनो</w>
दां नायनि</w>
ख्रा ं</w>
बिना रामखौ</w>
बिजि ने
लुबै बाय</w>
न्दा निफ्राय</w>
स्ल ायो</w>
स्ल गान
गां नैखौ</w>
गां सेखौ</w>
डि स
डि जाइ
डि जाइन</w>
नं नायनि</w>
मुलु क</w>
मुलु कनि</w>
फं नै</w>
फं बाइ</w>
बेखेव फानि</w>
उन्दु दोंमोन</w>
सिख ्रा</w>
महर फोरा</w>
आफाद फोरनि</w>
आफाद गिरिया</w>
साइ द</w>
जोनो मा</w>
साय नानै</w>
साय रʼ</w>
साय खʼनानै</w>
कल्प ना
कल्प नानो</w>
कल्प नाजों</w>
गाम ियावनो</w>
दिनै जों</w>
दिनै बा</w>
बसु माता
सोदोब थि
गोग्लै जोबो</w>
द्र यिं</w>
फ्ला स्क
महा रा
महा भारत</w>
महा त्मा</w>
सुं थाब</w>
अर गे
बिथां मोनहा</w>
बिथां खिखौ</w>
कि न</w>
कि ट</w>
ति ता</w>
ति केल</w>
माहाजो नाबो</w>
बिजिर गोन</w>
नाजा नायावनो</w>
हार ियानो</w>
मार दों</w>
गान स्लाय
गान होनांगौ</w>
फ्ल ाय
नोजोर नि</w>
बेर लाव</w>
पे न
पे रि
खेब सेबो</w>
खेब सेलʼ</w>
सिनाय ै</w>
सिनाय नानै</w>
सिनाय गौ</w>
आर ʼ
आर े</w>
सिं नो</w>
हिन्जाव सो</w>
सान् जा</w>
बबे व
बबे थिं</w>
बबे यावबा</w>
राजा फोर</w>
माब्ला निफ्राय</w>
अना रिखौ</w>
जिराय दो</w>
रंजा लि
रंजा लिया
बोहै लांदों</w>
मन ी</w>
लिं नो</w>
लिं बो
दुखु नांथाव</w>
मन्जु लानि</w>
बाज ्ल</w>
बाज ियावसो</w>
नोंथां मोननो</w>
इं ख्रिखौ</w>
ग्ला ंनानै</w>
गोनां बो</w>
गलʼ जों</w>
गलʼ वाबो</w>
ख्रु बनानै</w>
ख्रु बनो</w>
दौ दिनि</w>
गैया मोनब्लाबो</w>
सुलु ंनि</w>
ग्रो नाय</w>
सिया बो</w>
थिं नो</w>
थिं ख्लि</w>
थिं ख्लि
गोम सारो</w>
सोलों थाइखौ</w>
जाव ख्ला
मद त</w>
बायदि खौ</w>
बायदि फोरा</w>
बायदि फोरखौ</w>
रिया नो</w>
in g
in v
दिहुन दों</w>
दिहुन जानाय</w>
फान से</w>
गर नै</w>
गर मा</w>
गर दसे</w>
गिया ना</w>
होम ब्लाबो</w>
सासे यानो</w>
गसं बाय</w>
गसं फैयो</w>
ट्रे न
ट्रे न्
अजित जों</w>
सिन नाय</w>
सिन गोन</w>
फिसाजो जों</w>
गेले नानै</w>
गेले मु
गेले होनाय</w>
गेले गिरिफोरा</w>
थिन बा</w>
थिन दोंमोन</w>
लाया खिसै</w>
बेद रै</w>
सावराय नायाव</w>
सावराय ज्लायनाय</w>
हांखो खौनो</w>
गोबा से</w>
गोबा ंनि</w>
नुजा फैनाय</w>
सोरजि गिरि</w>
सोरजि गिरिनि</w>
भु माव</w>
गोदो निफ्राय</w>
गोदो नानि</w>
बें नाय</w>
बें कनि</w>
बें काव</w>
गोन दा</w>
गोमो नाय</w>
बाहागो खौनो</w>
बिब्दि खौ</w>
डे टा
दैदे न्नाय</w>
बिर नानै</w>
बिर हां
बिर लांबाय</w>
लाजि गुसु</w>
बाया नोसै</w>
खुं नायाव</w>
प्रे छ</w>
खाम सालिनि</w>
आग ष्ट
मी खौ</w>
दाउ नि</w>
दाउ बʼ</w>
गाखो हैबाय</w>
रʼ मान्
स्ला बै</w>
अरु ना
अरु णा
लोम जादों</w>
सुजु ग्राखौ</w>
नाइ याव</w>
दिया नो</w>
सुर लाङो</w>
बड़ ʼ
भि टा
बारा वनो</w>
सोमाव नानै</w>
दाम ग्रा</w>
दाम ब्रा</w>
श् या
बैसो आवनो</w>
सेंग्रा फोराबो</w>
दाब फा</w>
गोब्रा म
गोब्रा मनानै</w>
गोजौ थिं</w>
हार् सिं</w>
बाजि सो</w>
साम लाय</w>
निया नो</w>
गोरा जोआ</w>
खें ख्रि</w>
बिगु रजों</w>
गाबो ननि</w>
बुङा हां</w>
फाहाम सालिखौ</w>
खान्थि फोरखौ</w>
नोंसोर नाव</w>
नागि रा</w>
जार लायाव</w>
जार ौवा</w>
जार ्लाखौ</w>
सेर नानै</w>
सेर जाखौ</w>
गिदिं बाय</w>
बिलाइ याव</w>
चि न</w>
चि नि</w>
बोसोर से
बोसोर थाम</w>
बोसोर सालिया</w>
आरो बा</w>
नार्जा रि</w>
फाइ नाल</w>
गोजोन गोन</w>
गोजोन थाव</w>
कʼ र्
एर सोनानै</w>
मोनसे निफ्राय</w>
बेला सिनि</w>
गुन्दा जों</w>
मʼ ह
बुथार ग्रा</w>
गैय ैखौ</w>
पार् टि
दिल्ल ीया</w>
फ्लां दोंमोन</w>
कर् परे
भे निटि</w>
सोमजि नायनि</w>
लिया न</w>
लिया नि</w>
हौवा जों</w>
आंग ुर</w>
ख्ला ं</w>
थोर फो</w>
दुम फ्ला</w>
थाङा मोन</w>
रायज्लाय नाया</w>
सहे ननि</w>
गम्भी रसिं</w>
co r
आल ्ला</w>
आल फानि</w>
रमे नखौ</w>
थांखि नि</w>
खोनासं दों</w>
नार् सा</w>
थेले फाया</w>
जिब ौनि</w>
ओनसो लारि</w>
सोलाय ै</w>
थर थिं</w>
जोम नानै</w>
अनि मानि</w>
स्लाय गोन</w>
स्लाय स्लाय</w>
जेसे बांखि</w>
मुगै नो</w>
गेव नानै</w>
बिब थै</w>
बिब थैखौ</w>
बिब नांखौ</w>
मेले मखौ</w>
उद खा
उद खार
सिबि नायखौ</w>
गाग्लो ब</w>
सोना बारि</w>
बैसा ं</w>
बैसा गो</w>
बैसा गिया</w>
सोलि ग्रा</w>
बिन य</w>
अजय जों</w>
क्ल स</w>
ख्रे ं</w>
खान्थ ियारी</w>
सान्थ ्रिया</w>
गिबि यै</w>
रायलाय दों</w>
नायगिर नो</w>
नायगिर ना</w>
नायगिर दोंमोन</w>
ज्र ो</w>
ज्र य</w>
नरे श</w>
जाहै नानै</w>
थुनफावथाइ गिरिया</w>
लं फेन्ट</w>
इउ जार</w>
ट्राइ क</w>
अलका जों</w>
फसं नानै</w>
गिलि रै</w>
गोर् ब्
बेसा दनि</w>
सुफुं नानै</w>
सुफुं नायनि</w>
सुफुं थि</w>
सिथ ला</w>
सिथ ्लानि</w>
रेब तिया</w>
रेब ती
जांख्रि थाइया</w>
ष्टे ज</w>
दावगा नायनि</w>
दावगा नाया</w>
गोजां नाय</w>
साना वनो</w>
चे ने
बद मास</w>
गाबज्रि नाय</w>
lo gu
क्ला साव</w>
खम ज्लाय</w>
जायो बा</w>
जायो दि</w>
जायो मोनब्ला</w>
198 6</w>
198 7</w>
198 2</w>
st e
st y
st ory</w>
बह न
बर् मण</w>
दैमा रीया</w>
थियेटा राव</w>
खब से</w>
बिथिं जाय</w>
क्र ु
ट्रि क</w>
थब सिया</w>
थब गां</w>
थब स्रʼ</w>
खुदिया नि</w>
खुदिया फोर</w>
खुदिया फोरजों</w>
फालि नो</w>
फालि दों</w>
बारगʼ नाय</w>
देंखो नि</w>
धा लि
हरा खैमोन</w>
सिस्टे मखौ</w>
फोनां नो</w>
मखʼ नो</w>
मखʼ जाथाव
हाबि लाखौ</w>
में नो</w>
ac tion</w>
जुजि नो</w>
ब्रह्म आ</w>
सरका रि</w>
सरका री</w>
तुला राम
तुला रामाबो</w>
सोद्रोमा फोरखौ</w>
सोद्रोमा फोरनि</w>
राफो त</w>
नायबिजिर नाय</w>
मुला म्
रोङ ैनि</w>
ग्रि म</w>
फरायसा फोरखौ</w>
रिंसार थिजों</w>
खन्थाइ मा</w>
हास् थायो</w>
नोम फा
नोम फा</w>
नोम फाया
एव स्रां
ड़ ा</w>
फजʼ नाय</w>
फजʼ हैबाय</w>
हाल दा</w>
उइ ल</w>
उइ लखौ</w>
जथु मनि</w>
थगाय बोदों</w>
सिख्ल ायानो</w>
सोलो यै</w>
सिगारे टखौ</w>
ब्ले मा</w>
आवा रामा</w>
सन्दे ह
जोबा ब्ला</w>
जोबा खिसै</w>
फ्ले यो</w>
बिखा व</w>
जाथाय फोरखौ</w>
बेराय नो</w>
बेराय दों</w>
सुमि लाखौ</w>
ec t</w>
ha ve</w>
ha bil
द् दिन</w>
थाहै नाया</w>
हाउ ली</w>
स्ट रे
यै लाय</w>
एंगार नायखौ</w>
as si
as pi
on e</w>
अक्ट ʼ
राहा गिरि</w>
दोंमोन लʼ</w>
दोंमोन लै</w>
..... "</w>
नुजाथि गोन</w>
माष् टारा</w>
नेर खां</w>
पाकिस्ता न</w>
थारा खिसै</w>
माउ सनि</w>
होआ खैमोन</w>
खिर खिखौ</w>
जार् मान</w>
गारा सै</w>
दिं खिया</w>
खिन्थ ाया</w>
हिनजाव सा</w>
com mi
उथ्रि नानै</w>
मोब्ला व</w>
टाइ ट्‌ल</w>
गोरलै यैनो</w>
मनि राम</w>
राण ीया</w>
राण ीनि</w>
माल गाड़
हालो दखौ</w>
हाग्रा निफ्राय</w>
हाग्रा मानि</w>
हाग्रा मायाव</w>
बेग पाइ
होख्रा ं</w>
जुरि जेननाय</w>
गेजेर जोंसो</w>
मोदोम नाय</w>
सोमोन्दो नि</w>
आग्रा ं
दल रै</w>
फरे इनाव</w>
मदा रु</w>
नालि साव</w>
खान सि
दर्बा सि
सान्त ि
सेन्दे ला</w>
मेने ज
गुबुन सो</w>
गुबुन फ्रा</w>
सेप्तेम्बर नि</w>
दाका तनि</w>
रेन्जा रनि</w>
मावरि जाजों</w>
दोनथुम नाय</w>
जय राम</w>
हागौ ब्ला</w>
सिन्दु कनि</w>
खुरै याव</w>
बाग्दाव नानै</w>
196 0</w>
196 2</w>
196 8</w>
la w</w>
आगो ल</w>
आगो लावनो</w>
बाख् नायथाव</w>
रिक् सा
जथुम् मा</w>
गोबां नो</w>
बुदा ंनि</w>
बुदा रुनि</w>
फान्द ायनानै</w>
गुस् थियाव</w>
सिने मानि</w>
फाग्ला बादि</w>
जिर न</w>
रुम े</w>
it s</w>
जल दब</w>
सौग्रा व</w>
फालांगि खौ</w>
जाफु ङाखिसै</w>
बिष माव</w>
साख्रि वाला</w>
मोनदां बाय</w>
सेक ्रे
जोंब्ला वनि</w>
इउनि भार
गसाइ नि</w>
दमा सुखौ</w>
बेनो लʼ</w>
काप से</w>
टेक नि
रामनाथ नि</w>
रामनाथ जों</w>
ककराझा रनिफ्राय</w>
उरि टि</w>
हायो ब्लाबो</w>
खैना लै</w>
एम्बु खौ</w>
साला न</w>
गुदु नि</w>
मिथिया ब्ला</w>
गैजा रोङि</w>
मावफारिया फोरनि</w>
सावख्ल िनि</w>
परिष दा</w>
अवा ल</w>
आथो नखौ</w>
आगान नैसो</w>
बाख नायनाय</w>
केम् पा
जिया खै</w>
फब दों</w>
खुमा नाय</w>
मेडा मा</w>
जोबस्रां नायनि</w>
हामबु रनि</w>
माइथाय निफ्रायनो</w>
199 4</w>
एसि बां</w>
बान्दो ल</w>
जाम िया</w>
गाड़ ीजों</w>
सिलिं नाय</w>
फारि लाइ</w>
आवराय जेननाय</w>
197 7</w>
197 4</w>
उदां स्रिनि</w>
सहै नायसै</w>
थाथʼ नानै</w>
पाब्लिके सन</w>
आन्द ाय
आन्द ायाबो</w>
क्रि मिनाल</w>
तरु न</w>
हं ख्र
बिबाया रिया</w>
साबु कजों</w>
जोख्लो बनानै</w>
फिन् नायसै</w>
राया बो</w>
हरे श्वर</w>
अनुले खा
आफो दनि</w>
मास् थारनि</w>
दोहो नि</w>
गायसन नो</w>
आइकʼ न</w>
आइकʼ ना</w>
कर्ण िया</w>
दाहोना फ्रा</w>
बिजने स
un i
असि द</w>
प्ला स्टिक</w>
बौ है
बिम ायनो</w>
बिम ायानो</w>
बिसायखʼ थिनि</w>
बेरा फारसे</w>
मुसाहा रीया</w>
ब्लाउ ज</w>
......... !</w>
अबथि रानो</w>
जुनाद फोरा</w>
जुनाद फोरखौ</w>
pe ople</w>
एका उ
नम्बर ी</w>
फर् म</w>
माथो ब्रा</w>
हाजार खि</w>
हाजार बार</w>
सिलि म</w>
नांगोन थʼ</w>
जंखाय नाय</w>
उथु जुग</w>
लखʼ बा</w>
साबाइ खर</w>
दाङा बाजिनि</w>
सोमो नांथाव</w>
जोमै नि</w>
नारसिन नानै</w>
मिजिं थि
द्रे सिं</w>
नन्द ʼवा</w>
थारु नखौ</w>
मुंराइ खौ</w>
ष्टा र्
गोबाख्र ʼ
pa d</w>
pa int</w>
जापा न</w>
गोलो न्दां</w>
दिप क</w>
बोस्रां नानै</w>
थेख्रे नि</w>
सिमां सो</w>
दैदेनगिरि फोर</w>
बिग्राया रिफोरखौ</w>
आलुमि ंगि
आलुमि ंगिया</w>
परे श</w>
थाना दार</w>
बिगो माया</w>
नंखाय खौ</w>
प्रेक तिकेल</w>
हाजʼवारी मोनखौ</w>
कʼकरा झा
bo y</w>
gra m
नबे म्बराव</w>
सती स</w>
सिखां दो</w>
मुलि फोरखौ</w>
दोमै लु</w>
रोजा बै</w>
मावथि फोरा</w>
जोबथे सालिनिफ्राय</w>
हुखु म</w>
खरथे ंनि</w>
ट्रेइ निं</w>
एप्लिके सन
गम था</w>
मडे ल</w>
जाब्र थायाव</w>
निर् बा
रिन दाव</w>
देग्लाय बो</w>
थुंग्र ी</w>
पाट ी
खनसाय खौ</w>
दानसो रांनि</w>
दानसो रांखौ</w>
गʼसाइ नि</w>
गʼसाइ या</w>
मैहुरा री
नाराय णा</w>
खाब थानानै</w>
दारʼ गा</w>
फोर् बो</w>
नांजाब फानाय</w>
उकि ल</w>
धर णी</w>
संबिजि रनि</w>
टेलि फʼन</w>
trag ic</w>
नेटवार् क
आमु खाया</w>
आजाय नाय</w>
रान्दि खौ</w>
खोब थेनानै</w>
नोगोरा रिफोरा</w>
हुसिया र</w>
मिलौ हाब</w>
हस्पि तालाव</w>
थारो लै</w>
गार् ल</w>
बेखौ नोथʼ</w>
सें सौ</w>
हाब्रा ं</w>
पाउ दार</w>
बागदाव खाङो</w>
for ma
tu al</w>
आफ गानिस्ता
घि उ</w>
बिथाङा नो</w>
मास्टा रा</w>
गोद ना</w>
गोद नायाव</w>
फाफ खौ</w>
खुगा जोंनो</w>
नांगो ल</w>
रुबि लानि</w>
मिथिगौ ना</w>
महिला री</w>
हारामजा दि</w>
na me</w>
अन्जा लि</w>
इसि बां</w>
एटा सि</w>
टमे टʼ</w>
बाजार निफ्राय</w>
बेब् दिनो</w>
फेब्रु वारी</w>
दौदि निया</w>
बिजाथि फोरा</w>
गनतन्त्र बादि</w>
पाब्लिकेसन स्‌</w>
खृष्टा न</w>
उर् ब
खफा थिया</w>
जम् मु</w>
जम् मुनि</w>
बखʼ यो</w>
मन्त्र ी</w>
हस्रि खाव</w>
हाबिला स</w>
मुर् ख</w>
सानथ्रʼ हायै</w>
दानसʼ नाय</w>
इनस्ट्राक सन</w>
असमिया फोरनि</w>
चाइ डि
dra ma</w>
आदि बासि</w>
एदाव ब्ला</w>
बाग् दाव</w>
खान्दि से</w>
बिष्ण ु
सांग्रे मा</w>
सुबुरु न</w>
दुद्र ु</w>
लाइब्रे री</w>
स्नि थि</w>
गाहाइ याव</w>
प्रदिप खौ</w>
थुनलाया रि</w>
डिसे म्बर</w>
इन्सपे क्टर</w>
क्लʼ डिया
अब्रा मा</w>
गंग ना</w>
सिम् पान्ज
दाखालाम सै</w>
बुद् दि</w>
मिज्लि उ</w>
खुग्लु बनानै</w>
मेब्ला नि</w>
पाक् का</w>
मही धरा</w>
महकु मानि</w>
अलʼक नो</w>
नरका सुरनि</w>
खृष्ट ीयान</w>
बिरोंदा मि
wh o</w>
इले क्ट
उपे न्द्र</w>
एसʼ चिये
धम क</w>
गाहेला फोरा</w>
बोद लानानै</w>
जिख्ला बसे</w>
मिटार सो</w>
मुसलि म</w>
देग्ला इ</w>
जुक् ति</w>
खिथे रखौ</w>
रामसिया रि</w>
रबिल सना</w>
धर्मे न्द्र</w>
पसम ी</w>
भबे श</w>
शची पा
नाछा नि</w>
जालि जौनि</w>
गायदे या</w>
माइरं खौ</w>
आये न</w>
ज्ञ ा
मोगथाङा रि</w>
acc essories</w>
कास्तमार फोरखौ</w>
डेनमार् कनि</w>
रिंगासो याव</w>
साइटʼकाइ निन</w>
बृहस्पति बारखालि</w>
der iv
उमे श</w>
सहʼ खौ</w>
नायखं ख्रे
फास्ला ं</w>
फादोर नि</w>
रिग दै</w>
मिन्ट न</w>
लिबारे सन</w>
हुरा गासे</w>
गʼगा प</w>
jul y</w>
wha t</w>
आरां गानि</w>
उसुखु थु</w>
बोलोगो रा</w>
रिंगु दाम
प्रमी ला</w>
माइक्रʼ सफ्
" ..</w>
0 3
0 1</w>
0 3</w>
2 4
2 75</w>
3 3
3 00</w>
4 8</w>
5 2</w>
6 2</w>
6 8</w>
7 4</w>
7 8</w>
8 1</w>
: :</w>
: ...</w>
: ....</w>
? ...</w>
a m</w>
b ur
b us
c a
c k</w>
c an
c le
d ri
d ec
e t
f a
g i
i l</w>
j us
l y</w>
l en
l an
l ec
m p
m ac
n at
o b
o f
p l
p e</w>
p er</w>
p ri
r e</w>
r ing</w>
s on</w>
s ec
s on
t re
u ral</w>
v el</w>
w a
w e</w>
w n</w>
ʼ वा
ं खौनो</w>
ं कि
अ थ
अ माखौ</w>
अ खाया</w>
अ ंक
अ गर</w>
अ सुख</w>
अ ग्रिम</w>
आ न</w>
आ बा
आ बो
आ फि
आ बुं
आ राव</w>
आ दै
आ था</w>
आ हम
आ बां</w>
आ खि</w>
आ साया</w>
आ लायनानै</w>
आ सिया</w>
आ न्स
आ पʼ
आ फ्रि
आ स्सा</w>
इ श
इ खौ</w>
इ नाव
इ नाइ</w>
इ नाइनो</w>
उ रा
उ ग्र
उ हु</w>
उ सुं</w>
ए द
ए वनो</w>
ए ग्
ए मावनो</w>
ए न्ज
ए रायनो</w>
ओ न्दां</w>
क म</w>
क स</w>
क नि
क आव</w>
क सन</w>
क फिनि</w>
क सुगाव</w>
ख ना
ख मा</w>
ख रै</w>
ख ननि</w>
ख दै</w>
ख माय
ख बनानै</w>
ख हाब</w>
ख थानि</w>
ख रायनानै</w>
ग इ</w>
ग गोन</w>
ग राव</w>
ग लाय
ग नाया</w>
ग थाइ</w>
ग गा</w>
ग ल्
ग नखौ</w>
ग सर
ग ंगा</w>
ग लायनाय</w>
ग बोयो</w>
ग ब्राय
ग ड़</w>
ग रानिया</w>
घ र</w>
ङ ्
ङ ायाव</w>
ङ ैबो</w>
च छ
च खौ</w>
छ ि
ज ब
ज म
ज ङा</w>
ज था</w>
ज खा</w>
ज थाय
ज िये
ज हैयो</w>
ज दाम
ज फानाय</w>
ज निल</w>
ट ं
ट ु</w>
ट ्रा</w>
ट मेन्ट</w>
ड ु</w>
ड 0</w>
त म</w>
त न</w>
त र</w>
त बो</w>
त जों</w>
त ियाव</w>
त ीनि</w>
त पुर</w>
त कार</w>
थ ल
थ खʼ</w>
थ फानै</w>
द ी</w>
द बा</w>
द ना</w>
द यो</w>
द लि
द रा</w>
द हर
द स्
द त्
द न्दाया</w>
द सेलʼ</w>
द ब्लाय</w>
ध न</w>
न ङ
न व</w>
न या
न आव</w>
न गोनां</w>
न सिम</w>
न गर</w>
न ङै
प द</w>
प ले
प इन्
प ष्ट</w>
प न्च
प ण्डि
प टल</w>
फ य
फ थʼ
फ ौनि</w>
ब ंग
ब टा
ब ंग्रा
ब सʼनानै</w>
ब हाबाफोर</w>
भ ्रा
भ ायाव</w>
भ लु
भ टाव</w>
म ख
म थि</w>
म फोरा</w>
म ब्र
म ते
म नाखौ</w>
म साहा
य य
य ि
य ी
र ड</w>
र मोन</w>
र आव</w>
र लै</w>
र खौबो</w>
र जे</w>
र ङिया</w>
ल नो</w>
ल जि
ल सिम</w>
ल न्थि</w>
ल ख्रा
ल हानि</w>
ल ीयाव</w>
ल केट</w>
व ्
व दि</w>
व ब्ला</w>
व राज</w>
श खौ</w>
स याव</w>
स लाइ</w>
स फैदों</w>
स हर</w>
स ति</w>
स ीनि</w>
स सियेल</w>
ह ल
ह िया</w>
ह ब्र
ि ब</w>
ो ब
ो दि</w>
ो मोनब्ला</w>
। ............</w>
। "--</w>
ना मोन</w>
ना रि
ना थि</w>
ना मै</w>
ना कि</w>
ना मैनो</w>
ना स्राय</w>
ना मासै</w>
ना ङि</w>
बा प
बा न्
बा ङो</w>
बा दोंमोन</w>
बा बाज
बा ख्रि
बा नाइ
बा न्दी</w>
बा शी</w>
ला स</w>
ला मोन</w>
ला खो</w>
ला बोर
ला खानाय</w>
ला नायानो</w>
ला फायो</w>
ला बायो</w>
ला खाबाय</w>
ला हैनाय</w>
ला फिनदों</w>
ला गाम</w>
रा उ
रा ब
रा र</w>
रा मा
रा न्
रा मि
रा खां
रा खेब
रा वारि</w>
रा निनि</w>
रा सिनसो</w>
जा फा</w>
जा गोदान</w>
जा फैदों</w>
जा हार
जा बोर</w>
जा सिनो</w>
जा नायाबो</w>
जा जोब्बाय</w>
जा गाय</w>
जा नोनो</w>
जा दु</w>
जा फेराखै</w>
जा गायनो</w>
जा ब्रʼ
जा गायो</w>
जा मारो</w>
था क</w>
था रि
था नाव</w>
था खि</w>
था बाव</w>
था होनो</w>
था मोन्
था गिरि</w>
था थाव</w>
था न्दा</w>
था गासिनो</w>
था फैबाय</w>
था फैनो</w>
था है</w>
था खाया</w>
था नांदों</w>
था नायबादि</w>
था हैनानै</w>
था नांगौब्ला</w>
था लांगोन</w>
था देरनाय</w>
था दोलै</w>
था फ्लि</w>
था थेरनो</w>
खा रो
खा जायो</w>
खा थे
खा थʼ
खा लायो</w>
खा ंग्रा
खा लायाव</w>
खा नाखौ</w>
खा ता</w>
खा बायमोन</w>
खा जोबो</w>
खा थ्रि</w>
खा न्दाय</w>
बि उ
बि य
बि ल
बि ं</w>
बि न्द
बि थि</w>
बि का
बि थो
बि बुं</w>
बि लायनो</w>
बि सखौ</w>
बि साना</w>
बि दैया</w>
बि सारनि</w>
बि ग्रि</w>
बि लोगोनि</w>
बि साराव</w>
बि हारु</w>
बि नेश्वर</w>
बि थाजों</w>
बि दांखौ</w>
मा जे
मा लाइ
मा फोरनि</w>
मा राम</w>
मा लनि</w>
मा लाइ</w>
मा द्रा
मा रैनो</w>
मा लाखौ</w>
मा ंग्रि</w>
मा जेन</w>
मा धु
मा बासो</w>
मा सेया</w>
मा ख्ला</w>
मा बोरैथो</w>
मा ख्लि</w>
मा खौथो</w>
मा मला</w>
मा हामै</w>
गो आ</w>
गो मोन
गो दि</w>
गो लां
गो है
गो दाव
गो थो
गो सायाव</w>
गो दाय
गो फार</w>
गो सायै</w>
मो ले</w>
मो दाउ
मो ख्रानि</w>
मो स्रोम</w>
मो सेबनानै</w>
सा क
सा ङ
सा खा
सा मु
सा दु
सा नायाव</w>
सा बि</w>
सा फ्रा</w>
सा बेसे
सा जाय</w>
सा हानि</w>
सा धा
सा फ्रोम
हा गा
हा नांगौ</w>
हा बै</w>
हा जि</w>
हा थाव</w>
हा सार</w>
हा ले</w>
हा थाया</w>
हा दुं
हा ब्रु
हा लायै</w>
हा नायबो</w>
हा जवा
हा जिरा</w>
हा स्लाबा</w>
हा सिल</w>
गा दों</w>
गा फा</w>
गा ंनि</w>
गा सेनो</w>
गा रांखौ</w>
गा ग्ले
्र ियै</w>
्र निक</w>
न् नायसै</w>
नाय दा</w>
नाय नायाव</w>
नाय नोसै</w>
नाय नानैसो</w>
नाय ग्रानि</w>
नाय हरा
नाय दिं
नाय ख्ले
सि स
सि क</w>
सि नायनि</w>
सि दा</w>
सि मनि</w>
सि न्नाय</w>
सि मायाव</w>
सि ग्ला
सि लाखौ</w>
सि जेन</w>
सि थावना</w>
सि ग्रि</w>
सि देम</w>
सि ग्लाब</w>
ोर ा</w>
ोर खौ</w>
दा सि
दा बु
दा दा</w>
दा खि
दा ंनि</w>
दा री</w>
दा खि</w>
दा देर
दा खन
दा हार
दा फै</w>
दा खʼ</w>
दा न्नो</w>
दा रनो</w>
दा ड़
दा खिन्था</w>
दा ब्राय
दा ब्ले</w>
दा बारी
दा बोराब</w>
बे क</w>
बे ङा</w>
बे क्
बे टे
बे फोराव</w>
बे फोरजों</w>
बे बʼ
बे न्दो
बे ंगु
बे फोरनिफ्राय</w>
बे खौलाय</w>
बे दिं</w>
बे हुस</w>
बे निफ्रायसो</w>
बे केटा</w>
बु ल</w>
बु स्रि</w>
बु गʼ
बु साया</w>
बु लायनाय</w>
बु ंग्रा
बु ङोमोन</w>
बु ख्रुब
िय ायाव</w>
्ल े
फा था
फा फि
फा दु
फा निफ्राय</w>
फा थो
फा दार</w>
फा स्ट</w>
फा मो</w>
फा देरो</w>
हो न</w>
हो या</w>
हो नोसै</w>
हो खांनानै</w>
हो लायनाय</w>
हो फैनानै</w>
हो सिगोन</w>
हो खानाय</w>
हो नानैबो</w>
हो ग्राया</w>
हो फैनायसै</w>
सो बा</w>
सो ङा</w>
सो ङा
सो लि</w>
सो बनानै</w>
सो दोर
सो खानो</w>
सो ङाखिसै</w>
मोन फै
मोन सै</w>
मोन बाय
मोन दों
मोन ब्ला
मोन जागोन</w>
मोन लाङो</w>
मोन दां</w>
मोन होदों</w>
मोन बोदों</w>
मोन खोमा</w>
मोन हैनो</w>
मोन लायबाय</w>
मोन स्नि</w>
मोन थियो</w>
मोन हानो</w>
मोन थारो</w>
मोन दांनो</w>
मोन ज्लायनाय</w>
नि म</w>
नि पा</w>
नि होर
नि दानाव</w>
फोर मानि</w>
फोर खौसो</w>
फोर जानि</w>
फोर बोनि</w>
थि ख
थि न</w>
थि थि
थि फोर</w>
थि खा</w>
थि लिया</w>
दि म</w>
दि स</w>
दि ंग्रि</w>
दि नावनो</w>
दि ंग्राय</w>
जो मा</w>
जो गार
जो लानि</w>
बो आव</w>
बो ग्रा</w>
बो फ्ल
बो दोर
बो बोनानै</w>
बो खानानै</w>
बो याखै</w>
बो खावनाय</w>
जे इ
जे द</w>
जे रि
जे माखौ</w>
जे रैनो</w>
जे बोला</w>
जे वारि</w>
जे क्ट</w>
से र्जा
से रखौ</w>
से टखौ</w>
से र्जा</w>
से लेन्
जि लि
जि ब्रै</w>
सु जों</w>
सु स्
सु नांगौ</w>
सु री</w>
सु ति</w>
सु इस</w>
गु ब</w>
गु लिनि</w>
गु ंग्राय</w>
फि द</w>
फि फा
फि जि
फि राय
फि थाइ
रि क
रि न</w>
रि हा
रि थि</w>
रि स्टʼर</w>
गि नि</w>
गि सि
्ला ब</w>
मि लाय
मि सन</w>
मि लायनानै</w>
मि डिया</w>
बुं खौ</w>
बुं बाव</w>
बुं दां</w>
बुं फैबाय</w>
बुं बोनाय</w>
बुं थियो</w>
बुं दोंमोनब्लाबो</w>
बुं बावबाय</w>
बुं नांगौब्ला</w>
बुं फब
बुं सनो</w>
फो ला
फो जों
फो थाया</w>
फो लाबाय</w>
फो थाया
फो नांदों</w>
फो थारा</w>
फो जोंनानै</w>
खो न्
खो नाय
खो सै</w>
खो न्थ
खो थिया</w>
खो लै
खो न्था</w>
खो बनाय</w>
खो थायानो</w>
फै नि</w>
फै फा
फै बा</w>
फै फेरा</w>
मु व
मु रा
मु ला</w>
मु स्र
मु फु
मु रु
मु फुर</w>
मु गाया</w>
मु ख्लं</w>
मु सल
मु ङैसो</w>
खाला माब्ला</w>
लि प
लि य</w>
लि स्ट</w>
आं जोंनो</w>
आं लायनो</w>
आं निया
आं खौलʼ</w>
आं खौलाय</w>
आं निसो</w>
आं नोलाय</w>
ले या</w>
ले ण्ड
ले बेना</w>
थां ला</w>
थां ब्लाबो</w>
थां खांनानै</w>
थां नायमोन</w>
थां थोंसै</w>
थां फानानै</w>
थां नोसै
थां नायथिं</w>
थां सʼनि</w>
न्द राम</w>
नो खौ</w>
नो ब्लाबो</w>
नो माया</w>
नो थाङा</w>
नो माखौ</w>
नो माजों</w>
सान ब्ला</w>
सान ग्रा</w>
सान राइ
सान सिम</w>
सान फ्ला
सान फोराव</w>
सान ब्रै</w>
सान बोदों</w>
सान नानैनो</w>
सान जाथाव</w>
सान जानि</w>
सान फुनाय</w>
सान थावा</w>
सान नैसो
नों दानि</w>
नों बोथʼ</w>
नों नियालाय</w>
खालाम बो
खालाम ला</w>
खालाम जानानै</w>
खालाम नायसै</w>
खालाम नोबो</w>
खालाम बोदों</w>
खालाम नायमोन</w>
खालाम खांनायनि</w>
खु न्
खु जा</w>
खु ंगा</w>
खु ंग्रा</w>
खु ंग्रि
खु न्दायाव</w>
खु गाया
फ्रा ं
फ्रा न्
दे त
दे क</w>
दे श</w>
दे थ</w>
दे ना</w>
दे वा</w>
दे द्‌
दो ल</w>
दो आव</w>
दो नाखै</w>
बाय नायाव</w>
बाय नाया</w>
बाय हाजार</w>
बाय लुं</w>
बाय ग्लि
गाव न</w>
गाव दों</w>
गाव नाव</w>
गाव लायनाय</w>
गाव हाबो</w>
गाव सोरखौ</w>
खौ नोथʼ</w>
सोर हा</w>
सोर बानि</w>
सोर नोबा</w>
सोर खौथो</w>
दों थाम</w>
दु लि</w>
दु गै</w>
मे जि
मे वा</w>
मे नु
मे थे
मे क्
मे नाजा
मे लाखौ</w>
मे टिक</w>
मे थाइजों</w>
लो ब्ला</w>
लो खो</w>
लो लो</w>
राय जा
राय थि
लाय ब्ला</w>
लाय दिनि</w>
ब्ला दि</w>
जों निसिम</w>
वा खिसै</w>
वा बालानो</w>
नु नायनि</w>
नु जादों</w>
नु फिन
नु थायनि</w>
नु फिनबाय</w>
नु थायखौ</w>
नु बोला</w>
नु गानै</w>
नु फेराखै</w>
नु फेरै</w>
नु स्लाबा</w>
हर ु
हर बादि</w>
हर ोमोन</w>
हर सेनि</w>
हर सेखौ</w>
लां फै
लां फा</w>
लां खो</w>
लां फै</w>
लां फायो</w>
लां फानो</w>
या न</w>
या दि</w>
या खैसै</w>
गे व</w>
गे ब्ला
गे टा</w>
गे रेब
गे न्द्रा
नां जा</w>
नां थʼ
नां लायबाय</w>
नां बावगोन</w>
बर े</w>
गै खाया</w>
गै मारा</w>
गै थारला</w>
गै ल्या</w>
लु ना</w>
लु यो</w>
लु न्दि</w>
लु ङि</w>
स्र ायो</w>
स्र ुब</w>
जु ग
जु नानै</w>
जु लाइ
जु लिया</w>
जु थे</w>
जु नार
जु निया</w>
जु गनि</w>
रो ना</w>
रो जासे</w>
रो मो</w>
खि सुरी</w>
िया नि</w>
खां नांगौ</w>
खां फिन
है या
फु र्
फु वा
फु दोंमोन</w>
फु लिया</w>
फु थुर</w>
फु जियो</w>
खार न
खार गासिनो</w>
खार सन</w>
खार बोदों</w>
खार ग्लु
रु टि</w>
रु माल</w>
लʼ नि</w>
बाथ ो
बाथ िया</w>
नांग ्रो
लाइ ट
लाइ नाय</w>
लाइ टार</w>
लाइ टनि</w>
लाइ टाव</w>
लाइ टजों</w>
जाय जों</w>
जाय फोरनि</w>
रे द</w>
रे ख</w>
रे जे
रे जें
रे गे</w>
स् त</w>
स् ने
स् के
स् टखौ</w>
स् निनि</w>
स् पʼ
स् पर्
हि सान</w>
दै बाय</w>
दै थुन
दै मुवा</w>
दै रोम</w>
दै बानाजों</w>
गोसो आरि</w>
खे फ
खे रे
खे राया
माव जा
माव खां
माव दो</w>
माव होनो</w>
माव ग्राया</w>
माव सुला</w>
माव नायाबो</w>
हे ले
हे ले</w>
हे न्द</w>
थाइ गिर</w>
थाइ लेण्डनि</w>
बार ब्ला</w>
बार ब्लानो</w>
बार खांनानै</w>
बार ीनि</w>
बार हावा
बार ्लि</w>
टा ं</w>
टा इ</w>
टा रे
टा स्क
बाव नायनि</w>
बाव ला</w>
बाव नोसै</w>
बाव यै
ब्र ब</w>
ब्र ोम</w>
गुबु ं</w>
गुबु नखौ</w>
हम जानाय</w>
हम ज्लायनानै</w>
थार नानै</w>
थार ्ला</w>
थार नोसै</w>
थार सिगोन</w>
थार खायाव</w>
मानसि नाव</w>
मानसि फोरनो</w>
जोब बा</w>
जोब ना</w>
जोब जानाय</w>
जोब नोसै</w>
जोब नानैबो</w>
गार जा</w>
गार नाया</w>
गार नांदों</w>
गार सोम</w>
गार हरदोंमोन</w>
फिसा ला</w>
फिसा सिन</w>
थे खा</w>
हु मा</w>
हु दाखौ</w>
हु हुर
बै श्
फाव दिन्थिनाय</w>
फाव खुंग्रि</w>
होन बाय</w>
होन नांगोन</w>
होन बानो</w>
होन ब्लासो</w>
होन बाथाय</w>
का ट</w>
का ज</w>
का न्
का रनि</w>
का रजिया</w>
का ली
हाब लांनाय</w>
दाव बो</w>
दाव दाब</w>
हाय ैखाय</w>
अन गोन</w>
अन नायजों</w>
अन लायनाया</w>
सलʼ बाथा
पा ले
फार नैबो</w>
सं दों</w>
सं फ्ल
सं दान्नानै</w>
बोर ो
बोर ायनो</w>
बोर ायाबो</w>
ने क्स
मिथि ब्ला</w>
मिथि ला</w>
मिथि ङाव</w>
मिथि रोङा</w>
मिथि सʼनो</w>
सै नानै</w>
के बि
के कखौ</w>
के न्द्र
फे नाय</w>
फे देर
फे लें
फे देरनो</w>
फे रामोन</w>
फे देरदों</w>
थो ङै</w>
साव गारिनि</w>
साव रायो</w>
खै थʼ</w>
खै रोम</w>
ग्र द</w>
ग्र ह</w>
ग्र ायानो</w>
रै मोनखौ</w>
थै ना</w>
थै खांनायनि</w>
लों नाया</w>
लों जोबो</w>
फ्र ायो</w>
फ्र न्ट</w>
लिर जानाय</w>
हां बाय</w>
हां सा</w>
खʼ हा</w>
खʼ थाखौ</w>
री नो</w>
री या
री टि</w>
ता र
ता लु
ता मिल</w>
फराय थि
फराय साया</w>
बिसोर खि</w>
बिसोर नावनो</w>
ग्रा फ्रा</w>
जौ मोना</w>
जौ स्रां</w>
जौ मोनखौ</w>
दं फायो</w>
दं फायोमोन</w>
बां खौ</w>
बां होयो</w>
आफा खि</w>
आफा दानो</w>
गाब नायाव</w>
टे बोला</w>
टे ंक
टे म्प
टे ंकि
ओंखार ना</w>
ओंखार ब्ला</w>
ओंखार गोन</w>
ओंखार नायखौ</w>
मै ना
दोन हां</w>
दोन फिनो</w>
दोन लांदों</w>
दोन स्लाय
दोन खादों</w>
देर नायनि</w>
देर सिन
देर बोबाय</w>
गाय खौ</w>
गाय दों</w>
गाय ग्रा</w>
गाय संनानै</w>
ब् ‌</w>
खाय नि</w>
खाय लें</w>
खाय दायै</w>
सों लुवा</w>
थʼ से</w>
टि फोर</w>
टि सनि</w>
टि फिन</w>
जाब नि</w>
नʼ प
नʼ ल
नʼ स
नʼ आ</w>
बिफा फोरा</w>
बिफा ननो</w>
लोगो फोरनि</w>
प्र ता
प्र मʼ
बाद े</w>
खोना ब्ला</w>
खोना फा</w>
खोना नानैबो</w>
खोना संग्रा
बाथ्रा मोन</w>
बाथ्रा जोंनो</w>
सोम हाब</w>
मुं राया</w>
गं ना</w>
गं स्रि
गं सेलʼ</w>
गं नैखौ</w>
गं फ्रोम</w>
हाबा जों</w>
मोन् नायाव</w>
मोन् दांनो</w>
नाया खि</w>
नाया वलʼ</w>
खर स</w>
खर सानि</w>
जʼ खाय
माहा रि
माहा री</w>
ओंखा राखिसै</w>
नङा लाय</w>
नङा थʼ</w>
ब्ल कनि</w>
बरʼ फोर
बरʼ फोर</w>
बरʼ फोराबो</w>
सम बार</w>
स्रा ब</w>
स्रा बाय</w>
खाव ो</w>
खाव बाय</w>
खाव नायाव</w>
खाव बʼ</w>
थाव खौ</w>
थाव मोन</w>
थाव रि
थाव नियाव</w>
रं जायो</w>
रं जादों</w>
बिबा ज
बिबा ननि</w>
दिन्थि ना</w>
दिन्थि नायखौ</w>
गोजा नै</w>
लाबो आ</w>
लाबो नांगोन</w>
भा स</w>
भा षा</w>
दान नै</w>
दान नानै</w>
दान नाय</w>
दान ब्ला</w>
दान थे</w>
दान नैनि</w>
एसे यैब्लाबो</w>
न्त ा</w>
मिनि हां</w>
मिनि खुसियै</w>
मिनि माइज</w>
फोरमाय थि
फोरमाय नायखौ</w>
फोरमाय थिदों</w>
माइ नि</w>
माइ थाय</w>
आइ नो</w>
आइ जें
आइ दिया
आइ दियाया</w>
फुं बिलियाव</w>
रां खिनि</w>
रां खाउरि</w>
........ .........</w>
........ ..।</w>
बय सियाल</w>
बिब् दियाव</w>
बिब् दियैनो</w>
खोम ाया</w>
बादि लʼ</w>
नानै लाय</w>
नानै थʼ</w>
मोना सो</w>
खेव ो</w>
खेव ना</w>
आसा नि</w>
आसा री</w>
आसा मि</w>
आसा मनो</w>
आसा मजों</w>
आसा मिखौ</w>
जिउ गोनां</w>
फावथाइ याव</w>
ज्ल ौ</w>
आब ʼवा</w>
आखु थि</w>
आखु फोर</w>
आखु थाइनि</w>
आखु थाइफोरखौ</w>
नागिर गासिनो</w>
नागिर ब्लानो</w>
नागिर बाबो</w>
गʼ नाय</w>
गʼ गा</w>
गʼ दाय</w>
डा टा</w>
बिदि न्थियाव</w>
सौ नो</w>
सौ नाय</w>
सौ बाय</w>
सौ दाव
सौ धु
सौ फैब्ला</w>
सुबुं खौनो</w>
सुबुं फोरजों</w>
आय ु
बिजि खौ</w>
लुबै यै</w>
लुबै याखै</w>
कु र्
कु वा
कु मारनि</w>
स्ल ु</w>
स्ल गान</w>
डि ङा</w>
डि टेक्
डि ग्री</w>
गिरि फोरानो</w>
नं नानै</w>
नं बाय</w>
नं दोंमोन</w>
नं नाया</w>
नं जोबा</w>
मोदो मै</w>
मोदो मनिफ्राय</w>
गोरो बो</w>
गोरो बनो</w>
फं बायाबो</w>
उन्दु दों</w>
उन्दु गासिनो</w>
पि न</w>
पि ष्ट
पि रामि
महर ैनो</w>
आफाद निफ्राय</w>
आफाद गिरिनि</w>
साइ कʼ
साइ खं</w>
शान्त ियाबो</w>
मानि नो</w>
अज याबो</w>
साय दों</w>
साय ख्लु
हारि मा</w>
हारि साफोरनि</w>
नजा र</w>
गोग्ल ैनो</w>
माखा से
मन् त</w>
मन् चा</w>
सोदोब मा
गोग्लै या</w>
द्र ु</w>
द्र ाया
नांगौ ब्लाबो</w>
राज नि</w>
मोन्द ों
बिलि त
आव नाय
आव लाय</w>
आव लʼ</w>
आव राय</w>
आव गाया
अर फे</w>
अर खिखौ</w>
बिथां नो</w>
बिथां मोनखौ</w>
कि उ
कि रा
कि बा</w>
दुर्जा ंजों</w>
ति ल</w>
ति क</w>
बिजिर गिरिफोरा</w>
नाजा बाबो</w>
हार े</w>
हार सिंनि</w>
सर थे</w>
सर लाखौ</w>
सन िया</w>
सन दे
सन निफ्राय</w>
सन मान</w>
मार ौ</w>
गान होनो</w>
राम आ</w>
नोजोर थावदि</w>
बेर खाय</w>
पे पार</w>
खेब थाम</w>
खेब खांनानै</w>
लै सो</w>
दाय से</w>
बिसि नो</w>
बिसि फोरनि</w>
सिनाय नाय</w>
सिनाय बाय</w>
सिनाय खायो</w>
सिनाय थिनो</w>
बान साल</w>
लाव थिखौ</w>
लाखि ना</w>
आर मि</w>
सिं निफ्रायनो</w>
हिन्जाव साया</w>
हिन्जाव सानि</w>
हिन्जाव साखौ</w>
सान् नै</w>
सान् नैसो</w>
ज्लाय दों</w>
बबे सिम</w>
राजा फ्रा</w>
माब्ला दि</w>
गोहो या</w>
गोहो माव</w>
जेन नायनि</w>
रंजा खाङो</w>
बोहै बाय</w>
बोहै यो</w>
बोहै लाङो</w>
बोहै बोयो</w>
अल क
मन रन्जन</w>
खाफा लावनो</w>
फोरा दि</w>
फोरा थʼ</w>
फोरा ननानै</w>
लिं ना</w>
लिं हरामोन</w>
दुखु बो</w>
दुखु नांथावना</w>
आद ʼ
आद ायालाय</w>
बेनि खायनोथʼ</w>
मन्जु मोननि</w>
सान्द ो
सान्द ाया</w>
सान्द ्रि</w>
साया वनि</w>
साया रामखौ</w>
साया वलʼ</w>
नोंथां मोनखौ</w>
हें थायाव</w>
ग्ला ं</w>
गोनां फोरा</w>
साब नाय</w>
साब दों</w>
साब सिन
साब द्राय
गलʼ नो</w>
बाइ नारि</w>
बाइ काव</w>
बाइ ह्रायाव</w>
दौ वो</w>
गैया थाय</w>
गैया मोनब्ला</w>
सुलु ं</w>
इराग् दाउ</w>
ग्रो नानै</w>
ग्रो नांगौ</w>
ग्रो दो</w>
ग्रो नांगोन</w>
ग्रो नमोना</w>
सिया ल
सिया वनो</w>
सिया लखौ</w>
थिं सो</w>
सोलों सालि</w>
मोसा नानै</w>
मोसा नायनि</w>
मोसा नांगौ</w>
मोसा नायखौ</w>
जारिमि न
मद दनि</w>
लाइजा मजों</w>
बायदि फोर</w>
in di
झा लु
दिहुन गा
दिहुन गिबि</w>
दिहुन गाबा</w>
फान दाय
गर ज</w>
गर फा</w>
गर मि</w>
गिया ति</w>
होम बाना</w>
ण्ड े
सासे याबो</w>
गसं थे
गसं दयो</w>
ट्रे ड</w>
ट्रे जि</w>
सिन नो</w>
सिन थायनो</w>
जाथाइ फोरखौ</w>
जाथाइ खौनो</w>
दुं खां
गेले गोन</w>
गेले नायनि</w>
गेले दोंमोन</w>
थिन ब्ला</w>
थिन हरो</w>
थिन हरदोंमोन</w>
लाया बा</w>
लाया लाबासिनो</w>
फ्रो मावबो</w>
खरʼ सिम</w>
बेद दनि</w>
सावराय गिरि</w>
हांखो निफ्राय</w>
गोबा लायनानै</w>
कले जा</w>
नुजा फै
नुजा नायनि</w>
भु ट</w>
भु गिनो</w>
भु ँइ</w>
गोदो ना
गोदो नाखौ</w>
बें दों</w>
बें खʼ
बें खन
गोन सो</w>
हादोर खौ</w>
देरहा नायनि</w>
देरहा ग्रा
थुनलाइ या</w>
ti m
ti c</w>
ti al</w>
ti es</w>
गोमा गोन</w>
गोमा लाङो</w>
गोमा लांनाय</w>
रिं खाङो</w>
बाहागो फोराव</w>
बाहागो आनो</w>
धोरो मारि</w>
धोरो मजों</w>
डे पु
थों नै</w>
थों जों
समाय स्रीनि</w>
बिर नाय</w>
बिर लांनाय</w>
लाजि नायजों</w>
लाजि फोनां
खुं थाय</w>
खुं ख्रा</w>
नार खो
दाउ फोरनि</w>
दाउ थु</w>
दाउ ज्ला</w>
खन् थाइखौ</w>
रʼ द</w>
रʼ ग</w>
रʼ नो</w>
रʼ दाव</w>
जाहो गोन</w>
सिखार नाय</w>
खिन्था हरो</w>
खिन्था हैनो</w>
बुर ला</w>
अरु प</w>
अरु नमोना</w>
फोरों गिरिफोरा</w>
लोम जाब्ला</w>
त् व
त् व</w>
त् या
थाखो से</w>
नख रारि</w>
गेदे रा</w>
थुम ना</w>
दैदेन नो</w>
दैदेन गिरिनि</w>
थौ जासे</w>
लाउ दा
लाउ सिन</w>
अम रनि</w>
अम लनि</w>
बेखेवगा स्निनि</w>
मनजु आ</w>
फोथाय थि</w>
थेफे ननि</w>
भि स</w>
बारा सिन</w>
दʼ बा</w>
दाम सिखौ</w>
बैसो याव</w>
बैसो मुथिया
गुर नो</w>
रुवा थी
इन ष्टि
खौरां लाइ</w>
हाजʼवा रिनि</w>
हाजʼवा रीनि</w>
हाजʼवा रीखौ</w>
ग्लो म</w>
अख्रा ंखौ</w>
गोजौ आव</w>
हार् टनि</w>
बाजि नो</w>
बेव हा</w>
साम लायो</w>
साम लाउथि</w>
गोरा खौ</w>
हिसा बैसो</w>
बुजि नाय</w>
उन खालि</w>
बिगु मा
बिगु मैया</w>
गाबो नबो</w>
बुङा ब्लाबो</w>
फार् नि
अखा नायब्लानो</w>
जार ौ
गिदिं बाय
सोमावसार दों</w>
बिलाइ फोरखौ</w>
न्ज ायाव</w>
चि टि</w>
चि त्रा
होन् नाया</w>
बोसोर निफ्रायनो</w>
स्रो तै</w>
रान नाय</w>
थाबाय ग्रा</w>
मोनसे यानो</w>
फिसाइ फोरा</w>
आनजा द
बेला सेयाव</w>
सिगां नाय</w>
सिगां निफ्राय</w>
सुथु रजों</w>
मʼ ना</w>
स्टे जाव</w>
स्टे न्द</w>
स्टे सनाव</w>
फ्रु ं</w>
पार् काव</w>
खुलुम दों</w>
बिबार िया</w>
बिबार बारि</w>
फ्लां गोन</w>
ou t</w>
ou se</w>
कर् नियाखौ</w>
भे ट
भे न्
भे टे
सोमजि नो</w>
सोमजि नानै</w>
सोमजि नायाव</w>
लिया ब्ला</w>
मिजि ङा</w>
हौवा फोरा</w>
हौवा फ्रा</w>
ओन दे</w>
हगार बाय</w>
हगार गोन</w>
हगार हर
ब्रु म</w>
हʼ गार
हʼ लनि</w>
फैया ब्ला</w>
फैया खैमोन</w>
उजि नांगौ</w>
थोर सि</w>
जाफुं नाय</w>
लें नानै</w>
दुम फे
जाम् बा
थाङा ब्ला</w>
बिजाब निफ्राय</w>
बिजाब फोरा</w>
सानसे याव</w>
मंग लिय</w>
सहे नखौ</w>
दान्दि सेयावनो</w>
आल मर्
थाब दों</w>
खोनासं नानै</w>
नार् भास</w>
थेले फानि</w>
थेले बनि</w>
बानाय ो</w>
ओनसो ल
गला म
जोम नो</w>
बडʼ सा</w>
इयु ना</w>
वे ल
दिन्थ िय
दिन्थ ियाखै</w>
जेरै हाय</w>
मुगै नानै</w>
खुर मा
खुर लु</w>
गेव लांनाय</w>
बिब ौनि</w>
ब्रे व</w>
सिबि नायनि</w>
सिबि नायाव</w>
सिबि ग्रा</w>
सिबि यारि</w>
गोरोब लायो</w>
गोरोब थानि</w>
गोलै बाय</w>
गोलै सोनानै</w>
हाइ थु</w>
हाइ जेंनि</w>
गाग्लो बनानै</w>
दिन थि
दिन बाव</w>
or t</w>
आइजो फोराबो</w>
क्ल रʼ
लाफा ंगे</w>
जाहा राव</w>
गिबि फोरा</w>
बिला खार</w>
बिला ताव</w>
बिजा द</w>
बिजा थिया</w>
रायलाय गोन</w>
फʼ नि</w>
फʼ बनाय</w>
फोरम ाया
li c
नरे न</w>
नʼख रा</w>
नागा खौ</w>
नागा फोरजों</w>
नागा लेण्ड</w>
बिगिया नारि</w>
गुसु जों</w>
गुसु थै</w>
नाव लाय</w>
फसं थान
बोराय जों</w>
गनाय नाय</w>
गनाय गोन</w>
गनाय नांगोन</w>
बिहा रनि</w>
सिम ब
सिम नानि</w>
बेसा त</w>
ar t</w>
ar ra
शि व</w>
बाराय होयो</w>
यो सो</w>
जालाय गोन</w>
मोजां दि</w>
ष्टे ट
ष्टे म</w>
गोजां दों</w>
गोजां नायाव</w>
सोरखार नो</w>
रुजु नायाव</w>
गाबज्रि नानै</w>
आन्दा नि</w>
क्ला ब</w>
क्ला र्
खम लायनाय</w>
जालां नायसै</w>
जालां नायमोन</w>
नेहा त</w>
st ate</w>
st ration</w>
ची नाव</w>
बह न्नानै</w>
शंक र
शंक रखौ</w>
हाजो खौ</w>
दैमा रिनि</w>
दैमा सिम</w>
एफा बां</w>
बिथिं जायनिफ्राय</w>
वार् क</w>
फारसे निफ्राय</w>
आदा ल
आदा नाव</w>
जात नि</w>
देवा निया</w>
देवा नीया</w>
सलʼमा फोरनि</w>
खुदिया खौ</w>
मोग न</w>
फैफिन गोन</w>
रोङा बोला</w>
देंखो आव</w>
धा माल</w>
जाखां फैयो</w>
जाखां फैबाय</w>
जाखां जोबबाय</w>
फोनां जाब</w>
सोब खʼ</w>
में नानै</w>
बिहो माया</w>
बिहो माखौ</w>
बिखु म
बिखु ंखौ</w>
नायहर गासिनो</w>
स्टा इ
बिज ्ला</w>
जुजि नायनि</w>
जुजि बाबो</w>
डाइ निं</w>
सोद्रोमा फोराबो</w>
आर् मि
नायबिजिर गिरिफोरा</w>
रोङ ैखौ</w>
रिंसार थिनि</w>
मंगल बार</w>
जाइ ला</w>
ग्रे ब</w>
सान्थ्रि खौ</w>
सान्थ्रि फोरनि</w>
जथु मा</w>
थगाय नानै</w>
सार् टिफि
सिब ल</w>
सोलो खौ</w>
सोलो जोंनो</w>
प्रग्रा मा</w>
प्रग्रा मनि</w>
ri ght</w>
फर ायाव</w>
बी र
नाङा खै</w>
मारु टियाव</w>
बेफ्रु होनानै</w>
बेफ्रु होनाय</w>
मोनलाय नाया</w>
बोथोर खौ</w>
ब्ले नानै</w>
आवा ति</w>
सन्दे र
गोथै नो</w>
गोथै बारियाव</w>
खालामा खिसै</w>
दुगै नो</w>
दुगै नानै</w>
अनजि मा
फ्ले दों</w>
मिन्थि नो</w>
बावदिया बो</w>
ma x</w>
एम बु</w>
गाहाय खौ</w>
सायखʼ जानाय</w>
द्राय बाय</w>
हान जाया</w>
जिनि द</w>
आवगाय नानै</w>
ha r</w>
उल् थायै</w>
हाउ स</w>
हाउ रिया</w>
हाउ लाद</w>
दाहा राव</w>
दाहा रा</w>
दाहा रखौ</w>
दाहा रजों</w>
यै लाबोर
हय तʼ</w>
नागार नाय</w>
ख्लो ब</w>
अक् सिजेन</w>
अक्ट बर
एक सिदे
सन् या
सन् माना</w>
होब थानाय</w>
पुलिस फोरजों</w>
सर् मा</w>
सर् सा</w>
सर् मानि</w>
खालि बो</w>
होखार नायनि</w>
खिर खिनि</w>
उन्दै यावनो</w>
कन ट्रा
बाउ सोम
साहा जों</w>
दोनथʼ नायनि</w>
रंफा लीया</w>
हिनजाव फोरनि</w>
गया री</w>
बुजाय बाय</w>
खुदुम बाय</w>
कमाण्ड ा</w>
कमाण्ड फोर</w>
सय थिबो</w>
बाला बारि</w>
बाला बारियाव</w>
माल दारा</w>
साग्लो ब</w>
साग्लो बनो</w>
बेग रनि</w>
होख्रा व
निउ यर्
जुरि बाय</w>
जुरि फिनबाय</w>
मोदोम फ्रु
अनाथ ीखौ</w>
em e</w>
आग्रा ङा
दल त</w>
खान स्रि</w>
खाबु नि</w>
दाबि या</w>
गोरोन्थि फोरखौ</w>
अन्द रनि</w>
फटʼ नि</w>
लाख नि</w>
मेने ज</w>
गुबुन फोर</w>
कार् बन</w>
पार ्ल
no te</w>
थिसन नायनि</w>
रेन्जा रखौ</w>
अनजा ली</w>
जय फल</w>
भक ता</w>
सिन्दु रनि</w>
सुइ सखौ</w>
नंगौ लै</w>
खोख्लै नाय</w>
कैला सा</w>
बाग्दाव नाय</w>
बाग्दाव खाङो</w>
लाम नाय</w>
लाहा खि</w>
दार फोरा</w>
अनसुं थाय</w>
अनसुं थाइनि</w>
प्रसे न</w>
मोनाम नाया</w>
आलासि फोरा</w>
आलासि फोरनि</w>
बाट नखौ</w>
सिखाव फोरनि</w>
बांलादे श</w>
जथुम् माखौ</w>
अनु लेखा</w>
रजʼ नाय</w>
खोथा सो</w>
खोथा फोरखौ</w>
फरायसालि मा</w>
फरायसालि निफ्राय</w>
pro mp
नायगि रै</w>
फाग्ला स्रो
रुम याव</w>
जल ंगा</w>
होर लां</w>
खालाय नांगौ</w>
बिथ राय</w>
निस् सय</w>
देव ी</w>
देव बार</w>
मिनिट सोनि</w>
बन्द ʼ</w>
बिल् दिं</w>
मोनदां थि</w>
देगार जों</w>
समाज जों</w>
समाज खान्थि</w>
गोमोर लाङो</w>
इन्टारने टनि</w>
इउनि टाव</w>
दमा सु
गोलाव जों</w>
खुनु रोखोम</w>
खुनु रोखोमै</w>
खुनु मथै</w>
कम्पा नी</w>
आस ल</w>
आस थामखौ</w>
एक्स टारनेल</w>
जागो ना</w>
थादʼ यो</w>
जेर बा</w>
नुवा ब्ला</w>
दावबाया रिफोरा</w>
फ्रे नानै</w>
गोजांस्रि उ
गोजांस्रि व</w>
गोजांस्रि वो</w>
एम्बु नि</w>
18 54</w>
आजाव नाय</w>
दन्द राव</w>
लान जाय</w>
मोनो खोमा</w>
मोनो मोनब्ला</w>
गुदु ंनि</w>
सावख्ल ि
भुगि नाङो</w>
परिष द</w>
आन्जा दखौ</w>
आगान नै</w>
जागोन ना</w>
दाला न</w>
दाला फोरखौ</w>
केम् पे
केम् पनि</w>
बिबʼ वा</w>
बुद्र ु
बुद्र ैनि</w>
मोनहै ब्ला</w>
हामबु रखौ</w>
गोख्रै सिन</w>
गोख्रै थिजों</w>
199 3</w>
199 7</w>
एसि टिक</w>
दख नानि</w>
माया जे</w>
थान सालि</w>
थाफा वनो</w>
मोदाइ नि</w>
हाख रनि</w>
नोंथाङा लाय</w>
देब दारु</w>
गेरे जाव</w>
हुगार दों</w>
बादाय लायनायाव</w>
खावलाय खौ</w>
दुर्जां नाव</w>
बेरखां होनो</w>
सानबोलाउ रिनि</w>
15 00</w>
da r</w>
खाया खै</w>
नखʼ रनि</w>
बट लखौ</w>
बाहे रा</w>
थाथʼ यो</w>
हानजा खौ</w>
सोले रा</w>
सोले रखौ</w>
गुजु नाय</w>
थायो नो</w>
ग्रु प</w>
लैथो आव</w>
डाइरेक्ट रिनि</w>
क्रि केट</w>
हं ख्ले
जेने भायाव</w>
राया नो</w>
ओंखारलां ब्ला</w>
भुटा ना</w>
बिल्डि ंनि</w>
किटसे ननि</w>
रन जित</w>
बिस्कु टनि</w>
मास् टार</w>
खोन्दो आव</w>
ल्दा बाय</w>
ल्दा मैनो</w>
गायसन नाय</w>
सोंखारि नाय</w>
सोंखारि दों</w>
असि त</w>
गुदि खौ</w>
नोंसा ज्ला</w>
लाइमोन फोरखौ</w>
काम रुप
जुनाद फोरनि</w>
pe ace</w>
बुब्लि खौ</w>
नांगोन दि</w>
रोजाब गिरि</w>
स्वा मी</w>
माहाजोन हा</w>
गोनोखो आरि</w>
अबिना स</w>
बन् ध</w>
लखʼ ब</w>
फिना ब्ला</w>
फिना खिसै</w>
लेक सार</w>
हाबहै ब्ला</w>
नेपा ल</w>
नेपा लनि</w>
नेपा ली</w>
गाबख्रा व</w>
मिजिं थिनो</w>
अर् दार</w>
नन्द ʼनि</w>
शनि तपुर</w>
थिखा दारा</w>
जिल्ल ाया</w>
ंगे ल</w>
लांखार नाय</w>
लांखार जानाय</w>
गोबाख्र बनानै</w>
the ir</w>
नाले नि</w>
जाफ्ला नाय</w>
फान् ड
जोंरु खौ</w>
बरु वानि</w>
पाटि ला</w>
पाटि लखौ</w>
खायसे फ्रा</w>
बेरफ्रु नाय</w>
हेफाजाब खौ</w>
हेफाजाब जों</w>
दैदेनगिरि फोरजों</w>
अबंलाव रिखौ</w>
बिग्राया रिफोरनि</w>
एन् टिस
शर् मा</w>
शर् मि
खिन्थि गासे</w>
बैरा गि</w>
प्रदे श
मिनिखै रे</w>
उनाव थʼ</w>
हाजʼवारी नियाव</w>
बिगुमै नि</w>
प्रिन् सि
प्रिन् टिं</w>
अलिम्पि काव</w>
आब्रु थि</w>
आब्रु थिखौ</w>
नवा व
बाब्रा ब
जाल दाब</w>
बेन् थ</w>
बेन् साव</w>
खालार सिम</w>
सानस्रि नो</w>
ट्रेइ नजों</w>
हालमा जिखौ</w>
आसार िया</w>
चर न</w>
महे स्वर</w>
हब गा</w>
हब गानि</w>
हब गाया</w>
राङा नोथʼ</w>
दांग्रो मनानै</w>
दानसो राङा</w>
सावरायज्लाय नायनि</w>
चेन् टारनि</w>
mo ther</w>
अभि नव</w>
इस ला
उलाफा दनि</w>
खबʼ से</w>
बाम ब्लेमा</w>
हादो रारि</w>
सिकि त
दारʼ गाया</w>
देम ग्लाय</w>
दुरु ङा</w>
नांजाब नाय</w>
डिस्क ाव</w>
सानबोलाव रिनि</w>
जिबारेलि ना</w>
जिबारेलि ननि</w>
अब्ला सिम</w>
आरा ंगायाव</w>
गी ताखौ</w>
डी ल</w>
डी लनि</w>
नोर खो
पजʼ नि</w>
सद बांसा</w>
मासि निफ्राय</w>
बोख्ल ायनानै</w>
देहाया बो</w>
बाथे नो</w>
दैथु ना</w>
हामथार लिया</w>
साइखे लखौ</w>
दाजाबदा फोरा</w>
लक्षीम पुराव</w>
trag edy</w>
fi x</w>
आखाय जों</w>
ओन् सो
ओन् सोलाव</w>
दहाय सो</w>
रह स्
सामा फोराव</w>
हाथार लिया</w>
बुद रा</w>
मुसा हारिनि</w>
थांफा नायसै</w>
जुल ियेट</w>
रेकर् ड</w>
दैख रा</w>
दैख रनि</w>
स्लाबा जासे</w>
कक्राझा रनि</w>
स्क्रि नाव</w>
आलौ नाय</w>
हस्पि टालाव</w>
थालो आव</w>
बिफ ायानो</w>
बिख्लो खौ</w>
बुन्दि नि</w>
सुन्द र</w>
फिसाय नि</w>
फिसाय खौ</w>
बुंलां बावो</w>
हाब्रा ंखौ</w>
गोरबो जों</w>
गोरबो आव</w>
प्रग्राम फोरखौ</w>
कलि काता
घि क</w>
लक्ष् मी</w>
मास्टा रनि</w>
बेराम जों</w>
फानजा रियाव</w>
फिरफि लाखौ</w>
नुयै लाय</w>
काछा र</w>
केडा रफोरा</w>
सिंखाव रिनि</w>
सिंखाव रिया</w>
गोब्राब सिन</w>
द्राइ भार</w>
आनज्र ायनानै</w>
महिला रीया</w>
एटा स्ट</w>
भग बान</w>
हसि ख्राव</w>
जागि खांनानै</w>
गोग् गा
हालु वा
दामोन सै</w>
सुन सिनि</w>
मिञ ा</w>
मिब थि
बुंफोर नाय</w>
मुर दा</w>
मुर दाबाद</w>
खुम ायो</w>
हमख्र ʼ
फें फोना</w>
फेब्रु वारि</w>
बादिय ैब्ला</w>
बेखेवफा फोरखौ</w>
बेखेवफा खौनो</w>
नरेश नो</w>
नरेश खौ</w>
लोरबां थि</w>
होख्रां हरनो</w>
जोनोमफु रि</w>
जोनोमफु रिखौ</w>
कन्ट्रा क्टर</w>
रौनिया नि</w>
her e</w>
her it
ser v
आगर वालाखौ</w>
भʼ ग</w>
शे खर</w>
हसपि टालाव</w>
बोग दाद</w>
लुफुं नायनि</w>
रुमा लखौ</w>
रुमा लजों</w>
सावसु ब</w>
पुर निमा</w>
ख्लि ब</w>
गʼसा थी</w>
सरब त</w>
दाउबʼ वा</w>
असमिया फोरा</w>
सार्भि स</w>
sy ste
खबा म</w>
ट् टा
थन थ्रʼ
बाग्र ाय
बिसम् बि</w>
सिखि रि</w>
फान्जा मुथि</w>
दुद्र ु
मेरे जनि</w>
थुं सुं</w>
हामफे या</w>
आसाम िया</w>
सुबुंसाइ नि</w>
अबस् ये</w>
अमृ न
बैसागि खौ</w>
लाइनमे नखौ</w>
आसʼ खान्दा</w>
खफʼ नि</w>
दखʼ रा</w>
दस्टु र</w>
हब्रा नाय</w>
रामाय ण</w>
मां सि</w>
साह स</w>
नायग्रा फ्रा</w>
सिरिया स</w>
मेघा लयनि</w>
जुवा न</w>
हेन्दि मेन</w>
inter face</w>
आगसि थिं</w>
कार्बिआं लं</w>
उखुन्द ैखौ</w>
बांलादेशी फोरनि</w>
hi m</w>
kac har</w>
to ol
थफ्ला खौ</w>
नब थि
नारा नाथा</w>
बामोन मारा</w>
लान्थ ्रियै</w>
माथाउ री</w>
साख थि
हाकि म</w>
गारो मोन</w>
सिद दा</w>
फिथ राव</w>
रिजार् भ</w>
सिंह खौ</w>
बायदिसि नाखौ</w>
हार्ड वेर</w>
धोन सिं</w>
हुखुमो रनो</w>
रिटाया र्ड</w>
cli max</w>
tw o</w>
wi th</w>
आति का</w>
एखु था</w>
पन् जि
सब जि</w>
नाम् बार
लानजा इ</w>
जारे ं</w>
जाफ्ल ायबाय</w>
गोदै सिन</w>
दाबाद ियाव</w>
गुग्रु ब</w>
मुम् बाइ</w>
प्रु भ</w>
cop y</w>
ज्यो ति</w>
सम्बा रुनि</w>
सेक्सप ियारनि</w>
शुक्र बारखालि</w>
सिकिउ रीटि</w>
क्रʼर पति</w>
साख्रियाव ला</w>
scen e</w>
प्रफुल्ल वा</w>
charact er</w>
cru el</w>
fil e</w>
इछ रʼ
बले रʼ</w>
लासिं सिं</w>
बिसाइ नि</w>
गोराय ुं</w>
दाबोर से</w>
निजोर ा</w>
लेहे म</w>
मेजे म</w>
हिमाल य</w>
प्रमप् ट</w>
सोमद्र िया</w>
सेरफांगु रि</w>
हʼष्टे लाव</w>
धाली गाव</w>
बालाब गासे</w>
दुर्ल ्लाइ</w>
tele gram</w>
94 3
fri end</w>
ssi on
आपे ल</w>
आशि फ</w>
इच न
इय र</w>
इडु वार्ड</w>
उसु न्दायाव</w>
ओलै स्रो</w>
थप सा</w>
दखा नाव</w>
बला तकार</w>
बक्स ीं</w>
महाम ाया</w>
रन् जित</w>
रबिबार खालि</w>
लण्ड नाव</w>
दाहु ना</w>
सोलिय ोमोन</w>
रिसि भारखौ</w>
लेङा य</w>
जोबोर ैनो</w>
फेस्व न</w>
तामुल पुर</w>
प्रभ ु</w>
स्लगान जों</w>
logu e</w>
habil dar</w>
commi ssion
बेगपाइ पार</w>
खानसि सा</w>
अनुलेखा मोननि</w>
इलेक्ट ्रनिक</w>
jus ti
nat ural</w>
आफि ं</w>
इनाव निपा</w>
जदाम ब्लेनानै</w>
पले निया
हब्र ायो</w>
बानाइ सो</w>
देद्‌ लामा
आलमर् टा</w>
promp t</w>
! ...</w>
) ;</w>
- }:</w>
. {-</w>
0 8
1 23</w>
4 00</w>
5 6</w>
5 1</w>
5 3</w>
5 7</w>
6 6</w>
6 7</w>
6 5</w>
6 th</w>
7 6</w>
7 9</w>
8 7</w>
8 2</w>
8 8</w>
9 6</w>
9 2</w>
: /</w>
a g
a c</w>
b s</w>
c h</w>
c t</w>
c o</w>
c ra
c ou
c ul
d a</w>
d en
d on</w>
f f
f e</w>
f y</w>
f ra
g en
h en
h is</w>
h our</w>
h tt
i s
i alis
k now</w>
m u
m y
m es
n g</w>
n al</w>
n ess</w>
o pe
p s</w>
p re
p le
r ound</w>
t y
t en
t ro
t al
w e
w as</w>
ʼ क</w>
ʼ ना</w>
ं ना</w>
अ व
अ इ</w>
अ नि</w>
अ हा
अ रो</w>
अ रै</w>
अ थे
अ भा
अ न्दा
अ खानि</w>
अ नोब्ला</w>
अ वार्
अ हाजासे</w>
अ ंगि</w>
अ टʼ</w>
अ फ्रि</w>
अ म्बा
अ सुबिधा</w>
आ जे
आ सै</w>
आ लाय
आ स्
आ माय
आ रिनि</w>
आ खʼ
आ न्था
आ ंगा</w>
आ ंगि
आ सन</w>
आ लिनि</w>
आ श्र
आ दोर</w>
आ हʼ
आ जोला</w>
आ थाल</w>
आ बुर</w>
आ धा</w>
आ ंग्रां</w>
आ गाननि</w>
इ क
इ च</w>
इ नानै</w>
इ नाय
इ न्द
इ नायनि</w>
इ उना
इ ष्ट</w>
इ ण्डि
इ टेड</w>
उ नो</w>
उ फे
उ सुं
उ इन
उ राङा</w>
उ दायै</w>
ए च
ए स
ए फोरनि</w>
ए फे
ए खायनो</w>
ए बार</w>
ए रिया
ए ण्ड</w>
ए रायनानै</w>
ओ जों
ओ लो</w>
औ ʼ</w>
औ लै</w>
औ रस
क ्रा
क सार</w>
क दार</w>
क रम</w>
क चु
ख हा
ख रि</w>
ख नाव</w>
ख थʼ</w>
ख म्ब
ख नानि</w>
ख नाजों</w>
ख स्ट</w>
ग ण
ग स
ग थ</w>
ग बाय</w>
ग दों</w>
ग मा</w>
ग न्द
ग र्
ग ङो</w>
ग राय
ग थि</w>
ग रु
ग रनि</w>
ग दाव
ग रिनि</w>
ग हां</w>
ग लानि</w>
ग ायाबो</w>
ग बोनानै</w>
ग बर्
ग ग्रायाव</w>
ग स्लाया</w>
घ े
घ रिखौ</w>
ज ल</w>
ज िय
ज दों</w>
ज दि</w>
ज निफ्राय</w>
ज फोरा</w>
ज न्थ
ज ग्र
ज राय</w>
ज फैयो</w>
ज नजा
ज ीनि</w>
ज थाइखौ</w>
ज खाइ
ज गायनो</w>
ज थेरनो</w>
ज थुमनाय</w>
ज थायनाय</w>
ट लनि</w>
ट सनि</w>
ट रिया
ट ीयाव</w>
ट मिन्टन</w>
ठ ि
ठ ै
ड ै</w>
ड ायाव</w>
ड जनि</w>
ण ी
ण नि</w>
ण खौ</w>
त ायाव</w>
त रा</w>
त ननि</w>
त ियारी</w>
त न्त्र</w>
थ म
थ ग</w>
थ ्ला
थ ंखौ</w>
थ ीखौ</w>
थ ननानै</w>
थ र्स</w>
थ बेन
थ ्रेद</w>
द ्</w>
द राव</w>
द ङो</w>
द सि</w>
द फोर</w>
द मै
द फ्रा</w>
द ायावनो</w>
द जिबा</w>
द लाम</w>
द हम</w>
द खʼना</w>
द द्र</w>
ध ि</w>
ध ु</w>
न ौ</w>
न या</w>
न थाइ</w>
न फ्रा</w>
न थिं</w>
न ख्रा
न ीयाव</w>
न मास</w>
न बादी</w>
प स
प ौ
प ʼ</w>
प ल</w>
प ला
प बि
प ये
फ ं</w>
फ स</w>
फ त</w>
फ जों</w>
फ न्दि</w>
फ रामनि</w>
ब य</w>
ब स</w>
ब आ</w>
ब रानि</w>
ब सन्
ब ंग्ल
ब ौवा</w>
ब इबो</w>
ब खनो</w>
ब ख्लʼ</w>
भ ब</w>
भ रा</w>
भ िये
भ ʼज</w>
म प
म रि
म लि
म हा</w>
म जा</w>
म हु
म जानानै</w>
म कि</w>
य ʼ
य ु</w>
य ला</w>
य न्त
य मान</w>
र क
र बिन
र जं</w>
ल या</w>
ल रा</w>
ल रनि</w>
ल के
ल थायाव</w>
ल ंआव</w>
ल निफ्रायनो</w>
ल टारी</w>
ल खब</w>
ल खबनानै</w>
व खौ</w>
व र्
श ु</w>
श शा
श नार</w>
श ्रिखौ</w>
स प</w>
स फ</w>
स ह</w>
स वा</w>
स फोरनि</w>
स रनि</w>
स क्
स लनि</w>
स म्ब
स कि
स लायनो</w>
स फैनाय</w>
स हैबाय</w>
स सेयाव</w>
स फैब्ला</w>
स ख्लʼ</w>
स द्‌दा</w>
ह ल</w>
ह मा</w>
ह नायखौ</w>
ह ल्
ह ख्रा
ह ंखा</w>
ह जर
ी म</w>
ी न</w>
े ल</w>
ै लʼ</w>
ो ना</w>
ो ङा</w>
। ..</w>
। .........</w>
। ........</w>
। ...........</w>
ना ल
ना ट</w>
ना ला
ना ना</w>
ना सि</w>
ना फोरखौ</w>
ना रै</w>
ना मनि</w>
ना वाव</w>
ना जानो</w>
ना फ्रा</w>
ना गौ
ना खैमोन</w>
ना रिखौ</w>
ना जायाखै</w>
ना गाजों</w>
ना ज्रे
ना ख्रेब</w>
ना थ्रोद</w>
बा ह
बा नि
बा नाव</w>
बा नु
बा गै
बा ख्र
बा ननि</w>
बा टा
बा रां</w>
बा हाया</w>
बा उन्द
बा थाम</w>
बा नायनो</w>
बा दानि</w>
बा मोनखौ</w>
बा बोथʼ</w>
बा मोनाबो</w>
बा नान</w>
बा बद</w>
बा ग्राय</w>
बा ङाय
ला सा</w>
ला लाय</w>
ला बादि</w>
ला गाव</w>
ला बाव</w>
ला होनानै</w>
ला न्दा</w>
ला फैदों</w>
ला लायनानै</w>
ला बायमोन</w>
ला फिननो</w>
ला हैदों</w>
ला खोमानानै</w>
ला खादोंमोन</w>
ला गे</w>
ला नांसिगोन</w>
ला द्रा</w>
ला गैबो</w>
ला ंगौमोन</w>
ला फिनदो</w>
रा ख
रा स
रा भा
रा झार</w>
रा न्दिया</w>
रा न्नायाव</w>
रा वादि</w>
रा जेन्द्र</w>
जा फा
जा रा</w>
जा दु
जा जाबाय</w>
जा जानाय</w>
जा री</w>
जा हो</w>
जा गौ
जा लायनो</w>
जा बोयो</w>
जा लांनानै</w>
जा खांदों</w>
जा नानैनो</w>
जा बोला</w>
जा नानैसो</w>
जा थारा</w>
जा खांनो</w>
जा नांनानै</w>
जा फैफिन
जा बायानो</w>
जा थारै</w>
जा सिनाय</w>
जा बावगोन</w>
जा दोंना</w>
जा थ्रा</w>
था त</w>
था बा</w>
था थे
था जानो</w>
था मानो</w>
था रिनि</w>
था नखौ</w>
था कु
था नायजों</w>
था ख्रि</w>
था फिनो</w>
था लायनो</w>
था हाबनानै</w>
था हैबाय</w>
था गौमोन</w>
था फाव</w>
था ब्लासो</w>
था नांबाय</w>
था वाबो</w>
था नायाबो</w>
था बोबाय</w>
था फायो</w>
था फानाय</w>
था रानो</w>
था नायलाय</w>
था उननि</w>
था फानानै</w>
था सान्दि</w>
था नायावबो</w>
था खोमाबाय</w>
था नांदोंमोन</w>
था थारनांगोन</w>
था थावगौ</w>
था वामोन</w>
था ंगौ</w>
खा द</w>
खा त</w>
खा मा
खा न्
खा सै</w>
खा जादों</w>
खा ङै</w>
खा नानि</w>
खा लायनो</w>
खा खानाय</w>
खा थब
खा ख्लो
खा ब्रां</w>
बि द
बि बाय
बि नायनि</w>
बि हि
बि फोरनि</w>
बि यै</w>
बि बाव</w>
बि थार</w>
बि दां
बि नोबो</w>
बि दानो</w>
बि लायनानै</w>
बि हरदों</w>
बि लिरनाय</w>
बि फाव</w>
बि लां</w>
बि नोथʼ</w>
बि जु</w>
बि नियाव</w>
बि गाबा</w>
बि मुंखौ</w>
बि निथिं</w>
बि खʼनानै</w>
बि खौलाय</w>
बि थानि</w>
बि सारा</w>
बि नोनो</w>
बि जौवा</w>
बि स्रियै</w>
बि हुं</w>
मा प</w>
मा नानै</w>
मा गि
मा खु
मा थि</w>
मा ब्लाबो</w>
मा बाव</w>
मा थां</w>
मा खन
मा न्दा
मा फोराव</w>
मा मोननि</w>
मा बेयाव</w>
मा राखै</w>
मा सेयाव</w>
मा दैनि</w>
मा गिनानै</w>
मा न्स</w>
मा जां</w>
मा लाइनि</w>
मा वाखैमोन</w>
गो रे
गो फा</w>
गो मोना</w>
गो द्‌
गो दायनि</w>
गो न्ना</w>
गो बायै</w>
गो जायैनो</w>
मो ब्ला</w>
मो ले
मो खो</w>
मो हेर
मो ख्रे
मो ख्रेब
मो रोना</w>
सा प</w>
सा ब्ला</w>
सा वा</w>
सा थि</w>
सा खि
सा लाइ
सा हे
सा ग्रा</w>
सा ङाव</w>
सा हाब
सा नायखौ</w>
सा पा
सा न्जा
सा लनि</w>
सा प्
सा बनानै</w>
सा न्था
सा ग्ला
सा गर</w>
सा राबो</w>
सा ब्रै
सा फायाव</w>
सा थामा</w>
सा सपे
सा ग्राम</w>
सा न्थिनि</w>
हा म</w>
हा ट</w>
हा सि
हा फा
हा राव
हा न्नानै</w>
हा खʼ
हा स्रि</w>
हा सुं
हा न्दि
हा लखौ</w>
हा ंग्र
हा बोला</w>
हा थारगोन</w>
हा निनि</w>
हा दोंब्ला</w>
हा सʼवा</w>
हा थʼफ्ला</w>
गा उ
गा ब्ला</w>
गा गोन</w>
गा ले
गा ला</w>
गा ले</w>
गा लांबाय</w>
गा राइ</w>
गा दʼ
गा सं</w>
गा रिफोरनि</w>
गा ग्लि
गा सेयावनो</w>
गा साखौ</w>
गा ब्रʼ
गा र्ड</w>
गा हेला</w>
गा ग्लाब
गा थामाव</w>
गा राइखौ</w>
न् सि</w>
न् टनि</w>
नाय फा</w>
नाय नायसै</w>
नाय नांगोन</w>
नाय लायो</w>
नाय बिजि
नाय बानो</w>
नाय थिं
नाय लांनो</w>
नाय हरनो</w>
नाय गिदिं</w>
नाय हाब</w>
नाय दिनि</w>
नाय फ्राबो</w>
नाय खायनोथʼ</w>
नाय गंना</w>
सि थि
सि दो
सि लाय
सि था</w>
सि नाया</w>
सि न्थ
सि माव</w>
सि गौ
सि बु</w>
सि माखौ</w>
सि बनानै</w>
सि रिखौ</w>
सि सु</w>
सि फाइ
सि टाव</w>
सि ये
सि ंग्रि</w>
सि टिनि</w>
सि केल</w>
सि लिं</w>
सि थारगोन</w>
सि कार</w>
सि खोमानो</w>
सि ङावबो</w>
सि माइज</w>
दा द
दा फ
दा रा
दा जा
दा खो
दा बार
दा ने
दा राय</w>
दा थिं</w>
दा बु</w>
दा ख्ला
दा स्ट</w>
दा खालिनि</w>
दा गखौ</w>
दा बोद</w>
बे ले
बे नाव</w>
बे हे
बे टा
बे हु
बे गा</w>
बे थिं</w>
बे बादि
बे दां</w>
बे न्दे
बे सोरखौ</w>
बे मारि
बे मारा</w>
बे ङाखै</w>
बे थिंजाय</w>
बे वाइ
बे टमिन्टन</w>
बु ग
बु दि
बु रि
बु नायनि</w>
बु वा
बु ग्रा</w>
बु रिया</w>
बु स्रि
बु न्दा
बु न्था
बु ङैनो</w>
बु ंग्रो
फा थ
फा त</w>
फा गु
फा थि</w>
फा खो</w>
फा गा</w>
फा थै
फा न्थि</w>
फा मि</w>
फा थिनो</w>
फा गुन</w>
फा थाल
फा खायनानै</w>
हो फा
हो लाय
हो जायो</w>
हो थार
हो टे
हो थाव</w>
हो नाजा
हो नाङा</w>
हो बावनो</w>
हो आला
हो लायनो</w>
हो बावो</w>
हो गौमोन</w>
हो ज्रि
हो दिनि</w>
हो नांबाय</w>
हो बोनो</w>
हो जोबनो</w>
हो थारबाय</w>
हो बोबाय</w>
हो नोबा</w>
हो नोसो</w>
हो लायदों</w>
हो लांदोंमोन</w>
हो नांगौमोन</w>
हो बोदोंमोन</w>
हो योमोन</w>
हो सारनानै</w>
हो नायावसो</w>
हो नायलʼ</w>
सो यो</w>
सो ङै</w>
सो यै</w>
सो फै</w>
सो बनो</w>
सो गोम</w>
सो रांजों</w>
सो देरनानै</w>
सो बाबाय</w>
मोन ै
मोन दि</w>
मोन सो</w>
मोन दा</w>
मोन नै
मोन थʼ</w>
मोन जाबाय</w>
मोन थाइ</w>
मोन सिं</w>
मोन थाव
मोन होनाय</w>
मोन नायजों</w>
मोन मार
मोन बावनो</w>
मोन नोबो</w>
मोन ग्रो
मोन खानाय</w>
मोन नानैबो</w>
मोन जाग्रा</w>
मोन खांनायनि</w>
मोन नायावनो</w>
मोन नियाव</w>
मोन थारा</w>
मोन फिननो</w>
मोन थारदों</w>
मोन लायदों</w>
मोन थामसो</w>
मोन मारनो</w>
मोन फिन्नो</w>
मोन नैया</w>
मोन नैयाव</w>
मोन न्याव</w>
मोन सिनबाय</w>
मोन नैखौबो</w>
मोन हास
नि स
नि ज</w>
नि ना</w>
नि सा</w>
नि हि
नि ब्लाबो</w>
नि फोरनि</w>
नि थो</w>
नि प्रा
नि मुख</w>
फोर खौ
फोर जोंसो</w>
फोर निथिं</w>
.. !</w>
.. "</w>
.. ?</w>
थि ग
थि ब</w>
थि ङो</w>
थि खां
थि ङाव</w>
थि ंनि</w>
थि मै</w>
थि ङैनो</w>
थि सʼन
दि व</w>
दि ग</w>
दि दो
दि ङा
दि नखौ</w>
दि ंग्र
दि खांबाय</w>
दि ंग्रि
दि खाराव</w>
दि ङाया</w>
जो नाय</w>
जो फोरा</w>
जो ननि</w>
जो न्थ
बो ड</w>
बो गोन</w>
बो याव</w>
बो खि</w>
बो लांनो</w>
बो खार</w>
बो हाब</w>
बो खांनायनि</w>
बो लाबो</w>
बो खानो</w>
बो द्ला</w>
बो जाबनानै</w>
बो ख्लाय</w>
बो द्‌ला</w>
जे उ</w>
जे ज</w>
जे रे
जे हेर</w>
जे खियानो</w>
से न
से मा</w>
से सा</w>
से खौबो</w>
से रिया
से निनो</w>
से लाइन</w>
से क्टर</w>
से न्स
से सनाव</w>
से लʼसो</w>
से थ्रा</w>
जि त
जि स
जि द</w>
जि थि</w>
जि थायाव</w>
जि लानि</w>
जि गि</w>
जि ंग्रि
जि ंगाया</w>
सु नि
सु रु
सु थे
सु वाव</w>
सु पा
सु जि</w>
सु न्दा
सु जाब</w>
सु हाबनाय</w>
सु सिनानै</w>
सु द्‌दा</w>
सु जाता</w>
गु ं
गु था
गु न्
गु मा</w>
गु रनि</w>
गु नखौ</w>
गु लिजों</w>
फि स</w>
फि नै</w>
फि रि</w>
फि फाया</w>
फि फ्
फि जखौ</w>
फि दिं</w>
फि ठा
फि न्दोंमोन</w>
रि ब</w>
रि ड</w>
रि नाव</w>
रि गे
रि खा</w>
रि फोराबो</w>
गि खौ</w>
गि से</w>
गि खां
गि खʼ</w>
गि सं</w>
गि नायबो</w>
गि स्रोम</w>
गि नांगौबो</w>
मि ं
मि र
मि ना
मि सा</w>
मि जʼ
मि ग्रि</w>
मि त्र</w>
मि ष्टार</w>
मि स्टार</w>
मि ज्लौ</w>
बुं फै
बुं सै</w>
बुं ला</w>
बुं लाय</w>
बुं थार
बुं गासिनो</w>
बुं ब्लानो</w>
बुं खाङो</w>
बुं है</w>
बुं खायो</w>
बुं फ्रु
बुं खादों</w>
बुं थारदों</w>
बुं खांना</w>
बुं खानाया</w>
बुं हरनायसै</w>
बुं फादेर
बुं खांनानैनो</w>
फो जाबाय</w>
फो लागोन</w>
फो ल्ला</w>
फो लावनो</w>
फो थैगोन</w>
फो रावसो</w>
खो थाय</w>
खो माखौ</w>
फै सा
फै नाय
फै नायजों</w>
फै सालि
फै थों</w>
फै लायबाय</w>
फै नायानो</w>
फै बायमोन</w>
फै मारनो</w>
फै साल
फै सान्दि</w>
फै सालिखौ</w>
फै गोननि</w>
फै यैयाव</w>
मु द</w>
मु ल</w>
मु र</w>
मु से</w>
मु नु
मु थियाव</w>
मु गाजों</w>
मु लिया
मु दुम
मु ङैनो</w>
मु थुनानै</w>
मु गाया
मु जिरा</w>
मु गायावनो</w>
खाला रा</w>
लि उ
लि म</w>
लि रा</w>
लि रो
लि लि</w>
लि भा
लि टि</w>
लि टार</w>
लि भारा</w>
आं निबो</w>
आं नोथʼ</w>
आं जां</w>
आं न्याव</w>
आं गोनि</w>
ले म</w>
ले ना</w>
ले टार</w>
ले ंग्रा
ले ट्रि
ले बेलखौ</w>
ले खायाव</w>
ले थ्रा</w>
ले ङाय
ले जिस
थां खु
थां गार
थां थार</w>
थां थों</w>
थां सʼ</w>
थां बोला</w>
थां फानाय</w>
थां जोब्बाय</w>
थां थारगोन</w>
थां फिन्नो</w>
थां जासिम</w>
थां ज्रेम</w>
थां ब्रब
थां नोसैलै</w>
थां फिनासै</w>
न्द र</w>
[...]
