{"थाल</w>":2862,"हाबा":660,"फ्राद</w>":19234,"जेकेटा</w>":11497,"दाजाबफानाय</w>":12375,"ओंखारनायखौ</w>":16911,"सुन</w>":13125,"सिख्रा</w>":15079,"रंफाली</w>":4132,"शनितपुर</w>":17853,"दाउ</w>":2267,"राइजोफोरजों</w>":15004,"नायगौबा</w>":29303,"जानायानो</w>":22342,"यद</w>":28289,"दान्नाय</w>":29403,"नांगौथाय</w>":24532,"मिग्रि</w>":19093,"नेसन":23904,"दिनखौ</w>":18996,"फिल्":5489,"बसाय":28227,"नङाब्रा</w>":24254,"सिरिबां</w>":25386,"कामरुप</w>":10060,"मेष</w>":11164,"सोमजिनायनि</w>":15298,"पुरनिमा</w>":18032,"बिथै</w>":22432,"बरहा</w>":23495,"गोसोथो":13295,"आजायनायनि</w>":26491,"रमिवʼ</w>":27024,"जुरिनो</w>":20813,"!!'</w>":21646,"टवेर</w>":9507,"बिलाइफोराव</w>":25137,"रब":28297,"नोजोरनि</w>":15118,"ग्रोब</w>":8308,"करिड":26777,"द्राय":3147,"षा</w>":11804,"गोदौ":14384,"अनजालि</w>":6761,"बायदिसिनाखौ</w>":18091,"मिज्लौ</w>":19097,"दावनो</w>":6352,"खर</w>":1035,"एटासि</w>":15759,"खारलांनायसै</w>":19431,"दुबु</w>":23345,"खिन्थाहै":13611,"दोनखोमानाय</w>":24096,"खोमादों</w>":6249,"लिंथियाया</w>":24687,"hit":27530,"उकिलनि</w>":26454,"बिबʼ":4684,"ीयाबो</w>":12908,"सिकेल</w>":18829,"वारी</w>":6383,"...!\"</w>":20369,"काट</w>":16825,"सेरावनो</w>":6870,"सें</w>":9662,"नाजादो</w>":12340,"जव</w>":27959,"सोलो":2964,"समय</w>":19863,"मनि":3544,"वामोन</w>":10410,"आंलʼ</w>":14629,"माउ":3396,"ra":1490,"अखाखौ</w>":25113,"खारै</w>":11198,"हʼरो</w>":13688,"जिम</w>":5191,"स्टु":7638,"दाफादार</w>":29446,"जियानो</w>":27984,"फरायखांनानै</w>":9780,"इलिक":27771,"ण</w>":194,"उरां</w>":6120,"बोखावनाय</w>":16456,"इनिफ्राय</w>":27755,"गोजौनि</w>":5896,"सुंथा</w>":20059,"निफ्रायबो</w>":7287,"फरायाव</w>":17587,"होफैग्रा</w>":26464,"मेंनाय</w>":5735,"गोजोन</w>":1829,"दयारामखौ</w>":25060,"दिङा":18995,"खालामहरो</w>":19213,"।.........</w>":18520,"बोराब":10042,"जाय</w>":752,"ोंमोन</w>":2569,"एवार्":21856,"मोदाइ":4809,"लोंहोनानै</w>":10477,"बेरामजों</w>":17980,"हौवायालाय</w>":26995,"लागैनो</w>":12936,"रान्नायाव</w>":18588,"sh</w>":10119,"do":1996,"ʼबस्":27638,"राइजोआनो</w>":13434,"बेंग्लोब":22711,"सोरखारि</w>":5009,"सरबताव</w>":21325,"दिननाय</w>":20559,"एम्फौफोरा</w>":26813,"लाखोमानानै</w>":18575,"गाउननि</w>":29235,"आफाखौ</w>":8256,"हांखोफोरनि</w>":7932,"प्लेटसे</w>":26814,"सारि":9588,"हारसा</w>":9854,"खोन्":16517,"थारसिगोन</w>":16797,"ओंथिया</w>":3311,"सारजों</w>":14992,"अनाथीया</w>":4891,"बृटे":13828,"काति":14860,"लिरथुम</w>":23994,"फासे</w>":29539,"चन्":27946,"मुफु":16534,"गदाव</w>":27899,"गुसुङै</w>":6471,"गनखौ</w>":15992,"रया":8080,"नम्बर":5434,"डʼज</w>":28031,"दैदेनगिरि":6067,"बनायाव</w>":22060,"गोमोहाबनानै</w>":13592,"जादोंथाय</w>":28806,"धालिगाव</w>":21559,"जुन</w>":12110,"गाबनाय</w>":3806,"रेकर्ड</w>":17956,"खोमाबाय</w>":5707,"महाराजानि</w>":5879,"मिथिसʼनो</w>":16852,"बाना":11823,"गोजांस्रिउ":17748,"खानसिसा</w>":18174,"ष्टि":7888,"रुफाथि</w>":12587,"माहोजोना</w>":27353,"नायगोन</w>":5617,"दाबसे</w>":4760,"सुंदʼ</w>":1326,"उवाल</w>":11612,"फेलें":16859,"अंक</w>":11592,"मै":618,"कस्‌</w>":21878,"गारां":13028,"sis</w>":25658,"ण्ड</w>":1714,"आनारीखौसो</w>":26516,"राइजो</w>":1030,"नाइदाव</w>":20332,"जामा</w>":14317,"जाहैनो</w>":7727,"बिसिनो</w>":17150,"दिनैबो</w>":4351,"सनि":8491,"भʼ":8969,"देवाननि</w>":12503,"जोंथिनि</w>":2291,"देन्था</w>":23284,"लांथʼ":23450,"सेले":22951,"जुलिखौ</w>":23522,"बस्":4906,"गोग्लैबाय</w>":5535,"इसा":6784,"लायाब्लाबो</w>":24832,"मावबाय</w>":6012,"खेंख्रायै</w>":25097,"जिंगासिनो</w>":13806,"थुंगि</w>":23533,"जाजोबनाय</w>":22350,"बिदा":5047,"फारनैजों</w>":6409,"जापा":5952,"ब्रैजि</w>":20830,"होजोबनो</w>":18910,"खावा</w>":10973,"खालामबावनांगौ</w>":19223,"सोलोंनायनि</w>":24754,"बिथिंनिफ्राय</w>":5558,"बेलनि</w>":8136,"देरहानाय</w>":9793,"घन्":3293,"अनदों</w>":19617,"सेन्ट्रेल</w>":11595,"नाहाय</w>":22203,"फानो</w>":2800,"साननैसो":16584,"मानसिफोराबो</w>":23759,"थेरनो</w>":9178,"बिलाय</w>":2441,"डिमापुर</w>":10794,"सालिनि</w>":2451,"सोरांजों</w>":18929,"कालामा</w>":19596,"रजʼनाय</w>":17707,"खेबज्रां</w>":20103,"मेहेरसिङा</w>":20453,"आयथा</w>":11343,"सिसि</w>":22629,"बाहायनाय</w>":1715,"फरायलायनाय</w>":24019,"मंगलिया</w>":25261,"सम्फथिखौ</w>":21298,"सोद्रोमा</w>":4762,"बाखिसै</w>":28559,"बायग्रेब</w>":23316,"राइजोफोराव</w>":19854,"निखौ</w>":3003,"मोनाब्ला</w>":4029,"english</w>":27389,"आगै":10128,"हारिया":10555,"हं":5040,".......\"</w>":19364,"सावरायगिरिफोरा</w>":24845,"आफाया":21807,"फांसे</w>":7580,"बोराइखौ</w>":7632,"सुखुनि</w>":7996,"फिसाज्ला":10633,"दोंलʼ</w>":11161,"फुलिनि</w>":9728,"जावजा":12372,"बराय</w>":14221,"बायदिसिना</w>":2023,"मास":14373,"आफोर</w>":12787,"ोनो</w>":11813,"स्रि":794,"सोरांसै</w>":21010,"सुबुंसाइनि</w>":18052,"बिसो</w>":8114,"ए":76,"सोदोबआ</w>":7539,"रुमु</w>":11203,"नख":1449,"थाङै</w>":5607,"बेदरनि</w>":10594,"बिसोरखौनो</w>":19712,"गाबब्ला</w>":19742,"दैखौ</w>":2197,"बिदान्थे</w>":26156,"गिदिराव</w>":19856,"मला</w>":10180,"बेन्दों</w>":5975,"बाजिसिम</w>":9341,"खालानि</w>":12039,"फन्दि</w>":18441,"सहैनानै</w>":22158,"सामु</w>":25066,"नालिसखौ</w>":25808,"सात</w>":7103,"गैथारा</w>":9719,"........।\"</w>":10520,"स्ट्रे":19453,"जाहाजखौ</w>":20573,"सख्ल</w>":28439,"हाथे":11009,"हांखोखौनो</w>":15202,"सोदांनो</w>":29695,"रान्दिंग्रा</w>":26496,"सुति</w>":16476,"जोंफ्रुबाय</w>":27053,"जोंनिखौ</w>":23401,"मंगलिय</w>":17435,"बा":265,"लुनि</w>":4718,"फाथां":22747,"सेमु":29995,"गैयै</w>":1402,"सेखौबो</w>":19028,"बोथाबमा</w>":29965,"अब्लानो</w>":5025,"अदेबानि</w>":2296,"गोदानजों</w>":14936,"उयु":21839,"सानथ्रʼहायै</w>":15778,"सआव</w>":14255,"लायनोसै</w>":19304,"लेकसारा":26257,"बांसाया":24058,"साग्लो":3552,"होथाब":22777,"बादिंग्ल":24368,"ङै":5770,"मिहिरनि</w>":4639,"बिजाथिफोरा</w>":15765,"अब्लाबो</w>":2580,"खुन्दुं</w>":4778,"जोहोलावखौ</w>":25542,"जुवान</w>":18068,"जानायफोरखौ</w>":9344,"प्रेकटिस</w>":10073,"हाथासीया</w>":21344,"जों</w>":310,"एननि</w>":27800,"इंलिस</w>":9290,"सनदेह":27178,"दिननि</w>":6601,"बेल्ट</w>":22708,"गोफार</w>":16266,"घटना</w>":26725,"फारसेबो</w>":14880,"गरम</w>":4185,"गारहरो</w>":19557,"रासकेल</w>":27230,"मथर</w>":5443,"थिनहर</w>":10592,"आखिनाय</w>":21817,"गुलार</w>":13136,"हरसेनि</w>":16668,"गनायथि</w>":6088,"बालि</w>":22225,"राज्य</w>":12326,"आण्डा":27738,"लानजाइ</w>":18104,"बान्थाबो</w>":26102,"वसोमोन</w>":28372,"सिबाय</w>":2655,"थिफोर</w>":16438,"लनो</w>":16093,"हालमाजिखौ</w>":17898,"गाबफ्राम</w>":19745,"भुटिया":5271,"दोनस्लाय":16916,"बिजाबजों</w>":25255,"रुं</w>":23586,"रामोन</w>":8094,"spe":21745,"नहय</w>":28149,"इन्टारे":24994,"ें</w>":28481,"फर्मेशन</w>":21047,"खामब्ला</w>":24930,"बाज्रुम</w>":26929,"द्‌लानानै</w>":20651,"हेड":19493,"बोराय":2384,"बराय":3204,"थनथ्र":26726,"जफायो</w>":10157,"मोननायाव</w>":11968,"जंखायनाय</w>":15653,"बिगोमा":7401,"गाथो":6579,"इसान</w>":21824,"सरखारजों</w>":21107,"बसाइट</w>":28244,"सोमजिदोंमोन</w>":25218,"सिफाय":3655,"लाखिदोंमोन</w>":20124,"गादबनाय</w>":26638,"नार्जारीया</w>":5723,"आनारी":7524,"ओंखारोब्ला</w>":24252,"गेदेमा</w>":4186,"बिजाबफोरखौ</w>":8789,"कवार्":11751,"दोंनो</w>":6187,"फरायनायानो</w>":24022,"दागोन</w>":22662,"सिमनानि</w>":17504,"रबिबाराव</w>":14242,"सुखʼनानै</w>":14572,"engli":25129,"नेम</w>":3233,"फुदुंनाय</w>":25909,"देहाजों</w>":26553,"सात्र</w>":14403,"गोग्लैनायखौ</w>":24526,"थांदिनि</w>":4000,"नाथाय</w>":418,"खाप":12970,"लिबारे":13170,"sc":8445,"गेब्लाया</w>":13246,"सायनो</w>":5944,"फादुब</w>":14487,"नोलै</w>":4419,"लाबोबाय</w>":6226,"इसेयावनो</w>":27769,"फावथि":1469,"नङामोन</w>":2512,"सिङाव":21345,"थिनहरदों</w>":7239,"लै</w>":612,"ʼब</w>":27631,"दाहा</w>":2155,"हाबाब</w>":2349,"गथʼवाबो</w>":11350,"मोदो":844,"शी</w>":11802,"थिननायाव</w>":12386,"मोनथारा</w>":18954,"फिना":5638,"सानबोलाउरिजों</w>":20989,"रुवाथी":17350,"माबेबा</w>":11891,"स्कुलनि</w>":12465,"कलेजाव</w>":2908,"सीन</w>":25946,"सोंगोन</w>":14957,"बेनो</w>":1046,"ङैनि</w>":5285,"गोनांबो</w>":15152,"जिदʼ</w>":22971,"साबु":5051,"बिगुर</w>":2910,"ओरैबायदि</w>":25661,"इउनाव</w>":27759,"थानायावसो</w>":28864,"रौनिया</w>":11581,"्लाइ</w>":12019,"लाबायदों</w>":22282,"खायसे":6028,"दिहुनथाय</w>":24780,"फोरजोंनो</w>":9068,"132</w>":26313,"बर्नायथि</w>":25498,"काला":14857,"बिस्रियै</w>":18692,"दंबावोमोन</w>":21028,"होखायाखैमोन</w>":29665,"बाइ":1120,"vowel</w>":13940,"अखानि</w>":18264,"बाबा</w>":3718,"आयदाफोरखौ</w>":21031,"आखुनिफ्राय</w>":19941,"बासजों</w>":11829,"जियाबो</w>":21965,"नोंखि</w>":6182,"गथा</w>":12818,"सोमजायग्रा</w>":14979,"दादों</w>":13054,"खिन्थायाखै</w>":21280,"नागिरोब्ला</w>":20408,"हाबायाबो</w>":21315,"साबित्री</w>":21082,"आलुमिंगि</w>":11638,"सियारखौ</w>":24745,"सारफ्रावनाय</w>":27064,"साबिया</w>":21081,"ओहो</w>":3642,"मेव":23352,"आंहासो</w>":26594,"न्थाय":29261,"लान्थ":10941,"कलंखिनि</w>":13923,"बागसा</w>":26131,"थांनायसाय</w>":23194,"प्रसाद</w>":8261,"जʼखानि</w>":24223,"गाहामै</w>":6665,"फरायगासिनो</w>":11259,"गोगो</w>":4494,"नुगा":13227,"खोलै":16522,"जायोबो</w>":25487,"दखानाव</w>":18154,"वे":2058,"ge</w>":5755,"एनि":27794,"गम्भीर</w>":2168,"मावा":8118,"बुग":18868,"अनफाव":7862,"दावहानिफ्राय</w>":26510,"नुस्लाबा</w>":16664,"फुद्दा</w>":23570,"हालामाव</w>":11450,"ह्रा":28444,"फैदे</w>":23116,"limited</w>":14063,"नांब्लानो</w>":19359,"गासिबोखौ</w>":19700,"commi":15494,"ज्रि</w>":3710,"सौफैनायनि</w>":24430,"साबि":5797,"कल्पानाया</w>":14042,"दिन्थिनाया</w>":9235,"खुंनाय</w>":7243,"जायोना</w>":13754,"गोबांनो</w>":15544,"पेकेट</w>":9858,"खिसिमनि</w>":23547,"गि</w>":1297,"लोंगोन</w>":8249,"गोरा":1618,"फाइल</w>":5124,"मिथिनो</w>":1415,"थाखोआ</w>":20329,"सेकिं</w>":22961,"साफ्रासीया</w>":26106,"जिनिद</w>":17613,"रैखा</w>":1835,"बाथाय</w>":3099,"दाखु</w>":3556,"माइलनै</w>":26856,"दद्र":8957,"बेदां":29466,"गियाबो</w>":20225,"थांफा":7445,"सʼवा</w>":7532,"बांखा</w>":19734,"गोहोगोरा</w>":9865,"्राझार</w>":3660,"खिन्थाहैगोन</w>":24971,"सीखौ</w>":28414,"माहारिनि</w>":2368,"थाइनासि</w>":23701,"कामाख्यानि</w>":10775,"धु</w>":18420,"खिला":14765,"dra</w>":27501,"फिसाजोखौ</w>":2672,"फʼन</w>":5011,"ंबु":6777,"मुजुदै</w>":20868,"निफारसे</w>":29802,"दैथुननि</w>":13971,"मिहिरा</w>":1717,"गोजानै</w>":16992,"थोजासे</w>":5087,"बिगुमैखौ</w>":10074,"नुहै":13230,"दैमुवा</w>":16755,"बुंबावनायसै</w>":21162,"ओंथि":14797,"बिलाइजों</w>":12426,"जिखौबो</w>":22969,"नʼस":16937,"हायाखै</w>":1547,"हामफे</w>":6935,"म्‌</w>":14784,"फोरनिसो</w>":22882,"हुगारो</w>":4969,"न्दै</w>":2966,"बरबाद</w>":10423,"आलʼ</w>":21792,"सहे":1938,"कर्ट</w>":9933,"गुदि</w>":1920,"गैथारा":14748,"घन्टा</w>":4662,"रागायाव</w>":12939,"इण्डल</w>":20870,"बयसियाल</w>":17022,"नागर":28521,"बेमारिखौ</w>":13916,"आदि":9487,"सपुर</w>":28412,"बाब्ला</w>":22222,"कला</w>":21868,"नीलाम्बार</w>":26567,"सोबनानै</w>":16404,"two</w>":18097,"अमानो</w>":27664,"गनिफ्राय</w>":27888,"बेन्साव</w>":17894,"सुबु</w>":11099,"nation":26626,"सइ":28381,"गोदोन</w>":24864,"राक</w>":22292,"बेसादफोरनि</w>":26312,"god</w>":11639,"गावबो</w>":4331,"मोनथिगौ</w>":8812,"श्री":6978,"मन्त्र":8975,"ज्लौ</w>":17040,"पजि":12858,"थुलुसि</w>":25053,"सीया</w>":11810,"बेजा":14465,"??</w>":8438,"गोरोबनायखौ</w>":25337,"हयै</w>":6549,"art</w>":17506,"जान":2339,"नागिरलांनो</w>":24390,"लाइफा":12136,"ex":5022,"मे</w>":5442,"समायनि</w>":20282,"होखांनायनि</w>":11959,"बेखेवगास्निनि</w>":17339,"is</w>":3340,"अटʼवालाखौ</w>":26271,"गोराय":13002,"मुथा":14619,"खासिबारीसिम</w>":21643,"मोनैयाव</w>":11069,"सानबानि</w>":19201,"बिख्लो</w>":6772,"साना</w>":1904,"गोजानावनो</w>":24305,"अलेया</w>":27701,"नायफोरखौसो</w>":29308,"बुंफैयो</w>":7800,"खारो":16203,"मोनथाम":14510,"होग्रा":8562,"बिसानखौ</w>":22441,"जेखाया</w>":22945,"फेबाय</w>":23937,"नागाराखै</w>":25398,"जबरद":21973,"1967</w>":25877,"मोन्दांनो</w>":16960,"सिननानै</w>":10590,"जोनो":865,"फोसाबनायनि</w>":13800,"मोसा</w>":1954,"फोसाब":3068,"tal":18249,"मोन्ना</w>":19822,"सौहां</w>":24424,"reli":25315,"देरगानायजों</w>":26068,"फावगिरिफोरा</w>":19588,"दारफोरा</w>":17695,"हाकिम</w>":18085,"गान्दाखौ</w>":29246,"फज":22045,"थʼनाय</w>":24124,"लेंहरथारदों</w>":27008,"जादोंब्लाबो</w>":8107,"बुंबाव</w>":16499,"हाग्रा":3554,"होहैनाय</w>":29621,"खुन्थि":23268,"फुजिनाय</w>":25931,"गोनाङा</w>":11898,"बेरामनि</w>":14469,"नेर्":3680,"जावरिखाङो</w>":26861,"फरामा</w>":28184,"मस</w>":28265,"ो":124,"सिनायथिखौ</w>":6443,"लाहोनानै</w>":18568,"बाध्य</w>":12924,"खारलाङो</w>":6644,"सुमु</w>":14571,"बुन्थानि</w>":22739,"bor":21695,"नायगोमोबाय</w>":29302,"खालामग्रा</w>":6183,"राहायै</w>":10953,"बालु":22224,"बुंफोरनाय</w>":18002,"ष्टटलनि</w>":20562,"थुनफावथाइयावनो</w>":25390,"उसुन्दायाव</w>":18151,"फ्रु":1801,"फोसावनानै</w>":12422,"गाइखेर</w>":3045,"जारोङै</w>":28762,"बिजाबफोर</w>":25256,"सिबिजाथाव</w>":25336,"रुमखौ</w>":9729,"तामुल":14927,"phon":21201,"जैबोरा</w>":21422,"सहैनाय</w>":28417,"धोन":11484,"आफोद</w>":10051,"खावलाया</w>":15016,"साइटʼकाइनिन</w>":15845,"बिगुमैया</w>":17369,"मोनथʼ":22812,"जाजासे</w>":22336,"फेथें</w>":23942,"खानाया":28910,"हाबाफोर</w>":13428,"निहोर":16429,"जा":269,"लके":18476,"आहम":15941,"दामब्रा</w>":15247,"मेगावाट</w>":26797,"थानांगोन</w>":4806,"मैदेर":9792,"बेव":1589,"थाफै":8108,"होदों</w>":1008,"रायनो</w>":5335,"खोब्रा</w>":12031,"बावदिया":3112,"खुस्रा</w>":19230,"मेद</w>":19283,"मोजांब्लाबो</w>":25448,"दाख</w>":29376,"बोद</w>":11085,"मादै":12995,"खेब":993,"लागौमोन</w>":22270,"सोदोबथि</w>":4861,"बियादै</w>":9984,"ses</w>":14088,"अमान</w>":21773,"सुर":1481,"बिजाथिया</w>":17482,"file</w>":18124,"निय":8961,"खान्थियारी</w>":15346,"दर्बासिया</w>":7299,"फैलायखो</w>":23131,"गांग्रां</w>":29247,"णराम</w>":21986,"खौमोन</w>":19264,"ace</w>":8373,"66</w>":18199,"गें</w>":7465,"हारा":29156,"हाइला</w>":25342,"बिफाङाव</w>":7882,"बावयो</w>":11226,"सानसुमा</w>":21212,"थनानै</w>":28055,"क्रे":8461,"मोनसेबो</w>":10329,"जावबो</w>":22329,"serious</w>":26674,"डकु":7699,"बिजोंखौ</w>":28985,"स्रायो</w>":16697,"अनारी</w>":24654,"दिहुन्नायाव</w>":20062,"लेबʼरेटʼरीयाव</w>":27019,"बैसागुवाव</w>":20561,"बोन":11084,"अन्दरनि</w>":17673,"गाग्लोबदों</w>":20765,"जखानि</w>":11764,"नारो</w>":22191,"आसामि</w>":17034,"गदʼ</w>":21914,"एमफौ</w>":7290,"pho":27578,"तफोरनि</w>":28043,"नाजानांगौ</w>":12338,"हरखाब</w>":2951,"खन्नानै</w>":14161,"हाजिरा</w>":16299,"थांला</w>":16555,"भान्दारि</w>":19888,"फामु</w>":22758,"अमि":6513,"नोंथाङानो</w>":11609,"भावथिना</w>":26872,"मागोन</w>":5467,"गगल्स</w>":8407,"रायखांनो</w>":11173,"आन्दाय":15609,"मेगना</w>":3747,"जाथार":4310,"अलकेशा</w>":7311,"guttural</w>":27397,"जोंबाय</w>":5997,"बाबोराब</w>":28594,"खिनिया</w>":23545,"नागिर</w>":5722,"बासन</w>":28571,"दिया</w>":1550,"दैनो</w>":8636,"बीरेन</w>":25617,"आब":782,"फिसाजो</w>":1774,"दानानै</w>":3508,"बिथांखिखौ</w>":15105,"बिख्लोआव</w>":21231,"संस्क":6923,"o</w>":208,"सुरनि</w>":11098,"मेगननि</w>":2743,"डिजे":24474,"bu":27473,"ʼनि</w>":3387,"हादुं</w>":29177,"पुलिसफोरखौ</w>":20771,"w":58,"सी":4211,"गिदिंनायनि</w>":25125,"भारतखौ</w>":20521,"अन्दर</w>":7013,"सावन</w>":23952,"छ</w>":243,"सारिखौ</w>":22516,"बाकसु":26578,"डर":28020,"थामहिनबा</w>":2169,"दाग":9616,"सुरखो</w>":9907,"जोबनानैबो</w>":16805,"जात</w>":12946,"हादरखौ</w>":7202,"फैगोन":23119,"गोगोम":22484,"fe":11714,"राणीया</w>":15500,"लाजिखांनाय</w>":24917,"गोनब्रा</w>":24873,"गामिया</w>":9843,"सेरायाव</w>":25120,"दिहुननायनि</w>":9879,"एरखां</w>":20446,"बय</w>":18443,"ic</w>":8045,"50</w>":3489,"लुबैया</w>":4109,"फ्रे":4434,"हामथार":7197,"कलेजा</w>":17269,"ओंखारबोनो</w>":19750,"मोदायखौ</w>":22497,"रुपसिङा</w>":25934,"हास":11007,"ब</w>":148,"बिग्रो</w>":20744,"सानफ्लांदोंमोन</w>":26600,"मडेलिं":26380,"साहानि</w>":16283,"खालामनायसै</w>":16591,"गोसोथोनाय</w>":23663,"मुलुगाव</w>":2112,"रिंसार</w>":4361,"मुगाया":19149,"जोबाब्लाबो</w>":25652,"गार्जिये":26544,"नांथाबनानै</w>":9143,"बोसोरनि</w>":2106,"फोर्बो</w>":15718,"खाथिखौ</w>":22407,"हे</w>":1226,"थांफानानै</w>":16560,"गारनांदों</w>":16808,"ह्‌</w>":20053,"बिदुं":28977,"l</w>":175,"dra":9478,"खʼहाखौ</w>":24006,"बुश्व":22731,"हारियारि</w>":7218,"खोमसिया</w>":7523,"ट्रा":1222,"लिरनाया</w>":8250,"बमब्राय":21153,"थुनलाइयाव</w>":5716,"होफिनगोन</w>":29635,"ग्रोदो</w>":17217,"बाजिसो</w>":15256,"दरं</w>":10535,"अनिमा</w>":11483,"खिसे</w>":14766,"लामा":3056,"थिफु</w>":29853,"फ्रा</w>":638,"फारागा</w>":8560,"जाथार</w>":12949,"देहायाबो</w>":17936,"बेरखांनो</w>":13526,"जानायखाय</w>":7256,"मोनफोनां":29750,"हौ</w>":8493,"बेहुस</w>":16367,"बेंनायखौ</w>":24869,"मदन</w>":7926,"रंजायै</w>":24299,"बोथोरा</w>":7629,"सले</w>":28403,"जागिनाय</w>":28774,"बोहैनाय</w>":10566,"थाबनाय</w>":10969,"रामालाय</w>":28697,"हिन्दु":11212,"हाजʼवारीखौ</w>":17355,"इउनिटा</w>":25982,"होनायनि</w>":1644,"खनथाम</w>":5863,"लिया</w>":713,"नायनाया</w>":14430,"बरʼफोरनि</w>":3115,"गोसोआवनो</w>":11217,"गथʼफ्रा</w>":7210,"खिन्थाबाय</w>":7946,"अहʼ</w>":11729,"देरब्लाबो</w>":24098,"साजों</w>":3782,"दिके":29871,"मोनाबिलि</w>":4467,"मुक":23138,"निबादि</w>":11072,"माष्टार":10729,"गोबांसिन</w>":11899,"बोसोरसे</w>":8785,"अलʼक":10579,"घण्":27935,"state</w>":17527,"खेंफोरथि</w>":5721,"नार्":1978,"सानस्रि</w>":3793,"स्वान</w>":26237,"थालिरखौ</w>":21539,".,</w>":7337,"मानोसै</w>":19879,"सेनाय</w>":29992,"फरायबाय</w>":7502,"जुथाय</w>":14756,"नायगिर</w>":20883,"लावथिजों</w>":13532,"थुलुंगाखां</w>":26718,"जोङै</w>":6868,"जाथारै</w>":18611,"आर्ट</w>":14118,"हाबाखौ</w>":2097,"बशि":22070,"बोनानै</w>":1871,"े</w>":149,"रिजाल्":21380,"खजʼ</w>":27874,"पारा</w>":5668,"अलʼकनो</w>":15811,"गोखा</w>":4317,"बुजायनानै</w>":20799,"थानादारनि</w>":26324,"आखलै</w>":13455,"नावनो</w>":3163,"बुल":29493,"मावबो</w>":6199,"दैदेन":1459,"बागा":7079,"emotion</w>":13825,"बारि":7081,"गोबाना</w>":20253,"प्रफु":9803,"किउरियʼनि</w>":12627,"हासुं":18764,"केसा</w>":10470,"ject</w>":26570,"रुप</w>":6909,"हाब</w>":1707,"ंग्रिं</w>":20764,"रोङै":13783,"नागा":2338,"दानलाय</w>":19890,"हमो</w>":2447,"बाक्सुवाव</w>":26890,"सुरै</w>":11999,"बादिनि</w>":10522,"फावथाइफोरा</w>":15043,"नाजावनाय</w>":20074,"नमास</w>":18428,"मोदोमनि</w>":3952,"उदुवा</w>":8821,"गावबागाव</w>":9123,"जोंदि</w>":23394,"सिथा</w>":18814,"गैनो</w>":9145,"महे":6541,"धोनसिङा</w>":26865,"थाहैयो</w>":8109,"जान्जि</w>":7328,"मावग्लु":14807,"खायसे</w>":2095,"कमबक्ता</w>":26936,"बुथुमनो</w>":9412,"सोदोबथिया</w>":9271,"थावनिया</w>":24297,"सोदां":29682,"सेनापतिया</w>":26817,"लिटार</w>":19160,"जनक</w>":20977,"लाङोब्ला</w>":12932,"आंगुर</w>":15302,"ड्रइं</w>":5268,"हायेनारि</w>":8402,"गʼलायाव</w>":15050,"गंगना</w>":15801,"बाजारि</w>":9975,"माइथाय":4744,"सोरखि</w>":23334,"थियासो</w>":20195,"सदबांसा</w>":17933,"हाबफैब्ला</w>":23844,"ख्रि":1311,"बिथांमोन</w>":10553,"गामिनिफ्रा</w>":26786,"थागोन</w>":1796,"सिददा</w>":18087,"ौवा</w>":3443,"गाहाइनि</w>":19777,"बेंगालै</w>":26661,"खाङारि</w>":28931,"नाराय":6820,"दोरोद":12620,"बेरस्रां</w>":13525,"बुश्व</w>":29519,"फरेष्टाव</w>":25805,"बेफोरखौबो</w>":13065,"थनि</w>":11769,"गिलिरथिखौ</w>":26795,"खाखाब</w>":28933,"सर":959,"बरुवानि</w>":17865,"नोजोरथाव</w>":20093,"आदबखौ</w>":9868,"सारिया":11299,"ंनि</w>":546,"ख्राय</w>":5693,"गोदोनानै</w>":20258,"लोंनायनि</w>":7183,"81</w>":15880,"दन्दाया</w>":16045,"थिरांथा</w>":8424,"फाहामसालिनिफ्राय</w>":20403,"देवा":2660,"बर":405,"सादोंमोन</w>":22505,"बोबायानो</w>":29947,"hara":10723,"टिफि":11284,"जाजोब":6825,"जोबाखिसै</w>":15457,"इनायै</w>":14134,"बुंहरनाय</w>":13153,"रुबिलानि</w>":15752,"नामोन</w>":16122,"मिथिङाव</w>":16850,"ङाब्ला</w>":6645,"नागाखौ</w>":17490,"लटार</w>":28346,"रोदि</w>":19401,"कड़":27847,"बिजुलि</w>":22435,"सोलियोमोन</w>":18162,"दाथʼ</w>":9045,"नाख्रेब":14279,"अपारेसननि</w>":25363,"खस्थʼ</w>":26884,"us":7343,"वाव</w>":534,"बोलांनो</w>":19010,"बिसोरहा</w>":6414,"साननाया</w>":4828,"मोनलोंगोन</w>":14520,"खान्दाय</w>":16215,"गरसे</w>":9880,"गावहानो</w>":13205,"थिङैनो</w>":18990,"मनायाव</w>":10183,"गानैयाव</w>":29241,"कम्फिउ":12355,"सुस्रांनायनि</w>":10756,"गुड</w>":6177,"इनफरमेसनखौ</w>":10755,"खिथे":11193,"साननैनि</w>":8181,"ष्":668,"जुनैनो</w>":8621,"वर्":18484,"नेपाल</w>":17846,"स्रुब</w>":16698,"हाखʼराव</w>":21623,"खुन</w>":5823,"टेबोला</w>":16904,"मोन्दांथि</w>":13864,"बोखानो</w>":19015,"बिहोम</w>":25555,"ब्लासो</w>":1907,"भुमनि</w>":8324,"थायनैनि</w>":10452,"येट</w>":20505,"रगʼ":22108,"बिसालथिया</w>":26967,"र्ल":6331,"फिसाइया</w>":7592,"बिजाथि":8798,"stri":25493,"बाजै</w>":2039,"खुनानै</w>":13190,"लायथां</w>":14703,"रस</w>":12874,"सान्दों":24698,"फिनाब्ला</w>":17842,"मति</w>":22090,"बाजावा</w>":25523,"मन्चा</w>":17106,"बिखाया":13517,"थारु":5792,"फाइन":29560,"ुर</w>":10930,"सानदियाव</w>":23221,"डिस</w>":9837,"लादेर":28613,"थायाबो</w>":8328,"गेन्द्रा":16683,"गोसायाव</w>":16264,"सेक्सप":12547,"सानफ्लाङाखैमोन</w>":27156,"उवा":5028,"गंगार":14983,"इन्दुप्रभा</w>":5134,"हालेव":12653,"गोमाना</w>":13594,"जना":21944,"भबेन</w>":9524,"गामिनिनो</w>":14425,"नायबिजिर</w>":11925,"होसोलाङो</w>":25776,"पारमि":11570,"सोदोबमा":17107,"लोगोया</w>":14962,"एलाखाखौ</w>":26533,"बिहावखौ</w>":7329,"थाना</w>":5791,"बारखांनानै</w>":16776,"बिफांफ्राव</w>":26239,"दरजानि</w>":10536,"माहारियारि</w>":4469,"सेयार</w>":7978,"ैफोरजों</w>":28487,"सेयावनो</w>":3996,"अबश्":20338,"अक्टʼ":15476,"बुध्ददे":26547,"बाण</w>":28544,"डज</w>":3896,"सुजुग्रानि</w>":12405,"बालानि</w>":28570,"निजिरा":29810,"सिता":29328,"दारʼ":6854,"नेरसोन</w>":5562,"गेवनानै</w>":15328,"खान्थासि</w>":26226,"थाइलालि":6988,"निंनि</w>":14523,"भंगि</w>":22078,"बेरखांनाय</w>":10560,"ग्रेजु":25597,"बेफारिनि</w>":10009,"टेबि":2574,"ad":5276,"फ्रासो</w>":11147,"थागासिनो</w>":16189,"आगै</w>":2280,"धेद</w>":21248,"आवगायाव</w>":6692,"ब्लानो</w>":841,"खों":21882,"हʼलनि</w>":17422,"बिलायनानै</w>":18675,"मुदै</w>":23141,"रामे":28685,"स्लगान</w>":17070,"बिरगोस्रि</w>":27278,"सोमब्ला</w>":19804,"थलं</w>":28067,"मायखौ</w>":19654,"लाद्रि</w>":28657,"सोमस्रिया</w>":11293,"संबिजि":7179,"मे":381,"बेवहा</w>":17361,"रजेनक्रेन्टʼ":27347,"सोलायाखै</w>":29698,"लामोन</w>":16141,"बारायो</w>":9744,"कदार</w>":18326,"गोलाव</w>":1327,"बारासिन</w>":17344,"शाक्त</w>":24396,"corporation</w>":27082,"मोनहर</w>":29726,"मेजे":13216,"अन्जु</w>":24947,"बिदुं</w>":7741,"जासुला":28795,"केरे":12209,"थायफोरखौ</w>":19521,"नार्जारि</w>":15281,"निल</w>":9642,"हाबलांनानै</w>":19607,"hon":27529,"जाफुंदों</w>":25241,"जाजानोनो</w>":28812,"हायै</w>":1478,"केनसेल</w>":8247,"गाड़":4816,"फाइलनि</w>":8346,"2006</w>":9311,"दमासुखौ</w>":15565,"लावरि</w>":12349,"जोलैनि</w>":6292,"लाब्ला</w>":9557,"बिथिंनि</w>":7264,"मोस्रो":22495,"फिननांगौ</w>":10485,"31</w>":11705,"आराव</w>":15938,"सुबुंफोरखौ</w>":5107,"हासिब":22559,"हमनाय</w>":5215,"जथ्रोद</w>":27990,"गोदानखौ</w>":6417,"धे":8070,"सिथार</w>":13047,"बेरायनो</w>":15461,"खांख्राय</w>":23553,"iv":10114,"tra":5279,"खाफ्रा":10238,"ne":12758,"जमबाय</w>":21970,"फुनसे</w>":20876,"सिगिनो</w>":29351,"that</w>":8766,"नाब्लाबो</w>":22197,"गोरि</w>":29067,"खौलʼ</w>":1748,"सिगा":577,"सम्बा":12488,"बिबार</w>":1441,"सिरिखौ</w>":18822,"मावहोनो</w>":16765,"आजाव</w>":21804,"मुश्रिमा</w>":27370,"जेदि</w>":22941,"खोन्दो":5194,"...?</w>":12416,"-!</w>":8040,"लाउ</w>":3650,"थाइजों</w>":6917,"उदु</w>":4459,"साये":24513,"होलांनानै</w>":29609,"जोदोंमोन</w>":29903,"निस":18967,"आगा":14099,"सें":7787,"बायसो</w>":6185,"नांगौखौ</w>":9846,"गङो</w>":18345,"राहायानो</w>":28720,"गेरे":4833,"मलेन</w>":1764,"रफोरा</w>":6544,"मिथिहोनाय</w>":7865,"जुलाइ</w>":8619,"बान्द":9549,"बैग्रि</w>":13333,"दाद</w>":7763,"संफ्ल":16842,"जोब":497,"बानजायनायाव</w>":20483,"दावसि</w>":6408,"पेसे":12345,"मानसिसो</w>":13319,"सुवे":22991,"वखौ</w>":18483,"बिसुं</w>":22437,"दुथांफोरा</w>":23350,"लांनाय</w>":1171,"टावारफोर</w>":26914,"आंगोसिन</w>":21348,"शखौ</w>":16105,"गयथिनि</w>":25403,"मां</w>":29016,"दावहाया</w>":9184,"च":85,"रामनाथा</w>":2334,"थरनै</w>":13704,"असे":14095,"न्नायजों</w>":29265,"मावखुं":12158,"खालारखालि</w>":8421,"आलुवा</w>":20817,"कला":14154,"फराया</w>":25616,"रासिया</w>":22302,"गाजोब</w>":29239,"सिमनि</w>":16323,"रेट</w>":14790,"मोनलोंनानै</w>":22841,"दाजाबदाखौ</w>":5884,"हाथार":7410,"दाहार</w>":3656,"गोबां":3988,"बिबुंथिखौ</w>":13773,"नोंसि":12054,"द्लामैनो</w>":11544,"मफोरा</w>":16078,"94</w>":27462,"सिगांदों</w>":25182,"त्र</w>":5432,"रोमो</w>":16709,"खुरबाय</w>":25308,"सोरजिनायाव</w>":12391,"खालामाखै</w>":6285,"गुबैयै</w>":3634,"निलिखत</w>":11691,"अभार":10125,"आग्लाय":9490,"दाखालिसो</w>":13956,"~":64,"गाँ":3913,"गी</w>":14165,"गहां</w>":18352,"गावसिनि</w>":5648,"बाननि</w>":18548,"इरामुतीया</w>":21194,"गंगार</w>":7511,"गायो</w>":5148,"नोंनियाव</w>":14656,"tx":11723,"बैराथी</w>":12648,"गलʼखौ</w>":6250,"बुथुम":3658,"खुंनायनि</w>":20289,"सोंलुनि</w>":19768,"होदोंमोन":22785,"ʼʼ</w>":27630,"शवर</w>":28379,"लोगोयाव</w>":11288,"ary</w>":25427,"लाजासै</w>":28671,"बादिसो</w>":6679,"दाबाव":29389,"लफोराव</w>":5942,"देग्लायनो</w>":14668,"रास":18584,"रिटाया":11685,"दैसारी</w>":19465,"दोनगौमोन</w>":24092,"बरलिन</w>":23498,"आसार</w>":5578,"आथिं":12319,"रुमालजों</w>":18030,"स्री</w>":1007,"जौ</w>":595,"बिथिंआव</w>":6269,"गसंथानो</w>":20230,"their</w>":17860,"बिगुमा</w>":11448,"आहार</w>":4785,"मथै</w>":10915,"बिर":1352,"हानो</w>":2893,"जाफै</w>":28744,"यिं</w>":5444,"नागिरनानै</w>":3418,"फैथारगोन</w>":23126,"औम</w>":27825,"जाहाजाव</w>":25373,"बुलायनाय</w>":16374,"न्दां":22601,"सुंथाब</w>":15102,"होमब्लालाय</w>":7927,"टा</w>":1109,"निख्रुइबो</w>":5120,"बिलिरबाय</w>":22442,"नारायणा</w>":15715,"गान":970,"सुमि":3177,"बुसोम":29504,"काजिरङा</w>":21631,"जिउवाव</w>":6682,"खोनाबा</w>":14971,"साइखेलखौ</w>":17940,"नाव":2358,"इयार</w>":21825,"फाया</w>":1110,"ियाथʼ</w>":23548,"बेबाद":29463,"ज्रि":1697,"हाबहां</w>":10462,"भिटा":15243,"उइक</w>":20705,"न्दिया</w>":3923,"लाब":8507,"लाबावबाय</w>":28649,"केम्पे":17767,"नोरखो</w>":26457,"मुख</w>":11126,"हैयाब्ला</w>":19413,"मोन्नाव</w>":8263,"दरा</w>":16041,"120</w>":21662,"मेवा":12078,"रेबसुंखौ</w>":21414,"मुसाहारिया</w>":21207,"दामबाय</w>":20363,"गाखोनाय</w>":10615,"रिड</w>":19075,"न्दाय</w>":11347,"ैलʼ</w>":18516,"जोबबा</w>":16801,"गैयाजासे</w>":6251,"हनो</w>":28441,"नांगौन</w>":20047,"आंनिथिं</w>":14630,"शिव</w>":17508,"हान्थ":6578,"फावथाइयारि</w>":9827,"लखा":22118,"दालां":11039,"खेंसाल":13650,"थाबथानानै</w>":20508,"राखेब":16159,"सोंबावबाय</w>":19767,"जाबे":28726,"नायसि</w>":10282,"आन्था":18280,"बारबोदों</w>":23709,"फ्रो":1238,"फुदुंदों</w>":25910,"हैफादों</w>":23560,"लालु</w>":12928,"बियो</w>":391,"बां":610,"गब्ल":6315,"iv</w>":21719,"डिउ":24473,"अनारु":20133,"राबो</w>":2534,"उपेन्द्र</w>":15817,"दक</w>":28075,"आजिरा</w>":14122,"ब्रेकफा":6983,"थाइलालिया</w>":20589,"दावबाय":3074,"खागोन</w>":5303,"गेलेमु":15193,"बिबाननि</w>":16989,"यामोन</w>":14731,"फरायोब्ला</w>":24018,"डलि</w>":28025,"दिननिफ्रायनो</w>":8356,"गाखो":1396,"आगोर</w>":4136,"दुब्लिनिफ्राय</w>":26507,"सायाव":20162,"खेबाव":23667,"मोनायो</w>":29093,"क्स":1973,"मिञानि</w>":26645,"बाङाइ</w>":10214,"मोसौ</w>":1484,"<":28,"समाय</w>":1526,"थुहरनानै</w>":19397,"ल्दानाय</w>":19714,"रंफा":3478,"टाव</w>":1856,"मत":5441,"समनि</w>":1684,"मेरगम</w>":21027,"मैगं":24079,"हुगारनानै</w>":4968,"उदैखौ</w>":11741,"निपा</w>":16428,"गुगुरु":8164,"रावना</w>":13301,"पियारी</w>":28175,"बोरियाव</w>":23898,"राग":4489,"थियेटार":10640,"गोमोथाव</w>":4873,"सिसु</w>":18823,"दाबु</w>":18845,"खस्टʼ</w>":27879,"गुस्":3997,"मुहि</w>":23146,"दावहायाव</w>":3800,"सफैफिनाखै</w>":28431,"नांगोन</w>":742,"ब्लि":1214,"ग्लांनानै</w>":15151,"मोसाहारी</w>":13951,"दुर्":5076,"गावनानै</w>":11154,"दायानो</w>":9514,"क्षेत्रनि</w>":21517,"जानायनिबो</w>":25077,"साव</w>":1061,"कम्फिउटार</w>":26925,"जोमा</w>":16446,"दनखौ</w>":22012,"राइज्लाय":14872,"गाहै":22581,"खोरोम</w>":26025,"होनब्ला</w>":3412,"बोहैलांदों</w>":15141,"दाइनिं</w>":5549,"दानस":19889,"फिनासै</w>":11108,"बिघा":11887,"दां":810,"दाबाद</w>":13060,"गोहो</w>":1153,"खौसेयै</w>":10062,"सिखावनि</w>":25886,"होसै</w>":29591,"जोंथिखौ</w>":3222,"खुनोरो":13901,"बादायलायनाय</w>":12608,"मारुति</w>":9985,"बैरागी</w>":27260,"kna":27546,"मलेना":19787,"ouse</w>":17404,"बाथ्रायै</w>":24761,"मुगाजों</w>":19144,"मुलुगनाङै</w>":24991,"धनु</w>":10902,"vi":8925,"जेबोखौनो</w>":26695,"खेंख्रि</w>":15260,"टर</w>":2533,"खिन":14764,"बोथिफा</w>":26283,"खालामनायाव</w>":3794,"प्रग्राम":8000,"लाय</w>":421,"लाखांनायनि</w>":11841,"माइक्रʼ":15028,"डेनमार्":12698,"सियालखौ</w>":17222,"लांब्ला</w>":7463,"केयार</w>":19657,"गावरावनि</w>":11156,"थाइलिर</w>":12162,"नाथार</w>":11819,"सानबोदों</w>":16578,"रेख":23623,"दाबाथी</w>":27359,"घरियाव</w>":27937,"बुस्रि":18875,"सिथलायाव</w>":9963,"माब्लानिफ्राय</w>":15136,"भद्र":28251,"बायजोनिफ्राय</w>":10702,"गुरियाव</w>":9912,"बारीनिफ्राय</w>":19516,"मोननांगौ</w>":6361,"खिन्थागोन</w>":20316,"बिजौखौ</w>":14369,"लानांगौ</w>":5297,"प्राइ":5036,"ro":2434,"एसनि</w>":12799,"खालामनोब्ला</w>":23257,"मुवाफोरजों</w>":20418,"न्टनि</w>":18795,"बारन</w>":23703,"जाहात</w>":13719,"रमोन</w>":16087,"नेखा</w>":23903,"आफादगिरिनि</w>":17092,"साइकेलनिफ्राय</w>":20421,"बेसोरनि</w>":13064,"सिख्लासा</w>":7939,"हिन्जावसाया</w>":17161,"गारामा</w>":7110,"थामाव</w>":10967,"खन्थाय</w>":20309,"शु":6812,"सोङाखै</w>":22802,"जगोन</w>":11761,"मिञ":8581,"ियारी</w>":6904,"खावबʼ</w>":16981,"सुबुंफोरजों</w>":17061,"सिमना</w>":7614,"ङाबो</w>":3524,"हास्थायनाय</w>":12557,"माहाजोन</w>":2845,"हारावा</w>":9036,"जिनि":3174,"बोखां</w>":29935,"बाथिबो</w>":28591,"खौसेथिखौ</w>":26235,"स्रीया</w>":4616,"माथो</w>":961,"खां</w>":714,"गासेयावनो</w>":18786,"जेर":4411,"फान्दायनाय</w>":13851,"फोथाय</w>":5491,"दखरसे</w>":9463,"ब्लानोथʼ</w>":23391,"ick</w>":20890,"गारनो</w>":2464,"सुनिखौ</w>":13131,"नोंसोरनिया</w>":20405,"सावरायनायाव</w>":15200,"अरानो</w>":21778,"खुदै</w>":7141,"‎":131,"नायजाबा</w>":7995,"जालायनो</w>":18599,"होनायमोन</w>":8564,"बिखौबो</w>":9024,"बुंखांनानैनो</w>":19115,"बृटेइननि</w>":21520,"जेथो</w>":6176,"पार्टिनि</w>":8349,"साननै</w>":7139,"माझिया</w>":22473,"मुज":23139,"हुन्दा</w>":19577,"सिगोननि</w>":22653,"लाफांगे</w>":17476,"सावरायनायनि</w>":9309,"...!</w>":6974,"खुन्था</w>":23272,"सन्थला</w>":26129,"बायो</w>":2584,"जेन्थ":29975,"48</w>":15874,"मेडिया</w>":10398,"बामि</w>":28575,"लाइया</w>":11205,"बेरायाव</w>":20094,"नङादा</w>":8693,"गोमसारो</w>":15165,"राखि</w>":14312,"लाजि</w>":3101,"गान्थि":22583,"ु":119,"लुफावनानै</w>":26852,"गोहोमाव</w>":17171,"]।</w>":10109,"ल्दाबाय</w>":17821,"दौस्रेम</w>":20190,"सिनायो</w>":11378,"मुस्रि":4604,"दुंनाय</w>":20241,"नुयै</w>":12090,"rent</w>":27581,"किरिरिं</w>":10820,"dru":27499,"फौ":6802,"दाकाति</w>":12564,"काउ":19591,"सानबाय</w>":1380,"फाथिनाय</w>":29571,"थांगारनायसै</w>":23199,"बासिया":22230,"समाव</w>":615,"फिसाफोर</w>":9176,"सिलʼ</w>":29323,"फार्ष्ट</w>":20406,"दांब्लि":24438,"बायनोसै</w>":11153,"नागिरहै":13468,"बाउ</w>":22217,"हायनायाव</w>":23863,"..।</w>":4506,"बाङो</w>":16133,"जʼगासिनो</w>":24221,"ल्ल":1282,"दफा</w>":8956,"बायजो</w>":5205,"नेयो</w>":23902,"खैसिं</w>":13363,"हामै</w>":14995,"आदिबाशी</w>":21331,"देंखोजों</w>":8369,"बुरी</w>":11947,"दैलो</w>":8638,"मोनफैदों</w>":22818,"लाउथिखौ</w>":20341,"थांना</w>":2571,"ward</w>":21755,"न्नि</w>":29259,"बसुमतारी":8306,"गारिफोरा</w>":22592,"11</w>":2559,"मोनहाबो</w>":5316,"फिफ":11107,"खारफोरनि</w>":23574,"गौमोनलै</w>":24385,"बाहागोलʼ</w>":24895,"थाहैबाय</w>":18629,"फैफिन":2705,"सुखʼनो</w>":22997,"हेमले":2632,"थिथि":16437,"गुरस्लाय":20373,"सिमबो</w>":1860,"दामब्ले</w>":25032,"मुश्री</w>":6178,"za</w>":27627,"ण्डा":5378,"गोहोगोरासिन</w>":24658,"फ्लि":11375,"फिसाइजों</w>":9355,"नुहुरनानै</w>":26946,"चार</w>":25412,"ब्राया</w>":9748,"थाल्ला</w>":10237,"दायनिगिरिया</w>":12529,"खोलो</w>":10368,"गाला</w>":18778,"मुलुक</w>":15073,"खुथि</w>":23267,"fate</w>":27513,"थगाय":2956,"खाइ</w>":8112,"बांहोनो</w>":12236,"नेटवार्क":15725,"7833":21475,"होनथेयो</w>":8235,"सोनि</w>":3362,"बानाय":1984,"लाब्रा</w>":11837,"हाथर्खि</w>":8900,"लाल":8092,"हाबोब्ला</w>":29194,"दसिम</w>":28097,"मनजुखौ</w>":7579,"फोसावजायो</w>":10638,"जागाय":2566,"सिफुं</w>":11927,"सरकार</w>":12514,"बन्दनि</w>":25943,"साफोरा</w>":9590,"दोर्सोन</w>":2609,"मर्":7708,"सोलायदों</w>":12466,"...'</w>":20368,"जानगारनानै</w>":9960,"काली</w>":19597,"खैनाशान्ति</w>":20937,"इंराजीयाव</w>":11517,"आलुमि":6100,"बिब्दियाव</w>":17023,"ग्रो":1146,"ति</w>":1086,"पार":3679,"बाजिदों</w>":20382,"ैफोरनि</w>":22183,"फेदेरनो</w>":16860,"कवालि":21879,"दौल</w>":24730,"नायाव":9808,"सानैजोंलʼ</w>":24374,"अन्द":3639,"आसारा</w>":24378,"जब्रा":21959,"हरबाय</w>":1164,"नार्जा</w>":5006,"साज्रां</w>":22530,"इया</w>":14128,"हिनजावफोरनि</w>":17647,"बिथं</w>":11886,"नायहरनानै</w>":2998,"आखुखौ</w>":3949,"दानाव</w>":4404,"रासिनसो</w>":16162,"लायनानै</w>":1216,"गुल</w>":9085,"थैलांनाय</w>":23967,"आबारीया</w>":9427,"खावलायहरदों</w>":26119,"न्टा</w>":22602,"खाजा":11871,"गांबादि</w>":24468,"रंजालि":15139,"सामव</w>":25064,"दरजों</w>":24419,"भिर</w>":8777,"बाथुवानि</w>":13736,"बहन्नानै</w>":17530,"टे</w>":21977,"बुंनाया</w>":9093,"सोलोजोंनो</w>":17583,"इंराज":2516,"रमायश्रिया</w>":13844,"थानांदोंमोन</w>":18646,"नांफा":23483,"गाँव</w>":7018,"देरहानो</w>":10601,"मेजेम</w>":18133,"बिबां":8115,"अनागारि</w>":7229,"लोहो</w>":14695,"बालागाव</w>":20807,"जेरावखि</w>":7429,"सिनबाय</w>":8320,"आदुं":8452,"खुबै":6626,"ओन":1868,"बमब्रायनो</w>":26378,"2</w>":205,"सिबिनायनि</w>":17460,"सेंग्र":24397,"गाबखʼखौ</w>":26472,"लासो</w>":9558,"सोरो":23333,"मारौ</w>":17140,"थालिर</w>":7094,"इटाली</w>":21169,"थसि</w>":9512,"गोरोन्थिखौ</w>":7647,"फैखांबाय</w>":10370,"दानसोरांखौ</w>":15711,"फैफादों</w>":23133,"सिकारखौ</w>":26842,"सरासनस्रा</w>":8392,"व</w>":140,"होआखै</w>":8384,"आलेजों</w>":9220,"बिथ":4145,"बैदिनखालि</w>":14851,"मावमोनथायखौ</w>":23680,"chara":11713,"फरʼ":28188,"सनबाय</w>":20083,"वसै</w>":28366,"गथʼसा</w>":24460,"गाग्लोबनायनि</w>":7639,"लोगोसेनो</w>":13406,"स्राङाव</w>":19868,"खौसो</w>":1578,"सोलि":2178,"मिथिखो</w>":23911,"सायखङा</w>":13995,"बुंबोनाय</w>":16502,"अर्दार</w>":17851,"लासि":22251,"साखाथियाव</w>":3102,"ʼर्":21760,"दुयारी</w>":8426,"बिप्लब</w>":13979,"साखʼन्द्रा</w>":14008,"गिफ्ट</w>":23060,"बाहागोफ्रा</w>":24896,"प्लीज</w>":27282,"जोहोलावफोरा</w>":20670,"ौ</w>":141,"धुप":25323,"eld</w>":20721,"एमनि</w>":21854,"one</w>":15475,"बिगियान":4460,"नागारा</w>":11500,"नायखं":13041,"खोलै</w>":14613,"बादाव</w>":5096,"गारखौ</w>":23773,"शुक्रबारखालि</w>":18116,"हामबुर":19845,"बिलाइसिम</w>":25136,"बिजिरसालिनि</w>":13515,"खाबुवा</w>":25810,"खुंथाइया</w>":13605,"सिंनिफ्रायनो</w>":17160,"बिबानाबो</w>":24301,"मिटार</w>":6875,"he</w>":14079,"फेरा":23936,"लेबार</w>":11133,"खानायजों</w>":28915,"बारथारबाय</w>":19513,"रोंनो</w>":13571,"ैयो</w>":28483,"न्ट</w>":1708,"बावखुंग्री</w>":23734,"फोरलां</w>":29833,"खालामाब्ला</w>":16541,"मिथिजानो</w>":23912,"ty":18246,"मनानि</w>":28276,"बबेनि</w>":5440,"लुं":9146,"बौ":5294,"साबसिन</w>":2471,"राङाव</w>":8096,"बिगुरजों</w>":15261,"जोनाय</w>":19002,"मंगलबारखालि</w>":10705,"बिदिबादि</w>":5871,"सुबिधा</w>":12685,"लाफोरा</w>":14299,"गान्दा</w>":7753,"बुंथिदों</w>":25645,"सारि</w>":1892,"बिफानाव</w>":10499,"टिका</w>":19773,"अनारि</w>":4355,"बेखौ":7768,"साखा":16275,"होदोंबो</w>":29661,"बायखोमा</w>":23306,"ब्र</w>":24108,"नुवाखिसै</w>":26009,"मिन्थिगोन</w>":20734,"सिनिफ्राय</w>":29320,"<</w>":235,"मिथिसʼवा</w>":19652,"बरʼवाव</w>":8264,"बैयो</w>":12184,"भुगि":4551,"थादे</w>":14342,"खौल":23331,"लाना</w>":2831,"जोंथʼ</w>":13224,"ब्रेनानै</w>":20549,"दनिफ्राय</w>":6128,"खारस्लिउ</w>":14782,"mor":11717,"करुवा</w>":27846,"नाजानायमोन</w>":20072,"बिगु":1637,"गारनोबो</w>":23781,"अरुनखौ</w>":8330,"सिगांसिन</w>":25184,"देरहासाद</w>":6707,"जुथि</w>":19384,"सुलुंनि</w>":15159,"आदैयाव</w>":21806,"हेफाजाबजों</w>":17871,"यै":3247,"bodo</w>":21134,"होनायलाय</w>":29627,"बिं":28947,"फंबायखौ</w>":6756,"ब्याव":10491,"इनटारनेल</w>":13639,"दुइसिन</w>":10070,"नादायदा</w>":14058,"मोनफैहां</w>":29783,"ोम":14271,"अनसुं":3864,"जेबायाव</w>":22947,"ab":9477,"मारा</w>":3652,"डार्क</w>":24407,"कासारखौ</w>":14861,"साथामसो</w>":7408,"गाफेरि</w>":29253,"लिरनायखौ</w>":9202,"गावन</w>":16620,"फोथैना</w>":26847,"श्व</w>":8337,"जित":19037,"बेंपार्":7563,"bac":27480,"हुगारबाय</w>":9180,"फाउ":8140,"बानु":18545,"वनोसै</w>":22131,"जुरि</w>":23516,"साइन</w>":24503,"रिय":12875,"ट्राष्ट</w>":11401,"दोमैदों</w>":26358,"गोर्बो</w>":12486,"बेबस्थाया</w>":29491,"जुजिनाय</w>":13776,"नैथियाव</w>":9738,"come</w>":13818,"साथामनि</w>":14401,"गम्भीरसिं</w>":15309,"बैथा":6016,"साजाया</w>":9593,"गिनायखौ</w>":14593,"गानफ्रायो</w>":24600,"गाग्ला":13029,"टारनि</w>":6398,"खाम्फा</w>":9020,"मुकुत</w>":26439,"खोला</w>":4416,"बेनिख्रुइ</w>":9464,"सानफामानि</w>":14651,"लाङो</w>":695,"मावग्रोन</w>":19484,"त्यं</w>":26481,"बेण्डेज</w>":26764,"आखʼ":18279,"एन्टिससियेल</w>":27194,"थांदोंमोन</w>":5069,"दल</w>":7358,"यानोथʼ</w>":19345,"माखना</w>":29041,"गुननि</w>":13132,"सं":540,"वायनानै</w>":22133,"बेजोंबो</w>":29471,"दुखुजों</w>":4037,"आन्द":5026,"गिनाया</w>":9676,"साननायसै</w>":9115,"मानसियाबो</w>":10455,"सोगारोमोन</w>":29704,"जाग्ला":28742,"मायानि</w>":26098,"नोंहालाय</w>":7455,"स्लाय":2070,"गाराङै</w>":9405,"लोरबांथिखौ</w>":21299,"अखाफोरा</w>":13654,"बावदों</w>":3674,"गोर्बोनिफ्राय</w>":25553,"बिनाय":22418,"मरनिं</w>":7032,"बाफैनानै</w>":28569,"जोबो":757,"सेम":14556,"्रा":302,"नां":403,"बुङालाबानो</w>":11452,"नोम्फाया</w>":21210,"some</w>":25893,"के</w>":2390,"बिबारखौ</w>":7595,"नायख्ले":16318,"थैसʼ</w>":10476,"आमा":27710,"जजों</w>":21947,"थफ्लं</w>":22002,"हाखाव":22545,"साथाम</w>":4497,"बाथाव</w>":6143,"दाउबʼ":9317,"दासा</w>":11931,"समफ्ल":15010,"सोङो":29694,"खोनाबाय</w>":3477,"सालाइखौ</w>":14402,"जानायाबो</w>":16169,"तफोरा</w>":28042,"लैथोयाव</w>":26142,"बोनाया</w>":7128,"थादो</w>":6150,"नायबानो</w>":18801,"दंजायो</w>":19730,"हबा</w>":28445,"नायगिदिंनानै</w>":29295,"रामोन्दाया</w>":10098,"माहारि</w>":3236,"फोनांदों</w>":16514,"बाव":481,"हुसे":19575,"लाबोनाय</w>":4026,"गुदियावनो</w>":26904,"थास्लि":11867,"हालाय</w>":3214,"दे":365,"फिसाइ</w>":2779,"समबा":4630,"दामोल</w>":10300,"थांफिनगोन</w>":13179,"हाफाव</w>":29178,"आफादफोरा</w>":9267,"फ्रेमाव</w>":26016,"बिगियानगिरिफोरा</w>":6103,"श्राइन</w>":14002,"जाथाइफोरा</w>":20240,"रʼरʼनो</w>":24961,"मावफुंनो</w>":7012,"ङैबो</w>":16003,"फोरलʼ</w>":22878,"बिनारा":19985,"खेबजुं</w>":24619,"बिगै":28953,"17":8913,"भौमिक</w>":21538,"गान्दे":29229,"औʼ</w>":18321,"जायखार":19443,"बायदों</w>":3367,"नायबाय</w>":2003,"दावरि</w>":19609,"केरेलानि</w>":26921,"एयार":21859,"जागायो</w>":16177,"हाव</w>":2863,"ओलै":14151,"गोरां</w>":11896,"रोजाबै</w>":15694,"स्लि</w>":13489,"जाबावनांगौ</w>":14336,"जिबादि</w>":14563,"समबारु</w>":2688,"ख्राइ</w>":13484,"णी</w>":8477,"जोंदों</w>":9709,"।\"--</w>":16121,"आसानखौ</w>":27740,"बासु":28549,"जिगि</w>":19043,"मंगʼ":12452,"लेबʼरेटरीयाव</w>":7673,"हायनाया</w>":23865,"जाथारैनि</w>":25987,"बुटिं</w>":14475,"खथʼ</w>":18332,"सायना":8286,"65</w>":18201,"कमल</w>":4044,"द्रायब्ला</w>":12528,"फ्रामखौबो</w>":21085,"दाहा":3217,"सिकिउ":12664,"जायालासे</w>":19960,"ओजोंनि</w>":27824,"आंनिबो</w>":19162,"बारग":19504,"बाहेरा</w>":17799,"थिं":1149,"थैनांबाय</w>":23972,"मध्य</w>":20515,"संक":12199,"प्रजे":19781,"sub":13939,"जौगाखांनि</w>":26716,"दुर्जांमोनहा</w>":20984,"खिसै</w>":743,"अरुनाचल</w>":27078,"मंगलबार</w>":17573,"रुबु</w>":8212,"साग्ला":18747,"रानिखौ</w>":28705,"सिया":1148,"इसि</w>":10863,"थाइ</w>":558,"ञ</w>":219,"कसुर</w>":27848,"प्रʼ":14964,"सुबुंफोरनि</w>":4858,"दैख्रं</w>":6009,"बन्दि</w>":28234,"कआव</w>":15970,"दैसायाव</w>":23642,"सिखोन</w>":10291,"प्ले":2909,"साननानैनो</w>":16579,"बिथि</w>":16221,"सिग्लाब":14453,"हायनो</w>":1362,"मासियाव</w>":3608,"लुफाम":23509,"बोहैथिमोनखौ</w>":26927,"t</w>":154,"आसाम</w>":1961,"दासान्दि</w>":5623,"जाहोनाय</w>":7387,"बारलाम्फा</w>":12164,"लाखिनानै</w>":5111,"एरखे</w>":20449,"बुंदां</w>":16500,"सालायनायाव</w>":22524,"असुबिधा</w>":18272,"पेल":24611,"रेकर्डस</w>":26508,"हाले</w>":16292,"पापनि</w>":23888,"गाबज्रियो</w>":7669,"अबंलाव":6093,"henry</w>":21609,"एमाव</w>":4669,"रावजोंबो</w>":6200,"मिटार":11111,"गोबां</w>":671,"प्रशान्तवा</w>":10813,"लुफुंनायनि</w>":18028,"ृष्":4055,"साइखेलजों</w>":21192,"तन्त्र</w>":18396,"हारिया</w>":2153,"हारिमु</w>":2755,"सोलायो</w>":5185,"मोनै":18932,"रानलांनाय</w>":25158,"मोसाहारिनो</w>":11395,"ja</w>":27542,"जालायदोंमोन</w>":25446,"िं</w>":3500,"क‌</w>":21866,"डाइरि</w>":25568,"चेने":15379,"साबखांनानै</w>":24716,"चन्ड":27956,"अररोम</w>":24557,"बिलिरनो</w>":28997,"जाहा":2222,"मारुटि</w>":8378,"जोमनाय</w>":5400,"दैमारीया</w>":15396,"बिथर":22434,"बान":1015,"रावबो</w>":795,"आन्जादखौ</w>":17762,"कुवा":17067,"फोरआव</w>":29828,"खाम्":8113,"मुथिया":13169,"http</w>":21610,"गेले</w>":14734,"नोङो</w>":4156,"मोनै</w>":2927,"दिनखालि</w>":6984,"उदिस</w>":13946,"थांनायथिं</w>":16562,"हान्जासे</w>":25433,"मेलआव</w>":19295,"बिखʼनानै</w>":18686,"दुर्जांङा</w>":26123,"इंलेण्ड</w>":24707,"नोबो</w>":1130,"थोबो</w>":23948,"अबंलाउरिनाव</w>":25848,"युमु":7958,"फेदेरदों</w>":16862,"गोदो":1276,"tion":12393,"राजा":1056,"ओन्दां</w>":15966,"सात":11903,"सिजौ</w>":11031,"बाजारनिफ्राय</w>":15761,"सिननि</w>":9610,"उन्दुब्ला</w>":24491,"फोरबोआ</w>":26591,"स्लाबा":7572,"महेन्द्र</w>":26379,"सानसेबो</w>":11137,"महेश्वर</w>":21154,"जेन":1062,"याथʼ</w>":12098,"थाफैनाया</w>":28861,"कहिध":14047,"जुजिनायाव</w>":25566,"लायखोमा</w>":23384,"अस्ताद</w>":21433,"जाब्लाबो</w>":6558,"रथʼ</w>":4908,"दौब्ला</w>":24731,"रुसनि</w>":19433,"परिषद</w>":17761,"जरै</w>":21952,"नायनाय</w>":4223,"लायाखिसै":24835,"बिखुन":11534,"बोनथुमनाय</w>":26845,"गैयै":9929,"जाजोबदों</w>":28780,"सैथान</w>":23921,"नेथʼ":14888,"उदायै</w>":18309,"जाङा</w>":22316,"फालो":5056,"महन":12256,"होनांगोन</w>":4227,"सिंआ</w>":8733,"आरजिनो</w>":24640,"सोमोन्द":1019,"खारगʼ":8209,"yo":5757,"ब्रि</w>":5213,"सिनै</w>":8546,"....!!!</w>":23492,"बाङै</w>":14288,"खांनायाव</w>":6005,"अमृन":18054,"दावखाया</w>":19614,"मोसाफोरबादि</w>":24766,"फारसेथिङै</w>":13763,"सामफैथा</w>":25072,"इनजों</w>":27763,"गोग्लैयो</w>":2940,"लंनि</w>":28341,"मुक्":7441,"हाथफ्ला</w>":22566,"हिन्जावसो</w>":15130,"मर":5590,"सान्थ्र":12477,"दिन्थिफुंनाय</w>":15021,"गोदैसिन</w>":18107,"लिरजानाय</w>":16878,"खोमाखो</w>":20166,"रायफोर":12083,"जाहाराव</w>":17477,"दों</w>":307,"ई</w>":242,"बाग्दाव</w>":15786,"इटा":6786,"सुखुवाबा</w>":20677,"लान्दा</w>":18569,"फोलावदों</w>":26286,"टमाबो</w>":28009,"जायामानो</w>":8711,"हा</w>":364,"सेबो</w>":1386,"sy":9483,"मेलखौ</w>":14693,"कार्बिआंलं</w>":18072,"सोनारना</w>":26005,"होब्लालाय</w>":29628,"बेद":1241,"मोसानो</w>":13005,"माइफ्रिनि</w>":27267,"जिबौजों</w>":10789,"ट्रेन्सफार</w>":21222,"रन्जित</w>":18158,"लिम</w>":19154,"॰":129,"श्वाहरु":21391,"बोद्ला</w>":19016,"हाथियार</w>":7670,"बोराइनि</w>":9995,"ब्रह्मखौ</w>":12343,"फोलागोन</w>":19117,"please</w>":27210,"संदान्नानै</w>":16843,"जामनि</w>":22325,"बावदिय":23733,"थालनि</w>":12960,"काछारनि</w>":26606,"इमे":27754,"कासारियाव</w>":19601,"बबे</w>":1891,"रंजाफानो</w>":24676,"रमेना</w>":7601,"नङालै</w>":4544,"ैयानो</w>":14270,"मावाब्ला</w>":26588,"छे":10154,"हो":298,"-।</w>":9476,"थखौ</w>":21995,"आʼ</w>":21786,"थोरबां</w>":20494,"मेनेज":15522,"लोङै</w>":4953,"रिमोन्दो</w>":23052,"जिरायनायनिफ्राय</w>":10565,"शंकरनि</w>":10694,"सहैनायसै</w>":15606,"दोनफै":24084,"नायहरै</w>":25558,"दाय":999,"खुन्दु":3854,"सालान</w>":15576,"राखां</w>":14313,"गाछ":29211,"निया</w>":1464,"नला":2520,"com":3483,"nou":9482,"रान्":16156,"आन्दामोना</w>":20628,"jul":14081,"पुर्":15007,"इन्दिरा</w>":25356,"s</w>":171,"जाथों</w>":3905,"नमस्":10173,"राजेन</w>":14314,"थाथे":18618,"नोंथʼ</w>":4711,"फोरमायनायजों</w>":12283,"थाफैनांगौ</w>":26583,"लायाजासेनो</w>":24834,"काखौ</w>":23824,"अरडार</w>":11366,"जानो":5454,"अमर":13625,"दाब्राय":16351,"थुंग्र":6640,"साखि</w>":9592,"लावदाब</w>":13531,"हेक्टर</w>":23696,"गुदु":4512,"मोनहाय</w>":22816,"नखरखौ</w>":13877,"बाहिरा</w>":28599,"थाइफोरखौ</w>":9167,"लांथिया</w>":19334,"सन्नायनि</w>":20769,"डाइट</w>":25567,"ly</w>":15899,"साननाय</w>":2462,"बिफांनि</w>":3807,"आजोला</w>":18288,"आमु":7347,"थरायना</w>":8954,"थियेटार</w>":3331,"फिसाज्ला</w>":2099,"्ला</w>":322,"गथाय</w>":4790,"बासिनि</w>":22231,"जागोन":4589,"आदुंगारि</w>":13999,"सुन्दा":19052,"फैयैयाव</w>":19137,"देनानै</w>":2126,"हुंगा</w>":23804,"इयुना</w>":17449,"इराग्दावनि</w>":5919,"दाननानै</w>":16998,"थिखौ</w>":1020,"बेदर":11047,"जाबि</w>":28735,"नारसिन्नाय</w>":26754,"गल्":15991,"जाफ्ल":11852,"नलाल</w>":25473,"थांखो</w>":5198,"मोनफ्लां":7779,"बुध्दि</w>":12684,"धर्मेन्द्र</w>":15830,"tre":15917,"डाक्":2689,"सोरजियो</w>":14682,"सोराङाव</w>":9639,"बाथ्राया</w>":1613,"रंजाहोनो</w>":24673,"बेंगि":22701,"फुख्रियाव</w>":13269,"सांखौ</w>":29123,"खौबो</w>":637,"गोराया</w>":4268,"डेटा</w>":9895,"बाउ":3445,"बेखेवो</w>":20021,"शकुन्त":28378,"साइटʼकाइ":12732,"गुनखौ</w>":19063,"आखला</w>":6939,"संफ्लनि</w>":21590,"आन्दाखौ</w>":10690,"आफाखौबो</w>":24061,"सत</w>":28382,"गायदे":12247,"कन्ट्रल</w>":7665,"सुरी</w>":16475,"गाइखेरखौ</w>":5004,"काजल":10460,"सम्ब":18497,"अलकायाबो</w>":27179,"आग्राङारी</w>":27192,"मुंमा":13414,"खैफो":1371,"मेकबे":27252,"थेफेनमोना</w>":20355,"माथायनि</w>":29033,"खायखʼनानै</w>":24112,"हमख्रबनानै</w>":26655,"महात्मा</w>":15101,"सुयो</w>":11998,"दुद्रु</w>":15791,"play</w>":21394,"घन्टासेनि</w>":26485,"मावना</w>":9164,"खुनुरु":10757,"संस्कृत</w>":7675,"बावहायनो</w>":14829,"रʼद</w>":17312,"बिनोथʼ</w>":18680,"जʼया</w>":24219,"खुरु</w>":19231,"अलकानि</w>":5906,"दाइरियाव</w>":11446,"मुसलिम</w>":15824,"खैफोद":24923,"लाबोनायखौ</w>":24310,"मारुती</w>":10711,"बुजाय</w>":11948,"भर्":12868,"लांफा</w>":16671,"बारायनाय</w>":9377,"जिल्लानि</w>":2950,"नुजाहैबाय</w>":24854,"बिसिना</w>":5538,"खुर</w>":6888,"फथʼवा</w>":28200,"हां":582,"सोखानो</w>":16406,"मिरु":12021,"खनला</w>":7195,"जंखायो</w>":20699,"बादों</w>":8501,"प्रडाक्":19783,"बलि</w>":28211,"नारायणखौ</w>":26427,"खोनाब्ला</w>":16945,"कुल</w>":10542,"नांग":432,"हासुनो</w>":11588,"खारखाना</w>":19430,"दसेनि</w>":4576,"गुबन</w>":23020,"दाबारʼ":29434,"दोमोन</w>":10387,"नुनायखाय</w>":14723,"tain</w>":8025,"दोरफो</w>":9917,"आ</w>":167,"सुमिलाखौ</w>":15463,"1926</w>":20180,"स्टेप</w>":25193,"fa":15895,"lar</w>":25879,"बारगʼनायनि</w>":20660,"वाया</w>":2648,"हाबाफारिजों</w>":8355,"सरब":9273,"मिज्लिउ</w>":15805,"आफायाबो</w>":10134,"सानथिं</w>":19199,"सोंखारिनानै</w>":21029,"जालांदों</w>":5300,"हरना</w>":23435,"सावगारिया</w>":5676,"thing</w>":24914,"(<":27416,"डलि":28023,"दोबै</w>":13200,"नायहरबाय</w>":4690,"होबोयो</w>":29608,"खामसाव</w>":24935,"गोरोबथाखौ</w>":20554,"बुरु":5802,"अमृ":9905,"प्र":646,"जेबो</w>":602,"बोबोनानै</w>":16453,"गुथा":19059,"नायजाबफोरनि</w>":20461,"चिरु</w>":20424,"मालिस</w>":10994,"लाबोनायनि</w>":15023,"मात्रा</w>":29063,"दबथ":8958,"गोमोरहां</w>":25977,"नायै</w>":2365,"फुवा</w>":6907,"दस्टुर":26780,"li":2279,"बनʼनि</w>":28239,"होबो":8561,"ौआव</w>":28493,"लाहोग्राया</w>":28672,"सेमोन</w>":11090,"मोनाम</w>":19931,"होखो":29590,"बनाय</w>":1501,"फैबावो</w>":23118,"हुसेइना</w>":27259,"मुंखʼनाय</w>":8352,"दागिरि</w>":29396,"डार्ल":19956,"उलाफाद</w>":21172,"केट</w>":3413,"बिगा</w>":28959,"दरलाया</w>":7909,"न्दा</w>":751,"उला</w>":27778,"रांखौ</w>":2470,"नाजादोंमोनब्लाबो</w>":24578,"थेफेनखौ</w>":5119,"डगर</w>":28028,"हारावनि</w>":9599,"गौथुम</w>":8708,"निजो":22858,"सोरांआव</w>":26160,"लाखो</w>":16142,"बाहागोफोरा</w>":20273,"जादो":9564,"नाजायाखै</w>":18537,"खारसन":13271,"नवानो</w>":28144,"मावग्रानि</w>":23674,"सिरिसे</w>":11494,"इलेक":12794,"बाब्राब":17891,"खैफोदसो</w>":24924,"लोब्बा</w>":2916,"टाइट्‌ल</w>":15497,"समावबो</w>":7162,"एप्लि":6312,"बोहैथिनि</w>":7918,"फुंदों</w>":19921,"गिदिरसिन</w>":26801,"भेन्ट</w>":25216,"खेबसेनि</w>":24614,"थारोलै</w>":15734,"बेफु":29456,"मानिफ्राय</w>":10986,"बायखां</w>":23302,"निप्राय</w>":21626,"जत":21940,"अनोब्ला</w>":18265,"दाइरिया</w>":25084,"थियेटाराबो</w>":20642,"गोबांसायानो</w>":20874,"सामलायनायनि</w>":20387,"एंगारनाया</w>":11556,"गोथाव</w>":3911,"हासिस</w>":29197,"सोंखारिनाय</w>":17824,"जान्":5788,"नेसन</w>":23906,"ल्लानि</w>":22123,"नारजा":9315,"ऊ</w>":261,"उखु":4569,"थांफिनासै</w>":19191,"diph":25587,"नुथाय":9711,"थांग्रा</w>":22381,"कलं":5766,"खालामजानानै</w>":16590,"कल्पनामोननि</w>":21553,"गगा</w>":15990,"होसोयो</w>":13819,"सोलोंना</w>":24753,"उरिनि</w>":27780,"जिउमाया</w>":19937,"ओंख्रि</w>":12151,"ज्व":8802,"आरʼज</w>":8732,"फिसाया</w>":2327,"सोफिननानै</w>":29696,"दिखा":29864,"साय</w>":1542,"भेन्":17407,"नांबाय</w>":1934,"बहानिफ्राय</w>":20895,"जोंहा</w>":2424,"सान्दाया</w>":17193,"गोदाय</w>":14935,"लावखार</w>":9862,"दीश</w>":20912,"ब्रानाय</w>":19961,"गिदिंनाय</w>":10644,"बुदारुनाव</w>":21521,"दैमुनि</w>":19463,"ल्दानानै</w>":9206,"राफोद</w>":3385,"मबाइल</w>":8037,"रिफिखांदों</w>":26792,"बिस्कुट</w>":11617,"मुंआव</w>":19808,"दासो</w>":2122,"मुस्रि</w>":2837,"हायामोन</w>":12282,"जुथुम</w>":10429,"एंलरिं</w>":25265,"औलै</w>":18322,"दानथे</w>":17001,"बिर</w>":5958,"दलायाव</w>":22014,"लद्राइनि</w>":28360,"रंजालिया":15140,"नायसन":13038,"बन्दाया</w>":8967,"थबे":21996,"गेब्ला":16680,"teri":26417,"याखौ</w>":23462,"ख्रा</w>":2174,"फोराबा</w>":20150,"इनफरमेसन":8014,"सोलʼ</w>":4150,"उनावथʼ</w>":17882,"मोनथʼ</w>":18937,"रं</w>":3024,"जोबबाय</w>":2198,"आखलाव</w>":9823,"संसा":2080,"सिथारनानै</w>":13915,"थारि":16180,"बुबाय</w>":9053,"थायनै":14822,"रजिया</w>":3647,"गाबज्रिनायाव</w>":13751,"87</w>":18205,"सारअनथाइ</w>":19843,"उर</w>":21829,"खांखुवा</w>":23555,"खुदिया</w>":7143,"बिनांगोन</w>":28964,"इराग्दा":20193,"वर्ल्ड</w>":8911,"नालʼ</w>":28515,"टालाव</w>":10450,"इनायाव</w>":27756,"बिल्दिं</w>":17725,"बोरैबा</w>":2821,"खोख्लैहरनानै</w>":20851,"गुथाला</w>":23023,"[":32,"लायोमोन</w>":10407,"उदैया</w>":10137,"रामोन्दानि</w>":21254,"सिर":4817,"बुंनायाव</w>":9092,"रायज्लायदों</w>":11468,"लाखि":1036,"थांसʼ</w>":19181,"बेखेवगोन</w>":20023,"गोथों</w>":5611,"निब्लाबो</w>":18972,"लानाङो</w>":28636,"निस्थार</w>":5746,"मुखʼ":23142,"फरायसुलि":13382,"सेव":5983,".\"</w>":10103,"जेंना</w>":2276,"त्त":3958,"फोरमायथिनो</w>":9822,"मन्जु</w>":5698,"खाइसेनि</w>":25809,"फाहामसालिनि</w>":11453,"ट्राइबेलफोरा</w>":26222,"रीयाव</w>":4100,"काप":4341,"लायनायाव</w>":3928,"थासारिजों</w>":13924,"सिखावफोरनि</w>":17703,"गोजायैनो</w>":18722,"दागा":29378,"गलाफ":6084,"कल्पनायाबो</w>":11357,"बैसागुनि</w>":9952,"लैनो</w>":12882,"बेरखांदों</w>":3324,"गायदां</w>":24104,"वाखि</w>":23406,"लोङा</w>":4521,"लोगोआ</w>":8260,"मिनिया":14598,"!":2,"खांब्ला</w>":6389,"गोबाय</w>":14383,"गेना</w>":19347,"हारिमुवा</w>":11358,"संक्रान्त":26920,"मीनारामनि</w>":13674,"फख्रिनिफ्राय</w>":28203,"मादावनो</w>":10255,"फैमारबाय</w>":23135,"......</w>":1991,"..,</w>":22884,"एसे</w>":719,"सान्थियै</w>":25374,"बुरैनि</w>":10691,"दोमैलो":21143,"फैब्लाबो</w>":23110,"रामायन</w>":26782,"गावस्रा</w>":13204,"फोरमायनायखौ</w>":17009,"तामुलपुर</w>":18167,"स्टार्टखौ</w>":21472,"साया":1091,"ल्ला":12878,"गोबा":1258,"सेरजानि</w>":9920,"जाखांनायनि</w>":8104,"गोदोनाखौ</w>":17276,"लाद्रा</w>":18579,"जिंगा":13805,"थिन्नाय</w>":13110,"नं</w>":3345,"नोमाया</w>":16567,"फान्दाय</w>":29579,"दैरं</w>":23648,"दंबाबो</w>":24051,"दयारामा</w>":9915,"मानि</w>":526,"सालाद</w>":22525,"बोसो</w>":22919,"बेमा":5482,"बैखालि</w>":23813,"दरलायनि</w>":8418,"फालिखौ</w>":14485,"नांलायनाय</w>":9142,"गागोन</w>":18776,"खाराखैमोन</w>":28935,"सानग्रा</w>":16572,"logue</w>":18170,"बिगोमानि</w>":11640,"इन्टारनेटाव</w>":25980,"कमपाउन्दनि</w>":27009,"मप":18457,"मेनु":16636,"दिस</w>":16442,"ल्दाय":24032,"गावसोरनो</w>":10040,"सफैबायानो</w>":21123,"बिथिङै</w>":14362,"थादों</w>":2500,"इन्दिस्रीनि</w>":20566,"जेसेखि</w>":8353,"थफ्ल":28063,"bs</w>":18213,"litera":21635,"केजि</w>":13352,"जाब्र":6557,"आय</w>":4382,"लेब</w>":8592,"समजों</w>":11301,"जालायनाय</w>":10228,"फैया</w>":2737,"होन्नायाव</w>":25147,",\"</w>":21653,"जोहोलावफ्रा</w>":20671,"बहाय</w>":9522,"जोबबायमोन</w>":23771,"दावबायनो</w>":9185,"बिसिनि</w>":4115,"बानाइसो</w>":18184,"बिनो</w>":1724,"थाखोमा</w>":12967,"गेव":2079,"फोरनिफ्रायनो</w>":29830,"केन्द्र</w>":23929,"फुननानै</w>":19416,"कम्पिउटारखौ</w>":4556,"मोनथि</w>":14505,"दायया</w>":20108,"फोरजाया</w>":14527,"फ्लायो</w>":10559,"दलʼ</w>":28089,"॥":128,"टास्कबारनि</w>":27163,"नुजाफैनाय</w>":15205,"अफिसारनि</w>":20564,"सोंहैबाय</w>":24119,"फु</w>":2829,"एरसनग्रा</w>":27285,"लोंदों</w>":7182,"2001</w>":24906,"खोमाय":23103,"दैखौनो</w>":13293,"थिनब्ला</w>":17258,"मिथिनानै</w>":5086,"ग्ला</w>":2238,"थानानै</w>":1533,"गिरिमोननि</w>":20008,"हाथर</w>":11913,"हाखाया</w>":29179,"सान</w>":1004,"मोगथाङारि</w>":15840,"अन्त":21772,"रिखौनो</w>":14587,"बुंलांबाय</w>":14601,"फास्ट</w>":16386,"लानायबादि</w>":28640,"बाइयाव</w>":24726,"नायगिरनानै</w>":12478,"गाव</w>":589,"गिदि":689,"दानि</w>":1324,"रोदाया</w>":19403,"बिसोरनि</w>":1002,"नुथायफोरा</w>":21349,"जोंरुहा</w>":12637,"नोंसोरनाव</w>":15266,"बिगुरखौ</w>":25104,"बेबिसार</w>":29478,"ख्ला</w>":3893,"इन</w>":2133,"मोनजागोन</w>":16413,"नांबावगोन</w>":16687,"बिमाय</w>":12985,"साइके":1693,"पुरनिफ्राय</w>":19861,"मिथिब्लाबो</w>":23910,"फोरोंदों</w>":24975,"लायोब्ला</w>":6190,"जबनानै</w>":4477,"थान्दै</w>":4143,"नखरा</w>":13619,"जाफ्लांब्ला</w>":27349,"noun</w>":10099,"जेसेबांखि</w>":15326,"रायज्लायनानै</w>":25258,"फटʼखौ</w>":6481,"गोराय</w>":22480,"सिगारेटनि</w>":20713,"गावखुंथाइयारि</w>":19263,"लिरगिरिहा</w>":21219,"बराव</w>":22057,"श</w>":180,"सीनि</w>":16111,"फावदु":5218,"गोदाना</w>":6025,"बोखांदों</w>":22927,"नगरनि</w>":28157,"सुखु</w>":3462,"मेनेजा":13834,"फोरनोबो</w>":22880,"नोरोम</w>":26957,"उन्दुबाय</w>":6950,"बाग्":9554,"बिमाया</w>":1588,"भुमका</w>":27002,"सादोर":14396,"दिन्थिदों</w>":4632,"शर्मि":17877,"(-)</w>":27417,"गालांनो</w>":29226,"ं</w>":151,"फोरबायदि</w>":29829,"गोनांफोरनि</w>":13550,"थाग्रा</w>":3355,"नार्भास</w>":17441,"बुथारग्रा</w>":15291,"दोबो</w>":23296,"बिदिब्लाथʼ</w>":15055,"गंग्लाय":13896,"मारब्ला</w>":24592,"आरतिनि</w>":8013,"ue</w>":27607,"स्क्रि":7597,"अनखांबाय</w>":23872,"सिनिजों</w>":22654,"फोजोबनो</w>":4878,"साख्रियाव</w>":29136,"ट्राक</w>":4357,"हाखर</w>":5967,"समबारुनि</w>":11604,"खुलुमबाय</w>":6461,"दुन</w>":19277,"ब्रायनि</w>":26118,"मोनगासिनो</w>":9641,"सरकारजों</w>":25570,"chan":21184,"लान्थानि</w>":22288,"गोबा</w>":4686,"ope":18241,"मलेनबादि</w>":26288,"बाफोर</w>":2088,"दिसि</w>":29869,"गोनोखोआरिफोरा</w>":7326,"लथर</w>":10190,"मुर्":9103,"स्लʼगान</w>":12711,"मबेबा</w>":6543,"नायहरनो</w>":18804,"सालाफोर</w>":11600,"बेनोदि</w>":8397,"फुंखा</w>":4982,"थियो</w>":2495,"थावसिन</w>":12275,"दाकातफ्रा</w>":21428,"याबा</w>":19343,"हाग्रामा</w>":8840,"गायसंनो</w>":24105,"मेब्ला":10396,"मुलाम":8376,"दिंफोरखौ</w>":20796,"जोबोद</w>":1033,"बुन्दि</w>":9056,"पाब्लिकेसन</w>":15608,"देन्था":23282,"फागुन</w>":18890,"क्लासाव</w>":15383,"गोर्ब्":15364,"लाबोनायाव</w>":24308,"दिहुनजा":24550,"फेननि</w>":23938,"sign</w>":27294,"थाफ्लायो</w>":28883,"सनै</w>":8983,"बरʼफोरजों</w>":19862,"नांथाव":23485,"बुंफिनबाय</w>":11115,"खेला</w>":10445,"एखम्बा</w>":21481,"नाङारि</w>":25621,"भकता</w>":17685,"थालाङो</w>":12959,"फैखोमानानै</w>":23127,"रांनि</w>":2120,"रिन</w>":16487,"हगारा":28456,"लाभ":28601,"नंबाय</w>":17076,"खायावनो</w>":21899,"थुलुंग":25052,"आर्य</w>":12515,"हावानि</w>":22561,"थालायनानै</w>":28838,"सुस्रांनो</w>":8394,"शिब":7615,"होनायबादि</w>":22778,"मर</w>":28264,"डिभाइ":20005,"लांदां</w>":4086,"सिरिनाय</w>":11493,"उन्दुलांदों</w>":24495,"उग्र":15957,"लाखानाय</w>":16144,"बागुरु":22240,"दनो</w>":9513,"कन्ट्र":11621,"जासे":22314,"असभ":21782,"सावथुन</w>":12214,"als</w>":20836,"हाथेरखौ</w>":26841,"खानाखौ</w>":16210,"ʼबो</w>":27634,"गोबाब</w>":9888,"लुनोबो</w>":23508,"दिनालाय</w>":29880,"गासो":29214,"मारिबाय</w>":25737,"गगन्द</w>":11572,"फोथायनाया</w>":20351,"cu":21696,"फारे":11952,"lan":15901,"ायबाय</w>":7378,"n":49,"जोंखां":12086,"डम</w>":21982,"बिहाबो</w>":11881,"बिमाइखौ</w>":26497,"मेंग्ल":11167,"जाइलि</w>":7627,"रान":1723,"123</w>":18193,"गमा</w>":18342,"practical</w>":12727,"ental</w>":21513,"हाजोयाव</w>":25499,"तीया</w>":5774,"थायालै</w>":24956,"एडभ":21136,"थैखांनायनि</w>":16873,"नोगोरफोराव</w>":25482,"बरʼफोर":16972,"सायख":8285,"जोब्ला</w>":22905,"दावा":29383,"मासावनो</w>":29062,"रनिफ्राय</w>":2859,"बेरखां</w>":5110,"दोंगो</w>":8602,"खेंसालियायै</w>":27309,"स्टिल</w>":26402,"न्था</w>":1206,"बाथि</w>":5164,"बोखांनानै</w>":6603,"फावथाय</w>":19586,"मोनदांथिखौ</w>":25956,"गाजा</w>":4401,"हाराम":7750,"फाफ्लियाव</w>":4131,"फरायथि":16889,"गांगु":22591,"बिसारखौ</w>":11888,"समायखिरा</w>":13598,"खसाब</w>":12814,"हामनाय</w>":9224,"लानानै</w>":527,"होबथानो</w>":10725,"बाग्दाव":3833,"लाफैयो</w>":28618,"56</w>":18195,"होज्रि":18906,"नायलाय":29268,"थिंबो</w>":9298,"रिल</w>":23037,"थैहाबनानै</w>":23969,"फारसेथिं</w>":3889,"दखरानि</w>":26097,"स्क":1853,"इथ":27745,"15":4895,"बेलस्रीया</w>":24729,"चल":27944,"न्थाय</w>":29260,"बिहोमा</w>":3337,"बेखायनो</w>":2701,"मावफुं":3620,"खʼनायाव</w>":8670,"]":34,"97</w>":21683,"बाथायाव</w>":13275,"'":7,"दैमाखौ</w>":23643,"ियानि</w>":16711,"जाहाद</w>":12476,"ज्लाया</w>":5105,"नेसारेल</w>":27060,"नायखौलʼ</w>":14435,"गोमोबाय</w>":7564,"फ्लायबाय</w>":24603,"माहारी</w>":16967,"फ्लपि</w>":20092,"दोनथुम</w>":24094,"अना":1059,"हासै</w>":22538,"गस":18338,"बावनांगोन</w>":23728,"खुन्थिया</w>":12063,"बथिं":28231,"सानस्रिखौ</w>":10380,"मानसिफोरनि</w>":3527,"बारां</w>":18550,"हायाबाबो</w>":19899,"रंजानाय</w>":3116,"मोखांफोरखौ</w>":20334,"दङना</w>":24740,"आदा":2641,"पाटिला</w>":17866,"नोंथाङालाय</w>":17785,"ई":72,"गावथार":4519,"लाब</w>":5296,"फजनानै</w>":11779,"हानायमानिखौ</w>":20953,"आनजादनि</w>":9928,"सान्थि":22509,"हान्":1832,"लायाखैमोन</w>":20248,"सुबिदा":22996,"बेसेदि</w>":7892,"फ्लʼ":24601,"मोखो</w>":18725,"सानस्रि":6373,"मेहेर</w>":12081,"मेसेंनि</w>":21055,"लांगौ":28668,"गोलाउ</w>":4593,"cal</w>":7677,"नʼखरा</w>":17489,"थिवा</w>":29843,"खर":669,"मोनहैदों</w>":29752,"माहि</w>":9027,"थासारिया</w>":10056,"थारनो</w>":3621,"थुखि</w>":19396,"थङै</w>":28061,"स्राइ</w>":13438,"भाषा</w>":16996,"थक‌</w>":22004,"नु":392,"सोआनो</w>":29691,"स्कि":12141,"लागाव</w>":18566,"सुबुंसाइ":9832,"खासै</w>":18655,"खात</w>":18652,"सिना</w>":1606,"try</w>":21751,"सिङावनो</w>":7114,"दैमारी</w>":9970,"बेनोथʼलै</w>":25990,"मोब्लावा</w>":6480,"एयार</w>":21857,"गियानि</w>":9881,"हौवानि</w>":6267,"आजार</w>":21803,"मोनदा</w>":18935,"सेप्तेम्बरनिफ्राय</w>":13836,"खामसालिनि</w>":15227,"नायजाबफोरा</w>":12437,"बावगोमा":19527,"सिगिख्रं":22645,"अख्रां</w>":3380,"फर्म</w>":15647,"फिथाया</w>":14583,"on":3286,"सोदोबनिफ्राय</w>":24523,"मोगथाङा":12507,"मिनिनायनि</w>":24337,"फोथाराव</w>":4079,"इरिगे":21828,"एले":10139,"खʼरʼ":24005,"दाहुना</w>":18161,"क्रिं</w>":10773,"आलाइस्री</w>":19939,"ैब्ला</w>":4485,"दोनब्ला</w>":13397,"फ्रा":363,"आथि":866,"दैथायहर":25993,"थागिरि</w>":16186,"जासिन</w>":14322,"ओंखारलांनो</w>":12241,"गुमैया</w>":6872,"गुवा":1104,"दुर्गा</w>":7321,"गौथुम":7205,"ग्राखौनो</w>":24035,"जावलियानि</w>":10805,"हार्":1584,"दासान्द":11042,"बोसोन":11514,"ओंखारबोदों</w>":9209,"इन्सपे":9902,":\\":8437,"जाथाइखौनो</w>":17253,"ilogue</w>":21722,"y</w>":170,"ash</w>":25702,"नालेनि</w>":17861,"गावथʼ</w>":14678,"जिनाय</w>":10345,"आदब</w>":3626,"नʼ":640,"गान्धी</w>":13960,"दिल्लीया</w>":15294,"बाहायोब्ला</w>":19981,"बासि</w>":9551,"सिंआव</w>":3915,"हुरागासे</w>":15856,"लिंहरामोन</w>":17185,"जोहोला":12384,"सैथो</w>":3317,"फरायनायाव</w>":8252,"बोथो":4700,"होफा":18893,"ट्राष्ट":24819,"बोन्दों</w>":29946,"फावखुंग्रि</w>":16819,"दुगैस्रां</w>":20727,"गिजि</w>":14594,"हास्थाय":3587,"स्लाबै</w>":15234,"टिक</w>":2937,"मत</w>":8972,"बिमानो</w>":10244,"मोनला</w>":11967,"\"....</w>":12735,"एग्रि":27811,"ढ</w>":256,"एंगोनाया</w>":14013,"बेखेवनाय</w>":9264,"जालायखो</w>":7617,"गदे</w>":27901,"खुलु":1607,"बिबाजैया</w>":21323,"लाइन</w>":2271,"फिननाङो</w>":24039,"जालांब्लाबो</w>":25480,"narrative</w>":27315,"दोनफिनो</w>":16914,"राम</w>":568,"नाङै</w>":2474,"ep":6506,"सोमखे</w>":7194,"युमुना</w>":8902,"अमर</w>":13626,"थानोसै</w>":11863,"3</w>":181,"जʼ</w>":2317,"उसु":14141,"nat":15905,"जोबोमोन</w>":24369,"सनावबो</w>":28427,"7th</w>":21678,"क्टरनि</w>":10618,"डेस्कटʼप</w>":27027,"अक्सिजेन</w>":17628,"खबरदार</w>":5416,"नायगिरदों</w>":9372,"हाउसाव</w>":9401,"सरला</w>":11372,"गरिनि</w>":18351,"जेन्नाय</w>":7786,"आसथामखौ</w>":17740,"जाया":800,"सालि</w>":1893,"दारिया</w>":9046,"उजिदोंमोन</w>":25238,"गोनांथिखौ</w>":9872,"क्लʼडियासनि</w>":27105,"नोंनोथʼ</w>":19207,"ople</w>":14087,"खागौ</w>":14349,"दाननो</w>":7895,"जर्ज</w>":10809,"द्राया</w>":13506,"नन्दʼनि</w>":17852,"एमबु</w>":17608,"फुंखा":13458,"बोखां":22920,"्रिफाइ":13391,"4th</w>":21669,"खेबसेयैनो</w>":24618,"स्री":4334,"गावनायबादि</w>":23325,"mer":12757,"हाबहैनो</w>":19606,"गिथाव</w>":5325,"दाइरि</w>":9916,"बेरो</w>":22690,"हेफाजा":3957,"गस्ला":6316,"ाय":264,"मावजा":16762,"जौमोननि</w>":6926,"जिउनिफ्राय</w>":19936,"फरायसालियाव</w>":4101,"दोनगोन</w>":24083,"मोनथार":8148,"सिलारामा</w>":11513,"थियेटाराव</w>":15397,"लागोन</w>":3027,"लीया</w>":6811,"केरिया":14896,"फ्रोम</w>":5714,"खारन":16721,"गोमोरो</w>":24882,"गिलासनै</w>":25663,"आखान्थिनि</w>":24292,"चार्टिफिकेट</w>":27405,"नरि":28125,"गोथावसिन</w>":29082,"फरायदों</w>":9779,"दानागार</w>":29432,"मेगननिफ्राय</w>":4262,"रादाया</w>":28698,"लांगोना</w>":6993,"गोबाङै</w>":24850,"gu":3490,"सुथुरनिफ्राय</w>":11460,"मोख्रानि</w>":16270,"रिक्सा</w>":7650,"रदʼ</w>":14238,"अस्थाद</w>":21432,"काता</w>":23830,"मेलनि</w>":8603,"बेहे":18853,"06":27423,"बेदि</w>":3845,"हमहै":19534,"मुग</w>":14618,"q":52,"थफ्लाफा</w>":26828,"जादोंलै</w>":28788,"थिम</w>":4507,"इस्लारिया</w>":12679,"आइजोफोरनि</w>":11491,"अभारटेक</w>":26770,"साफ्रोम":16285,"डेलखौ</w>":20280,"तʼ":21988,"आवारामा</w>":15454,"अरफे</w>":17120,"खामा":18653,"बखालि</w>":28222,"सोबाज्रा":29705,"बाटन</w>":10020,"खावयै</w>":24286,"बिप्लबनि</w>":21204,"ओंखाम":12269,"ending</w>":27284,"सैमाखौ</w>":11250,"थालांदों</w>":12965,"गय":2354,"लांहिननि</w>":27375,"बिसायखʼथिनि</w>":15636,"सामार</w>":29127,"खालामनाया</w>":4607,"फोनो</w>":23093,"आइजें":17014,"मि</w>":1682,"समन</w>":24269,"हरनो</w>":1701,"जति</w>":27976,"मोननिबो</w>":29728,"जिउगोनां</w>":17038,"थाकि":28830,"बेदिंखौ</w>":21346,"सोदोबथि":15095,"खोमोर":7646,"थन":9511,"\".</w>":21647,"हार्सिं":20381,"हाखर":11911,"राहागिरि</w>":15477,"सुये":22990,"बाइकाव</w>":17208,"खदा":21883,"होफै</w>":11957,"गैलियामोन</w>":14749,"scene</w>":18120,"आच्छा</w>":5567,"आइटेमखौ</w>":26990,"।....\"</w>":28500,"लेमखौ</w>":23175,"नʼपथि</w>":27171,"टेबिल</w>":5263,"जाखाङो</w>":7388,"हाबहै":5667,"मोसो</w>":29088,"रैमा":19676,"ery</w>":25171,"आमुखाया</w>":15726,"हादुं":16294,"cruel</w>":18123,"फाथि":22745,"फोजाखां":23096,"फाया":3346,"फाबा</w>":8559,"मेनु</w>":11166,"लिरनानै</w>":2782,"फालांगिरि</w>":9919,"you</w>":6108,"सानोमोन</w>":9596,"anc":25207,"बैसागि</w>":9951,"बेफारिफोरा</w>":20827,"एद":15960,"रुमे</w>":15552,"राया</w>":5780,"राङा":6556,"अनसेमा</w>":23880,"गेदाइया</w>":12721,"?)</w>":11708,"नायलांनो</w>":18803,"सिलाइनि</w>":14452,"सिन्दुकाव</w>":25858,"आन्दा":2518,"केसनि</w>":11252,"नाम्बार</w>":8988,"आलावरि</w>":27741,"खालामनायबादि</w>":19220,"पिसासा</w>":26996,"गन्":27884,"जानायावनो</w>":22345,"गेजेरनिनो</w>":25798,"यैनो</w>":3098,"नांलाय":9141,"लिरगिरिनि</w>":5089,"गोख्रोंङै</w>":26265,"फोरोंनाय</w>":8773,"क्लिनि":21361,"सेनिनो</w>":19030,"खरʼखौ</w>":3629,"बिबोनां</w>":9455,"मन्दि":9844,")":9,"हेमलेटा</w>":6994,"लाबोना</w>":19882,"बिखा</w>":1413,"दालाजों</w>":20954,"ण्डा</w>":9882,"अखा":1668,"फाल्ला</w>":11059,"ड्‌":28026,"सान्थ":2224,"भर":14225,"भेला":20477,"खोख्लैहरदोंमोन</w>":25866,"मेलाखौ</w>":16640,"्‌":1703,"बायनालाय</w>":13202,"सायखʼ":3146,"जोगार</w>":22910,"आमेरिकानि</w>":7019,"नंगौना</w>":10018,"बिलुबै</w>":29006,"ोब्लाबो</w>":14272,"लाग्रो":7086,"आलमारि":20503,"दाबाव</w>":5480,"गाफै":22575,"फुख्रिनि</w>":19418,"नागिरदों</w>":2488,"आहमे":10817,"र्पा":19273,"हागौदा</w>":25855,"आनै":21791,"थावि</w>":24294,"बियोब्ला</w>":28986,"बैसागो</w>":15339,"थव":28052,"हांखोआ</w>":6703,"लाफा</w>":8995,"नायब्ला</w>":4066,"रायज्लायनो</w>":7150,"थान्दै":21125,"बन्दा</w>":28223,"ders</w>":27500,"थानानि</w>":6151,"आइफोर</w>":10518,"सागुलुन्दि</w>":26785,"गवाल":11757,".................</w>":17020,"खांख्ला</w>":13263,"ग्रां</w>":7503,"खामानियाव</w>":2557,"असमीया":20568,"लाजोबदों</w>":22283,"जेइ":16457,"बेलासे</w>":4455,"हाखराव</w>":6296,"बरʼफ्रा</w>":9230,"हेलʼ</w>":23694,"यु":1616,"जारिमिनारि</w>":2601,"हामथारबाय</w>":19846,"ऋ":75,"रामनाथ</w>":3887,"गाग्लोब</w>":15336,"होफै":7122,"जिराया</w>":25921,"सोनाबारि</w>":15337,"सावगारिनि</w>":16864,"गाब्":19741,"हान्जा</w>":3382,"जिया":4673,"ण्डनि</w>":3192,"फुरि</w>":14774,"कम्पानि</w>":25998,"खुलुम":1817,"रजं</w>":18472,"हाजार":5474,"राजि":28683,"मिलिटारि</w>":7014,"हैनाया</w>":14769,"फुनै</w>":23561,"गयस्रिखौ</w>":25404,"रियाया</w>":14241,"सारफोरखौ</w>":19842,"गारां</w>":1269,"केडारफोरा</w>":17985,"जोंबो</w>":1601,"ङावसो</w>":12134,"मारजित</w>":3373,"!..</w>":27409,"थां":353,"आलासि</w>":2218,"बरदास्ट</w>":19367,"फिसौ</w>":2422,"फिसाफोरखौ</w>":5357,"सुइसाइ":6485,"root</w>":13745,"लाजि":1363,"गावसोरनि</w>":3368,"साखाफारा</w>":12730,"गराइ</w>":14171,"ना":262,"सानराय</w>":3615,"cli":11712,"वर्ल":8488,"खालामफै</w>":23250,"गोरा</w>":992,"थोंनैखौबो</w>":24907,"सोंदों</w>":6216,"थाबोलाबो</w>":26685,"et":15894,"गोन्दो</w>":22487,"गोदोनाया</w>":20259,"सायखʼनाय</w>":10719,"हखाय</w>":28449,"गासा</w>":13027,"हासʼवा</w>":18772,"जन्त्र</w>":27992,"बिदैखौ</w>":10247,"दलाम</w>":18415,"मेमʼरिया</w>":25840,"मोनसा</w>":29713,"कार्पे":20831,"फʼनजों</w>":20576,"इयुनाव</w>":6271,"हासिल</w>":16301,"समान</w>":2463,"सुफुंथि</w>":15368,"बारखालि</w>":3471,"हांखोनि</w>":3424,"नोरखो":17931,"क्साव</w>":19691,"न्डा":22600,"सुबुङा":8163,"ओनसोल</w>":12460,"कम्ब":14157,"रड":28296,"स्लाब":11428,"भ्राम्यमान</w>":21577,"सौफै</w>":19969,"राहाबो</w>":10951,"सलʼमायानो</w>":14877,"अब्लाथʼ</w>":21779,"सांग्रेमा</w>":15789,"टिकिट</w>":24137,"मानसिजों</w>":4251,"फैयो</w>":736,"ीजों</w>":8085,"जोबदो</w>":19550,"रांबो</w>":19923,"एम्बुवा</w>":7312,"नोंसाजोखौ</w>":21038,"दैज्ला":9162,"साली</w>":6575,"असिला</w>":12619,"सिलिं":4818,"जथाय</w>":6317,"जारिमिननि</w>":5571,"गिरिनि</w>":1861,"आलियाव</w>":14109,"क्लका</w>":25364,"े":122,"लायला</w>":23381,"बिनाराममोनजों</w>":21273,"मतखौ</w>":22094,"बुगासिनो</w>":22721,"रामोनदा</w>":21441,"मोनसै</w>":16409,"गोथार</w>":1882,"कखौ</w>":2315,"खानाइखौ</w>":5743,"जानिफ्राय</w>":14319,"गोमोरनो</w>":24886,"अरायनि</w>":4372,"फोरोङो</w>":12713,"रागा":7723,"फैसा</w>":5640,"ले":352,"सिनि</w>":1450,"दौला":20187,"बेसेना</w>":9233,"खोन्थाखौ</w>":26738,"फेस</w>":12211,"इउ</w>":2581,"बिहारी</w>":13739,"दाबा":6164,"सेमानि</w>":5637,"मोसादों</w>":10582,"जेड</w>":22938,"बोनायनि</w>":6175,"मखि</w>":8484,"सालिखʼ</w>":24630,"गोमोदोंमोन</w>":24883,"टेम्प":16906,"थनाय</w>":28056,"बुंजायो</w>":3613,"नबेल</w>":28142,"थिंगिनिया</w>":13969,"ला</w>":397,"रायदों</w>":14697,"एन्ट":27809,"ज्लित</w>":25816,"मानोखायनि</w>":19880,"मावा</w>":4925,"रायजो</w>":5996,"मेम्बर":8604,"आबै":4384,"जेनि</w>":22939,"डनि</w>":4574,"बारनो</w>":6201,"जानगाराव</w>":7982,"खालामहै":13188,"जायाखैब्लाबो</w>":15054,"मिजʼराम</w>":27248,"न्थियाव</w>":8238,"सोआ</w>":14498,"सानगासे</w>":23218,"सलʼफोराव</w>":9762,"आंलाय</w>":3109,"दोआव</w>":16613,"खेव":769,"बोगासिनो</w>":5811,"स्टा":2809,"बिलिदनानै</w>":12327,"सिखांनो</w>":13050,"नुग्रोनमोना</w>":23433,"अखाफोरावनो</w>":25118,"रोखोमै</w>":5131,"खनखौ</w>":27867,"लालै</w>":12927,"साख्रा":29113,"थोननाय</w>":20848,"सेनि</w>":1344,"एफ</w>":2983,"नाथि</w>":16124,"फोरलाब</w>":29837,"आलो</w>":2981,"गाफा</w>":16303,"नायबाय":22606,"1980</w>":9381,"सोमजिया</w>":24186,"सानानै</w>":10263,"फोरनिबो</w>":11976,"गानग्रा</w>":11374,"गुजुनाय</w>":17804,"सेबखांनानै</w>":13812,"ग्रीमउइगा</w>":8409,"जोबनायखौ</w>":23765,"पिरामि":17089,"नैनो</w>":7166,"de</w>":12750,"रामा</w>":920,"खांलायबाय</w>":23552,"बʼबा</w>":24927,"ैनो</w>":814,"सौखे</w>":24427,"सानैनि</w>":4028,"ष्ट</w>":1876,"शशांक</w>":27225,"आवाजा</w>":20715,"ृतिक</w>":28480,"आइनखौ</w>":24352,"थानायाव</w>":2652,"स्लगानजों</w>":18169,"मुवाफोरबो</w>":25141,"अफिसारफोरनि</w>":25355,"अनसाय":4252,"गेलेनाया</w>":13578,"fol":27517,"सानस्रियाव</w>":11669,"बसुमातारीनि</w>":27067,"lun":27553,"थांनोसै</w>":2423,"थारोनो</w>":26543,"िब</w>":16116,"श्":1519,"केमि":12208,"लुबैयाब्लाबो</w>":21179,"दैदेनगोन</w>":24998,"रुबैजों</w>":12131,"बारा":1503,"आवगायनो</w>":24540,"उनथिं":20398,"सान्दोंमोन</w>":4449,"फाहामथायनि</w>":5251,"सरथे</w>":17134,"सौग्रा":4178,"42</w>":21668,"बाखनायनाय</w>":15586,"रानाय</w>":22293,"राइजो":687,"सोमावसार":1678,"बिसार":28963,"जोमनानै</w>":15322,"खारिनि</w>":28905,"बिसोरजों</w>":5367,"सांग्राङै</w>":20384,"बिल्डिं</w>":10777,"लर्":28335,"लोगोजों</w>":9218,"खिथा</w>":7476,"जोबब्ला</w>":8649,"बाथो":16729,"खालामलाङो</w>":23248,"फागासिनो</w>":29554,"थिली</w>":29849,"गसाइखौ</w>":25984,"दादि</w>":22661,"जाथियाव</w>":28740,"एचियान</w>":27215,"जाम":4803,"बुदां</w>":10309,"ओह</w>":27821,"अक्टʼ</w>":12538,"सानगोन</w>":5822,"/":15,"}":63,"गुमुरखौ</w>":9416,"हेमलेट</w>":6738,"गेटफोरा</w>":26911,"मोनजायो</w>":6862,"आवाति</w>":17596,"बादिखौ</w>":11323,"ss</w>":27583,"माउजि</w>":8383,"फ्रामबो</w>":2805,"यार":12095,"जौमोना</w>":16894,"लाब्लानो</w>":14306,"रावखान्थिनि</w>":23685,"अबथिरानो</w>":15641,"इन्टारनेट</w>":9424,"गावसोरखौ</w>":16625,"दुखु":1077,"1989</w>":25490,"सखौबो</w>":12895,"खोनागोन</w>":14972,"सेरेब</w>":21142,"बामनानै</w>":28580,"मानोथो</w>":2670,"सुइस</w>":16477,"खोलाहा</w>":8879,"हंख्र":15613,"हारसिं</w>":3087,"हंखा</w>":18511,"नन्दʼखौ</w>":21080,"खामानि</w>":1190,"हागोन</w>":1394,"गिलिदै</w>":25415,"जात":2650,"बाजिलांबाय</w>":20383,"लिनि</w>":1543,"हांग्र":18767,"फावथाइगिरि</w>":5103,"रावमोन</w>":19485,"जोंफुनाय</w>":23399,"कनष्टे":11561,"हायैनि</w>":4844,"बक्स</w>":12866,"सनि</w>":987,"्रल</w>":4499,"नोजोरजों</w>":5880,"af":11709,"पुलिसफोरजों</w>":17634,"जालांगोन</w>":9380,"प्रिन्टार</w>":26342,"रावनोबो</w>":8221,"बेंनायनि</w>":20260,"खारनानै</w>":11199,"हौवाजों</w>":15301,"इराग्":1139,"गानै</w>":3555,"जगदीश</w>":21246,"खावसे":24283,"-\"</w>":3123,"चार्केल</w>":26448,"फल</w>":14212,"सोलाय":2034,"थाला":7394,"बोनोसै</w>":22924,"सोरमा":7147,"नोसैयाव</w>":20859,"थानायखाय</w>":12969,"बिलोगोया</w>":29010,"स्टनि</w>":19454,"फोरोंना</w>":24976,"इम":14125,"सिंखाव":8301,"सोमजिफानाय</w>":25220,"खोमा</w>":1365,"बाथोर</w>":10439,"लायै</w>":2773,"दिनथिनाय</w>":13716,"हाखाबाय</w>":29184,"मारि":3397,"थिख</w>":6363,"उथुजुग</w>":15654,"du":27494,"जब्रा</w>":9504,"program</w>":20877,"मैसो":14943,"नोसैमोन</w>":10746,"सोमावसारनायखौ</w>":9921,"थानायखौ</w>":3297,"फादों</w>":4405,"थौले</w>":10626,"थानायनिख्रुइ</w>":26432,"नायनोसै</w>":16313,"जेव</w>":11987,"प्रसेसर</w>":25874,"बान्थानि</w>":26101,"val":27614,"उनाव</w>":516,"लाबोदों</w>":3571,"बोसोरनिफ्रायनो</w>":17382,"लखौ</w>":977,"म्यमान</w>":19435,"खʼनानै</w>":2813,"थावरि":16984,"हगारसार</w>":25227,"महरैसो</w>":24501,"ऐखालिनिफ्राय</w>":27820,"बांनाय</w>":19733,"टरि</w>":27999,"जहैयो</w>":16014,"यारा</w>":10415,"गाहेला</w>":18790,"फोजोबस्रांनाय</w>":26220,"गाननि</w>":9038,"दुगैदों</w>":20726,"समस्":24271,"बियेट्रि":27350,"दर्जा":12849,"जादो</w>":10957,"फालांग":2492,"देरहासार</w>":4359,"थे</w>":1289,"लेंहर":13691,"थायनैयाव</w>":14824,"बेइजिं</w>":11696,"घा</w>":10882,"मांसि</w>":18063,"बिफाव</w>":18678,"दोमैलो</w>":21144,"मोदोमाव</w>":2185,"जिरादफोरखौ</w>":12642,"हाब्":9755,"फोरखौ":18977,"कुर</w>":9258,"जुनादा</w>":20472,"बुंखा":12024,"सुशान्त":2592,"माथाम</w>":10254,"commission":18172,"मसला</w>":12708,"साल्टे":29149,"थुंगि":10431,"हेद</w>":5838,"होबथानाय</w>":17633,"गौमोन</w>":1390,"सोबायो</w>":14501,"सबो</w>":22143,"खालामनो</w>":666,"degre":20972,"फानफे":20221,"नमथे</w>":28146,"खारबो":12128,"रासियान</w>":28713,"खौरा":4081,"al":3703,"फेजेन्नो</w>":23943,"अनगोन</w>":16835,"किड":20066,"गाल</w>":29212,"सलʼमा":2667,"माया":4796,"फिसाजो":1217,"हिन्जावसानि</w>":17162,"थानोब्ला</w>":22386,"मुहिनो</w>":26083,"जोरनानै</w>":24448,"केम्प":26065,"बदों</w>":22055,"जाथारोब्ला</w>":28809,"रासिन</w>":3252,"पेकेजेज</w>":21276,"इल":27746,"थों</w>":1204,"कʼट</w>":12433,"13th</w>":26314,"आर्टि":13781,"थारखायाव</w>":16798,"दिसिना</w>":29876,"बैसागि":9950,"हʼगार</w>":20491,"नार":1383,"देबनागिरि</w>":26114,"अदाब</w>":27674,"रैखाथिनि</w>":4845,"फारिनि</w>":29550,"बावनो</w>":1018,"नुजानो</w>":8610,"थादʼयो</w>":17743,"मेसे":5501,"बिनहारीनि</w>":25504,"थांखिखौ</w>":7265,"गोथारै</w>":11901,"बिला":2240,"लायासै</w>":13581,"थाथʼयो</w>":17800,"आफामोन</w>":19737,"खाजि</w>":10239,"मिसा</w>":19091,"चेन्":6734,"जोबि</w>":22907,"खथानि</w>":15982,"लांबानो</w>":23452,"थʼनि</w>":24123,"खालामजानाय</w>":7815,"आसि</w>":2694,"राइजोफोर</w>":3318,"राणी":20808,"दैनानै</w>":8637,"जोन</w>":29897,"less</w>":21726,"फान्जामुथि</w>":18046,"गाहेना</w>":29242,"गलʼआ</w>":7554,"बुंजाया</w>":23071,"लिमिटे":23167,"हरदोंमोन</w>":3732,"आदाब</w>":21805,"गफʼबनाय</w>":27928,"बुंफेर":23083,"गोदानै</w>":3235,"दुर्ल":13856,"दालाइ</w>":5621,"रंजानानै</w>":19874,"मुजु":3921,"यादब</w>":23465,"day</w>":8404,"पक</w>":28160,"उन्दु":850,"नोम्":7449,"हवा":28446,"दिहुननो</w>":3955,"दंमोनब्लाबो</w>":12235,"नारखो</w>":24939,"गावबुरा":20674,"थुथुर</w>":19398,"nt</w>":21732,"थगायनानै</w>":17579,"/</w>":229,"सिबनानै</w>":18821,"सोमावसार</w>":20358,"बुलि</w>":5976,"दाङाबाजि":26252,"फैयोब्ला</w>":14617,"ओंख्रै</w>":23658,"मनजु</w>":5704,"सान्जा":18742,"गोबानाय</w>":24848,"आमटेकायाव</w>":27395,"नार्जारिया</w>":10649,"सिगांनिफ्रायनो</w>":7965,"फोरावबो</w>":8585,"इनफरमेसनफोरा</w>":21243,"ग्राफोर</w>":19718,"सप्था":25948,"मुश्रि":23152,"बेयाव":7770,"दिहुन</w>":8291,"सोमोन्दै</w>":2200,"त्रि":8478,"नेर्सो":12563,"pal":27575,"नांथाव</w>":5339,"खेर</w>":12153,"अख्रा</w>":11727,"दाक्":6584,"स्भेटलेना</w>":27256,"होखांनानै</w>":16392,"थʼवा</w>":10495,"टेक":4347,"मदों</w>":11787,"ंग्रि</w>":1990,"फिठाइ</w>":27247,"सुरु":19047,"this</w>":13601,"गेजेरावबो</w>":6402,"सेवा":3262,"थिंजायनि</w>":20198,"बिनʼ":28961,"दाया":12848,"आरतिखौ</w>":7654,"गोमोन":16258,"मिं</w>":23062,"थुनथिनि</w>":24257,"मेम्ब":14692,"del":27497,"मिथिखागौमोन</w>":26309,"आथा":27709,"गोनखौ</w>":5962,"अनथाव</w>":11246,"कल्पना</w>":1836,"तक</w>":28035,"बिथोन":14368,"............</w>":6229,"सुसिनानै</w>":19055,"देल</w>":23280,"htt":18231,"सिथ्लायाव</w>":5570,"जज</w>":21941,"जेनेरेल</w>":7320,"बिसुखे</w>":14366,"बोख्लाब</w>":22934,"नुगानै</w>":16661,"सिमाङावबो</w>":9901,"रांजों</w>":3117,"साबिखौ</w>":10267,"गब":12815,"राजाफोर":24650,"बेरफ्रुनाय</w>":17869,"सिखारो</w>":4875,"खान":3606,"1924</w>":24723,"नोंथांमोनखौ</w>":17198,"अबिनासा</w>":9445,"सायारामखौ</w>":17196,"कलेजनि</w>":4999,"बांदों</w>":24056,"मिटिं</w>":10362,"सादों</w>":11904,"दोंमोनलʼ</w>":15478,"सिनायथिनो</w>":17155,"of":15907,"मासेलʼ</w>":29042,"der":12751,"साबबाय</w>":24714,"राय":384,"लाहा":3835,"थिक":7425,"डाइलʼ":20684,"जवानफोरा</w>":8864,"गोदायनिफ्रायनो</w>":27133,"एंगारनायनि</w>":12536,"दबो</w>":10895,"फनि</w>":5436,"mon":11718,"78</w>":15879,"गोरबोआव</w>":17974,"सोलाय</w>":2341,"थांनायाव</w>":5070,"भारता</w>":9296,"थालिया</w>":10968,"गिदों</w>":9089,"एलार्ट</w>":21228,"इण्डिरा</w>":27214,"बारनायजों</w>":19511,"हरदम</w>":9140,"dden</w>":27503,"गथाइनि</w>":27912,"नायग्रा</w>":8544,"मेक":19282,"हाथावै</w>":22567,"etc</w>":27113,"दोबै":19247,"साय":882,"एसेमब्लिनिफ्राय</w>":27023,"थिङै</w>":1496,"प्रचिड</w>":27265,"हाजार</w>":2364,"खफा":8942,"आयदाखौ</w>":5873,"हाथेर</w>":11914,"थार":492,"हाथर":8539,"बुग्लि</w>":14477,"बामोन</w>":8989,"फादु":16382,"थारसैलै</w>":19541,"गिस्रोम</w>":19086,"सोंबा</w>":24114,"जेननांगौ</w>":20136,"आभि</w>":27733,"हिन्जावफ्राबो</w>":24643,"मखौबो</w>":28275,"मेगाजिन</w>":26908,"फरायनायनि</w>":12230,"सिन</w>":573,"labi":25880,"टसनि</w>":18380,"साजि":14391,"गानफेरा</w>":24599,"लायनांगौ</w>":12084,"ताला</w>":13378,"होगोनबो</w>":29656,"मʼ</w>":8075,"ten":18247,"फाइकी</w>":20441,"हकी</w>":22175,"रहो</w>":28306,"थोब":23945,"औरस":18323,"दारनिफ्राय</w>":22676,"आंनियाव</w>":7138,"टास्क":16783,"जेलखा":29986,"नायगासेयाव</w>":29297,"सुशान्तनि</w>":8365,"नंखाइ</w>":20013,"nor":27565,"फाइलफोरखौ</w>":12432,"थʼसे</w>":16930,"बिजाबनि</w>":6982,"लाल</w>":7382,"ction</w>":21699,"तदबिद</w>":21399,"सागु":10264,"...।</w>":3193,"हसपिटालाव</w>":18026,"हाबहैयो</w>":7494,"भिजु":25021,"sig":20731,"थायोबा</w>":26137,"फिय":22047,"त्‌</w>":9325,"जाइला</w>":17574,"से</w>":303,"थजेन</w>":10893,"गस्":27894,"जखांनानै</w>":27974,"बिखान्थि</w>":28979,"लिरबिदां</w>":19694,"मिथिखा":6022,"गोथौयै</w>":7009,"गोहोया</w>":17170,"सुग्लाय":7133,"रीजों</w>":12226,"थाग</w>":28816,"short</w>":21244,"ीखौ</w>":2649,"थेदों</w>":19567,"mbel":27562,"आजावनाय</w>":17753,"बोजायो</w>":29931,"आयौ</w>":13481,"बाथाया</w>":23602,"ुन</w>":22180,"जबान</w>":21967,"जाबसिन":19778,"थाखानाय</w>":6562,"बिसुखेखौ</w>":26389,"थेलेफाया</w>":15317,"आमाया</w>":21797,"खनसे</w>":3082,"फिथ":11106,"नुजाथिगोन</w>":15481,"हाथारालै</w>":29204,"बेलस्रिखौ</w>":24728,"दाबो":22660,"एप्रे":27802,"style</w>":27085,"ओनसोलारि</w>":15319,"खान्थ":2223,"मब्ला</w>":28268,"रियाबो</w>":8315,"ज्रित</w>":20426,"जाहैदों</w>":8801,"700</w>":21677,"आफाफोर</w>":8674,"भटाव</w>":16075,"गाबज्रिनो</w>":20626,"गुग्रुब</w>":18109,"मोनायावनो</w>":29092,"हानायावनो</w>":29180,"en</w>":27507,"दंफायो</w>":16897,"नाया":667,"ties</w>":17288,"थाबावो</w>":22378,"लोमसावनायजों</w>":26616,"00</w>":1981,"बेखेवफाखौनो</w>":18011,"माहाजोनहा</w>":17837,"गाज्रि":2429,"गाँवाव</w>":12571,"बौ</w>":14216,"बबेयावबा</w>":15134,"खʼ</w>":1595,"गʼसा":9250,"उइल</w>":15446,"फाङा</w>":5183,"फैफिन्नो</w>":10710,"सोदोबजों</w>":6438,"अन्जि":7245,"द्लायो</w>":26830,"गाबनायखौ</w>":7186,"des":21706,"कफोर</w>":21871,"खं</w>":2353,"मेनेज</w>":17676,"बहा</w>":1569,"साननो</w>":2506,"स्रियै</w>":10427,"दावसिखौ</w>":19615,"दुपसाव":5410,"स्पेसियेल</w>":26605,"बुफाय":22728,"शान्तिखौ</w>":5108,"ओंखारफा":19748,"निखाउ":22869,"म्बेसर</w>":23597,"बाखि</w>":12923,"खोरोमदाउ</w>":10075,"sep":10846,"गेजे":501,"खनि</w>":14158,"महरथि</w>":11354,"गेदेद</w>":9328,"मोनथों</w>":29731,"फुदला</w>":19417,"बाहायजायो</w>":24444,"लायथारबाय</w>":14706,"कनि":15969,"हाफ्लं</w>":29203,"खैरोम</w>":16867,"छा":3895,"स्रां</w>":1591,"हाथावा</w>":22562,"दस्":16043,"निगिरि</w>":11974,"बबो</w>":22054,"सिव</w>":29311,"जेथिंबो</w>":22948,"बाग्दावो</w>":20853,"बिलित":17114,"सायै</w>":5697,"1996</w>":26087,"फाहा</w>":29543,"देगʼ</w>":23286,"बुर्":22714,"हांख्रायदों</w>":21073,"ब्रैथि</w>":9413,"नरेशनो</w>":18012,"न्द्रा</w>":7448,"हन्जा":28452,"दोनग्रा</w>":12245,"जुगु":12111,"रानी</w>":7591,"त्ता</w>":24983,"बुंग्रामोन</w>":27145,"लिरलांनाय</w>":23990,"फिननानै</w>":3743,"नुथाइ</w>":14719,"मिजिंथिनो</w>":17850,"हाबानिफ्राय</w>":19819,"मेजर</w>":11168,"स्यु":23632,"जासिगोन</w>":3906,"खाथायाव</w>":28912,"खरथेंनि</w>":15698,"गेवनाय</w>":13710,"दावदाब</w>":16833,"थारैलाय</w>":23753,"ंलायनानै</w>":27650,"जोंब्लाउ":13863,"tw":11722,"फोलेर":25285,"गिलुङै</w>":26793,"ददेरेखौ</w>":4039,"दैमु":7485,"गोनांसै</w>":24710,"कुलि</w>":13487,"दिब्रु":14534,"भ्लादिमिर</w>":10792,"थोनायखौ</w>":23951,"ियाबो</w>":2775,"गदʼनि</w>":21076,"मानबाय</w>":19350,"उह</w>":14139,"गारांखौ</w>":16306,"सिफु":29321,"बरʼफोराबो</w>":16974,"n</w>":185,"स्रीखौ</w>":23513,"सारै</w>":14392,"जʼनो</w>":9809,"दिन्दां</w>":11980,"हिमाल":13292,"लुसोमनानै</w>":19378,"दासिमबो</w>":2225,"दुर्जांनि</w>":4637,"खालामनाय</w>":1310,"उमेश</w>":15848,"थिननायखौ</w>":20244,"एउ</w>":21847,"नेटवार्":7330,"सार्ज</w>":25608,"जौगानो</w>":11434,"चीनाव</w>":17529,"दागाब":7414,"अनसाय</w>":6019,"दिहुननाय</w>":4643,"एसिद</w>":13884,"नर्":7704,"सिनगोन</w>":15190,"थलासे</w>":28068,"लाखखौ</w>":25820,"इण्डियान</w>":9421,"देंखोआ</w>":8810,"माधु":16248,"जिंगादासि</w>":27014,"सानथ्र":11138,"सुनसिनि</w>":17999,"हगार":1869,"खालामब्लानो</w>":12060,"दुम</w>":3407,"गोसारनानै</w>":22489,"नʼखराव</w>":4045,"सका":28395,"जायखौ</w>":1908,"ंगो</w>":23005,"आरे</w>":15128,"रंजालीया</w>":13541,"उपे":10869,"थामोन्":16185,"लायासो</w>":24831,"di":2885,"जु":410,"साखाङो</w>":29118,"सिब्रु":29343,"ज्":2316,"बुङैनो</w>":18878,"समाजा</w>":4837,"डिजि":6948,"खुनो</w>":8182,"नोमफाया":15440,"साङाव</w>":18738,"मिथिगौना</w>":15753,"जोहोलावारि</w>":21467,"थाफा":4805,"लाजिगुसु</w>":15223,"रामचियारी</w>":26657,"कत्रा":21876,"समनाथ</w>":24276,"िये":1270,"नुथायाव</w>":13231,"दान्दा</w>":13057,"ful</w>":27028,"लायनायखौ</w>":13219,"थारिया</w>":14834,"दिपाव</w>":26302,"मिलिटारिफोरा</w>":21362,"माला</w>":4685,"माबोरै":12999,"फोरमान</w>":2303,"खमज्लायबावबाय</w>":26811,"गावराव</w>":13203,"ंखा</w>":3591,"फाहामसालियाव</w>":4369,"आद्रि</w>":20158,"सिरिमोन्नाय</w>":25387,"माइगाब</w>":4267,"समाजतन्त्र":20904,"रोङा":2707,"मोनासै</w>":7903,"kachar":21393,"जाज्लाय":22335,"असभ्य</w>":27324,"ग्री":6208,"glo":21713,"आदामोनहा</w>":25509,"सलʼजों</w>":8662,"बिहोम":28976,"बुंग्रो</w>":29521,"रुनि</w>":3566,"बिबʼनि</w>":8400,"सहैबाय</w>":18501,"कलिकातासिम</w>":27199,"ग्रानि</w>":2081,"दिङाया</w>":19001,"ङाइगाव</w>":25823,"ननो</w>":2614,"आयु</w>":10539,"जुर</w>":3860,"बोखारनो</w>":26006,"मोगथां</w>":8368,"मेथायखौ</w>":23359,"गिरिफोरा</w>":1675,"सलʼनि</w>":1646,"बासिख":28561,"मोगियाव</w>":25524,"सार्जा":29111,"दारिमि":10298,"थिफुद्ला</w>":21236,"गायज्राब</w>":24106,"सफ्ट्‌":10034,"मलेनाबो</w>":19789,"नागिरहैनो</w>":24393,"दोखो</w>":10388,"लो":383,"थाबो</w>":8518,"टल</w>":12833,"हांख्रायनायखौ</w>":26268,"सिब</w>":5475,"थुनानै</w>":4159,"मद</w>":7707,"सैनो</w>":8245,"लमे":9536,"जाथायाव</w>":9566,"थाराय</w>":22375,"दरखंसिम</w>":26993,"सुत</w>":22977,"थरसे</w>":9943,"दोंमोनलाय</w>":20770,"थाइसे</w>":19497,"मिजिं":5724,"लाबाय</w>":1285,"मोसेब":22496,"ग्लो":1574,"कर्परे":15296,"फैफा":16527,"गेव</w>":16679,"मदʼ</w>":9527,"लाबायमोन</w>":18572,"गरसि</w>":20224,"गिया":1181,"दसा</w>":28083,"मुथिखौ</w>":23145,"सिमा</w>":5476,"बाबुया</w>":20711,"सोरबायाबा</w>":27373,"ग्राया</w>":1729,"हेफाजाब":6062,"फरायलायबाय</w>":19706,"ट्रिपाल</w>":20650,"मोसाहारीनि</w>":21150,"प्रि":3022,"राजखान्थि":13508,"specialis":21096,"सानै":765,"जिनाहारि</w>":2823,"नखरफोराव</w>":26055,"लरेत</w>":20763,"मारखौ</w>":14376,"दमासुवाबो</w>":27193,"दार":3842,"बिलाय":9022,"थिसननानै</w>":10013,"रफोर</w>":11793,"नङाबोला</w>":24256,"नृ":28121,"खरʼवा</w>":7931,"बेसेग्राब</w>":12278,"खारबोदों</w>":16724,"लुगोन</w>":19373,"फरमे":3598,"खरसानि</w>":16964,"सिबु</w>":18819,"थिलि":14528,"g</w>":218,"लाइमुथि</w>":23615,"दामिनि</w>":29399,"भेटेनारि</w>":21598,"जुजियो</w>":23523,"खाजोबो</w>":16213,"जथाइखौ</w>":18373,"गलि</w>":10148,"फाफ":8141,"बोर्":13348,"बुजिदों</w>":25086,"गुनद्ला</w>":26696,"मोहेर</w>":29100,"दंदा</w>":24046,"28</w>":5144,"लाखोमानो</w>":22284,"जाफेराखैमोन</w>":22361,"ब्लाबो</w>":484,"सुबुंफोराबो</w>":19975,"देरहाबाय</w>":20264,"इछ":12792,"साबायखʼर</w>":20795,"सफै":6138,"जाफ्लां":22344,"लाब्रा":28621,"नसिम</w>":16054,"सियै</w>":22633,"दौस्रा":24733,"निनिफ्राय</w>":29794,"मादाव</w>":2175,"हवाइट</w>":28461,"ग्लि</w>":5856,"दाउखाया</w>":20303,"हाबाफारि</w>":2783,"रायजित</w>":10404,"गोमानाय</w>":5116,"गुलिया</w>":14578,"समष्टिनि</w>":21550,"गुनफोरा</w>":23022,"सिखारहां</w>":20315,"पेन्च":20098,"इज</w>":27747,"ओंखारलांनानै</w>":24077,"रांखिनि</w>":17018,"फोरखौ</w>":450,"सिनायनो</w>":3694,"जागायनो</w>":16175,"जावलिया":6963,"बिसि</w>":1475,"क्त</w>":14920,"आबुं":15937,"बिबांआ</w>":13992,"एराइ</w>":27805,"राखाउ</w>":10225,"बिगोमा</w>":4398,"दौसे</w>":20188,"बमा</w>":3347,"हाथाया</w>":16293,"जल</w>":18361,"सानथौवा</w>":26259,"जोलैया</w>":25920,"उप":8938,"देव":4158,"नायखां</w>":29273,"श्रा":8489,"बेफ्रुग्रा</w>":25632,"हाबनो</w>":5220,"लायैयानो</w>":23388,"आहमेदाबाद":26822,"ायार</w>":19354,"सामब्राम</w>":7957,"फोजोब</w>":23098,"वखि</w>":22130,"खांनानैनो</w>":12119,"आरमि</w>":17159,"खङा</w>":27862,"हागा":16286,"मोनलायाखै</w>":29767,"थिंबाय</w>":24746,"70</w>":6773,"बेफा":3657,"गोथार":9586,"सोलोंनायाव</w>":24756,"दोलै</w>":5992,"इउनि":4286,"जाथाया":22339,"नफिन</w>":28137,"मानसिफोरा</w>":2051,"de":4781,"फाहाय":13076,"वै</w>":3392,"बाथ्र":1156,"मान्":6154,"रहेलाखौ</w>":25901,"बेहाबो</w>":29469,"रोङै</w>":2425,"रिसो</w>":14586,"दांग्रोमनानै</w>":17906,"गोमोदै</w>":22485,"79</w>":18204,"जाजोब्बाय</w>":16170,"रिये":22112,"थालांबाय</w>":12961,"सैया</w>":3803,"बिमाइनो</w>":13978,"राइफल</w>":21322,"बिर्गो":22448,"जोलै":4076,"मावफारिया":4532,"बुद":7419,"यालय</w>":23466,"हाथायाव</w>":4929,"जायाखैसै</w>":7908,"भावथिनाखौ</w>":26873,"सोरांखौ</w>":22801,"आथि</w>":12785,"ʼना</w>":18253,"होफैदो</w>":29620,"माय":550,"ष्टेन्ट</w>":25452,"होख्रा":3558,"थुंग":19395,"let</w>":20923,"खासिखौ</w>":22412,"जायखार</w>":23619,"दिन्थिगोन</w>":15020,"बिला</w>":6833,"हाथाय":7409,"हालुवा":17997,"होथारनो</w>":29633,"बुलाय</w>":13068,"अब":1462,"अनाथीनि</w>":12556,"नायस्रा":13037,"लामासिम</w>":25647,"नांथार":11187,"मारिनानै</w>":9402,"सिग्रां</w>":22652,"mag":25667,"दिखां":10333,"प्रिन्टिं</w>":17886,"साइ</w>":2300,"about</w>":26720,"हाजोनिफ्राय</w>":12501,"दाङाबाजिया</w>":26253,"बेनो":4321,"यावबा</w>":13842,"पे":991,"हायाखैब्लाबो</w>":15025,"मोसौसो</w>":20867,"लाखि</w>":6337,"सोलों</w>":14503,"ice</w>":20889,"लाबोफिनबाय</w>":24314,"माइक्रʼसफ्ट</w>":27109,"काटा</w>":9754,"होफ्लांदों</w>":29660,"गाव":368,"बांलानि</w>":24059,"नोसो</w>":2738,"याबोथʼ</w>":23464,"रोनाव":10432,"फादारा</w>":29570,"सोंखारिदों</w>":17825,"सेंग":793,"सानोब्ला</w>":11005,"लाबोनांगोन</w>":16994,"फाग्लास्रोमनि</w>":21601,"बाजौ</w>":10937,"सोलोंथाइया</w>":20203,"prize</w>":27114,"हेना</w>":4839,"थै</w>":1012,"बोनायफोरनि</w>":29964,"खामानि":1334,"गारिखौ</w>":2929,"मुथि</w>":8590,"drama</w>":15783,"जिये":16013,"खालायनाया</w>":25927,"डाक्ट":19954,"दिनारखौ</w>":29892,"नखरफोरा</w>":26054,"आमथेखायाव</w>":26869,"ओरैनो</w>":3291,"जाफायो</w>":28759,"सिडेन":29362,"।'":22185,"नुजाहै":24852,"स्प्रिं</w>":27380,"आलाइस्रि":12298,"भारि</w>":10515,"आरो</w>":308,"सामु":16276,"रफोरनि</w>":9532,"प्रशा":24158,"नाम":10203,"मास्ता":22466,"माबोरैबा</w>":29044,"?...\"</w>":21688,"मस":8971,"लेन्थननि</w>":26599,"al</w>":2529,"संग्राखौ</w>":26353,"बेसेबा</w>":1279,"फामि</w>":18888,"उन्दुलांफुदोंमोन</w>":26290,"सेफ</w>":29991,"खोलो":14611,"बेखौनोथʼ</w>":15736,"मोख्रेब</w>":29099,"पास</w>":3315,"जिनिस</w>":5911,"हुं</w>":14848,"जाद</w>":9001,"नोंथाङाबो</w>":13889,"हुक</w>":6921,"काबिला</w>":10461,"निजोम</w>":4229,"लाजिफोनां":17304,"सुखां</w>":22981,"हाथारैलाय</w>":26501,"फाथं</w>":29566,"of</w>":2204,"थायनानै</w>":7489,"it</w>":10115,"हʼष्टे":13689,"दलत</w>":17668,"लाइसेन्स</w>":23617,"यालʼ</w>":12097,"श्रीमती</w>":27390,"रुजुनानै</w>":11516,"बारानिखुरै</w>":20357,"मोखांथिं</w>":13618,"बेखौखि</w>":21232,"र्क":8190,"हुखुमो":11647,"लथा</w>":12879,"बिटा</w>":28974,"सिथर":29344,"गिरिफोरजों</w>":20007,"िनि</w>":2357,"खिलि</w>":23543,"बङाइगाँवाव</w>":25900,"रान्दि":7385,"per":7681,"नोंजों</w>":3221,"राधा</w>":22308,"सालाम</w>":13017,"गुदुङा</w>":26037,"लाइजामखौ</w>":2330,"औ":79,"दास</w>":11035,"बिदिनोसै</w>":11337,"फैलाव</w>":4825,"चिनि</w>":15276,"27</w>":6299,"बबि</w>":8481,"बुंनायमोन</w>":13150,"खाथब":18661,"लʼथʼ</w>":23600,"पाटिलनि</w>":13936,"हाखरनि</w>":17784,"यैसो</w>":9530,"खांनायनि</w>":1811,"मोनाबि":2816,"pas":21739,"आग्लायनानै</w>":26722,"बेनोसै</w>":22698,"फोरोंगिरि</w>":4874,"हाखु</w>":3171,"लहे":12880,"जिउ</w>":887,"sem":21744,"दासोम":29395,"मानफ्रा</w>":23477,"केम्प</w>":13880,"नारनि</w>":22198,"ख्ला":1878,"दोंमोन":3307,"सवा</w>":18492,"गरदसे</w>":15180,"बांसि":2878,"बमफां</w>":12652,"गोरलैखौ</w>":25779,"मन्स</w>":6437,"नों":360,"हेड</w>":9166,"कमाण्डफोर</w>":17652,"जानबुंनि</w>":20587,"फैखादों</w>":13164,"?--</w>":21687,"दासिम</w>":3218,"सफैदों</w>":16108,"ताव</w>":6534,"थेख्रेया</w>":11636,"जोम</w>":2657,"गैखाया</w>":16689,"राइजोफोरनो</w>":12272,"हरखादों</w>":12451,"रायलायो</w>":19299,"खबाम</w>":18040,"हां</w>":785,"खाङामोन</w>":28946,"सोंनानै</w>":5859,"बाग्दावखाङो</w>":17692,"दिन्थिना</w>":16990,"खाथा</w>":22399,"बुंनानैबो</w>":23076,".....।</w>":11557,"खुगाखौ</w>":14665,"हाप्":29169,"खुलुमनो</w>":9358,"सावसुब</w>":18031,"हʼल</w>":25232,"जेसेबांनो</w>":13709,"रमायश्रि":25882,"हांसानि</w>":11258,"ज्योति</w>":18113,"मनजुला</w>":25015,"आथिं</w>":1997,"मैखुन</w>":11274,"गुवाहा":20174,"ख्लो":3275,"सावा</w>":18732,"फाण्डनिफ्राय</w>":29586,"गैजायि</w>":23502,"गाबज्रि":2510,"निलʼ":22860,"दिनैनो</w>":6045,"निसिमबो</w>":29808,"रौ":3832,"्लु":4323,"हामबायसै</w>":14997,"बिमानि</w>":1638,"थाबायफानो</w>":25169,"फाल</w>":29536,"कि</w>":3493,"पुलिसनो</w>":10001,"गियाति</w>":17242,"बाग्राय":18043,"घर्ना</w>":14048,"रकेट</w>":28317,"हाबायाव</w>":3273,"लानानैबो</w>":11840,"खंनानै</w>":20698,"होमब्लानो</w>":7559,"जोंनिया</w>":23397,"96</w>":18208,"टेबु":4256,"भास</w>":16995,"बिखौसो</w>":28981,"गार्लस</w>":13329,"फोरानो</w>":2553,"राइजोनि</w>":1563,"आइदै</w>":12289,"अरखि</w>":6046,"लहानि</w>":16098,"मोन्दां</w>":19824,"गेजेर":3568,"गेदेरनि</w>":24995,"बिमानि":22430,"लाफा":2206,"सुदʼ</w>":8162,"मोनलायबाय</w>":16420,"थिंख्लिखौलʼ</w>":27075,"सालाय</w>":9589,"फाथिफोरखौ</w>":29578,"कʼर्":15285,"गांसे</w>":1518,"बिबनांखौ</w>":15331,"बेरायबाय</w>":20745,"हुर</w>":12179,"धमन्द</w>":27341,"आसा":772,"बर्ड":25497,"फायो</w>":2262,"दोनाखै</w>":16614,"फोरनिख्रुइ</w>":13108,"दानसʼ":9238,"ष्टेडियामाव</w>":21516,"नोगोरमानिफ्राय</w>":25483,"आंथि</w>":23168,"हाबदों</w>":9182,"डाइरेक्ट":5012,"बोसोनथि</w>":26866,"टराव</w>":28001,"जादोंमोनब्लाबो</w>":8106,"बिजामा":8797,"आलाय</w>":6118,"ड्रे":8475,"आसामावबो</w>":24380,"well":27619,"उनथाराव</w>":10639,"बेवहाय":13642,"राण्डा":22307,"दमा":4306,"खेन</w>":23665,"कामाख्या</w>":11614,"गौहाटी</w>":26706,"मुकुट":26438,"नाजा</w>":7717,"अक्ट":3289,"गोरलैयै</w>":7296,"थेन":19562,"दान्था":29405,"लोंबोनानै</w>":23979,"gram</w>":11641,"खुन्थि</w>":11146,"माफ</w>":22452,"थेफेनाबो</w>":20353,"बेंखन</w>":11411,"बियार</w>":12520,"खारखाना":23583,"बिस्रि":28967,"संनायखौ</w>":19635,"जुनात</w>":25200,"बाजार</w>":5042,"अनगायैबो</w>":1592,"थारैनो</w>":3314,"राण":3550,"गोख्रोङै</w>":6501,"रबिलसना</w>":15829,"बाग्रि</w>":10212,"मायथायाव</w>":19655,"गारखो</w>":13328,"़ड</w>":28463,"जीखौ</w>":20595,"सिनाय</w>":3136,"खोन्था":9685,"थेवब्लाबो</w>":8413,"मिज्लि":10364,"द्राइभ</w>":21278,"फैबावगोन</w>":23130,"गोर्बोआव</w>":6746,"टेंक":16905,"दंखाय":7871,"ख्लि":9245,"सुफुंनायनि</w>":15367,"गैथʼ":23500,"फाङो</w>":29545,"नोंनाबो</w>":23238,"गʼलाया":15049,"लिन</w>":12040,"नुजागोन</w>":5506,"गेवलां":12469,"नानानै</w>":22189,"नोंसो</w>":5495,"जायैनि</w>":13285,"बोदोरिया</w>":27148,"ट्रेक्टर</w>":8319,"मोब्लिब</w>":3384,"उजिगिबि</w>":4043,"पालच्‌</w>":21503,"नोजोरथावदि</w>":17143,"बिथʼ":8116,"बारी</w>":2127,"आलो":14103,"टायार</w>":28014,"थाहोगोन</w>":28843,"हेन्देल</w>":21265,"लाफोरखौ</w>":28610,"श्वर</w>":2952,"खबज":20643,"बोल्दानानै</w>":13117,"तिता</w>":15108,"टिसनि</w>":16932,"बुंफ्ला":23073,"दाहारजों</w>":17623,"उथ्रिनाय</w>":25768,"साता</w>":29126,"दंगʼ</w>":14035,"रिलिफ</w>":10811,"जादब</w>":6561,"न्सजों</w>":20882,"दुर्लुब</w>":12578,"बिथʼ</w>":7098,"गाय</w>":2677,"जोंथिया</w>":1387,"ङै</w>":522,"मावग्रा":9165,"कम्पिउटारा</w>":5725,"थानायबादि</w>":16195,"खालारसिम</w>":17895,"साग्लोब":5742,"फैफिनाखै</w>":7286,"पिसा":13497,"पण्डि":16062,"गामिफोराव</w>":20724,"लार्ज</w>":22290,"सोफोरखौ</w>":22796,"योदि</w>":11510,"खारा":10972,"कया":21867,"मेला</w>":4520,"यर्":10184,"हारियानो</w>":15113,"नोंबोथʼ</w>":16586,"लम":28329,"नाजानायखौ</w>":12339,"compe":25763,"जेलार</w>":29983,"मलेनजों</w>":5370,"द्रायदों</w>":20741,"सेयावबो</w>":5555,"नांगौबादि</w>":20048,"नुहरासै</w>":23429,"windo":2754,"बिदाम</w>":26155,"नुयो</w>":1590,"गाब</w>":1771,"गोजाम":10514,"हबा":28440,"सानथ्रि</w>":9117,"गामियावनो</w>":15091,"फोर्ला</w>":29825,"वालि":14715,"खुसु":23265,"ʼद":27629,"मोन्दोंमोन</w>":5699,"जिंगा</w>":1766,"हाफ्ल":29172,"थानांनायनि</w>":28865,"गोथां":11894,"जोसो</w>":29900,"हारियाव</w>":7544,"गोनांदि</w>":3884,"जिन</w>":14560,"गन्थङा</w>":13727,"जागार":22322,"मुंरायनि</w>":12657,"बिसियाबो</w>":20112,"30</w>":2560,"गड़":21920,"बाथ्रायाबो</w>":10581,"बाथ्राबाव</w>":24181,"जिहं</w>":22974,"फाल्लाखौ</w>":26548,"फानि</w>":2402,"को":27828,"सायारामनि</w>":12365,"हारिमुवारि</w>":8431,"गोदान</w>":693,"आखुजों</w>":8275,"गंगा</w>":15994,"दाखाइ":22678,"नाजावना</w>":26612,"ोर":289,"जिया</w>":1621,"नाथʼ</w>":8500,"सिबिग्रा</w>":17462,"गथʼनि</w>":3574,"सोंहरबाय</w>":7192,"नागिरहैयो</w>":24391,"जोबस्रांनायनि</w>":15592,"थ्रा":7702,"मोनबो":8565,"david</w>":26124,"आसिनि</w>":27726,"रायजोनि</w>":19300,"थिनहरनानै</w>":12387,"मोनखांनायसै</w>":22856,"बाबाजी</w>":27127,"मानसि</w>":830,"केस</w>":4432,"have</w>":15465,"नाछानि</w>":15834,"थायै</w>":1886,"बोब":9658,"गोमजोरै</w>":3966,"खिजाया</w>":4836,"लाखिथों</w>":13535,"मोनदांबाय</w>":15560,"बोजोंनि</w>":7784,"क्‌":19689,"बिग्रि</w>":16230,"वना</w>":22129,"रुवाथिया</w>":7955,"खावलायनानै</w>":19871,"गोन्ना</w>":18720,"बोबोर</w>":29938,"अम":1480,"आश्रय</w>":27213,"नार्जारीनि</w>":7964,"फिसाज्लाखौ</w>":5250,"dri":15892,"दान</w>":1688,"बेयो</w>":924,"अख्रांआव</w>":25057,"लाला":28603,"थांनानै</w>":872,"कानि</w>":4342,"फ्रोमबो</w>":1564,"tation</w>":27601,"ʼ</w>":145,"आग":1381,"फांथेनानै</w>":6073,"जोंखांदोंमोन</w>":23402,"थांफिन":6623,"सावथालफोरनि</w>":21459,"थुमगिरि</w>":24997,"ंक":2132,"आंहाबो</w>":5329,"रोम</w>":4719,"सोरजिगिरि</w>":15206,"वलʼ</w>":4909,"फिन्दों</w>":9675,"हामथारलिया</w>":17939,"बिरोंदामि":15814,"साखʼ":9033,"सिथोर</w>":9612,"लोगोनि</w>":4978,"दुमफ्ला</w>":15305,"दुगै":3071,"नैखौबो</w>":8640,"उजेर</w>":10138,"गौमा</w>":15044,"बागैसो</w>":27229,"बिसाननि</w>":28994,"सान्नायसै</w>":20129,"दाजाथों</w>":22680,"गानस्लाय":15115,"लाहानि</w>":22271,"रावनि</w>":1653,"बेदर</w>":2025,"नुहुरनो</w>":21130,"बुर्जा</w>":11950,"हाजोनि</w>":6276,"c":38,"नायग्":22615,"दोंलै</w>":5334,"थुनलाइगिरिफोरा</w>":11412,"आधु":27730,"सौवै</w>":9831,"लिरनायाव</w>":6412,"रान्दिखौ</w>":15728,"बिथांमोनखौ</w>":17123,"गथʼआ</w>":19995,"स्ताननि</w>":20609,"हदं</w>":28451,"जुजिनानै</w>":20683,"नीला":7993,"न्ड":11919,"हमहैनो</w>":23742,"गने":12819,"काबो</w>":19592,"(":8,"बारुदनि</w>":21401,"सरग</w>":24584,"नेहाथ</w>":20636,"थिउ</w>":9649,"गʼदाय</w>":17051,"12</w>":2372,"आदाफोर</w>":25505,"गोथौ</w>":2002,"सुफुंनानै</w>":15366,"दांनाय</w>":4107,"जगायनो</w>":18375,"नोंनिफ्राय</w>":9119,"खैफोदनिफ्राय</w>":10608,"गोन":1286,"लबार</w>":28345,"बेसेबां":3808,"खथा</w>":5032,"दारेन्द्र</w>":7765,"हादरनि</w>":2449,"होम</w>":6169,"मुर":8588,"सिथ":2419,"होन्नानैनो</w>":9350,"reti":20542,"एवस्रांनानै</w>":20703,"जागोनदि</w>":26056,"2012</w>":26147,"हगारा</w>":22174,"खिबुयाव</w>":26653,"हायना":7860,"पसौ</w>":28168,"माफिया</w>":29064,"जरʼखा</w>":10819,"ोमोनब्ला</w>":16119,"हेर":1421,"मोजांखौ</w>":13300,"बसुमथारी</w>":20126,"सहʼखौ</w>":15849,"मानसिमोन</w>":23757,"दिदो":18994,"ब्राइनि</w>":19963,"सुंथा":20058,"हरबादि</w>":16666,"सानायखौ</w>":18740,"थुखैनांगौ</w>":26652,"लाजिनायखौ</w>":24916,"बखʼयो</w>":15773,"अरनो</w>":12331,"हष्टे":12904,"खांदोंमोन</w>":4721,"फोरसो</w>":11075,"जापान</w>":15670,"गोनांखौ</w>":12367,"खारबाय</w>":12126,"जब्द</w>":10824,"गावबुराया</w>":3521,"सौ</w>":1023,"जिबारेलिन</w>":12672,"बिसाराव</w>":16232,"बिजिर":947,"मनिराम</w>":15499,"गहेना</w>":8469,"लाइफाङाव</w>":26912,"होखागोन</w>":29648,"नायदों</w>":5616,"पट</w>":28161,"दाहारा</w>":17621,"दनायाव</w>":28086,"फोरमाय</w>":8569,"जनजा":18371,"गालांदों</w>":9601,"बोयानो</w>":22928,"मू":28263,"ननाय</w>":22022,"आखु</w>":1232,"खन्थाइगिरि</w>":6096,"6":22,"फेब्रु":8667,"होलायो</w>":22769,"पेट्रि":12346,"गʼबोयो</w>":15051,"नंलियालै</w>":20014,"जेननायखौ</w>":24663,"दिखार</w>":7427,"बोखौ</w>":11981,"जुनादफोरखौ</w>":15643,"न्थ":525,"सेन्स":19033,"शिबराज</w>":10085,"बसुम":1039,"बाथोन</w>":13277,"बाख्रिखौ</w>":22246,"रोङैखौ</w>":17571,"ओंखारखो</w>":24074,"बेन्थ</w>":17893,"थारबाय":14835,"खोब</w>":5492,"हाबायानो</w>":29187,"ायनो</w>":460,"gor":27522,"शा</w>":2263,"लाउसिन</w>":17336,"दान्ते":29440,"डेनमार्कनि</w>":15843,"जुनाद</w>":4457,"सावनायबादि</w>":19672,"फ्री</w>":23981,"अगियान</w>":27681,"मुक</w>":6878,"सुखेजो</w>":26082,"दैख":7484,"सोलायनायखौ</w>":20526,"हाराव</w>":10271,"गबोनानै</w>":18355,"दागो</w>":29388,"फादे":29544,"गरानिया</w>":15999,"बिरनि</w>":28956,"फोसावबाय</w>":20393,"अन्थाय</w>":11426,"खावलाय":4853,"नुखो</w>":14717,"ह्रा</w>":14262,"म्पि":5833,"दुलराय</w>":23349,"स्वर्":20678,"खʼथानि</w>":14924,"निदाननि</w>":8152,"ra</w>":21742,"इनाइ</w>":15954,"लोब्":2628,"बिसाइनि</w>":18128,"शाला</w>":9829,"इबसेन</w>":21532,"मल्ल</w>":12871,"गोजौवाव</w>":2751,"जोबथारनायाव</w>":6768,"बारखोनानै</w>":23714,"सुनि</w>":3919,"दोननायसै</w>":9210,"ंगौ</w>":11101,"जेननो</w>":24659,"गाखोफिनबाय</w>":24952,"गाहामखौ</w>":24138,"लस":28330,"उलु":27779,"सिजों</w>":3609,"जुथु":13254,"दोंसो</w>":5075,"दैबानानि</w>":23650,"वानो</w>":2629,"रिंहाब</w>":20272,"हरसे</w>":6896,"इसोरनि</w>":7046,"बालाबारि</w>":17654,"मोसाफुनायाव</w>":20207,"हल":16113,"फरेष्ट</w>":8843,"थाखायसो</w>":5907,"हʼगार":17421,"आगाननै</w>":17763,"दानखʼ</w>":24324,"लाव":1016,"बनै</w>":28208,"बिजोंनो</w>":11879,"असान्त":27682,"आपु":12788,"माइरं</w>":3530,"उइन":18307,"बिथाया</w>":14360,"मैथा</w>":14946,"the":5891,"नायखो":22605,"मिरुयाव</w>":26906,"मन्जुबाला</w>":12361,"प्रमʼसन</w>":21592,"सोङै</w>":18924,"मोसौ":3912,"फावथिना</w>":2787,"प्रम्प्":24166,"थलʼ</w>":12843,"गांसो</w>":7211,"मोन्नै</w>":3943,"बेरायहैनि</w>":20746,"49</w>":21666,"एखन":2281,"सानैयाबो</w>":12296,"एरि":9495,"खवा</w>":12810,"गुंग्राय</w>":16480,"डिङा</w>":17071,"ण्":797,"होथारदों</w>":29618,"साल</w>":4810,"गोजान":9818,"नोमानैया</w>":23211,"अंगि</w>":18268,"ंबादि</w>":27646,"खैथाय</w>":19674,"......।</w>":11189,"चन्द्रनि</w>":21398,"जोबफिनो</w>":23768,"मारिनि</w>":29026,"सहायनो</w>":3498,"रायथि</w>":23372,"प्रेक्टिकेल</w>":27280,"mu":18235,"बेयावहायनो</w>":13983,"नायहरगासिनो</w>":17562,"दबानिफ्राय</w>":28110,"दंबाव":5227,"ग्रा</w>":486,"but</w>":11710,"फांजिया</w>":20367,"मोनजाबाय</w>":18938,"जाथाइ</w>":2861,"युव</w>":12420,"ory</w>":10668,"80</w>":6503,"नोगोरारि</w>":21211,"बाथु":2395,"लुयै</w>":9147,"ु</w>":176,"स्टेन्द</w>":17395,"होत्‌</w>":29658,"super":26317,"साहाया</w>":10266,"दावगानायनि</w>":15375,"शर</w>":28374,"मोनाखैमोन</w>":6231,"तुला</w>":8741,"दोन्दोंमोन</w>":23299,"वेलजों</w>":25304,"नाङाब्ला</w>":25620,"मिथिंगायारि</w>":10096,"कर्नियाखौ</w>":17405,"मोनिलाय</w>":29786,"थेङा</w>":23794,"बाइक</w>":20182,"दैयाव</w>":2214,"साजायनानै</w>":7637,"तामिल</w>":16888,"गान्दु":5614,"रिख":23035,"सुजों</w>":16472,"ओंखार":617,"चार्":6989,"फैखो</w>":7137,"बुन्था":18877,"मिथियाखैमोन</w>":26042,"कमिसनार</w>":14045,"फुथुनानै</w>":12123,"बेसाद":6089,"ʼनो</w>":9486,"दाङ्":29444,"दुवा</w>":14687,"आलाइ</w>":2917,"रिजोंबो</w>":23046,"गाननो</w>":8727,"सम्बुधन</w>":21637,"लेखागोरों</w>":26598,"बन":8964,"फाखन</w>":29565,"हायैखौ</w>":9759,"मोनगोनलै</w>":29776,"गिसि</w>":7796,"बुंखांना</w>":19111,"फैफिन्नाय</w>":11538,"गोजोमनानै</w>":24510,"खौनोथʼ</w>":16626,"राङाथʼ</w>":26387,"गोजाव":7520,"आफाया</w>":2722,"ख्लʼ":24372,"जथुम</w>":13791,"सायारामाबो</w>":20164,"रोहो</w>":5083,"स्टाइल</w>":11535,"निननि</w>":22861,"आनारीखौ</w>":5101,"थैसाम</w>":23975,"दैदेनगिरिफोर</w>":15676,"रावफोरखौ</w>":13302,"बाइबेल</w>":20184,"ft</w>":21709,"बांलादेसिफोर</w>":21430,"आफादाव</w>":4849,"सुथि</w>":5323,"मोन</w>":329,"रावारि</w>":16160,"जोंनिथिं</w>":23400,"हायैयाव</w>":8239,"जादों</w>":509,"बिलाताव</w>":17480,"पार्टीनि</w>":21060,"e":40,"सान्दुंनि</w>":26563,"खिन्":3671,"फ्ल":972,"नोंनो</w>":1727,"माजानै</w>":29066,"le</w>":4296,"खथे</w>":27871,"थांब्ला</w>":3143,"नागिरनाय</w>":4440,"रिंगा</w>":14588,"लराय</w>":22120,"राइजोनाङै</w>":19855,"ग्रां":19715,"नेम":6410,"करा":14155,"रिंसारथिजों</w>":15435,"गं":659,"गाब्रै</w>":4815,"बुद्रैनि</w>":17771,"सावरायगोन</w>":20252,"प्राइभे":6107,"खहाबो</w>":21895,"ओ</w>":249,"आखाइ</w>":1157,"मोननायखौ</w>":5629,"बायदिया</w>":23307,"खहानि</w>":27872,"नख्रा":18426,"इउनिटाव</w>":17732,"सिखारनो</w>":12402,"थिब्रे</w>":22894,"दैदेनगिरि</w>":4650,"नाजा":948,"थैबा</w>":19678,"वा</w>":376,"फोसावनायखौ</w>":20395,"उवालखौ</w>":26150,"bo":6301,"थियेटारा</w>":8808,"नाजानो</w>":18532,"दद्र</w>":18418,"इरामुतीनि</w>":26478,"दना</w>":16038,"समावसो</w>":12140,"सेन्टिमिटार</w>":27017,"ज्रां</w>":9357,"बबेव":15132,"जथुम्माखौ</w>":17705,"संसारनि</w>":5008,"खावरि</w>":6936,"रिक्सानिफ्राय</w>":25890,"आंग्रां</w>":18292,"भगबान</w>":17993,"थाबादि</w>":22372,"सामलायनानै</w>":12418,"थाकु":18623,"दैथायनो</w>":23649,"हरनोसै</w>":19328,"under</w>":26208,"सालायै</w>":29129,"ंगि":1133,"थाङो</w>":1132,"जोबथार":5216,"दाग्रा</w>":10297,"दोहोरोमारि</w>":13890,"गोरोन्थ":10543,"सां</w>":5050,"तुल</w>":24700,"fication</w>":14022,"रुवा":1538,"खार</w>":1559,"देगारखौ</w>":6493,"थासे</w>":10965,"बुंनांगौ</w>":5987,"सिफि":7758,"नुथायखौ</w>":16659,"हʼ":1879,"प्रेमधरा</w>":3335,"ग्लुंनानै</w>":20804,"स्टरे":15470,"पखाखौ</w>":28174,"उब्रे":21841,"जफिनो</w>":27977,"नेपा":5670,"नायगिदिं":6849,"गस्ला</w>":3894,"खौसे</w>":5649,"बह्रा</w>":9382,"1913</w>":24725,"जावरिखांनाय</w>":26862,"नबद":22030,"रिंसाराबो</w>":24892,"रमायश्रिखौ</w>":25883,"हाफ":29153,"जेरबा":20931,"टिउ":7878,"बम</w>":14217,"दिङाखौ</w>":27243,"बावसिन</w>":23727,"हाइजेंनि</w>":17469,"रग</w>":14235,"फजʼनो</w>":12517,"माखौबो</w>":22460,"समफोराव</w>":24273,"फ्लाय":15117,"बिमालुनि</w>":25904,"मेब्लानि</w>":15807,"थ्रो":2259,"जानि</w>":2360,"नुथायनि</w>":16657,"नाना</w>":18526,"दनानै</w>":4052,"दाब":1534,"दुलुत</w>":21101,"गांसेबो</w>":24470,"टेबो":6027,"खाङोमोन</w>":28938,"नोजोरा</w>":6440,"हाब्रु":16295,"sion</w>":9993,"रʼल</w>":24960,"हेलमेटनि</w>":26987,"हानिफ्राय</w>":22540,"लाहा</w>":22255,"चनारी</w>":27955,"अनज्लायो</w>":23877,"हायरे</w>":23866,"दङ</w>":1281,"साननायनि</w>":12052,"घब्राय":21933,"अलेक":27687,"मोन्थिया</w>":29096,"लाबायनाय</w>":28655,"इरागदावा</w>":24633,"थांनागौ</w>":23201,"हालाम":20401,"दैदेनगिरिफोरनि</w>":10625,"सियालफोरा</w>":8749,"लां</w>":1705,"खाफालाव</w>":2942,"गोल्लै</w>":12662,"सोद्रोमाफ्रा</w>":25572,"सोमावसारनानै</w>":20413,"अधि":27688,"आंखौनो</w>":9105,"एमबेसा":25671,"गोलावै</w>":25988,"बीरस्र":21599,"जुफिया</w>":23525,"लायदोंमोन</w>":13218,"दखरा</w>":20979,"भुगिनांनाय</w>":12599,"सिबिनाया</w>":25334,"सैलै</w>":7866,"हाम्‌</w>":29206,"tish</w>":24879,"अल्दा</w>":21781,"सम्बर</w>":28405,"फ्रां":16603,"लेङाय</w>":18164,"बिलिफा":1114,"वर्क</w>":28373,"गोजांस्रिव</w>":17749,"पजʼवा</w>":11658,"नांनायनि</w>":5081,"सानखो</w>":7812,"समायना":24908,"खालनि</w>":3358,"देरदों</w>":8257,"बुजियो</w>":22733,"अरो</w>":18259,"टमनि</w>":28005,"गोनांथिया</w>":13551,"किं</w>":8723,"दानसʼनानै</w>":10516,"न्दोंमोन</w>":8178,"हौवाफोरा</w>":17414,"मागा</w>":10989,"नोंसाजो":21037,":.....</w>":27465,"हाग्रामायाव</w>":15506,"ग्रु":4973,"मिनिटसो</w>":9423,"गारोब्ला</w>":14424,"खामला</w>":24932,"रायथाइ":23374,"बेबे</w>":29453,"सफैबाय</w>":7713,"सुबुंनिफ्राय</w>":24433,"साजाय":3212,"नागाफ्रा</w>":11501,"गलाम</w>":11481,"ओन्सोलनि</w>":21604,"जोंनो</w>":907,"थाब्लानो</w>":14341,"आह":8053,"आइजोया</w>":25359,"हाबाखालि</w>":19821,"सोदोबखौ</w>":3755,"yahoo</w>":21758,"आजाय</w>":14107,"फेस्ला</w>":5223,"खालम":26279,"यजों</w>":28291,"रामनाथाबो</w>":20323,"दुफां</w>":23346,"नांगौ</w>":474,"दे</w>":852,"दानायनि</w>":7413,"दिहुन":1175,"राङै</w>":11844,"res":12470,"word</w>":10772,"57</w>":18198,"सलʼमागिरि":25521,"खानाइया</w>":25836,"जादोंब्ला</w>":28782,"निजोर":13105,"खासो</w>":28898,"आफानि</w>":3529,"खांग्रा":16208,"आलमारिनिफ्राय</w>":27287,"मास्टार</w>":17819,"न्तु</w>":24334,"बोस्रांनानै</w>":15673,"फिननाय</w>":3008,"गेलेनाय</w>":5712,"बुध्":7772,"देबानि</w>":2290,"रामनाथनि</w>":15569,"इनाइनो</w>":15955,"ओंखारबोयो</w>":5094,"बेनोमोन</w>":25989,"थासान्दियाव</w>":5923,"मन्जुवाबो</w>":11389,"सिफाइ":18824,"दुमासु</w>":19280,"त्य</w>":4364,"एबसु</w>":8030,"ys</w>":27623,"तन</w>":16025,"सायखंखौ</w>":26611,"उलिया</w>":27782,"जोगारनो</w>":22912,"होखारो</w>":29646,"फिसिनो</w>":10353,"para":26294,"गसंथे":17246,"उखै</w>":21834,"फारसेनिफ्राय</w>":17539,"एरखांनो</w>":20450,"बिजिरथि</w>":24570,"लुबैदोंब्ला</w>":19991,"दारै":29393,"इष्टा":27770,"देरनाय</w>":5095,"सुइसाइद</w>":10800,"मिनिथाव</w>":11312,"दंमारो</w>":24052,"बाबु</w>":2149,"गुवारथिनि</w>":26709,"खोमथा":24367,"रिहा":16488,"सोम्":29674,"खुरै</w>":2180,"जाउ":12944,"ph":7342,"रायलायनाया</w>":9958,"शाल":24394,"नोगोरमायाव</w>":6992,"कमफिटिसन</w>":27288,"फो</w>":5779,"नायजाबखौ</w>":8786,"मेडिया":23363,"नुबानो</w>":19319,"बायबाय</w>":5499,"बोलो":3139,"बोथ्रोद</w>":22935,"बानु</w>":2975,"mil":27557,"सेफाय":22957,"सन्":3294,"आह</w>":27708,"मैयानिफ्रायनो</w>":27063,"सै":548,"आलायनानै</w>":15945,"लायो</w>":811,"सांग्रांनि</w>":25063,"सियावनो</w>":17221,"एन":4386,"ग्राफ</w>":5528,"ख्रुब</w>":5709,"इन्जिनियारिं</w>":7308,"सफैब्ला</w>":18503,"दोनखोमानो</w>":24095,"आच्":4668,"अरखौ</w>":6780,"दोनथुमग्रा</w>":10014,"गुब</w>":16478,"कास्त":6018,"अष्ट्रे":27693,"ot</w>":11719,"खान्थिजों</w>":5252,"जि</w>":609,"मेराय</w>":23357,"सानसेखालि</w>":2608,"लनिफ्राय</w>":3546,"थानायानो</w>":12968,"बुङाखिसै</w>":6722,"जुग":16699,"हाज्लाया</w>":22564,"ब्राम</w>":2450,"फुदु":23562,"खारस्लि":23578,"सʼन":8712,"नुबाथाय</w>":19322,"सिगारेट</w>":3635,"चीना</w>":25494,"रआव</w>":16088,"गावजें":9700,"जयफल</w>":17684,"थाइखौ</w>":2712,"लागासिनो</w>":7383,"हासो</w>":22537,"सिनखौ</w>":6851,"pro":4051,"डलार</w>":14189,"जिरायबाय</w>":6053,"enc":6977,"गंसेलʼ</w>":16955,"मिर":19089,"जिजों</w>":22962,"पार्ट</w>":11462,"हाद्रिखौ</w>":24353,"दौलतखौ</w>":25975,"थुगुल</w>":23535,"गुरिनिफ्राय</w>":23024,"थानोनो</w>":28857,"आजि":12782,"जखौ</w>":3158,"जालाया</w>":28741,"फैथों</w>":19128,"स्टक</w>":25688,"नुनायमोन</w>":23416,"बारसे</w>":7847,"रे":436,"ददेरेजों</w>":20216,"लहेननि</w>":26959,"फजʼनाय</w>":15443,"फैसिगोन</w>":23120,"खावलायबाय</w>":19872,"बायदे</w>":23303,"अनिमाखौ</w>":25300,"post</w>":20957,"000</w>":3279,"इलियटनि</w>":21479,"ट्रेइनफोरनि</w>":21326,"es</w>":2610,"दुर्जांनाव</w>":17791,"गुबुनसो</w>":15523,"हाराव":18760,"सोगारो</w>":11965,"आइन":19916,"जोंग्रा</w>":23395,"मोनथिसिगौ</w>":25563,"नवावनो</w>":5154,"ष्ण":7887,"इन्टारफे":26714,"बोहैबाय</w>":17174,"साइकेल":20419,"ब्लि</w>":10510,"बेमा</w>":9624,"आसि":7686,"ख्लाय":4749,"रिसिभारखौ</w>":18163,"गोख्रों</w>":1602,"ंग्राय</w>":10583,"गारनांगोन</w>":19556,"गोसोजों</w>":2216,"न्दाव</w>":14640,"होथों</w>":22771,"जाफुंसारनायखौ</w>":26409,"सिन्दुर</w>":6289,"ल्ड</w>":9783,"कान्":16827,"फबो</w>":22046,"गिर्जा</w>":23059,"बेफोरहा</w>":13798,"होनायाव</w>":3401,"बिभी":11884,"il</w>":15897,"प्रचि":19782,"जाबोनो</w>":7392,"फटʼग्रा":20824,"कक्राझाराव</w>":21224,"बिदिन्थि":22426,"kings</w>":27314,"अजा":10852,"फेयार</w>":23941,"नानैसो</w>":2009,"बेवहाय</w>":2084,"रासे</w>":4683,"ीआ</w>":28472,"बायनो</w>":2246,"तजों</w>":16028,"माबायदि</w>":12996,"ट्रेजि</w>":17249,"मोननि</w>":1278,"नंग":1103,"नोंसाला</w>":13187,"हाब्रां</w>":15738,"बिलोगोनि</w>":16231,"बरʼ":698,"माबो</w>":4315,"लांसि</w>":23445,"झालु</w>":10585,"har":14080,"बिबुनिफ्राय</w>":26686,"बर्":2585,"face</w>":14078,"नम":28120,"बसुमतारिनि</w>":7232,"गोजांनाय</w>":15377,"सोंहरो</w>":13402,"बोरायजों</w>":17498,"ब्रह्म":2846,"आनि</w>":12781,"साबसिनै</w>":20176,"थांखांनाय</w>":23191,"नायनांगोन</w>":18798,"ry</w>":8444,"जांख्रिथाइ</w>":6733,"हाउस</w>":17617,"फानग्रा</w>":12379,"सवा":22146,"दुइनम्बरि</w>":21319,"गेलेनानै</w>":15192,"फुस्लाय":23567,"रमायना</w>":7017,"मोननिफ्राय</w>":8566,"न्दे":1645,"सान्थ्रिनि</w>":13788,"बगा</w>":28219,"स्वर्गिया":27292,"by":27474,"मिनिस्लु</w>":2558,"लिभारा</w>":19161,"आजां</w>":27735,"मोनग्रो</w>":29768,"दिभि":29875,"आसा</w>":4565,"ङाव</w>":494,"मनजुआबो</w>":12414,"बेकार</w>":11048,"सुबुंजों</w>":13480,"सिनायबाय</w>":17153,"नेता</w>":19646,"\"--</w>":10102,"बिजिरसालिया</w>":13516,"जाबी</w>":24139,"नुहु":6193,"सोरजिथायनि</w>":24861,"प्रदिप</w>":26744,"साबनाय</w>":17202,"प्रसेन":8391,"जुवा</w>":7830,"इनफर्मेशन</w>":25051,"रायावनो</w>":26165,"लाइसारी</w>":19442,"गयारीया</w>":25770,"बारहावा</w>":13309,"बेराफारसे</w>":15637,"थुलुंगा</w>":3043,"ग्रायालाय</w>":23962,"मोफ्ला":11902,"सोरजिलांनाय</w>":24862,"शिबसागर</w>":26523,"उखुन्द":10761,"बाथिं</w>":14289,"बनʼवा</w>":22073,"sen":8446,"हाबहैब्ला</w>":17845,"बुफ्लाम</w>":29527,"रुंसार</w>":9410,"सागु</w>":7407,"मट":9525,"नागिरबाबो</w>":17048,"फरायसालिमानि</w>":25913,"मोजाङै</w>":1370,"खावरि":24284,"बन्दर</w>":25942,"हानायसै</w>":29164,"ख्रुइ</w>":20186,"आयदा</w>":2690,"गादि</w>":14418,"मुंमा</w>":2408,"बिसोरबो</w>":4537,"ʼफोरखौलʼ</w>":27639,"wo":21753,"खालामोमोन</w>":21163,"सुरलाङो</w>":15241,"पेरि":15121,"बादैबो</w>":28595,"खाजादों</w>":18656,"जुब</w>":9149,"सावरायो</w>":16865,"साफेन":29147,"बिलाखार</w>":17479,"लाङा</w>":14298,"ायो</w>":343,"बेगरा</w>":25792,"लाइफांनि</w>":3617,"सिस्टेमखौ</w>":15414,"हाबाफोरनि</w>":19820,"नुब्लानो</w>":9134,"बेखेवगाथाम</w>":6457,"रिटिकेल</w>":23050,"माहाजोनाबो</w>":15110,"होबाव":14490,"खारनायनि</w>":19422,"इन्जुर</w>":12409,"बाथ्रायावनो</w>":20204,"d</w>":182,"बिहार":28969,"बख्ल</w>":28246,"हाजʼवारिनि</w>":17353,"बाटा</w>":28568,"फʼ":2261,"8</w>":211,"न्दि":973,"हालि":5966,"लुबाय</w>":19372,"पाकि":3316,"मोनफै":16408,"हाब्ला</w>":13021,"promp":17712,"सोरगिदिं</w>":2662,"जोंबा</w>":5998,"स्टि</w>":7163,"फुवा":16716,"बाहागोवा</w>":24893,"थाबायलांनो</w>":25168,"गयथिखौ</w>":6085,"जʼहैयो</w>":24225,"दया":1586,"उथुमायाव</w>":21061,"अलखदाव</w>":21148,"सानजौ":3792,"अनसुमा</w>":21456,"जादोंदि</w>":28781,"खोनाय</w>":9684,"दिनि</w>":1797,"मावनाया</w>":13297,"बुक</w>":13067,"थारुनखौ</w>":15664,"रिफोरा</w>":2443,"रुजुनना</w>":21300,"गोबाख्र":5888,"फोर</w>":451,"सनानि</w>":7373,"गवा":27890,"स्रिनानै</w>":4269,"मेट्रिक</w>":5415,"जाफिनगोन</w>":28779,"देहाया":7145,"फोरनि</w>":508,"बाराव</w>":3982,"मांग्रि</w>":16246,"बेलायावबो</w>":12709,"टिसि":14959,"लनिफ्रायनो</w>":18479,"गांसेखौ</w>":15068,"बिसनि</w>":28972,"दुगै</w>":16633,"थजा</w>":28059,"खाख्लुबनानै</w>":26836,"ट्रेजिक</w>":11399,"दुंलुब</w>":20243,"फाखामोन</w>":29581,"नङामोनब्ला</w>":12271,"फजʼहैबाय</w>":15444,"बारुनि</w>":28582,"केतु</w>":23934,"म्भ</w>":11204,"खैना</w>":10473,"मंगल":2883,"क्रʼ":6995,"थाबोनाय</w>":28835,"क्लासमे":20629,"नोंथां</w>":1368,"खालामसिगोन</w>":13189,"गʼस्वामी</w>":19953,"सोदांग्रा</w>":29702,"आलनि</w>":27718,"अडिटरियाम</w>":27308,"दत्त</w>":27119,"फ्लाबाय</w>":11364,"बेफ्रुहोनानै</w>":17591,"बाइह्रायाव</w>":17209,"थाफ्लिया</w>":26964,"बरायनाय</w>":12531,"आसथामा</w>":26001,"लखʼबा</w>":15655,"दंफा":12234,"सुबि":7789,"...............</w>":13459,"सान्दो":17192,"बंसा</w>":20843,"अननो</w>":23867,"गु</w>":2016,"नयाराम</w>":27120,"गोसार":5470,"52</w>":15875,"देंखोयै</w>":20663,"दाबिनि</w>":29387,"शर्मा</w>":17876,"mes</w>":27556,"मंगलसिं</w>":5737,"बुंथिनाय</w>":9396,"बाइजो</w>":13553,"बिबान":5235,"जौगागोन</w>":25008,"दाहानि</w>":5622,"खांनो</w>":2307,"बारसोमनाय</w>":26361,"गावसोर</w>":4713,"बिफामोना</w>":24151,"खेराय</w>":19473,"भिटामिन</w>":21557,"तितागुरिनिफ्राय</w>":25361,"दोनखौ</w>":24082,"बागोन</w>":28550,"जुलाइ":16701,"बिबानाव</w>":7200,"सङै</w>":12894,"थाफाव</w>":18631,"सुनिया</w>":7791,"मानियाव</w>":19352,"यैखाय</w>":25690,"बृष</w>":11566,"फाल्ल":22756,"आफादगिरि</w>":1802,"सिगौ</w>":2504,"आसो</w>":21789,"दावबो</w>":16832,"जाखांफैबाय</w>":17553,"गʼस्ला</w>":11335,"दैदेनगिरिया</w>":25000,"नायग्राफोरा</w>":22623,"फैयाब्लाबो</w>":20492,"गायग्रा</w>":16923,"बिनिखायनो</w>":3487,"दुइ":6188,"हाखन</w>":11016,"फानहर":13567,"दाहोना":5260,"हावलाद</w>":12445,"नायना</w>":10281,"रेद</w>":16740,"रिंनि</w>":23042,"मुसि</w>":13168,"दैथुना</w>":17938,"लेजिस":19176,"फावथाइखौ</w>":3877,"सोयो</w>":18923,"बाजार":8506,"फोनांखो</w>":20668,"ायाबो</w>":1546,"मिथियो</w>":4704,"होखाराब्ला</w>":29667,"जʼनाय</w>":19836,"सिमायाव</w>":16325,"बापा</w>":8991,"होनायबो</w>":22784,"बावाखै</w>":7381,"हुयै</w>":19576,"रतन</w>":22117,"महिला":8412,"आदबा</w>":12360,"खुङो</w>":14663,"ac</w>":18212,"माबोरौ</w>":27354,",--\"</w>":27418,"किउर":5384,"बथल</w>":7273,"out":25212,"फ्रान्च</w>":27157,"खान्":18654,"बांसिन":11265,"नुवाब्लानो</w>":26010,"लिष्ट</w>":23162,"मन्जुर</w>":24693,"जेनै</w>":22940,"बान</w>":4914,"ब्रा</w>":889,"थियेटारखौ</w>":11523,"जोमाव</w>":14537,"डायाव</w>":18387,"बीर</w>":11541,"दांनायफोरखौ</w>":24439,"नारेंगु":7643,"रमिव":14037,"गोनांखाय</w>":24711,"दावदाया</w>":23853,"मिलाय":16494,"फरायो</w>":4560,"हागोनदा</w>":21377,"बुंसोलायदों</w>":23091,"सायनासालि</w>":21274,"ट्रेड</w>":17248,"जैमती</w>":8791,"जोबथा</w>":2686,"लाइफां</w>":3225,"नलबारी</w>":13990,"जाबावनायसै</w>":21175,"दुपसाव</w>":7300,"मार्का</w>":12524,"बेरेखायै</w>":5904,"सनिराम</w>":21283,"गिनांगौ</w>":5986,"नक</w>":14205,"फरेष्टनि</w>":13826,"सेन्स</w>":14558,"नायखोमा</w>":22618,"नायस्रां":29281,"बेखेवगानै</w>":6069,"फुक":7154,"बसेबो</w>":11782,"वारि</w>":2683,"अन</w>":5759,"थख्ल":21999,"mit":10843,"इराग्दावखौ</w>":13874,"खुलियाव</w>":23269,"रय":9531,"जोबाय</w>":22904,"गब्लं</w>":21138,"ष्टेट</w>":13746,"फाखनाव</w>":29584,"थागोमानाय</w>":28866,"बमाखौ</w>":8966,"जांख्रिथाइ":12490,"खरʼ":1239,"गारजा</w>":16806,"सोलोंथाइ</w>":2746,"खुबैनानै</w>":26400,"हिन्जावखौनो</w>":24642,"बिलʼ</w>":14358,"बिहावनि</w>":7985,"थुरनि</w>":14759,"बेटमिन्टन</w>":18867,"सेक्":22954,"ोसो</w>":9543,"सिफियाव</w>":13934,"निउबिला</w>":25794,"गाबनाया</w>":9789,"ओंखामजों</w>":19849,"थागौमानि</w>":28875,"स्टिक</w>":10442,"जेनथेनसो</w>":24665,"राजथान्दैनि</w>":26804,"रुपाया</w>":13858,".........!</w>":15640,"गाबज्रि</w>":6419,"la":3891,"trag":7325,"रमाया</w>":9534,"थेंक</w>":11619,"बहनबाय</w>":25496,"जाहोगासिनो</w>":24963,"गोमजोर":2850,"जफाया</w>":27978,"परमे":22038,"मावदोंमोन</w>":11220,"ङाखिसै</w>":7837,"दसेलʼ</w>":16046,"खनखांनानै</w>":12262,"मिथिबाय</w>":2252,"बुसाया</w>":16373,"खावना</w>":13439,"एकाउन्":26223,"मलिना</w>":27224,"गसंनाय</w>":12383,"बाखौनो</w>":28557,"खांबाय":23549,"टेप</w>":13395,"2009</w>":7940,"खारलांनाय</w>":19429,"रबि":5445,"बरुवाया</w>":21102,"सानजा</w>":2595,"दावबायनायाव</w>":9397,"गेजेरावसो</w>":19571,"कारनि</w>":16828,"एन्जर</w>":21573,"सिकिउरीटि</w>":18117,"हादि":29159,"भारताव</w>":5259,"खहाबनाय</w>":21902,"सस्":28391,"बाहागोनिफ्राय</w>":24894,"सावननि</w>":23954,"सोरजिलु</w>":8757,"डि</w>":1795,"दैमु</w>":13294,"बिबानगिरि</w>":26192,"इमार्":27766,"नाब्लाया</w>":22209,"इज्जत</w>":8887,"मेन्टेल</w>":20902,"आफां</w>":24060,"खिरिमि":14767,"ीयाव</w>":2087,"खन":658,"जाथाया</w>":2958,"हालो":3553,"लाथʼ":28615,"बायना</w>":6184,"होया</w>":16390,"दाजाब":1166,"बानेश्वर</w>":14296,"केल</w>":2742,"बोफ्ल":16451,"1st</w>":14068,"हालिसे</w>":13933,"थानायबो</w>":28855,"vo":6114,"ग्रं</w>":7868,"थावगौ</w>":9817,"गेवलांनाय</w>":17457,"पारमिट</w>":21427,"खोथायावनो</w>":23105,"el":3049,"खानायमोन</w>":28918,"भेन</w>":13681,"law</w>":15538,"गिसं</w>":19084,"कनसार्ट</w>":25748,"सिनसो</w>":6255,"नायखौनो</w>":2799,"लेङा":14632,"नमस्कार</w>":10832,"बजबनानै</w>":7070,"हाजिर</w>":10277,"स्रं</w>":23511,"काम</w>":13337,"बाङाय":18562,"71</w>":21673,"आंलाइ</w>":23170,"टमेटʼ":26633,"इज":7351,"सेन्दे":3663,"गोरलैयैनो</w>":15498,"सेन्देल</w>":5915,"नसेल</w>":8072,"गिबिफोरा</w>":17478,"man":21729,"खाखो</w>":28902,"थोबाय</w>":23949,"थिंख्लि</w>":15163,"फोथायनायखौ</w>":25019,"गोर्बोआ</w>":25552,"रांगा":9824,"खाराव</w>":5461,"द्लानानै</w>":20717,"सेक्स":3365,"गारो":11019,"बुरै":2525,"ess":10703,"गोजौआव</w>":17358,"थाब</w>":1565,"...........।\"</w>":19927,"मुस्री":5641,"आसे</w>":14100,"प्रेस":20293,"मोनजा":3363,"सुस्रां":4154,"राफो":2860,"ठाकेरे":26537,"दानाइ</w>":22675,"नागिरगासिनो</w>":17046,"\"":3,"माइनाव</w>":4743,"नुलां":19314,"इजा":27750,"सन्थालीया</w>":26383,"फालिया</w>":22752,"मोनथिनो</w>":7781,"थाइया</w>":5520,"राजाफोरनि</w>":7917,"मारुटिखौ</w>":25628,"सिन्ता</w>":29372,"हारिहा</w>":13500,"बैसोर</w>":23812,"थाखायबो</w>":5732,"नेहाथारि</w>":4465,"बेलस्रिनि</w>":24727,"शना</w>":10924,"थाथारनांगोन</w>":18647,"दिहुनगिरि</w>":12378,"जाथारनाय</w>":14333,"साजोंनो</w>":22513,"बेथिं</w>":18857,"गिख्रं":3540,"निदानखौ</w>":13107,"नायावबो</w>":4979,"लुबैगोन</w>":24451,"लायलां":19303,"गानस्लायनो</w>":20091,"मुङैसो</w>":16540,"आमाइ</w>":3491,"बेकेट</w>":22705,"सिगांनिख्रुइ</w>":25186,"दालाय":29382,"नौना":4468,"।'</w>":1514,"राखेबा</w>":8435,"हेन्देलखौ</w>":21266,"मिक</w>":9678,"सोर्गोआव</w>":26084,"दिन्थिय":17451,"हका":9541,"दमोन</w>":28081,"''</w>":1293,"केलकु":26799,"मजों</w>":4578,"गलायनानै</w>":4792,"जर्":7696,"उफ्लेदों</w>":27789,"सोरावयै</w>":29701,"जफादों</w>":27987,"गुबुननो</w>":19533,"होब्लानो</w>":10319,"साह":10261,"ख्लं</w>":3875,"सिफ्लिनानै</w>":27358,"अदालगु":5145,"ख्रिया</w>":5836,"नाजानायाव</w>":6241,"हांगारि":19698,"सोदोरमा</w>":27147,"सोदेर</w>":29692,"20</w>":2884,"ग्लाबनो</w>":24709,"थिखानाय</w>":9070,"श्रिया</w>":12425,"सोगोम":14500,"रासिन":22301,"खब्बाय</w>":27878,"खन्थाम</w>":24959,"जोबो</w>":1840,"सुग्लाय</w>":22992,"वेल</w>":25302,"अनगाय":1102,"him</w>":18075,"जहै":21949,"बिथांनि</w>":1791,"बावलांनाय</w>":14828,"बाबद</w>":18560,"दैदेनगिरिफोरजों</w>":17872,"आखान्थियाव</w>":12274,"सुग्रि</w>":10350,"भाजि</w>":19886,"नारजारिनि</w>":26711,"आग्रोम</w>":27739,"fic":10112,"बुङाब्लाबो</w>":17371,"नांनो</w>":4087,"होआसै</w>":12549,"नांबाव":8616,"रायलायनाय</w>":6382,"फादोर</w>":3725,"तिल</w>":17128,"देलों</w>":19243,"ber</w>":5277,"सायावबो</w>":9286,"जानजि</w>":13733,"....\"</w>":7473,"बैजों</w>":7851,"सावनानै</w>":4099,"फरेनसिक</w>":25806,"जोमावा</w>":22913,"भल":10178,"साबाय":3455,"जाथियानो</w>":28799,"जोमै</w>":4075,"जाफ्लादों</w>":26299,"दोनलांनाय</w>":24090,"गोख्रैसिन</w>":17774,"थिफाय":14532,"गोनांथिनि</w>":24712,"पेन्टा":26749,"आथिमंग":20034,"थिंगि":7126,"गʼनाय</w>":17049,"शर्मानि</w>":21122,"होन्नानैसो</w>":13661,"सफायाव</w>":8083,"जालायनायनि</w>":25445,"बावगोन</w>":3312,"बावनोसै</w>":16786,"बुंजाथाव</w>":23079,"जागि</w>":28746,"जासि":5453,"खुजेब</w>":21409,"soci":12572,"इउटिलिटिफोर</w>":21423,"गोग्गा</w>":26634,"थुमनाय</w>":9329,"हानिनि</w>":18770,"ददेरे":1177,"ग्लायो</w>":12220,"दोननायनि</w>":13398,"बांनो</w>":6212,"गुजाय</w>":23011,"नायजों</w>":953,"थेफेना</w>":2750,"दसि</w>":18409,"दोंमोनलै</w>":15479,"फोरोंगिरिफोरा</w>":17323,"जोनोमफुरि</w>":18016,"बुर्लुं</w>":27281,"सं</w>":1999,"ग्रीमउइ":5417,"पन्च":16061,"सासे":1194,"नायफोरनि</w>":14432,".....":3308,"स्रा":702,"हान्जाफोरा</w>":25434,"फैनो</w>":1355,"खानायानो</w>":28921,"बाहेरायाव</w>":9556,"नै</w>":277,"ted</w>":12764,"बुन्था</w>":22727,"हारिफोर</w>":13501,"साइद</w>":15083,"ल्ल</w>":10483,"लाखिना</w>":17158,"बिखुङाव</w>":5736,"अटʼ</w>":18269,"धार</w>":25534,"सेनापति</w>":6497,"इन्द्रप्रभा</w>":26880,"गैयाखौनो</w>":24737,"नायब्लाबो</w>":8543,"बिखौ":22421,"नबदय</w>":27342,"अजिताबो</w>":21390,"मोनोदि</w>":26036,"जोबा</w>":5189,"नुजाथियो</w>":8756,"बाजाय</w>":28560,"fix</w>":17944,"नांनायसै</w>":19357,"हाबफैनायनि</w>":23845,"होखोमा</w>":29607,"ख्लु":8272,"मायनानै</w>":14891,"हानै</w>":29157,"खुरबायनो</w>":25311,"एरै":2920,"होबावनो</w>":18901,"मानु</w>":23475,"दुइ</w>":3927,"मेसिन</w>":19285,"नेर":3369,"गोग्लैसोनानै</w>":6953,"फारब्रै</w>":19629,"बुंब्लालाय</w>":23080,"चार्ड</w>":25413,"उदासि</w>":27788,"हुगार":4843,"हारिमुनि</w>":6044,"आखुफोरनि</w>":11332,"बुराया</w>":3425,"कल्पना":15088,"बोसोरसेखालि</w>":21558,"बिखायाव</w>":1430,"सौधु":17058,"जोंब्लाउ</w>":25964,"ज्लाय":1045,"बासो</w>":3251,"चिया</w>":14176,"मुसाहा":5328,"बिबाव</w>":18670,"खारग्रा</w>":19424,"साइकेलजों</w>":7590,"हरबा</w>":13236,"रित</w>":23039,"प्रबननाथ</w>":27387,"ढ़</w>":21985,"ब्लाय":15006,"रायज्लायबाय</w>":8790,"होख्रांहरनो</w>":18015,"गियो</w>":4791,"जस्ल":11763,"दमन":22013,"राजानि</w>":1667,"ख्लां</w>":15303,"गंनैखौबो</w>":24205,"थाथावा</w>":22390,"अडिटरिया":21395,"गुदुंजों</w>":5749,"कर्":1847,"दङब्ला</w>":20192,"खक</w>":27853,"सान्नै</w>":17164,"टजों</w>":5773,"सार्भि":9395,"ming</w>":27559,"नुजाबाय</w>":14716,"हांदों</w>":23997,"मावनायाव</w>":8642,"मार":964,"आंगा</w>":18281,"लागे</w>":18577,"एकर्":27807,"खैना":4433,"सुजि</w>":19051,"हरबावो</w>":19330,"खालामबो":16588,"द</w>":146,"लोंदोंमोन</w>":19684,"बुंसʼ</w>":11116,"माजे":16237,"बंग्ल":18448,"दोनहै":7874,"दुगा</w>":6633,"बंग":16067,"गावहा</w>":7820,"proper</w>":20878,"डाक्टरनि</w>":19957,"ज्राइ":25195,"दफोरा</w>":28087,"फोनां</w>":13160,"फारसेथिंनिफ्राय</w>":20646,"देखावनानै</w>":23289,"ोबो</w>":12911,"लिभाव</w>":23166,"2500</w>":27439,"लाजिनानै</w>":6969,"अबुंलाउ":27322,"सानब्रै</w>":16577,"राइटि</w>":23861,"मनजुलाया</w>":4553,"बेरफ्रुजानानै</w>":21109,"तरुन</w>":15612,"बडʼफा</w>":25299,"थारदि</w>":23746,"दोन्":23295,"आखुवा</w>":3237,"नाजाबाव</w>":24575,"मेरेजनि</w>":18048,"साफोरजों</w>":22518,"गांग्रिं</w>":29256,"उरिष्या</w>":11631,"मोखथां":26300,"गैला</w>":3564,"सिलिंखार</w>":7027,"नायाखि</w>":16961,"बिमा</w>":771,"खौरांगानैनि</w>":26617,"दायनि":3148,"इसिबां</w>":15758,":-</w>":1530,"खंगा</w>":21893,"मेसें</w>":12631,"गिग्लु":9677,"नायखा</w>":22609,"hours</w>":27531,"थालि":7729,"आंनावबो</w>":23172,"आइननि</w>":9241,"रिबो</w>":13142,"ददे":1151,"मोनगोन</w>":1316,"गʼथायनानै</w>":19952,"हाया</w>":590,"यापु":23463,"मिथियाब्ला</w>":15578,"सोलाबाय</w>":29686,"ताब</w>":24010,"हागौलै</w>":25856,"साइट</w>":10547,"थाब्लासो</w>":18632,"लिरस्लाया</w>":23996,"जोंजों</w>":10409,"काब्य</w>":27262,"आथिखाल</w>":4033,"बायजो":2739,"प्रिन्सिपाल</w>":27195,"सोद्रोमा":2853,"एकाडे":8026,"दुसि</w>":14688,"सलनि</w>":18496,"लाउ":1473,"गोराजों</w>":13645,"अलका</w>":4275,"थाखायब्लाबो</w>":20633,"हाजे</w>":22555,"एरसोनानै</w>":15286,"लानायानो</w>":16145,"गहाइ</w>":21924,"असुख</w>":15931,"सासपे":18753,"रोंदोंमोन</w>":20232,"स्ट्राक":9161,"डिं</w>":13492,"बैसोआवनो</w>":15249,"खौबोथʼ</w>":19267,"जारिमिनखौ</w>":4997,"सिलाय</w>":8548,"बाग्दावखांदोंमोन</w>":25870,"मोनबाय</w>":893,"रेकर्":7482,"निफ्राइ</w>":8153,"मिलौ":7644,"बामु":4142,"गाज्ल":24245,"हामथारबायलै</w>":13973,"एरैबादि</w>":4772,"इउटिलि":11499,"ायालाय</w>":5657,"महारा":15099,"बांलादेश</w>":17704,"सोबा":13088,"देवान</w>":7990,"आलाइस्रिया</w>":2098,"प्लेटाव</w>":20701,"फैनाय</w>":1287,"दुं</w>":1551,"बिमुङै</w>":22436,"दौरिया</w>":24734,"बालि":22223,"बेन्दोंनि</w>":26789,"फरेइनाव</w>":15515,"थाबदों</w>":17439,"चाणा":11504,"दावज्ला</w>":12188,"accessories</w>":15841,"साफ्रामबो</w>":29130,"सरखारनि</w>":8029,"एसेग्राब</w>":5236,"लेथें</w>":23179,"198":2576,"ङगोना</w>":27943,"बिब्दिब्लाथʼ</w>":11416,"उखैनायखौ</w>":20805,"मिथियालै</w>":26041,"एलासि</w>":26532,"लाहोनो</w>":28614,"सुप्र":22980,"अलकाखौनो</w>":20592,"रायखौ</w>":19296,"सोनाबनि</w>":13714,"ग्लबेल</w>":23985,"इनष्टि":17351,"लेमनि</w>":23174,"ट्रेजेदियाव</w>":26371,"अलकामोननि</w>":25410,"बुदि":18869,"फाफ्ल":3300,"थायगिरि</w>":9747,"मावाखैमोन</w>":18714,"सेक्सपी":3828,"नंखायखौ</w>":15683,"खाफाला</w>":7919,"गनायनानै</w>":8468,"धी":12852,"फिसाफोरनो</w>":23790,"बावनाय</w>":4339,"बिलाइफोर</w>":25133,"डजन</w>":28030,"रेसम</w>":23626,"नाखैसै</w>":28528,"गरन्थʼ</w>":7317,"खौरांगिरिफोरनि</w>":9450,"लिरो</w>":5989,"न्दों":7447,"बाहायग्रा</w>":13483,"थाबायग्रा</w>":17385,"मुंराइ":5862,"चित्तरन्जन</w>":7333,"सियार</w>":24743,"सोले":4937,"सोरखाराबो</w>":25345,"अले":27658,"दियैनो</w>":11644,"सफ्ट्‌वेर</w>":12717,"हरबिलासखौ</w>":25757,"ideal</w>":21476,"लायखो</w>":3929,"अन":536,"सेखो</w>":29999,"बारहावा":16778,"सेरमाय</w>":25122,"जथायनानै</w>":21968,"गुज्र":23017,"नामा":8086,"जौसाय</w>":6416,"ट्राइक</w>":15360,"जांख्ला":25321,"जेरि</w>":29971,"दलद</w>":8009,"देहा</w>":1761,"होनो":9060,"थारनाव</w>":23747,"धन":8959,"खिरखिफ्रा</w>":26524,"खारदिं":23579,"बावबाय</w>":2777,"फागु":18882,"कार</w>":3677,"सके":28398,"रानो</w>":2924,"सेंग्रिखौ</w>":24398,"ओंखारहैयो</w>":24076,"ओंखा":683,"खौरांगासे</w>":5121,"जानायखौ</w>":2651,"गोथे</w>":4495,"देरबोबाय</w>":16920,"गोबौ</w>":22493,"मोनदोंब्लाबो</w>":22836,"गोजोनथाव</w>":15284,"निखुरैबो</w>":9646,"जित</w>":1930,"मोदोमै</w>":17080,"जिबिफोरनि</w>":22975,"फख्रिखौ</w>":28198,"महर</w>":888,"फʼनि</w>":17484,"जाग्राफोरा</w>":28789,"फिउ":7134,"जायनिफ्राय</w>":11208,"शभा</w>":22136,"आखाइफ्रा</w>":24624,"थुंग्री</w>":15707,"सरकारा</w>":8813,"आलता</w>":25263,"दाआवलाय</w>":29447,"गराइनि</w>":21926,"सालाइया</w>":22531,"दुगैस्रांनानै</w>":25654,"00":1121,"सिफायनानै</w>":7648,":।\"</w>":12745,"दथा</w>":28088,"सेकेन्दा":21025,"लानाय</w>":1084,"सुकु":10348,"जाबां</w>":11851,"नोंनियालाय</w>":16587,"फ्लास्काव</w>":27069,"मानसिनो</w>":9173,"साख्रिवाला</w>":15559,"सलʼ":537,"हमबायमोन</w>":14833,"सैबारीया</w>":7033,"friend</w>":18144,"मैदेरजों</w>":21353,"स्टेजाव</w>":17394,"मासो</w>":22455,"बाद":647,"सोमस्रिनि</w>":13411,"स्टार्":12512,"मोन्नैयाव</w>":14988,"मारुटियाव</w>":17590,"मंगलदैनि</w>":20695,"टा":477,"मोफ्लाम":21446,"खारु":23571,"साबफा":24713,"खाथिनिनो</w>":25734,"खारʼखान्दाय</w>":23584,"क्का</w>":23987,"बिमाबादि</w>":28992,"ायाबा</w>":19355,"बिरलांनो</w>":24911,"prac":11721,"टेकनिक</w>":25997,"थायनैजों</w>":12168,"एसेसो</w>":19896,"बिबाय":18665,"एरैनो</w>":2790,"गफ्फर</w>":27334,"थिमै</w>":18989,"जाफैनाय</w>":22338,"गलाब</w>":25293,"लाहो":28605,"बायबा</w>":14672,"नंदोंमोन</w>":17077,"उननिफ्रायनो</w>":11447,"खरा":11752,"एरायनानै</w>":18318,"खेबजां</w>":24617,"ओंखारलांनायनि</w>":19751,"फोरमायदो</w>":19905,"फेत</w>":23935,"b":37,"मानोबाव</w>":24307,"sel":27590,"थब्लं</w>":13931,"फैफिन्नानै</w>":13790,"खरिखौ</w>":21894,"फैगौ</w>":1834,"जाख</w>":28725,"इन्दुप्रभाया</w>":10742,"ओंखारना</w>":16908,"जुजाइनि</w>":9471,"सुथु":1767,"खोमायाव</w>":4748,"लुङि</w>":16696,"cil":21701,"राजखुंगु":24535,"ग्राफोरखौ</w>":7185,"फुथि</w>":23563,"बेनजीर</w>":26396,"बुथारो</w>":29512,"बिथाङा":8117,"बिबारबारि</w>":17401,"दायनिगिरि":20743,"देबनागरि</w>":21641,"मोनहैखो</w>":26078,"मावग्राजों</w>":26703,"oth":21737,"एरैनोबा</w>":25601,"जेननायाव</w>":24662,"ओजों</w>":2561,"डिस्":4110,"गोमायो</w>":8750,"कार्जा":23829,"बेसेनखौ</w>":12277,"गिबिया</w>":10672,"सारीया</w>":29117,"उथ्रि":3492,"cray</w>":27208,"मोनफ्रोमखौबो</w>":11973,"साहेबा</w>":27235,"थांखियाव</w>":10778,"lic":17487,"मृगेन</w>":11645,"और":21862,"होथारगोन</w>":22781,"जिबख्रिनि</w>":25276,"दोहो</w>":8187,"wess":27620,"प्रदेश</w>":12649,"सुमै</w>":3513,"दिखांदों</w>":22901,"आंबोथʼ</w>":7807,"आंबा</w>":11131,"ge":27520,"फिनना</w>":19721,"जानगार</w>":13734,"नागारनो</w>":7719,"रुवाथिमोनखौ</w>":26520,"स्लायै</w>":13708,"योब्लाबो</w>":7986,"गोजोन्":20037,"खुनुमो":20917,"अन्तत</w>":27323,"बेगार</w>":22702,"मोनसेया</w>":4652,"मुंहा</w>":11295,"बथला</w>":20591,"बेसोदि</w>":27361,"मता":12870,"थारदों</w>":2486,"गरज</w>":17239,"बाख्नायबाय</w>":20865,"लुसिन</w>":14751,"मोहेर":18726,"हाबहैदों</w>":23843,"खांब्लानो</w>":19410,"ble</w>":12747,"बेखौबो</w>":3257,"नोगोरनिफ्राय</w>":20635,"........</w>":3563,"बोखो</w>":22922,"शचीपा":15833,"ड्राइभारफोरा</w>":26763,"गाज्र":5867,"हायेन</w>":12605,"नोंनिसिम</w>":19208,"जुलि</w>":3223,"फटʼनि</w>":17674,"रिफोराबो</w>":19079,"गाबज्र":6213,"इये":27764,"नागार</w>":7078,"होगार":29594,"सोरबाफोर</w>":5074,"टेक्":5858,"टंला</w>":21575,"रायज्लायनांगौ</w>":25259,"नासो</w>":6819,"रेन्जारा</w>":6484,"बिं</w>":16219,"बारसʼ":13308,"दादा</w>":16337,"मोनफिननायनि</w>":29779,"साबा</w>":9030,"सोलोंथाय</w>":7234,"माखासे":17104,"खौरांखौनो</w>":25054,"आसारनि</w>":24379,"गया":3494,"बायनाय</w>":3306,"सोला":5805,"हसपि":8987,"चरन</w>":17900,"एनालʼग</w>":21534,"नांगौब्ला</w>":2819,"जोबाद</w>":29914,"फोथायना</w>":25017,"जाखौ</w>":2062,"रिभल":12015,"दैबानाजों</w>":16757,"कमा</w>":14156,"पालें</w>":23887,"जिब":1989,"द्रेज</w>":21078,"एवनाय</w>":11537,"सार</w>":754,"मारो":22456,"जाबोआखै</w>":25673,"गयनि</w>":20590,"जोनो</w>":10334,"ओंखायनो</w>":3227,"जन्थ":18367,"दुइसिन":21129,"ऩ":100,"फासय</w>":22762,"आश":27706,"-</w>":191,"नांथʼ":16685,"थंब्ले":12680,"बेरला</w>":20095,"हारसाया</w>":13518,"नोमा</w>":6884,"धोरोमारि</w>":17295,"सुनिबार</w>":27245,"दुर्जां":4864,"दानथार":12279,"सुरहाब</w>":13628,"ज्लायनाय</w>":5386,"सानब्लाबो</w>":9114,"जाथि":11848,"नील</w>":9976,"गासिखौबो</w>":13375,"गाराइखौ</w>":18793,"उवालनि</w>":26149,"दुपसावफा</w>":5922,"दारजों</w>":14459,"आदिबासि</w>":15784,"जाखारदो</w>":28802,"फिनै</w>":19066,"उन्दुना</w>":8716,"ड्राइ":5583,"हाजारसो</w>":26231,"जरासे</w>":12832,"बिदे":22420,"थेलेफानि</w>":17442,"सारजननि</w>":24238,"बलजों</w>":22072,"इस्ट</w>":27765,"फिलि":23027,"आवग्रिनानै</w>":12696,"होन्दों</w>":12427,"देमग्लाय</w>":17919,"आहम</w>":21810,"कम</w>":15967,"ंगा":21762,"-":13,"मोनफिनगोन</w>":29761,"साखाथिनि</w>":13016,"बेसे":718,"गुसेब</w>":11104,"लखब</w>":18481,"गलाखौ</w>":27907,"दावला</w>":4970,"डिटेकटिभ</w>":7911,"साब्रैसो</w>":11006,"फैबानो</w>":14616,"गलʼजों</w>":15153,"गरमा</w>":15179,"रिंगुदाम":15863,"फोलावनो</w>":19119,"दंफां</w>":2903,"सुलात</w>":21206,"लेप</w>":9691,"गांनै</w>":6040,"फेजेननो</w>":21351,"थेख्रेराम</w>":26304,"नबां</w>":28131,"वार":5654,"टनिनो</w>":21980,"सिखोमाया":29371,"दिले</w>":29873,"स्क्रिननि</w>":21226,"उइलखौ</w>":15447,"दाथायनि</w>":22673,"सोदोमस्रिया</w>":26018,"थाउ":8517,"ब्रब":9172,"कार्पेट</w>":27297,"थामफै":24588,"दखʼना</w>":18417,"फारौ</w>":10467,"हिउ":12142,"जेशन</w>":22946,"go":6112,"दार्स</w>":29421,"लʼमोन</w>":23599,"हायाखैमोन</w>":4174,"।...</w>":7715,"खारि</w>":3299,"टेड</w>":12238,"फानसे</w>":15177,"ंगʼ":23004,"बाउन्द":18552,"मफोरनि</w>":22088,"सुबुंसायाव</w>":19974,"?....</w>":27467,"सय":3548,"रेस</w>":6647,"हारामजा":8433,"ष्टिक</w>":24215,"बिबादिखौ</w>":24302,"दिप":5979,"जागिखांनानै</w>":17995,"गाबनि</w>":4254,"रयनो</w>":21337,"आनन्दराम</w>":20687,"सिया</w>":1477,"जाब्लालाय</w>":28773,"होखो</w>":7776,"मह":650,"बैबो</w>":19581,"खथाया</w>":21892,"बुंगारबाय</w>":23084,"जाबायमोन</w>":5457,"बावथारदों</w>":23729,"सेर":1672,"मिलिजोब्बाय</w>":25860,"आउट</w>":26345,"नों</w>":422,"बबेखानि</w>":2083,"डाबल</w>":24406,"दखर":7360,"रोदाजों</w>":19405,"ष्टाव</w>":11297,"बोस्रांनो</w>":13935,"हाबनाया</w>":23837,"हेरायाव</w>":6712,"बुद्":10312,"गुजुस्रे":12611,"मदारु</w>":15516,"हाजवा":16298,"गोग्लैदोंमोन</w>":11363,"del</w>":26088,"सावराय":1251,"गारनानै</w>":1272,"खामफ्ला":4648,"महाभारत</w>":15100,"मोखांखौनो</w>":24989,"डेभि":4121,"सोलोजों</w>":7628,"खालामनायावनो</w>":19219,"गोखो":22475,"आगाननैसो</w>":15585,"कुन्त":19992,"फोरमानलाइ</w>":21012,"सोमद्र":13410,"खाफाल":10569,"रुमा</w>":7159,"अरदाबनि</w>":24558,"सर्मा</w>":17635,"बांलांबाय</w>":24057,"सेंग्राफोराबो</w>":15250,"रावजों</w>":2665,"इन्जु":7950,"जाहार":16166,"जावरि":11393,"...":1523,"सिमांनि</w>":9323,"बंसनि</w>":25852,"कमाण्ड":3539,"ओंखारलाङो</w>":1960,"हाबाफारिखौ</w>":4190,"बोलावरि</w>":29961,"लखʼबनि</w>":10788,"र्ज</w>":19271,"खरसाखौ</w>":19832,"बानो":28551,"लाफिनदो</w>":18582,"आंसो</w>":5196,"मोनैनि</w>":5631,"jec":8046,"साक":16273,"इण्ड</w>":11737,"फोथायनानै</w>":20350,"मनʼरन्जन</w>":7002,"सʼनो</w>":4030,"सौसिनानै</w>":19970,"फोनांनो</w>":15415,"बआ</w>":18445,"थाखोसे</w>":17328,"नुनायसै</w>":23412,"बाइदि</w>":2040,"दन्दि</w>":8480,"यलें</w>":22103,"पाट":6656,"दुबगां</w>":25873,"आखाया":19908,"संदान":12200,"।....</w>":10202,"फैनायमोन</w>":13163,"नोंथाङालʼ</w>":26113,"सानावबा</w>":29146,"खौरां":1556,"mail</w>":25669,"बोदोंसै</w>":29955,"बुंदोंमोन</w>":2624,"ओइ</w>":3435,"ट":90,"एच":18310,"जुनार":16704,"लुबैसुला</w>":12309,"चननि</w>":27950,"खुजा</w>":16597,"बुसा</w>":14473,"हांख्राइ":24002,"बिब्दि":1330,"गेदाइ":10416,"गुबुनारिफोरा</w>":26166,"आयगनि</w>":24443,"फुलि</w>":7157,"बिहाली</w>":20605,"न":99,"लिरबाय</w>":7870,"सोमावसारग्राफोरनि</w>":25128,"मानोना</w>":902,"त":95,"सʼ</w>":1720,"ence</w>":21183,"आन्थोर</w>":21396,"जायगा":4246,"फ्लां</w>":9848,"हालोद</w>":20811,"जोब्राब</w>":27258,"सोरखौबा</w>":5206,"वाक</w>":23404,"तै":12840,"दारा</w>":3991,"हाथुरा</w>":11017,"फाइनाल</w>":15282,"फालिनायनि</w>":8809,"बिलो":4493,"गोजोनदों</w>":25165,"प्लेट":10706,"मेक्":16638,"गोथैसालियाव</w>":11545,"थुंसुं</w>":18049,"थिंख्लि":15164,"गावसोर":4610,"फिन्नानै</w>":4514,"एबसुनि</w>":5132,"तन्त्र":6127,"अरनि</w>":12774,"फारफा</w>":14879,"दिंग्री</w>":29887,"फोरासो</w>":10570,"सायनाय</w>":24514,"कʼक्राझार</w>":6101,"बालन्दा</w>":9440,"हाट</w>":18757,"नाजावा</w>":20070,"हाथावगौ</w>":29200,"नगद</w>":28155,"दिन्थिनांगौ</w>":24303,"जिनाराम</w>":20634,"दासान्दै</w>":11699,"अरदाबाव</w>":6954,"आइदियाखौ</w>":27173,"आबु</w>":8709,"रले":28303,"रंजागोन</w>":24298,"हायनारि</w>":7861,"लाजों</w>":10216,"मिरुनि</w>":10363,"गोहै":16261,"सायालाय</w>":24702,"loquy</w>":8364,"लाफिनो</w>":28626,"सोमद्रि":24188,"माबासो</w>":16249,"टाउननि</w>":13311,"सोनारनानैनो</w>":20930,"mic":27558,"सोमखोर":14978,"गुदिनि</w>":23014,"तुलारामखौ</w>":25571,"लुन</w>":5511,"रोजासे</w>":16708,"जोथोन</w>":6174,"दुद्रु":18047,"दननि</w>":28090,"बिबʼखौ</w>":26076,"खांग्रां</w>":22415,"स्ले":11348,"नरेशा</w>":5727,"गथायो</w>":12820,"बारगोन</w>":19507,"समानै</w>":3933,"फटʼ</w>":6803,"नायखाय</w>":2864,"हरसेमानि</w>":12093,"बेखौथʼ</w>":9628,"गोनोखो</w>":26135,"ख्रियाव</w>":5348,"सारना</w>":24230,"फैफिनब्ला</w>":11528,"बुनायखौ</w>":29502,"जʼ":674,"गाथाम</w>":4222,"बाहायजानाय</w>":9833,"जखौबो</w>":21958,"mple</w>":27560,"बानखौ</w>":8503,"जायग्रा</w>":14788,"गिदिंबो":8343,"गेजेरजोंबो</w>":20816,"खाला":347,"जाद्ला":28770,"बार्":4915,"कानाडा</w>":21455,"फैनायाव</w>":5195,"डायमालनि</w>":26573,"थैलाङो</w>":19681,"दोन्दों</w>":11151,"हाउसआव</w>":20759,"हार्सा</w>":9339,"बिबारजों</w>":12440,"सोरजिनाय</w>":4758,"फैदों</w>":911,"बेगपाइ":15507,"मेउ</w>":5077,"बाजिनिफ्रायनो</w>":25062,"bus":15887,"अं</w>":21769,"नियाबो</w>":7254,"ज्र":2282,"जानाङो</w>":7390,"दाउला</w>":12399,"थैनाव</w>":23964,"अमुक</w>":12779,"कारि</w>":23827,"नंगौ":3816,"र्जा</w>":6381,"मायारि</w>":14233,"पाकिस्ता":3386,"मेलेननि</w>":25328,"ंग":326,"खाराब्ला</w>":26834,"नायावलʼ</w>":16962,"नासयनाय</w>":26962,"्रिखौ</w>":7872,"स्लायो</w>":15065,"दोनलांबाय</w>":24088,"थांनाय</w>":1010,"सान्नायनि</w>":13536,"लोंब्ला</w>":13368,"रायज्लाय</w>":8606,"खा</w>":469,"limit":13724,"हावरियाया</w>":25230,"आगोमा</w>":8933,"जालाखार</w>":26581,"नाʼ</w>":7716,"दार</w>":1294,"बुजायनाय</w>":25773,"जालांनाय</w>":9567,"इंखंनि</w>":9291,"बुगार</w>":29508,"खुगाया</w>":5991,"हारियाना</w>":26805,"नाहि</w>":28523,"इड":21818,"जʼराया</w>":24228,"मोक":29084,"बारावनो</w>":15244,"बाह":18542,"दारिनो</w>":29422,"जाबाय":5044,"गाबनायनि</w>":7505,"बोख्लायनो</w>":26465,"भि":1502,"गथायनो</w>":10151,"रʼमान्":15233,"ज्रय</w>":15354,"ड</w>":161,"मुंसुं</w>":19811,"बाहि":28555,"मʼह":15290,"थारगौमोन</w>":23752,"fo":21708,"पेपार</w>":17145,"नायनिख्रुय</w>":29294,"थै":567,"नेट</w>":8242,"गैयि</w>":3156,"कर्कट</w>":11466,"पर्टुगी":21066,"थैजासिम</w>":9197,"गान्दुवाव</w>":21067,"सिलिंनाय</w>":15600,"ंग्रे":3612,"बयनिबो</w>":3573,"मलेन":5861,"दमासुवा</w>":8396,"देरहाग्राहा</w>":27182,"नावाव</w>":18531,"फावथाइजों</w>":24381,"दद":22005,"एग्रे</w>":27816,"ब्रेव</w>":17459,"जानांगौ":6559,"जं":2889,"बाख":4584,"खुमै</w>":10381,"मेसिन":19289,"आमथा</w>":8831,"मेंग्लिनाय</w>":21527,"साथि":13011,"99</w>":27461,"फिसायनो</w>":23033,"थाखोमाना</w>":28879,"फाननानै</w>":6966,"खिन्थाफैबाय</w>":20317,"नोंथांमोनहा</w>":10576,"थासानदियाव</w>":28893,"रुबै</w>":23588,"थाउनाव</w>":28822,"दसो</w>":12847,"बिहरदों</w>":18676,"जानानैनो</w>":18603,"मोन्दांथिखौ</w>":25972,"हारामजादा</w>":26625,"थाहैगोन</w>":25683,"सिन्नानै</w>":11926,"लोंनांगौ</w>":9198,"थेला</w>":9177,"लिबो</w>":23156,"सेवालि</w>":13810,"दावबायनायनि</w>":8380,"गोलावजों</w>":17734,"दैफां</w>":8639,"सोरनिबा</w>":2953,"मोननैया</w>":18961,"टार</w>":966,"बायथʼ</w>":8188,"मही":10502,"sing":27596,"मावसोम":12156,"नियेल</w>":28153,"द्रो":1753,"कम्पिउ":1255,"थागि":9017,"कास्तमारफोरखौ</w>":15842,"सलʼमानि":19622,"बादलाबो</w>":24167,"गेसाव</w>":7467,"फंनै</w>":15075,"अजितखौ</w>":3819,"फोलाबाय</w>":16512,"काउन्सिलनि</w>":27059,"समनिफ्रायनो</w>":5685,"गोजांस्रिव":13871,"थाम":960,"खालामहैदो</w>":19222,"ा":116,"नांब्ला</w>":9718,"एवैनो</w>":25600,"आदै":15939,"गानिफ्राय</w>":2524,"रोमै</w>":4720,"नम्बरि</w>":6538,"खारदै</w>":7479,"बेङा</w>":16356,"लाइजौमोननि</w>":23614,"द्‌</w>":20752,"जादोया</w>":26730,"खबजबनानै</w>":11524,"थायनैया</w>":14823,"बावदोंमोन</w>":7848,"मेगावा":10399,"दुर्जांजों</w>":17127,"diphthon":27392,"आर":1040,"रादायनि</w>":22305,"$</w>":248,"मोदायनि</w>":22498,"लांसिगौमोन</w>":19341,"नारसिन्नो</w>":26755,"साख्रियाव":12693,"घन":27931,"फाहारा</w>":29573,"मोब्लावानो</w>":20798,"जाखो":4490,"लान्था":28624,"एरसो":12435,"गेलेयो</w>":9884,"थाजोब":28821,"थिबाव</w>":29846,"खमा</w>":15975,"समासो</w>":23628,"सफैयाखिसै</w>":28433,"काछार</w>":17984,"खुसियै</w>":6297,"खोन्दोनि</w>":21026,"न्टिया":25513,"नेदों</w>":19643,"जाफ्ला":5953,"गाखो</w>":9039,"कापुर</w>":23831,"थांनायमोन</w>":16558,"मा":273,"काश्मीराव</w>":26948,"नुथारदों</w>":13233,"द्रेस</w>":21079,"sm</w>":27584,"केल":10469,"लामायावनो</w>":20855,"बिखान्थिजों</w>":22438,"गायसं":11278,"निस्सय</w>":17720,"लामायाव</w>":1821,"लायावनो</w>":20246,"फारनि":12197,"फोसावनो</w>":10787,"एरनायाव</w>":25173,"जुं</w>":23515,"हाजौ</w>":29163,"मेल</w>":3857,"दाजा":18839,"सिस्टेम</w>":3825,"आरिहां</w>":20750,"गोजोननाय</w>":3537,"बेगा</w>":18856,"फैबायानो</w>":23128,"ङि":27940,"फोजोबनाय</w>":7952,"इयर</w>":18149,"भुटिया</w>":13838,"मोनलायनाय":25634,"गाबज्रिबाय</w>":12497,"स्सा</w>":7838,"मोनथारगोन</w>":22837,"लटारि</w>":14248,"बाजैयानो</w>":21295,"जौगानायनि</w>":12412,"फालांगियारि</w>":6090,"द्राइनि</w>":25130,"आथा</w>":15940,"ies</w>":10841,"नाखौथʼ</w>":28531,"गुंग्र":23013,"रावनिफ्रायबो</w>":23688,"खननानै</w>":6219,"सानसु":7452,"बाजै":8740,"सिन्दुरनि</w>":17686,"time</w>":20267,"साबना</w>":24715,"केरानिया</w>":26262,"सफोरखौ</w>":12893,"ठाकुर</w>":26536,"हाब्रुवाव</w>":27137,"दौवो</w>":17210,"्रियै</w>":16308,"खान्थि</w>":1314,"सिरि":2286,"दलरै</w>":15514,"बायहोनानै</w>":23300,"मोनन्याव</w>":18963,"पार्किं</w>":25198,"काश्यपा</w>":27021,"उन्दुलां":5878,"th</w>":2756,"नʼखर</w>":10498,"रन्":14236,"बुंला</w>":19100,"थिउरिनि</w>":25243,"गबोनाय</w>":21915,"हिसान":23639,"थियेटारखौबो</w>":26809,"tragedy</w>":17943,"जालांबाय</w>":3206,"वा":390,"सिदोब</w>":13052,"थारजा</w>":8229,"दौलद</w>":7658,"सोदोबफ्रा</w>":11362,"जागु":28727,"राजखान्थियारि</w>":6691,"खेराया":16761,"फैनायनि</w>":4328,"स्लायगोन</w>":15324,"रेबसु":11210,"जाखांनो</w>":18607,"अरगोन</w>":24553,"आखायनि</w>":26493,"हमख्रʼबनानै</w>":27201,"खाजोब्बाय</w>":28925,"माइक्र":11317,"्ल्ला</w>":14480,"बिरहां":15221,"होननाय</w>":3272,"बिबारिया</w>":17400,"गोल्लैनि</w>":26435,"साबेसे</w>":13014,"जमायनानै</w>":27994,"बोसोराव</w>":4768,"हनायाव</w>":28448,"सानैनो</w>":15039,"फ्लानाय</w>":20056,"उ</w>":156,"टाइम</w>":11564,"गोहोआ</w>":4991,"खालामोमोनब्ला</w>":26399,"गोमजोर</w>":3581,"फोरादि</w>":17181,"बिबथै":20543,"tragic</w>":15724,"गोनि</w>":6570,"जौनै</w>":24040,"नाला":18525,"फावथिनायाव</w>":6971,"माथां</w>":18701,"वनि</w>":1650,"होफिना</w>":22790,"परिषदखौ</w>":26044,"जेसेबां</w>":2639,"जागि":8509,"अलसिया</w>":8739,"लार":11833,"मनाखौ</w>":16081,"थिलिया</w>":16440,"ट्रेनाव</w>":20236,"रेक्टर</w>":19449,"अन्":1391,"दाल":4224,"इड</w>":21819,"लोगोसो</w>":23367,"लायाखै</w>":4646,"ब्राय":4840,"जʼरा":11298,"होगदाव</w>":29668,"गिलास</w>":8381,"खिन्थाया":8386,"गिदिं":1674,"मेलेम</w>":6731,"दरखं</w>":4857,"जुनादनि</w>":13677,"दायलग</w>":24621,"बिफोरनि</w>":18668,"लासिंसिं</w>":18127,"जोबनाया</w>":19548,"याब्ला</w>":8200,"गोथै</w>":3210,"धोनिया</w>":25319,"निलि</w>":29798,"सेक्रे":15561,"....?</w>":14745,"फिननायसै</w>":7504,"बेलखौ</w>":4935,"मुथुनानै</w>":19148,"नʼटिस</w>":24147,"बुदुं</w>":5977,"सान्जा</w>":15131,"दाहाजों</w>":12532,"cum":21704,"सानसुथिर</w>":21214,"हारसिंनि</w>":17133,"आदुमब्रा</w>":21531,"सरा":3442,"सुग्लायबाय</w>":26467,"सिनथायनो</w>":17251,"हाबिलानि</w>":20672,"दाकात</w>":10012,"होनब्लालाय</w>":23823,"राख्":28700,"होदोंदि</w>":29643,"सोर्":4714,"बडʼ</w>":4865,"बाहागि</w>":5690,"हेले</w>":16770,"एम्बुनि</w>":17751,"गौरां</w>":19940,"मारियो</w>":24593,"आथुम":21802,"आदसा</w>":10573,"रʼनो</w>":17314,"ख्लʼ</w>":8706,"नायगंना</w>":18810,"देहायावनो</w>":26469,"प्रति":24159,"गाराइ":29219,"आन्थ":10858,"हुखुमोर":21431,"होनदों</w>":14854,"थाइलेण्डनि</w>":16773,"खु":362,"हासुंनि</w>":20881,"लाहोनायनि</w>":28635,"अवे":27676,"काना":12186,"खृ":7051,"dos</w>":6464,"बिबायनानै</w>":14364,"बुहुमखौ</w>":25455,"लाइजामनि</w>":8314,"जियाव</w>":7057,"आंखौ</w>":670,"फ</w>":172,"जारिमिनाव</w>":6253,"रुइ":23585,"बोनाय</w>":1137,"बाजैया</w>":6958,"ोङा</w>":18518,"दैसाया</w>":19460,"मुलि</w>":3179,"field</w>":21200,"मोनथाव</w>":29718,"vic":27615,"अब्लानिया</w>":26452,"मोनलायो</w>":14509,"बाय":367,"43</w>":27448,"नोंसोरबादि</w>":10643,"सिनायथि":13528,"ऊ":74,"तिता":2129,"गारजानाय</w>":9749,"खांसोर</w>":13261,"थांफानाय</w>":19183,"दोनखोमानानै</w>":24093,"मण</w>":11786,"डेन्ट</w>":24903,"बान्दो":4801,"नाथायबा</w>":12921,"टिन</w>":10497,"ङालाय</w>":19438,"मद्‌दा</w>":20209,"समाया</w>":3686,"टस</w>":8065,"स्पे":8217,"दुलुर</w>":11635,"माराव</w>":6343,"धान्दा</w>":25535,"थेफेनमोनहा</w>":26863,"गायखौ</w>":16921,"दोन्नाय</w>":5072,"कापनि</w>":14862,"दङʼना</w>":21040,"ण्डे":17244,"जोबथेसालिनिफ्राय</w>":15696,"रंजालिया</w>":4549,"खनदोंमोन</w>":24196,"बिदिन्थानि</w>":10534,"फिंगार</w>":13140,"कासारनि</w>":4621,"एटास्ट</w>":17992,"अरुना":15235,"मजे</w>":28278,"पार्सनेल</w>":25199,"लाउदुम</w>":9331,"गाग्लोब":3283,"बारायनानै</w>":10682,"जालांनि</w>":20632,"थासै</w>":10234,"गग्र</w>":14173,"गारनाया</w>":16807,"फोरमायनायाव</w>":24344,"प्रिन्सि":17885,"कवा":27836,"गरन्थ</w>":8403,"आदाब":27727,"फ्लेनाय</w>":10716,"बोथों</w>":8571,"जाफुंगोन</w>":12450,"गाखोना</w>":24949,"फुरा</w>":5658,"जेरावबो</w>":2212,"दैमासिम</w>":17535,"थावै</w>":6423,"टेमा</w>":24070,"सान":358,"गंनैनि</w>":24201,"लानाया</w>":6146,"=</w>":252,"सेरियास</w>":27244,"बेन्द</w>":29472,"गोलोम":3780,"रिता</w>":14589,"लुबैयै</w>":17064,"बारुवा</w>":22236,"एरखांनानै</w>":20447,"एव":2919,"थोंगोर</w>":11419,"जाहोनायनि</w>":24962,"सेरनै</w>":25119,"नायग्दाव":22621,"रंजालियानो</w>":27073,"थांनांगोन</w>":10376,"फारिया":3866,"गोबाङानो</w>":8323,"ple</w>":10117,"pronomin":20879,"एसिस्टे":27810,"सांग्रां</w>":2336,"दिग्रि</w>":22903,"बजʼबनानै</w>":21373,"माहाजोननो</w>":20068,"खाखानाय</w>":18660,"lo":2517,"कंग्रेस</w>":7319,"सिगि</w>":14448,"सानस्रिया</w>":7454,"लोगोआवनो</w>":24156,"लण्ड":14246,"सेकस्पी":6492,"निबो</w>":1170,"अरायबो</w>":3244,".)</w>":10834,"म्बा</w>":14785,"ददेर":3897,"जायैया</w>":23620,"गोराजोआ</w>":15259,"बेहा</w>":6355,"रामोन्दा</w>":3904,"फाखननि</w>":29582,"फिसाइनो</w>":20455,"स्टʼ":5211,"जायोलै</w>":13755,"ता":586,"जायगाफोराव</w>":7304,"सोमाव":1506,"बिसोरसो</w>":24028,"बिलिर":10245,"be</w>":6302,"नष्ट</w>":22029,"फिनो</w>":1107,"दतमा</w>":21437,"खण्डनि</w>":21901,"डेभिद</w>":5137,"बिफा</w>":1461,"सोन</w>":1419,"रोङाखैमोन</w>":20659,"भाव":7521,"होजोब":29593,"बेखेवगासेनि</w>":25013,"खालामहोनो</w>":19210,":</w>":222,"सोम</w>":2245,"मनिपुर</w>":10007,"तिनि":24568,"बोहैबोनाय</w>":10567,"इसादि</w>":8034,"सखा</w>":22150,"जोर":821,"आवसो</w>":12329,"दाजायो</w>":29385,"रहस्य</w>":27198,"सय</w>":8490,"टावार":12167,"गोरोबफ्लेनाय</w>":25341,"मख":16076,"थांहा</w>":23182,"धोन</w>":3701,"पाटनाय":26403,"निमा":29791,"दुमफे":17429,"थ्रि":2562,"at</w>":6300,"बिजि</w>":3450,"फान</w>":9631,"एक</w>":10871,"चेन्नाइयाव</w>":26413,"मोदैनि</w>":10998,"जनैक</w>":27335,"दसेनो</w>":8479,"सुनायनि</w>":14568,"इजराइ":8898,"मासिन</w>":29027,"बʼ</w>":4053,"कफिनि</w>":15972,"गोरानजों</w>":12421,"शनार</w>":18487,"सोदोबथिखौ</w>":20043,"सौज्लायो</w>":24431,"उस":14138,"लाइजामाव</w>":12373,"खानाय":28894,"मैदेर</w>":4257,"लिंहैनानै</w>":20154,"u</w>":238,"int</w>":12377,"नागारथारा</w>":25696,"खारगोन</w>":19421,"थीखौ</w>":18401,"कल":4788,"नायफोरा</w>":6349,"ोना</w>":18517,"पाग्ला</w>":23886,"बावयैसो</w>":11229,"मोनजा</w>":29714,"हाजारखि</w>":15649,"सनाव</w>":5159,"ध्य":25898,"पजʼनि</w>":17932,"खुयलें</w>":23276,"लुबै":827,"हाजोबनो</w>":29181,"फावनो</w>":29548,"इंख्रिया</w>":10577,"बाथ्राखौथʼ</w>":19802,"दमन</w>":1831,"बृहस्पति":12734,"दुलाराय</w>":1952,"रावनिबो</w>":3673,"हलआव</w>":28459,"हटे":3716,"गोसोखां</w>":5837,"गोजा</w>":2363,"मिसेस</w>":21316,"टिं</w>":2096,"फिन्नायाव</w>":26163,"उगुल</w>":21843,"इण्डिया</w>":13848,"fil":12753,"स्वामी</w>":17836,"रुगुं</w>":7303,"दङʼब्ला</w>":26219,"एलʼ</w>":27799,"साफायनायाव</w>":26157,"बिरहाङा</w>":10082,"फोदो</w>":9097,"आग्रा</w>":8056,"होनायानो</w>":11062,"थांनायनि</w>":4708,"den</w>":26089,"अर्":5760,"माबेयाव</w>":18706,"कन":3436,"हांनायावनो</w>":24001,"आनजादा</w>":13672,"खामोन</w>":14348,"खथानिफ्राय</w>":12689,"गारना</w>":11234,"सुजु":1432,"मोव":29085,"सिरिजाहात</w>":13726,"हुदा":23802,"दाहारखौ</w>":17622,"साप्":18744,"राइफ":9186,"मासिनिफ्राय</w>":17934,"फैयोब्लाबो</w>":13167,"सावगारि</w>":1946,"गाराखै</w>":9602,"गोरेस्वर</w>":27233,"लाहैनानै</w>":22278,"थिखʼ":29845,"सानग्रोयो</w>":23228,"नानैबो</w>":1541,"पके":9519,"फुथियाहां</w>":14060,"कफि</w>":12808,"बुंफिननायसै</w>":14606,"लोङै":23371,"लिप":16542,"अजय</w>":3323,"डेस्क":13596,"इण्डा":21826,"जगाजग</w>":26955,"आलासिखौ</w>":20121,"सिरिथा</w>":11495,"कदम":27843,"निमुख</w>":18976,"बिथाङा</w>":2208,"माध":14372,"लुन":23504,"थाखुमानानै</w>":22396,"मासै</w>":4808,"हमथानो</w>":4533,"खालामबा</w>":14657,"खौ":369,"मिटारसो</w>":15823,"हेंथाफोरखौ</w>":27001,"खानांगौ</w>":14350,"उदिश</w>":26346,"थेख्रेनि</w>":15674,"बारगʼ":2713,"लुट</w>":23505,"ंगे</w>":14576,"....!\"</w>":19363,"लिरगिरिफोर</w>":26511,"संनो</w>":4971,"मावजाग्रा</w>":12160,"पथ</w>":28163,"गोदोनायाव</w>":3760,"सोमोन्दो</w>":1776,"लाइजाम</w>":2602,"ब्यावहा</w>":14030,"सिलाराम</w>":4691,"बावब्ला</w>":13312,"cl":10110,"फैमाल</w>":3220,"दका":28091,"रमेशा</w>":20506,"एसʼचिये":15818,"थाइयाव</w>":4726,"खोमसिखौ</w>":15035,"मासेया</w>":16250,"थाबनो</w>":3448,"नायबादि</w>":1987,"बिग्रायारिफोरा</w>":12645,"दिजाइ":29879,"मोननैनि</w>":8567,"जाफैनो</w>":12950,"दाबोरसे</w>":18130,"असुर</w>":27691,"खम</w>":1899,"लिंहरगोन</w>":26069,"बाबाय</w>":9548,"tember</w>":11694,"माहाजोनजों</w>":24569,"अत्या":21783,"bou":27476,"थाइस्रिया</w>":19500,"हावा</w>":5175,"ग्रिद</w>":6094,"एफे":18313,"हादोंना</w>":29196,"थामजि</w>":8297,"इउनिभारसिटिनि</w>":27093,"साननिफ्राय</w>":11135,"ओनसोल":17445,"दमै":18411,"होफेर":29631,"बेड</w>":22687,"मालिकनि</w>":26838,"लाखौ</w>":1881,"गोग":22474,"फालिनानै</w>":25525,"गबो":27886,"थाखोमानाय</w>":14347,"हेला</w>":5519,"अजितनो</w>":10589,"रावावनो</w>":28706,"फुंआव</w>":11320,"दाब्ले</w>":16352,"मजा</w>":18461,"फुथिया":13268,"बुंबाय</w>":836,"दुरुङा</w>":17920,"बाउखुंग्रि</w>":25751,"एथे":11746,"थारगोन</w>":2810,"गासिम</w>":14925,"साथिं</w>":14394,"दाखालामसै</w>":15803,"बटलखौ</w>":17798,"लोरबां":8805,"खांहोयो</w>":23550,"बाननाय</w>":24627,"गहा":21908,"आंहा</w>":989,"नायथाव</w>":6848,"खब":2613,"हिन्जावफोर</w>":8734,"रुं":3616,"जापानी</w>":21097,"बाथिया</w>":16730,"फोरखौबो</w>":2802,"मलʼ</w>":22085,"खालामैनि</w>":23251,"फुरायै</w>":23568,"गोरोबनो</w>":17083,"बाला</w>":3100,"यफिनो</w>":28293,"बदनामनि</w>":25464,"लाहांनायखौ</w>":28675,"तरुणराम</w>":26152,"आशि":14117,"थिन":1228,"होनबाथाय</w>":16824,"cur":21702,"गबोयो</w>":15996,"बेलासियाव</w>":8348,"लुनायनि</w>":19374,"डिग्रि</w>":24478,"मोनफिननो</w>":18955,"घरा</w>":27933,"डजनि</w>":18388,"सायखʼ</w>":5382,"बारननानै</w>":19514,"खाजिखौ</w>":28932,"इरामु":7224,"गाम्बारिनि</w>":9959,"जोंगा</w>":13225,"आब्रुथिनि</w>":13945,"मोसानायनि</w>":17226,"थारिनि</w>":18621,"बिहाउ</w>":20604,"खमला</w>":25476,"देवाना</w>":25515,"जाम्बि</w>":5128,"जाहैनाय</w>":11492,"टी</w>":21976,"सावरायदों</w>":20251,"अख":8927,"शि":2412,"मुंखʼनांदि</w>":4656,"जायाबा</w>":24408,"सुजुग्रायाबो</w>":13617,"at":3432,"जामारबाय</w>":10231,"बाथुवा</w>":12485,"बिघा</w>":12989,"जिराय</w>":4944,"2010</w>":26146,"जवा":4672,"सिदा</w>":16322,"फुननाय</w>":20875,"अनगायै</w>":2114,"खाया</w>":1818,"बोसि</w>":29930,"राइजोफोरा</w>":4173,"दाफोरा</w>":22665,"बʼहा</w>":11422,"लाइटार</w>":16734,"ाबिद</w>":28464,"बुंला":12023,"बुजिना</w>":25087,"राइजोफ्रा</w>":4265,"गोग्लैनाय</w>":4352,"जे":318,"फिसाज्लाया</w>":7492,"मावखौ</w>":23669,"बिथानि</w>":18688,"नाजादों</w>":3502,"गम्भीरा</w>":12454,"नि</w>":263,"language</w>":21569,"हादोंमोनब्लाबो</w>":11915,"हवाला</w>":28458,"थांथारगोन</w>":19185,"गयथिया</w>":12484,"मोनलायनाया</w>":17593,"सानसुमै":21213,"बानुवा</w>":22241,"फार</w>":5182,"लोंबाय</w>":4975,"हाबलांनो</w>":23840,"जबना</w>":10158,"फैनाया</w>":4705,"\".....</w>":27411,"थे":500,"मडेलनि</w>":21155,"ग्राखौ</w>":5529,"windows</w>":6999,"मेब्ला</w>":2627,"हान्थु</w>":7672,"ब":103,"गाबो</w>":2137,"थुनलाया</w>":7515,"फरा":11778,"केसन</w>":23928,"सान्दो</w>":1843,"नागे":28509,"लाक्ष":28646,"फुदलि</w>":19420,"आंजों</w>":2288,"दालान</w>":17765,"सोमबाय</w>":11291,"दाबारीमोननि</w>":27143,"काउन्":14864,"स्कुल":20523,"उदां":4897,"डप</w>":28021,"नायफ्लां":29286,"जयमती</w>":20842,"गुथाल</w>":12005,"जोनोमफुरिनि</w>":26669,"लोगोमोन</w>":19779,"नोजोराव</w>":5142,"गारनायबादि</w>":23785,"देवी</w>":17721,"नांफानानै</w>":23489,"फारां</w>":9058,"मुजिरा</w>":19150,"बक्स":14223,"फिसा</w>":691,"गिदिंनो</w>":25124,"ल्सा</w>":24031,"हरावबो</w>":22168,"बायारि</w>":12398,"माहानि</w>":24247,"जे</w>":1965,"दोनथुमो</w>":12566,"दाननै</w>":16997,"थफीया</w>":13865,"सलायनो</w>":18499,"जानाय</w>":524,"बावदियाबो</w>":17606,"सान्थिनि</w>":18755,"द्रोद</w>":20456,"सेरफांगु":13656,"गावरावा</w>":5826,"समेत</w>":13991,"एमसायाव</w>":20737,"सोंलों":24118,"मावफारियाफोरनि</w>":15580,"न्दराम</w>":16564,"दनाय</w>":10168,"गेन्":23471,"फरायथिनायखौ</w>":27169,"डाइरेक्टरि</w>":10048,"जिंगासिबाय</w>":26759,"lli":27551,"गामा</w>":22573,"जग</w>":21943,"आलमर्":17438,"खिन्थायाखिसै</w>":26623,"मोनोब्ला</w>":5630,"फिन्नाय</w>":6873,"खायाब्ला</w>":26126,"बिखुनजो</w>":21424,"चेन्टारनि</w>":17909,"ंस</w>":27642,"गुफुं</w>":23016,"मावजाथा</w>":21589,"फालुसिन</w>":22763,"फ्लास्क":15098,"मुवाबादि</w>":20417,"ट्रेइन":9304,"दिघली</w>":29895,"शननिफ्राय</w>":28377,"थिनहरो</w>":17259,"गुन":9084,"माब्रै":10992,"ननांगौ</w>":28130,"दोनथुमनाय</w>":15529,"दिनैजों</w>":15092,"em":3589,"डि":839,"दें":1760,"रांखावरि</w>":24358,"फिसाज्लानि</w>":7253,"टारने":3330,"बेबो</w>":3103,"बुमाखाङा</w>":27362,"ंमोन</w>":27645,"जार्मानि":20794,"बाहार</w>":24355,"थिउरियाफोरा</w>":5557,"रायलायनो</w>":5651,"माहाजोना</w>":2113,"bar</w>":12748,"आखल":7898,"हाबहैनाय</w>":14868,"थांनोबा</w>":23193,"रिखौ</w>":1074,"आइकʼ":5237,"-'</w>":7336,"गोदोनिफ्रायनो</w>":7935,"सेग्रा</w>":29997,"रोखोम</w>":3155,"थिखि":11977,"लाव</w>":587,"मोन्नानै</w>":2619,"थाइनैजों</w>":19502,"बिनिफ्रायनो</w>":22431,"लाबाय":10217,"खांग्रांनानै</w>":27129,"सिख्रि</w>":11033,"क्सि</w>":23986,"थियेटा":2605,"बोलानानै</w>":29932,"मिनथि":13769,"मैलʼ</w>":24078,"लाफैबाय</w>":22266,"सिबल</w>":17581,"थानांगौ</w>":4312,"फावनि</w>":8232,"बाथुवाया</w>":4660,"जाइली</w>":8816,"बुद्रु":17770,"आवबा</w>":13510,"बिरनानै</w>":15220,"हानायासो</w>":29199,"बेरामा</w>":13063,"लांखारजानाय</w>":17858,"अख्राङाव</w>":4366,"सेसा</w>":19027,"मुगै":2076,"नʼसिम</w>":9799,"स्रीनि</w>":7152,"भुटियाफोरजों</w>":10779,"it":4135,"बुंनायसाय</w>":5066,"फिसायानो</w>":12011,"बइ":28204,"दुरुं</w>":13965,"लाइनमे":10090,"लांफायो</w>":16674,"गोन</w>":342,"सारोन</w>":14400,"हालायै</w>":16296,"गिदिंफिनो</w>":20411,"फानाव</w>":29547,"सोराङा":29699,"जुजाइ":8620,"खाथ्रि</w>":16214,"दासि":16335,"रौना</w>":25868,"वाइट</w>":26332,"देंखो":2719,"चन्द्र</w>":2888,"दोंमोनदि</w>":10727,"फना</w>":22048,"गनका</w>":26127,"ब्रेकफास्टखौ</w>":26447,"बिसोरनो</w>":3805,"हाव":1870,"जोलै</w>":7127,"डे</w>":14187,"रायज्लायदोंमोन</w>":20500,"सान्द्रि</w>":17194,"लांग":22252,"हमज्लायनायनि</w>":23745,"गुरो</w>":23010,"साहा</w>":1253,"हाबफैयो</w>":1786,"दाखा</w>":10296,"थरिखा</w>":28072,"सोरजिसुला</w>":20257,"नट":14204,"मुंखौनो</w>":19809,"एंगारनो</w>":9941,"उन्दुलांदोंमोन</w>":20026,"जथाइ</w>":7354,"आसʼ":10130,"थांबोला</w>":19182,"गथाय":3437,"प्रब्लेम</w>":21549,"नुजाफैदों</w>":20256,"जाखांबायमोन</w>":25539,"त्रि</w>":12841,"खुंथाइ</w>":5248,"खुनु</w>":6627,"फारसेनि</w>":23889,"ददेरेनि</w>":3956,"एफनि</w>":10875,"प्रफुल्ल":12715,"अमला</w>":3242,"out</w>":17403,"लार</w>":5601,"माउजिखौ</w>":27041,"खावयां</w>":11304,"बारखौ</w>":10448,"बांला</w>":4736,"फिद</w>":16481,"\"﻿</w>":21648,"थाद</w>":10964,"बुंनांगोन</w>":8584,"नुहुर":12647,"दिन्थिगासे</w>":24304,"तरुण</w>":6766,"मुंखʼनो</w>":4374,"रासो</w>":12937,"थावना</w>":2973,"थुमना</w>":17331,"मारि</w>":2996,"दोंसोमोन</w>":19275,"देरगा</w>":24099,"जुनारजों</w>":25201,"थाहैनो</w>":9571,"अबंनि</w>":8334,"सुजुगिरि</w>":8775,"निर":29790,"आव":926,"पाकिस्ताननि</w>":4664,"बिम":5304,"जोखौ</w>":10335,"अउ</w>":7683,"wwf</w>":26571,"दग</w>":28077,"गसा":6123,"महीधरा</w>":15809,"देहायै</w>":23285,"हरब्लाबो</w>":14725,"जिउवा</w>":6942,"मुलुगनिफ्राय</w>":10624,"माना":7743,"ओरै":3095,"बाखाय</w>":14283,"फरायनाय</w>":3473,"जिउ":773,"बिलोगोखौ</w>":29002,"जीनि</w>":18372,"दलाब":22016,"रिजार्":11109,"बोनायाव</w>":6602,"टिया</w>":8951,"होननाबो</w>":14855,"यैब्लाबो</w>":12534,"sp":5929,"स्मा":13290,"scenery</w>":26949,"देब</w>":12065,"डेका</w>":24902,"फैबाय</w>":1005,"लेंहरनाय</w>":13692,"फावदिन्थिनाया</w>":23819,"जासु":14318,"अवारिनि</w>":26046,"ख्लाय</w>":7971,"बुला</w>":29499,"ष्टेज</w>":15374,"ar</w>":6504,"नʼसिङाव</w>":13404,"जौथायाव</w>":24042,"थिउरियाफोरनि</w>":5733,"गरन्":4757,"नोंनि":23234,"दिखांना</w>":14535,"नोंथांमोन</w>":9870,"होसोनाय</w>":20800,"जखा</w>":16011,"बैखत</w>":23815,"गुरनो</w>":17349,"ीम":3350,"गेले":1225,"मेन":11163,"अनारीनि</w>":24656,"ob":15906,"स्वा":5515,"आखʼ</w>":7899,"थांलाइ</w>":23189,"सोमो</w>":9806,"होखायो</w>":22775,"फोरमाया</w>":22879,"मावरि":3737,"नैसो</w>":1874,"सौसि":24421,"बिदां":18672,"बाला":3549,"गुजुस्रेमनानै</w>":26942,"बोखांनाय</w>":22926,"नार्जी</w>":20512,"निथिङै</w>":29805,"खरा</w>":21888,"दायना</w>":20107,"स्लि":2514,"लुद्दिन</w>":23510,"फ्लिं</w>":11376,"फोथार":13159,"बिलाइफोरजों</w>":25138,"लि":348,"नायलायो</w>":18799,"गोम":1152,"बिलाइस्रिया</w>":7961,"लुबैग्रा</w>":19990,"सानखोमाबाय</w>":23227,"अफिसाव</w>":4285,"साबखाङो</w>":24717,"माग्रां</w>":29060,"स्रेम</w>":5556,"pres":21740,"मनʼज</w>":25618,"बक्सीं</w>":18156,"दागोआ</w>":29445,"मज्ला</w>":28283,"कबि":12802,"गुन्दाजों</w>":15289,"बारीनि</w>":16777,"फानिफ्राय</w>":16383,"पाटि":6020,"रंजालि</w>":3757,"बोखोनो</w>":29958,"ज्ला":3097,"खुसि":5199,"हिन्जावाबो</w>":19834,"सलि":5782,"सानबोलावरि</w>":12671,"रनसाय":11616,"जʼफिनो</w>":24224,"गʼला</w>":8710,"मिया</w>":28269,"अहाया</w>":27667,"जुक्ति</w>":15826,"दावबाय</w>":5221,"सिलं</w>":22643,"उजिगोन</w>":20493,"फैखादोंमोन</w>":23134,"खन्थायगिरि</w>":20311,"ख्ल</w>":20555,"नफ्रा</w>":18424,"फावफोरखौ</w>":19587,"अमृत</w>":20345,"and</w>":3243,"हामबुरानो</w>":26085,"वबा</w>":28364,"खोख्लैयो</w>":20850,"बोर्ला</w>":19638,"मिनिखैरो</w>":8888,"सान्था":18746,"होसोनानै</w>":14493,"शंकर</w>":9383,"खाउ":4216,"बुंदो</w>":10366,"आदानि</w>":9488,"ख्राव":11344,"मोसायाबो</w>":22500,"जाजानायफोरखौ</w>":28800,"किउरिय":5418,"खावरिनि</w>":13441,"चिभिल</w>":25144,"साखि":18734,"थासिगोन</w>":22379,"हाबि":2760,"लासिं</w>":14304,"थारो</w>":3604,"खोनाना</w>":9222,"जाहार</w>":5045,"खालामजानो</w>":23246,"डिप्ल":24476,"फिफानि</w>":10355,"आफाङाव</w>":19738,"आनदाज</w>":21518,"खैनो</w>":14909,"बायगोन</w>":13201,"फाहायनानै</w>":26973,"ैखौनो</w>":28485,"290</w>":27440,"सार":675,"सिमां":6065,"गल":10878,"दोहौ</w>":20933,"बाजियाव</w>":4448,"दावथ्रोद":19616,"eu":27505,"गोबोरखि</w>":21445,"बोलाबो</w>":19014,"थाङि</w>":28867,"दाथायखौ</w>":29410,"लासिगोन</w>":11839,"नागारना</w>":25692,"फांजा</w>":25036,"लोङा":10400,"लांजोबो</w>":23454,"ंग्रा</w>":1600,"आवगायनानै</w>":17614,"हमसʼनो</w>":12171,"थरथाम</w>":20529,"गुबुनारि</w>":4841,"रायफोरनाय</w>":21454,"नुनाया</w>":23411,"रिनो</w>":4947,"राइजोफोरनि</w>":5233,"दुर्जाङाबो</w>":10554,"दंनायमानि</w>":11263,"ट्रि</w>":14186,"हागौब्ला</w>":15531,"मारुवाव</w>":25627,"गुबुनफोरा</w>":25825,"्राझा":6861,"गोलैनाय</w>":9947,"डाक्टारा</w>":12506,"गोम</w>":3059,"दिहुन्नाय</w>":7914,"महाराजाया</w>":10550,"सान्दि</w>":3880,"फख्रियाव</w>":22051,"थैया</w>":4974,"फालो</w>":3659,"फोथायो</w>":6877,"गेबें</w>":7469,"बन्थ</w>":26246,"सोमजिगोन</w>":20480,"गोसोआवबो</w>":23662,"गंब्रै</w>":6933,"खाथिराव</w>":25731,"अननाय</w>":2573,"रनजित</w>":17817,"राननानै</w>":13667,"रोंगोन</w>":20231,"खिर":3408,"अनाथी</w>":2848,"जायगाया</w>":12139,"गोरोबनानै</w>":9263,"गुना</w>":10351,"मिडिया</w>":16497,"ब्लाथʼ</w>":4954,"असम</w>":12777,"बिग्रायारिफोरनि</w>":17874,"हाया":731,"नम्":22024,"अनथाइ</w>":6922,"दबथायनानै</w>":21064,"बुख</w>":29495,"अनिल</w>":7335,"मोनब्ला":16412,"दरबासि":20714,"नाजाव</w>":12336,"उदांस्रिखौ</w>":26125,"खावथं</w>":24288,"नोगोराव</w>":5908,"लग</w>":12877,"जेदा</w>":22942,"पारायाव</w>":20832,"फायारिं</w>":12543,"दिहुनगिबि</w>":17236,"हाब":514,"बरादानो</w>":26538,"u":56,"नोंदि</w>":7140,"गोथैनि</w>":10713,"लाखाबाय</w>":16148,"गलानिफ्राय</w>":25295,"हारिनो</w>":9842,"हाकि":11014,"84</w>":12744,"मज":22080,"होलांगोन</w>":22783,"दांखौ</w>":9255,"दिखौ</w>":11081,"जोमनायाव</w>":25298,"थाला</w>":5167,"जावलियाया</w>":11394,"थारदोंलै</w>":23754,"बांगाल</w>":5565,"सुस्रांनानै</w>":25929,"plot</w>":8894,"requ":25316,"बुंथिगिरिया</w>":25646,"रो":412,"खिन्थि</w>":6004,"दाखोर</w>":6588,"फनिफ्राय</w>":14214,"रमेनखौ</w>":15313,"बुसाखौ</w>":22735,"गौमानि</w>":7204,"गायाव</w>":975,"खारलांदों</w>":11200,"बावदो</w>":14826,"मन्जुहा</w>":24694,"गʼ</w>":2260,"जें":1021,"नेनो</w>":7498,"तुलाराम":15425,"पद</w>":16057,"जेने":5060,"नायमोनब्ला</w>":14434,"बिथि":1940,"बारगʼ</w>":5352,"आन्स":15947,"ओंखामखौ</w>":7514,"फावथाइयानो</w>":24383,"बिनाराम</w>":4108,"कमाण्डा</w>":17651,"दामसिखौ</w>":17346,"इनाय":18297,"फैफिनो</w>":5493,"मन्दिरनि</w>":26748,"हैद</w>":9153,"जाबायलै</w>":10963,"होलाङो</w>":4406,"होंगो</w>":7674,"आगोलनि</w>":7016,"मोनसेयाव</w>":12436,"जानोबो</w>":6341,"क्ष्":7869,"बुदु":22715,"मुजुरि</w>":25891,"आरिखां</w>":6479,"मोनजाग्रा</w>":18950,"सिन्दुकनि</w>":15532,"खʼथा":14923,"फेनाय</w>":16857,"झार</w>":1733,"थैयाखै</w>":19683,"थिंनिफ्राय</w>":6700,"फावथिना":6714,"नारें</w>":7642,"बानायसो</w>":4283,"सायख्लु":17099,"बोलाय</w>":14540,"फुस</w>":14773,"बेखेवफा":8715,"सेल्":14557,"जन":4793,"दाबुं</w>":7118,"फाग्लि</w>":3048,"थʼ":631,"फुदुं":4006,"सिन्दों</w>":14451,"{":62,"..\"</w>":18981,"ियानो</w>":2548,"दुर्जां</w>":3120,"फेलें</w>":2969,"खनसाया</w>":2575,"स्लिब</w>":10687,"दुंहाव</w>":5114,"आथोना</w>":26050,"माहारिखौ</w>":9812,"नाजानायानो</w>":24577,"लोंहोनो</w>":12219,"thology</w>":24915,"टावारफोरनिफ्राय</w>":26915,"लास्":28608,"बबाव":7069,"बोसोरथाम":20431,"बेन्":6354,"लाबायबो</w>":28660,"होनांगौमोन</w>":18917,"सोलोंदो</w>":20201,"nal</w>":18239,"धमन्":22019,"जाफैयो</w>":28738,"ग्ला":1098,"कनफि":25747,"हल</w>":18506,"गोमादों</w>":20269,"नांजाबफानाय</w>":15719,"उनफिन्नानै</w>":25099,"गाबहां</w>":11269,"त्व</w>":17326,"सिं</w>":707,"फाथिया</w>":22751,"हेलिक":23698,"मोबाय":9028,"अमृनडर</w>":27202,"हाफोरखौनो</w>":29195,"थोर":1900,"आथो":4566,"साहाखौ</w>":5472,"साइकेलखौ</w>":5255,"पुरि</w>":19859,"जादों":22317,"जोबदों</w>":4097,"चा</w>":7695,"गौनो</w>":13465,"खावो</w>":16978,"प्रेमधरखौ</w>":13718,"नायफिननानै</w>":29290,"आन्दाया</w>":4202,"यै</w>":544,"दुंग्रा</w>":13213,"इयारिं</w>":21168,"बिलावरि</w>":22447,"ौनि</w>":4308,"ब्रʼ</w>":11230,"दाउज्ला</w>":17310,"गासाखौ</w>":18787,"आखुयै</w>":24386,"कमेदियाव</w>":26296,"लादो</w>":7085,"दाथाय</w>":11038,"फरायनोबो</w>":13381,"फेन":12210,"होदो</w>":3512,"नोंस्रा</w>":14655,"habil":15466,"संनांगौ</w>":19634,"दोनथʼनायनि</w>":17645,"तार":16886,"मेलेरियाजों</w>":25329,"होखांबाय</w>":22776,"आब्रु":6308,"बेबʼ":16361,"बेंनि</w>":22694,"बहारा</w>":25940,"गावलायनायाव</w>":19261,"बोराइ":3140,"साइकेलाव</w>":20420,"अनासार</w>":24655,"गिरि":840,"हालदै</w>":10709,"हान्जानि</w>":3485,"दोर</w>":1824,"गराय":18346,"थाथेर</w>":28845,"थʼलै</w>":14958,"नंदोंलै</w>":24487,"बुसुम":29522,"सरखार":6048,"फैफिननाय</w>":25529,"जेइ</w>":14550,"तखौ</w>":3595,"मोनथायनि</w>":8150,"जिंग्रि":19044,"फाफिनि</w>":29576,"साननाय":19195,"दुखुवा</w>":7231,"याबो</w>":1509,"फिथोब</w>":26976,"सोरथो</w>":12073,"थांदों</w>":2570,"थाफिनबाय</w>":22382,"रण</w>":28300,"दामैनो</w>":29420,"लाबो</w>":2320,"गेबेङै</w>":12101,"जाखारा</w>":28785,"लुबैनानै</w>":11345,"सुफुं</w>":22989,"कौटि</w>":5920,"राब्लानो</w>":28694,"जखम</w>":2494,"फाख्रि</w>":6595,"फांनि</w>":2591,"!!\"</w>":8038,"गिनायजों</w>":11110,"बेफोरबादि</w>":8003,"सानो":29109,"महन</w>":4542,"फोसावगिरि</w>":13648,"जाम्बा":17430,"खैसाराव</w>":19675,"सिखार":1408,"गिनानै</w>":2480,"लाखादोंमोन</w>":18576,"एवार्ड</w>":27815,"दहरम</w>":21576,"जोबस्रां</w>":23770,"लाइ</w>":705,"दिनजों</w>":29874,"गुगुरुब</w>":8904,"मेलेमाव</w>":20546,"बादखौ</w>":19786,"दैदेनगिरिनि</w>":17333,"हब्र":16115,"लाखिनायनि</w>":9280,"आगानफोरखौ</w>":26052,"होस्रांहरनांगौनि</w>":26975,"रिउ</w>":14584,"जुजिनायनि</w>":17565,"उराव</w>":21833,"थाङोब्ला</w>":2892,"ुम</w>":12909,"नायनो</w>":1182,"अदालगुरी</w>":7662,"नकल</w>":10906,"इचन":18148,"उन्दुनानै</w>":9266,"गनाय":2393,"फेकसार</w>":23944,"सुबुं</w>":1068,"बिलो</w>":11878,"अनसायनाय</w>":12588,"मोख्राया</w>":5173,"बायदिफोरखौ</w>":15171,"जʼनायनिफ्राय</w>":24226,"अखाफोर</w>":3696,"निफार्से</w>":29811,"थुनि</w>":14758,"आंखालाव</w>":7806,"सुथुरजों</w>":17392,"मेलेमजों</w>":20548,"फिसालाखौ</w>":23791,"रु</w>":1808,"ड्राइभार":10064,"मेइन</w>":7148,"जोग्रा</w>":29906,"लावथाय</w>":24628,"हासʼ":22546,"मोनथाय</w>":4408,"नोजो":4779,"गारनांगौ</w>":9175,"हैनायखौनो</w>":23559,"गांजों</w>":24466,"~</w>":239,"ोमोन</w>":1242,"होनै</w>":6358,"नंगौथʼ</w>":11579,"सिल":6850,"tic</w>":17286,"खामानियावनो</w>":25004,"किटसे":5141,"लग्न</w>":13962,"फेराखैमोन</w>":6659,"पल</w>":18433,"बुंबावगोन</w>":23082,"भ्ला":5940,"बावलांबाय</w>":9170,"जेला</w>":5486,"फाना</w>":29540,"फारसेलʼ</w>":19631,"दुखुगोनां</w>":13545,"भ्लादिमिरा</w>":12646,"थानाया</w>":4590,"टेबोलनि</w>":21104,"यार्":12096,"एकाउ":15645,"दिखांबाय</w>":18998,"मोनजायै</w>":14515,"गयारीनि</w>":25771,"बोनो</w>":1957,"आपकुनि</w>":13976,"सेन्":4412,"फ्रिजाव</w>":26171,"बदमाइ":6735,"ियाव</w>":427,"आपʼस</w>":27115,"बेसरनि</w>":29488,"सानैया</w>":4634,"खनना</w>":24195,"गरानि</w>":27911,"नागाजों</w>":18538,".............</w>":12293,"सनायाव</w>":28390,"जाहोनानै</w>":8511,"मुवाफोर</w>":10646,"गाराइ</w>":18781,"लासै":2617,"निरा":6598,"बिलि</w>":7097,"मिलायनानै</w>":16496,"प्रिन्ट</w>":13795,"खालामला</w>":16589,"माब्ला</w>":2104,"माख्ला</w>":16251,"पुलिस":3325,"जोंथि":5504,"जुथे</w>":16703,"दैथायहरनो</w>":12590,"55</w>":14069,"बिन्दोआव</w>":26732,"गैलिया</w>":2181,"नोगोरा":7450,"डेन्स</w>":24904,"शर्माया</w>":26323,"ips</w>":27539,"थेफ</w>":19566,"माहाजोननि</w>":2432,"होजोबनानै</w>":29616,"बुग्लि":22734,"हास्रि</w>":18763,"मोब्लावनो</w>":25772,"जाहोगोन</w>":17316,"सुन्दरसिं</w>":26549,"बोहैथि":12356,"गोसोवाव</w>":5517,"सालथे</w>":25754,"lle":27552,"नुब्लासो</w>":23422,"फुदुंनो</w>":13853,"आग्दा</w>":21369,"हुदा</w>":5523,"सुजाता</w>":19057,"रायो</w>":6807,"बिफं</w>":12683,"जाथारनांगौ</w>":25986,"दाखालाम":10294,"थुलुंगाजों</w>":20662,"फख्रि</w>":12862,"बबाय</w>":5037,"रुमावनो</w>":12130,"आरजलाइखौ</w>":21294,"निजों</w>":11071,"बाब्लाबो</w>":22226,"उलुं</w>":21842,"होथेनो</w>":29657,"मित्र</w>":19094,"सौजागोनबो</w>":24432,"हाब्राङाव</w>":26559,"किरा":17125,"सिथारगोन</w>":18831,"मोनजोबगोन</w>":29763,"रोदा</w>":2037,"सरा</w>":12891,"नार्जारिखौ</w>":25153,"आबैया</w>":7022,"खायफाबा</w>":10492,"साफायनानै</w>":13898,"नायखौलाय</w>":11923,"जबाब</w>":9505,"एम्बुखौ</w>":15575,"होनाय</w>":770,"गिबियावनो</w>":6986,"बुंसो</w>":12025,"सिबखां":25612,"गमामा</w>":7649,"जमै</w>":27973,"गौ":779,"खरʼनि</w>":6060,"दस्रा</w>":5938,"हांगार":13372,"उइकाव</w>":25606,"गिलिरयै</w>":26794,"गेटजों</w>":11182,"हाउलाद</w>":17619,"जाबोदों</w>":5455,"रावसो</w>":6915,"बायदिफोर</w>":17232,"अफिसार</w>":4883,"आदुम":14114,"गेजेरजोंनो</w>":9407,"नांथों</w>":19360,"सन्देहʼ</w>":25640,"बायनानैनो</w>":23308,"थोवा</w>":19666,"सिखाउ</w>":9332,"सासेखौ</w>":9883,"बैनि</w>":11237,"फाननायखौ</w>":20220,"खारगʼनो</w>":26603,"मस्‌</w>":28285,"अस्ता":11728,"आमाय":18277,"घेरि":27219,"अभयापु":27321,"दाबसा</w>":20371,"sin":27587,"तननि</w>":18394,"िजों</w>":28467,"बार्लि</w>":16779,"दोननानै</w>":3080,"सबाय</w>":14254,"गुवाहाट":1718,"दङʼमोन</w>":8875,"खिनिखौ</w>":12117,"मेथाइखौ</w>":19291,"बारʼ</w>":19505,"गुदुङै</w>":26038,"गाहेलाफोरा</w>":15820,"तकि</w>":28049,"बाजिबायमोन</w>":10634,"हामगौ</w>":10508,"तालुकदार</w>":27168,"ओम्":27823,"मोनदां</w>":16415,"नङ":16049,"चित्रा":17380,"\\":33,"दिल्लीनिफ्राय</w>":13678,"संकर</w>":19636,"न्थाया</w>":4164,"थैब्लाबो</w>":8668,"केरल</w>":13353,"मिलौहाब</w>":15732,"गिरिफोरानो</w>":17074,"वार्क</w>":17538,"हेरा":14812,"जाहोना</w>":7570,"गुन्दामि</w>":9356,"आखाइ":1011,"दश":22006,"दथायाव</w>":28098,"सुरनो</w>":12411,"एन्":6122,"लायो":7824,"ket</w>":27545,"बिजिरनायाव</w>":24571,"किउरि":24564,"दरबासिया</w>":6751,"राजथान्द":10549,"डिरेक्टर</w>":20006,"बाहायखान्थि</w>":9834,"थाख्रि</w>":18625,"ब्रैयाव</w>":13316,"कमिटिया</w>":13735,"नखरनि</w>":2277,"फ्रायो</w>":16876,"बेबहा":14470,"जगायनानै</w>":27986,"ट्रेन्स":7560,"पण्ड":28169,"ट्राइबेलफोरनि</w>":6500,"गाण्डा</w>":13031,"मोदोमफ्रुवा</w>":27191,"मोनथाइ</w>":18939,"थोयो</w>":9192,"ष्टेडिया":13747,"वेल":17450,"ओनदे</w>":17416,"गाज्रिखौ</w>":13743,"बैलाय</w>":23811,"मिना</w>":14597,"गिदिंबाय</w>":15273,"बाजिनो</w>":17360,"जुदा":19382,"मान":399,"गलामनि</w>":9364,"ख":81,"महनलाला</w>":4129,"गिरिफोरखौ</w>":4350,"गाइखेर":25211,"गैयैखाय</w>":12439,"मलेनाथʼ</w>":19792,"हांगारजों</w>":21505,"बिजाबआ</w>":25254,"साजाखौ</w>":11004,"जाथावै</w>":10038,"interface</w>":18070,"गयारी</w>":17648,"बङाइगाव</w>":7651,"स्</w>":22142,"डाटा</w>":17052,"साननैसोनि</w>":12053,"अनाथीखौ</w>":17665,"दारनो</w>":16348,"लान्थाया</w>":6823,"बिनहा":2640,"जानाइ</w>":22347,"आवाराम</w>":9988,"ङगा</w>":27942,"बिरलांदों</w>":13599,"सान्थ्रʼ":21469,"बिफोरखौ</w>":10977,"ग्राफोरानो</w>":19720,"मानिया</w>":7828,"मुसाहारी</w>":12623,"खिरफिन</w>":20787,"वाखौ</w>":8608,"दामब्रि</w>":25031,"गादियाव</w>":29233,"मिन</w>":7136,"जोबनायसै</w>":12176,"दावगानाया</w>":15376,"13</w>":4199,"2":18,"बेलासि</w>":5125,"मुलुगजों</w>":24990,"फावदिन्थिनाय</w>":16818,"असमीया</w>":3091,"जिगाबनि</w>":14567,"थाइनैया</w>":14814,"सिलाय":18813,"लांहि":23447,"नुरु":19315,"थांफिनो</w>":12049,"सोरजों</w>":7821,"जिउखौनो</w>":13463,"txt</w>":12728,"थायब्रै</w>":19522,"commissioner</w>":21607,"सियान</w>":8748,"साबाइखर</w>":15656,"सामलाउथि</w>":17363,"ंग्री</w>":9351,"दाल</w>":10293,"51</w>":18196,"by</w>":21693,"मोनलायनानै</w>":29732,"आंहा":8171,"ओंखारबो":5092,"थैफ्राम</w>":23973,"थिकादार":26736,"हाब्लासो</w>":22554,"रेजिमेन्ट</w>":21178,"होनाङा</w>":18900,"बाजोना</w>":22247,"नैब्लाबो</w>":23652,"फानाया</w>":29549,"600</w>":21672,"बेसोर</w>":11940,"जोनोमजों</w>":25818,"नोंथांमोना</w>":7552,"गाबो":1640,"नोंदाया</w>":12056,"बुंफिनाखैसै</w>":23092,"जेखौ</w>":4943,"arra":17507,"जानायखायसो</w>":25078,"जियाखै</w>":15588,"हेलारामा</w>":5408,"थाथों</w>":5794,"मामाय</w>":7746,"ती":4303,"गैयाब्ला</w>":3326,"आयदा":5239,"नमोना</w>":7362,"ट्रेइनिं</w>":15699,"गोनानो</w>":22486,"ओंखारनायसै</w>":14941,"आनजाद":17388,"इराग्दाव":4550,"गोदाव</w>":5610,"बोरसि</w>":4430,"बिबʼवा</w>":17769,"लिरथाइनि</w>":23993,"हाय":532,"होलोखो</w>":22793,"नोरजिया</w>":21188,"burmes":27111,"टि</w>":861,"लोंहो</w>":23978,"हाबसु":23835,"ससियेल</w>":16112,"जनै":21951,"फेराखै</w>":3936,"सेवारिनि</w>":8007,"दुखुबो</w>":17186,"हथʼ":14264,"एबसु":3388,"सोनो</w>":6171,"फरायगोन</w>":13380,"खालारनिफ्राय</w>":14625,"नंनाया</w>":17078,"सुकुर":14028,"नायबिजिरगिरिफोरा</w>":17570,"अखरां</w>":26675,"सप्ताहआव</w>":21199,"बाहायनायाव</w>":7534,"मिथिनायाव</w>":19649,"लान्जायाव</w>":28673,"लाहैयो</w>":14307,"फोथैनो</w>":11121,"ख्ले":6425,"आगाननि</w>":18293,"बिसोना</w>":22440,"जिरादखौ</w>":6466,"खालाम</w>":1747,"आसिया</w>":15946,"हानायबादि</w>":22556,"दिसे":22898,"औवारीनि</w>":26724,"खालामनांगौ</w>":3925,"रावयै</w>":13303,"राइजोनो</w>":24261,"ष्टे":2448,"जायाखै</w>":1488,"चि":1696,"मिथि</w>":6874,"रायज्लायनायखौ</w>":11469,"सानफेराखैमोन</w>":13184,"गोदोनिफ्राय</w>":15209,"सित्रां":10101,"लाइनाय</w>":16733,"दा</w>":398,"adverbs</w>":21524,"हारिमुजों</w>":26337,"खांना</w>":4525,"जानोब्ला</w>":28763,"मन</w>":6133,"थिनहर":6968,"जाफिनो</w>":9011,"बाथ्राखौबो</w>":14976,"गोजोरै</w>":21404,"फाल्":11953,"गोसोखांबाय</w>":9740,"एसेमब्लिनि</w>":27022,"पति</w>":4390,"साफ्रासी":8865,"गै":406,"मलेनासो</w>":24171,"दांनो</w>":3623,"भक":3776,"लांफै</w>":16673,"ीनिबो</w>":28475,"प्रेमधर</w>":20572,"मथा</w>":10914,"दाथिं</w>":18844,"सासेबो</w>":5244,"थांफिन्नो</w>":19186,"माइथायनि</w>":2671,"जुलि":9721,"ायावबो</w>":7470,"दामनायाव</w>":20364,"जेङा</w>":9078,"गोजोननो</w>":11456,"खारसार":23576,"फबनो</w>":28189,"सुबुं":808,"नायगिरै</w>":17713,"जाहोदोंमोन</w>":20312,"कान्तेश्वर</w>":21548,"थेफे":1500,"आलेनि</w>":1896,"मेंग्लि":14040,"मावरिजाजों</w>":15528,"शं":14252,"दाबिया</w>":17671,"मिनियै</w>":11533,"चेया":12494,"बेलाय</w>":4599,"खʼना</w>":5679,"गामी</w>":20039,"इलि</w>":21821,"खामद":22408,"खानाय</w>":1377,"लांफानाय</w>":23456,"हाफा":18759,"wednesday</w>":27320,"गैथार":19368,"हानजा":4930,"जारलायाव</w>":15268,"आथुर</w>":9491,"बाम":6821,"होफिननो</w>":29617,"मिलि":3791,"फर</w>":7067,"फोजोबो</w>":13162,"निजिरा</w>":22872,"ऋ</w>":215,"ष्टाइ":24216,"अफिसार":20563,"सुलि</w>":3178,"></w>":253,"खाम्फानि</w>":21256,"हरामोन</w>":10700,"ङा":433,"सावदों</w>":19671,"बड़ʼनि</w>":11435,"आइला</w>":24351,".........।\"</w>":12625,"अनजाली</w>":17683,"सालिस":20119,"फुंनि</w>":2426,"जफानाय</w>":16016,"अब्लासिम</w>":17926,"tragical</w>":26488,"other</w>":27572,"सोबानानै</w>":29697,"बाङा</w>":10208,"फामानि</w>":11056,"गाजां</w>":29237,"एसिष्टेन्ट</w>":26093,"मैया":14945,"मुवाखौनो</w>":25140,"गादेरनाय</w>":29243,"सान्नो</w>":4035,"जोमनायनि</w>":20532,"अनुले":5136,"दारु</w>":13059,"बि</w>":488,"ng</w>":18238,"फ्लां":1842,"बायनाया</w>":16616,"बेंगली":25888,"बानजायनाय</w>":3963,"रामाया</w>":28693,"जेभि":29977,"सोन":11961,"थाफ्ल":12962,"नाव</w>":389,"टआव</w>":28003,"नति":28135,"गोबौ":22490,"हानाय</w>":864,"सानि</w>":2242,"बुद्दि</w>":15804,"दाम":1517,"समजित</w>":15011,"फान्":5978,"tical</w>":11413,"सुमʼ</w>":22999,"घरिखौ</w>":18360,"द्रायै</w>":24530,"थावगुबै</w>":24296,"गोहोजों</w>":6052,"गावहाबो</w>":16624,"जथाइजों</w>":27989,"हेलिकप्":27382,"अजयनि</w>":3157,"सेके":5190,"सोलिफु</w>":20567,"रिपर्":23048,"गैयिखाय</w>":26930,"सुट":11995,"वर्कश्वप</w>":21529,"शिब</w>":25428,"ब्लाउ</w>":5827,"इजराइलनि</w>":10097,"नुसनबाय</w>":26700,"बिरल</w>":24910,"थेलेबनि</w>":17443,"खोल</w>":6619,"दुखुखौ</w>":5881,"अलकामोनहा</w>":25411,"मेगनजों</w>":4172,"सियेल</w>":7762,"हाजʼवारी":6264,"गाँवनि</w>":10021,"दुवार</w>":19279,"मुस्री</w>":1485,"16":7338,"गाननाया</w>":10558,"जादु</w>":16173,"जाफुंनानै</w>":25240,"थावा</w>":3907,"लागाम</w>":16151,"हाबिलदारा</w>":12660,"फोरसे</w>":29824,"थिनाय</w>":4509,"द्रयिं</w>":15097,"बिहाव":5959,"सानलांबाय</w>":23216,"बुग्रा</w>":18873,"नागारलांबाय</w>":25695,"चे":2493,"नाइ</w>":2438,"जलपाइ":25925,"अगर</w>":15930,"अफ्र":27665,"नवा":6321,"आसथाम</w>":20924,"सिथर</w>":7760,"बाहायनानै</w>":4031,"नोथʼ</w>":1768,"जाफुंसार</w>":5397,"बोराबनाय</w>":26080,"जेकेट</w>":4766,"गुन्दानिफ्राय</w>":25179,"बुंलांबावो</w>":17971,"दबाय</w>":8955,"dire":20696,"मदद":7558,"सांग्रा</w>":29125,"सानजौफु":7015,"फाहायो</w>":22753,"गोबानानै</w>":4041,"आखुथि</w>":17042,"फांथे":5395,"मानसो</w>":23476,"अमानोबो</w>":27703,"आमि</w>":14113,"आरिफोरनि</w>":27732,"कनष्टेबलफोरखौ</w>":21528,"रामोनदाया</w>":26892,"आदार</w>":5027,"ष्टनि</w>":7512,"बोसोरनैसो</w>":20433,"बैसोया</w>":20370,"टकी</w>":28011,"(:":27414,"सत्य</w>":28424,"बुखावनानै</w>":29513,"नचि":22028,"थिफोरखौ</w>":11076,"गुबै</w>":1070,"गोसोआव</w>":1184,"बिजौनि</w>":28996,"दानायाव</w>":5179,"गाय":624,"खोमोरनो</w>":6759,"बोखारनानै</w>":7309,"खालि":3357,"गाननानै</w>":6243,"bri":10839,"बिनय</w>":15342,"[</w>":188,"age</w>":10836,"दिहुन्नो</w>":8722,"खोनासंबाय</w>":12457,"ब्राह्मी</w>":26859,"नुनो</w>":1006,"बिजाबाव</w>":7611,"मोदाइ</w>":3989,"सेखʼनो</w>":22960,"पार्भेज</w>":27391,"सिसियान</w>":29364,"कल्पनाजों</w>":15090,"अलिम्पि":6298,"सायखʼनानै</w>":15087,"ब्लाया</w>":6033,"नार्जारी</w>":3698,"फेल</w>":9768,"जʼरासे</w>":6031,"दाद":18836,"दिहुनदों</w>":15175,"फोथायनो</w>":9101,"फो":340,"थुलुं":2716,"जाल्ला</w>":7393,"गलाया":27904,"बाक्":11826,"उपेन</w>":14146,"दमासु</w>":12589,"आनारामनि</w>":6680,"स्कुटार</w>":20524,"बिदिनो</w>":1975,"सो":300,"थुंग्रिया</w>":12656,"भुम":13588,"मखजाथाव</w>":27122,"रआ</w>":14234,"लायाबो</w>":5245,"पेन्चनखौ</w>":27273,"सुहाबनानै</w>":22986,"नायाथʼ</w>":6030,"बेखौलʼ</w>":6591,"मोदायजो</w>":13941,"मिनिखै":6227,"33":15872,"।..</w>":18519,"जाहो</w>":18597,"हालि</w>":22541,"लागो</w>":9560,"हरनांगौनि</w>":19331,"जम्मुनि</w>":15772,"बादियानो</w>":24168,"गोमाबाय</w>":10602,"दिनैथʼ</w>":20040,"cre":21698,"गारबाय</w>":3799,"आरिया</w>":27721,"ty</w>":7042,"हादि</w>":14407,"श्या":15248,"सरलाखौ</w>":17135,"नोंनोलाय</w>":19209,"साब्रै":18750,"ब्रायाव</w>":19531,"गैल्या</w>":16692,"दाराय</w>":18843,"notification</w>":25833,"जाखोन्दा</w>":26030,"फैया":1884,"लʼ":429,"खानखौ</w>":28909,"बिफांखौ</w>":9800,"मानसिया</w>":971,"सिरि</w>":1017,"बुथारनो</w>":7261,"सुफुं":2404,"k":46,"बालʼ</w>":14285,"होफैनायसै</w>":16399,"आंनोथʼ</w>":19163,"डाइनिं</w>":17567,"खʼनानि</w>":24004,"संसारा</w>":8354,"स्‌":9736,"बावनोलै</w>":19529,"नैजि</w>":7842,"बिनोसै</w>":22428,"जाथʼ":28736,"गंनानै</w>":6671,"दोहोरोम</w>":8867,"वार</w>":3465,"पी</w>":6801,"बारन":11223,"दजनसे</w>":28113,"2008</w>":2187,"गोख्रै</w>":3374,"फारलं":14881,"सानफ्ला":16575,"अख्रा":1575,"थैदों</w>":12217,"जेथो":14552,"पखौ</w>":8073,"ख्लोब</w>":17627,"ट्रे":1203,"बेखेवफाया</w>":9265,"lu":14083,"बेंगाखौ</w>":24871,"फै</w>":1257,"नायहाब</w>":18806,"ट्‌":5151,"लेङाय":19175,"कमिटि</w>":20598,"स्लाखौ</w>":24972,"सननिफ्राय</w>":17138,"फटʼ":3645,"सजों</w>":4678,"बारफुनाय</w>":8645,"मेम्बर</w>":5650,"दाङै</w>":7117,"बारजां</w>":10449,"दोमैलु</w>":15693,"सादु":16277,"फिसिनाय</w>":12010,"महराबो</w>":12257,"महु":18462,"उर्ब":15769,"खबर</w>":6278,"फुबाय</w>":13266,"मादि</w>":4062,"जाङिया</w>":28805,"our</w>":3700,"आलफा</w>":11471,"फिटा</w>":23031,"लिंलांनानै</w>":24685,"नोंथां":1094,"दोंलʼथार</w>":23343,"हागौ":3783,"इउनियन</w>":27029,"मोन्थि</w>":19823,"हौ":843,"अरायथा</w>":7599,"बोराव</w>":29928,"हानांगोन</w>":13023,"नेनानै</w>":5850,"जागायजेननाय</w>":11521,"जिबौखौ</w>":21095,"बैसोखौ</w>":25040,"सालिस</w>":6244,"हुद</w>":19572,"जावले</w>":8311,"ीयान</w>":8878,"सिन्":13044,"खावनिया</w>":15017,"जालांनो</w>":9012,"गुसुथै</w>":17495,"खानायखाय</w>":28929,"जालु</w>":22331,"आखुथाय</w>":4856,"उदुरामा</w>":11549,"लाबोदोंमोन</w>":8696,"गथायनानै</w>":7010,"सानथाम</w>":6374,"निग्र":22863,"दन्द</w>":28102,"सेबाव</w>":10343,"थिसन":3726,"लाखिनाया</w>":24634,"यां</w>":9714,"बुंदोंमोनब्लाबो</w>":16504,"रीनो</w>":16883,"बेसो":22689,"हरब्ला</w>":8612,"thes":13600,"ंग्लोब":20778,"रुमथिङै</w>":20886,"दोनबाय</w>":3869,"निसिमा</w>":29815,"गुज्रिया</w>":27368,"....।\"</w>":6385,"राखै</w>":1744,"जफ्लां":27982,"नायदावनानै</w>":26971,"जिउखौ</w>":1924,"आबौवा</w>":11328,"स्रांखौ</w>":19869,"दावबायारि</w>":20934,"रायानो</w>":17812,"बोहैलांनाय</w>":10568,"गुदुं</w>":2326,"ब्लायनाय</w>":19857,"जिङाव</w>":6365,"हेल्ल":23695,"बोसोरखौ</w>":20429,"बोसोरसे":15277,"जथुम्मायाव</w>":8852,"बिलिफां":13552,"सालाखौ</w>":14397,"लोरगि</w>":25465,"बुंफ्रु":19108,"नरमे":28141,"फोलानो</w>":10367,"गोलोमदै</w>":13839,"खेबखांनानै</w>":17147,"अख्रांमा</w>":12612,"खिथेर</w>":6903,"जङा</w>":16009,"बिबावगोन</w>":28990,"दानखौ</w>":11935,"बाथौवा</w>":23603,"सहर":22147,"फान्था</w>":14484,"माइक्रʼसफ्":15865,"नंमारगौ</w>":8414,"आवरायनानै</w>":20983,"फोरमायथियो</w>":11315,"उल्थां</w>":20751,"दैला":23640,"गोमोहाबो</w>":24884,"k</w>":209,"बारहां</w>":11224,"सोरजिनायनि</w>":11407,"लाबनाय</w>":28633,"एकाडेमी</w>":8903,"थाजा</w>":28819,"न्थे":29262,"गयारि</w>":27915,"फरायसालिफोराव</w>":10752,"बेंनाय</w>":15211,"आलफानि</w>":15312,"मोननिथिं</w>":29751,"बिस्कु":5170,"हगारहर":17419,"हु":504,"गिखाङो</w>":23057,"चार्भिस</w>":26450,"ब्रैसो</w>":4010,"story</w>":15393,"खुनु":4330,"सिथों</w>":29340,"आलि</w>":6782,"लेबेल":23176,"गैयाबा</w>":20191,"dy</w>":14075,"सिनायथिनि</w>":11379,"उनाव":6256,"निका</w>":29803,"ंगदा</w>":23008,"बिष्णुनि</w>":21565,"जिथायाव</w>":19041,"वालाखौ</w>":11176,"स":113,"मंगलीयान</w>":13785,"जस्लंनानै</w>":21436,"जात्रा</w>":4194,"मबाइ":7368,"फिनखौ</w>":6415,"बिलियाव</w>":12983,"आसिमा</w>":21815,"रोंगʼ":20233,"इंराजि</w>":5883,"सरलाया</w>":3013,"ग्राफ्रा</w>":16893,"साफायाव</w>":18751,"खांबायमोन</w>":14768,"जिना":2539,"दोनहैबाय</w>":19754,"जाम्बानि</w>":25250,"बांसिनै</w>":6095,"लआ</w>":10921,"थिनहरदोंमोन</w>":17260,"थाफा</w>":28820,"19":1119,"बदन</w>":25463,"निख्रुय</w>":6071,"बुंगोन</w>":2768,"मानै</w>":7099,"सफैनानै</w>":22155,"लुथुर</w>":19376,"बुसि</w>":22717,"साखाथियावनो</w>":13018,"फिउ</w>":12007,"दियै</w>":4307,"गायदेया</w>":15836,"रसन</w>":28312,"हमनायखौ</w>":23741,"जोमनाया</w>":20534,"बिथियाव</w>":22427,"बोलʼ</w>":14541,"नियाव</w>":2045,"स्पʼ":16750,"सिंगा</w>":29339,"गिख्रंथाव</w>":8839,"ंग्राखौ</w>":20208,"जानायलाय</w>":7959,"बाथौ</w>":4008,"बोसोरारि</w>":9379,"दलि</w>":14198,"जोंब्लाबो</w>":13223,"मोनथायखौ</w>":9065,"आवराय</w>":17118,"दिन्थिनाय</w>":2468,"दामि</w>":10628,"न</w>":152,"मोजोमाव</w>":22501,"फारनैखौ</w>":9765,"रडनि</w>":28318,"बोल्दा</w>":29954,"माष्टारा</w>":15482,"थाफानाय</w>":18638,"स्टार्ट</w>":7000,"बेखेवनो</w>":7029,"दालि</w>":6165,"बैखौ</w>":8652,"फल्डा":21308,"बोरायनि</w>":4287,"ner</w>":27564,"दयारामनि</w>":25059,"रिगुलार</w>":23051,"बिन्दो</w>":14365,"बायलै</w>":3520,"लालांबाय</w>":22263,".........":5374,"आदुवा</w>":27744,"जाल</w>":9002,"सोनाब":20558,"सावरायज्लायनाय</w>":15201,"नायनिखुरै</w>":13042,"नोंसोरो</w>":7259,"गमामायैनो</w>":5744,"नानिफ्राय</w>":4213,"नङामाथो</w>":24255,"टिकेल</w>":8680,"मोनथाय":13095,"बेफ्रुहोनाय</w>":17592,"04</w>":27424,"लिंना</w>":17184,"टेल</w>":10489,"द्</w>":18406,"दिनो</w>":4940,"जिनखौ</w>":22970,"लाया":1230,"बिबनां</w>":9366,"सास्टि</w>":29145,"बोराबनानै</w>":20960,"नोंथांजों</w>":9287,"जुला":8204,"सुपा":19050,"बुजिग्रा</w>":20392,"दाहायाव</w>":8552,"नंनायनि</w>":15072,"जौसो</w>":14933,"रायलायदों</w>":15349,"हैदो</w>":4618,"खेबाव</w>":5518,"अपारेसन</w>":8796,"खाउरि</w>":6491,"बिथाङानो</w>":15745,"होलायनो</w>":18903,"नैलʼ</w>":8219,"जाथों":14329,"नायलाय</w>":3135,"एंगारनाय</w>":8826,"नोंना</w>":13185,"लागै</w>":7384,"रुजुनाय</w>":12496,"प्रदी":6218,"बिफोर</w>":11876,"ियन</w>":6168,"होथेनानै</w>":13087,"आर्सा</w>":25578,"डिस":15069,"बारआ</w>":8644,"सिमहा":10289,"बरे":23493,"जामार":9010,"बिसंगालि</w>":28999,"फरे":3597,"थाबाव":8519,"निमखि</w>":29818,"आब्रा</w>":7527,"खायैनो</w>":24110,"दाने":18842,"ियावनो</w>":3310,"गासं</w>":18783,"खुरसि</w>":25310,"आदामोननि</w>":25508,"नाय":285,"बिनानाव":12308,"स्रावनानै</w>":24280,"आबा":15934,"लिसिम</w>":23159,"रेब":2427,"खि":413,"मिल":3561,"फोरखौसो</w>":16432,"फ्राम":5824,"क्ट</w>":9200,"दैमारिनि</w>":17534,"नंथारा</w>":24484,"आदुंगारी</w>":26628,"हांमानि</w>":13373,"गाहाम</w>":1471,"थाफानानै</w>":18642,"हिनजा":1728,"खन्थाइ</w>":3042,"फजʼबाय</w>":25603,"गाग्लि":18785,"खाब":6829,"बिजौसिम</w>":26434,"फैबायमोन</w>":19131,"दाजाबनानै</w>":7236,"गुमा</w>":19061,"खांखिला</w>":23554,"गुरब्ला</w>":13637,"फाइलि</w>":25160,"सिमनायाव</w>":20606,"मार्केट</w>":25649,"ँ</w>":236,"होनब्लाबो</w>":8655,"माब्लादि</w>":17169,"खालामनोबो</w>":16592,"फाथिनानै</w>":10317,"सिगिनाय</w>":29348,"वाथʼ</w>":19312,"लैसो</w>":17148,"ब्रेइन</w>":25330,"मोसे</w>":29087,"नगाँवनि</w>":28151,"name</w>":15756,"जयोब्लाबो</w>":21969,"नखʼ":4904,"देरहाग्राया</w>":4360,"थांफानो</w>":8593,"मोनसिन":22823,"बौहै":15633,"दाखोन</w>":11939,"खारखो":13270,"डिनि</w>":20003,"थोथोर</w>":13360,"जौगाखां":9333,"ब्लालाय</w>":3268,"बें</w>":4934,"्लि</w>":13071,"निफ्र":881,"नोंलाय</w>":2196,"एला":7689,"बान्दो</w>":8992,"बुन्दिखौ</w>":21233,"गिलु</w>":3107,"लामानि</w>":3836,"जिर":4077,"polic":26074,"गाबोननो</w>":8781,"जʼदोंमोन</w>":24220,"जोनोमगिरि</w>":8010,"सिनाया</w>":18815,"नोगोर":2543,"थफ्ला</w>":5433,"ts</w>":9484,"सफैयो</w>":14256,"णा</w>":7356,"खामफ्लाइखौ</w>":26072,"jo":27541,"जगायनाय</w>":21116,"हाखो</w>":13022,"शान्ति":7214,"खैथʼ</w>":16866,"बहनै</w>":28238,"टिमिडिया</w>":19774,"स्त":4337,"एसʼचियेशना</w>":21567,"local</w>":25471,"जाबनाय</w>":24141,"रायफोद":27052,"फिस्रि</w>":23029,"भ</w>":210,"दाले</w>":29401,"साजानि</w>":14398,"बिआं":10242,"ल्दाम</w>":26188,"रोमोन्थि</w>":23541,"नुबोदों</w>":14721,"सप</w>":18489,"रावखौ</w>":1654,"दोनखादोंमोन</w>":14951,"बोख्लायनानै</w>":17935,"योमोन</w>":4209,"शान्तियाबो</w>":17095,"पसन</w>":22035,"देरहाग्रा":17283,"नासै</w>":4309,"मुसुखा</w>":7302,"मावजा</w>":19478,"मागि":18696,"लायनाया</w>":7460,"अरुनाबो</w>":20320,"प्रिन्स</w>":25638,"मोदाइखौ</w>":20980,"एरै</w>":2191,"स्रʼ</w>":9720,"मावफारिया</w>":8643,"सोंनांगौ</w>":12248,"धोरोमखौ</w>":8761,"तास</w>":12228,"दाजाबदाया</w>":6701,"लिक</w>":5642,"होआमोन</w>":25739,"इन":1549,"नैसोनि</w>":6914,"मेदिया":19290,"खानिफ्रायनो</w>":22406,"अफिसारा</w>":25353,"नङो</w>":28126,"रजिमोनहा</w>":26539,"थाखोनि</w>":2026,"थिनदों</w>":7562,"हाबोदों</w>":29173,"खोनासं":1974,"खिथेरखौ</w>":15827,"मोनस्रा</w>":14514,"जालांनायसै</w>":17524,"नंखाय":6235,"बिदाय</w>":2759,"आन्चलिक</w>":12729,"ओंखारगोन</w>":16910,"आब्दुल</w>":12706,"देहाखौ</w>":2770,"राइजोयाव</w>":7890,"बिगुरनि</w>":25103,"खिबुवाव</w>":21293,"बैसागोआव</w>":25348,"बिनिथिं</w>":18685,"जेननाय</w>":4036,"खाबु":3607,"गिसि":16492,"सहाय":6814,"जासि</w>":28731,"थामथिमै</w>":24590,"गाननायाव</w>":20088,"लांखानिफ्रायनो</w>":23461,"केबि":16854,"सयाव</w>":16106,"दिहुनानै</w>":20060,"टिसार</w>":24135,"रायलायगोन</w>":17483,"सेक्सपीयेरनि</w>":7025,"बुंहरासै</w>":23089,"जेरैनो</w>":16461,"तितागु":2202,"आंगोनि</w>":19166,"बानजाय":1855,"सोंनायमोन</w>":19765,"रान्ना</w>":28715,"थाखाय":2536,"मुं":656,"नंखायखौनो</w>":12651,"जेरै</w>":593,"सेप्तेम्बर</w>":1333,"गोलावनि</w>":20914,"नुहरनो</w>":23419,"stan":25491,"खादोंमोन</w>":4492,"मुगा</w>":5820,"थाङासै</w>":10662,"ard</w>":10680,"रंजालिनि</w>":7549,"लेम</w>":19167,"फावथाइया</w>":6683,"लाखिनायाव</w>":13534,"उहु</w>":15958,"क्राइ":12809,"24":15870,"मनजुलाखौ</w>":20349,"जक्‌</w>":21971,"दायावनो</w>":18413,"सुथुरा</w>":6980,"सावसु":9193,"उखुन्दैया</w>":26816,"बिगोमाखौ</w>":26325,"फोरनोनो</w>":29835,"दाबार":18841,"शनिबार</w>":26276,"धोरोमाव</w>":12395,"चरि":27948,"माथो":5468,"अमिता":10801,"जाखांब्ला</w>":20665,"ग्लʼ</w>":19687,"लबेन</w>":22124,"मुंमानि</w>":6669,"जिथाम</w>":14564,"दाङो</w>":11037,"नाग":12914,"बावखो</w>":12170,"ख्लि</w>":6681,"इउन":14132,"नामैनो</w>":16127,"जाजानायफोरनो</w>":22365,"उदाङै</w>":11742,"थांफिननानै</w>":23195,"खुगानिफ्रायनो</w>":26602,"रिपाब्लिक</w>":23049,"गोख्र":988,"फ्रगखौ</w>":23983,"बै":506,"बिसोर":592,"पद्":22039,"जुलियेट</w>":17955,"बुश्वखौ</w>":27363,"ʼआ</w>":27632,"mar":21730,"इनाया</w>":27758,"दफानि</w>":28103,"बन</w>":3898,"एखमबा</w>":12723,"जाइ":2891,"राक्षस</w>":12719,"मानोबा</w>":2551,"हैनायसै</w>":7153,"बिखुं":10979,"फिसाजोवा</w>":24816,"life</w>":20578,"दांसे</w>":19976,"बिफाननो</w>":16940,"मांनि</w>":29025,"सिंखौ</w>":8300,"जर</w>":4572,"सावथालनि</w>":23956,"निखौलʼ</w>":29807,"कटन</w>":10876,"बिसिफोरनि</w>":17151,"रहेलानि</w>":20872,"बिगुमैनि</w>":17884,"मोनफुनाय</w>":29747,"थिग":18983,"सिनारि</w>":29341,"जʼरायाव</w>":19840,"सन्नो</w>":22157,"बिगुरा</w>":25102,"सेक्सपीयारनि</w>":13840,"बेखौलाय</w>":16365,"हाबाव":14409,"एस</w>":1680,"गुदियाव</w>":4414,"जाखां":2731,"दुत</w>":13212,"जेरबायाव</w>":11594,"बोजʼबनानै</w>":29968,"बुरखाय</w>":12404,"गुरजि</w>":25049,"बानबुंथिखौ</w>":26752,"लाम्फा</w>":6338,"ग्रोनांगौ</w>":17216,"आरबाव</w>":24638,"गेब्ला</w>":3269,"क्य":19688,"मुसल":16539,"हारसिङैनो</w>":8726,"गोरोबथानि</w>":17465,"दिगि":29866,"मोदायजो":26326,"टाइप</w>":13821,"दैदेनलांनो</w>":24999,"...\"</w>":6074,"नाल</w>":7377,"हस्पितालाव</w>":15733,"सिलङाव</w>":11656,"बिथांनिनो</w>":12335,"दाफै":29380,"ऴ</w>":163,"सिनायथि</w>":2490,"गामाखालि</w>":8428,"धालीगाव</w>":18139,"जुन":19381,"मोनजादोंमोन</w>":29727,"थैबाय</w>":3079,"खोनायाखै</w>":9686,"एन्ज":15964,"देउरी</w>":26441,"साप्ता":27236,"गायनाय</w>":14955,"नंनानै</w>":17075,"बिहा":2396,"हों":6816,"दसेबो</w>":28101,"साद्रि":29137,"नुजाहैबावनो</w>":24857,"नायथां</w>":29271,"बिस्कुटनि</w>":17818,"टर्सनि</w>":21484,"अलʼक</w>":6961,"साबदारि</w>":24719,"थानांगौनि</w>":28854,"सुखे</w>":3067,"फानायसै</w>":29552,"सहेनखौ</w>":17436,"धर्मेन्द्रा</w>":26874,"दामा":22658,"मददबो</w>":26517,"बेसेननि</w>":8266,"गोलैदों</w>":11488,"आन्सलिक</w>":21571,"रियानो</w>":15172,"गोलौ</w>":29081,"नेपालनि</w>":17847,"मारदों</w>":15114,"le":4379,"मालदार</w>":12551,"नंखायसो</w>":24486,"थखʼ</w>":16034,"दिलाम</w>":29881,"जोबनानै</w>":2347,"माथुरा</w>":14381,"हंक":22170,"लाइजामफोरखौ</w>":26710,"कनट्रा":17642,"लानांगौ":28623,"सन्दे</w>":21489,"दैया</w>":1992,"बोरैबासो</w>":20496,"बायदिफोरनिफ्राय</w>":24776,"जोहोलाव</w>":1803,"खृष्ट":10806,"लिंखʼनानै</w>":20155,"स्":440,"ब्लायाव</w>":24263,"फ्लांबाय</w>":7262,"लोगोफोरनि</w>":16941,"98</w>":10108,"थासारिनि</w>":11869,"हाद्रिबाला</w>":21551,"va":27612,"सुबंनि</w>":26903,"बोगौ</w>":7428,"जियै</w>":10886,"कारा</w>":14858,"दिफु":29870,"खारलांनो</w>":14780,"वालिनि</w>":23407,"गंसेमानि</w>":24204,"दाननिफ्रायनो</w>":24323,"रादि</w>":10949,"ये</w>":8485,"लाबोआ":19881,"किलʼ":7915,"फाग्लिबादि</w>":21227,"ियोमोन</w>":11951,"जोलाव</w>":29909,"लोगोसेयै</w>":24157,"हरखाबनो</w>":11470,"समायना</w>":2332,"दयो</w>":16039,"खोमानाय</w>":5706,"अरुप</w>":17321,"दंलाय</w>":19729,"बबावबा</w>":8036,"गेछ":23467,"थाथावगौ</w>":18648,"एखनब्ला</w>":3964,"बिरलाङो</w>":12396,"आखाइखौ</w>":3878,"मोस्रोम</w>":16271,"बेंदों</w>":17277,"नबाय</w>":6799,"खाना":9573,"सौदाव":17057,"आवला</w>":13511,"आगष्टनि</w>":24938,"आबहावाजों</w>":26858,"सानसे":1931,"सेकेण्डारी</w>":26943,"बोहै":1067,"गुबैया</w>":25565,"नायनानै</w>":1210,"आं":350,"डिराक</w>":24480,"खेबसेबाव</w>":20104,"सिला</w>":8547,"उन्द":654,"लागोनि</w>":14310,"दंफांनि</w>":6026,"उदन्द</w>":25332,"लायाब्लानो</w>":24833,"बिमानै</w>":25903,"हेबनानै</w>":19495,"दामग्रा</w>":15246,"मा</w>":312,"नांनायाव</w>":14736,"होगौमोन</w>":18905,"गुवाहाटीनिफ्राय</w>":20437,"नागिर":789,"गोथैखौ</w>":13797,"मारीनि</w>":29036,"सोमहाब</w>":16951,"सिबाय":29319,"जेसे":2073,"ck</w>":15889,"सथा</w>":28392,"?(</w>":21685,"क्लʼ":9956,"मोब्ले":29095,"बारहुंखाया</w>":14014,"इन्जिनिया":4365,"हाथाइ":11008,"जास्ट</w>":28765,"लि</w>":455,"गवालपारा</w>":21434,"गें":12099,"रबीन</w>":22115,"मिन्थि":3108,"सफैया</w>":28418,"धोरो":1323,"समाजखौ</w>":7483,"नोमफा":15438,"नैजों</w>":2900,"नोखि</w>":13180,"दासानसै</w>":29448,"%":5,"डाइरेक्टरिनि</w>":17808,"थुदो</w>":6386,"अभा":18262,"बिसान":22419,"कक":1594,"थिउरिया":2607,"दिस":11080,"गोज्व":10258,"एसेल</w>":24332,"मुथुं</w>":21384,"सलʼवाव</w>":3037,"जाहोनाबो</w>":24964,"होग्रोदों</w>":29659,"essories</w>":14032,"जगदार</w>":26572,"मुरायाव</w>":23149,"फां</w>":1431,"स्वर</w>":6280,"रिसिम</w>":12012,"ious</w>":21720,"थांहोनो</w>":23188,"सोरजिगिरिनि</w>":15207,"मासु":29019,"सिजिल</w>":29370,"मोन्थ":6571,"मोनग्रानि</w>":29746,"बाहायो</w>":4681,"सिखाउ":25005,"सिमांसिम</w>":21110,"9435":27206,"सरबत</w>":18035,"फे</w>":2564,"बेश्व":29474,"नोलाय</w>":4710,"दाउसा</w>":10612,"फारनैनि</w>":19630,"बानबुंथिदों</w>":21465,"pad</w>":15668,"बिग्रायारिफोरखौ</w>":15677,"आलमर्टा</w>":18186,"दिगदार</w>":26843,"सिमांसो</w>":15675,"ंगि</w>":4602,"दाव":519,"मस्":8483,"जाफुंसारदों</w>":21164,"डार</w>":3753,"थाखा</w>":5793,"तितागुरिनि</w>":6985,"नाथिं</w>":8087,"गोथैनो</w>":17598,"ाव</w>":288,"लांनाया</w>":9712,"अवार्":18266,"गʼद्रेज</w>":24404,"मोजोमा</w>":29103,"सिउ</w>":7112,"दामै</w>":5481,"सोमजि</w>":11292,"गोमानायनि</w>":20270,"थिसननायनि</w>":17681,"गोजा":722,"जिल्ल":5812,"बोख्लाय</w>":19018,"हाब्बोयो</w>":26742,"ब्रास</w>":13472,"जिस्नि</w>":22972,"गौथुमनि</w>":12725,"बिखुंखौ</w>":17561,"मोननायानो</w>":22827,"फोसाबनो</w>":8818,"दिन्थियो</w>":2720,"पा":538,"फोरमायनायलʼ</w>":24347,"दोह":4420,"जाब":639,"बोहैयो</w>":17175,"co</w>":18216,"बाब</w>":5162,"फिसाय":7793,"--\"</w>":482,"गाना</w>":29215,"बोरै</w>":891,"मानसिं</w>":19542,"दाजादों</w>":29390,"हाखि":4687,"मोनलाय</w>":8147,"खुदियाखौ</w>":17546,"बोलाङो</w>":22923,"सावरायलायनाय</w>":24844,"साम</w>":13008,"माहो":22454,"लाग्रोयो</w>":28664,"प्रुभ</w>":18111,"सेवारिया</w>":7007,"जाबोबाय</w>":9568,"बांहोयो</w>":16900,"जीर</w>":20594,"मोन्":664,"जआ</w>":21942,"आबारीनि</w>":9428,"फैबाय":23107,"सुथुरनि</w>":11459,"यु</w>":18466,"सोमस्रिखौ</w>":13412,"दर्":3203,"बोसोरबासो</w>":20435,"गोसा":11893,"मोनसिनबाय</w>":18964,"बुरखाय":5392,"ंग्रो</w>":9922,"बाराखौ</w>":11439,"ोब":16117,"डाइलʼगखौ</w>":27293,"बागै":18546,"आइजोनि</w>":11490,"सोमजिहोनो</w>":20481,"ओरै</w>":5764,"दान्दिसेनि</w>":9362,"थुनलाइयानो</w>":24878,"जाफुङाखै</w>":25950,",-</w>":5419,"मेट्रि":4613,"सिफ":5973,"आवाजखौ</w>":20716,"दोनो</w>":3926,"सारो</w>":6572,"मेव</w>":10395,"गलांनो</w>":21916,"ङैयाव</w>":21934,"मोनफैबाय</w>":22820,"लायनायानो</w>":23385,"स्रादों</w>":24279,"्ला":336,"महा":929,"गत</w>":14168,"आलाइ":778,"गानदों</w>":10557,"सोदों</w>":11065,"गलʼनि</w>":4119,"डीलनि</w>":17930,"बेगपाइपार</w>":18173,"सैदि</w>":19653,"लिरदोंमोन</w>":6024,"हासि":18758,"साट</w>":22502,"नेइ</w>":23901,"लोङो</w>":4242,"जलदब</w>":15554,"सिग":29309,"थायाखै</w>":7247,"बेंगल</w>":8393,"कमबक्":12462,"मोनहैबाय</w>":14512,"राखावा</w>":28717,"गे":396,"राखिसै</w>":10221,"फं":848,"नुथायफोरखौ</w>":26739,"अजाजों</w>":21780,"सोरां</w>":2442,"खांनायसै</w>":13262,"उराल</w>":21572,"नʼल":16936,"बायनांगौ</w>":14674,"फोरमायग्रा</w>":6228,"action</w>":15420,"न्नायाव</w>":5615,"दोआ</w>":13199,"दानै</w>":13053,"लागाय":14303,"राजखान्थिनि</w>":6439,"नारी</w>":10205,"आकु":11731,"बोथोर</w>":3032,"बाथʼ</w>":8634,"जाखुमा</w>":14337,"उनखालि</w>":17367,"गोजोनगोन</w>":15283,"अराय":1877,"जेट</w>":11088,"बोखांबाय</w>":29939,"फानजोबनानै</w>":24789,"दाहालागैबो</w>":22684,"रेबती":15372,"नरेश":8800,"फरायनायखौ</w>":19704,"फालांगिनि</w>":11591,"हलि</w>":28450,"बावदियाहा</w>":20735,"ंगेल</w>":17856,"गाखोनानै</w>":4280,"बासिन</w>":22228,"मखौनो</w>":28273,"गोरोब":2143,"लान्थि</w>":28620,"मानसिफोर</w>":5356,"येल</w>":5900,"थैदो</w>":14918,"थʼना</w>":19770,"जोम":2049,"गाबज्रिनानै</w>":17519,"बिखङा</w>":24579,"केहेर":14897,"गांब्ला</w>":24467,"फालु</w>":4600,"edies</w>":27511,"जबै</w>":27968,"मुङै</w>":3464,"महरफोरा</w>":15080,"झालु":17234,"ड्राइभ</w>":21063,"गाबनायजों</w>":19743,"सोर्गोनि</w>":20964,"ककराझार</w>":2914,"ef</w>":27508,"बिथांखि</w>":5383,"नुजेन्":23428,"गुरजा</w>":25047,"कपि</w>":8462,"बङाइगाँवनि</w>":25899,"खनानि</w>":18334,"पियन</w>":14210,"ग्रीन</w>":26335,"थादोंमोन</w>":2588,"दारी</w>":16340,"बारहुं":9422,"माथुनानै</w>":29053,"सोबबाय</w>":20673,"खायाव</w>":5031,"सप्ता":5274,"रुप":4161,"आथʼ</w>":21793,"बेमार</w>":9050,"एप्रि":6792,"खोथिया</w>":16521,"रिथि</w>":16489,"दाबुंसै</w>":11660,"न्टस</w>":20652,"जानायखौनो</w>":25076,"िमाव</w>":28470,"लाबारि</w>":28632,"मन्":908,"बावदा</w>":4965,"रोंगौ":6449,"ससेयाव</w>":18502,"थाफ्लि</w>":16201,"माउसजों</w>":25736,"सोरमोन</w>":10391,"window</w>":3429,"नाले":5946,"जानोनो</w>":16172,"सिनायखायो</w>":17154,"reven":12471,"थालो</w>":22377,"थारि</w>":3779,"स्रें</w>":3427,"गाज्रियै</w>":8416,"गाग्रा":29221,"लुखौ</w>":23506,"नायफैबाय</w>":29274,"ंखौ</w>":1256,"किउरियʼ</w>":10061,"कुनि</w>":13486,"डजखौ</w>":28029,"दांग्रोम":21159,"सानफ्रोम":23226,"फोजोननो</w>":21497,"सायावनि</w>":17195,"ज्लायो</w>":5377,"फ्लांदोंमोन</w>":15295,"सलʼफोरा</w>":5847,"सिखावा</w>":13624,"बिलोखौ</w>":26032,"यारनि</w>":5656,"डेपुटि</w>":21597,"उफ्रा</w>":21836,"टलष्ट":27336,"बुहुमनि</w>":4559,"sday</w>":27594,"बुंखायो</w>":19107,"मथैनो</w>":28282,"बिगासे</w>":28982,"ग्लायनो</w>":13369,"गामिनिफ्राय</w>":7288,"लायदो</w>":8607,"रायखांथावनादि</w>":21411,"जाननि</w>":22321,"खानस्रि</w>":17669,"साननांगौ</w>":8594,"होर":4141,"मिनिटसोनि</w>":17723,"पान्जाबी</w>":26656,"मुसलमान</w>":27155,"आति":11732,"ददेरेमोना</w>":24785,"आधा</w>":18291,"आखान्थि</w>":24291,"होननानैनो</w>":9751,"डिया":5288,"गाग्लाब":18791,"जैबोर":11474,"गोमालांफिनो</w>":24891,"बिजौ":6834,"deriv":15847,"रेल":6006,"पुट</w>":5684,"नुबायथʼ</w>":23431,"मपा":28274,"थिर</w>":3661,"आखुमा</w>":11331,"गोबायै</w>":18721,"।\"﻿</w>":28504,"बलातकार</w>":18155,"आलाइस्र":13464,"कʼ":1735,"जʼराखौ</w>":19838,"गोनांथार</w>":5113,"जेब्लानाखि</w>":26592,"टप</w>":14185,"फाथ्रिंगि</w>":21544,"रʼदाव</w>":17315,"खालाइसि</w>":23155,"थांब्रब":19189,"गाबज्रिगोन</w>":25470,"मावमोनथायनि</w>":13299,"जार्लाखौ</w>":15270,"यैनि</w>":10185,"सरखारा</w>":10556,"बाजारनि</w>":9386,"बाजिनाय</w>":25061,"बेरखांहोनो</w>":17792,"मुंदांखा</w>":3081,"माखन</w>":5469,"बेंगली</w>":10750,"रायज्लायनाय</w>":7972,"सानथ्रि":7813,"फागुननि</w>":29580,"बिखुंनि</w>":25557,"ससे</w>":5158,"होननानैसो</w>":23822,"रानदों</w>":20438,"यजनानि</w>":28295,"सोलोंदोंमोन</w>":24755,"होदेरनानै</w>":29636,"माबौ":22469,"मुरा":16531,"बाने":28558,"गमथा</w>":15701,"गेन</w>":4333,"मोनसिगोन</w>":14511,"चिप</w>":25143,"माब्लिद</w>":29065,"बुंहैबाय</w>":13151,"सुंनि</w>":12001,"स्नि":9737,"टेबिलनि</w>":7619,"हरेन</w>":8871,"थिउ":1905,"आसु</w>":14111,"सिलाया</w>":5310,"नफोर</w>":22025,"बोहैबोयो</w>":17177,"सास्":9591,"बेका":29458,"खामार":22405,"?\"":14074,"हैदिन":23558,"खायनोथʼ</w>":7191,"नारजारीया</w>":26712,"√":133,"फुं":744,"चिन</w>":15275,"थारी</w>":12172,"दिन्थि":721,"ब्रह्म</w>":1716,"दांनानै</w>":5380,"हाबाथिलिया</w>":24208,"गाहेला":11021,"फरेष्ट":25804,"peace</w>":17832,"गुस्लाय":4513,"दिमि":5980,"इटा</w>":27762,"सरि</w>":12889,"उख्राय":27790,"आंजोंनो</w>":16545,"रिखाव":23044,"फ्लानानै</w>":7540,"कंग्रे":4789,"दावबायारिफोरा</w>":17746,"गोजाम</w>":2128,"समाय":1349,"कै":3708,"फाय</w>":4071,"अलंबार</w>":9472,"वबाव</w>":28369,"गोलै":2151,"मोनामनाय</w>":12568,"लाभ</w>":10940,"रायज्लाया":19301,"si</w>":27585,"फैनायानो</w>":19130,"फुलमती</w>":26555,"मोसाहारियाबो</w>":24767,"गावनिखौ</w>":23327,"थादोलै</w>":16200,"मोनहोनो</w>":11969,"नोमाजों</w>":16570,"लमन</w>":14249,"हरफा</w>":23437,"गाबज्रिनाय</w>":15381,"ध्र":28116,"जंखायदों</w>":26242,"लोर":2498,"दान्थे</w>":14463,"ything</w>":27626,"द्र":913,"दावखोदों</w>":21039,"नोसै":3853,"लागो":11834,"देना</w>":16609,"निक्स</w>":29813,"सान्नाय</w>":3456,"सनीया</w>":20084,"सन्त":22154,"पेकेटनिफ्राय</w>":21275,"रमाय":3899,"फार्नि":17372,"रीया</w>":995,"काल</w>":9752,"खामसालियाव</w>":6063,"गेदेर":8615,"देउल":26440,"सुबुंनो</w>":22983,"मोगामोगि</w>":10829,"गुब्रु":23015,"होग्रोनि</w>":29662,"कहि":11750,"फरायग्राफोरनि</w>":8671,"गोदाय":16265,"वर</w>":28362,"म्बर":2139,"ताँ":13377,"दाहोनाफोरनि</w>":26200,"मालाया</w>":8120,"म्":428,"हाखानाय</w>":29174,"थिलियाव</w>":4939,"धा":2724,"सिलिम</w>":15651,"टाबो</w>":14820,"जगार</w>":12830,"नाजानाया</w>":9272,"राजाजों</w>":6698,"बैथालि</w>":9447,"थुननि</w>":23529,"दङʼ</w>":1458,"गोसोयाबो</w>":19471,"माबौरै</w>":27355,"सोम":653,"सिस्रि</w>":22634,"ing</w>":4756,"शंकरखौ</w>":17532,"बुदि्‌":21625,"निन्दा</w>":29801,"सहैब्ला</w>":12610,"93</w>":14073,"बिसोरनिफ्राय</w>":14930,"गासे</w>":1756,"बुग्ले":29520,"जायहा</w>":7161,"साफ्रा":4811,"नेटवार्क</w>":12674,"लोगोरि</w>":14963,"**":2473,"सलाइ</w>":16107,"हाबै</w>":16288,"गाज्रिनि</w>":7275,"कैलाश</w>":8011,"logy</w>":11693,"थिफु":7783,"सानालाबानो</w>":20622,"सुबुंफोर</w>":19973,"नंनाय</w>":20009,"पलस</w>":28176,"लाखिया</w>":28644,"पुलि":1058,"जायारि</w>":19958,"जां</w>":3446,"बाथ्रायाथʼ</w>":13557,"एड":6311,"सांगा</w>":29116,"थुलु":1552,"हामगोन</w>":7513,"खुगु</w>":7816,"गाले":18777,"मोसायै</w>":7748,"बिलिफाङा</w>":1950,"माबे</w>":10250,"खालामा":3070,"बिजावजा":12991,"देद":10384,"नाइनि</w>":12407,"गोग्लैनानै</w>":3086,"गोसोखांनो</w>":23660,"थासेयावबो</w>":28871,"जʼथाय</w>":19837,"गारा":3457,"जाहाजा</w>":25371,"गोबाख्रबना</w>":21094,"हल्टु":21618,"नायबिजि":18800,"बाथोन":27162,"खाथियै</w>":28934,"गनायो</w>":27909,"दिन्थ":2065,"हाराम</w>":11910,"हानजाया</w>":17612,"खिखौ</w>":5342,"दैमायाव</w>":12148,"एरायनो</w>":15965,"1993</w>":17776,"रिखा</w>":19078,"दिल्ली":25206,"रासि</w>":28688,"फजे</w>":28191,"..</w>":755,"जोहो":1211,"लान्था</w>":8996,"सिगांलाङो</w>":25185,"दाखो":18840,"क्लार्":17522,"खावलायखौ</w>":17790,"होनब्लाथाय</w>":19590,"z":61,"नबे":6320,"आंगो":9688,"गगै</w>":10149,"खालायाव</w>":16209,"बारब्ला</w>":16774,"नफोरखौ</w>":6800,"सावख्लिया</w>":7023,"दोनथʼनाय</w>":13817,"बेंगा":8758,"सैमोन</w>":23918,"साननायजों</w>":11136,"मोनहैनानै</w>":14518,"खैब्लाबो</w>":5677,"बुस्रा":29505,"लिरामोन</w>":23165,"round</w>":18245,"थांनांदों</w>":23192,"no":3705,"गुरुङा</w>":25740,"आसाया</w>":15944,"खेंसालिया</w>":25095,"सेर्जा</w>":16468,"लक्ष":5156,"मण":6328,"जइन</w>":21963,"1968</w>":15537,"ऊँ</w>":11743,"आखैमोन</w>":21799,"सिदाव":29326,"mar</w>":25668,"सिनायाखै</w>":10292,"खावलाय</w>":5686,"लावबो</w>":10942,"मुंनि</w>":2213,"पुष्":24265,"मिथिंगा</w>":5852,"मिनिस्लुयै</w>":12688,"बुब्लिया</w>":9387,"मखʼजाथाव":15417,"गैयाब्लानो</w>":24738,"नायबिजिरनो</w>":7998,"ह्रि":28453,"थब":2645,"नखर":4577,"हौवाफ्रा</w>":17415,"गोनानि</w>":22483,"शान्तिपुरनि</w>":26476,"खामाखायनो</w>":27231,"पकेट</w>":12860,"मोनखांदों</w>":14513,"जेके":2325,"दानथाम</w>":11309,"लेण्डनि</w>":8176,"बाहागि":12290,"गोदाव":16262,"बेबादि":18858,"थोलायनायाव</w>":19668,"सख्रि</w>":28406,"गोसोम</w>":1935,"मोनबा</w>":3260,"थिमा</w>":29842,"खुवा</w>":9120,"te</w>":8923,"जारां</w>":9007,"नजा":886,"थैनानै</w>":5854,"हान्थि":11010,"मोगा":9587,"रोदायाव</w>":23538,"दोनहैनो</w>":19755,"बिबारनि</w>":4653,"दैदे":1338,"सारे":9032,"खन्थाइखौ</w>":17311,"दुथां</w>":8192,"फाननाय</w>":20218,"सम्पति</w>":20611,"थ्रोत</w>":20575,"नायबोला</w>":22619,"इज्जोतखौ</w>":27304,"थाखोमा":11865,"मोगथां":6740,"बांग":22221,"सोदेर":29680,"मिथिगोन</w>":7864,"फेन्दा</w>":12212,"साख्रिया</w>":29141,"अग्रिम</w>":15932,"मावनां</w>":14803,"जायामोन</w>":8277,"बायदोंमोन</w>":8598,"adverb</w>":27020,"जोगारना</w>":29921,"सोबानो</w>":22798,"भी":1807,"आलौ":7600,"सोबाय</w>":11064,"खाद</w>":18651,"बिथांआ</w>":11367,"गुरु":3403,"फ्रिजनि</w>":26170,"देरगा":4626,"बायानोसै</w>":15224,"पन्साय":26886,"बैफोर</w>":8653,"खोमादोंमोन</w>":20165,"मृना":21140,"थसुरिया</w>":28074,"लांखार":5828,"सानसेमानि</w>":13694,"दुंखांनानै</w>":24824,"होसिन</w>":22768,"बोख्ल":7129,"खोनानै</w>":3665,"दैखांनाय</w>":7840,"निया":1615,"सिडे":13049,"टुगी":20949,"car":27486,"थाफैबाय</w>":16190,"हादुंग्रा</w>":22570,"लियान</w>":15299,"रांखौबो</w>":19925,"बाग":4912,"न्द्रा":7809,"लियाबो</w>":7969,"मैदेरखौ</w>":21352,"एबसुवा</w>":7640,"बिधान</w>":14371,"गिदिंफिननानै</w>":25126,"फोथांनायनि</w>":23099,"टरिया":18381,"थांनायावनो</w>":14639,"प":101,")-</w>":11702,"न्दो</w>":2594,"x</w>":227,"बानान</w>":18559,"मोनथि":2835,"जोमखौ</w>":22909,"लाथाखानाय</w>":28666,"कन्ट्राक</w>":25850,"जिरात</w>":12459,"अखाफोरखौ</w>":25116,"फंबायाबो</w>":17084,"ज्यो":12481,"रुवाथिनि</w>":13638,"मजानानै</w>":18463,"बांग्रि":10213,"आइदिया":17015,"गोग्गा":17996,"बावनायनि</w>":16784,"डस</w>":12837,"गʼगोन</w>":24400,"जनसे</w>":20978,"mouse</w>":27561,"wil":8448,"ह्र":8494,"ural</w>":15918,"बाघ":28543,"स्रोन</w>":20436,"दैदेन्नाय</w>":15219,"बैसाङाव</w>":25347,"मिहिरखौ</w>":9282,"ब्लद</w>":4437,"मिथिहोयो</w>":23914,"मेने":3668,"जांख्रिखां":13744,"सिंथिंसो</w>":24641,"साफि":8534,"बायाबो</w>":13603,"दैदेनदोंमोन</w>":20336,"रावखान्थि</w>":6916,"फोजो":13157,"जाहोनावनो</w>":20314,"गिलासाव</w>":13802,"बिनायखौ</w>":28957,"धर्मे":11680,"सालाका":20945,"फासयनानै</w>":26974,"गैजारोङि</w>":15579,"आखाय":7349,"जानायसो</w>":25075,"सोनाब</w>":3333,"जात्रागाननि</w>":21165,"पांग":19625,"पार्लिया":21600,"अये</w>":27694,"लाबोगोदान</w>":24311,"मावग्रा</w>":3619,"ख्रु":1123,"थंखौ</w>":18400,"रेष्टु":14791,"फोथायथि</w>":17341,"मोनगʼ":29720,"संग्रा":6332,"जालांनानै</w>":18601,"बिग्राय</w>":22446,"सावफुं":14908,"फेर":3414,"बाल्":8502,"ोबोला</w>":28491,"बालाब":13823,"मोजांनि</w>":5351,"बारʼलाम्फा</w>":9467,"सिब्लाबो</w>":22631,"सत":14253,"जाखांनाय</w>":8103,"गाबज्रिहरो</w>":20627,"गोरानि</w>":6078,"हांगार</w>":4017,"खुबाय</w>":23264,"गोदाननो</w>":19727,"आबुं</w>":1915,"मोदाय</w>":6838,"जालʼ</w>":9006,"फोला":16509,"बुरखां":24973,"नोजोरखौ</w>":9856,"कृ":12801,"देरनानै</w>":4258,"दर्बा":3636,"गदों</w>":18341,"कल्":871,"बेनिखायनो</w>":1403,"नाय</w>":287,"मटर</w>":3052,"अलकेशनि</w>":11597,"हगारफिननाय</w>":25229,"नायग्रोयो</w>":29293,"नया":16051,"गुबुंले</w>":11684,"मोनथियो</w>":16422,"एम्ब":9497,"का":512,"लाबोयो</w>":3319,"भ्लादिमि":6109,"जानोलै</w>":22355,"साप्ला":22527,"निमावजा</w>":22874,"सुद</w>":22976,"देश":23279,"आघ":27704,"गोमाजानाय</w>":13595,"मुगाया</w>":16537,"सुगै</w>":22984,"थाबैनो</w>":3298,"सिलाखौ</w>":16327,"फराया":24013,"tele":14023,"होफाया":29630,"लाब्लाबो</w>":22258,"हाबहैबाय</w>":5524,"उदखार":15334,"मासिनि</w>":10991,"सोरांनो</w>":26159,"इला":27749,"गेम</w>":9716,"लोखो</w>":16644,"फिसायनि</w>":17969,"होबोगासिनो</w>":22789,"न्ज</w>":22597,"बिखं":20075,"दुरुंखौ</w>":26443,"फैथा</w>":14615,"अʼ</w>":3433,"सानजाहा</w>":7028,"बाहा":741,"अक</w>":27654,"थिङैनि</w>":11978,"आर्मि</w>":13782,"बेडिं</w>":22709,"फुननांगौ</w>":7652,"थामफै</w>":9855,"फिराय":16484,"ब्रह्मआ</w>":15422,"सुना</w>":11097,"।.....</w>":11816,"gen":18227,"नबथि":18079,"चीफ</w>":13760,"गाखौ</w>":2678,"लाखांबाय</w>":28637,"चौधुरीया</w>":11671,"500</w>":7039,"जायखिजाया</w>":5346,"मेल्ला</w>":23361,"द्लाब</w>":25637,"फोरबो":8154,"गʼदाया</w>":19950,"लक्ष्":8081,"खलथाया</w>":12458,"बेराम":8137,"राख":18583,"थादʼ</w>":12963,"वरि</w>":28365,"मार्क</w>":20722,"नायावनो</w>":1947,"गिनायबो</w>":19085,"उमु</w>":27784,"थुनलाइनि</w>":2455,"जय":3774,"गरनै</w>":15178,"नेगासिनो</w>":5851,"एरखांनाय</w>":13671,"फोरम":2268,"मजु":10182,"कान":14856,"मुंमाखौ</w>":13415,"बमाजों</w>":12865,"फारनिसारखौ</w>":26917,"दालाया</w>":29400,"रहर</w>":28309,"गोरोन्थिफोरखौ</w>":17672,"सʼना":6038,"सोमजियो</w>":6930,"गंफा</w>":4436,"गोथारि</w>":22488,"जौगानाय</w>":6716,"आखुनि</w>":2599,"फोरोंनो</w>":9321,"गाबखांदों</w>":19744,"खैनाशान्तिया</w>":9429,"दोनथुम":3745,"दुंदों</w>":24823,"स्नि</w>":2161,"लास</w>":16140,"गयथि</w>":25402,"सानगासिनो</w>":9694,"कामाननि</w>":19598,"खोमाखौ</w>":19123,"साखौ</w>":4063,"रामचिया":12703,"निप्रा":18975,"होलायनाय</w>":16393,"फैलाय</w>":4824,"थिखा":5809,"cor":15310,"ip</w>":27533,"लाफै</w>":28629,"पियना</w>":27034,"समायस्रीनि</w>":17300,"800</w>":21680,"बेंगाना</w>":26660,"ओंखारलांदों</w>":11271,"दिहुनना</w>":13566,"तमा":28038,"उदाया":20552,"ह":114,"मारोब्ला</w>":10993,"नोगोरारिफोरा</w>":15730,"जिनिसखौ</w>":13807,"ष्टेशनाव</w>":20616,"रामा":16155,"सावगारिखौ</w>":5526,"लाइनि</w>":5835,"जोनोमखौ</w>":20033,"गुसुवाव</w>":20588,"बारदाउ":19512,"बायदिखौ</w>":15169,"खां":419,"हमदोंमोन</w>":7849,"इन्द":18298,"बायैनो</w>":19254,"docum":25278,"मोसानाया</w>":20206,"गोजावलांबाय</w>":26514,"एम्फौ</w>":7992,"थांखिजों</w>":7602,"here</w>":18020,"गयो</w>":6314,"बुंनांगौब्ला</w>":16506,"सिनाय":1009,"नार्जि</w>":20511,"फैसाल":19133,"टाइ</w>":16781,"खरथेङा</w>":10076,"रिया</w>":763,"बेयाव</w>":1397,"करि":10140,"होनब्लानो</w>":7855,"हेंथायाव</w>":17199,"गोथे":22477,"आदानाव</w>":17541,"दारखौ</w>":9622,"दाब्ला</w>":14455,"निलʼ</w>":4601,"जग्रा</w>":10885,"बेदद</w>":4647,"राइखौ</w>":12189,"बये":24364,"प्रदिपनि</w>":26745,"भाय":22074,"मेशन</w>":19292,"रोंखानाय</w>":24808,"दोमो</w>":14671,"तर":21989,"बिलाइ":1686,"गाम्बारिया</w>":9373,"हाबाबो</w>":13427,"सलʼखौनो</w>":19621,"थिक</w>":2478,"सनेट</w>":28432,"ख्लायाव</w>":15038,"दोनहां</w>":16913,"बोखो":11982,"आथोन":14119,"मोब्लिबारि</w>":10701,"मानबायनो</w>":23479,"थाया":1400,"मोग":2699,"बिब्दिनो</w>":1815,"बुङाबानो</w>":11451,"गायैबो</w>":19761,"टल":21975,"फरायनाया</w>":24015,"थैखो</w>":14916,"्दा</w>":28495,"मोन्नायखाय</w>":19825,"बादिय":8683,"आगान":4568,"सोरबा":6631,"70":12742,"गुन्द":4703,"फिनबा</w>":24036,"अरुनमोना</w>":17322,"टारनिफ्राय</w>":20359,"इन्टि":24993,"थालांनो</w>":28837,"mother</w>":17910,"बाया</w>":2858,"गार</w>":1145,"निकल":29814,"डजनसे</w>":28032,"बामनायाव</w>":26428,"bi":10838,"पजों</w>":12857,"गांथाम</w>":13491,"थानजों</w>":28839,"बाब":22216,"हेन":23691,"गसं":1199,"गʼ":796,"मोनलाया</w>":29721,"घ":83,"उन्":8456,"भबानि":22079,"bel":27481,"किट</w>":15107,"पिस्ट":20028,"गुरफा</w>":20372,"माथाउरी</w>":18083,"बुख्रुब</w>":22738,"मोजांब्ला</w>":11511,"आफा":611,"देरबाय</w>":6929,"थिखां":18986,"बुंलायबाय</w>":23077,"दोहोन":23297,"सानस्रिजों</w>":26357,"सिगां</w>":967,"सासेजों</w>":20227,"धर</w>":5939,"अनजिमा</w>":5738,"खारखुमा":23581,"लाइटाव</w>":16736,"मेन्":4241,"थैजों</w>":7181,"हसपिटा":21312,"दुर":4082,"खफʼनि</w>":18058,"बारगासे</w>":23711,"बुजिया":8558,"कुम्भ</w>":11346,"बरमा</w>":6901,"खौरांलाइ</w>":17352,"सानबोलाउ":4890,"थावामोन</w>":18649,"बोरगा</w>":23899,"ते</w>":10889,"उन्दुनायनि</w>":24492,"बादाम</w>":26250,"रानाव</w>":28686,"मोनासो</w>":17029,"ियावबो</w>":6905,"गोजो":878,"वारेन्द्र</w>":23408,"लाबोफानो</w>":19884,"जायैनो</w>":12138,"थालाय":22370,"बिथांखिया</w>":24563,"नायखाङो</w>":29275,"खिफि</w>":9725,"होखादों</w>":14495,"सिखौ</w>":1918,"एंगो":9363,"दामनानै</w>":12415,"मोजांथार</w>":11512,"रखौनो</w>":22105,"जनाय</w>":7353,"सोमब्रʼ":14977,"my":18236,"खानानि</w>":18658,"लेवा</w>":12046,"उन्दैनिफ्राय</w>":7295,"इंख्रियाव</w>":20171,"उन्दुलाङो</w>":13496,"बोसोर":1709,"एसेयावनो</w>":4438,"बिद</w>":12977,"मालाइ</w>":16242,"गावनायनि</w>":19259,"बैसोआ</w>":5719,"भे":1849,"मोनब्लासो</w>":29743,"सानसेयाव</w>":17434,"मानोबो</w>":19878,"मोनस्लाबनाय</w>":29785,"बावदोंसो</w>":23732,"थाखायनो</w>":1636,"आले</w>":3245,"जोदलाब":29923,"बोसोरनिफ्राय</w>":20430,"बांगाल":25759,"जालांनायनि</w>":25479,"बोल</w>":14539,"इलु</w>":21823,"कयानीया</w>":27332,"साम":1605,"हालुवा</w>":7411,"खाय</w>":444,"बाहायथि</w>":13482,"नोबा</w>":2659,"दौदिनि</w>":15157,"क्लरʼ":17475,"गुमग्रा</w>":23025,"ज्राब</w>":5126,"खिबु":8624,"स्व":2808,"गरन्थ":8753,"थांसिगोन</w>":11134,"क्रमʼ":20649,"मुलिखौ</w>":5067,"देलायग्रा</w>":23291,"हिन्जाव":1042,"नावसो</w>":9546,"बोरायानो</w>":19640,"र्गो":14684,"बाबुनो</w>":20710,"बरʼवा</w>":3185,"दुया":6893,"फिसाखौ</w>":2811,"मोनलायनायनि</w>":9986,"बथलखौ</w>":7613,"दोनखानाय</w>":9211,"साब</w>":6839,"उलाफादनि</w>":17913,"हनायखौ</w>":18508,"गादब":29244,"अग":14094,"होदोंब्ला</w>":29644,"जाफेराखै</w>":16174,"बुनानै</w>":4695,"आवलाय</w>":17116,"सोर्जि":11607,"फारियै</w>":2968,"बेखि</w>":10303,"गिसे</w>":19081,"बेरगʼ</w>":24610,"बोथि":5810,"अरगें</w>":12333,"बेहादि</w>":29487,"थारुन</w>":13925,"बादाय":4851,"नाउ</w>":22187,"िय":295,"दानांगौवा</w>":29436,"बेफारिया</w>":3063,"जिय":18362,")।</w>":1734,"जिबनि</w>":11475,"फेसा</w>":13355,"अबिना":5575,"ओंखारदोंमोन</w>":11270,"ग्लांबाय</w>":21181,"उजियाखै</w>":21845,"लालाय</w>":18564,"\u001f":1,"मुकुट</w>":12665,"आनछा":25575,"जखाइ</w>":27991,"आबहावा":11330,"दालायाव</w>":11043,"महा</w>":18460,"कम्पि":1247,"मुंबो</w>":19806,"जेब्लानो</w>":14553,"दाउवा</w>":24941,"आजावनो</w>":6769,"गोथौवै</w>":9403,"बादि</w>":425,"फिफ्टि</w>":21627,"फोरा":1075,"पʼ":4676,"गसाइया</w>":8017,"हिस्रि</w>":8218,"लिंहरनानै</w>":8304,"नुफिन":16656,
[...]
